!
"
#
##0
##1
##10
##11
##12
##13
##14
##15
##16
##17
##18
##19
##2
##20
##21
##22
##23
##24
##25
##26
##27
##28
##29
##3
##30
##31
##32
##33
##34
##35
##36
##37
##38
##39
##4
##40
##41
##42
##43
##44
##45
##46
##47
##48
##49
##5
##50
##51
##52
##53
##54
##55
##56
##57
##58
##59
##6
##60
##61
##62
##63
##64
##65
##66
##67
##68
##69
##7
##70
##71
##72
##73
##74
##75
##76
##77
##78
##79
##8
##80
##81
##82
##83
##84
##85
##86
##87
##88
##89
##9
##90
##91
##92
##93
##94
##95
##96
##97
##98
##99
$
%
&
'
(
)
*
+
,
-
.
/
0
00
000
002
007
01
01424
01484
02
022
03
03477
04
044
05
06
07
08
09
1
10
100
1000
1001
101
1014
1018
102
1020
1024
1025
103
104
1043
1046
105
1050
1054
106
1066
107
1071
1075
108
1080
1081
1085
109
11
110
1100
1102
111
112
1122
113
114
115
1150
116
1167
117
1170
1176
1177
118
1180
1185
119
1198
12
120
1200
1202
1203
1204
121
1214
1215
122
1220
1226
1227
123
1230
1231
124
1240
1241
125
1250
1254
1255
1259
126
1260
1261
1265
127
1270
1278
128
1280
1282
129
1291
1295
13
130
1300
1301
1302
1308
1309
131
1310
1312
1313
1314
1315
132
1321
1328
133
1330
1335
1337
134
1346
1347
1348
135
1350
1353
1356
1359
136
1367
137
1371
1378
138
1380
1386
1388
1389
139
1394
1397
14
140
1400
1401
141
1410
1414
1415
142
1420
143
1430
1435
1436
1437
144
1444
145
1450
1451
1452
1453
1456
1458
146
1460
1463
1464
1469
147
1472
1473
1474
1475
1476
1477
1478
148
1480
1481
1482
1483
1485
1488
149
1490
1492
1493
1494
1495
1497
1498
1499
15
150
1500
1501
1502
1503
1504
1506
1507
1508
151
1510
1511
1512
1513
1514
1515
1516
1517
1519
152
1520
1521
1523
1524
1525
1526
1527
1528
1529
153
1530
1531
1532
1533
1535
1536
1537
1538
154
1540
1541
1542
1543
1545
1547
1548
155
1550
1552
1553
1554
1555
1559
156
1560
1561
1562
1563
1564
1566
1569
157
1570
1571
1572
1575
1576
1578
1579
158
1580
1582
1588
1589
159
1592
1593
1594
1595
1596
1597
1598
16
160
1600
1601
1602
1603
1605
1606
1607
1608
1609
161
1610
1611
1613
1616
1617
1618
1619
162
1620
1621
1622
1623
1624
1625
1626
1628
1629
163
1630
1631
1632
1634
1635
1636
1637
1638
1639
164
1640
1641
1642
1645
1647
1648
1649
165
1650
1651
1652
1653
1655
1656
1657
1658
1659
166
1660
1661
1663
1664
1665
1666
1668
1669
167
1670
1672
1676
1677
1679
168
1680
1681
1682
1683
1685
1686
1687
1688
1689
169
1690
1691
1692
1693
1694
1696
1697
1698
1699
17
170
1700
1703
1704
1705
1706
1707
1708
1709
171
1710
1711
1712
1713
1714
1715
1716
1717
1718
1719
172
1720
1721
1722
1723
1724
1725
1726
1727
173
1730
1731
1732
1733
1734
1735
1738
1739
174
1740
1741
1742
1743
1744
1745
1746
1747
1748
1749
175
1750
1751
1752
1753
1754
1755
1756
1757
1758
1759
176
1760
1761
1762
1763
1764
1765
1766
1767
1768
1769
177
1770
1771
1772
1773
1774
1775
1776
1777
1778
1779
178
1780
1781
1782
1783
1784
1785
1786
1787
1788
1789
179
1790
1791
1792
1793
1794
1795
1796
1797
1798
1799
18
180
1800
1801
1802
1803
1804
1805
1806
1807
1808
1809
181
1810
1811
1812
1813
1814
1815
1816
1817
1818
1819
182
1820
1821
1822
1823
1824
1825
1826
1827
1828
1829
183
1830
1831
1832
1833
1834
1835
1836
1837
1838
1839
184
1840
1841
1842
1843
1844
1845
1846
1847
1848
1849
185
1850
1851
1852
1853
1854
1855
1856
1857
1858
1859
186
1860
1861
1862
1863
1864
1865
1866
1867
1868
1869
187
1870
1871
1872
1873
1874
1875
1876
1877
1878
1879
188
1880
1881
1882
1883
1884
1885
1886
1887
1888
1889
189
1890
1891
1892
1893
1894
1895
1896
1897
1898
1899
19
190
1900
1901
1902
1903
1904
1905
1906
1907
1908
1909
191
1910
1911
1912
1913
1914
1915
1916
1917
1918
1919
192
1920
1921
1922
1923
1924
1925
1926
1927
1928
1929
193
1930
1931
1932
1933
1934
1935
1936
1937
1938
1939
194
1940
1941
1942
1943
1944
1945
1946
1947
1948
1949
195
1950
1951
1952
1953
1954
1955
1956
1957
1958
1959
196
1960
1961
1962
1963
1964
1965
1966
1967
1968
1969
197
1970
1971
1972
1973
1974
1975
1976
1977
1978
1979
198
1980
1981
1982
1983
1984
1985
1986
1987
1988
1989
199
1990
1991
1992
1993
1994
1995
1996
1997
1998
1999
2
20
200
2000
2001
2002
2003
2004
2005
2006
2007
2008
2009
201
2010
2011
2012
2013
2014
2015
2016
2017
2018
2019
202
2020
2021
2022
203
204
205
2050
206
207
208
209
21
210
2100
211
212
213
214
215
216
217
218
219
22
220
2200
221
222
223
224
225
226
227
228
229
23
230
2300
231
232
233
234
235
236
237
238
239
24
240
2400
241
242
243
244
2440
245
246
247
248
249
25
250
2500
251
252
253
2533
254
255
256
257
258
259
26
260
2600
261
262
263
264
265
266
267
268
269
27
270
2700
271
272
273
274
275
276
277
278
279
28
280
2800
282
283
284
285
286
287
288
289
29
290
2900
291
292
293
294
295
296
297
298
299
3
30
300
3000
301
302
303
304
305
306
307
308
309
31
310
3100
311
312
313
3131
314
315
316
317
318
319
32
320
3200
321
322
323
324
325
326
327
328
329
33
330
3300
331
332
333
334
335
336
337
338
33812
34
340
3400
341
342
343
344
345
346
347
348
349
35
350
3500
351
352
353
354
355
356
357
358
359
36
360
3600
3603
361
362
363
364
365
366
367
368
369
37
370
371
372
373
374
37491
375
376
377
378
379
38
380
3800
381
382
383
384
385
386
387
388
389
39
390
3900
391
392
393
394
395
396
399
4
40
400
4000
401
402
403
404
405
4051
406
407
408
41
410
411
412
413
414
415
416
417
418
419
42
420
421
422
423
424
425
426
427
428
429
43
430
4300
431
432
434
435
436
437
439
44
440
441
442
443
444
445
446
447
449
45
450
4500
451
452
453
454
455
456
457
458
46
460
461
462
463
464
465
466
467
468
469
47
470
471
472
473
474
475
476
477
478
479
48
480
481
4810
482
483
484
485
486
487
489
49
490
491
492
493
494
495
496
497
498
499
5
50
500
5000
502
503
504
505
506
507
508
509
51
510
511
512
513
514
515
516
51697
517
518
52
520
5200
521
522
523
524
525
527
528
529
53
530
531
532
534
536
537
538
539
54
540
541
542
544
545
546
54763
548
549
55
550
5500
551
553
555
559
56
560
562
563
565
567
568
57
570
571
572
575
576
577
578
579
58
580
582
585
586
587
588
59
590
591
592
593
595
596
597
598
599
6
60
600
6000
601
602
604
605
608
61
610
61001
611
612
615
617
618
62
620
622
623
625
626
627
628
63
630
631
632
635
636
639
64
640
641
642
643
647
648
649
65
650
6500
651
652
653
654
655
656
657
658
66
661
663
667
67
670
674
678
679
68
680
681
682
683
69
691
692
695
698
699
7
70
700
7000
701
704
7049
708
71
711
714
715
717
718
72
720
721
724
725
726
727
72910
73
730
732
737
739
74
740
741
745
747
748
749
75
750
7500
751
753
754
755
756
759
76
760
761
762
763
765
768
769
77
770
7700
7701
7705
771
772
773
774
775
776
777
778
779
78
780
782
785
7857
787
7873
788
789
7892
79
790
791
7917
792
793
794
795
796
797
798
799
7995
8
80
800
8000
8001
801
8012
8018
802
803
8031
804
8053
8062
807
8078
81
810
8100
8108
811
812
813
8131
814
815
816
817
82
820
821
822
8233
8252
8258
8260
8263
8274
829
83
830
8300
832
8329
833
8334
835
8354
836
8376
839
84
840
841
842
843
84376
844
846
849
85
850
8500
855
86
861
86153
865
87
870
871
873
874
876
877
879
88
880
882
883
884
885
886
88619
88680
887
888
89
890
89104
892
89331
894
89438
896
89678
89691
897
89771
898
9
90
900
9000
91
911
912
92
921
921333
924
925
926
926901
93
930167
930908
933203
937872
94
940
95
950
951
955
96
960
961
962
965
97
972
975
976
978
98
981
982
987
99
997
:
;
<
=
>
?
@
\
^
_
`
a
aa
aachen
aachener
aara
aarau
ab
abandun
abanduna
abandunada
abandunar
abatter
abatti
abattida
abattidas
abazia
abba
abbasids
abbey
abbondanza
abbondio
abc
abd
abdicaziun
abditga
abditgar
abeba
abel
abels
abendlandes
abenteuer
aber
abessinia
abgerufen
abhandlungen
abies
abilitad
abilitads
abingdon
abiotics
abita
abitada
abitadas
abitadi
abitadis
abitads
abitant
abitantas
abitants
abitar
abitava
abitavan
abitaziun
abitaziuns
abitur
abla
ablas
aboli
abolida
abolids
abolir
aboliziun
aboriginal
aborigines
aborigins
about
abraham
abrams
abreviaziun
abrupta
abruzzas
absatzfo
abschied
absent
absenza
absolut
absoluta
absolutamain
absolutas
absolutismus
absolutissem
absolutistic
absolutistica
absolutisticas
absolutistics
absolver
absolvi
absorba
absorbada
absorbadas
absorbar
absorbescha
absorbeschan
absorpziun
abstract
abstracta
abstractas
abstracts
abstraha
abu
abundanza
abunents
abus
ac
acade
academia
academias
academic
academica
academics
academy
accademia
accelera
accelerada
accelerar
acceleraziun
accent
accents
accentua
accentuada
accentuadas
accentuads
accentuar
accentuava
accentuavan
accentuaziun
accentuescha
accentueschan
accepta
acceptada
acceptadas
acceptads
acceptan
acceptanza
acceptar
access
accessibel
accessibels
accessibla
accessiblas
accessorics
accident
accidents
accoglientscha
accommodaziun
accomodaziun
accord
accorda
accordada
accordadas
accordanza
accordar
accords
accreziun
accumpagna
accumpagnada
accumpagnadas
accumpagnader
accumpagnaders
accumpagnads
accumpagnament
accumpagnar
accumpli
accumplida
accumpliment
accumplir
accumpogna
accumpognan
accumular
accumulatur
accumulaturs
accumulaziun
accusa
accusads
accusaziun
accusaziuns
acer
acetat
acf
achemenids
achenas
acheulean
achim
achterhuis
acid
acidics
acids
ackermann
acla
aclas
aclaun
aclauns
aconcagua
acquisiziun
acquisiziuns
acquist
acquista
acquistada
acquistadas
acquistads
acquistar
act
acta
actas
action
activ
activa
activamain
activas
activists
activitad
activitads
activiteds
activity
activs
acts
actual
actuala
actualas
actualisada
actualisads
actualitad
actualmain
actuals
actuar
actur
actura
acturas
acturs
acustic
acustica
acusticas
acustics
acuta
aczias
acziun
acziunara
acziuns
ad
ada
adalbert
adam
adams
adascus
adatta
adattada
adattadas
adattads
adattar
adattaziun
adattaziuns
adatteschan
adda
addis
adelaide
adelbert
adelheid
ademplescha
adempleschan
adempli
ademplidas
ademplir
ademplivan
adequat
adequata
aderent
aderents
aderenza
adesiun
adf
adherents
adina
adisch
adjectiv
adjectivs
adler
admess
admessa
admessas
admin
administra
administrada
administradas
administrads
administrar
administration
administrativ
administrativa
administrativamain
administrativas
administrativs
administratur
administraturs
administraziun
administraziuns
admira
admiral
admirar
admiratur
admirava
admiraziun
admissiun
admoni
adn
ado
adolf
adolph
adolphe
adonta
adopta
adorno
adossa
adossada
adressa
adressas
adressat
adria
adrian
adrianopel
adriatica
adu
adumbatten
aduraziun
advaita
advanced
adventists
adventure
adventures
adverbs
adversari
adversaria
adversarias
adversaris
advocat
advocats
ae
aeneis
aeribus
aerosols
aetas
af
affairs
affar
affars
affecziun
affera
afferas
affiliada
affiliadas
affinitad
affirma
affischa
affluent
affluents
affluenza
afflussiun
affon
affons
affonza
afganistan
afghanistan
aforissem
aforissems
africa
african
africana
africanas
africans
afrika
afrikaans
afroamericans
after
ag
against
agamemnon
age
agen
agency
agens
agent
agents
agentura
agenturas
ages
agescha
ageschan
ageschian
agi
agid
agids
aging
agir
agitada
agitatorica
agitaturs
agitaziun
agiunt
agiunta
agiuntada
agiuntadas
agiuntads
agiuntar
agiuntas
agiva
agivan
agl
aglomeraziun
aglomeraziuns
agne
agnes
agno
ago
agrar
agrara
agraras
agrars
agravada
agreement
agressiun
agressiuns
agressiv
agressiva
agressivas
agricola
agricul
agricula
agriculas
agriculs
agricultura
agu
aguirre
ahmed
ai
aifer
aigle
aim
aimara
aims
aint
ainten
air
aire
aires
airi
airlines
airolo
airport
airr
airways
ais
aise
aisne
aissa
aissas
ak
akademie
akademischer
akkad
akten
aktuell
aktuelle
al
ala
alabama
alain
alan
alarm
alas
alasca
alb
alba
alban
albanais
albanaisa
albania
albanien
albany
alber
albert
alberta
alberto
albertus
albiert
albierts
albrecht
albula
albulapass
album
albums
alcohol
alcoholicas
alcuin
aldershot
aldo
alea
aleman
alemans
alembert
alert
alessandro
aletsch
alex
alexander
alexandra
alexandre
alexandria
alexios
alexis
alfa
alfabet
alfabetica
alfabetisaziun
alfabets
alfons
alfonso
alfred
algarve
algas
algeria
algier
ali
alias
alice
aliena
alienada
alienaziun
alighieri
align
alignbars
alimentar
alimentaras
alimentaziun
aliments
alin
alinea
alive
alize
all
alla
allah
allan
alle
allega
allegada
allegar
alleghescha
allegorias
allegorica
allegra
allen
aller
allergias
alles
allevament
allevar
allevaturs
allga
allgemeine
allgemeinen
allgemeiner
allia
alliada
alliadas
alliads
alliance
allianza
allianzas
alliar
allison
allocuziun
allontana
allontanada
allontanadas
allontanads
allontanar
allontanescha
alloscha
alloschi
alltag
allura
allusiun
allusiuns
alluvialas
alluvials
allzumenschliches
almain
almosnas
alni
alnobetula
alnus
alois
alonso
aloys
alp
alpen
alpes
alpestra
alpha
alphons
alpidica
alpin
alpina
alpinas
alpine
alpinist
alpinists
alpins
alpinum
alpium
alpo
alps
alpsu
als
alsazia
also
alt
alta
altai
altar
altars
altdorf
alte
alten
alter
altern
alternanta
alternantas
alternativa
alternativas
alternative
altertumskunde
altes
altezia
althing
altishofen
alto
altona
altstadt
aluminium
alura
alv
alva
alvagni
alvas
alvaschagn
alventa
alvra
alvs
alwin
am
ama
amadeus
amant
amanta
amar
amaras
amatur
amaturs
amazonas
amazone
amazonia
amban
ambans
ambassada
ambassadas
ambassadur
ambassadurs
ambiaint
ambient
ambients
ambivalent
ambivalenta
ambiziun
ambiziuns
ambizius
ambiziusa
ambra
amchitka
amdo
ame
amen
amenduos
america
american
americana
americanas
americans
amerika
amerikanische
amerikanischen
amerikas
amez
amfibis
amfiteater
amforas
amharic
ami
amia
amiaivla
amias
amicabla
amicezia
amicizia
amiens
amiez
amis
amitg
amitga
amitgs
ammann
ammianus
amnestia
amnesty
amniots
amo
among
amor
amore
amour
ampezzo
amplificatur
amplificaturs
amplificaziun
amplifitga
amplifitgada
amplifitgar
amplituda
amprema
amsterdam
amt
amur
an
ana
analas
analfabets
analisa
analisar
analisas
analisescha
analitic
analitica
analog
analogia
analyse
analysen
analysis
anarchissem
anarchisticas
anarchistics
anarchists
anastasius
anatolia
anatomia
anatomic
anatomica
anatomicas
anatomics
anatomie
anatomy
anavos
anc
ancash
ancashino
ancien
ancient
ancona
and
andalus
andalusia
andament
andas
andeer
andere
anderen
andermatt
andern
anders
andersen
anderson
andetg
andetga
andetgamain
andiast
andorra
andorran
andorrana
andorranas
andorrans
andra
andre
andrea
andreas
andrei
andrej
andrew
andri
android
andrzej
ane
anecdotas
anels
anemona
anemonas
anen
anfa
anfang
anfignen
anfla
anflar
anflau
angela
angeles
angelika
angelo
angels
angenendt
angerer
angermu
angewandte
anghel
anghels
angiospermae
anglia
anglicana
anglicans
anglo
anglosaxon
anglosaxona
anglosaxonas
anglosaxons
angola
angrenzende
angrenzender
angst
anguilla
angul
anguls
anguscha
anhalt
anima
animada
animadas
animads
animal
animalet
animalets
animalia
animalics
animals
animar
animaziun
anita
anjou
ankara
anmerkungen
ann
anna
annada
annalas
annalen
annales
annals
annan
anne
annecta
annectada
annectads
annectar
annefrank
anneliese
annetta
annette
annexiun
annexiuns
annie
anniversari
anniviers
anno
annot
annotaziun
annotaziuns
annual
annuala
annualas
annualmain
annuals
annulla
annullar
annunzia
annunziada
annunziads
annunziar
anomalias
anonim
anonima
anora
anr
ans
anselm
ansiels
ansprenger
anspruch
anstalt
ant
antalya
antarctic
antarctica
ante
antecessur
antecessura
antecessurs
antenat
antenats
antenna
antennas
anteriur
anteriura
anteriuras
anteriurs
anthocerotophyta
anthology
anthony
anthropologie
anthropology
anti
antic
antica
anticas
antichrist
anticipa
anticipada
anticipadamain
anticipescha
anticommunissem
anticommunistica
antics
antidemocratica
antifaschistica
antigiudaissem
antigone
antigua
antike
antiken
antillas
antiochia
antiqua
antiquada
antiquadas
antiquads
antiquitads
antiquity
antirepublicana
antisemitica
antisemiticas
antisemitissem
antiwar
anto
antognoni
antoine
antoinette
antologia
anton
antonescu
antoni
antonie
antonio
antonius
antony
antropogenas
antropolog
antropologia
antropologica
antruras
antwerpen
anzeiger
anzi
ao
aosta
apaina
apartheid
aparti
apel
apenninas
apocalipsa
apocalypse
apollo
aposta
apostel
apostels
apostolic
apostolica
apostolicas
appalachas
apparat
apparats
apparatura
apparaturas
apparent
apparenta
apparentamain
apparentas
apparents
apparientscha
apparientschas
appartegna
appartegnair
appartegnan
appartegnent
appartegnentas
appartegneva
appartegnevan
appartegni
appartegnientscha
appel
appella
appellar
appellaziun
appellescha
appels
appendix
appendixs
appenzell
applaus
apple
applicaziun
applicaziuns
applitga
applitgada
applitgadas
applitgads
applitgar
applitgescha
applitgeschan
applitgond
apport
apprezia
appreziada
appreziava
approach
approfunda
approfundar
appropria
appropriar
appropriaziun
approva
approvada
approvar
approvaziun
approvescha
approximativa
approximativamain
appunta
april
apsida
apuri
aquaduct
aquin
aquitania
ar
ara
arab
araba
arabas
arabia
arabica
arabs
arader
arago
aragon
aragonia
arameic
aran
arar
arawak
arawaks
arbaja
arbeit
arbeiten
arbeitenden
arbeiter
arbeiterbewegung
arbeiterpartei
arber
arbiter
arbiters
arbitrara
arbitraria
arbitrariadad
arbitrars
arbon
arc
arcaic
arcaica
archa
archaeological
archaeology
arche
archeolog
archeologia
archeologic
archeologica
archeologicamain
archeologicas
archeologics
archeologs
archetips
archiduca
archipel
architect
architectonic
architectonica
architectonicamain
architectonicas
architectonics
architects
architectura
architecture
architektur
archiv
archivari
archivaris
archive
archives
archivs
archuvestg
archuvestgieu
archuvestgs
arctic
arctica
arcticas
arcunada
arcunadas
arcunar
ard
ardennas
ardent
arder
ardez
ardiment
are
area
areal
areals
areas
areguard
arena
arendt
argent
argentin
argentina
argentinas
argentinia
argentins
argient
argovia
argument
argumenta
argumentar
argumentaziun
argumentaziuns
argumentescha
argumenteschan
arguments
ari
aria
arians
ariaziun
aric
arica
arics
arid
arillus
aris
aristide
aristocrat
aristocrata
aristocratic
aristocratica
aristocraticas
aristocratics
aristocrats
aristocrazia
aristoteles
arizona
arjuna
arkansas
arlesheim
arma
armada
armadas
armads
armament
armas
armaziun
arme
armee
armen
armenia
armens
arments
armia
armin
armistizi
armon
armonia
armonias
armonica
armonisar
arms
armstrong
army
arnd
arndt
arne
arnica
arnicae
arnim
arno
arnold
arom
aroma
aromas
aromuns
arosa
arpa
arpanet
arpas
arpret
arranschada
arranschads
arranschament
arranschaments
arranschar
arrest
arresta
arrestada
arrestads
arrestar
arrestaziun
arrestaziuns
arriv
arriva
arrivada
arrivadas
arrivads
arrivan
arrivar
arrivava
arrivavan
arrivia
arrivond
ars
arsacids
arschiglia
arschiglius
arsenal
arsentadas
art
artaxerxes
arte
artefacts
artemis
arten
artg
artget
artgists
artgs
arthur
artichel
artichels
artifizial
artifiziala
artifizialas
artifizials
artigel
artigliaria
artikel
artisanadi
artisanala
artisanalas
artisanat
artist
artista
artistic
artistica
artisticas
artistics
artists
artitgel
artitgels
artois
artropods
arts
artschaiva
artur
aru
aruba
arvieut
arvn
as
ascender
ascendi
ascension
ascensiun
ascensur
ascensurs
ascesa
ascetics
asch
ascha
aschaffenburg
aschi
aschia
aschieu
aschkenasim
ascoli
ascona
asen
asens
aserbaidschan
aserbeidschan
asfaltadas
asfaltads
asia
asian
asiatic
asiatica
asiaticas
asiatics
asiats
asien
asil
asimetrica
askeberg
asp
aspect
aspectativa
aspectativas
aspectatur
aspectaturs
aspects
aspekte
aspirar
aspirava
aspiravan
aspiraziun
aspiraziuns
asr
assagl
assagli
assaglir
assagls
assamblea
assambleas
assassin
assassina
assassinads
assassinar
assassinat
assassinats
assassins
assedi
assedia
assen
assessment
assessurs
assicuranza
assicuranzas
assimilads
assimilaziun
assiria
assiric
assirs
assistent
assistents
assistenza
assisti
associa
associada
associadas
associads
associar
associated
association
associazione
associaziun
associaziuns
asteroid
asteroids
astga
astgan
astrid
astronautica
astronauts
astronom
astronomia
astronomic
astronomics
astronoms
asturia
at
atatu
ateissem
ateists
atelier
atgna
atgnadad
atgnadads
atgnamain
atgnamein
atgnas
athen
athena
atipic
atlanta
atlantic
atlantica
atlas
atlet
atletica
atlets
atman
atmosfera
atmospheric
atoll
atom
atomar
atomara
atomaras
atomic
atomicas
atoms
atp
atras
atrium
atrocitads
atschal
atta
attaschadadad
attatga
attatgada
attatgader
attatgaders
attatgads
attatgan
attatgar
attatgas
attempads
attent
attentaders
attentat
attentats
attents
attenziun
atterament
atterrament
atterrar
attest
attesta
attica
attira
attiran
attractiv
attractiva
attractivas
attractivitad
attractivs
attracziun
attracziuns
attrair
attratg
attribuescha
attribueschan
attribui
attribuida
attribuidas
attribuids
attribuir
attribuiva
attribut
attributs
attribuziun
attribuziuns
atun
au
aua
aual
auals
auas
auca
auch
aucuparia
aud
auda
audan
aude
audienza
audio
auditiv
auditiva
auditivs
auditori
auditur
auditurs
audrey
auf
aufbau
aufbruch
aufkla
auflage
auflo
aufsa
aufstieg
auftrag
aufzeichnungen
aug
augment
augmenta
augmentada
augmentadas
augmentads
augmentan
augmentar
augmentia
augsburg
augsburger
augst
august
augusta
auguste
augusti
augustin
augustinus
augustus
aula
ault
aulta
aunc
auncha
aunjetitz
auns
aunz
aur
aura
aurea
aurel
aurelian
aurelius
aurignacien
aus
ausbreitung
auschwitz
ausgabe
ausgang
ausgewa
ausla
ausstellung
austerlitz
austin
australia
australian
australiana
australianas
australians
australien
australopithecus
austrasia
austria
austriac
austriaca
austriacas
austriacs
auswa
aut
auta
autalpinas
autamain
autas
autcumissariat
autentica
autenticitad
autentics
auter
auters
autezza
autezzas
authority
autischem
autmedieval
auto
autobiografia
autobiograficas
autobiography
autocratic
autoctona
autoctonas
autoctons
autodefensiun
autodenominaziun
autodeterminaziun
autoenvidada
autoimpollinaziun
automatic
automatica
automaticamain
automobil
automobils
autonom
autonoma
autonomamain
autonomas
autonomia
autonoms
autoprovediment
autoren
autorisa
autorisaziun
autoritad
autoritads
autoritar
autoritara
autoritarissem
autoritars
autos
autostrada
autostradas
autra
autramain
autras
auts
auttradiment
autur
autura
auturas
auturs
aux
auxiliar
auxiliara
auxiliaras
auxiliars
auza
auzada
auzadas
auzament
auzan
auzar
außenpolitik
außenwirtschaft
av
avain
avaina
avainas
avair
avais
avaiva
aval
avalokiteshvara
avant
avantatg
avantatgs
avantgarda
avantmezdi
avantterren
avanza
avanzada
avanzadas
avanzads
avanzament
avanzar
avanzavan
avars
avat
avats
avaunt
avdants
avdanzas
avdaunts
ave
avec
avegnir
avel
avellino
avenches
avend
aventura
aventuras
aventures
avenue
aversiun
avert
averta
avertadad
avertamain
avertas
averteschan
averti
avertiment
avertiments
avertir
averts
avertura
averturas
avery
avess
avessan
avessi
avev
aveva
avevan
avevi
aviarta
aviatic
aviatica
aviaticas
aviaziun
aviert
avieuls
aviez
aviezs
avignon
avis
avisa
avischina
avischinada
avischinads
avischinan
avischinar
avischinaziun
avischinaziuns
aviun
aviuns
aviv
avla
avon
avra
avran
avrapista
avras
avrigl
avril
avrir
avuga
avugadia
avunda
avuost
avust
award
awards
awaren
away
axa
axas
axel
axiom
axioms
ayrton
az
azan
azoras
azov
aztecs
azur
b
ba
bab
baba
babel
babetta
babeuf
babilon
babilonia
babilonic
babnoss
babs
bach
bachelor
bachrach
back
bacon
bacteria
bacterias
bad
bada
badaisa
baden
badia
badugn
badugns
baez
bagdad
baghegiar
bahaissem
bahamas
bahia
bahn
bahrain
baikal
bain
bainbaud
baininqual
bainprest
bains
bainspert
bainstant
bainstanta
bainstantas
bainstants
bainstanza
bainstar
bainvegni
bainvis
bainvulent
bainvulenta
baiva
baivan
baiver
baja
bajegia
bajegiada
bajegiar
bajetg
bajetgs
baker
baku
bakunin
bal
balances
balaton
balcan
balearas
balena
balenas
balkan
balkans
ball
balla
ballabasket
ballada
balladas
ballamaun
ballanataziun
ballantscha
ballape
ballapei
ballapeist
ballarait
ballas
ballet
balthasar
baltic
baltica
balticas
baltics
balticum
baltimore
baltramieu
baluschek
balzer
balzers
bamberg
banadetg
banat
banc
banca
bancar
bancas
banchier
banchiers
bancnota
bancnotas
banco
bancrut
bancs
band
banda
bandas
bande
bandegia
bandegiada
bandiera
bandieras
bandischa
bandischada
bandischads
bandischar
bandits
bands
banduna
bandunada
bandunadas
bandunads
bandunan
bandunar
bandunau
bangkok
bangladesch
banja
bank
bantu
bao
bap
baptist
baptiste
baptists
bar
bara
baraccas
barack
baras
barat
baratta
barattan
barattar
barba
barbara
barbarossa
barbars
barbet
barbier
barbis
barbisch
barcelona
barcha
barchas
barcino
bardill
barents
bargia
bargunsegner
bari
barla
barlac
barlot
barmen
baroc
barocca
barometer
baron
barra
barraclough
barras
barricadas
barrier
barriera
barrieras
barry
bars
barset
bartga
bartgas
barth
barthes
bartolome
bartolomeo
bartolomeu
barun
baruns
bas
basa
basala
basalt
basan
basar
basas
basava
basavan
basc
basca
bascs
base
based
basegn
basegna
basegnan
basegns
basegnusas
basel
baselgia
baselgias
basia
basic
basilea
basileios
basileus
basilica
basin
basingstoke
basis
baskervilles
basketball
basler
basond
bass
bassa
bassas
basset
bassewitz
bast
basta
bastan
bastards
bastia
bastien
bastille
bastiment
bastiments
bastiun
bastun
bastunet
bastuns
batava
batgettas
batistuta
batschida
batschigl
batschigls
batta
battaglia
battaglias
battagliun
battagliuns
battaisem
battan
battaria
battarist
battegia
battegiads
battegiar
batten
batter
battersea
battesta
battevan
batti
battida
battidas
battider
battids
battista
battle
bau
baud
baudelaire
bauer
bauern
bauhaus
baul
baum
baumann
baus
bavarais
bavaraisa
bavaraisas
bavaria
baviera
bavrola
bavrolas
bavronda
bavrondas
bawerk
bay
bayer
bayerische
bayerischen
bayerischer
bayerisches
bayern
bayeux
bayreuth
baz
bbc
bbe
bc
bd
be
beach
beadientscha
beagle
beat
beate
beatles
beatrice
beatrix
beaux
bec
becher
beck
becker
beckmann
bed
bedeutung
bedingungen
beeli
been
beer
beethoven
beethovens
beevor
beffas
before
befreiung
beginn
begl
beglia
begriff
begriffe
begriffs
begru
behavior
behavioral
behaviour
behind
bei
beiden
beijing
beim
bein
being
beispiel
beitra
beitrag
beiva
bel
belfast
belfort
belgia
belgica
belgrad
belgrano
belize
belknap
bell
bella
bellas
belle
belletristica
bellezia
bellezza
bellezzas
bellinzona
bellis
bello
belmont
belmopan
beloved
bels
belsen
belt
beltg
beltga
beltgas
beltgs
belzec
ben
benedetg
benedict
benedictin
benedictina
benedicziun
benedida
benedikt
benefizi
benelux
beneventa
beneventada
benito
benjamin
benno
bentham
benz
benziger
benzin
beobachter
bep
ber
berblick
berbs
berchtesgaden
berg
bergamo
berge
bergen
berger
bergisch
bergman
bergson
bericht
berichte
bering
berkeley
berlegungen
berlieferung
berlin
berliner
berlins
bermuda
bern
berna
bernais
bernaisa
bernaisas
bernard
bernardin
bernardino
bernardo
bernd
bernecker
berner
berners
bernhard
berniers
bernina
bernstein
bersetzung
bert
bertelsmann
berther
bertists
bertolt
bertrada
bertrand
beru
bes
besanc
beschreibung
beschrieben
besonderer
bessarabia
best
bestandteile
bestimmung
betg
bethel
bethlen
bethmann
betrachtungen
betschla
bettina
bettingen
betula
betulus
betun
between
beutel
beuys
bever
beverin
bevo
bewegung
bey
beyond
beziehungen
bezirk
bezzola
bfs
bger
bgeras
bgers
bhagavad
bhakti
bhutan
bi
bia
biadi
biadia
biadis
biala
bialas
bials
bianca
biaras
biars
biasca
białowiez
bibel
biber
bibgia
bibi
bibla
biblic
biblica
biblicas
biblics
bibliografia
bibliografias
bibliografic
bibliographie
bibliographisches
bibliography
biblioteca
bibliotecari
bibliotecas
bibliothe
bibliothek
bice
bicornis
bie
biedermeier
biel
bielefeld
bieloruss
bielorussia
bien
bienna
bienne
biera
bierbaum
biert
biestga
biffel
biffels
bifrun
big
bigl
bigliet
bigliets
bigls
bilantscha
bilateralas
bilbao
bild
bilddokumenten
bilder
bildern
bildung
biling
bilingua
bilinguas
bilinguitad
bill
billiuns
billy
bin
binari
binaris
bindel
bindels
bindera
bingen
binh
bio
biocenosa
biocenosas
biodiversita
biodiversitad
biodiversity
biogas
biograf
biografia
biografias
biografic
biograficas
biografie
biographie
biographische
biographisches
biography
biolog
biologia
biologic
biologica
biological
biologicas
biologics
biologie
biologischen
biology
biomassa
biometan
biosfera
biotop
biotops
bipartiziun
bird
birgit
birkenau
birmingham
biro
birocrazia
biros
birsfelden
birth
bis
bische
bischen
bischens
bismarck
bison
bisons
bist
bistgaun
bists
bitola
bitsch
bitta
bittada
bittadas
bittads
bittan
bittar
bitzius
bizantin
bizantina
bizantinas
bizantins
bizanz
bizarra
bjo
bla
black
blackberry
blackwell
blagojevic
blair
blaise
blake
blanc
blanchard
blank
blau
blaua
blauas
blaue
blauenta
blaus
blefuscu
blegen
blenio
bler
blera
bleras
blers
blessa
blessada
blessadas
blessads
blessar
blessura
blessuras
bletscha
bletschs
blica
blick
blitz
bloc
blocca
bloccada
bloccadas
bloccads
bloccar
bloch
blocher
blochescha
blocs
blomberg
blotzheim
blu
bludenz
blue
blues
blum
blume
blumenberg
blut
blv
bmg
bmi
bmw
bn
bner
bo
bob
bobo
boccaccio
bod
boden
bodhi
bodhisattva
bodin
body
boemia
boemian
bogn
bogns
bohr
boicot
boicotta
boicottar
boitani
bolesław
bolivia
bologna
bolschevica
bolschevics
bolschevissem
bolschewiki
bolsheviks
bolz
bombay
bonaire
bonaparte
bondo
bonhoeffer
bonifatius
bonn
bonnie
bonus
book
books
boom
bor
bora
borchardt
bord
bordeaux
border
boreal
boreala
boreals
borgnone
borgo
borgolte
boris
born
borneo
boroughs
borromeo
bos
bosch
bosco
bose
bosna
bosnia
bosniac
bosniaca
bosniacas
bosniacs
bosnien
bosporus
bossa
bostgaglia
boston
botanic
botanica
botanischen
botswana
botticelli
bottom
boulevard
bourbon
bourbons
bourgeois
bourgeoisia
bov
bova
bovas
bovids
bovs
bow
boxar
boyd
boyer
boys
bozen
bpb
br
bra
brabant
brabham
brac
bradley
brahma
brahman
brahmanic
brahmans
brahms
bram
brama
brand
brandenburg
brando
brandt
branscha
branschas
bras
brasi
brasil
brasilia
brasilian
brasiliana
brasilians
brasilien
brassa
brassada
brassar
brastgida
bratga
bratislava
bratsch
bratscha
bratschs
bratunac
braun
braunfels
braunschweig
brava
bravuogn
bre
break
brecht
breg
bregaglia
bregagliot
bregenz
breil
breisgau
bremen
bremerhaven
brenner
brennus
breno
brent
brentano
breschnew
brescia
breslau
brest
bretagna
breton
bretton
breuning
brev
brevs
brian
brianza
bridge
brief
briefe
briefen
briefwechsel
brienz
brig
brigada
brigadas
brigade
brigitte
brin
brina
brinas
brinent
brinenta
brins
brinzauls
brione
brisbane
brisch
brischa
brischada
brischadas
brischads
brischar
brissago
bristol
brit
britain
britannia
britannic
britannica
britannicas
britannics
british
brits
bro
broadcasting
broadwood
brobdingnag
brockhaus
bronz
bronzezeit
broschura
broschuras
brothers
brown
browning
broye
broz
bru
brubaker
bruce
brumaire
brumbel
brumbels
brunate
brundage
brunei
brunelleschi
brunnen
brunner
bruno
brunsina
brusio
brussels
brut
brutal
brutala
brutalitad
brutg
brutta
brutus
bu
buc
buca
bucarest
bucca
buch
buchenwald
buchgesellschaft
buchli
buchs
buchverlag
buck
buckingham
bucovina
bucs
buda
budapest
buddha
buddhism
buddhismus
buddhist
buddy
budelli
budget
budgets
budissem
budistic
budistica
budisticas
budistics
budists
budrich
buenos
bufatg
buffa
buffalo
bug
bugen
buglia
building
buis
bul
bulbas
bulbi
bulgar
bulgara
bulgaras
bulgaria
bulgarien
bulgars
bulieu
bulieus
bull
bulla
bulletin
bullinger
bulsaun
bultmann
bulwer
bumaun
bumba
bumbarda
bumbardader
bumbardaders
bumbardament
bumbardaments
bumbardar
bumbas
bun
buna
bunamain
bunamein
bunas
bund
bundant
bundes
bundesamt
bundesarchiv
bundesla
bundesministerium
bundesrat
bundesregierung
bundesrepublik
bundesstaat
bundestag
bundeszentrale
bundi
bunmartga
bunmartgada
bunmartgadas
bunmartgads
buns
buob
buoba
buora
buorm
burascusa
burckhardt
burdi
bureau
burgais
burgaisa
burgaisas
burgaisia
burgamester
burgas
burgenland
burgheis
burgogna
burgognais
burgognaisa
burgos
burke
burkert
burkhard
burma
burns
burs
bursa
bursalin
bursalins
burundi
bus
busch
bush
business
busta
bustab
bustabs
but
butch
butia
butias
butin
butler
bvre
by
byron
byzantine
byzantium
byzanz
c
ca
cabaret
cabel
cabels
cabinas
cabinet
cabinets
cabo
cacau
cadalbert
cadavers
cader
caderas
caders
cadi
cadruvi
caduff
caesar
caesarea
cafe
cafein
caffe
caffer
caflisch
cain
cairo
cajamarca
cala
calabria
calais
calanca
calcul
calcula
calculada
calcular
calculaturs
calculaziun
calculaziuns
calcutta
calender
calif
califat
california
califs
caligula
calium
calling
calm
calma
calmada
calmant
calmar
calmy
calonder
calvert
calvin
calvinissem
calvinists
calzers
calzium
camarats
camartin
cambodscha
cambridge
cambrium
camenisch
camera
cameras
camerun
camille
camisa
camischolas
camiun
camiuns
camp
campagna
campagnas
campaign
campania
campbell
campe
campiun
campiunadi
campiunadis
campiuns
campo
campus
camuflagi
camuns
camus
camutsch
can
canaan
canada
canadais
canadaisas
canadian
canal
canarias
canberra
cancer
cancik
candida
candidar
candidat
candidats
candidatura
candinas
candrian
caneggio
canera
canidae
canids
canis
cannes
canon
canonics
canonisaziun
cant
cantabrica
cantar
cantata
cantieni
canton
cantonale
cantonales
cantone
cantun
canu
canzone
canzun
canzuns
cao
caos
cap
capabel
capabla
capacitad
capacitads
capaul
cape
capeder
capescha
capeschan
capetel
capetels
capetscha
capiergnas
capir
capita
capital
capitala
capitani
capitar
capitol
capitula
capitular
capitulaziun
caplutta
capodovra
capodovras
capos
capriasca
capricorn
capricorns
capsla
capslas
captain
capuns
car
caracalla
caracter
caracterisa
caracterisada
caracterisadas
caracterisads
caracterisar
caracterisescha
caracteriseschan
caracteristic
caracteristica
caracteristicas
caracteristics
caracters
caratsch
caravanas
carbon
carbone
carbonic
carbonics
carburant
carburants
cardientscha
cardinal
cardinals
carelia
carezia
cargo
caribica
caribicas
caribs
caribu
caricatura
caricetum
carigiet
carinzia
carismatic
carl
carli
carlo
carlos
carmala
carmalar
carmel
carmelits
carnaval
carnet
carnets
carnivora
carnivores
carnivors
carnot
carol
carolina
caroline
carolingian
carolingic
carolingica
carolingics
carolings
carona
carpatas
carpels
carpinus
carr
carre
carriera
carschius
carson
carst
carsten
carstgaun
carstgaunadad
carstgauns
carta
cartago
cartas
cartels
cartents
carter
carteva
carthusianorum
cartografia
cas
casa
casablanca
casaccia
casanova
casas
cascada
cascadas
caschanutta
caschle
caschun
case
caselle
caserna
casernas
caset
casino
casnati
caspar
casper
caspica
cass
cassa
cassacca
cassino
cassirer
cassius
casta
castas
castasegna
castel
castelberg
castelli
castello
casti
castiglia
castilian
castro
castur
casturs
casuala
casualitad
casualmain
casus
cat
catalan
catalana
catalanas
catalans
catalog
catalogs
catalugna
catalunya
cataracts
catastrofa
catastrofala
catastrofalas
catastrofas
catechissem
catedral
catedrala
catedralas
categoria
categorias
categoric
categoricamain
category
cathars
cathedral
catherine
cathomas
cato
catolic
catolica
catolicas
catolicissem
catolics
cats
catscha
catschadur
caucasus
causa
causalitad
causas
cause
causes
caussa
caussas
cautschuc
cauvitg
cavagl
cavale
cavals
cavardiras
cave
cavegn
cavels
cavern
caviano
caviezel
cavorgia
cazas
cd
cdmr
cdu
ce
ceaus
cecchi
cecil
cecilias
ceda
cedels
ceder
cedi
cee
celebra
celebrads
celebration
celerina
celio
cella
cellas
cello
cells
cellulara
cellulosa
celsius
celtic
celtica
celticas
celtics
celts
cembalo
cement
ceneri
cenis
censura
census
center
centers
centimeter
centimeters
centovalli
central
centrala
centralas
centralis
centralisaziun
centralissem
centralistic
centralistica
centralisticas
centrals
centre
centrela
centro
cents
century
ceremonia
ceremonial
ceremonias
ceres
ceresio
cern
cerro
cert
certa
certas
certificat
certificats
cervia
ces
cesar
cesare
cessiun
cesura
cesuras
ceuta
cf
cff
ch
cha
chablais
chadaina
chadainas
chade
chagall
chaglia
chaglias
chagliom
chagniels
chala
chalandamarz
chalar
chalavaina
chaldera
chalender
chalesch
chalira
challenge
chaltschina
chaltschinus
chalun
chalur
chalv
chalzer
chalzers
chambe
chamberlain
chamin
chaminar
chamins
chamisso
chamona
chamonas
chamonix
champ
champagna
champagne
champester
champestras
champfe
champions
champiunadis
champiunedi
champlain
champs
champvent
chamues
chamutsch
chamutschs
chan
chanal
chanalisar
chanals
chanaster
chanasters
chance
chancelier
chanceliera
chandailas
chanf
change
changes
chanin
chanins
chanka
channa
channel
chanson
chansons
chant
chanta
chantada
chantadas
chantadur
chantadura
chantadurs
chantar
chantautur
chants
chantun
chantunal
chantunala
chantunalas
chantunals
chantuns
chantunza
chanuns
chanzlia
chanzun
chanzuns
chaos
chap
chape
chapel
chapella
chapellas
chapellina
chapellinas
chapels
chapesch
chapescha
chapeschan
chapi
chapibla
chapida
chapientscha
chapir
chapital
chapitala
chapitalas
chapitalissem
chapitalistic
chapitalistica
chapitalisticas
chapitalistics
chapitalists
chapitals
chapitani
chapitanis
chapitel
chapitels
chapitsch
chapiva
chapivan
chaplutta
chapu
chaputschin
chaputschins
char
chara
character
charas
chareschia
charezza
chargia
chargiar
chargias
chariel
chariels
charl
charlemagne
charles
charlie
charlotte
charn
charon
charpin
charpins
charplina
charplinas
charra
charrabla
charrar
charrotscha
charrotschas
chars
charta
chartas
chartists
charts
chartun
charvun
chas
chasa
chasada
chasadas
chasads
chasaforz
chasan
chasas
chascha
chaschiel
chaschun
chaschuna
chaschunada
chaschunadas
chaschunads
chaschunan
chaschunar
chaschunava
chasper
chastagners
chaste
chastellan
chastellanias
chastels
chasti
chastia
chastiar
chastis
chat
chats
chatsch
chatscha
chatschada
chatschadas
chatschader
chatschaders
chatschads
chatschan
chatschar
chatschas
chatschs
chatt
chatta
chattada
chattadas
chattads
chattan
chattar
chattava
chattavan
chattia
chattian
chau
chaud
chauda
chaudas
chauds
chauma
chaumas
chaun
chauns
chaura
chauras
chaus
chaussa
chaussas
chautschas
chaux
chava
chavadas
chavads
chaval
chavalier
chavaliers
chavalla
chavallaria
chavallas
chavals
chavaltgader
chavaltgaders
chavaltgar
chavannes
chavar
chavas
chavazza
chavazzas
chavazzin
chavels
chavorgia
chavorgias
chavortg
chavortgs
chavriel
chavriels
che
checks
chef
chegl
chel
chelicerata
chelsea
chemia
chemica
chemical
chemicalias
chemicas
chemics
chemine
chemnitz
chen
chenyi
cher
cheramica
cherei
cherokee
chesa
chesas
chester
cheu
chi
chiasso
chiavari
chiavenna
chicago
chiesa
chihuahua
child
children
chile
chilena
chillon
chilopoda
chin
china
chinais
chinaisa
chinaisas
chinas
chinese
chinetica
chirac
chis
chista
chittagong
chlodwig
chner
cho
chombra
chombras
chomma
chommas
chopin
chor
chordata
chors
chosas
chosrau
chr
chris
christ
christen
christentum
christentums
christian
christiana
christiane
christianisierung
christianity
christina
christine
christliche
christmas
christo
christoffel
christoph
christopher
christus
chronicle
chronik
chronologie
chronos
chruschtschow
chs
chse
chsen
chte
chtigen
chu
chur
church
churchill
churwalden
ci
cia
cicero
cicladas
ciclissem
ciclus
cie
cielo
cifra
cifras
cilinder
cilinders
cilindrada
cilindrica
cine
cineasts
cinema
cinematografica
cinematograficas
cipel
cipra
cipriota
cipriots
circa
circuit
circul
circular
circulara
circularas
circulava
circulaziun
circulescha
circuls
circumda
circumdada
circumdadas
circumdads
circumdar
circumdescha
circumdeschan
circumferenza
circumscrit
circumscriver
circumstanzas
circus
cirillic
cirillica
cirque
cirquit
cirquital
cis
cisalpina
cit
cita
citad
citada
citadina
citadinas
citadins
citads
citar
citat
citats
cited
citeds
citescha
citra
citras
citroe
citrus
citta
city
ciutat
civic
civil
civila
civilas
civilisada
civilisatoric
civilisatorica
civilisaziun
civilisaziuns
civilists
civilization
civils
civitas
cjase
ck
cke
ckel
cken
cker
ckkehr
cklich
cksichtigung
cla
clairvaux
clama
clamada
clamads
clamar
clamavan
clameda
clamo
clandestin
clandestina
clandestinamain
clandestinas
clar
claration
clarendon
clark
class
classa
classas
classic
classica
classical
classicas
classicher
classichers
classicissem
classicistic
classics
classificaziun
classificaziuns
classifitga
classifitgadas
classifitgads
classifitgar
classifitgescha
clau
claude
claudia
claudio
claudius
claus
claustra
claustrala
claustralas
claustras
clausula
clav
clavau
clavazin
clavazins
clavenna
claviatura
claviglias
clayborne
cle
clemens
clementina
clemgia
cler
clera
cleramain
cleras
clerezza
clericals
clers
clerus
cletg
client
clientella
clients
clifford
clima
climas
climate
climatic
climatica
climaticamain
climaticas
climatics
climatologia
clinica
cliniez
clinton
clio
clische
cloaca
clom
cloma
cloman
cloms
clor
clorofil
clos
clostra
cloud
club
clubs
clucher
clusii
clusius
clutger
cm
cnt
co
coaliziun
coaliziuns
coast
coburg
coc
coca
cocain
coclas
coclea
cocos
codads
code
codes
codex
codificaziun
coeffizient
coerent
coerenta
coesiun
coexistenza
coffee
cogna
cognitivas
cognitivs
cogniziun
coier
coincida
coira
col
cola
cold
cole
colin
coll
colla
collabar
collaps
collavura
collavuran
collavurar
collavuratur
collavuraturs
collavuraziun
colle
collectar
collection
collectiv
collectiva
collectivas
collectivisaziun
collectivs
collectur
collecturs
collecziun
collecziunar
collecziuns
collega
collegas
college
colleges
collegi
collegialitad
collegium
collenberg
colli
collia
colliada
colliadas
colliads
collian
colliant
colliar
colliava
colliavan
colliaziun
colliaziuns
collier
colligiaziuns
collina
collinas
collins
collinusa
collinusas
collisiun
collisiuns
colloqui
colloquium
collserola
cologna
coloma
colombo
colonel
colonia
colonial
coloniala
colonialas
colonialissem
colonials
colonias
colonisa
colonisada
colonisadas
colonisads
colonisar
colonisaturs
colonisaziun
colonisescha
colonists
colonna
colonnas
color
colored
colorit
colors
colosseum
coloureds
columba
columbas
columbia
columbus
colur
colura
coluradas
colurads
colurar
coluraziun
coluraziuns
colureschan
colurs
com
coma
comander
comarques
comba
combra
combustibels
combustiun
come
comecon
comic
comics
coming
comino
comitats
comite
commando
commandos
commedia
commember
commembers
commembra
commembranza
commembranzas
commembras
commemora
commemorar
commemorativ
commemorativa
commemorativas
commemorativs
commemoraziun
commemoraziuns
commensurada
commenta
commentari
commentaris
commerzi
commerzial
commerziala
commerzialas
commerzialisar
commerzialisaziun
commerzials
commerziant
commerziants
commess
commetter
commilitons
commission
committee
common
commons
commonwealth
communa
communabel
communabels
communabla
communablamain
communablas
communal
communala
communalas
communals
communas
communication
communicativ
communicativas
communicaziun
communicaziuns
communis
communissem
communist
communista
communistas
communistic
communistica
communisticas
communistics
communists
communitad
communitads
communitga
communitgar
communities
community
communiun
como
comp
companion
company
comparative
comparison
competitiveness
compie
comple
complete
completes
computer
computers
comte
comunal
comunale
comuni
con
conan
concarstgauns
conceda
concedan
conceder
concedi
concedida
concedidas
concedids
concediva
concentra
concentrada
concentradas
concentrads
concentrar
concentrava
concentraziun
concentraziuns
concentrescha
concentreschan
concepcio
concepescha
concepi
concepida
concepidas
concepids
concepir
concept
concepts
concepziun
concepziuns
concern
concerna
concernan
concernent
concerning
concerns
concert
concertante
concerts
concessiun
concessiuns
conchiglia
conchiglias
concil
concils
concisa
concise
concluda
concluder
concludi
concludida
conclus
conclusiun
conclusiuns
concord
concordanza
concordat
concret
concreta
concretamain
concretas
concretisar
concrets
concurrent
concurrentas
concurrents
concurrenza
concurrenzas
concurrenzavan
concurrer
condemna
condemnads
condemnar
condensaziun
conditoria
condor
condrau
conduct
conducts
conduita
confamigliars
confederads
confederation
confederaziun
conference
conferenza
conferenzas
conferma
confermada
confermads
conferman
confermar
confess
confessa
confessanta
confessar
confessaunta
confessiun
confessiunal
confessiunala
confessiunalas
confessiunalisaziun
confessiunalmain
confessiunals
confessiuns
confida
confident
confidenza
confiert
confirma
confirmada
confirmar
confirmaziun
confiscar
conflict
conflicts
confluenza
confoederatio
confort
confrunt
confrunta
confruntada
confruntads
confruntar
confruntaziun
confruntaziuns
confunder
confurm
confurma
confuzianissem
congedi
congiuntiva
conglomerat
congo
congress
congruents
congruenza
congual
conica
coniferas
conjunctura
connecticut
connex
connexiun
connexs
connotada
connotaziun
conomiques
conquest
conquista
conquistada
conquistadas
conquistader
conquistaders
conquistadores
conquistads
conquistar
conquistas
conrad
conradin
cons
conscient
conscienta
conscients
conscienza
consecra
consecrada
consecraziun
consegna
conseil
consens
consenti
consentiment
consentir
consequences
consequent
consequenta
consequentamain
consequenza
consequenzas
conserva
conservada
conservadas
conservads
conservar
conservation
conservatissem
conservativ
conservativa
conservativas
conservativs
conservaziun
considera
considerabel
considerabels
considerabla
considerablamain
considerablas
considerada
consideradas
considerads
considerar
considerava
consideravan
consideraziun
considerescha
considereschan
considero
consiglio
consista
consistan
consistenta
consistenza
consister
consistiva
consistivan
consolida
consolidada
consolidar
consolidaziun
consonant
consonants
consort
consorta
consorts
consorzi
conspiracy
conspiraturs
conspiraziun
constance
constant
constanta
constantas
constantin
constantinopel
constanza
constanze
constat
constata
constatar
constataziun
constataziuns
constatescha
constellaziun
constellaziuns
constituanta
constituenta
constituescha
constitueschan
constitui
constituida
constituidas
constitutiva
constitutivs
constituziun
constituziunal
constituziunala
constituziunalas
constituziunalissem
constituziunalitad
constituziunals
constituziuns
construct
constructivissem
constructur
constructurs
construcziun
construcziuns
construi
construida
construidas
construider
construiders
construids
construieu
construir
consul
consulat
consuls
consulta
consultar
consultativ
consultativa
consultaziun
consum
consuma
consumada
consumadas
consumads
consumar
consuments
consumescha
consumeschan
cont
contact
contacta
contacts
contadi
contadis
container
containers
containment
contaminada
contaminaziun
conte
contempla
contemplar
contemplaziun
contemplaziuns
contemporan
contemporana
contemporanas
contemporans
contemporary
content
contes
contest
contesta
contestada
contestadas
contestads
context
contexts
continent
continental
continentala
continentalas
continentals
continents
contingent
contingents
continuum
contonscher
contos
contra
contract
contracta
contractar
contractivas
contracts
contracziun
contrahents
contrat
contre
contribuescha
contribueschan
contribui
contribuir
contribution
contribuziun
contribuziuns
control
controlla
controllada
controlladas
controllads
controllar
controllas
controllava
controllavan
controllescha
controlleschan
conts
contuorn
contura
conturas
conturn
conturns
conumans
conuscher
convecziun
convent
convention
convenziun
convenziunala
convenziunalas
convenziuns
convergenza
conversaziun
conversaziuns
converse
conversiun
converter
converti
convertids
convertir
convivenza
convivio
convoca
convocar
convoi
convois
conze
cook
cooper
coopera
cooperar
cooperativa
cooperativas
cooperaziun
cooperaziuns
coordina
coordinada
coordinar
coordinatas
coordinaziun
coordinescha
copenhagen
copernicus
copia
copiar
copias
coppa
coppola
copular
copulaziun
cor
coral
coran
coray
corbusier
corc
corda
cordalins
cordas
cordiale
cordilleras
cordoba
cordoli
corea
coretta
corint
corinth
corn
corna
cornamusa
cornas
cornelia
cornelii
cornelius
corns
cornwall
corp
corporal
corporala
corporalas
corporals
corporation
corporativ
corporativa
corporaziun
corporaziuns
corpore
corps
corpuls
corpus
correct
correcta
correctamain
correctas
correctura
correcturas
correcziun
correlaziun
correlescha
correspondence
correspunda
correspundan
correspundent
correspundenta
correspundentamain
correspundentas
correspundents
correspundenza
correspunder
correspundeva
correspundevan
correspundia
correspundian
corridor
corridors
corrupziun
cors
corsars
corsica
corsier
corte
cortegi
cortex
cortina
cortinada
corv
corvs
cosmetica
cosmic
cosmica
cosmologia
cosmos
cosovo
costa
costas
costums
cot
cotgla
cotschen
cotschens
cotschna
cotschnas
cotschnent
cotschnenta
cotschnents
cotta
coturnix
coubertin
couchepin
couleur
council
count
countries
country
county
cour
court
courtois
coutaz
cover
cr
cracovia
crai
crain
crair
craja
crajeva
crajevan
cranach
crap
crapfess
crappa
crappels
craps
crash
crassus
crasta
crater
craters
cratschla
cravals
crea
creada
creadas
creads
crear
creation
creatira
creatiras
creativ
creativa
creatur
creaziun
creaziuns
credibilitad
credit
credits
crediturs
credo
creescha
creeschan
crema
crematoris
crenna
crennas
creolas
crescha
creschan
creschent
creschenta
creschentas
creschents
crescher
creschi
creschia
creschida
creschidas
creschids
creschientscha
creschiva
crest
cresta
crestas
crestaulta
crestomazia
crests
cret
creta
cretta
crettaivels
crew
cricket
crida
crim
crime
crimea
criminal
criminala
criminalas
criminalitad
criminals
crims
crisa
crisas
crisis
crist
cristal
cristallisaziun
cristals
cristian
cristiana
cristianadad
cristianas
cristiandemocratica
cristianisaziun
cristianissem
cristians
cristiaun
cristiauna
cristiauns
cristina
cristo
cristof
cristofori
cristologia
cristus
criteri
criteris
critic
critica
critical
criticas
criticher
critichers
critics
critique
crititga
crititgada
crititgadas
crititgads
crititgar
crititgescha
crititgeschan
criv
criva
crivas
cro
croat
croata
croatas
croatia
croats
croazia
crocodils
croda
crodan
crodia
croix
crom
crombie
cromosom
cromosoms
cromwell
cronica
cronicas
cronist
cronists
cronologia
cronologic
cronologica
crosa
cross
crucificaziun
crucifix
cruda
crudada
crudadas
crudads
crudaivel
crudaivels
crudaivla
crudaivladad
crudaivlas
crudar
crusch
cruscha
cruschada
cruschadas
cruschader
cruschaders
cruschan
cruschar
cruscheras
cruschs
crusta
cruz
crystal
cs
csu
ctv
cu
cua
cuan
cuar
cuba
cuban
cubic
cucuns
cudesch
cudeschet
cudeschs
cudisch
cudischs
cuera
cugn
cugns
cugnuoscha
cuira
cuirass
cul
cula
culaischen
culan
cular
cularin
culegna
culegnas
culiez
culissa
culissas
culla
cullas
culm
culmina
culminant
culminants
culminar
culminaziun
culminescha
culms
culp
culpa
culpants
culps
culs
cult
cultica
cultics
cultira
cultiva
cultivada
cultivadas
cultivads
cultivar
cultivaziun
cults
cultura
cultural
culturala
culturalas
culturalmain
culturals
culturas
culture
cultures
cultus
cum
cumand
cumanda
cumandaments
cumandant
cumandants
cumandar
cumandava
cumanza
cumanzamaint
cumanzet
cumbain
cumbat
cumbats
cumbatta
cumbattan
cumbattant
cumbattanta
cumbattants
cumbatter
cumbatteva
cumbattevan
cumbatti
cumbattids
cumbel
cumbina
cumbinads
cumbinar
cumbinaziun
cumbinaziuns
cumbinescha
cumbineschan
cumedia
cumedias
cumegn
cumenza
cumenzament
cumenzaments
cumenzan
cumenzar
cumenzava
cumenzia
cumenzond
cumia
cumiau
cumin
cumina
cuminaivel
cuminaivels
cuminaivla
cuminanza
cuminanzas
cumins
cumissari
cumissaris
cumissiun
cumissiuns
cummissari
cummissaris
cumond
cumonda
cumonds
cump
cumpact
cumpacta
cumpagnia
cumpagnias
cumpara
cumparair
cumparan
cumparatistica
cumparaziun
cumpareglia
cumparegliabel
cumparegliabels
cumparegliabla
cumparegliablas
cumparegliadas
cumparegliar
cumparegliaziun
cumparegliaziuns
cumpareva
cumparevan
cumpari
cumparia
cumparida
cumparidas
cumparids
cumparsa
cumpart
cumparts
cumpass
cumpassiun
cumpatibel
cumpatibla
cumpatiblas
cumpatriots
cumpendi
cumpensar
cumpensaziun
cumpeta
cumpetan
cumpetenza
cumpetenzas
cumpetitivitad
cumpiglia
cumpigliadas
cumpigliads
cumpiglian
cumpigliar
cumpigliava
cumpigliavan
cumpignia
cumpila
cumpilaziun
cumplain
cumplaina
cumplainamain
cumplains
cumpleni
cumplenida
cumplessiv
cumplessiva
cumplessivas
cumplet
cumpletta
cumplettada
cumplettadas
cumplettads
cumplettamain
cumplettamaing
cumplettar
cumplettas
cumplettaziun
cumplettaziuns
cumplettescha
cumpletteschan
cumplettond
cumplex
cumplexa
cumplexas
cumplexitad
cumplexs
cumplitga
cumplitgada
cumplitgadas
cumplot
cumpogn
cumpogns
cumpona
cumponan
cumponenta
cumponentas
cumponer
cumponi
cumponida
cumponidas
cumponist
cumponists
cumponiva
cumponivan
cumporta
cumportament
cumportan
cumportar
cumpositas
cumpositoric
cumposiziun
cumposiziuns
cumpost
cumpostar
cumpostaziun
cumpra
cumpraders
cumpran
cumprar
cumpras
cumpravan
cumprenda
cumpressiun
cumpromiss
cumprova
cumprovada
cumprovadas
cumprovads
cumprovan
cumprovar
cumprovas
cumu
cun
cundecider
cundecisiun
cundiziun
cundiziuns
cunfin
cunfina
cunfinada
cunfinant
cunfinanta
cunfinantas
cunfinants
cunfinar
cunfinava
cunfinaziun
cunfinescha
cunfineschan
cunfins
cunfundatur
cunigl
cunigls
cunquai
cunquei
cunregent
cunresponsabladad
cuntanscha
cuntanschan
cuntanscher
cuntanscheva
cuntanschevan
cuntanschi
cuntanschia
cuntanschibla
cuntanschida
cuntanschidas
cuntegn
cuntegna
cuntegnair
cuntegnan
cuntegneva
cuntegnevan
cuntegni
cuntegnia
cuntegnida
cuntegnidas
cuntegnids
cuntegns
cuntent
cuntenta
cuntentan
cuntentar
cuntentezza
cuntentientscha
cuntents
cunter
cunterattatga
cunteroffensiva
cuntgnaiva
cuntgnieu
cunti
cuntin
cuntinua
cuntinuada
cuntinuadamain
cuntinuant
cuntinuanta
cuntinuantas
cuntinuants
cuntinuar
cuntinuaziun
cuntinuaziuns
cuntinuescha
cuntinueschan
cuntinuitad
cuntinuond
cuntrabanda
cuntrada
cuntradas
cuntradictoricas
cuntradictorics
cuntradicziun
cuntradicziuns
cuntradin
cuntrafatg
cuntramoviment
cuntrapais
cuntrapaisa
cuntrapart
cuntrapol
cuntraposiziun
cuntrapunct
cuntrarefurma
cuntrarefurmaziun
cuntrarevoluziun
cuntrarevoluziunars
cuntrari
cuntraria
cuntrast
cuntrastescha
cuntrasts
cuntravenziun
cuntravenziuns
cuntraversa
cuntraversas
cuntravuschs
cuntschaint
cuntschets
cunvegna
cunvegnan
cunvegnas
cunvegni
cunvegnids
cunvegnientscha
cunvegnir
cunzun
cunzunt
cuoira
cuolm
cuolms
cuolpa
cuors
cuort
cuorta
cuortas
cuorts
cuoza
cup
cupitga
cupitgada
cupitgar
cupla
cuppa
cuppins
cups
cur
cura
curac
curaglia
curaisma
curals
curas
curascha
curaschi
curaschus
curat
curativ
curativa
curclar
curd
curdistan
curds
curia
curius
curlandia
curlar
curra
curran
curreger
curregi
curregida
current
currenta
currentas
currents
currer
curri
currider
curriders
currier
curriers
curs
cursa
cursar
cursas
cursavan
curschellas
cursescha
curseschan
cursus
curt
curta
curtais
curtaisa
curtamain
curtas
curtin
curtins
curtis
curts
curuna
curunar
curunas
curunaziun
curva
curvas
curvatura
curzon
cusadira
cuschina
cuschinar
cuschinas
cusrin
cusrina
cussadents
cussagl
cussegl
cusseglia
cussegliader
cussegliaders
cussegliar
cussegliaziun
cusseglier
cussegliera
cussegliers
cussegls
cust
custa
custaivel
custaivels
custaivla
custaivlas
custava
custs
cutrin
cuvel
cuvels
cuverna
cuvert
cuverta
cuvertas
cuverts
cuvra
cuvran
cuvrescha
cuvrida
cuvridas
cuvrir
cuvrivan
cuzco
cuzza
cycle
d
da
dab
dacasa
dach
dachasa
dachau
dacia
daco
dacs
dacurt
dad
dada
dadains
dadas
dadens
daditg
dado
dador
dadora
dadour
dads
dafatta
dafna
dafrika
dag
dagmar
dahrendorf
dai
daily
daiva
daivets
dakota
dal
dalai
dali
dall
dalla
dallas
dalmatia
dalmazia
dalo
dals
dalton
dalunga
dama
damai
damain
damanaivel
damascus
damaun
dame
damonda
damondas
dampfboot
dan
danais
danaisa
danaisas
dance
danemarc
daner
daners
dani
daniel
daniela
daniele
danis
dann
dano
danor
danovamain
dans
dante
dantes
danton
danubi
danuder
danunder
danvanz
danzig
dapart
dapersai
dapertut
dapi
dapli
dar
darar
darcho
dardanellas
dardin
dareios
dargestellt
dark
darkness
darma
darms
darmstadt
daro
dartgeira
darwin
das
dasda
dasper
daspera
dasperas
daspo
dastg
dastga
dastgan
dastgar
dastgava
dastgavan
dastgia
dastgian
dat
data
database
datada
datadas
datar
datas
dataziun
daten
datescha
dateschan
datier
datiers
datoteca
dattan
datti
dau
daugava
daum
daus
davant
davantvart
davart
davaunt
davent
daventa
daventada
daventadas
daventads
daventan
daventar
daventaus
daventava
daventavan
daventia
daventian
daventond
david
davide
davies
davis
davo
davos
davosa
davosas
davostiers
davosvart
davous
day
days
dayton
dazi
dazis
daß
db
dc
dchen
ddeutsche
ddp
ddr
de
dea
dead
deal
dean
dearchiv
death
debatta
debattas
debit
debits
debiturs
decada
decadenza
december
decenni
decennis
decentral
decentrala
decentralisaziun
decida
decidan
decider
decidevan
decidi
decidida
decididamain
decididas
decidids
decidiu
decidua
decifrar
decima
decimada
decimar
decis
decisiun
decisiuns
decisiv
decisiva
decisivamain
decisivas
decisivs
declaration
declera
declerada
decleradas
declerads
decleran
decleranza
declerar
decleraziun
decleraziuns
declin
decolonisaziun
decorativ
decorativa
decorativas
decorativs
decoraziun
decoraziuns
decret
decreta
decrets
decristianisaziun
decumpona
decumponer
decumponi
decumponidas
decumposiziun
decuors
decurs
decurtins
deda
dedicheda
deditga
deditgada
deditgads
deditgar
deditgescha
deditgeschan
deduci
deducir
defaisa
defanestraziun
defecta
defects
defence
defenda
defendan
defender
defendeva
defendi
defendida
defendids
defense
defensiun
defensiv
defensiva
defensur
defensurs
deficit
deficits
definescha
defineschan
defini
definida
definidas
definids
definir
definit
definitiv
definitiva
definitivamain
definiva
definiziun
definiziuns
deflaziun
deflussiun
defunct
defuncts
defurma
defurmaziun
defurmaziuns
degen
degenera
degenerada
degeneraziun
degli
degn
degna
degns
dei
deimos
deissem
deiters
dekolonisation
del
delacampagne
delacroix
delaware
dele
delega
delegadas
delegads
delegaziun
delegaziuns
delfins
delibera
deliberada
deliberadas
deliberads
deliberar
deliberaziun
deliberescha
delict
delicts
delinquent
delinquents
dell
della
delle
dello
dels
delta
dem
demandt
dementieva
demilitarisada
demilitarisar
demissiun
demissiuna
demissiunar
democracy
democrat
democratic
democratica
democraticamain
democraticas
democratics
democratisar
democratisaziun
democrats
democrazia
democrazias
demografia
demografic
demografica
demograficas
demografics
demokratie
demokratische
demokratischen
demoliziun
demonstra
demonstrants
demonstrar
demonstrativamain
demonstraziun
demonstraziuns
demont
demunis
demussa
demussan
den
denen
denis
denise
denken
denkens
denker
denn
denomina
denominar
denominaziun
denominaziuns
denominescha
dent
denta
dentadas
dentadira
dentant
denter
denteren
dentist
denton
dentro
dents
departament
departaments
department
depauperisaziun
dependa
dependan
dependent
dependenta
dependentas
dependents
dependenza
dependeva
dependevan
dependia
deplazas
deplazes
deplora
deplorablamain
depona
deponan
deponer
deponi
deponids
depopulaziun
deporta
deportada
deportadas
deportads
deportar
deportaziun
deportaziuns
deposit
depositads
deposits
depression
depressiun
depurtament
deputa
deputadas
deputads
deputaziun
der
deralismus
derasa
derasada
derasadas
derasads
derasan
derasar
derasavan
derasaziun
deration
derek
deriva
derivan
derivantas
derivants
derivanza
derivar
derivats
derivava
derivavan
derivia
derivian
derivonza
dermatophagoides
derrida
derscha
derschader
derschaders
derscher
dertgira
derungs
des
desaster
desastrus
desastrusa
desastrusas
descartes
descendent
descendents
descendenza
descender
desch
descrets
descriptiva
descripziun
descripziuns
descrit
descrits
descritta
descrittas
descriva
descrivan
descriver
desditg
desdru
desert
desertina
deserts
deserturs
desi
desideri
desideris
desiderius
design
designa
designada
designadas
designads
designar
designava
designavan
designaziun
designescha
designeschan
desista
desistan
desister
desisti
desistia
desktop
desmond
desperada
desperaziun
despotat
despotia
despotic
despotissem
dess
dessous
dessus
destalinisaziun
destin
destina
destinadas
destinatur
destinaziun
destinaziuns
destitui
destituir
destituziun
destruction
destructiva
destructivas
destructivs
destrucziun
destrucziuns
destruescha
destrueschan
destrui
destruida
destruidas
destruider
destruiders
destruids
destruir
det
detagl
detaglia
detagliada
detagliadamain
detagliadas
detagls
dete
detectiv
detensiun
detenziun
determina
determinada
determinads
determinar
determination
determinaziun
determinaziuns
determinescha
determineschan
determinissem
detg
detlef
dets
detta
dettia
deuteronomium
deuterostomia
deutsch
deutsche
deutschen
deutscher
deutsches
deutschland
deutschlandfunk
deutschlands
deux
deva
devan
devas
devasta
devastada
devastaziuns
developed
development
devi
deviaziun
devisa
devisas
devs
dezember
dfae
dharma
dhs
di
dia
diabelli
diagonal
diagonala
diagram
diala
dialas
dialect
dialectala
dialectalas
dialectic
dialectica
dialects
dialekt
dialektik
dialog
dialogs
dialogus
diamant
diamants
diameter
diamond
dian
diana
dianthus
diari
diaris
diarrea
diary
diaspora
diavel
diavels
diaz
dicember
diceros
dich
dichter
dichtung
dick
dicotyledones
dicta
dictatoric
dictatorica
dictatorics
dictatur
dictatura
dictaturas
dictaturs
dictionary
dictionnaire
dicziunari
did
didactica
diderot
didier
die
diederichs
diego
diem
dien
dierma
dies
diesch
dieschavel
dieschmilli
dieschmillis
diesel
dieses
dieta
dietas
dieter
dietmar
dietrich
dietz
dieu
dieua
dieus
diever
different
differenta
differentamain
differentas
differents
differenza
differenzas
differenzia
differenziada
differenziadas
differenziads
differenziar
differenziava
differenziavan
differenziaziun
differenziesch
differenziescha
differenzieschan
difficil
difficila
difficilas
difficils
difficultads
diffusa
diffusiun
diftong
diftongs
diger
digestiv
digestivs
digital
digitala
digitalas
digitalisat
digitalisaziun
digitals
digl
diglossia
digls
dignitad
dignitaris
digren
dikchene
diktatur
dil
dilemma
dils
diluvi
dimena
dimension
dimensiun
dimensiuns
diminuescha
diminui
diminuida
diminuids
diminuir
diminuziun
dimitri
dimitrov
dimora
din
dinamica
dinarica
dinaricas
dinaridas
dinastia
dinastias
dinastica
dinasticas
ding
dingo
dinh
dinosaur
dinosaurs
dio
diocesa
diocletian
diogenes
dionisic
dionysos
dioptric
dios
dioxid
dioxin
diploidas
diplom
diplomat
diplomatic
diplomatica
diplomaticas
diplomatics
diplomatie
diplomats
diplomazia
diplopoda
dippel
dir
dira
diras
direct
directa
directamain
directas
directiv
directiva
directivas
directivs
directmedia
directori
directs
directur
directurs
direcziun
direcziuns
direzza
dirigent
dirigenta
diriger
dirigi
dirigian
dirigida
dirigidas
dirigids
dirk
diromaziun
dirs
dis
disa
disas
disc
dischagregaziun
discharmament
discharmar
dischavantagiadas
dischavantagiusa
dischavantatg
dischavantatgs
dischequiliber
dischillusiun
dischloca
dischlocar
dischlocaziun
dischoccupads
dischoccupaziun
dischuniun
dischurden
disciplina
disciplinar
disciplinas
discipuls
discjockey
discletg
disco
discografia
discordia
discoteca
discovery
discredita
discreditar
discrepanza
discriminaziun
discs
discuora
discuoran
discuors
discurr
discurra
discurran
discurrer
discurri
discurrida
discurridas
discurrids
discurriu
discurriv
discurriva
discurrivan
discurs
discussiun
discussiuna
discussiuns
discuta
discutada
discutadas
discutads
discutar
disditg
disditga
disentis
disentiserhof
disfama
disfatg
disfatga
disfatgas
disfavur
disfavuraivlas
disfidanza
disfortuna
disfortunada
disgrazia
disgust
dismess
dismessa
dismessas
dismetter
disparitads
dispita
dispitada
dispitaivel
dispitaivla
dispitaivlas
dispitas
dispona
disponan
disponer
disponi
disponia
disponian
disponibel
disponibilitad
disponiblas
disponiva
disponivan
disposiziun
disposiziuns
dispu
disput
diss
dissegn
dissegna
dissegnaders
dissegns
dissertation
dissertaziun
dissidents
dissoluziun
dissolver
dissolvi
dissolvida
dissonanzas
distant
distanza
distanzas
distanzia
distanziada
distanziadas
distanziads
distanziar
distanziond
distatga
distatgament
distatgar
distel
distgargia
distgargiar
distinctiv
distinctivs
distincziun
distincziuns
distingua
distinguan
distinguer
distingui
distinguids
distorsiun
distretto
distribui
distribuida
distribuir
distribution
distribuziun
distribuziuns
district
districts
districtualas
distrito
disturba
disturbada
disturbar
disturbava
disturbi
disturbis
dit
ditg
ditga
ditgas
ditions
dits
ditzingen
diu
div
divergenta
divergentas
divergents
divergenza
divergenzas
divergescha
divergeschan
divers
diversa
diversas
diversificaziun
diversitad
diversity
divertiment
divertimento
divi
divida
dividan
divider
dividi
dividida
divididas
dividids
divin
divina
divinas
divinitad
divinitads
divins
division
divisiun
divisiuns
divorzi
diz
dj
dk
dna
dnepr
dniester
dns
dnvp
do
dobrudscha
doc
docent
docents
doch
docter
doctorat
doctrina
doctrinala
doctrine
document
documenta
documentada
documentadas
documentads
documentar
documentars
documentaziun
documentaziuns
documentescha
documenteschan
documents
docupedia
dog
dogma
dogmas
dogmatica
dogs
dokumentation
dokumente
dolce
dolder
dolf
dollar
dollars
dollfuss
dolomitan
dolomitas
dolomits
dolur
dolurs
dolurusa
dom
domain
domat
domena
domenas
domenico
domestic
domestica
domesticads
domestication
domesticaziun
domestics
domicil
domicilia
domiciliada
domiciliadas
domiciliads
domiciliar
domina
dominada
dominadas
dominads
dominant
dominanta
dominantas
dominants
dominanza
dominar
dominava
dominavan
dominaziun
dominescha
domineschan
domingo
domini
dominica
dominican
dominicana
dominicans
dominik
dominions
dominique
dominis
domino
domitian
don
donald
donat
donaturs
donau
donaziun
donaziuns
dond
dong
dongo
donn
donnegia
donnegiada
donnegiadas
donnegiads
donnegiar
donns
doping
dora
dore
dorian
doris
dorma
dorothea
dorsala
dorsalas
dortmund
dos
dossier
dostschweiz
dota
dotadas
dotaziun
double
doubles
doubs
douglas
dover
dovr
dovra
dovran
dovri
dovria
down
downing
doyle
dr
drags
drama
dramas
dramatic
dramatica
dramaticas
dramaticher
dramatics
drang
drastica
drasticas
dratguir
drau
draussa
drava
dream
drei
dreispaltung
dreissigja
dresden
dresina
dret
dretg
dretga
dretgira
dretgiras
dretgs
dretta
drg
driblar
driessen
drin
drina
dritte
dritten
drive
drizza
drizzada
drizzadas
drizzads
drizzan
drizzar
drizzava
drizzavan
dro
drobeta
droemer
droga
drogas
drova
drovan
drs
dru
druck
druids
drusus
druveda
ds
dschember
dschibuti
dschingis
dschungla
dss
dsungars
dt
dte
dtirol
dtv
du
dua
duai
duain
duair
duairs
duaja
duajan
dualissem
duana
duanas
duas
dubc
dubel
dubels
dubi
dubis
dubita
dubius
dubla
dublamain
dublas
dublegia
dublegiada
dublin
dubrovnik
duca
ducadi
ducadis
ducas
duchhardt
ductrina
ductrinas
dudesch
dudeschavel
dudisch
due
duei
dueigi
duess
duessan
dueva
duevan
duevi
dufour
dui
duin
duisburg
duke
dultsch
dultscha
dultschas
dumagna
dumagnar
dumanda
dumandada
dumandadas
dumandads
dumandar
dumandau
dumandava
dumber
dumbers
dumbra
dumbran
dumbrar
dumbrava
dumbravan
dumbraziun
dumbraziuns
dumengia
dumengias
dumeni
dumesti
dumestis
dumogn
dumogna
dumonda
dumondan
dumondas
dumont
dun
duna
dunas
duncker
dunna
dunnas
duns
dunsaina
dunsena
duo
duonna
duos
dur
dura
durabel
durabla
durada
duraivel
duraivla
duran
durana
durant
duranta
durar
durava
durban
durch
durga
duri
durich
during
durkheim
durmentar
durmir
duront
durre
dus
duscha
dust
dutch
dutchbat
dutg
dutgs
dutschke
duvin
duvra
duvrada
duvradas
duvrads
duvrar
duvrass
duvrau
duvrav
duvrava
duvravan
dva
dvainta
dvantet
dvd
dy
dylan
dz
dztwo
e
ea
earl
earliest
early
earth
earthquake
east
eastern
easton
easy
eau
eben
eberhard
ebert
ebner
ebraic
ebraica
ebro
ecce
ecclesiastic
ecclesiastica
ecclesiasticas
ecclesiastics
echallens
eching
eckart
eckhard
eckhardt
eclatanta
eco
ecocide
ecolocaziun
ecologia
ecologic
ecologica
ecological
ecologicas
ecologics
ecology
econ
econom
economia
economias
economic
economica
economicamain
economicas
economics
economist
economs
economy
ecosistem
ecosistems
ecuador
ecumenic
ecumenics
ed
edd
edda
edescha
edgar
edi
edicions
edict
edida
edidas
edifizi
edifizis
edinburgh
edipus
edir
edison
edith
edition
editions
edituors
editur
editura
edituras
editurs
ediziun
ediziuns
edmond
edmund
eds
edu
eduard
education
educaziun
edvard
edward
edwin
ee
eesti
effect
effectiv
effectiva
effectivamain
effectivas
effectivs
effects
effectua
effectuada
effectuar
effectuescha
effectueschan
efficacitad
efficazia
effizient
effizienta
effizientas
effizients
effizienza
eg
egeica
egeicas
egemonia
egemoniala
egg
egida
egill
egipta
egipzian
egipziana
egipzians
egl
egli
egliada
egliers
egls
egn
egna
egoissem
egon
egual
eguala
egualas
egualisar
egualisaziun
egualitad
eguals
ehrh
ei
eib
eibe
eichendorff
eichengreen
eichmann
eidgeno
eidgenossenschaft
eifel
eiffel
eiffelturm
eiffelturms
eigentum
eiger
ein
einarsson
eine
einem
einen
einer
eines
einfluss
einfluß
einfu
einhard
einheimische
einheit
einleitung
einstein
einsteins
eir
eira
eiran
eis
eisba
eisenbahn
eisenhower
eisenstadt
eisler
eisner
ek
el
ela
elan
elans
elastic
elastica
elasticas
elav
elavura
elavurada
elavuradas
elavurads
elavuran
elavuranta
elavurar
elavuraziun
elavuraziuns
elba
elbe
elbrus
elder
eldorado
eleanor
electoral
electorala
electorals
electric
electrica
electricas
electricitad
electrics
electrifitgada
electrodinamica
electromagnetica
electromagneticas
electron
electronic
electronica
electronicas
electronics
electrotecnica
electur
electurat
electurats
electurs
elecziun
elecziuns
elefant
elefants
eleganta
eleganza
eleger
elegeva
elegi
elegia
elegian
elegida
elegidas
elegids
elemaint
elemaints
element
elementara
elementars
elemente
elements
elena
elend
eleva
elevada
elevads
elevaziun
elevaziuns
elfriede
elgar
eliade
elias
elimina
eliminadas
eliminar
eliminaziun
eliot
elisabet
elisabeth
elise
elita
elitas
elizabeth
elke
ell
ella
ellas
ellen
elliott
elliptica
ellis
ellmann
elmar
els
elsa
elser
elsevier
em
emancipads
emancipaziun
emanuel
emanuele
embargo
emblem
emblida
emblidanza
emblidar
embrio
embrional
embrugls
emden
emergence
emerson
emess
emessa
emessas
emetta
emettan
emetter
emettur
emetturs
emi
emigra
emigrada
emigradas
emigrads
emigrant
emigrants
emigrar
emigraziun
emil
emilia
emilio
emir
emirat
emisfera
emissiun
emissiuns
emma
emmanuel
emmental
emna
emnas
emnila
emnilas
emnils
emoziunal
emoziunala
emoziuns
empau
empe
empermess
empermetta
empermetter
empermischun
empermischuns
empernaivel
empire
empirica
empiricas
empirissem
empitschni
empleni
emplenida
emplenidas
emplenids
emplenir
emploia
emploiads
empraschunads
emprem
emprema
empremas
empren
emprenda
emprendan
emprender
emprendi
emprendida
emprendider
emprendissadi
emprest
empresta
emprestar
emprests
emprim
emprima
emprimas
emprims
emprov
emprova
emprovan
emprovas
empruva
empruvar
empruvava
empruvavan
empruvond
empty
ems
en
ena
enavant
enavos
enciclica
enciclopedia
enclar
enclava
enclavas
enclegientscha
encletga
enclinada
enconusch
enconuscha
enconuschain
enconuschan
enconuschent
enconuschenta
enconuschentas
enconuschents
enconuscher
enconuscheva
enconuschevan
enconuschi
enconuschia
enconuschientscha
enconuschientschas
encorscha
encrescher
encunter
encurir
encurunaziun
encyclopaedia
encyclope
encyclopedia
encyclopædia
end
endadens
endament
endangered
ende
endemicas
endiri
endisar
endisch
endlo
endretg
endrizza
endrizzada
endrizzadas
endrizzads
endrizzar
endurance
energia
energias
energic
energica
energicamain
energie
energy
enfiern
enfin
engadin
engadiner
engalterra
engascha
engaschada
engaschadas
engaschads
engaschament
engaschaments
engaschan
engaschar
engaschavan
engaschi
engel
engelberg
engels
engiadin
engiadina
engiadinais
engiadinaisa
engiadinaisas
engianar
engion
engira
engirament
engirar
engiu
engl
englais
englaisa
englaisas
england
engles
english
engordany
engrasch
engraziament
engraziar
engrevgescha
engrevgia
engrevgiada
engrevgiadas
engrevgiar
engronda
engrondi
engrondida
engrondiment
engrondir
engrossa
engula
enguladitsch
engurdientscha
engurds
enhaut
eni
enke
enna
enorm
enorma
enormamain
enormas
enorms
enqual
enquera
enquista
enquistas
enrama
enrico
enritgi
enritgida
enritgir
ens
ensaina
ensainas
ensemble
ensembles
ensemen
enserra
enserrada
enserrads
enserran
ensi
enstagl
enta
entagl
entaglia
entaifer
entalpia
entamez
entant
entaupa
entaupan
entdeckung
entdeckungen
enteifer
enten
entente
entginas
entgins
entir
entira
entiras
entirs
entitads
entitats
entochen
entra
entrada
entradas
entrads
entran
entrar
entras
entrava
entretschada
entretschadas
entretschads
entretschament
entretschaments
entropia
entschaiva
entschatta
entscheiva
entschet
entschiet
entstehung
entuorn
entupa
enturn
entusiasma
entusiassem
entwicklung
entwicklungslinien
enumeradas
enumerads
enumerar
enumeraziun
enumerescha
enver
envernada
envers
envida
envidada
envidads
envidar
enviern
envierns
enviers
environment
environmental
enzatgei
enzatgi
enzyklopa
eocen
ep
ephesus
ephraim
epica
epicenter
epicur
epidemia
epidemias
epidermis
epilog
epirus
episcopal
episcopala
episcopalas
episoda
episodas
epistulae
epitel
epoca
epocas
epoche
epos
epstein
equator
equaziun
equaziuns
equiliber
equilibra
equilibrada
equilibradas
equilibrar
equipa
equipada
equipads
equipament
equipas
equivalent
equivalenta
equivalentas
equivalents
equivalenza
er
era
eran
erasmus
erbe
erbicids
erbivors
ercolano
erde
erectus
erecziun
ereditad
ereditar
ereditara
ereditaras
ereditars
ereignisse
eremit
eresia
eretics
erfindung
erforschung
erfurt
erga
ergebnisse
erhard
eri
eric
erich
eriger
erigi
erigida
erigidas
erigids
erik
erika
eriksson
erinaceus
erinnerung
erinnerungen
erinnerungsorte
eritrea
erizun
erizuns
erkennen
erkenntnis
erkenntnisse
erkla
erla
erlangen
erlbeck
erle
erlko
erlo
ermafroditas
erna
ernest
ernesto
ernst
ero
eroberung
erodinamica
eroelectrics
eroic
eroica
eroplan
eroplans
eroport
eroports
erosiun
erox
eroxs
errur
errurs
ers
erstaunlichen
erste
ersten
erster
erta
ertavel
ertavels
ertavla
erudits
erui
eruida
eruids
eruir
erupziun
erupziuns
erva
ervas
ervusa
erwin
erza
erzberger
erzegovina
es
esa
escalada
escalar
escalaziun
escaldes
escatologia
esch
esche
escher
escorta
escu
espan
esperanto
espoo
espresso
esprit
essai
essais
essan
essas
essay
essays
essen
essend
essenza
essenzial
essenziala
essenzialas
essenzialmain
essenzials
esser
essers
essex
est
estado
ester
esterha
esters
estetic
estetica
esteticas
esteticissem
estetics
estga
eston
estona
estonas
estonia
estons
estra
estras
et
eta
etabli
etablida
etablidas
etablids
etablir
etappa
etappas
etascha
etc
eted
eter
etern
eterna
eternitad
eterogen
eterogena
ethik
ethnic
ethnologue
etic
etica
eticas
etics
etimologia
etimologicamain
etiopia
etiopiaun
etiopiauna
etna
etnia
etnias
etnic
etnica
etnicamain
etnicas
etnics
etnolog
etnologia
etnologica
etos
etrusc
etrusca
etruscas
etruscs
etter
etwas
etymologisches
eu
euforia
eufrat
euge
eugen
eugene
eumachius
eupen
eurasia
eurasian
eurasiana
euro
eurocentrica
europa
europaea
europas
europe
european
europeans
europeic
europeica
europeicas
europeics
euros
eurostat
eurovision
eusebius
eustatius
eutanasia
euv
ev
eva
evacuar
evacuaziun
evalua
evaluadas
evaluads
evaluar
evaluation
evaluaziun
evan
evangeli
evangelic
evangelica
evangelicas
evangelics
evangelis
evangelische
evangelischen
evangelist
evangelium
evans
eve
evel
eveline
evelyn
eveniment
eveniments
eventual
eventuala
eventualas
eventualmain
eventuals
everest
evic
evidence
evident
evidenta
evidentamain
evidentas
evidents
evita
evitar
evitescha
eviteschan
evla
evoca
evolution
evolutionary
evolutiv
evoluziun
evoluziunara
evtl
ewigen
ewz
ex
exact
exacta
exactadad
exactamain
exactas
exagera
exagerada
exageradas
exaimpel
examen
examens
examina
examinads
examinar
examinaziun
examinaziuns
examinescha
excellent
excellenta
excellentas
excelsior
excepziun
excepziunalas
excepziunalmain
excepziunals
excepziuns
excess
excessiva
excessu
exchange
exchava
exchavadas
exchavaziun
exchavaziuns
exclava
excluda
excludan
excluder
excludeva
excludi
exclus
exclusa
exclusas
exclusiun
exclusiv
exclusiva
exclusivamain
exclusivs
excomm
excommunicaziun
excrements
excursiun
excursiuns
exe
executa
executadas
executads
executar
executiv
executiva
executivas
executive
execuziun
execuziuns
exegesa
exegets
exempel
exempels
exemplar
exemplaric
exemplarica
exemplars
exequescha
exequeschan
exequi
exequida
exequidas
exequir
exequivan
exercitar
exercizi
exercizis
exhibition
exhumaziun
exil
exiliaziun
exista
existan
existent
existenta
existentas
existents
existenza
existenziala
existenzialas
exister
existi
existia
existian
existiva
existivan
exkursionsflora
exnum
exocet
exodus
exoticas
exotics
expander
expandi
expansion
expansiun
expansiva
expectoraziuns
expedition
expediziun
expediziuns
expensas
experience
experientscha
experientschas
experiment
experimenta
experimental
experimentala
experimentalas
experimentar
experiments
expert
expertisa
experts
explicativa
explicaziun
explicaziuns
explicit
explicita
explicitamain
explitga
explitgar
explitgescha
explitgeschan
explora
explorar
exploratur
exploraturs
exploraziun
exploraziuns
explosiun
explosiuns
explosiv
explosivas
explosivitad
explota
explotada
explotads
explotar
explotaziun
expo
expona
exponats
exponents
exponenziala
exponer
exponi
exponida
exponidas
exponids
export
exporta
exportada
exportadas
exportader
exportaders
exportads
exportar
exporteschan
exports
exposiziun
exposiziuns
expost
exposta
expostas
exposts
express
expressiun
expressiunissem
expressiuns
exprima
expriman
exprimer
exprimi
exprimida
exprimidas
exprimids
exprimiva
expropria
expropriaziun
expropriaziuns
expulsa
expulsiun
extenda
extendan
extender
extendeva
extendi
extendida
extendidas
extendids
extensiun
extensiuns
extensiva
exteriur
exteriura
exteriuras
exteriurs
exterminaziun
extern
externa
externas
externs
extincziun
extirpa
extirpadas
extirpads
extirpar
extirpaziun
extract
extracts
extracziun
extrada
extrader
extradi
extraordinari
extraordinaria
extraordinariamain
extraordinarias
extraordinaris
extraterresters
extrem
extrema
extremamain
extremas
extremists
extremitads
extrems
exupe
eye
eyes
eyjafjallajo
eyjafjo
ez
f
fa
faa
fabian
fabio
fablas
fabrica
fabricas
fabricaziun
fabritga
fabritgar
fabritgas
fabulus
face
facil
facit
facsimile
factbook
factica
facticamain
facto
facts
factur
facturs
facultad
facultads
facultativa
fadetgnas
fadia
fado
fadri
fageva
fagevan
fagus
fahrt
fai
faida
faido
fain
fains
fair
faira
faiva
fakten
falange
falangists
falcuns
falera
falk
falkenhayn
falkland
falklands
fall
falla
fallada
falladas
falsificaziun
falsifitga
fama
fame
famegls
famiglia
famigliar
famigliara
famigliaras
famiglias
familie
family
famus
famusa
famusas
fan
fanadur
fanal
fanestra
fanestras
fanny
fans
fantasia
fantasias
fantastic
fantasticas
fantasy
fantschella
fantschellas
fao
far
farao
farcla
farera
farfara
fargetta
farina
farm
farmaceutica
farmas
farmers
faro
fasa
fasans
fasas
faschain
faschev
fascheva
faschevan
faschismus
faschissem
faschista
faschistic
faschistica
faschisticas
faschistics
faschists
faschoda
faschond
faschs
fascia
fascina
fascinads
fascinaziun
fascism
fassetta
fassettas
fast
fastiz
fastizar
fastizs
faszination
fat
fatalas
fatg
fatga
fatgas
fatgs
fatimids
fats
fatsch
fatscha
fatschada
fatschadas
fatschas
fatscheda
fatschenta
fatschentads
fatschentan
fatschentar
fatschentas
fatta
fau
fauda
faudada
faudas
faudaziun
faun
fauna
faus
fauss
faussa
faussamain
faussas
faust
fautur
fav
fava
favrer
favugn
favur
favuraivel
favuraivla
favuraivlas
favurisa
favurisada
favurisar
favurisescha
fayette
fbi
fc
fci
fe
fear
februar
federads
federal
federala
federalas
federalissem
federalist
federalistic
federalistica
federalistics
federalists
federals
federation
federativ
federativa
federativs
federaziun
federaziuns
federer
federico
feedback
feel
fegl
feglia
fegliets
fegliom
fegls
fehr
fein
feind
feld
feldkirch
feldmarschal
feleschs
felidae
felipe
felis
felix
fels
femella
femellas
feminin
feminina
femininas
feminins
femna
femnas
fenadur
fender
fenizians
fenomen
fenomens
fer
fera
ferdinand
ferdinando
ferenc
ferguson
ferm
ferma
fermada
fermadas
fermads
fermamain
fermanza
fermar
fermas
fermentaziun
fermezza
ferms
fernand
fernando
ferne
fernsehen
fernsehgesellschaft
feroais
feroe
feromons
ferrari
ferrer
ferrera
ferrie
ferrovie
fertilitad
ferton
fervents
fest
festa
festas
festegia
festegiads
festiv
festiva
festivads
festival
festivals
festivitad
festivitads
festschrift
fet
fetg
fetisch
fetscher
fetschia
fetschian
fetus
feud
feudal
feudala
feudalas
feudalissem
feudals
feuerbach
fevra
fevrer
ffe
ffentlicht
ffentlichungen
fi
fia
fiasco
fiasta
fiat
fiba
fibra
fibras
fich
fichte
ficocle
fiction
fictiv
fictiva
fictivas
fidaivel
fidaivels
fidaivla
fidaivladad
fidaivlas
fidanza
fidar
fidaz
fide
fidel
fidelio
fiduziara
field
fields
fier
fiera
fieras
fiergna
fiergnas
fiers
fieschi
fieu
fieus
fieuter
fifa
figaro
figl
figlia
figlias
figls
fignicler
figu
figura
figuras
figurativ
figurativa
figurativs
figurava
figuravan
figurescha
figureschan
fil
fildarom
file
filiala
filialas
filien
filiens
filip
filipepi
filippinas
filippo
filisur
film
filma
filmar
filme
films
filogenesa
filogenetica
filolog
filologia
filologica
filologs
filosof
filosofar
filosofescha
filosofia
filosofias
filosofic
filosofica
filosoficas
filosofics
filosofs
fils
filter
filtrar
fim
fin
fina
finais
final
finala
finalas
finalmain
finalmein
finals
finamira
finamiras
financial
finanzas
finanzia
finanziada
finanziadas
finanziads
finanzial
finanziala
finanzialas
finanzialmain
finanzials
finanziar
finanziaziun
finanzieschan
finas
fine
finel
finela
finescha
fineschan
fingia
fini
finida
finids
finir
finiziun
finiziuns
fink
finland
finlanda
finlandais
finlandaisa
finlandaisas
finnish
finnland
fins
finsternis
finta
fiord
fiords
fiore
fiorelli
fiorentina
fira
firads
fire
firenza
firma
firmament
firmas
first
firth
fis
fiscal
fiscala
fiscalas
fiscals
fischer
fish
fisic
fisica
fisicala
fisicalas
fisicals
fisicamain
fisicher
fisichers
fisiladas
fisiocrats
fisiologia
fisiologic
fisiologica
fisionomia
fiss
fissan
fissi
fissiun
fist
fit
fitg
fitga
fitgar
fittanza
fitzgerald
fitzroy
fiug
fivb
five
fix
fixa
fixada
fixadas
fixads
fixar
fixas
fixaziun
fixaziuns
fixescha
fixs
fla
flad
flaivel
flaivels
flaivla
flaivlas
flaivlenta
flaivlentada
flaivlentar
flaivlezza
flaivlezzas
flam
flama
flams
flanca
flancada
flandra
flash
flatg
flatgs
flauta
flautas
flavio
fleet
flem
flexibel
flexibels
flexibla
flight
flisch
flo
flomma
flommas
flond
flora
floraweb
floreal
flores
florian
florida
florin
flotta
flottas
flottiglia
floyd
flu
fluctuanta
fluctuaziuns
flugi
fluid
fluids
flum
flums
flur
fluras
flurescha
flureschan
fluri
flurin
flurina
flurinta
flurir
fluriziun
flurs
fluss
fluviala
fluvialas
fluxbox
fmi
fo
foca
focas
foch
focus
focusar
focusescha
foederati
fogg
foix
folclora
folgen
folium
folk
folliculs
fom
fomaz
fomentads
fomina
fominas
fond
fonds
fonetic
fonetica
foneticas
fonologia
fontaine
fontana
fontauna
fontaunas
food
football
foppa
foppas
fops
for
fora
foras
force
forces
ford
foreign
forel
forest
forestal
forestala
forma
formal
formala
formalas
formalmain
formals
format
formation
formen
formula
formulada
formuladas
formular
formulaziun
formulaziuns
formulescha
forsa
forschung
forschungen
forst
forstliche
forstwirtschaft
fort
fortaleza
forte
fortezza
fortezzas
fortificaziun
fortificaziuns
fortifitga
fortifitgada
fortifitgadas
fortifitgads
fortuna
fortunat
forum
forums
forza
forzas
fosfor
foss
fossa
fossal
fossas
fossil
fossilas
fossils
foster
foto
fotoelectric
fotograf
fotografa
fotografar
fotografia
fotografias
fotos
fotosensiblas
fotosintesa
foucault
foul
fouls
foundation
fouque
fouquet
four
fourier
fovea
fox
foxes
fr
fra
fracziun
fracziuns
fradaglia
frage
fragen
fragliuns
fragment
fragmentara
fragmentaziun
fragmente
fragments
fraid
fraida
fraidas
fraids
frain
frains
fraissen
fraissens
framassuns
fran
frana
franada
franads
franar
franc
franca
francada
francads
francar
france
frances
francesca
francesco
francfurt
franche
franches
franchi
francis
franciscans
francisco
francke
franckh
franco
francofona
francon
francona
franconas
franconia
francons
francoprovenzal
francorum
francs
frank
franken
frankenreich
frankfurt
frankfurter
franklin
frankreich
frankreichs
franks
frans
frantscha
frantz
franz
franziska
franzo
franzos
franzosa
franzosas
frar
frars
frasa
frasas
frastgas
fratemp
fraternisaziun
fraternitad
fraters
frau
fraud
frauen
frauenfeld
frauntscha
fravgia
fraxinus
frazer
fre
fred
frederic
frederick
frederik
fredrickson
fredrik
free
freedom
fregattas
frei
freiburg
freie
freiheit
freiherr
freising
freisler
freistaat
french
frenesia
frequent
frequenta
frequentada
frequentadas
frequentads
frequentan
frequentar
frequentas
frequentau
frequents
frequenza
frequenzas
frers
fresco
frescos
frestg
frestga
frestgas
frestgs
freud
freude
freund
freunde
freundschaft
frey
fribourg
fribourgeois
friburg
friburgais
friburgaisdictionnaire
fricktal
fricziun
frida
fridas
fried
frieden
frieder
friedhof
friedla
friedman
friedrich
friends
fris
frisch
frisching
frisia
fritg
fritgaivel
fritgaivels
fritgaivla
fritgaivladad
fritgs
fritsch
fritz
friul
friulana
frizza
frizzas
fro
from
fromm
front
frontier
frontispizi
fronts
frontscha
fru
fructificaziun
fructifitgadas
frunt
frunta
fruntada
fruntadas
fruntads
fruntan
fruntar
frusta
fry
fryburgia
frz
ftan
fte
fu
fuaina
fuchs
fuga
fugi
fugia
fugian
fugida
fugidas
fugids
fugir
fugitivs
fuhrmann
fui
fukushima
fular
fuldera
fulin
full
fulla
fullanadas
fumegl
fumeglia
funcziun
funcziuna
funcziunala
funcziunalissem
funcziunalitad
funcziunals
funcziunament
funcziunan
funcziunar
funcziunari
funcziunaris
funcziunava
funcziunavan
funcziunescha
funcziuneschan
funcziuns
fund
funda
fundada
fundadas
fundads
fundament
fundamental
fundamentala
fundamentalas
fundamentalmain
fundamentals
fundaments
fundar
fundatur
fundaturs
fundaziun
fundaziuns
fundeda
fundescha
fundeschan
fundo
fundond
funds
funeral
funiculara
funiculera
funk
funs
funsil
funsila
funsils
funtauna
funtaunas
fuond
fuorcla
fuorma
fuormas
furar
furca
furet
furets
furgler
furia
furius
furlan
furlans
furma
furmada
furmadas
furmads
furman
furmar
furmas
furmava
furmavan
furmaziun
furmaziuns
furment
furmia
furmian
furmiclas
furmla
furmond
furn
furnescha
furneschan
furni
furnier
furnir
furnitur
furnitura
furnituras
furniturs
furniva
furniziun
furniziuns
furns
fusiun
fusiuna
fusiunadas
fusiunar
fusiuns
fuss
fussi
fustg
fustga
futur
futura
futuras
future
futuristic
futurs
fuva
fußball
g
ga
gabriel
gabriele
gada
gadas
gadola
gaelic
gagarin
gagl
gaius
gajda
gala
galant
galanthus
galantina
galaria
galarias
galats
galaxia
galaxias
galbraith
galen
galera
galerie
galicia
galilea
galilei
galileo
galizia
gall
gallaria
gallen
galleria
gallery
gallia
gallica
gallicius
gallico
galliformes
gallipoli
gallo
galloromana
gals
galtieri
gama
gambarogno
game
games
gampo
gan
ganden
gandhi
ganesha
gang
gangale
ganz
ganzoni
gap
garantescha
garanti
garantida
garantidas
garantids
garantir
garantiva
garanzia
garanzias
garci
garda
gardaroba
gardas
garden
gardens
gardists
garibaldi
garmisch
garnischun
gartegia
garten
gartner
gary
garzanti
gas
gasatura
gasetta
gasettas
gastronomia
gats
gatt
gattung
gatwick
gauda
gaudenz
gauleiter
gaulle
gaza
gazetta
gazette
gdan
gdynia
ge
gea
geba
gebiete
gebru
geburt
geburtstag
geda
gedanken
gedenksta
gedichte
geertz
gefa
gegen
gegenwart
gegia
geheime
geheimnis
geho
geiss
geissenpeter
geist
geiste
geistes
geistige
geistingen
gel
geld
gelgia
geliebte
gelle
gelug
gemeinde
gemeinden
gemeinschaft
gemkow
gen
genatsch
gender
gene
genealogic
genealogie
gener
genera
generada
generadas
generads
general
generala
generalas
generale
generalis
generalisaziun
generalitad
generalitat
generalmain
generals
generar
generation
generativas
generaziun
generaziuns
generel
generescha
genereschan
generica
geners
generus
genesa
genesis
genetic
genetica
geneticamain
geneticas
genetics
geneva
genevra
genfersee
genitiv
genitur
geniturs
genocid
genocide
genocids
genom
genome
genova
genozid
gens
gent
gentar
gentes
gentiana
gentile
gentium
gentle
genua
genuin
geodatas
geodesia
geoffrey
geograf
geografia
geografic
geografica
geograficamain
geograficas
geografics
geografs
geographic
geographical
geographie
geographische
geography
geolog
geologia
geologic
geologica
geological
geologicamain
geologicas
geologics
geology
geometria
geometric
geometricas
geomorfologia
geophysical
geopolitica
georg
george
georges
georgi
georgia
geotermia
geotermica
geothermie
ger
gerais
gerald
gerard
gerber
gerd
gerdt
gerechtigkeit
gerhard
gerhardt
geri
germain
german
germana
germanas
germania
germaniae
germanisada
germanisaziun
germanischen
germans
germany
gernot
gerra
gert
gerusalem
ges
gesammelte
gesamtausgabe
geschichte
geschichten
geschichtliche
geschichtsvereins
geschiedenis
gesellschaft
gesellschaften
gesellschaftsgeschichte
gespra
gest
gesta
gestalten
gestapo
gestiun
gestiunada
gests
gesu
gesuits
gesundheit
get
gewa
gewalt
gewaltmission
gewerkschaften
gg
gge
ghana
gherde
ghetto
ghettos
ghibellins
ghil
ghitaras
ghitarra
ghitarras
ghitarrist
gi
gia
giabus
giacca
giachen
giacometti
giacomo
giacubin
giacubins
giacun
giada
giadas
giaglina
giaglinas
giaglinom
giain
giaiva
giaja
giambattista
gian
giancarlo
giansauna
giansaunas
giap
giappar
giapun
giapunais
giapunaisa
giapunaisas
giargiatta
giascha
giaschair
giaschaments
giaschan
giascheva
giaschevan
giast
giasts
giat
giats
giatter
giauda
giaudan
giavel
giavisch
giavischa
giavischada
giavischs
gibraltar
gibran
gibson
gida
gidan
gidanter
gidanters
gidar
gidau
gidava
gidavan
gidia
gidian
gidieu
gidieua
gidieuas
gidieus
gie
gieri
gies
giessen
gieu
gieus
gieva
gievan
gigant
gigantica
gigants
gigina
gil
gilbert
gilles
gilly
gime
gimme
gimnasi
gimnasial
gimnastica
ginaiver
ginestra
gingolph
gini
gio
gioga
giogan
giomber
giombers
gion
gions
giorgio
giornico
giovannes
giovanni
gip
gir
gira
giran
girar
girard
girl
girolamo
girona
girondins
girs
gis
gisela
gisep
gist
gista
gistadad
gists
gita
gitarre
gitarrenklassiker
gitg
giu
giuadora
giuanna
giubiasco
giubileum
giud
giudaic
giudaica
giudair
giudaissem
giudem
giudeva
giudevan
giudi
giudicament
giudicat
giudicativa
giudim
giudiment
giuditga
giuditgada
giuditgar
giuditgescha
giuditgeschan
giudizi
giudiziala
giudizialas
giudizialmain
giudizials
giuf
giug
giuga
giugada
giugader
giugaders
giugadira
giugadiras
giugads
giugadur
giugadurs
giugar
giugava
giugavan
giulia
giulian
giulianas
giulietta
giulio
giun
giunta
giura
giuria
giuridic
giuridica
giuridicamain
giuridicas
giuridics
giurisdicziun
giurisprudenza
giurist
giurists
giuru
giusep
giuseppe
giustia
giustificaziun
giustifitga
giustifitgada
giustifitgadas
giustifitgar
giustifitgescha
giusut
giuvaulta
giuveder
giuven
giuvenessendi
giuvenil
giuvenila
giuvenils
giuvens
giuventetgna
giuventetna
giuventu
giuvet
giuvna
giuvnal
giuvnals
giuvnas
give
givels
giz
gizs
gizzas
gjat
gje
gl
gla
glacier
gladbach
gladiaturs
glance
gland
glaruna
glarus
glasgow
glasnost
glatsch
glatscher
glatschers
glaube
glauben
glayre
glazial
glaziala
glazialisaziun
glazials
gle
glenn
glera
gli
glia
glich
glichkeiten
glieud
gliez
glimajas
glin
glina
glinas
glindesdi
glion
glisch
glischa
glischant
glischanta
glischantas
glischnar
glischs
glischur
glista
glistas
glitta
glivra
glivras
glivret
global
globala
globalas
globale
globalen
globalisaziun
globalisierung
globalization
globals
globe
globus
glogn
glogns
glonda
glondas
gloria
glorificaziun
glorifitga
glorious
gloriusa
glossaire
glu
gluck
glutinosa
gmbh
gn
gnaeus
gnais
gnanc
gne
gnerv
gnerva
gnervs
gnida
gnieu
gnieus
gniezno
gnif
gnint
gnir
gnirom
gnirunchels
gnit
gnittan
gniva
gnivan
gnome
gnu
go
goa
goba
god
godesberg
gods
goebbels
goes
goethe
goetz
gogh
gol
golaz
gold
golden
goldene
goldmann
goldstandard
goldstein
golem
golf
golfs
goli
gols
goms
gonda
gondo
gondwana
gonza
good
google
goose
gora
goran
gorbatschow
gordon
gori
gorki
goslar
gospel
gotha
gothic
gotic
gotica
gotland
gots
gott
gottard
gottardo
gottes
gottfried
gotthard
gotthelf
gotthold
gottlieb
gottlob
gourmandises
gov
governance
government
gozo
gpsr
gr
gra
grab
gracchus
grace
grad
grads
graduada
graduala
graf
graffitis
grafia
grafica
graficher
graham
grammatica
grammatik
grammy
grams
gramsci
gran
granada
granatas
grand
granda
grandas
grande
grands
grandson
granezza
granit
grant
graphic
grascha
graschel
graschels
graschla
graschlas
grass
gratuit
gratuita
gratuitamain
gratuitas
gratuits
grau
graubu
graun
grauns
gravantas
gravants
gravidanza
gravitaziun
gravura
gravuras
gray
graz
grazcha
grazia
gre
great
greater
greatest
grec
greca
grecas
greco
grecoromana
grecs
greek
green
greenhouse
greenpeace
greenwich
greenwood
gregor
gregori
gregorian
gregory
greina
greiner
gremi
gremis
grenoble
grenzen
grep
greuter
grev
greva
grevamain
grevas
grevezza
grevezzas
grevs
grey
grezia
gridcolor
griechen
griechenland
griff
griflas
grigioni
grigori
grillparzer
grimaldis
grimm
griosch
grip
grippa
grippus
grippusa
grippusas
grips
grisch
grischa
grischs
grischun
grischuna
grischunais
grischunas
grischuns
gritta
griu
gro
groener
groma
grond
gronda
grondamain
grondas
grondezza
grondezzas
grondiusa
gronds
gronduca
gronducadi
grop
groppa
gros
gross
grossa
grossas
grosse
grossen
grosser
grossezza
grossmann
grosso
grossreichs
grotius
ground
group
growth
große
großen
großes
gru
gruber
grubicy
grund
grundbegriffe
grundgesetz
grundlage
grundlagen
grundlegung
grundriss
grundzu
gruner
grunfeld
grupo
gruppa
gruppas
gruppaziun
gruppaziuns
gruppe
gruscha
gruschke
gruye
gruyter
gt
gu
guadagnet
guadalquivir
guadeloupe
guaffens
gualino
guals
gualser
gualsers
gualsra
guants
guarani
guard
guarda
guardan
guardar
guardia
guardian
guardias
guards
guariziun
guatemala
guaud
guaudets
guauds
gudagna
gudagnada
gudagnadas
gudagnads
gudagnar
guder
gudogn
gudogna
gudognan
gudogns
gudrun
guelfs
gueriglia
guernica
guerra
guerras
guerrescs
guerrier
guerriers
guerriglia
guerrila
guerrilas
guerrils
guevara
gugent
guglia
guglias
guglielm
guglielmo
gui
guid
guida
guide
guido
guids
guillaume
guillotina
guinea
guisan
guitar
guitarra
gujarat
gula
gulag
guliv
guliva
gulivar
gulivas
gulivaziun
gulivs
gulliver
gulya
gumma
gunnar
gunter
guntgescha
guntgida
guntgids
guntgir
gur
gurin
gurus
gust
gusta
gustaf
gustan
gustativ
gustativas
gustativs
gustav
gustave
gut
gute
gutenberg
gutta
guttas
guvern
guvernament
guvernamental
guvernamentala
guvernamentalas
guvernativ
guvernativa
guvernativas
guvernativs
guvernatur
guvernaturs
guy
guyana
guðmundsson
gw
gwh
gyatsho
gyatso
gymnasium
gyo
gyula
h
ha
haag
haarmann
haas
haase
habe
haben
habermas
habilis
habitar
habitat
habitats
habitonts
habitus
habsburg
habsburgais
habsburgaisa
habsburgaisas
hack
haddaway
hades
hadrian
haeckel
haensch
haffner
hafnarfjo
hagen
hagi
hagia
hagien
hago
hahn
hai
haile
haiti
haja
hajan
hajas
haklai
haldon
hall
halla
hallas
halle
haller
hallstatt
halm
halter
hambach
hamburg
hamburger
hamilton
hamlyn
hammer
hammurapi
hampshire
hampton
han
hand
handbook
handbuch
handwo
hanley
hannah
hanneli
hannes
hannibal
hannover
hanns
hanoi
hans
hansa
hansen
hanser
hanspeter
happy
harald
harbor
hard
hardenberg
hardin
harding
hardrock
hardy
harnack
harold
harper
harrer
harriers
harris
harrison
harry
hart
hartmann
hartmut
hartog
hartwig
harvard
harvey
harz
has
haseder
haslinger
hasper
hassan
hastings
hat
haug
haun
haupt
haus
hausma
haut
haute
havanna
have
havel
haven
haver
havess
haveva
havevan
hawai
hawkins
haydn
hayek
hdi
he
head
health
heart
hearts
heathrow
heavy
hebrew
hecker
hectara
hectaras
hedgehog
hedonissem
heemskerck
hegel
hegelians
hegelschen
hegia
heide
heidegger
heideking
heidelberg
heidelbergensis
heidelberger
heidi
height
heiko
heil
heilige
heiligen
heilpflanzen
heimat
heimischen
heimskringla
heine
heinemann
heinrich
heinz
heisenberg
held
helen
helena
helene
helenissem
helens
helga
helgoland
helicopter
helicopters
hell
hellenissem
hellenistic
hellenistica
hellenistics
heller
hello
helmut
helmuth
help
helsinki
helvetia
helvetic
helvetica
helveticas
helveticum
helvets
helvezia
hen
henderson
hendri
hendrik
hendrix
hennef
henning
henri
henriette
henrik
henry
henryk
henschel
henslow
hep
hepburn
heptatlon
her
heracles
herakleios
herakles
herausforderung
herausgegeben
herba
herbert
hercegovina
herculaneum
hercules
herder
here
herero
herfried
heritage
herman
hermann
hermes
herna
herodot
heroin
herr
herre
herrgott
herrmann
herrn
herrschaft
herrschaftspraxis
herrscher
herschel
hertz
herwegh
herz
herzog
hesiod
hess
hesse
hessen
hessische
het
hetits
heusser
heute
heydrich
heyne
hg
hgeschichte
hi
hienas
hier
hieronymus
high
highland
highlands
hignard
hilberg
hildebrand
hildegard
hildemar
hildermeier
hildesheim
hilfe
hill
hills
himalaia
himalaya
himmel
himmler
hinaus
hinayana
hindenburg
hindu
hinduism
hinduismus
hinduissem
hinduistic
hinduistica
hinduisticas
hinduistics
hindus
hinter
hip
hippis
hippo
hiroshima
hirsch
hirschfeld
hirzel
his
hisarlık
hispaniola
histo
histoire
historia
historiae
historians
historias
historic
historical
historics
historie
histories
historietta
historique
historisch
historische
historischen
historischer
historisches
history
hit
hitler
hitlers
hits
hiv
hl
hlau
hle
hlen
hler
hlich
hliche
hlmann
hls
hlt
hlte
hlung
hlungen
hm
hmann
hmittelalter
hmittelalterliche
hms
hn
hne
ho
hob
hobbes
hobsbawm
hochschild
hochzeit
hockey
hof
hofbauer
hoffman
hoffmann
hoffnung
hofrichter
hohen
hohenheim
hohenzollern
hokkaido
holbein
holconius
hold
holger
holla
holland
hollweg
holly
hollywood
holmes
holocaust
holstein
holz
holzabsatzfond
holzwirtschaft
hom
home
homelands
homer
hominin
homme
hommes
homo
honduras
honecker
hong
hongkong
honoris
honorius
hooker
hoover
hop
hope
hopkins
horace
horatio
horaz
horda
horizonte
horkheimer
horn
hornkonzert
horse
horst
horthy
horton
hospental
hot
hotel
hotellaria
hotels
hotspots
hound
house
houyhnhnms
how
howard
hoxha
hoz
hozindi
hr
hren
hrend
hrer
hrige
hrigen
hring
hrings
hrsg
hrt
hrung
hrungspolitik
hrungssystems
hrvatska
htm
html
http
https
hu
hua
huanca
huang
huber
hubert
hubertus
hudson
hue
hufeisen
hug
hugh
hughes
hugo
hui
huldrych
hulte
human
humane
humblot
humboldt
hume
humoristica
humphrey
humus
hund
hunde
hundert
huns
hunt
hunter
huonder
hus
hussits
hutu
huxley
hyde
hz
hzeit
i
ia
iaaf
ian
iar
iata
iauliai
iberic
iberica
ibid
ibiza
ibn
ibrid
ibridas
ibridisaziun
ibrids
ibsen
ic
ica
icao
ice
iceland
icelandic
iceman
ich
icona
iconas
iconoclassem
iconoclast
id
ida
idas
ide
idea
ideal
ideala
idealas
idealisa
idealisada
idealisant
idealissem
idealistic
idealistica
ideals
ideas
idee
ideen
idem
identic
identica
identicas
identics
identificaziun
identifitga
identifitgada
identifitgads
identifitgar
identita
identitad
identity
ideolog
ideologia
ideologias
ideologic
ideologica
ideologicamain
ideologicas
ideologics
ideologie
ideologien
ideology
idilla
idiom
idioms
ido
idrats
idraulica
idraulicas
idrogen
idrografia
idrografic
idrolisa
idrologia
ids
ie
ieli
ielis
ier
ierarchia
ierarchias
ierarchic
ierarchica
ierdi
iert
ierta
ierts
if
iff
iffaunt
iffaunts
igel
igiena
igienicas
igl
igls
ignaz
ignora
ignoranza
igor
iguazu
ihr
ihre
ihrer
ihres
ihw
ii
iici
iii
il
ila
ilanz
ilias
ilja
iljitsch
ill
illa
illas
illegal
illegala
illegalas
illegalitad
illegals
illegitim
illegitima
iller
illimita
illimitada
illimitadamain
illinois
illumina
illuminada
illuminadas
illuminar
illuminats
illuminaziun
illuminissem
illuminist
illuministic
illuministica
illuministicas
illuministics
illuminists
illusiun
illusiuns
illustra
illustrada
illustradas
illustrads
illustrar
illustrated
illustratur
illustraziun
illustraziuns
illustrescha
illustreschan
illustrierte
ilona
ils
ilsa
ilse
im
image
images
imagesize
imagina
imaginada
imaginar
imaginara
imaginaziun
imaginaziuns
imaginescha
imam
imanuel
imdb
imegna
imf
imhof
imita
imitada
imitar
imitaziun
imitescha
immanenta
immanuel
immateriala
immediat
immediata
immediatamain
immediatamaing
immens
immensa
immensas
immer
immez
immigra
immigrada
immigradas
immigrads
immigrants
immigraziun
immigraziuns
immissiuns
immobiglias
immortala
immortalitad
immortals
immunitad
imni
imnis
imola
impact
impe
impedescha
impedeschan
impedeschia
impedi
impedida
impedids
impediment
impediments
impedir
impediu
impedivan
imperativ
imperatur
imperatura
imperaturs
imperi
imperial
imperiala
imperialas
imperialism
imperialismus
imperialissem
imperialistic
imperialistica
imperialisticas
imperialitad
imperials
imperii
imperis
imperium
implant
implants
implementaziun
implications
implicaziuns
implicitamain
implitgescha
impollinaders
impollinaziun
imponer
imponi
imponidas
import
importa
importada
importadas
importads
importance
important
importanta
importantas
importants
importanza
importar
imports
imposanta
imposantas
imposiziun
impressari
impressaris
impressiun
impressiuna
impressiunant
impressiunanta
impressiunantas
impressiunissem
impressiuns
improntas
improvisaziun
impu
impuls
impunder
impundi
impundidas
impundids
impurtant
impurtanta
impurtantas
impurtants
impurtanza
impurtont
impurtonta
impurtontas
impurtonts
impurtonza
impussibel
impustu
imre
in
ina
inabels
inabilitad
inactivitad
inagada
inamura
inamurada
inaugura
inaugurada
inauguraziun
inaugureda
inavaunt
inc
inca
incana
incapacitad
incaps
incarica
incarnaziun
incas
incassadas
incassar
incendi
incendis
incident
incidenza
incisivs
incita
incitar
incl
inclinada
inclinaziun
includa
includer
inclus
inclusiv
income
inconscienta
incontesta
incontestada
incontestadamain
incontestads
incorpora
incorporada
incorporadas
incorporar
incorporaziun
increment
inculpa
incumbensa
incumbensada
incumbensaders
incumbensads
incumbensas
incumpletta
indebitament
indebli
indeblida
indebted
indecis
indefinit
indemnisar
indemnisaziun
indemnisaziuns
independence
independent
independenta
independentamain
independentas
independents
independenza
indesch
indeschavel
index
india
indian
indiana
indianas
indians
indic
indica
indicas
indicatur
indicaturs
indicaziun
indicaziuns
indics
indien
indigen
indigena
indigenas
indigens
indignaziun
indigo
indios
indirect
indirecta
indirectamain
indirectas
indispensabel
indispensabla
inditga
inditgada
inditgadas
inditgads
inditgar
inditgescha
inditgeschan
individi
individis
individual
individuala
individualas
individualissem
individualitad
individualmain
individuals
indizi
indizis
indo
indochina
indoeuropeica
indogerman
indogermana
indogermanas
indonesia
indriz
indrizs
inds
indubitablamain
induced
inducziun
indus
industria
industrial
industriala
industrialas
industrialisa
industrialisada
industrialisads
industrialisaziun
industrialisierung
industrials
industrias
ine
ineguala
inegualitad
inegualitads
inerta
ines
inevitabel
inevitabla
inevitablamain
infallibilitad
infantaria
infectus
infecziun
infecziuns
inferiur
inferiura
inferiuradad
inferiuras
inferiurs
inferno
infesta
infestiun
infiltraziun
infinit
infinita
infinitiv
inflammaziun
inflammaziuns
inflaziun
influence
influenza
influenzada
influenzadas
influenzads
influenzar
influenzas
influenzescha
influenzeschan
info
infoflora
informala
informalas
informatica
information
informationen
informationsdienst
informaziun
informaziuns
infra
infrastructura
infurma
infurmar
infurmaziun
infurmaziuns
infurmescha
inge
ingeborg
ingestiun
ingiustia
inglais
ingo
ingolstadt
ingrandida
ingrid
inimi
inimis
initiative
inizia
iniziada
iniziadas
iniziads
inizial
iniziant
iniziants
iniziar
iniziativa
iniziativas
iniziaziun
iniziescha
injecziun
inn
innata
innerhalb
innocenz
innocenza
innovativa
innovativas
innovativs
innovaziun
innovaziuns
innsbruck
ino
inoltra
inoltrar
input
inqual
inquiry
inquisiziun
inquisiziuns
ins
insacura
insanua
insaquantas
insaquants
insatge
insatgi
inscena
inscenads
inscenar
inscenaziuns
inschign
inschigner
inschigneria
inschigners
inschignusa
inscripziun
inscripziuns
inscrit
inscrits
inscunter
inscunters
inscuntra
insect
insectivors
insects
insegna
insel
insembel
insista
insistenza
insisti
insistivan
insla
inslas
insolvenza
inspectur
inspira
inspirada
inspiradas
inspirar
inspiraziun
instabila
instabilitad
installa
installada
installadas
installads
installar
installaziun
instanza
instanzas
instinct
institui
institut
institute
institution
institutionen
instituto
instituts
instituut
instituziun
instituziunal
instituziunala
instituziunalisada
instituziuns
instrada
instradada
instradadas
instradar
instrucziun
instrucziuns
instruescha
instrui
instruida
instruids
instruir
instruiva
instrument
instrumentala
instrumentalas
instrumentalisierung
instrumentari
instruments
insuffizienta
insuffizients
insuffizienza
insular
insulars
insumma
insurrecziun
insurrecziuns
int
intact
intacta
intactas
integra
integrada
integradas
integrads
integrala
integrar
integration
integrativa
integraziun
integrescha
integritad
integrond
intellectual
intellectuala
intellectualas
intellectuals
intellektuelle
intelletg
intelligence
intelligenza
intenda
intendants
intendeva
intensitad
intensiv
intensiva
intensivada
intensivadas
intensivamain
intensivar
intensivas
intensivs
intent
intents
intenziun
intenziuna
intenziunada
intenziunadamain
intenziunadas
intenziuns
inter
interacziun
interacziuns
interalpina
intercontinental
intercuri
intercuridas
intercurids
intercurir
interdependenza
interess
interessa
interessada
interessadas
interessads
interessant
interessanta
interessantamain
interessantas
interessants
interessar
interessava
interessescha
interesseschan
intergovernmental
interguvernamentala
interim
interiur
interiura
interiurs
interlaken
interlingua
intermedia
intermediada
intermediar
intermediara
intermediaras
intermediars
intermediatur
intermediatura
intermediaturs
intermediaziun
intermediescha
intermedieschan
intermezzo
intern
interna
internacional
internads
internamain
internament
internas
internat
international
internationale
internationalen
internationaler
internationales
internaziunal
internaziunala
internaziunalas
internaziunalmain
internaziunals
internet
interns
interprendi
interprendider
interprendiders
interpresa
interpresas
interpret
interpreta
interpretada
interpretadas
interpretar
interpretation
interpretaziun
interpretaziuns
interpretescha
interpreteschan
interprets
interregnum
interroga
interrogadas
interrogads
interrumpa
interrumper
interrupziun
interrupziuns
interrut
interrutta
interruttas
interval
intervals
intervegn
intervegna
intervegni
intervegnida
intervegnir
intervenziun
intervenziuns
interview
intervista
intervistas
intganta
intgantada
intgin
intginas
intgins
intima
intimar
intimidar
into
intoleranza
intragna
intriga
intrigas
introduci
introducida
introducidas
introducids
introducir
introduction
introducziun
introducziuns
intronisa
intschert
intscherta
intschertezza
intschertezzas
intschess
intuorn
inua
inumanas
inunda
inundada
inundaziun
inundaziuns
inutila
invader
invana
invasiun
invasiuns
invasurs
inventa
inventada
inventader
inventar
inventari
inventing
invenziun
invenziuns
inversa
inversiun
invertebrads
invertebrats
investescha
investi
investiders
investids
investiga
investigaziuns
investir
investitura
investiziun
investiziuns
invezza
inviern
invincible
invisibel
invista
invistas
invit
involvi
involvida
involvidas
involvids
ioannes
ioc
ion
ionica
ionicas
ions
iowa
ip
ipa
ipcc
iperinflaziun
iperit
iphone
ipodermis
ipotalamus
ipotesa
ipotesas
ippopotams
ipv
ir
ira
irac
iran
iranais
iranaisa
ireland
irene
ireneus
iring
iris
irish
irlanda
irlandais
irlandaisa
irocais
iron
ironia
irradia
irradiaziun
irradiescha
irredentissem
irregulara
irregulars
irritar
irritaziun
irritaziuns
is
isaac
isaak
isabel
isabela
isabella
isada
isanza
isanzas
isar
isbn
isch
ische
ischen
ischer
ischga
ischi
ischigl
ischis
ischs
isis
isla
islam
islamic
islamica
islamicas
islamics
island
islanda
islandais
islandaisa
islander
islands
islas
isle
iso
isola
isolada
isoladas
isolads
isolar
isolaziun
isole
isonzo
isotops
israel
israeli
israelian
israelits
issn
ist
istanbul
istat
istituto
istorgia
istorgias
istoric
istorica
istoricamain
istoricas
istoricher
istorichers
istorics
istoriograf
istoriografia
istoriografica
istoriografs
istorisant
istorissem
istria
istva
it
italia
italian
italiana
italiano
italica
italien
italienischen
italy
its
iu
iucn
iulius
iura
iure
ius
iv
ivan
ivas
ivo
ivur
iwan
iwf
ix
izmir
j
ja
jachen
jack
jackson
jacob
jacobs
jacobson
jacobus
jacqueline
jacques
jad
jada
jagdwildes
jagger
jaguar
jahn
jahr
jahrbu
jahrbuch
jahre
jahren
jahres
jahrhundert
jahrhunderte
jahrhunderts
jahrtausend
jahwe
jainissem
jakarta
jakob
jalta
jamaica
james
jamnas
jan
jana
jane
janeiro
janet
janis
januar
january
japan
jarchow
jaspers
jau
jauer
java
jay
jazz
je
jean
jeanne
jeckeln
jeder
jeff
jefferson
jeffrey
jegenstorf
jehova
jellinek
jemen
jena
jenatsch
jenics
jennifer
jenny
jens
jenseits
jent
jeremias
jeremy
jersey
jerusalem
jesse
jester
jesu
jesus
jet
jeu
jewish
jews
jiddic
jim
jimi
jimmy
jo
joa
joachim
joan
joannes
jobs
jochen
jodel
joe
joel
joffre
johan
johann
johanna
johannes
johannesburg
john
johnny
johns
johnson
joint
jokhang
jolles
jom
jon
jonas
jonathan
jones
jonin
joplin
jordan
jordania
jordi
jorge
joris
jose
josef
josep
joseph
josephine
josip
jost
journal
joux
joy
jozef
jpg
jr
ju
juan
juda
judas
juden
judentum
judenverfolgung
judith
jugend
jugendstil
jugoslav
jugoslava
jugoslavia
jugoslavija
jugoslavs
jugoslawien
jules
juli
julia
julian
juliane
julie
julius
july
jun
jung
junge
jungen
jungfrau
jungvolk
juni
junior
juniors
juniperus
junius
junta
jupiter
jura
jure
juri
jus
just
justice
justinian
justus
jutland
k
ka
kadam
kaffee
kafka
kagyu
kahl
kahlil
kai
kaiser
kaisers
kaisertum
kaiserzeit
kalahari
kalb
kaletta
kalevala
kalifen
kaliningrad
kalmar
kalten
kam
kampf
kamtschatka
kanada
kandinsky
kann
kansas
kant
kanton
kantone
kantons
kants
kap
kapital
kapitalismus
kapitel
kapp
kappel
karadz
karađorđevic
karen
karin
karl
karlmann
karlovac
karls
karlsbad
karlsruhe
karma
karol
karoli
karolinger
karolingischen
karte
kasachstan
kashmir
kasimir
kaspar
kassel
katastrophe
katharina
katla
katowice
katrin
kauer
kaufmann
kaunas
kauniainen
kautsky
kay
kb
kde
ke
kein
keith
kekkonen
kelheim
keller
kelly
kelten
kemal
ken
kenia
kennedy
kenneth
kensington
kent
kentucky
kenya
kepler
kerenski
kershaw
kevin
key
keynes
kg
kgb
kham
khan
khmers
ki
kichwa
kiel
kierkegaard
kiev
kilgore
kilograms
kilometer
kilometers
kilos
kim
kind
kinder
kinderbuchverlag
kindler
king
kingdom
kingr
kino
kinos
kinski
kinsky
kipling
kippur
kirche
kirchen
kirchner
kirkcaldy
kirsch
kissinger
kithara
kladanj
klagenfurt
klaipe
klara
klasse
klassiker
klassischen
klaus
klavier
klavierkonzert
klee
kleiman
klein
kleinbasel
kleine
kleinen
kleiner
kleines
kleinhu
klemens
klepper
klerk
klett
klima
klimawandel
klimm
kluge
km
knaben
knaur
knaurs
knesebeck
know
known
knud
knut
ko
koblenz
koch
koenen
kohl
kohle
kohlhammer
kolb
koller
kollwitz
kologie
kologische
kolonialismus
kolonialreiche
kolumbus
koma
kommentar
kommt
kommunikation
kommunismus
kommunisten
kommunistische
kommunistischen
komnenos
komo
kompakt
kon
konferenz
konflikt
kong
kongo
kongress
konomie
konomischen
konrad
konservatismus
konservativismus
konstantin
konstruktion
kontext
kontinente
kontinuita
konzentrationslager
konzepte
konzert
kopenhagen
koper
kopf
kopitz
kopp
korc
korea
korfmann
kornfeld
kos
koselleck
kosmos
kosovo
kossuth
kotlina
kotor
kotzebue
kova
kovac
kpd
kra
kraft
krain
krajina
kramer
krapp
kraus
krauss
kreis
kreisau
kreuz
kreuzlingen
krieg
kriege
krieges
kriegsziele
kriegszielpolitik
krise
krishna
kritik
kritische
kritischen
kritisches
kro
kronstadt
krstic
kru
kruger
krzysztof
ksa
ku
kuba
kubin
kugler
kuhn
kull
kult
kultur
kulturelle
kulturen
kulturgeschichte
kumbum
kunst
kunstdenkma
kunstgeschichte
kupa
kurow
kurt
kurtz
kurz
kurze
kutzelnigg
kuwait
kv
kwh
ky
kyoto
kyrillos
kyros
kz
l
la
laaber
laax
labhardt
labirint
labor
labour
labsang
lac
lacrimal
lacus
lad
lada
ladakh
ladas
laden
laders
ladezza
ladim
ladin
ladina
ladinas
ladinia
ladins
ladir
ladoga
lads
lady
lafargue
lag
laga
lage
laghet
lago
laguna
lagunas
laharpe
lai
laicistica
laics
laika
lain
laina
lains
lainusas
lais
laiva
lajetg
lajos
lake
lama
lamas
lambayeque
lambert
lampas
lance
land
landamma
lande
landeck
landes
landesamt
landesanstalt
landeskunde
landi
landna
landquart
landsberg
landschaft
landshut
landwasser
landwirtschaft
lane
lang
lange
langen
langewiesche
langobard
langobards
language
languages
langwies
lanka
lansel
lantsch
lantscha
lantschada
lantschar
lantschas
lantschetta
lantschettas
laos
laponia
laputa
laresch
lareschs
largezza
largia
largiade
largias
lariano
laringia
larix
larmas
larnaca
larry
lars
larsen
lartg
larva
larvas
las
lascha
laschadas
laschads
laschan
laschar
laschass
laschassan
laschava
laschavan
laschia
laschian
laschond
laser
laskaris
lassalle
lassila
last
lasuenter
lat
late
lateinamerika
lateinischen
latent
latenta
lateral
laterala
lateralas
laterals
laterna
latg
latiers
latin
latina
latinamericans
latinas
latinisa
latins
latituda
latium
laubba
laud
lauda
lauenburg
launa
laura
laurence
laurent
lausanne
lausannois
lausitz
lauta
lautas
lava
lavadiras
lavagna
lavar
lavaux
lavin
lavina
lavinas
lavuors
lavur
lavura
lavuran
lavurant
lavuranta
lavurants
lavurar
lavuratori
lavuratoris
lavurava
lavuravan
lavurer
lavurers
lavurs
law
lawrence
layer
lazaret
lazio
ld
ldc
lder
ldern
ldl
le
leaders
league
leben
lebens
lebensbild
lebenswerk
lecco
lech
lechfeld
lechner
lectur
lectura
lecturs
lecziun
lecziuns
led
ledermann
lee
leeds
lef
lefe
lefs
left
lega
legacy
legal
legala
legalas
legalisa
legat
legend
legenda
legendar
legendara
legendars
legendas
legende
legends
leger
legi
legia
legida
legids
legislativ
legislativa
legislativas
legislativs
legislatur
legislatura
legislaziun
legitim
legitima
legitimada
legitimar
legitimas
legitimaziun
legitimitad
legitims
legiun
legiuns
legums
lehrbuch
lehre
lei
leibniz
leiden
leif
leipzig
leipziger
lej
lejs
lemkin
lemoine
lena
leni
lenin
leningrad
leninismus
leninissem
lenins
lenn
lenna
lennon
lenta
lenz
lenzburg
leo
leon
leonard
leonardo
leone
leonhard
leonhardi
leonhardt
leonid
leonore
leontopodium
leopard
leopards
leopold
leppin
ler
lernen
les
lescha
leschas
lesen
leske
leslie
lesotho
less
lessen
lessing
lessons
lester
let
letg
letgalia
letgs
letras
letter
letters
letton
lettona
lettonia
lettons
lettres
letzte
letzten
leu
leuenberger
leuk
leuthard
lev
leva
levada
levagl
levamain
levan
levanta
levante
levas
level
leventina
levet
levgiament
levi
leviathan
levs
levsenn
lewis
lewisohn
lewy
lex
lexicals
lexicon
lexicons
lexikon
lexington
lez
leza
lezs
lezza
lezzas
lf
lhasa
li
lia
liada
liadas
liads
lian
liant
lianta
liantas
liants
liar
lias
libanon
liber
libera
liberada
liberadas
liberads
liberal
liberala
liberalas
liberaldemocratica
liberalisar
liberalisaziun
liberalism
liberalismus
liberalissem
liberals
liberar
liberaziun
liberescha
liberia
libero
libers
libertad
libertads
libertas
liberty
libia
libra
libramain
library
libras
libre
libret
libri
lic
licenza
licenzas
liceum
lich
lichnowsky
licht
lichtes
lie
liebe
liebermann
liebknecht
liechtenstein
lied
lieder
lien
liestal
lieu
lieua
lieuan
lieunga
lieungas
lieur
lieurs
lieus
life
liga
ligas
light
ligia
ligias
liguria
like
likely
lille
lilliput
lilo
lima
limba
limburg
limes
limit
limita
limitada
limitadas
limitads
limitar
limitaziun
limitaziuns
limitescha
limiteschan
limmat
lina
linard
lincoln
linda
lindau
lindorna
lindornas
line
lineara
lines
lingia
lingias
lingua
linguas
linguatg
linguatgs
linguist
linguistic
linguistica
linguisticamain
linguisticas
linguistics
linguistik
linguists
link
linke
links
linnaeus
linne
linth
linux
linz
liom
lioms
lion
liongia
liongias
lippert
lipsia
liquid
liquida
liquidar
liquiditad
liquids
lir
lira
liras
lirica
liricas
liricher
lis
lisa
lisches
lisetta
lissabon
lissi
list
liste
listess
liszt
lit
literaria
literarische
literarischen
literatur
literatura
literaturbericht
literature
liters
litgens
litgiva
litinent
litob
litorala
litosfera
litowsk
litra
litterar
litterara
litteraras
litterars
litterats
litteratura
little
lituan
lituana
lituania
lituans
liturgia
liug
liun
liung
liunga
liungs
liuns
live
livel
livels
liver
liverpool
lives
livign
living
livius
livonia
livorno
livres
ljubljana
lker
lkermord
lkermords
lkerrecht
lkerung
ll
lla
llas
lldc
lle
lleida
llengua
ller
llobregat
lloyd
lmen
ln
lo
lobkowitz
local
locala
localas
localisa
localisada
localisar
localisaziun
localitads
localited
localmain
locals
locarno
locaziun
locke
lockheed
locomotiva
locomotivas
lodano
lodge
loeb
loghens
logic
logica
logistica
logo
logos
lohmann
loi
loial
loiala
loialists
loialitad
loials
loire
lois
lom
lomas
lombard
lombardia
lon
londeror
londervi
londinium
london
londra
lonely
long
longerich
longhituda
longitudinalas
lontan
lontanas
lontans
lord
lords
lorena
lorentz
lorenz
lorenzo
los
losanna
loscha
loschas
lost
lothar
lotus
lou
lough
louis
louise
louisiana
louvre
love
lovis
low
lower
lozza
ls
lsd
lsing
lt
lta
ltd
ltere
ltnis
lu
luada
luar
lubescha
lubeschan
lubi
lubida
lubidas
lubientscha
lubir
lubiva
lubivan
lublin
luc
luca
lucas
lucca
luce
lucens
lucerna
luchs
luchterhand
lucia
lucifer
lucius
lucmagn
lucrativ
lucrativa
luda
ludendorff
ludivic
ludolph
ludra
ludras
ludwig
luentada
luf
luffa
lufs
lufthansa
lugano
luggnagg
luhmann
lui
luigi
luis
luisa
luise
luitpold
luka
lukas
lumbard
lumbarda
lumbardia
lumbrein
lumie
lumnezia
luna
lunar
lune
lung
lunga
lungaitg
lungas
lungatg
lungatgs
lunghent
lunghenta
lunghents
lunghezza
lunghezzas
lungs
lungurella
lunsch
lunschor
lupus
lur
lura
luregn
luschards
luschezza
lusitania
luterana
luterans
lutga
luther
lutz
luven
luvrar
luvrau
lux
luxembourg
luxemburg
luxemburgais
luxemburgaisa
luxus
luzein
luzi
luziet
luzius
luzzi
lwf
lxde
ly
lyell
lyndon
lynx
lyon
lyrik
lytton
lz
lze
lzer
lzung
m
ma
maaren
maarsen
maarten
maas
maastricht
mabain
mabo
mac
macau
macdonald
macedon
macedona
macedonia
macedons
macellum
machen
machiavelli
machine
macht
macla
macmillan
macolino
macro
macv
madagascar
madame
made
madeira
madeleine
madhva
madir
madira
madiran
madirar
madiras
madiraziun
madirezza
madirs
madison
madleina
madonna
madonnina
madrid
magadino
magari
magasin
magasins
magazin
magazine
magazins
magdalena
magdeburg
maggia
maggiore
maghers
maghreb
magia
magiars
magic
magica
magicas
magics
magister
magisters
magistrat
magistrats
maglia
maglian
magliar
magma
magna
magnats
magnesium
magnet
magnetic
magnetica
magnetics
magnon
magnus
magonza
magre
magugl
magun
magyar
magyaras
magyars
mahabharata
maharishi
mahatma
mahayana
mahler
mai
maiavilla
maier
maiestad
mail
mailer
mails
main
maina
mainan
mainia
mainian
mainz
maior
maioren
maiorens
maioritad
maioritads
maioritara
maiorz
mais
maisa
maissen
maister
maisters
maistra
maiuri
maja
majdanek
major
make
making
mal
mala
malaisia
malamain
malans
malaura
malaveglia
malcantone
malchapida
malchapientscha
malchapientschas
malcolm
malcostas
malcuntentientscha
malcuntents
malden
maldiever
malegia
malegiar
malesser
maletg
maletgs
malfatg
malfatgs
malfatschents
malgista
malgistas
malgra
malizia
mallorca
malmaison
malmo
malo
malruaus
mals
malsaun
malsauna
malsauns
malsegir
malsegirezza
malsogna
malsognas
malta
maltais
maltaisa
maltaisas
malte
malthus
maltracta
malura
malvinas
malvis
malvisas
mama
mamma
mammal
mammalia
mammals
mammas
mamut
man
mana
manada
manadas
manader
manaders
manads
management
manager
managers
manaivel
manar
manaschi
manaschis
manava
manavan
manca
mancan
mancanza
mancanzas
mancava
mancavan
manchenta
manchester
manchia
manco
mandarin
mandat
mandats
mandel
mandela
mandora
mandschuria
mandschus
manegia
manegiada
manegiadas
manegian
manegiava
manera
manevrar
manfred
mangia
mangian
mangiar
mangiativas
manglus
manglusa
mangola
mani
mania
maniera
manierissem
manifest
manifesta
manifestada
manifestadas
manifestads
manifestar
manifestava
manifestaziun
manifestaziuns
manifestescha
manifesteschan
manifesteschia
manipuladas
manipulaziun
manischar
manischunz
manizzada
mankind
mann
mannheim
mans
manschetta
mansfeld
mante
mantegna
mantegnair
mantegnan
mantegni
mantegnia
mantegnida
mantegnidas
mantegnids
mantegniment
mantella
mantogna
mantua
mantun
mantuns
manual
manuals
manuel
manufactura
manufacturas
manuscrit
manuscrits
manvella
many
manyara
manzegna
manzegnas
manzoni
mao
maoismus
maoissem
mar
mara
marat
maraton
marburg
marc
marca
marcada
marcadas
marcads
marcant
marcanta
marcantamain
marcantas
marcants
marcar
marcas
marcau
marcaziun
marcaziuns
marcel
marcellinus
marcello
march
marches
marchescha
marcheschan
marcho
marco
marcs
marcus
mare
margaret
margarete
margarittina
marginala
margit
margot
margreta
mari
maria
marian
marianas
marianne
maribor
maric
marida
maridada
maridaglia
maridar
maridau
marie
marilyn
marina
marinars
marinas
marine
mariners
marines
marino
marins
mario
marion
marionetta
marionettas
maris
maritim
maritima
maritimas
maritims
marittima
marius
mariza
mark
markarfljo
market
markov
markus
marlene
marlon
marlow
marmara
marmel
marne
maroc
marpingen
marquis
mars
marsch
marscha
marschada
marschadas
marschads
marschal
marschall
marschar
marschira
marschs
marseille
marsellus
marshall
marsians
marsiglia
marte
martell
martels
martga
martgada
martgadant
martgadants
martgads
martganzia
martganzias
marti
martigny
martin
martina
martinique
martinus
martir
martirs
marx
marxismus
marxissem
marxistic
marxistica
marxisticas
marxistics
marxists
marxschen
mary
maryland
marz
mas
masans
maschada
maschadada
maschadadas
maschadads
maschadar
maschaida
maschaidan
maschaidas
maschina
maschinas
mascra
mascras
masculin
masculina
masculinas
masculins
maserati
mason
mass
massa
massachusetts
massas
masse
massenmord
massimo
massin
massiv
massiva
massivamain
massivas
massivs
mastegiar
master
mastergn
mastergnants
mastergnanza
mastergnanzas
mastergns
masters
mastgel
mastgels
mastral
mastrin
mat
matematic
matematica
matematicas
matematicher
materia
material
materiala
materialas
materialias
materialien
materialissem
materialistica
materials
materias
matern
materna
matg
mathias
mathieu
mathis
matin
mato
maton
matricla
matrimoni
matrimonial
mats
matsch
matschs
matta
mattas
mattatsch
mattatscha
mattatschas
mattatschs
mattauns
matter
matterhorn
matteus
matthew
matthias
matura
maturitad
maun
mauns
maurer
mauretania
maurica
maurice
maurikios
mauritius
maurizio
mauro
maurs
maurus
mausoleum
mauthausen
mava
mavan
max
maxillas
maxima
maximal
maximala
maximalas
maximalmain
maximas
maximilian
maximilien
maximum
maximus
maxwell
may
maya
mayen
mayer
mayflower
maynard
mayor
mayr
mazarin
mazza
mazzacra
mazzacras
mazzada
mazzadas
mazzads
mazzament
mazzaments
mazzan
mazzar
mazzau
mazzini
mazzino
mb
mc
mccarthy
mccartney
mcdonald
mckitterick
mclaren
mcnamara
mctaggart
mdz
me
meaning
mec
mecanic
mecanica
mecanicas
mecanics
mecanisaziun
mecanissem
mecanissems
mecca
mech
mechelen
mecklenburg
med
medaglia
medaglias
medel
medem
medema
medemamain
medemamein
medemas
medemmamaing
medems
medi
media
mediala
medias
mediatur
mediaziun
medical
medicaments
medici
medicinal
medicinala
medicinalas
medicinals
medien
medieval
medievala
medievalas
medievals
medina
medio
medis
medischina
meditaziun
mediterran
mediterrana
mediterranas
mediterranean
mediterrans
medium
mediums
meds
medusas
meer
meeting
meetings
meg
mega
megalits
meglder
megldra
meglier
megliera
meglierada
meglieradas
meglierament
meglieraments
meglierar
meglieraziun
megliers
megliurada
megliurar
meglra
meglras
mehr
mehring
mehrsprachigkeit
mei
meier
meierott
mein
meina
meine
meiner
meini
meins
meir
meiringen
meis
meisa
meissner
meister
mekong
mel
melanie
melbourne
melcher
melchior
meles
melezza
melide
melilla
melissa
mellen
mellens
melna
melnas
melnent
melnenta
melodia
melodias
melvyn
member
members
membra
membrana
memel
memia
memmi
memoirs
memoria
memorial
memorisar
memory
memphis
men
menar
mendelssohn
mender
menderes
mendicants
mendonc
mendra
mendrisio
mengia
menorca
mensch
menschen
menschenrechte
menschevics
menschheit
menschliches
mensila
mental
mentala
mentalita
mentalitad
mentals
menuet
menziun
menziuna
menziunada
menziunadas
menziunads
menziunar
menziunaus
menziunescha
menziuneschan
menziuns
mer
meraun
mercantila
mercantilissem
mercantils
mercedes
mercenaris
mercia
mercier
mercur
merda
merens
merian
meridiunal
meridiunala
meridiunalas
merit
merita
meritan
merits
merkel
merovings
merwedeplein
merz
mes
mesa
mesadad
mesadads
mesanotg
mesas
mesastad
mesauc
mesaun
mesauna
mesaunas
mesauns
mesemna
mesira
mesirada
mesiradas
mesiran
mesirar
mesiras
mesirava
mesiraziun
mesiraziuns
mesocco
mesolitic
mesoliticum
mesopotamia
mesozoicum
mess
messa
messadi
messadis
messas
messe
messen
messias
messina
metabolissem
metafisic
metafisica
metafisicas
metafisics
metaforica
metafra
metafras
metal
metallica
metallurgia
metals
metamorfosa
metamorfosas
metan
metanogenesa
metaphysik
metazoa
meteorit
meteorologia
meteorologic
meteorologicas
meter
meters
methoden
methodios
metoda
metodas
metodica
metodicamain
metodicas
metro
metropola
metropolas
metropolitan
metropolitana
metros
metta
mettan
mettend
metter
metternich
metteva
mettevan
mettia
metz
metzeltin
metzler
mew
mexico
meyer
meyers
meyrink
mez
mezdi
mezfinal
mezmieur
mezs
mezzogiorno
mg
mi
mia
miaivel
miaivels
miaivla
miaivlas
mias
mic
mice
micenica
mich
michael
michaels
michail
michalka
michel
michelangelo
michele
micheline
mick
mickiewicz
micoriza
micro
microbiologia
microfon
micrograms
microorganissems
microscop
micura
mida
midada
midadas
midads
midament
midaments
midan
midar
midavan
middle
midi
midian
mie
miedi
mieds
miep
miera
mieroslawski
mierta
mies
mieszko
mieur
mieurs
miez
miglias
migrant
migrants
migrar
migration
migraziun
migraziuns
miguel
miha
mihai
mike
miklo
mila
milan
milano
milaun
mile
miles
milet
mileva
milgram
milieu
milissa
milissas
milissiunaris
milita
militar
militara
militaras
militarisaziun
militarissem
militarmain
militars
military
miliuns
mill
mille
millenni
millennis
millennium
miller
millet
milli
milliarda
milliardas
millimeters
millipes
millis
milliun
milliuns
mills
milo
milos
milton
min
mina
minas
minca
mincha
minchataunt
mineral
minerala
mineralas
minerals
minerva
minh
mini
miniatura
miniera
minieras
miniers
minima
minimal
minimala
minimalas
minimalmain
minimals
minimar
minimum
minister
ministeri
ministerial
ministeriala
ministeris
ministers
ministras
minkowski
minnesota
minoica
minor
minoren
minorens
minoritad
minoritads
minoritara
minoritaras
minorities
minos
minsk
mint
mintg
mintga
mintgadi
mintgamai
mintgatant
mintgaton
mintgin
mintgina
mintun
minura
minus
minusio
minuta
minutas
minuziusamain
minz
mio
miocen
mir
mira
miracul
miraculs
miraculus
miraculusa
mirage
mirar
miras
mircea
mirjam
miro
miroslav
mirs
mirveglias
mirvegliusa
mis
misarogn
misarogns
misch
mische
mischen
misches
mischna
mise
misenum
miseria
misericordia
mises
miss
missa
missella
missile
mission
mississipi
mississippi
missiun
missiunar
missiunara
missiunaris
missiunars
missiuns
misteri
misteris
misterius
mistgel
mistgels
mistic
mistica
misticissem
mistics
mistificaziun
mistral
mit
mita
mitchell
mite
mited
mites
mitgel
mitic
mitica
miticas
mitics
mitigia
mitigiadas
mitigiar
mitochondrial
mitologia
mitologica
mitologics
mitraglia
mitraglias
mitscha
mitschada
mitschads
mitschar
mitta
mitte
mitteilungen
mittelalter
mittelalters
mitteleuropa
mitteleuropas
mittelmeer
mittelmeers
mitus
miu
ml
mladic
mlwerke
mm
mmers
mmerung
mneda
mneder
mo
mobein
mobiglias
mobil
mobila
mobilas
mobile
mobilisa
mobilisar
mobilisaziun
mobilitad
mobils
mobutu
moda
modas
model
modelling
models
modena
modera
moderada
moderadas
moderads
moderatur
modern
moderna
modernas
moderne
modernen
modernisa
modernisada
modernisar
modernisaziun
modernisierung
moderns
modest
modesta
modestas
modests
modifitga
modifitgada
modifitgadas
modus
moench
moesa
moguls
moha
mohammed
mohr
moi
moksha
mol
mola
molar
molars
molassa
moldau
moldav
moldava
moldavia
moldova
mole
molecular
moleculara
moleculs
molella
molie
moll
molluscs
molly
moluccas
mommsen
mon
monaco
monarc
monarchia
monarchias
monarchic
monarchica
monarchicas
monarchics
monarchische
monarchists
monarcs
monastica
monasticas
monastics
monatsblatt
monatsschrift
mond
monde
mondfahrt
mondi
moneta
monetar
monetara
monetaras
mongia
mongol
mongolia
mongolic
mongolics
mongols
moni
monica
monika
monis
monissem
monistica
monitoring
monn
monocellulars
monochasana
monoculturas
monografia
monografias
monographien
monolinguas
monologs
monopol
monopols
monoteissem
monoteistic
monoteistica
monoteisticas
mons
monsanto
monsieur
monsters
mont
monta
montada
montagna
montagnards
montagne
montagnes
montaigne
montan
montana
monte
montenegrin
montenegro
montesquieu
montevideo
montgomery
monthey
monti
montinari
montjui
montreal
montreux
montserrat
montsoreau
monumaints
monument
monumental
monumentala
monumentalas
monumentals
monuments
monz
monza
moon
moore
moos
mora
moral
morala
moralas
moralitad
moralmain
morals
moran
morat
morava
moravia
morcote
mord
morder
more
morena
morenas
morfologia
morfologicas
morgan
morgarten
morgen
morgenro
morges
moriarty
moritz
morley
mormons
morning
morris
morsa
morsas
morse
mort
morta
mortal
mortala
mortalas
mortalitad
mortalmain
mortals
mortas
morte
mortoris
morts
mosaic
mosaics
mosambic
moscau
moschea
moscheas
mose
mosel
moser
moses
moskau
most
mostar
motel
motion
motiv
motiva
motivada
motivar
motivaziun
motivaziuns
motive
motivs
moto
motor
motorica
motorisa
motors
motos
motta
motte
motto
moudon
mount
mountain
mountains
mova
movan
movement
mover
movibel
movibels
movibla
moviblas
moviment
moviments
mozart
mozarteum
mozarts
mp
mpfe
mpfer
mpfli
mr
mrd
ms
mspd
mt
mtliche
mu
muaglia
muawija
much
mucosa
muggio
muglier
mugo
muhammad
mulesta
mulhouse
mulin
mulins
multifar
multifara
multifaras
multifariadad
multifars
multinaziunal
multiplicaziun
multiplitgar
multiplitgescha
mumaint
mumbai
mument
muments
mumia
mumma
munaida
munaidas
munch
mund
mundaun
mundi
mundial
mundiala
mundialas
mundials
mundiel
mundiela
munds
mungias
muni
munich
municipal
municipala
municipals
municipis
munida
munidas
munids
munir
muniziun
munt
munta
muntada
muntadas
muntagna
muntagnard
muntagnarda
muntagnardas
muntagnards
muntagnas
muntan
muntanellas
muntanera
muntaneras
muntar
muntava
muntavan
muntg
muntgs
muntia
muntogna
muntognas
muond
muort
muossa
muota
muoth
mur
mura
murala
muralas
muralto
murder
murdoch
murdraretsch
murdraretschs
murezzan
muri
muria
murir
murk
murmarera
murray
murten
musa
muscheler
muschna
muscul
musculatura
musculs
musculus
muse
museo
museu
museum
museums
music
musica
musical
musicala
musicalas
musicalmain
musicals
musicant
musicist
musicists
musik
muslim
muslima
muslimas
muslime
muslims
muss
mussa
mussada
mussadas
mussads
mussament
mussaments
mussan
mussar
mussau
mussava
mussavan
mussia
mussian
mussolini
mussond
mustafa
muste
muster
musters
mustgas
mustgat
mut
mutagl
mutaziuns
muts
mutter
muvel
muventa
muventadas
muventads
muventan
muventar
muvevan
muzzano
mw
my
myanmar
myriapoda
mystery
myth
mythen
mythologie
mythos
myths
n
na
nach
nachf
nachleben
nachricht
nachrichten
nacht
nacional
nada
nadal
nadel
nadelba
nagasaki
nagel
nagin
nagina
naginas
nagins
nagliur
nagut
nagy
nair
naira
nairas
nairs
naismith
naiv
nam
nama
name
namen
namibia
namur
nancy
nanette
nanin
nanina
nanins
nantes
nanza
napalm
napole
napoleon
napoleonic
napoleonica
napoleonicas
napoleun
napoli
nar
narayana
narcis
narcissa
narcissas
narcissus
narr
narradad
narrativ
narrativa
narrativas
narrative
narratur
nas
nasa
nascha
naschan
nasche
naschentscha
nascher
naschi
naschida
naschidas
naschids
naschientscha
naschientschas
naschieu
naschius
nassau
nat
nata
natal
natala
natel
natha
nathan
natiers
nation
national
nationale
nationalism
nationalismus
nationalo
nationalsozialismus
nationalsozialistische
nationalsozialistischen
nationalstaat
nationen
nations
natira
natiral
natirala
natiralas
natiralias
natiralisaziun
natiralissem
natiralmain
natirals
native
nato
natra
natu
natur
natura
naturae
natural
naturalis
nature
naturgeschichte
naturschutz
naturwissenschaften
naufragi
naumburg
naunza
nauru
nausch
nauscha
nauschas
nauschs
nauticas
nav
naval
navala
navalas
navarra
naven
navettas
naviga
navigabel
navigabla
navigablas
navigads
navigar
navigation
navigatur
navigaturs
navigaziun
navs
navy
nazaret
nazareth
nazi
nazionale
nazis
nazistic
naziun
naziunal
naziunala
naziunalas
naziunalissem
naziunalissems
naziunalistic
naziunalistica
naziunalisticas
naziunalistics
naziunalists
naziunalitad
naziunalitads
naziunals
naziunalsocialissem
naziunalsocialistic
naziunalsocialistica
naziunalsocialisticas
naziunalsocialistics
naziunalsocialists
naziunela
naziunelas
naziuns
nba
nberg
nc
nca
nch
nchen
nchener
nchhausen
nchner
ncia
nd
nde
ndel
nden
nder
nderbericht
ndern
ndert
nderung
nderungen
ndische
ndischen
ndler
ndner
ndnerisches
ndnerromanischen
ndnis
ndor
ndung
ne
neandertal
near
neberg
nebla
nebst
necessari
necessaria
necessariamain
necessarias
necessaris
necessita
necessitad
necessitada
necessitads
necker
nectar
nederlands
need
neefe
neerlandais
negativ
negativa
negativas
negativs
negaziun
negin
negina
neginas
negins
negla
neglas
negligi
negligida
negliu
negozi
negozia
negoziar
negoziaziuns
negozis
negra
negri
neida
neil
neir
neisse
neiv
nel
nela
nella
nello
nelly
nelson
nempe
nen
neo
neoclassic
neogotic
neogotica
neoliberalissem
neolitic
neolitica
neoliticum
neologissems
neomarxissem
nepal
neptun
ner
nera
neretva
nern
nero
ners
nerva
nervus
nes
nescha
nestle
net
netta
nettegiada
nettegiament
nettegiar
netto
network
neu
neucha
neue
neuen
neuer
neuere
neueren
neues
neuesten
neum
neumann
neumeier
neuschatel
neutier
neutral
neutrala
neutralisar
neutralita
neutralitad
neutrals
neuzeit
nev
nevada
nevis
nevs
new
newald
newcastle
news
newton
ney
nez
nf
nfeld
nfelder
ng
nge
ngen
nger
ngere
ngeren
ngo
ngu
nguye
nguyen
nh
nha
ni
nia
nianzas
nica
nicaragua
niccolo
nicea
nichel
nicholas
nicht
nichts
nick
nicla
nicola
nicolae
nicolas
nicolaus
nicole
nicosia
niedergang
niederlande
niels
nielsen
niemeyer
nien
nies
niessegner
nietzsche
nietzsches
niev
nig
nigel
nigeria
night
nigra
nigs
nigsberg
nigshausen
nigstein
nihilissem
nik
nikephoros
nikita
niklas
nikol
nikola
nikolai
nikolaus
niks
nil
nils
nin
nina
ning
ningen
ningh
nio
niod
nipperdey
nirvana
nis
nischa
nischas
nita
nitra
nitrogen
nitscholer
niv
niva
nivale
nivalis
nivel
nivels
nivs
nixon
niz
nizza
nizzaivel
nizzaivels
nizzaivla
nizzas
nizzegia
nj
nkische
nkischen
nl
nlanda
nlf
nm
nn
nne
nner
nnies
no
nobel
nobels
nobla
noblas
noblezza
nobs
noch
nocturna
noda
nodan
nodas
noe
nogger
nohlen
nokia
nola
nolte
nom
nomada
nomaden
nomads
nomen
nomenologie
nomens
nomina
nominads
nominala
nominalmain
nominar
nominaziun
nominescha
nomos
noms
non
nona
nonaunta
nor
nora
norbert
norbulingka
nord
nordamerican
nordamericana
norden
norderstedt
nordic
nordica
nordicas
nordics
nordost
nordvest
noric
noricum
norma
normal
normala
normalas
normalmain
normals
norman
normana
normandia
normans
normas
normativa
normativas
norske
north
northern
northumbria
norvegia
norvegiais
norvegiaisa
norvegiaisas
norwegen
nos
noske
noss
nossa
nossadunna
nossadunnaun
nossaduonna
nossas
nostre
not
nota
notas
note
notes
notg
notgs
notizen
notizia
notizias
notker
notoc
notre
nous
nouv
nouva
nouvas
nouvelle
nov
nova
novalis
novara
novarrivads
novartis
novas
novavel
novaziun
novaziuns
novel
novella
novellas
novelletta
november
novemberrevolution
novi
novitad
novitads
novnaschi
novnaschids
novo
novs
novum
now
nowaja
nowak
nowgorod
noziun
noziuns
nozza
nozzas
nr
nrs
ns
nsdap
nste
nster
nt
nter
ntgen
nther
ntis
nts
ntsch
nu
nua
nubia
nuclear
nucleara
nuclearas
nuclears
nuco
nuda
nudadas
nudar
nuegl
nuf
nufs
nulla
num
numa
numer
numeric
numerica
numericamain
numers
numerus
numerusas
numma
numn
numna
numnada
numnadamain
numnadamein
numnadas
numnads
numnain
numnan
numnar
numnau
numnaus
numnav
numnava
numnavan
numno
numnond
nums
nun
nunabitada
nunagressiun
nuncartents
nuncontrollada
nuncritica
nunculpant
nundir
nunditg
nundumbraivels
nundumbraivlas
nunenconuschent
nunenconuschenta
nunenconuschentas
nunenconuschents
nunfini
nunfinida
nung
nunguvernamentalas
nuninterrutta
nunintervenziun
nunmidabla
nunmidablas
nunproductiv
nunproductiva
nunpussaivel
nunpussaivla
nunspetgada
nunspetgadamain
nunspetgads
nunsuccess
nuntutgabels
nunusita
nunviolenta
nuot
nuota
nuova
nur
nursa
nursas
nurser
nus
nusch
nuschaivel
nuschaivels
nuschaivla
nuschaivlas
nuschegl
nuschegls
nuschs
nutrescha
nutreschan
nutri
nutriment
nutrir
nutritiv
nutritivas
nutzen
nutzho
nva
ny
nyi
nyingma
nymphenburg
nyon
nz
nzen
nzz
o
oara
oasa
ob
obama
obedience
obedientscha
obedir
ober
oberdorfer
obergesteln
oberhasli
oberland
obero
oberscheunen
oberst
object
objectiva
objectivitad
objectivs
objects
oblast
obliga
obligada
obligadas
obligads
obligar
obligatoric
obligatorica
obligatoricas
obligaziun
obligaziuns
oblighescha
obres
obrist
observa
observada
observadas
observads
observan
observar
observations
observatori
observatur
observaturs
observaziun
observaziuns
obsoleta
obstachels
obtegnair
obtegni
oc
occasiun
occident
occidental
occidentala
occidentalas
occidentals
occitan
occupa
occupada
occupadas
occupads
occupan
occupants
occupar
occupava
occupavan
occupaziun
occupaziuns
occupescha
occurrenza
occurrenzas
ocean
oceania
oceanic
oceanica
oceanicas
oceanics
oceans
ocells
och
ocher
ochs
ockham
ocrida
octava
octavian
october
octopus
octupla
oded
oder
odessa
odi
odiern
odierna
odiernas
odierns
odissea
odoaker
odontophorus
odur
odurat
odurs
odurusas
oecd
oeuvres
of
off
offensiv
offensiva
offensivas
offert
offerta
offertas
office
official
officinale
offra
offrir
og
ogilvy
ogn
ogna
ognas
ogns
ohio
ohne
ohrid
oil
ois
ok
okarma
oklahoma
oktober
ola
olaf
olav
old
oldenbourg
oldenburg
ole
olfactoric
olfactorica
olfactoricas
olga
oligarchia
olimpiada
olimpic
olimpica
olimpicas
olimpics
oliver
olivier
olivone
ollanda
ollandais
ollandaisa
ollandaisas
olma
olmas
olms
ologie
ologische
olten
olympia
olympiapark
olympic
olympics
olympische
olzog
om
omaduas
omadus
omaijads
oman
omc
omega
ominids
ominins
omogen
omogena
omosexualitad
omosexuals
on
onda
one
online
only
onn
onns
ono
ons
onsernone
ontologia
onu
onur
onura
onurads
onuraivel
onuraivla
onuraziun
onuraziuns
op
opec
opekta
open
opera
operar
operas
operated
operation
operativ
operativa
operativs
operava
operaziun
operaziuns
operescha
opfer
opiniun
opiniuns
opium
opladen
oppida
oppidum
opponan
opponents
opponer
opponi
opponida
opponids
opponiva
opponivan
opposition
opposiziun
opposta
oppostas
opposts
ops
optic
optica
opticas
optimal
optimala
optimalas
optimar
optimats
optimissem
optimistica
opus
opziun
opziuns
or
ora
orac
orachel
oral
orala
oralas
oralitad
oramai
orange
oranje
oransch
oranscha
oranschas
orasum
oratori
oratoribus
oratoris
oratur
oravant
oravontut
oraziun
orbe
orbit
orcan
orcans
orchester
orchesters
orchestra
orchideas
ord
ordaifer
ordavant
order
ordina
ordinada
ordinadas
ordinads
ordinar
ordinari
ordinaria
ordinaris
ordinaziun
ordinaziuns
ordino
ordlonder
ordnung
ordra
ordvart
orelli
orf
orfens
org
organ
organic
organica
organicas
organisa
organisada
organisadas
organisads
organisar
organisation
organisatoric
organisatorica
organisatur
organisaturs
organisaziun
organisaziuns
organisescha
organissem
organissems
organist
organization
organs
orgel
orgla
orglas
orient
orienta
orientada
orientadas
orientads
oriental
orientala
orientalas
orientalis
orientals
orientar
orientation
orientava
orientavan
orientaziun
orientela
orientescha
orienteschan
origen
origin
original
originala
originalas
originals
originar
originara
originaras
originars
origins
oriund
oriunda
oriundamain
oriundamaing
oriundas
oriunds
orizont
orizontal
orizontala
orizontalas
orizontals
orlando
orle
orleans
orna
ornada
ornads
ornaments
oro
oron
orrur
orrurs
orsie
orson
ort
orte
orticultura
ortodox
ortodoxa
ortodoxas
ortodoxia
ortodoxs
ortografia
orwell
os
osama
osca
oscar
oscars
osce
osijek
oskar
osl
oslo
osman
osmanic
osmanica
osmanicas
osmans
osnabru
ospital
ospitals
ospitant
ospitanta
ospitants
ospizi
oss
ossa
ossichels
ost
ostagis
osten
osterhammel
osteuropa
ostfildern
ostil
ostila
ostilas
ostilitad
ostilitads
ostils
ostrobotnia
ostrofrancon
ostrogots
oswald
ot
ota
oter
oters
otezza
otfried
otg
otganta
otgavel
other
otra
otras
ottawa
otto
ottokar
ottons
ou
oud
ouest
our
oura
out
output
ouvra
ouvras
ov
ova
oval
ovala
ovals
ovan
ovari
ovas
over
overbeck
ovest
ovid
ovra
ovras
ovs
owen
oxford
oxidaziun
oxigen
oz
ozendi
ozildi
ozon
p
pa
pablo
pabst
pac
pachet
pachets
pacific
pacifica
pacificaziun
pacifissem
pacifistica
pacifitgar
pact
pader
paderborn
paders
padova
padrin
padua
pag
paga
pagar
page
paget
pagina
paginas
paglia
pagliola
pai
pail
pails
pailus
pailusa
paina
painas
paine
paintg
pairs
pais
paisa
paisan
paiver
paja
pajada
pajadas
pajads
pajais
pajament
pajaments
pajan
pajar
pajas
pajataglia
pajaun
pajauna
pajauns
pajava
pajavan
pakistan
pal
pala
palace
palaestra
palagnedra
palaiologos
palais
palantschieu
palantschieus
palat
palatin
palatina
palatinat
palau
palaz
palazi
palazis
palazs
palazzo
palc
pale
palentada
paleolitic
paleoliticum
palermo
palestina
palestinais
paletscha
paletta
paley
palgrave
pali
palids
palidus
palissadas
pall
pallioppi
palm
palma
palmas
palogas
palos
palp
palpar
palpiri
palpiris
palu
pamflet
pan
panaduz
panama
panchen
panda
pandakovic
pandemia
panel
pangea
panica
pannonia
pannonic
pannonica
panorama
panoramica
panthera
paola
paolo
papa
papal
papala
papals
papas
papat
papen
paper
papers
papias
papillaras
papillas
papiri
papirus
papla
paplas
paprica
papua
papyrossa
par
para
parada
paradas
parade
paradigma
paradigmas
paradis
paradiso
paragraf
paraguai
paraguay
paraid
paraids
parair
parairi
parairis
paralisa
parallel
parallela
parallelamain
parallelas
parallels
parameters
paramilitaras
paran
parana
parar
parasits
paraula
paraulas
parc
parcellas
parchet
parco
parcs
pardus
paregl
pareglian
paregliar
paregliaziun
parent
parenta
parentada
parentadas
parentads
parentella
parents
pareva
parevan
parevlas
parey
pari
parinacota
paris
parisianas
parisians
parita
paritad
park
parker
parlament
parlamentar
parlamentara
parlamentaras
parlamentaris
parlamentarissem
parlamentars
parlaments
parler
parliament
parma
parochiala
parodia
parodias
parola
parolas
parro
pars
parsons
parsonz
parsura
parsuras
part
parta
partan
partei
partement
partements
partenadi
partenari
partenaria
partenaris
partenkirchen
partenz
partenza
parter
parti
partia
participa
participada
participadas
participads
participant
participantas
participants
participar
participaziun
participescha
participeschan
particlas
particular
particulara
particularas
particularitad
particularitads
particularmain
particulars
partida
partidas
partido
partids
partind
partir
partisans
partito
partivan
partiziun
partiziuns
parts
parturescha
partureschan
parturi
parturir
party
parvis
parzial
parziala
parzialas
parzialmain
parzials
pas
pasar
pasca
pascal
pasch
pascha
paschaivel
paschaivels
paschaivla
paschaivlamain
paschaivlas
paschiun
pasco
pascular
pasculaziun
pasculeschan
pasqua
pass
passa
passada
passadas
passadi
passadis
passads
passager
passagi
passagiers
passan
passar
passascha
passaschas
passatemp
passau
passava
passavan
passenta
passentan
passentar
passepartout
passida
passidas
passiun
passiuna
passiunada
passiuns
passiv
passiva
passlung
passo
past
pasta
paster
pasters
pastg
pastget
pastgets
pastgira
pastgiras
pastorala
pastur
pasturs
pat
pate
patent
patenta
patentar
patentas
patents
pater
paterna
patertgar
patescha
pateschan
patg
patgs
pathways
pati
patinadi
patir
pativa
pativan
patmos
patois
patoisans
patologia
patos
patratg
patratga
patratgar
patratgs
patria
patriarc
patricia
patrick
patrimoine
patrimoni
patriot
patriotic
patriotica
patrioticas
patriotics
patriots
patrizians
patriziat
patronas
patruglia
patrun
patruna
patrunadi
patrunar
patruns
patterns
patua
patzig
pau
pauc
pauca
paucas
paucs
paul
paule
pauli
paulo
paulus
pauly
paun
pauper
paupers
paupra
paupradad
pauropoda
paus
pausa
pausas
pauschala
pavel
pavia
pavlar
pax
payerne
pays
paz
pazient
pazients
pazienza
pcd
pce
pcus
pdf
pds
pe
peace
pearl
pearson
pectacon
peda
pedagog
pedagogia
pedagogica
pedal
pedalera
pedals
peder
pedras
pedro
peduns
peer
pegiura
pegiurada
pegiuradas
pegiurar
pegiurativa
pegn
pei
peiden
peider
peilz
peirce
peis
peisa
peking
pel
pelegrin
pelegrinadi
pelegrinadis
pelegrins
pelizaeus
pella
pellas
pellitschas
peloponnaisa
peloponnes
pels
pelvaira
penal
penala
penalas
penals
penalti
penda
pendan
pendant
pendenta
pendenza
pendiculara
pendula
pendular
pendus
penetienza
penetra
penetrada
penetradas
penetrads
penetrar
penetrescha
penetreschan
penguin
peninsla
peninslas
penis
penna
penninicum
pennsylvania
penny
pens
pensa
pensader
pensaders
pensan
pensar
pensava
pensavan
pensiun
pensiuna
pensiunads
pensiuns
pensum
pensums
pentagon
pentatlon
pentatonica
people
pepper
per
percepescha
percepeschan
percepi
percepida
percepidas
percepids
percepir
perceptibel
perceptibla
perception
percepziun
percepziuns
perche
percorscher
percunter
percurra
percurran
percurrer
percurri
percurrida
percurridas
percurs
percurschi
percy
perda
perdan
perdavant
perdavants
perdents
perder
perdet
perdeva
perdia
perdita
perditas
perditga
perditgas
perdu
perduna
perduns
perdura
perdurar
perencunter
perenna
perennial
perennis
perestroika
perfecziun
perfecziuna
perfetg
perfetga
perfin
performance
pergamon
pergiamina
periclita
periclitada
periclitadas
periclitads
periclitar
periclitaziun
pericliteschan
periferas
periferia
perifericas
perifers
perina
period
perioda
periodas
periodica
periodicas
periodisaziun
perlacher
perm
permanent
permanenta
permanentamain
permanentas
permanents
permess
permettan
permiss
permissiun
pernottaziuns
pero
perpeten
perpetna
perpetnadad
perpetnisa
perquai
perque
perquei
perrault
perrier
perrin
perrun
perry
pers
persa
perschun
perscripziuns
perscruta
perscrutada
perscrutader
perscrutaders
perscrutar
perscrutaziun
perscrutaziuns
perscrutescha
persecuziun
persecuziuns
persepolis
persequita
persequitada
persequitadas
persequitads
persequitar
persequitavan
persequitescha
persia
persian
persiana
persianas
persians
persic
persistent
persistenta
persistenza
perso
person
perspectiva
perspectivas
perspective
perspectives
perspektiven
persuenter
persul
persula
persulas
persuls
persuna
persunal
persunala
persunalas
persunalitad
persunalitads
persunalmain
persunals
persunas
persunificaziun
persvader
persvadi
persvadids
persvas
persvasiun
persvasiuns
pertgas
pertge
pertgei
perth
perthes
pertschaiver
pertschient
pertutga
pertutgada
pertutgadas
pertutgads
pertutgan
pertutgant
pertutgava
peru
perugia
pervi
pervia
pes
pesch
peschs
pest
pesta
pestga
pestgaders
pesticids
pestilenza
petals
petar
pete
peter
peterchens
peters
petersberg
petersburg
peterson
petit
petiziun
peto
petra
petraea
petrograd
petroli
petrus
petta
pez
pfalz
pfeffer
pfeil
pferd
pfister
pflanzen
pflanzensoziologische
pfunds
pfung
pfyffer
pg
pgi
ph
pha
phane
phantastische
phantom
phasianidae
phil
philadelphia
philip
philipp
philippe
philologie
philosoph
philosophen
philosophical
philosophie
philosophische
philosophischen
philosophy
pho
phoenix
phokas
php
phu
physical
physics
physik
physiker
physiologie
phytophthora
pi
pia
piacenza
piani
pianino
pianinos
pianist
piano
pianos
piarda
piars
piazza
picasso
piccadilly
picea
pichel
pick
pico
pictur
pictura
picturas
picture
picturs
pieder
piemont
piemunt
pier
piero
pierre
pietad
pieter
pietissem
pietro
pietus
pietusa
pievel
pievels
pigl
piglia
pigliar
piglier
pigliet
piglio
pigment
pigmentaziun
pigments
pign
pignia
pigniu
pignol
pigns
pil
pilac
pilaster
pilasters
pileschs
pilet
pilot
pilots
pinacoteca
pinads
pink
pinta
pintga
pinus
pionier
pioniers
pipeline
piper
pippin
pir
piramida
piramidas
pirat
pirataria
pirats
pireneas
pirir
piroclastic
piroclastics
pisa
pista
pistas
pistola
pitasch
pitg
pitga
pitgalain
pitgar
pitgas
pitschen
pitschens
pitschna
pitschnas
pitt
pittoresca
pittu
pittur
piu
piunier
piuniers
pius
piutschas
piv
piz
pizarro
pizs
pizza
pizzo
pl
pla
plac
placat
placats
place
placenta
placi
placidus
plai
plaid
plaids
plain
plaina
plaine
plains
plaiv
plaivs
plaja
plajas
plan
planck
planet
planets
planifitgada
planira
planiras
planisa
planisada
planisadas
planisads
planisar
planisava
planisaziun
planiv
planiva
planivas
plans
plant
planta
plantads
plantagenet
plantar
plantarum
plantas
plantascha
plantaschas
plantaziuns
plantinas
plants
planu
plascha
plaschair
plascher
plastic
plastica
plasticas
plat
plateau
platin
platon
plats
platta
plattafurma
plattafurmas
plattamorta
plattas
platten
platz
plaun
plauna
plaunet
plauns
plaunsieu
plaunterren
plausibla
plausiblas
play
plaz
plaza
plazs
plazza
plazzada
plazzadas
plazzads
plazzal
plazzar
plazzas
pld
ple
please
plebeians
plectrum
pled
pleda
pledader
pledaders
pledari
pledenta
pledescha
pleds
plein
pleistocen
pleiv
plenara
plenipotenza
plessur
pleticha
plevon
plevons
pli
plievgia
plima
plimas
plimatsch
plinavant
plinavon
pliniana
plinius
pliocen
plipart
pliras
plirs
plitgunsch
plitost
plivalur
plo
plotdata
plouda
plova
plovdiv
plu
plugls
plum
plural
pluralissem
pluralistica
pluralitad
plurilings
plurilingua
plurilinguas
plurilinguitad
plus
plymouth
pmid
pnas
pnb
pneu
pneus
png
po
pocal
poch
podest
podestat
podgorica
poe
poesia
poesias
poet
poeta
poetessa
poetic
poetica
poeticas
poetics
poets
pogroms
pohl
pohle
poi
poincare
point
poitiers
pol
polac
polacs
poland
polar
polara
polaras
polarisaziun
poleis
polemica
polen
poli
poliakov
police
policist
policists
policy
polifonia
polinesia
poliploidia
polis
politecnica
politecnicum
politeia
politeisticas
politic
politica
political
politicamain
politicas
politicher
politichers
politics
politik
politikwissenschaft
politisch
politische
politischen
politischer
politolog
politologia
polity
polizia
polizialas
polizias
pollen
polluziun
polo
pologna
polonais
polonaisa
polonaisas
pols
polska
polybios
pomarania
pomerania
pomici
pompei
pompeian
pompeii
pompeius
pompeji
pompidou
pompus
pompusa
pompusas
pon
pondera
ponderar
ponderaziun
ponderaziuns
ponis
pont
ponte
pontiac
pontifical
pontificalis
pool
poor
pop
pope
poppa
popper
pops
popula
populada
populadas
populads
popular
populara
popularas
popularisa
popularitad
populars
population
populations
populaziun
populaziuns
populazuin
populescha
populus
poque
por
poras
porcellana
porrentruy
porscha
porschan
porsche
porscher
porschia
port
porta
portaflurs
portafritgs
portal
portan
portas
portaviuns
portavusch
portg
portgas
portgets
portgs
portia
portian
portic
portici
porticus
porto
portra
portrait
ports
portugais
portugaisa
portugaisas
portugal
pos
posa
poschiavo
posen
positiv
positiva
positivas
positivissem
positivs
posiziun
posiziunada
posiziunar
posiziuneschan
posiziuns
poss
posseda
possedan
posseder
possedeva
possedevan
possedi
possess
possessiuns
possessur
possessura
possessurs
possia
possian
post
posta
postal
postala
postalas
postals
posteriur
posteriura
posteriuramain
posteriuras
posteriuritad
posteriurs
postfinance
postmoderna
posts
postula
postulada
postulat
postulats
postulescha
postum
postumum
potala
potential
potenzial
potenziala
potenzialmain
potenzials
potoc
potsdam
poum
pour
pouvoir
pover
povers
povra
povradad
povras
power
poznan
pp
pps
pr
pra
prada
pradas
pradesh
prados
prads
praeger
prag
pragmatic
pragmatica
praisa
praktische
praktischen
praschun
praschunia
praschunier
praschuniers
praschuns
prater
pratic
pratica
praticamain
praticas
pratics
pratitga
pratitgada
pratitgadas
pratitgads
pratitgar
pratitgava
pratitgavan
pratitgeschan
pratteln
prau
praula
praus
pravenda
pravendas
praxis
praxisbuch
pre
prealpina
prealps
preambel
precara
precautamain
precauziun
precedent
precedenta
precedentas
precedents
precedenza
precessiun
precipitadamain
precipitaziun
precipitaziuns
precis
precisa
precisamain
precisas
precisiun
preclassica
precristian
precursur
precursura
precursuras
precursurs
preda
predation
predators
predaturs
predecessur
predecessurs
predestina
predgia
predi
predicat
predicziun
predilecziun
predir
predis
preditg
preditgant
preditgants
predominanta
predominanza
predomineschan
prefaziun
prefect
prefectura
preferenza
preferenzas
preferescha
prefereschan
preferi
preferida
preferidas
preferids
preferientscha
preferiva
pregia
pregias
pregiudizis
pregnanta
pregny
prehistoric
preir
preistorgia
preistoric
preistorica
preistoricas
preistorics
prelats
prelavurs
prelecziun
prelecziuns
prelegi
preliminar
preliminara
preliminaras
prelitorala
prematura
premi
premia
premias
premiera
premio
premis
premissa
premissas
premodern
premoderna
premolar
premolars
premura
pren
prend
prenda
prendan
prendend
prender
prendeva
prendevan
prendi
prendia
prendida
prendidas
prendids
prenum
prenums
prepara
preparada
preparadas
preparads
preparar
preparativas
preparatoricas
preparats
preparaziun
preparaziuns
prepireneas
prer
prerevoluziunar
preroman
pres
presbit
prescha
preschaint
preschainta
preschent
preschenta
preschentada
preschentadas
preschentads
preschentan
preschentar
preschentas
preschentava
preschentavan
preschentaziun
preschentaziuns
preschents
preschentscha
preschientscha
prescripziuns
prescrit
prescritta
prescriva
present
presenta
presentiment
presenzcha
preservada
preservar
preservaziun
president
presidenta
presidents
presidenza
presidi
presidia
presidial
presidiala
preslav
prespa
press
pressa
pressburg
presse
presses
pressiun
pressler
prest
presta
prestada
prestan
prestar
prestaziun
prestaziuns
prestige
preston
presumtiv
presumtiva
presumziun
pretais
pretaisa
pretaisas
pretenda
pretendan
pretender
pretendeva
pretendevan
pretendi
pretendia
pretendida
pretendidas
pretensiun
pretensiuns
pretensius
pretensiusa
pretext
pretoria
pretsch
pretschs
preussen
preussische
prevala
prevalan
prevaleva
prevalevan
prevediva
prevegna
prevegni
prevegnir
preventiv
preventiva
prevenziun
prevesa
prevesair
preveseva
prevesevan
previs
previsa
previsas
prey
prezius
preziusa
preziusas
price
priedi
prim
prima
primar
primara
primaras
primarmain
primars
primas
primat
primats
primaudiziun
primavaira
primavera
primitiv
primitiva
primitivas
primminister
primo
primus
prince
princeps
princessa
princeton
princip
principadi
principadis
principal
principala
principalas
principalmain
principals
principat
principe
principel
principela
principi
principles
princips
prins
prinsengracht
print
prinz
prinzi
prinzis
priori
prioritad
pris
priu
priva
privada
privadas
privads
privar
privat
privata
privatas
privatisaziun
privats
privaziun
privel
privels
privilegi
privilegia
privilegiada
privilegiads
privilegis
privlus
privlusa
privlusas
prix
prize
pro
probabel
probabilitad
probabla
probablamain
proband
probands
problem
problematic
problematica
problematicas
probleme
problems
probst
proceder
procedi
procedura
proceduras
proceedings
procent
procents
procentuala
process
processiun
proclama
proclamada
proclamar
proclamaziun
proclamescha
procura
procuran
procurar
procuratur
procurava
procuravan
produ
producent
producents
producescha
produceschan
produceschia
produci
producida
producidas
producids
producir
produciva
producivan
product
productiv
productiva
productivas
productivitad
products
producziun
producziuns
prof
profan
profana
profanas
profans
professer
professers
professiun
professiunal
professiunala
professiunalas
professiunals
professiuns
professor
professur
professura
profet
profets
profezia
profil
profilar
profile
profis
profit
profita
profitan
profitar
profitescha
profiteschan
profund
profunda
profundamain
profundas
profunditad
profunditads
profunds
proget
progets
prognosas
prognostitga
program
programmatica
programms
programs
progredenta
progredinta
progress
progressiv
progressiva
project
projecta
projectadas
projects
projecziun
projecziuns
projekt
proletara
proletaria
proletariat
proletaris
prolog
prolunga
prolungada
prolungar
prolungaziun
prometheus
prominent
prominenta
prominents
promotur
promoturs
promova
promovan
promover
promovi
promovida
promovidas
promovids
promoziun
pronom
pronoms
pront
pronta
prontadad
prontas
prontezza
pronts
pronunzia
pronunziads
propaga
propagada
propaganda
propagandistic
propagandistics
propagava
propagavan
prophet
propi
propona
proponer
proponi
proporz
proporziuns
proposta
propostas
proprietad
proprietads
proprietari
proprietaris
propris
propugnatur
propyla
prorumper
prorut
proruts
prorutta
proruttas
prosa
prospects
prosperitad
prostituadas
prostituziun
proswenschtschenije
protagonist
protagonists
protected
protection
protectiva
protectorat
protectur
protectura
protecturat
protecturs
protecziun
protecziunistica
proteger
protegi
protegia
protegian
protegida
protegidas
protegids
protein
proteins
protest
protesta
protestant
protestanta
protestantas
protestantissem
protestants
protestar
protestas
protests
proto
protocol
protocols
protoistorgia
protorassissem
protostomia
proudhon
prova
provas
proveda
proveder
provedi
provedids
provediment
provegnientscha
provence
proverbis
proviant
providientscha
provinces
provinza
provinzas
provinzialas
provinzials
provisiun
provisiuns
provisoric
provisorica
provisoricamain
provoca
provocar
provocaziun
proxim
proxima
proximas
proxims
prozess
prozesse
pru
prudent
prussia
prussian
prussiana
prussianas
prut
pruva
ps
psalm
psalms
psalteri
pseudonim
psica
psichic
psichics
psicologia
psicologic
psicologicas
psicologics
psoe
pss
psychologie
pteronyssinus
ptolemeus
ptt
pu
publ
public
publica
publicamain
publicas
publications
publicaziun
publicaziuns
publicheda
publichedas
publichet
publicho
publicist
publicistica
publicists
publicitad
publics
publique
publishers
publishing
publitga
publitgada
publitgadas
publitgads
publitgar
publitgescha
publius
puccini
pudain
pudair
pudais
pudaiva
pudess
pudessan
pudessi
pudev
pudeva
pudevan
pudi
puerto
pufendorf
pugaus
pugn
puidoux
pula
pulenta
pully
pulpa
pulsatilla
pult
pulvra
puma
pumicultura
pumpa
pumpas
pumpiers
pumpusa
punct
puncts
punctua
punctuala
puni
punica
punicas
punids
punir
puniziun
puniziuns
punjab
punk
punt
punta
puntcrap
puntg
puntgs
puntina
puntraschigna
punts
pupilla
pur
pura
puramain
puras
purezza
purgatorio
purgiatieri
purificaziun
purificaziuns
purifitgads
purifitgar
puril
purila
purilas
purils
purists
puritana
puritans
purpura
purs
purschella
purscheva
purschevan
purschi
purschida
purschidas
purschids
purta
purtada
purtadas
purtader
purtaders
purtadra
purtads
purtanta
purtanza
purtar
purtau
purtava
purtavan
purteda
purtret
purtreta
purtrets
purusha
puscha
puschas
puschels
puschina
puschla
puschlav
puschlev
puspe
puspei
pussaivel
pussaivels
pussaivla
pussaivladad
pussaivladads
pussaivlas
pussant
pussanta
pussantas
pussants
pussanza
pussanzas
pussaunza
pusseivel
pussibel
pussibilita
pussibilitar
pussibilitava
pussibilitescha
pussibiliteschan
pussonza
pustet
pustu
puter
puters
putga
putgads
putgants
putnam
putsch
putschists
px
pyre
q
qa
qaida
qing
qinghai
qu
qua
quacra
quacras
quadrat
quadrata
quadratica
quadrats
quadrels
quadret
quadrets
quai
qual
quala
qualas
qualche
qualificaziun
qualificaziuns
qualifitga
qualifitgada
qualifitgadas
qualifitgads
qualifitgar
qualitad
qualitads
quals
quant
quantas
quantitad
quantitads
quants
quantum
quantums
quaranta
quarrymen
quart
quarta
quartal
quartet
quartets
quartfinal
quartier
quartiers
quarts
quasi
quater
quatre
quatter
que
quechua
queen
queensland
quei
queipo
quel
quela
quell
quella
quellas
quelle
quellen
quels
quercus
querelle
quesnay
quest
questa
questas
questione
quests
qui
quia
quichua
quies
quiet
quieta
quietezza
quina
quindesch
quint
quinta
quintan
quintar
quintas
quintava
quinto
quints
quist
quista
quistas
quita
quitads
quitaus
qullaw
quo
quota
quotas
quotidian
quotidiana
quotidianas
qusqu
r
ra
raab
rabins
race
races
racheta
rachetas
rachetta
rachettas
racism
racolta
racoltas
rada
radar
radetzky
radi
radiala
radiaziun
radical
radicala
radicalas
radicaldemocratics
radicalisaziun
radicalissem
radicals
radio
radioactivitad
radiofonic
radiofonica
radiofonics
radios
radiotelevisione
radiotelevisiun
radis
radislav
radium
radius
radix
radovan
raduna
radunada
radunads
radunanza
radunanzas
radunar
radunava
radund
radunda
radundas
radunds
raeti
raetia
raetica
raeumliche
raf
rafael
raffael
raffina
raffinarias
raffiniert
ragaz
ragisch
ragischs
ragiundschet
rahman
rai
raig
railway
railways
raimund
rain
rainbow
rainer
rainier
rait
raits
raivan
raiver
ral
rale
ralf
ralph
ram
rama
ramadan
ramanuja
ramassa
ramayana
ramdohr
ramosch
rampa
rampign
ramur
ramurs
ran
randall
rang
rangaziun
rangifer
ranke
ranking
rant
raoul
rap
rapallo
raphael
rapida
rapidamain
rapids
rapiment
rapina
rapinaders
rapinads
rapinament
rapperswil
rapport
rapporta
rapportan
rapportar
rapports
rapreschantant
raps
raptor
raquens
raquent
raquenta
raquents
raquint
raquinta
raquintada
raquintader
raquintaders
raquintan
raquintar
raquintau
raquintaziun
raquintaziuns
raquints
rar
rara
raras
rard
raritad
raron
rars
ras
rasada
rasant
rasanta
rascha
rasche
raschun
raschunaivel
raschunaivla
raschuns
rasmus
raspeda
rassa
rassas
rassenwahn
rassismus
rassissem
rassist
rassistic
rassistica
rassisticas
rassistics
rastatt
rasulaunas
rata
ratas
rathenau
ratificaziun
ratifitga
ration
ratko
ratuns
rau
rauba
raubas
rauch
raul
raum
rauna
raunas
raunt
raurica
ravarenda
ravas
ravenna
ravgia
ravugl
rawls
ray
raymond
raze
raziunal
raziunala
raziunalas
raziunalissem
raziunalitad
raziunals
raziunament
razza
razzas
rchen
rcher
rd
rde
rderungfonds
rdoba
rdt
re
reacquista
reacquistar
reactur
reacturs
reacziun
reacziunar
reacziunara
reacziunars
reacziuns
read
reader
reading
reagan
reagen
reagescha
reageschan
reagi
reagir
real
reala
realas
realenzyklopa
realexistent
realisa
realisablas
realisada
realisadas
realisads
realisar
realisau
realisaziun
realisescha
realiseschan
realissem
realistic
realistica
realita
realitad
realitads
reality
reallexikon
reals
realsocialissem
realsocialistics
rearmament
reavert
rebatter
rebatti
rebattida
rebekka
rebella
rebellion
rebelliun
rebels
recensiun
recensiuns
recent
recentas
recents
recepescha
recepi
recepida
recepidas
recepids
recepir
receptur
recepturs
recepziun
recess
recessiun
rechatta
recht
rechts
rechtsphilosophie
recife
recipient
recipients
reciproca
reclam
reclama
reclams
recolonisa
recolonisar
recolonisaziun
reconciliar
reconciliaziun
reconquista
reconquistada
reconquistar
reconstituir
reconstrucziun
reconstrucziuns
reconstrui
reconstruida
reconstruir
record
records
recreaziun
recruta
recrutar
recrutaziun
recruts
rectangulara
rectur
recumanda
recumandads
recumandaziun
recumandaziuns
recumpensa
recuperar
recurra
recurrer
recurri
recurs
red
redactur
redacturs
redacziun
rede
reden
rediger
redigi
reding
reducescha
reduceschan
reduceschia
reduci
reducida
reducidas
reducids
reducir
reducziun
reducziuns
redux
reed
reediziun
reediziuns
reelecziun
reelegi
refatg
referat
referats
reference
referendum
referendums
referenza
referenzas
referescha
refereschan
referi
referida
referids
referiment
referiments
referind
referir
referiva
referivan
reflecta
reflectada
reflectar
reflectescha
reflecteschan
reflections
reflex
reflexiun
reflexiuns
reflexs
refluss
reform
reforma
reformada
reformation
reformkommunismus
refracziun
refu
refugi
refugis
refuorma
refurma
refurmada
refurmadas
refurmads
refurmar
refurmas
refurmatoric
refurmatorica
refurmatur
refurmaturs
refurmaziun
refurmeda
refurmedas
refurmissem
refurmos
refurniment
refusa
refusada
refusaders
refusads
refusan
refusar
refusava
refusavan
refusaziun
refutar
regal
regala
regals
regel
regenerabla
regenerablas
regeneraziun
regensburg
regent
regenta
regentas
regents
regenza
regenzas
reger
reges
reggenti
regi
regia
regian
regida
regidas
regids
regierung
regime
regiment
regiments
regina
reginam
reginavel
reginavels
regio
region
regional
regionalismus
regionen
regions
register
registers
registra
registrada
registradas
registrads
registrar
registraziun
registraziuns
registreschan
regiun
regiunal
regiunala
regiunalas
regiunalisaziun
regiunalissem
regiunals
regiuns
regiuvinaziun
regiva
regivan
regl
regla
reglada
regladas
reglads
reglament
reglamentaziun
reglamentaziuns
reglaments
reglar
reglas
reglava
regna
regni
regnum
regorda
regordan
regredids
regress
regressiun
reguard
reguarda
reguards
regula
regulada
regular
regulara
regularas
regularitad
regularmain
regulars
regulaziun
regulaziuns
regurda
regurdanzas
regurdar
regurdavan
regurdientscha
regurdientschas
reh
reich
reichenau
reiches
reichstag
reichswehr
reihe
reims
rein
reinbek
reincarnaziun
reineke
reinen
reiner
reinhard
reinhardt
reinhart
reinhold
reinterpretaziun
reintroduci
reintroducziun
reise
reisen
reiter
relasch
relascha
relaschada
relaschadas
relaschads
relaschar
relaschs
relata
relatan
relations
relativ
relativa
relativamain
relativas
relativescha
relativita
relativitad
relativity
relaziun
relaziuns
release
relegaziun
relegeda
relevant
relevanta
relevantas
relevants
relevanza
relict
relicts
reliev
relievs
religio
religion
religionen
religions
religionswissenschaft
religiosita
religious
religiun
religiuns
religius
religiusa
religiusadad
religiusas
reliquias
remagliaders
remagliar
remartga
remartgabel
remartgabla
remartgablas
remartgar
remartgas
remessa
remi
reminent
remis
remisas
remischun
rempar
rempars
remplazza
remplazzada
remplazzadas
remplazzads
remplazzan
remplazzar
remplazzond
remus
ren
renaissance
renan
renania
renascher
renaschientscha
renata
renate
renault
renconuscha
renconuschan
renconuscher
renconuschi
renconuschian
renconuschida
renconuschidas
renconuschids
renconuschientscha
renda
rendan
render
rendeva
rendevan
rendi
rendida
rendidas
rendids
rendita
rene
renens
rengger
renn
rennert
renova
renovada
renovar
renovaziun
renreiter
rens
renta
rentabla
rentas
rentschs
renum
renuma
renumada
renumadas
renumna
renumnada
renumneda
renumnedas
renumno
renunzia
renunziar
renvia
renviaments
renviar
renviescha
renvieschan
renzo
reorganisa
reorganisaziun
reorientaziun
reparatura
reparaziun
reparaziuns
reparta
repartan
reparter
reparti
repartida
repartidas
repartids
repartiziun
repassa
repassada
repassar
repercussiuns
repertori
repeta
repetan
repeter
repeti
repetidamain
repetiziun
replica
report
reportaschas
reporter
reporters
reprenda
reprender
reprendi
represchenta
represchentada
represchentadas
represchentads
represchentan
represchentant
represchentanta
represchentants
represchentanza
represchentanzas
represchentar
represchentativ
represchentativa
represchentativas
represchentativs
represchentava
represchentavan
represchentaziun
represchentaziuns
represchentia
repressalias
repressiun
repressiuns
repressivas
reprint
reproduci
reproducir
reproducziun
reproscha
reproschas
reptils
repu
repubblica
republic
republica
republican
republicana
republicanas
republicans
republicas
republik
republika
reputaziun
requiri
rer
rerum
res
resalva
resalvas
resalvond
reschen
reschia
reschim
reschims
reschissur
reschissurs
rescuvert
rescuverta
research
resenta
resenti
resentida
resentidas
reserva
reservada
reservadas
reservads
reservas
reservat
reservats
reservuar
resgia
resguard
resguarda
resguardada
resguardadas
resguardads
resguardan
resguardar
resguardava
resguardavan
resguardond
resident
residenta
residents
residenza
residenzas
residenziala
residiava
residiavan
resista
resistance
resistent
resistenta
resistenza
resistenzas
resister
resolution
resoluziun
resoluziuns
resonanza
resorta
resortan
resorti
resortida
resortidas
resortids
resortir
resource
resources
resp
respect
respecta
respectabel
respectabels
respectabla
respectar
respectiv
respectiva
respectivamain
respectivas
respectivmaing
respectivs
respira
respiraziun
resplenda
responsabel
responsabels
responsabla
responsabladad
responsablas
response
resposta
respostas
respunda
respundan
respunder
respundi
respundida
rest
resta
restabili
restabilida
restabiliment
restabilir
restada
restadas
restads
restampa
restan
restant
restanta
restantas
restants
restanza
restanzas
restar
restas
restaura
restaurada
restaurant
restaurants
restaurar
restauration
restaurativas
restauraziun
resti
restia
restian
restitui
restituida
restituir
restituziun
restle
restrenscha
restrenschan
restrenscher
restrenscheva
restrenschi
restrenschida
restrenschidas
restrenschids
restrictiva
restricziun
restricziuns
restructuraziun
rests
resu
resulta
resultada
resultadas
resultads
resultan
resultar
resultat
resultats
resultava
resultavan
resultia
resuma
resumar
resumaziun
resumescha
resumond
resun
resuna
resunan
resund
resurrecziun
resursa
resursas
resvegl
retard
retarda
retardada
retardament
retardar
rete
retegna
retegnair
retegnan
retegni
retegnida
retegnids
retegnientschas
retg
retgav
retgavs
retgs
retic
retica
reticas
retina
retira
retiran
retirava
retiria
retirian
reto
retorica
retoromanas
retorsiun
retorumantsch
retorumantscha
retrair
retratg
retratga
retratgas
retratgs
retroacziun
retroacziuns
retrospectiva
retroterra
rets
retscha
retschaiva
retschaivan
retschaiver
retschas
retschavi
retschavida
retschavider
retschaviders
retschavids
retschertga
retschertgas
retschet
retschiert
retuorn
return
returna
returnada
returnadas
returnads
returnan
returnar
reumatissem
reuni
reunida
reunidas
reunids
reunificaziun
reunir
reuniun
reuniuns
reuss
reussescha
reusseschi
reusseschia
reussi
reussida
reussidas
reussids
reussir
reuter
rev
revalitaziun
reveder
revedi
revedida
revegni
revegnida
revegnir
revelaziun
reverenda
reverendas
revier
reviers
review
reviews
revisited
revisiun
revisiunissem
revisiuns
revista
revistas
revival
reviver
revoca
revocada
revocadas
revocar
revolta
revoltads
revoltants
revoltas
revolution
revolutiona
revolutionsdenkmal
revoluziun
revoluziuna
revoluziunar
revoluziunara
revoluziunaras
revoluziunaris
revoluziunars
revoluziuns
revolver
rex
rey
reykjavi
rez
rezeption
rezia
rfa
rfagre
rfli
rft
rg
rgb
rgen
rger
rgerkrieg
rgerliche
rgerwelt
rgy
rha
rhead
rhein
rheinische
rheinland
rhiel
rhino
rhinoceros
rhinos
rho
rhode
rhodes
rhododendron
rhodos
ri
ria
rian
riatsch
ribi
ric
rica
ricarda
ricardo
rich
richard
richards
richardson
richelieu
richet
richmond
richter
richthofen
rick
ricla
rico
ridischoras
rie
rieger
riehen
riehl
riein
riemann
riemer
rien
ries
rietberg
rievens
riga
right
rights
rigida
rigurus
rigurusa
rigurusadad
rigurusas
rigveda
rijeka
rila
rima
rimas
rime
rimini
rimna
rimnada
rimnadas
rimnaders
rimnads
rimnan
rimnar
rimnava
rimnavan
rin
rinfatscha
rinfatschas
rinforz
rinforza
rinforzada
rinforzadas
rinforzads
rinforzament
rinforzan
rinforzar
ring
ringen
ringo
rinoceros
rintg
rintgs
rio
riom
rir
ris
rischlas
rise
risico
risk
risorgimento
rispunda
ristg
ristga
ristgar
ristgs
rita
ritg
ritga
ritgamain
ritgas
ritgezza
ritgezzas
ritgs
ritmica
ritmus
ritschl
ritter
ritual
rituala
ritualas
rituals
ritus
riva
rival
rivalisants
rivalitad
rivalitads
rivals
rivas
rivaun
rivaz
river
rivera
rivet
riviera
rk
rkei
rko
rm
rme
rmer
rn
rnberg
rndu
rner
rno
rnu
ro
road
robert
roberto
roberts
robespierre
robin
robinson
robur
robusta
roc
roche
rock
rocky
rococo
roda
rodaglias
rodan
rodas
rodney
rodopas
rodund
roger
rogers
rohde
rohe
rohwer
roi
roial
roiala
roialas
roialitad
roials
roland
role
rolf
roll
rolla
rollas
rolle
rolling
rollo
roloff
rom
roma
romagna
roman
romana
romanas
romanda
romande
romani
romania
romanic
romanica
romanisada
romanisaziun
romanische
romanischen
romanistica
romanists
romano
romanos
romans
romantic
romantica
romanticas
romantichers
romantics
romantik
romanum
romanza
romauna
romauns
rome
romeo
romins
rommel
romontsch
romontscha
romontschas
romontschs
roms
romulus
ron
rona
ronald
ronco
rondo
roni
room
roosevelt
root
ros
rosa
rosaceae
rosamond
rosario
rosas
roschada
rose
rosen
rosenberg
rosenheim
rosenman
rosetta
rosettas
roskilde
ross
rossberg
rossi
rossini
rot
rotaziun
rotbuch
rote
roten
rotfuchs
roth
rotscha
rotschas
rotterdam
rouse
rousseau
routers
routing
routledge
rover
roveredo
rowohlt
roy
royal
rpa
rper
rpfeld
rr
rrenmatt
rs
rsch
rsi
rss
rsten
rster
rt
rtemaker
rten
rterbuch
rth
rtige
rtigen
rtl
rtner
rtr
rts
rttemberg
ru
ruanda
ruassaivel
ruassaivla
ruassar
ruaus
ruaussa
ruaussan
rub
rubadurs
rubel
ruben
rubens
rude
rudella
rudent
rudi
rudimentar
rudimentara
rudlar
rudolf
rudolfensis
rudolph
rudra
rue
rueras
rueun
ruf
rufus
rugby
rugna
ruhr
ruiders
ruier
ruina
ruinas
ruinaulta
ruissas
rum
ruma
rumantsch
rumantscha
rumantschas
rumantschia
rumantschs
rumauntsch
rumauntschs
rumen
rumena
rumenas
rumenia
rumens
rument
ruments
rumi
rumida
rumir
rummel
rumpa
rumpan
rumper
runals
runas
runcada
runcadas
runcar
runda
rundas
rundfunk
rundschau
rung
ruosna
ruprecht
ruptura
rupturas
rural
rurala
ruralas
rurals
rus
ruschein
rusna
russ
russa
russas
russel
russell
russia
russian
russificaziun
russische
russischen
russland
russos
rustg
rustgs
rut
ruta
rutas
ruth
ruts
rutta
ruttadira
ruttadiras
ruttas
ruver
ruvers
rvi
ry
rz
rzburg
rður
s
sa
saale
saanen
saar
saarbru
saarland
saas
saba
sabel
sabi
sabientscha
sabine
sablun
sablunus
sabotascha
sac
sacerdot
sacerdots
sachalin
sachsen
sacral
sacrala
sacrals
sacrament
sacraments
sacrifizi
sacro
sacrum
sad
safari
safety
safran
saga
sagas
sage
sagen
sagogn
sahara
sai
said
saida
saigon
saimaa
sain
saint
sainza
saira
sairas
saiv
saivs
saja
sajan
sajets
sajetta
sajettada
sajettadas
sajettads
sajettan
sajettar
sajettavan
sakya
sal
sala
salamander
salamanders
salari
salas
salazar
saldo
sale
salesch
saleschs
salid
salieri
saliers
salinas
salips
salis
salit
salix
salome
salomon
salouf
sals
salt
salun
saluns
salv
salva
salvada
salvader
salvador
salvamaint
salvament
salvar
salvatore
salzburg
samaj
samaranch
sambia
samedan
sami
samignun
sammlung
samnaun
samnitica
samnits
samoa
sams
samsara
samsung
samuel
samuelson
san
sana
sanadad
sanaziun
sancti
sanctuari
sanctuaris
sancziuns
sandra
sandro
sandstein
sanester
sanestra
sanestras
sang
sanggye
sangha
sanguinus
sanguinusa
sanguinusamain
sanguinusas
sanitad
sankt
sanne
sans
sanscrit
sansculottes
sant
santa
santana
santeri
santeris
santiago
santo
santos
sants
sanzeno
sao
sapere
saphorin
sapiens
sapientiva
sapientivamain
sappi
sappia
sapporo
sar
sara
saracens
saragossa
sarah
sarajevo
sarament
saranda
sard
sardegna
sargans
sarina
sarine
sarno
saro
sartre
sas
sasez
sasezs
sasezza
sasezzas
sassanids
sasso
sat
satan
satellit
satellits
satg
satget
satgets
satgs
satigl
satiglia
satiglias
satigls
satira
satisfacziun
satisfar
satisfatg
saturn
sauar
sauaziun
saudita
sauer
saul
sauma
saun
sauna
saung
sauns
saurs
saut
sauta
sautar
sauts
sava
savain
savair
savanna
savannas
savary
save
savend
savens
saver
savess
savessi
saveva
savevan
savi
savida
savigny
saviu
savognin
savoia
savonarola
savur
savura
savuran
savurar
savurs
sax
saxon
saxona
saxonas
saxonia
saxons
say
saz
sbagl
sbaglia
sbagliada
sbagliadas
sbagls
sbartga
sbartgada
sbartgads
sbartgar
sbassa
sbassada
sbassadas
sbassan
sbassar
sbatter
sbitta
sblundregia
sblundregiada
sblundregiadas
sblundregiar
sboz
sbozs
sbratgs
sbucca
sbuccada
sbuccan
sbursar
sc
scala
scale
scalemajor
scalin
scalina
scandal
scandals
scandinav
scandinava
scandinavas
scandinavia
scandinavissem
scandinavs
scania
scanvetg
scappa
scappar
scarlet
scartira
scena
scenari
scenaris
scenas
sceptica
scepticissem
sceptics
sch
scha
schaan
schabain
schabegia
schabegiau
schabetg
schabetgs
schacht
schaffusa
schah
schai
schanegia
schanegiar
schaner
schanugl
schanuglias
schanza
schanzas
schapur
schar
scharia
schatten
schau
schauspielhaus
sche
schebain
sched
schef
schefcumandant
scheffa
schefs
schegea
schegie
scheidemann
scheitern
schela
schelentar
schelira
schellenberg
schelling
schelta
schema
schemas
schematica
schember
schembers
schend
schender
schendra
schendrar
schenen
schengen
scheni
schenk
scherm
schermigliar
schermigliaziun
scherms
scherz
scheunen
scheva
schevan
schi
schia
schibetta
schibettas
schieffer
schientscha
schiff
schiglioc
schiits
schiller
schilling
schimgia
schimgias
schindler
schisma
schizun
schizunt
schlager
schlagher
schlans
schlantsch
schlargia
schlargiada
schlargiadas
schlargiament
schlargian
schlargiar
schlarigna
schlatta
schlattaina
schlattainas
schlattas
schlatteina
schlegel
schleicher
schleiermacher
schlemihl
schlemihls
schlesia
schleswig
schlia
schliada
schliadas
schliads
schlian
schliar
schliaziun
schliaziuns
schlieffen
schliemann
schlo
schloss
schlu
schlucca
schluccada
schluccar
schluein
schlumpf
schmid
schmidt
schmitt
schmitz
schmorell
schnee
schneider
schneiders
schneidmu
schner
schnestra
schnyder
scho
schoc
scholastica
scholl
scholz
schon
schons
school
schopenhauer
schormann
schovinissem
schrift
schriften
schriftenreihe
schriftsteller
schro
schroeder
schu
schubert
schubra
schuchardt
schuck
schulda
schuldada
schuldads
schuldas
schuldau
schule
schulin
schulz
schulze
schumacher
schumann
schumber
schumbers
schumellinas
schumellins
schuppa
schurnal
schurnaliers
schurnalist
schurnalists
schuster
schutz
schuwerk
schwa
schwab
schwabe
schwabing
schwartz
schwarz
schwarze
schwarzen
schweden
schweiz
schweizer
schweizerische
schweizerischen
schwerkraft
sci
science
sciences
scientific
scientifica
scientificamain
scientificas
scientifics
scientist
scientists
scienza
scienzads
scienzas
scienzia
scienziads
scits
sclauder
sclaus
sclav
sclavaria
sclavitid
sclavs
sclera
scleri
sclerida
sclerids
scleriment
sclerir
sco
scol
scola
scolada
scolads
scolar
scolaras
scolars
scolas
scolast
scolasta
scolastic
scolastica
scolasts
scolaziun
scolina
scolinas
sconfitta
sconfittas
scorbut
scorsa
scossa
scossas
scot
scots
scott
scoula
scozia
scret
screts
scribent
scrinari
script
scriptur
scriptura
scripturas
scripturs
scripziun
scrit
scrits
scritta
scrittas
scrittira
scrittiras
scrittu
scriva
scrivan
scrivant
scrivent
scriver
scriveva
scrivevan
scrofa
scrupels
scu
scufla
scuidanza
scuidus
sculptur
sculptura
sculpturas
sculpturs
scumanda
scumandada
scumandadas
scumandads
scumandar
scumbigl
scumbigliar
scumbigls
scumond
scumonds
scuntra
scuntrada
scuntradas
scuntrads
scuntran
scuntrar
scuntravan
scuol
scursani
scursanida
scursanidas
scursanir
scut
scutari
scuts
scuvert
scuverta
scuvertas
scuverts
scuvra
scuvri
scuvrider
scuvrir
sd
sdrima
sdrimas
sds
se
sea
sean
search
seato
sebastian
sebeok
secatta
secession
secessiun
second
secre
secret
secreta
secretar
secretari
secretaria
secretariat
secretaris
secretas
secrets
secreziun
secta
sectas
sector
sectur
secturs
secular
seculara
secularas
secularisa
secularisaziun
seculars
secund
secunda
secundar
secundara
secundaras
secundars
secundas
secundo
secundus
securitate
security
secziun
secziuns
sed
sedecida
sedentara
sedesch
sedia
sedias
sediment
sedimentaziun
sediments
sedrun
see
seeland
seele
seemacht
seen
sefardim
segal
segantini
segir
segira
segirada
segiradas
segiramain
segirar
segiras
segirezza
segirs
segirtad
segiurn
segiurns
segl
seglias
segment
segments
segn
segna
segnada
segnadas
segnads
segnar
segnas
segner
segns
segregaziun
segua
seguaints
seguit
segund
segunda
segundas
seguond
seguonda
sehnsucht
sei
seifert
seigi
seigien
sein
seine
seinem
seinen
seiner
seines
seis
seismica
seismicas
seit
seiten
seiv
sejm
sektion
sel
selbst
selbstzeugnissen
seldschucs
selected
selection
selecziun
selecziunar
seleuchids
self
selina
selitz
sella
selma
selva
selvadi
selvadia
selvadias
selvadis
selvaschina
selvicultura
sem
semadeni
semantica
semester
semestril
semetta
semi
semideserts
seminari
seminols
semitica
semiticas
semlja
semmering
sempach
sempel
sempels
semper
semperverda
semperverdas
semplamein
sems
semuossa
sen
senat
senatur
senaturs
sench
sencha
senda
sendai
sendas
senegal
senescenza
seniors
senn
senna
senns
sensaziun
sensaziuns
sense
sensibel
sensibels
sensibilisar
sensibilitad
sensibla
sensibladad
sensiblas
sensitiv
sensitiva
sensitivas
sensitivs
sensorica
sensual
sensuala
sensualas
sensualitad
sensuals
sensurs
sent
senta
sentan
sentenza
sentenzas
sentenzia
sentenziadas
sentenziads
sentenziar
sentenzias
senti
sentida
sentids
sentiment
sentimental
sentimentalitad
sentiments
sentir
sentiva
sentivan
sentupada
senumna
senz
senza
seoul
separa
separada
separadamain
separadas
separads
separar
separatissem
separatista
separatisticas
separats
separaziun
september
septuaginta
sepuli
sepulida
sepulidas
sepulids
sepulir
sepultura
sepulturas
sequent
sequenta
sequents
sequenza
sequenzas
sequestrar
ser
sera
serb
serba
serbas
serbia
serbocroat
serbs
seregorda
serenade
serenar
serenaziun
serenera
sereneras
serengeti
sergei
sergejewitsch
sergio
seria
serias
serie
series
serius
seriusa
seriusamain
seriusas
serp
serps
serra
serrada
serradas
serrads
serralada
serran
serrar
serras
serva
servan
server
servers
servetsch
servetschs
servi
servia
servian
service
services
servida
servids
servient
servients
serviladad
servind
servir
servitid
serviva
servivan
servs
ses
sesa
sesan
sesanfla
sesemann
sesent
sesenta
sesentas
sesents
seser
seseva
sesevan
sesez
sesezza
sesida
sesidas
sessa
session
sestri
set
setga
setgentada
setgentads
setgira
seth
setracta
sets
settavel
settavla
settember
settentriunal
settentriunala
settentriunalas
seu
seuil
sever
severa
several
severamain
severas
severin
severs
severus
sevilla
sex
sexual
sexuala
sexualas
sexualitad
sexualmain
sexuals
sez
sezs
sezza
sezzas
sfalsifitgads
sfera
sferas
sfessa
sfessas
sfida
sfidas
sforz
sforza
sforzs
sfradenta
sfradentada
sfradentant
sfradentar
sfrana
sfroos
sfruttament
sfruttar
sfuigna
sfundra
sfundrada
sfundrar
sfunsar
sfurza
sfurzada
sfurzadamain
sfurzadas
sfurzads
sfurzar
sfurzavan
sg
sgarschur
sgol
sgola
sgolan
sgols
sgrattatschiels
sgt
sgu
sguard
sgula
sgulada
sgulads
sgulant
sgulants
sgular
shadow
shaftesbury
shakespeare
shakti
shaktissem
shanghai
shankara
shapers
shaqiri
shaw
she
sheen
sheffield
shell
sherlock
shift
shire
shiva
shivaissem
shkodra
shoah
short
show
shrewsbury
shri
si
sia
siadora
siand
siara
sias
siat
sibelius
sibiria
sica
sich
sicht
sichuan
sicilia
sid
sidafrican
sidafricana
sidafricanas
sidafricans
sidamericanas
siddhartha
sident
siders
siderurgia
sidney
sidost
sidretg
sidvest
sidvietnamais
sie
siebeck
sieben
siedler
sieg
siegbert
siegen
siegfried
sieghard
siemann
siemens
siemi
siemia
siemis
sien
sierra
sierre
sieu
sieus
sifilis
sigil
sigilla
sigillada
sigir
sigisbert
sigismund
sigl
sigla
sigli
siglia
siglida
siglienta
siglir
sigls
sigmaringen
sigmund
sign
signa
signal
signalisa
signals
signatura
signaturas
significanta
significativ
significaziun
significha
signifitga
signifitganta
signifitgar
signifitgava
signifitgescha
signun
signur
signura
signuradi
signuradis
signuria
signurila
signurils
signurs
sigurd
sikhissem
sikkim
sil
silba
silbas
silberbauer
silberberg
silbermann
silena
silene
silenzi
silesia
silesian
silex
silicat
sill
silla
sils
silsuenter
siluetta
silva
silvania
silvaplauna
silver
silvio
simbabwe
simbiosa
simbol
simbolic
simbolica
simbolicamain
simbolicas
simbolisescha
simboliseschan
simbolissem
simbols
simeon
simmetria
simmetrica
simon
simpatia
simpatisa
simpatisants
simpatisava
simpel
simpels
simpla
simplamain
simplas
simple
simplifitga
simplifitgada
simplifitgar
simplon
simpson
simson
simulaziun
sin
sinagoga
sinagogas
sinai
sinapsids
sinaquai
sinaquei
since
sincera
sincronisaziun
sind
sindicala
sindicat
sindicats
sindrom
sinestra
sinfonia
sinfonias
sinfonic
sinfonica
sinfonics
sinfonie
sing
singapur
singen
singer
single
singles
singul
singula
singular
singulara
singulas
singuls
sinn
sinoda
sinodas
sinonim
sinonima
sinonims
sinoptichers
sinoptics
sint
sintaxa
sintesa
sintetic
sintetica
sinteticas
sinti
sintoms
sion
sir
sirena
siria
sirian
siriana
sis
sisak
sisavel
sisavla
sische
sischen
sistance
sistem
sistematic
sistematica
sistematicamain
sistematicas
sistematics
sistematisar
sistems
sisti
sistida
sistids
sistir
sisum
sitar
site
sitg
sitga
sitgas
sitgira
sitgs
sitten
situa
situada
situadas
situads
situar
situation
situaziun
situaziuns
sitzungsberichte
siu
siva
six
sixtina
sjælland
sk
ska
skelet
skelets
ski
skis
skizza
skizzas
skopje
skowola
sky
slam
slav
slava
slavas
slavery
slavonia
slavs
sliwa
slobodan
slovac
slovaca
slovacas
slovachia
slovacs
slovakia
sloven
slovena
slovenas
slovenia
slovens
slovensko
slowakei
slowenien
slums
sm
small
smanatscha
smanatschada
smanatschadas
smanatschads
smanatschan
smanatschant
smanatschanta
smanatschar
smanatschas
smanatschava
smanatschavan
smanatschond
smartphone
smartphones
smarty
smatga
smatgar
smess
smetter
smina
sminar
sminuescha
sminui
sminuida
sminuidas
sminuir
sminuziun
smith
smithsonian
sms
smyrna
snega
snegan
snegar
snorri
so
sobibor
soboul
soc
social
sociala
socialas
socialdemocrat
socialdemocrata
socialdemocratic
socialdemocratica
socialdemocraticas
socialdemocrats
sociale
socialisaziun
socialism
socialissem
socialist
socialista
socialistas
socialistic
socialistica
socialisticas
socialistics
socialists
socialmain
socialrevoluziunars
socials
socie
societa
societad
societads
societed
societeds
society
socio
sociolog
sociologia
sociologica
sociologics
sociology
sociopolitica
sociopoliticas
socis
socrates
sofia
sofists
software
soglio
sogn
sohn
sokrates
sol
sola
solanki
solar
solara
solars
solas
soldanella
soldat
soldaten
soldier
soldiers
sole
soleil
solemnis
solid
solida
solidaritad
solidarnos
solidbody
solidus
solistics
solists
solit
solitari
solitaria
solitariadad
solitaris
solo
solomon
soloturn
solstizi
soluziun
soluziuns
som
somalia
somber
some
somebody
somma
somme
sommer
sommerfeld
son
sonata
sonatas
sonate
sonda
sondagi
sondas
sondrio
sonets
song
songs
songtsen
sonne
sonor
sonoras
sonorisaziun
sonors
sons
sontg
sontga
sontgaclau
sontgas
sontgilcrest
sontgs
sontheimer
sonvico
sony
sophia
sophie
sopra
sopron
sora
soras
sorber
sorbs
sorbus
sorex
sort
sorta
sortan
sortas
sortescha
sorti
sortia
sortida
sortidas
sortids
sortir
sorts
sos
sottoceneri
soul
sound
sounds
soundtrack
sources
sous
south
southeast
southern
souvenir
souvenirs
souvera
soviet
sovietic
sovietica
sovieticas
sovietics
soviets
sowie
sowjetmarxismus
sowjetunion
soz
sozial
sozialdemokratische
soziale
sozialen
sozialgeschichte
sozialismus
sozialisten
sozialistische
sozialwissenschaften
soziologie
spa
space
spada
spadas
spagna
spagnol
spagnola
spagnolas
spagnols
spain
spaisa
spaisas
spanien
spanische
spanischen
spanish
spargn
spargnar
spari
sparida
sparidas
sparids
sparir
spariziun
sparpaglia
sparpagliada
sparpagliadas
sparpagliads
sparpagliaziun
sparta
spartachists
spartacus
spartan
spartas
sparter
sparti
spartida
spartidas
spartids
spartiziun
spartiziuns
sparun
sparuns
spass
spassegiada
spatla
spatlas
spazi
spaziala
spazis
spazitemp
spd
spe
special
speciala
specialisadas
specialist
specialmaing
species
specific
specifica
specificamain
specificas
specifics
spectacul
spectacular
spectaculara
spectacularas
spectaculars
spectrum
specula
specular
speculaziun
speculaziuns
spedidas
spedir
speditur
spediziun
spediziuns
spegnas
spektrum
spel
spelaea
spelm
spelms
spencer
spendra
spendrament
spendrar
sper
spera
speranza
speranzas
sperar
sperasvi
sperava
speravan
sperdita
sperditas
spermatophyta
sperond
speronza
spert
sperta
spertadad
spertadads
spertamain
spertas
sperts
spescha
spess
spessa
spessamain
spessas
spessezza
spetga
spetgan
spetgar
spetgas
spetgava
spetgavan
speyer
spezaria
spezarias
spezia
spezial
speziala
spezialas
spezialisa
spezialisada
spezialisadas
spezialisads
spezialisaziun
spezialist
spezialists
spezialitad
spezialitads
spezialmain
spezials
spezias
spezielle
spida
spiegel
spieghel
spiel
spielberg
spiert
spiertal
spiertala
spiertalas
spiertalmain
spiertals
spierts
spievel
spievels
spigias
spina
spinas
spindler
spinne
spinoza
spinusa
spir
spira
spirala
spiritual
spirituala
spiritualas
spiritualitad
spirituals
spital
spitg
spitgar
spitzbergen
spitzer
spiunadi
spiunar
spiunascha
splagias
splega
splegada
splegan
spleia
splerins
split
spo
spogliaziuns
spol
sponsurs
spontana
spontanamain
sporadicamain
sport
sporting
sportists
sportiv
sportiva
sportivas
sportivs
sports
sportverlag
sposta
spostan
spot
sprach
sprache
sprachen
spread
sprecher
spretsch
spring
springer
springfield
sprint
spruva
spunda
spundas
spungia
spungias
spuonda
spuren
spus
spusa
spussa
spussada
spusta
spustada
spustadas
spustads
spustament
spustaments
spustar
sputnik
spyri
squadra
squadras
squadriglia
squadriglias
squagls
squama
squamas
square
squedra
squitsch
squitschar
sr
srebrenica
srf
srg
sri
srpska
srr
srt
ss
sse
ssel
sseldorf
ssen
sser
ssische
ssli
ssr
ssy
st
sta
staat
staaten
staatenbund
staates
staatliche
staats
staatsgewalt
staatslehre
staatsoper
staatsrecht
stab
stabel
stabels
stabiae
stabiana
stabil
stabila
stabilas
stabilescha
stabili
stabilida
stabilidas
stabilids
stabiliment
stabiliments
stabilir
stabilisa
stabilisada
stabilisadas
stabilisar
stabilisaziun
stabilitad
stabils
stabla
stabs
stad
stada
stadas
stadelheim
stadi
stadion
stadions
stadis
stadium
stadler
stads
stadt
stadtfu
stadtmuseum
staffa
staffetta
stage
stagiun
stagiunal
stagiunala
stagiuns
stagna
stagnada
stagnaziun
stahlhelm
stai
staila
stailalva
stailas
staili
stair
stalin
stalingrad
stalinissem
stalla
stallun
stalluns
stamins
stampa
stampada
stampadas
stampads
stampar
stamparia
stampat
stampats
stan
stancladad
stand
standard
standards
stanford
stanisław
stanley
stans
stanza
stanzas
star
stara
stark
starker
starr
stars
start
stat
statal
statala
statalas
statalisaziun
statalitad
statals
statalter
statalters
state
staten
states
static
statica
station
stationen
statistic
statistica
statistical
statisticamain
statisticas
statistics
statistik
statistique
statistisches
stato
stattan
statua
statuas
statuescha
statuettas
statui
statura
status
statut
statuts
stau
staufer
staufers
stauffenberg
staunchels
staus
stausch
stauscha
stauschan
stavel
staziun
staziuna
staziunada
staziunadas
staziunads
staziunament
staziunar
staziuns
ste
sted
steda
stedi
stediamain
stedis
stefan
stefano
stefanoni
steffan
steffen
stehmann
steiermark
steiger
steilas
stein
steinbach
steinberg
steiner
steinway
steinzeit
steivan
stella
stempra
stemprads
sten
stenda
stender
stendi
stendida
stendidas
stenta
stentada
stentadas
stentads
stentan
stentar
stentas
stentava
stentavan
stentus
stentusa
stephan
stephen
stephenson
steppa
steppas
ster
sterben
stern
sternim
sterreich
sterreichische
sterreichischen
sterreichs
stettia
stettin
steva
stevan
steve
steven
stevens
stevenson
stewart
stgaffa
stgaffescha
stgaffeschan
stgaffi
stgaffida
stgaffidas
stgaffids
stgaffind
stgaffir
stgaffiziun
stgaglias
stgala
stgalas
stgalim
stgalims
stgamiada
stgamiads
stgamiar
stgandel
stgandler
stgargiada
stgarpads
stgarpar
stgarpitsch
stgars
stgarsa
stgarsas
stgarsezza
stgatscha
stgatschada
stgatschadas
stgatschads
stgatschan
stgatschar
stgauda
stgaudada
stgaudads
stgaudament
stgaudan
stgaudar
stgazi
stgazis
stgilats
stgir
stgira
stgiradetgna
stgiras
stgirenta
stgirentada
stgirezza
stgirs
stgisa
stgomi
sthetik
stica
stich
stiegemann
stierva
stietencron
stificaziun
stiftung
stigma
stigmas
stigmatisa
stil
stilet
stilettada
stilisa
stilistic
stilistica
stilisticamain
stilisticas
stilistics
still
stille
stils
stim
stima
stimada
stimads
stiman
stimar
stimaziun
stimaziuns
stimm
stimul
stimula
stimular
stimulaziun
stimulaziuns
stimuls
stina
stinada
stinadamain
stinglwagner
stippa
stippas
stipula
stiria
stirner
stirpa
stirpas
stiva
stivals
stiz
stizza
stizzar
stlichen
sto
stocker
stockholm
stoichers
stolleis
ston
stone
stonehenge
stop
stoppi
stoppia
stoppian
storia
stories
storm
storscher
stort
storta
stortas
storting
story
stoss
stra
strabon
strada
stradal
stradun
straduns
strair
strait
strand
strasbourg
strassburg
strasse
strasser
strategia
strategias
strategic
strategica
strategicas
strategics
strategie
strategy
stratocaster
stratosfera
straubing
strauss
street
streicher
streichquartett
streit
stremblir
stresa
stresas
stress
stretg
stretga
stretgamain
stretgas
stretgs
stria
strias
stricta
strictamain
striegn
strindberg
string
stritga
stritgadas
stritgar
striuns
strivla
strivlas
strofa
strofas
strom
structura
structurada
structuradas
structurads
structural
structurala
structuralas
structuralissem
structuralmain
structurals
structurar
structuras
structuraziun
structure
struggle
struktur
strukturen
strusch
struve
stu
stuain
stuair
stuart
stubbe
stuck
studegia
studegiar
studegiau
studegiava
student
studentica
students
studi
studia
studie
studien
studies
studio
studios
studis
studium
study
stuess
stuessan
stueva
stuevan
stui
stuiu
stupan
sturluson
sturm
sturnadad
sturschida
sturschids
stuscha
stuschada
stuschadas
stuschads
stuschar
stussavgia
stuttgart
styx
su
suaditsch
suanda
suandada
suandadas
suandads
suandant
suandanta
suandantamain
suandantas
suandants
suandar
suandava
suandavan
suandond
suatientscha
subalpin
subconscient
subcontinent
subdit
subditas
subdits
subducida
subducziun
subi
subject
subjectiv
subjectiva
subjectivs
subjects
sublim
submarine
submissiun
subordina
subordinada
subordinadas
subordinads
subordinaziun
subsidiaritad
subsistenza
subsp
substantiv
substanza
substanzas
substanziala
substitui
substituida
substituir
substitut
substituts
substituziun
substituziuns
substrat
subsumma
subsummadas
subsummads
subsummar
subtila
subtropas
subtropic
subtropica
subvenziuns
suc
succeda
succedan
succeder
succedi
succedia
succedida
succedidas
succedids
succediva
success
successiun
successiv
successiva
successivamain
successur
successura
successuras
successurs
succumber
succurs
suche
sud
sudan
sudetas
sudos
suen
suenter
suenterguerra
suentermezdi
suez
suffix
suffixs
suffizient
suffizienta
suffizientamain
suffizientas
suffrientscha
suffrir
sufissem
sufla
suflar
suga
sugas
sugerescha
suhrkamp
sui
suicidads
suicidi
suisse
suita
sul
sulada
sulegl
suleglivas
sulet
sulets
suletta
sulettamain
sulettas
sulfuric
sulla
sullevaziun
sullevaziuns
sullivan
sulom
sultan
sultanat
sumbriva
sumbrivas
sumbrivaunas
sumeglia
sumeglian
sumegliant
sumeglianta
sumegliantamain
sumegliantas
sumegliants
sumeglias
sumegliavan
sumeglientscha
sumeglientschas
sumfil
summa
summas
summer
summers
summit
sumvitg
sun
suna
sunada
sunads
sunan
sunar
sunaric
sunava
sunavan
sunday
sunder
sung
sunnits
sunquist
suns
suomen
suomenlinna
suonda
suondan
suot
super
supera
superar
superbia
supercontinent
superfiziala
superior
superiur
superiura
superiuradad
superiuras
superiuritad
superiurs
superpussanzas
superstiziun
supersunt
supplement
supplementar
supplementara
supplementaras
supplementarmain
supplementars
supplitga
suppon
suppona
supponan
supponer
supponi
supponida
supponidas
supponids
supponiva
supporta
supportan
supportar
supposiziun
supposiziuns
suppressiun
supprima
supprimer
supprimi
supprimida
supprimids
supranaziunalas
suprastanza
suprem
suprema
supremazia
sur
sura
suramaun
suraua
surava
surbajegia
surbajegiada
surcasti
surchargia
surcuolm
surda
surdada
surdadad
surdadas
surdads
surdar
surdat
surdumanda
suren
surengiu
surexplotaziun
surface
surfar
surfatscha
surfatschas
surinam
surlascha
surlaschar
surlav
surlavura
surlavurada
surm
surmanar
surmar
surmeir
surmenziunadas
surmenziunads
surmiran
surmirana
surmirans
surmunta
surmuntada
surmuntan
surmuntar
surnatiral
surnatiralas
surnatirals
surnom
surnum
surordina
surordinada
surpassa
surpassada
surpassaments
surpassan
surpassar
surpassava
surpassavan
surpassia
surpiglia
surpigliada
surpigliadas
surpigliads
surpiglian
surpigliar
surpigliava
surpli
surpopulaziun
surprais
surpraisa
surprendent
surprendenta
surprendentamain
surprender
surprendi
surproducziun
surproporziunala
surproporziunalmain
surpussanza
surregiunal
surregiunala
surregiunalas
surrein
sursaissa
surselva
surses
sursiglir
sursilvan
sursilvana
sursilvania
sursilvans
sursta
surstar
surstructura
surtratg
surtratga
surtratgas
surtratgs
surtut
suruman
sururden
survart
surveglia
survegliadas
survegliads
surveglianza
survegliar
survegliava
survegn
survegnan
survegni
survegnia
survegnir
survegniu
survegniva
survegnivan
surventscher
surventschi
survesair
survesi
survetsch
survey
survista
survistas
survivan
survivent
survivents
survivenza
surviver
survivi
sus
susa
susan
susanne
susch
suspect
suspecta
suspectadas
suspectads
suspectus
suspendi
suspensiun
suspensiv
sussex
sustegn
sustegna
sustegnair
sustegnan
sustegneva
sustegnevan
sustegni
sustegnia
sustegnida
sustegnidas
sustegnids
sustegns
sut
sutclassa
sutcliffe
sutdisciplinas
sutdivida
sutdivider
sutdividi
sutdividida
sutdivididas
sutdividids
sutdivisiun
sutdivisiuns
suten
sutensi
suter
sutermeister
sutfamiglia
sutga
sutgas
sutgruppa
sutgruppas
sutmarin
sutmarins
sutminar
sutmissiun
sutrepublica
sutrepublicas
sutselva
sutsilvan
sutsilvania
sutspezia
sutspezias
sutsviluppa
sutsviluppada
sutsviluppads
suttamess
suttamessa
suttamessas
suttametta
suttametter
suttascripziun
suttascripziuns
suttascrit
suttascritta
suttascriver
suttastattan
suttasteva
suttastevan
suttastritga
suttastritgar
sutter
sutterran
sutterrana
sutterranas
sutterrans
suttetg
suttitel
sutuffiziers
sutvart
suvenz
suveran
suverana
suveranas
suveranitad
suverans
suworow
svabais
svabaisa
svalbard
svalita
svalitaziun
svanescha
svaneschan
svani
svanida
svanidas
svanids
svaniment
svanir
svapuraziun
svapurs
svatopluk
svedais
svedaisa
svedaisas
sveglia
svegliada
svegliar
svelt
svelta
sveltas
sveltezza
sveltezzas
svelts
sven
svess
svessa
svevia
svezia
svg
sviament
svida
svidar
svieuta
svilup
sviluppa
sviluppada
sviluppadas
sviluppads
sviluppan
sviluppar
sviluppava
sviluppescha
sviluppia
sviluppian
svilups
sviz
svizra
svizras
svizzer
svizzera
svizzero
svizzers
swami
swan
swasiland
swift
swiss
swisscom
swissinfo
switzerland
sy
sydney
sylvia
symphony
symphyla
symposium
syncerus
system
systeme
systems
sz
szczecin
sze
szeged
szila
szlo
szo
søren
t
ta
tabalori
tabella
tabellara
tabellas
tabus
taciti
tacitus
tacla
tact
tactica
tacticas
tactics
tactila
tacts
tadeusz
tadlar
tadschikistan
tag
tagblatt
tage
tagebu
tagebuch
tagen
tages
tagesschau
tagl
taglia
tagliada
tagliadas
tagliads
taglian
tagliar
taglias
tagls
tai
taiga
taila
tailanda
tailas
taimp
tain
tais
taisch
taischs
taiwan
take
tal
tala
talas
talbot
tale
talent
talenta
talents
tales
talian
taliana
talianas
talians
taliaun
taliauna
taliban
talleyrand
tallinn
talmain
talmud
talpa
talpas
tals
tamangur
tamaro
tamils
tan
tanach
tancar
tandem
tanga
tangheschan
tango
tannins
tansania
tanscha
tanschan
tanscher
tanscheva
tanschevan
tanschi
tant
tantas
tanter
tantiemas
tantra
tantras
tantricas
tants
taoissem
tar
tarasp
taraxaci
taraxacum
taraxasterol
tard
tardiv
tardiva
tardivas
tardivs
targnol
tariffa
tariffas
tarnovo
tarpuns
tarragona
tarscholas
tartarugas
tartu
tartuffels
taschair
taschenbuch
taschenbuchverlag
taschenlexikon
taschenta
taschi
task
tasmania
tasna
tassilo
tasta
tastas
tastatura
tat
tatars
tate
tatgada
tatgadas
tatona
tatra
tats
tatta
tauber
tauern
tauna
taunas
taunt
taur
taurs
taurus
taus
tavau
tavauns
taverne
tavla
tavlas
tavo
taxa
taxas
taxis
taxon
taxonomia
taxus
taylor
taz
tb
tcp
te
tea
team
teams
teater
teaters
teatralas
teatro
teau
teba
teborg
tec
technik
technology
tecnic
tecnica
tecnicamain
tecnicas
tecnics
tecnologia
tecnologias
tecnologic
tecnologicamain
tecnologicas
tecnologics
tectonica
tectonicas
tectum
teetz
tegia
tegn
tegna
tegnair
tegnairchasa
tegnairchasas
tegnan
tegnend
tegneva
tegnevan
tegni
tegnia
tegnian
tegnida
tegnidas
tegnids
teheran
tei
teias
teichberg
teidla
teil
tel
telecommunicaziun
telefericas
telefon
telefonia
telefonins
telefons
telegraf
telegrafia
telegrafica
telegram
telegraph
telegraphie
telekom
telesguard
television
televisiun
televisiva
tell
tello
telnet
telpi
telpis
tema
temair
teman
temas
tematic
tematica
tematicas
tematics
tematisa
tematisads
tematisar
tematisescha
tematiseschan
temerari
temeva
temevan
temi
temida
temids
temma
temp
tempel
tempels
temperament
temperatura
temperaturas
temperature
temple
tempo
temporal
temporala
temporar
temporara
temporarmain
tempra
temprada
tempradas
tempriv
tempriva
temprivas
temprivs
temps
temsa
ten
tenda
tendas
tendenza
tendenzas
tendenzialmain
tendenzius
tendescha
tendeschan
tendida
teneriffa
tennessee
tennis
tenor
tensiun
tensiuns
tentativa
tentativas
tenuta
tenutas
tenzin
teodor
teolog
teologia
teologic
teologica
teologicas
teologics
teologs
teorem
teoretic
teoretica
teoreticamain
teoreticas
teoreticher
teoretichers
teoretics
teoria
teorias
tepco
ter
terapia
teresa
term
terma
termagls
termal
termalas
termals
termas
terme
termic
termica
termin
termina
terminada
terminadas
terminads
terminar
terminaziun
terminescha
termineschan
termini
terminologia
termins
termodinamica
termosolara
terms
terpentin
terra
terracotga
terrada
terradas
terranova
terras
terrassa
terrassas
terratrembel
terratrembels
terratsch
terre
terren
terrens
terrester
terresters
terrestra
terrestras
terribel
terribels
terribla
terriblas
territori
territorial
territoriala
territorialas
territorialmain
territorials
territoris
territory
terror
terrorissem
terroristica
terroristicas
terrorists
terrors
terrur
terry
tersloh
tersnaus
terz
terza
terzas
terziar
terzs
tes
tesa
tesas
tessi
tessids
tessin
tessinais
tessines
tessunzs
test
testa
testamaint
testament
testiculs
testimonis
tests
tet
tetel
tetg
tetgala
tetgs
tethys
tettar
tettels
teubner
teufel
teuteberg
teutonic
texas
text
texte
texten
textes
textilias
texts
tezzads
tezzar
tg
tgau
tgaun
tge
tgei
tgeiel
tgenina
tgeninas
tgesa
tgi
tgietschen
tgira
tgirada
tgiradas
tgirads
tgirallas
tgiran
tgirar
tgirava
tgirom
tgs
tgunsch
tgunschamain
tgv
th
thales
thamer
thames
than
that
thatcher
thayer
the
theater
theatre
thede
their
theiss
thema
themas
themen
then
theo
theobald
theoderich
theodor
theodore
theodosius
theologie
theologische
theorie
theorien
theory
theravada
there
therese
theresia
theresienstadt
thesen
thessaloniki
they
thi
thieme
thieu
things
third
this
tho
thomas
thomasius
thompson
thomson
thor
thorbecke
thorsten
thought
thoughts
threatened
three
through
thu
thubten
thukydides
thumb
thumbnail
thun
thunder
thurn
thy
ti
tia
tiara
tiaras
tiarza
tiba
tiber
tiberius
tibet
tibetan
tibetana
tibetanas
tibetans
tibetischen
tibets
tiburtina
tica
ticino
ticonderoga
tieck
tiel
tien
tienne
tier
tiere
tiergarten
tiers
tieu
tieus
tievlas
tifus
tigher
tigl
tigls
tigray
tigullio
til
tilia
till
tilly
tilman
tim
time
timeline
timeout
timeperiod
times
timis
timor
timothy
timun
tin
tina
tinizong
tip
tipic
tipica
tipicamain
tipicas
tipics
tipograf
tipologia
tips
tique
tir
tira
tiradurs
tiran
tirana
tirannia
tirano
tiraspol
tiraun
tirc
tirca
tircas
tirchia
tircs
tirol
tirolais
tirs
tische
tissi
tissientada
tissis
tisza
titano
titel
titels
tito
titoissem
titul
titula
titulada
titular
titulars
titulatura
titus
tiu
tizun
tland
tler
tli
tmittelalter
to
tobago
tobias
toc
tocca
tochen
tocqueville
tocs
tod
today
tode
together
toggenburg
togo
tokio
tokrzyskie
tokyo
toledo
tolera
tolerant
toleranta
toleranza
tolerar
tom
tomas
tomatas
tome
tommy
toms
ton
tonala
tonalitad
tonalitads
tonga
toni
tonkin
tonnas
tony
top
topografia
topografica
topograficas
toponim
toponimia
toponims
topos
toppa
toppas
tor
tora
tordesillas
tories
toromanisch
toromanische
toromanischen
toronto
torre
torres
tort
torta
tortura
torturads
toscan
toscana
toscs
total
totala
totalitad
totalitar
totalitara
totalitaras
totalitarissem
totalitars
totalmain
toten
toulouse
tour
tourism
tourismus
tours
tout
tower
towers
town
townshend
townships
toxic
[...]
