!
"
#
##0
##1
##10
##11
##12
##13
##14
##15
##16
##17
##18
##19
##2
##20
##21
##22
##23
##24
##25
##26
##27
##28
##29
##3
##30
##31
##32
##33
##34
##35
##36
##37
##38
##39
##4
##40
##41
##42
##43
##44
##45
##46
##47
##48
##49
##5
##50
##51
##52
##53
##54
##55
##56
##57
##58
##59
##6
##60
##61
##62
##63
##64
##65
##66
##67
##68
##69
##7
##70
##71
##72
##73
##74
##75
##76
##77
##78
##79
##8
##80
##81
##82
##83
##84
##85
##86
##87
##88
##89
##9
##90
##91
##92
##93
##94
##95
##96
##97
##98
##99
$
%
&
'
(
)
*
+
,
-
.
/
0
00
000
001
002
004
005
01
010
02
03
04
05
06
07
08
09
1
10
100
1000
10000
100000
1001
1002
1007
101
1016
102
1024
103
1038
104
105
106
107
1072
108
1080
1086
109
11
110
1100
111
112
113
114
115
116
1160
117
118
119
12
120
1200
120000
1204
121
122
1220
1225
123
124
1240
125
1250
126
1260
127
128
129
1299
13
130
1300
131
1314
132
133
134
135
1350
136
1368
137
138
1380
1382
1386
1387
1389
139
14
140
1400
1402
1403
1405
141
1410
1415
142
1420
143
1435
144
145
1450
1451
1452
1453
146
1460
1461
1468
1469
147
1470
1478
148
1480
1483
1485
149
1490
1492
1494
1499
15
150
1500
1501
1502
1503
1504
1505
1506
1507
1508
1509
151
1510
1511
1512
1513
1514
1515
1516
1517
1519
152
1520
1521
1522
1524
1526
1527
1529
153
1530
1533
1534
1535
1536
1537
1538
1539
154
1540
1541
1543
1544
1546
1547
1548
1549
155
1550
1551
1552
1553
1554
1555
1556
1557
1558
1559
156
1560
1561
1562
1565
1566
1569
157
1570
1571
1572
1574
1576
1577
1578
158
1580
1581
1582
1583
1585
1586
1587
1588
1589
159
1590
1592
1593
1594
1595
1596
1598
1599
16
160
1600
1601
1602
1603
1604
1605
1606
1607
1609
161
1610
1611
1612
1613
1614
1615
1616
1617
1618
1619
162
1620
1621
1622
1623
1624
1625
1627
1628
1629
163
1630
1632
1633
1635
1636
1638
1639
164
1640
1642
1643
1644
1645
1647
1648
1649
165
1650
1651
1652
1653
1654
1656
1658
166
1660
1661
1664
1665
1666
1667
1668
1669
167
1670
1672
1675
168
1680
1683
1685
1687
1688
1689
169
1690
1694
1697
1699
17
170
1700
1701
1702
1703
1704
1706
1707
1708
1709
171
1710
1711
1712
1713
1714
1715
1716
1717
1718
172
1720
1721
1722
1723
1724
1725
1726
1727
1728
1729
173
1730
1731
1732
1733
1734
1735
1736
1737
1738
1739
174
1740
1741
1742
1743
1745
1746
1747
1748
1749
175
1750
1751
1752
1754
1755
1756
1757
1758
1759
176
1760
1761
1762
1763
1764
1765
1766
1767
1768
1769
177
1770
1771
1772
1773
1774
1775
1776
1777
1778
1779
178
1780
1781
1782
1783
1784
1785
1786
1787
1788
1789
179
1790
1791
1792
1793
1794
1795
1796
1797
1798
1799
18
180
1800
1801
1802
1803
1804
1805
1806
1807
1808
1809
181
1810
1811
1812
1813
1814
1815
1816
1817
1818
1819
182
1820
1821
1822
1823
1824
1825
1826
1827
1828
1829
183
1830
1831
1832
1833
1834
1835
1836
1837
1838
1839
184
1840
1841
1842
1843
1844
1845
1846
1847
1848
1849
185
1850
1851
1852
1853
1854
1855
1856
1857
1858
1859
186
1860
1861
1862
1863
1864
1865
1866
1867
1868
1869
187
1870
1871
1872
1873
1874
1875
1876
1877
1878
1879
188
1880
1881
1882
1883
1884
1885
1886
1887
1888
1889
189
1890
1891
1892
1893
1894
1895
1896
1897
1898
1899
19
190
1900
1901
1902
1903
1904
1905
1906
1907
1908
1909
191
1910
1911
1912
1913
1914
1915
1916
1917
1918
1919
192
1920
1921
1922
1923
1924
1925
1926
1927
1928
1929
193
1930
1931
1932
1933
1934
1935
1936
1937
1938
1939
194
1940
1941
1942
1943
1944
1945
1946
1947
1948
1949
195
1950
1951
1952
1953
1954
1955
1956
1957
1958
1959
196
1960
1961
1962
1963
1964
1965
1966
1967
1968
1969
197
1970
1971
1972
1973
1974
1975
1976
1977
1978
1979
198
1980
1981
1982
1983
1984
1985
1986
1987
1988
1989
199
1990
1991
1992
1993
1994
1995
1996
1997
1998
1999
2
20
200
2000
20000
2001
2002
2003
2004
2005
2006
2007
2008
2009
201
2010
2011
2012
2013
2014
2015
2016
2017
2018
2019
202
2020
2021
2022
2023
203
2030
204
205
206
207
208
209
21
210
2100
211
212
213
214
215
216
217
218
219
22
220
2200
221
222
223
224
225
226
227
228
229
23
230
2300
231
232
233
234
235
236
237
238
239
24
240
2400
241
242
243
244
245
246
247
248
249
25
250
2500
250000
251
252
253
254
255
256
257
258
259
26
260
2600
261
262
263
264
265
266
267
268
269
27
270
2700
271
272
273
274
275
276
277
278
279
28
280
2800
281
282
283
284
285
286
287
288
289
29
290
291
292
293
294
295
296
297
298
299
3
30
300
3000
301
302
303
304
305
306
307
308
309
31
310
311
312
313
314
315
316
317
318
319
32
320
3200
321
322
323
324
325
326
327
328
329
33
330
331
332
333
334
335
336
337
338
339
34
340
341
342
343
344
345
346
347
348
349
35
350
3500
351
352
353
354
355
356
357
358
359
36
360
361
362
363
364
365
366
367
368
369
37
370
371
372
373
374
375
376
377
378
379
38
380
381
382
383
384
385
386
387
388
389
39
390
391
392
393
394
395
396
397
398
399
4
40
400
4000
401
402
403
404
405
406
407
408
409
41
410
411
412
413
414
415
416
417
418
419
42
420
421
422
423
424
425
426
427
428
429
43
430
431
432
433
434
435
436
437
438
439
44
440
441
442
443
444
445
446
447
448
449
45
450
4500
451
452
453
454
455
456
457
458
459
46
460
461
462
463
464
465
466
467
468
469
47
470
471
472
473
474
475
476
478
479
48
480
481
482
483
484
485
486
487
488
489
49
490
491
492
493
494
495
496
497
498
499
5
50
500
5000
501
502
503
504
505
506
507
508
509
51
510
511
512
513
514
515
516
517
518
519
52
520
521
522
524
525
526
527
528
529
53
530
531
532
533
535
536
538
539
54
540
541
542
543
544
546
548
55
550
551
552
553
555
559
56
560
565
567
568
57
570
571
575
576
58
580
581
582
585
587
588
589
59
590
591
592
6
60
600
6000
601
602
605
607
608
61
610
611
612
613
615
616
618
62
620
622
623
624
625
628
629
63
630
631
632
633
634
635
636
637
639
64
640
642
643
644
645
648
65
650
651
656
66
660
661
664
666
67
670
672
674
679
68
680
681
69
696
699
7
70
700
7000
701
704
705
708
71
710
714
72
720
727
73
730
737
74
740
744
747
75
750
76
760
767
77
775
777
78
780
79
8
80
800
8000
802
8066
808
809
81
810
813
814
815
816
82
820
822
829
83
833
84
840
85
850
86
87
870
88
880
884
89
9
90
900
907
91
911
92
92032
93
930
94
95
950
954
96
960
966
97
970
975
978
98
99
9952
996
999
:
;
<
=
>
?
@
\
^
_
`
a
aa
aak
aaron
aat
aatc
ab
aba
ababa
abad
abadlas
abadlıq
abala
abalıd
abalıdı
aban
abaqa
abaran
abas
abasov
abay
abbas
abbasa
abbasi
abbasilər
abbaslı
abbasov
abbasova
abbasovun
abbasqulu
abbaszadə
abbası
abbasın
abbasəli
abbatlıg
abc
abd
abdal
abdu
abdul
abdulla
abdullah
abdullayev
abdullayeva
abdullayevin
abel
abi
abid
abidə
abidədir
abidədə
abidələr
abidələrdən
abidələri
abidələrin
abidələrində
abidələrindən
abidələrini
abidələrinin
abidəni
abidənin
abidəsi
abidəsidir
abidəsinin
ablon
ablonlar
ablonları
ablonu
ablonun
ablonunun
aborigen
about
abraham
abran
abs
abstract
abstrakt
absurd
abu
abunə
abunəc
abuzər
abxaz
abxaziya
abxaziyada
abxaziyanın
abıs
abə
ac
aca
academic
academy
acag
acaq
access
accessed
according
account
acda
acdan
acdır
acer
acgo
acid
aciz
aclar
aclara
aclardan
acları
acların
aclarının
aclıg
aclıq
aclıqdan
act
action
acı
acıg
acın
acınacaqlı
acından
acınohur
acının
ad
ada
adada
adadan
adadır
adakı
adalar
adalara
adalarda
adalardan
adaları
adaların
adalarına
adalarında
adalarından
adalarını
adalarının
adam
adama
adambas
adamdan
adamdır
adamla
adamlar
adamlara
adamlardan
adamlarla
adamları
adamların
adamlarına
adamlarından
adamlarını
adamlarının
adams
adamı
adamın
adamının
adan
adana
adanı
adanın
adaptasiya
adaptasiyası
adaptiv
adası
adasıdır
adasına
adasında
adasındakı
adasından
adasını
adasının
adaya
add
adda
addım
addımlar
addımları
addımı
addır
adekvat
adelina
adi
adil
adilog
adilə
adla
adladı
adlanan
adlandıran
adlandıraraq
adlandırdı
adlandırdıg
adlandırdılar
adlandırdıqları
adlandırmag
adlandırmaq
adlandırmıs
adlandırıb
adlandırılan
adlandırıldı
adlandırılmag
adlandırılması
adlandırılmıs
adlandırılıb
adlandırılır
adlandırılırdı
adlandırır
adlandırırdı
adlandırırdılar
adlandırırlar
adlanmag
adlanmıs
adlanıb
adlanır
adlanırdı
adlar
adlara
adlarla
adları
adların
adlarına
adlarında
adlarından
adlarını
adlarının
adler
adlı
adlıq
administrasiyası
administrasiyasının
administration
admiral
admiralı
adnan
adolf
adpu
adr
adrian
adriatik
adsız
adu
advanced
adı
adıdır
adıg
adıgey
adıgo
adım
adın
adına
adında
adındakı
adından
adındandır
adını
adının
adıqdan
adıqları
adır
adıyla
adək
adəm
adəmin
adət
adəti
adətli
adətlər
adətləri
adətən
ae
aegee
aerobatika
aerokosmik
aeroport
aes
af
afa
afaq
afda
affa
affairs
afghanistan
afi
afina
afinada
afinanın
afinaya
afis
afr
africa
african
afrika
afrikada
afrikadakı
afrikadan
afrikalı
afrikanın
afrikaya
afrodita
afs
aft
aftalı
after
aftları
aftı
afı
afın
afına
afında
afındakı
afını
afının
afərin
afət
ag
agah
again
against
age
agency
agent
agenti
agentlik
agentlikləri
agentliyi
agentliyin
agentliyinin
agentləri
ageratina
agird
agirdi
agirdlər
agirdləri
agirdlərin
agirdlərindən
agirdlərinin
agirdlərə
agəlməz
ah
aha
ahargah
ahbaz
ahbazov
ahbulaq
ahbuz
ahdag
ahdan
ahi
ahid
ahidi
ahidlik
ahidləri
ahidlərin
ahidə
ahidəc
ahidələr
ahidələri
ahidəsi
ahin
ahindej
ahla
ahlar
ahları
ahların
ahlarının
ahlıg
ahlıq
ahmar
ahmat
ahmatc
ahmed
ahmet
ahnamə
ahnaz
ahqulu
ahrux
ahruxun
ahsevən
ahsuvarov
ahtaxtinski
ahtaxtı
ahu
ahverdi
ahverdiyev
ahzadə
ahzadələr
ahzadələri
ahzadələrin
ahzadəni
ahzadənin
ahzadəsi
ahzadəyə
ahı
ahım
ahın
ahına
ahının
ahəng
ahəngdar
ahəns
ai
aid
aida
aiddir
aiddirlər
aidiyyəti
aidə
ailə
ailədə
ailədən
ailəli
ailəlidir
ailələr
ailələri
ailələrin
ailələrindən
ailələrinin
ailələrinə
ailələrə
ailəni
ailənin
ailəsi
ailəsində
ailəsindən
ailəsini
ailəsinin
ailəsinə
ailəvi
ailəyə
ain
aiq
air
airbus
airi
airin
airlines
airlər
airləri
airlərin
airlərindən
airlərinin
airport
airə
airəsi
ais
aiyət
ak
aka
akad
akademik
akademiki
akademiya
akademiyada
akademiyanı
akademiyanın
akademiyası
akademiyasına
akademiyasında
akademiyasını
akademiyasının
akademiyaya
akc
aki
akif
akir
akira
akis
akkad
akov
akp
akr
aks
aksiya
aksiyaları
aksiyası
aksu
akt
aktiv
aktivist
aktivlik
aktivliyi
aktivləs
aktlar
aktları
aktlarının
aktrisa
aktrisaları
aktrisanın
aktrisası
aktual
aktuallıg
aktyor
aktyorlar
aktyorları
aktyorların
aktyorlug
aktyorluq
aktyoru
aktyorudur
aktyorun
aktı
aktına
aktında
aktının
akustik
akvamen
akvarium
akın
al
ala
alabama
alac
alacag
alacaq
alag
alago
alam
alan
alana
alanan
alanda
alandan
alandı
alanlar
alanların
alanma
alanmanın
alanması
alanmasına
alanmasının
alanmıs
alanır
alaq
alar
alara
alaraq
alarda
alardan
alarkən
alarla
alarları
alarlı
alarov
aları
aların
alarına
alarında
alarından
alarını
alarının
alas
alaska
alatoran
alay
alayları
alayı
alayın
alayına
alayında
alayının
alazan
alba
albalı
alban
albania
albaniya
albaniyada
albaniyanın
albaniyası
albaniyasında
albaniyasının
albaniyaya
albanlar
albanların
albert
alberta
alberto
albom
alboma
albomda
albomdakı
albomdan
albomlar
albomları
albomlarını
albomu
albomudur
albomun
albomuna
albomunda
albomundan
albomunu
albomunun
album
alc
aldan
aldı
aldıcı
aldıg
aldılar
aldım
aldıqda
aldıqdan
aldıqları
aldıran
aleks
aleksandr
aleksandra
aleksandropol
aleksandrov
aleksandrovic
aleksandrın
aleksey
alekseyevic
alen
alessandro
aleut
alexander
alfa
alfonso
alfred
alg
ali
alice
alicə
alicəsi
alicəsində
alicəvi
alicəyə
aliev
align
alignbars
alih
alim
alimdir
alimi
alimin
alimlik
alimlər
alimlərdən
alimləri
alimlərin
alimlərindən
alimlərinin
alimlərə
alina
alis
alisa
alita
aliyev
aliyeva
aliyə
alkoqol
all
alla
allah
allaha
allahdan
allahdır
allahla
allahverdi
allahverdiyev
allahverdiyeva
allahyar
allahı
allahım
allahın
allahınız
allan
allar
alları
allegro
allen
alleqorik
allergik
alliance
allu
alm
alma
almadan
almadı
almag
almalı
almamıs
alman
almanca
almaniya
almaniyada
almaniyadakı
almaniyadan
almaniyalı
almaniyanı
almaniyanın
almaniyası
almaniyasının
almaniyaya
almanlar
almanlara
almanları
almanların
almanı
almanın
almaq
almaqda
almaqdan
almaqla
almas
alması
almasına
almasını
almatı
almaya
almayan
almaz
almır
almıs
alone
alonso
alov
alovlu
alovu
alovun
alp
alpha
alpinist
alpinistlər
alplar
alpları
alqoritmi
alqı
alqıs
als
alsa
alsaq
also
alsın
alt
altar
altarın
altay
altdan
alternativ
altmaq
altmıs
alto
altron
altun
altı
altın
altına
altıncı
altında
altındadır
altındakı
altından
alu
alvar
alverc
alveri
alyaska
alyaskanın
alye
alyona
alı
alıb
alıblar
alıcı
alıda
alıg
alılar
alım
alın
alına
alınan
alınaraq
alından
alındı
alındıg
alındıqdan
alınma
alınmadı
alınmalıdır
alınmamıs
alınmaqla
alınması
alınmasına
alınmasında
alınmasını
alınmasının
alınmaya
alınmır
alınmıs
alını
alınıb
alının
alınır
alınırdı
alıq
alır
alırdı
alırdılar
alırlar
alıs
alıyev
aləm
aləmdə
aləmi
aləmin
aləmində
aləmini
aləminin
aləminə
aləmə
alət
aləti
alətin
alətinin
alətlər
alətlərdən
alətləri
alətlərin
alətlərindən
alətlərinin
am
ama
amadey
amag
amaliya
amalı
aman
amanda
amanlıg
amanlıq
amansız
amansızcasına
amaq
amaqda
amaqdadır
amasiya
amasya
aması
amasına
amaxı
amaxıda
amaxıdan
amaxını
amaxının
amaxıya
amazing
amazon
amblyseius
amc
amdan
ame
amea
america
american
amerika
amerikada
amerikadakı
amerikadan
amerikalı
amerikalılar
amerikalıların
amerikan
amerikanın
amerikası
amerikaya
ami
amid
amil
amili
amilin
amillər
amillərdən
amilləri
amillərin
amin
aminturs
amir
amlar
amları
amlı
amma
ammonium
ammonyak
amo
among
ampan
amsterdam
amu
amundsen
amur
amxal
amxor
amı
amın
amının
amır
amıs
aməhəmməd
an
ana
anadan
anadangəlmə
anadolu
anadoluda
anadoludakı
anadoludan
anadolunun
anadoluya
anag
anal
analar
anaları
anaların
analitik
analiz
analizi
analoji
analoq
analoqu
analysis
anam
anamın
anan
ananın
anaq
anaqlı
anaqqala
anar
anarxist
anastasiya
anası
anasıdır
anasına
anasından
anasını
anasının
anatoli
anatomik
anatomiya
anatomiyası
anatomy
anbar
anbarları
anbarı
anbarında
anbarının
anc
ancaq
anceles
ancelesdə
anchor
ancient
and
anda
andaman
andan
andante
andarlı
anders
anderson
andezit
andic
andorra
andre
andrea
andreas
andrew
andrey
android
andromeda
andı
andır
anesteziya
angel
angela
angeles
ani
animal
animasiya
animation
anime
animedə
animenin
ankara
ankarada
ankaraya
anl
anla
anladı
anlama
anlamag
anlamaq
anlamı
anlamına
anlamında
anlamını
anlar
anlara
anlarda
anlardan
anları
anların
anlarının
anlas
anlaya
anlayan
anlayır
anlayıs
anlı
anlıg
anlıq
anlısı
anma
anmıs
ann
anna
annanın
anne
anniversary
annual
anonim
anons
anormal
another
anq
anqlikan
anqola
anri
ans
ansambl
ansamblı
ansamblın
ansamblının
ansiklopedisi
ansı
ant
antalya
antanta
antarctic
antarctica
antarktida
antarktidanın
antarktik
antarktika
anthony
anti
antifas
antik
antiklinal
antisovet
antologiyası
anton
antoni
antonio
antonov
antropogen
antropologiya
antropoloji
antuan
anus
anxay
any
anı
anılır
anım
anın
anına
anında
anını
anının
anır
anə
ao
aog
aorta
ap
apa
apar
apara
aparacag
aparacaq
aparan
apararaq
apararkən
aparat
aparatları
aparatı
aparatında
aparatının
apardı
apardıg
apardılar
apardıqları
aparmag
aparmalı
aparmaq
aparmaqla
aparması
aparmıs
aparıb
aparıcı
aparıcıları
aparıcısı
aparıla
aparılan
aparıldı
aparıldıg
aparılmalıdır
aparılması
aparılmasına
aparılmasını
aparılmıs
aparılıb
aparılır
aparılırdı
aparır
aparırdı
aparırdılar
aparırlar
apdan
apelyasiya
api
apiro
aplin
aplı
apollo
apollon
apostol
apple
application
applications
applied
approach
aprel
apreldə
aprelin
aprelində
aprelindən
april
aptek
apur
apı
aq
aqda
aqdan
aqdır
aqgəncnəs
aqibəti
aqil
aqla
aqlar
aqlara
aqlarda
aqlardan
aqlarla
aqları
aqların
aqlarına
aqlarında
aqlarını
aqlarının
aqlı
aqlıg
aqlıq
aqlıqda
aqlıqdan
aqmalc
aqqal
aqrar
aqreqat
aqressiv
aqs
aquli
ar
ara
arab
araba
arabası
arada
aradan
aral
aralar
aralarda
araları
aralarında
aralarındakı
aralı
aralıda
aralıg
aralık
aralıq
aram
arami
aramsız
aramızda
aran
aranı
aranın
aranızda
araq
araqon
ararat
aras
araslı
arası
arasına
arasında
arasındadır
arasındaki
arasındakı
arasından
araya
arayıs
araz
arazboyu
arazın
arb
arbitraj
arc
archaeology
architecture
archive
archived
archives
arctic
ard
arda
arden
ardns
ardı
ardıc
ardıcıl
ardıcılları
ardıcıllıg
ardıcıllıq
ardıcıllıqla
ardınca
ardından
ardını
ardır
are
area
areal
arealı
arena
arenada
arenasında
arg
argentina
argentinada
argentinalı
argentinanın
ari
aric
arid
ariel
arif
aristokrat
aristotel
aristotelin
arizona
ark
arkadi
arktik
arktika
arkən
arl
arlar
arları
arların
arli
arlotta
arlz
arlıg
arlıq
armenia
armenian
arms
armud
armudu
army
armıxa
arnold
aromatik
aron
around
arov
aroymaq
arp
arpa
arpac
arpacaq
arpan
arpaz
arpazlas
arpır
arpıs
arqun
arran
ars
arsen
arsenal
arslan
arslanın
art
artan
artar
artaraq
artas
artdı
artdıg
artdıqca
artemisia
arterial
arteriyası
arthur
article
articles
artileriya
artilleriya
artist
artisti
artistləri
artmag
artmaqda
artması
artmasına
artmıs
arts
artur
artıb
artıg
artım
artımı
artıq
artıqdır
artır
artıran
artıraraq
artırdı
artırmag
artırmaq
artırmaqla
artırmıs
artırıldı
artırılması
artırılmasına
artırılmıs
artırır
arvad
arvadları
arvadı
arvadın
arvadına
arvadını
arvadının
arx
arxa
arxada
arxadan
arxaik
arxangel
arxangelsk
arxası
arxasına
arxasınca
arxasında
arxasındakı
arxasından
arxaya
arxayın
arxeologiya
arxeologiyası
arxeoloji
arxeoloq
arxeoloqlar
arxeoloqu
arxipelaq
arxipelaqı
arxipelaqın
arxipelaqına
arxipelaqının
arxitektura
arxitekturası
arxiv
arxivi
arxivində
arxivləndi
arxivləri
arxivləs
arxiyepiskop
arxiyepiskopu
arxı
arzu
arzular
arzuları
arzularını
arzusu
arzusuna
arzusunda
arzusunu
arı
arıc
arılar
arın
arını
arının
arıq
arə
arədir
arələr
arələri
arəsi
arəsiz
arət
as
asa
asan
asandır
asanlas
asanlıqla
asaray
asayis
asc
ase
asfalt
asi
asia
asian
asif
asim
asiman
asimmetrik
asir
asiri
asirlik
asirləri
asirləs
asiya
asiyada
asiyadakı
asiyadan
asiyanın
asiyaya
askın
aslan
aslanov
aslanova
aslanovun
aslanın
aslı
asma
asmaq
asp
aspektləri
aspirant
aspirantura
aspiranturada
aspiranturanı
aspiranturasına
aspiranturasında
aspiranturaya
aspirantı
aspx
assambleyası
assambleyasında
assambleyasının
assassin
assimilyasiya
assistent
assistenti
assistentləri
associated
association
assosiasiya
assosiasiyası
assosiasiyasının
assur
assuriya
asta
astagəl
astana
astanasında
astara
asteroid
astma
aston
astrofizika
astronom
astronomical
astronomik
astronomiya
astronomlar
astronomu
astronomy
asudə
asya
ası
asıdır
asılmıs
asılı
asılıdır
asılılıg
asılılıq
asın
asına
asında
asından
asını
asının
asır
asızlar
asəf
at
ata
atabəy
atabəyi
atabəylər
atabəyləri
atacag
atacaq
atadan
atakis
atalar
ataları
atalarının
atam
atamın
atan
atana
atanda
atanın
atar
ataraq
atas
atası
atasıdır
atasına
atasından
atasını
atasının
atatu
atay
atc
atdan
atdı
atdıg
atdılar
atdıqda
atdıqdan
atdıra
atdıran
atdırdı
atdırmag
atdırmaq
atdırmıs
atdırıldı
atdırılması
atdırılmıs
atdırılır
atdırır
ateist
ateizm
atf
ati
atilla
atka
atla
atlanta
atlantic
atlantida
atlantik
atlantika
atlar
atlara
atları
atların
atlarını
atlas
atlet
atletik
atletika
atletiko
atletlər
atlı
atma
atmag
atmamıs
atmaq
atması
atmasına
atmasından
atmayan
atmaz
atmosfer
atmosferdə
atmosferi
atmosferin
atmosferə
atmır
atmıs
ato
atom
atomlar
atomları
atomların
atomu
atomun
atropatena
ats
atsa
atsız
attack
attas
attestasiya
attila
atu
atv
atı
atıb
atıcı
atıcılıq
atılan
atıldı
atılması
atılmıs
atılıb
atılır
atın
atına
atında
atını
atının
atır
atırdı
atırdılar
atırlar
atıs
atəm
atəs
atət
au
audi
audio
audiovizual
audit
auditoriya
auf
auflage
august
aul
aumyan
aus
australia
australian
author
auto
av
ava
avada
avadanlıg
avadanlıq
avadanlıqlar
avadanlıqlarla
avadanlıqları
avadanlıqların
avadanlıqlarının
available
avan
avanqard
avar
avara
avarc
avarlar
avatar
avaz
avc
avengers
averon
avesta
avi
avias
aviasiya
aviasiyası
aviation
avin
avini
avinidir
avinləri
avir
aviri
avirə
aviyə
avqust
avqusta
avqustda
avqustun
avqustunda
avqustundan
avrasiya
avro
avrokuboklarda
avropa
avropada
avropadakı
avropadan
avropalı
avropalılar
avropalıların
avropanı
avropanın
avropaya
avroviziya
avroviziyada
avroya
avs
avstraliya
avstraliyada
avstraliyalı
avstraliyanın
avstraliyaya
avstriya
avstriyada
avstriyalı
avstriyanın
avstriyaya
avtobioqrafik
avtobus
avtobuslar
avtomat
avtomatik
avtomatlas
avtomobil
avtomobili
avtomobilin
avtomobillər
avtomobilləri
avtomobillərin
avtomobillərinin
avtoritar
avurg
avus
award
awards
away
ax
axan
axar
axaraq
axarı
axarında
axc
axcp
axdıg
axirət
axirətdə
axmag
axmaq
axması
axnas
axs
axta
axtac
axtaran
axtardıg
axtarmag
axtarmaq
axtarıb
axtarılması
axtarır
axtarırdı
axtarıs
axtaya
axund
axundov
axundova
axundovun
axundzadə
axundzadənin
axı
axıb
axım
axımı
axın
axınlar
axınları
axınlarının
axını
axının
axınına
axınında
axınını
axınının
axır
axıra
axırda
axırlarında
axırı
axırına
axırıncı
axırında
axıs
axısqa
axəli
axələnmis
ay
aya
ayag
ayaks
ayan
ayanlar
ayanların
ayaq
ayaqda
ayaqlar
ayaqları
ayaqlarına
ayaqlarını
ayaqlarının
ayaqlı
ayaqqabı
ayaraq
ayarkən
ayaz
ayb
ayc
ayda
aydan
aydas
aydın
aydındır
aydınlas
aydınlıg
aydınlıq
aydır
ayev
ayeva
ayevin
ayg
aygu
ayi
ayin
ayinlər
ayinə
ayinəsi
ayiələr
ayiət
ayiəti
aykovski
aykovskinin
aykənd
ayla
aylar
aylara
aylarda
aylarla
ayları
ayların
aylarına
aylarında
aylarından
aylarını
aylarının
aylend
aylis
aylı
aylıq
ayn
ayna
aynur
aypara
ayres
ayrı
ayrıca
ayrılan
ayrılaraq
ayrıldı
ayrıldıg
ayrıldılar
ayrıldıqdan
ayrılma
ayrılmag
ayrılmaq
ayrılması
ayrılmasına
ayrılmaz
ayrılmıs
ayrılıb
ayrılıg
ayrılıq
ayrılıqda
ayrılıqları
ayrılır
ayrılırlar
ayrım
ayrısec
ays
aysel
aytən
ayxan
ayı
ayıb
ayıdır
ayılar
ayın
ayına
ayınadək
ayında
ayından
ayını
ayının
ayıq
ayır
ayıran
ayırd
ayırdı
ayırdıg
ayırdılar
ayırlar
ayırmag
ayırmaq
ayırmıs
ayırıb
ayırır
ayırırlar
ayıs
ayısı
ayıtdı
ayə
ayələr
ayələri
ayəsi
ayət
ayəti
ayətullah
az
aza
azacıq
azad
azadlıg
azadlıq
azadlıqdan
azadlıqlar
azadlıqları
azadlıqlarının
azadə
azal
azalan
azalar
azaldı
azaldıg
azaldılması
azaldır
azalma
azalmag
azalması
azalmasına
azalmıs
azaltdı
azaltmag
azaltmaq
azalıb
azalır
azan
azarkes
azası
azca
azda
azdan
azdır
azerbaijan
azerbaijani
azerbaycan
azeri
azertag
azg
azic
azkaban
azlar
azları
azlıg
azlıq
azlıqlar
azlıqların
azmıs
azn
azot
azotlu
azov
azsaylı
aztu
aztv
azur
azyas
azı
azın
azına
azında
azından
azını
azının
azıx
azər
azərb
azərbaycan
azərbaycana
azərbaycanc
azərbaycanca
azərbaycanda
azərbaycandakı
azərbaycandan
azərbaycanfilm
azərbaycanla
azərbaycanlı
azərbaycanlılar
azərbaycanlılara
azərbaycanlılardan
azərbaycanlıları
azərbaycanlıların
azərbaycanlılarının
azərbaycans
azərbaycanı
azərbaycanın
azərbaycanının
azəri
azərnəs
azərreyl
azərtac
b
ba
bab
baba
babaları
babam
babas
babası
babasının
babayev
babayeva
babayevin
babazadə
babi
babil
babis
babu
babur
baby
babı
babın
babək
babəkin
bac
bacaran
bacardı
bacardıg
bacardılar
bacarmıs
bacarıb
bacarıg
bacarıq
bacarıqla
bacarıqları
bacarıqlarını
bacarıqlı
bacarır
baccharis
back
background
backgroundcolors
bacı
bacılar
bacıları
bacısı
bacısıdır
bacısını
bacısının
bad
badam
badamlı
baden
badi
badilə
badiləsi
badiləsini
badiləsinin
badov
badullayeva
badımcan
badə
badət
bafta
bag
baha
bahadur
bahadır
bahalı
baham
bahar
baharlı
baharı
baharın
bahasına
bahisə
bahisəli
bahisəlidir
bahisələr
bahisələri
bahisələrin
bahisələrə
bahisəsi
bahisəyə
bai
bais
bak
bakalavr
bakalı
baker
baki
bakinski
bakirə
bakterial
bakteriya
bakteriyalar
bakteriyaların
baku
bakuvi
bakı
bakıda
bakıdakı
bakıdan
bakılı
bakını
bakının
bakıxanov
bakıxanovun
bakıya
bal
bala
balaban
balaca
balakis
balakən
balalar
balaları
balam
balans
balanslas
balansı
balansında
balas
balası
balaxanı
balayev
baldan
balet
baleti
baletin
baletinin
bali
balina
balkan
balkanlarda
balkar
ball
balla
ballistik
balta
baltik
baltikyanı
balı
balıg
balın
balıq
balıqc
balıqlar
balıqları
balıqların
bambuk
ban
bana
banan
band
bandunq
bang
banilərindən
banisi
bank
banka
bankc
banklar
bankları
bankların
bankı
bankın
bankında
bankının
banqlades
banu
baptist
baq
baqi
baqir
baqrat
bar
bara
baraban
barak
barama
barat
barbados
barbar
barbara
barbarossa
bardata
barens
bari
bariz
barizə
barizədə
barizədən
barizəni
barizənin
barizəsi
barizəsində
barizəsini
barizəsinin
barizəsinə
barizəyə
barmag
barmaq
barmaqları
barokko
baron
barra
barri
barselona
barı
barıs
barıt
barədə
barək
barəkin
barəsində
barəsindəki
bas
basarkec
basdı
basdırılmıs
base
based
basic
basin
basketbol
basketbolc
baskı
basma
basmıs
basqın
basqınlar
basqını
bass
basıb
basımevi
bat
batalyon
batalyonu
batalyonunun
batan
bataqlıg
bataqlıq
bataqlıqlar
batareya
batareyası
batdı
batil
batist
batman
batmıs
battle
batum
batumi
batı
batır
bavariya
bax
baxa
baxan
baxanda
baxaraq
baxc
baxdı
baxdıg
baxdım
baxdıqda
baxma
baxmag
baxmaq
baxmayaraq
baxs
baxıb
baxılan
baxılması
baxılır
baxımdan
baxımından
baxın
baxır
baxırdı
baxıs
bay
bayan
bayandur
bayat
bayatı
bayatılar
bayek
bayer
bayern
baykal
baymak
bayqus
bayrag
bayraktar
bayram
bayramlar
bayramları
bayramlı
bayramov
bayramova
bayramovun
bayramı
bayramın
bayramında
bayramının
bayraq
bayraqlar
bayraqları
baytarlıq
bayıl
bayır
bayıra
baz
baza
bazaları
bazalt
bazanın
bazar
bazara
bazarda
bazarlar
bazarlarda
bazarları
bazarlarına
bazarlarında
bazarı
bazarın
bazarına
bazarında
bazarının
bazası
bazasına
bazasında
bazasını
bazasının
bazaya
bazel
bazilika
bazilikanın
bazilikası
bb
bbas
bbc
bbə
bc
bd
bdu
be
beach
beat
beatles
beats
beautiful
beauty
bec
becərilir
becərilməsi
becərilən
been
before
begin
beginning
behbud
behbudov
behis
bei
being
bek
bel
bela
belarus
belarusda
belarusiya
belarusun
belc
beli
belində
belinə
bell
bella
bellanın
belle
belorusiya
belqrad
belqradda
belə
beləcə
belədir
beləki
beləliklə
ben
benedikt
beni
benin
benjamin
benqal
benth
benz
benzin
benzol
beqdeli
ber
berd
berinq
beriya
berkeley
berkli
berlin
berlində
berlindəki
berlinin
berlinə
bern
bernard
bernini
berqkamp
bertels
berti
bes
best
bet
beta
bethesda
bethoven
bethovenin
betmen
betmenin
beton
betti
between
bey
beyin
beyində
beyinin
beyker
beyləqan
beynalxalq
beyni
beynin
beyninin
beynəlmiləl
beynəlxalq
beyond
beyrut
beyrək
beyt
beyti
beytu
beyət
bf
bh
bhan
bhi
bhu
bhə
bhəli
bhəsiz
bi
bibcode
bibi
bibiheybət
bibisi
bible
biblioqrafik
biblioqrafiya
bibliya
bibər
bic
bicar
bico
bidens
big
biganə
bihus
biki
bil
bilal
bilavasitə
bildi
bildilər
bildim
bildirdi
bildirdilər
bildirdiyinə
bildirib
bildirildi
bildirilir
bildirilirdi
bildirilmis
bildirir
bildirirdi
bildirirdilər
bildirirlər
bildiris
bildirmis
bildirmək
bildirən
bildirərək
bildiyi
bildiyimiz
bildiyini
bilet
bilgi
bilgilər
bilgisi
bilgə
bilib
bilicisi
bilik
bilikli
biliklər
bilikləri
biliklərin
biliklərini
biliklərə
bilim
bilimler
bilin
bilinir
bilinirdi
bilinmir
bilinməyən
bilinməyənlər
bilinən
bilir
bilirdi
bilirdilər
bilirik
bilirlər
bilirsiniz
bilirsən
bilirəm
biliyi
biliyin
biliyə
bill
billah
billboard
billi
bilm
bilmir
bilmirdi
bilmirdilər
bilmirik
bilmirlər
bilmirəm
bilmis
bilmə
bilmədi
bilmədikləri
bilmədilər
bilmədim
bilmədiyi
bilmədiyindən
bilmədiyini
bilmədən
bilmək
bilməm
bilməmis
bilməməsi
bilmərik
bilmərəm
bilməsi
bilməsə
bilməyib
bilməyəcək
bilməyəcəyi
bilməyəcəyini
bilməyən
bilməyərək
bilməz
bilməzdi
bilməzdilər
bilməzlər
bilməzsən
bilsin
bilsinlər
bilsə
bilu
bilə
biləcək
biləcəkləri
biləcəri
biləcəyi
biləcəyindən
biləcəyini
biləcəyinə
bilən
biləndir
bilər
bilərdi
bilərdilər
bilərik
bilərlər
bilərsiniz
bilərsən
bilərək
bilərəkdən
bilərəm
biləsuvar
bin
bina
binada
binadan
binadır
binalar
binalarda
binalardan
binaları
binaların
binalarının
binanı
binanın
binası
binasına
binasında
binasını
binasının
binaya
binaən
bingo
binti
binə
binəqədi
bio
biography
biokimya
biokimyəvi
biologiya
biologiyası
biology
bioloji
bioloq
biomu
bioqrafik
bioqrafiya
bioqrafiyası
biosfer
biotexnologiya
biq
bir
biraz
birbas
birc
bircə
bird
birdir
birds
birdəfəlik
birdən
birgə
biri
biridir
birillik
birilə
birilərinə
birin
birinci
birincili
birinciliyi
birincisi
birində
birindən
birini
birinin
birinə
birisi
birja
birjası
birlik
birlikdə
birliklər
birlikləri
birliklərin
birliklərinin
birliyi
birliyin
birliyində
birliyini
birliyinin
birliyinə
birliyə
birləri
birlərini
birlərinə
birləs
birma
birmənalı
birth
birtərəfli
biruzə
birə
bis
bismark
bisu
bit
bitcoin
bitdi
bitdikdən
bitdiyi
bitir
bitirdi
bitirdikdən
bitirdiyi
bitirib
bitirir
bitirmis
bitirmək
bitirən
bitirəndən
bitirərək
bitis
bitki
bitkic
bitkidir
bitkilər
bitkilərdə
bitkilərdən
bitkiləri
bitkilərin
bitkilərinin
bitkilərinə
bitkilərlə
bitkilərə
bitkin
bitkinin
bitkisi
bitkisidir
bitkisinin
bitlis
bitmis
bitməsi
bitməsindən
bitməsinə
bitən
bitərəf
biz
bizans
bizansa
bizanslılar
bizansın
bizdə
bizdən
bizi
bizim
bizimlə
biznes
biznesi
biznesin
biznesmen
bizə
bk
bkes
bl
black
blackwell
blade
blake
blank
blek
bleyk
blis
blog
blok
blokada
blokc
bloku
blokunun
blood
blu
blue
blues
blər
bm
bmatrix
bmp
bmt
bmw
bmx
bn
bni
bnu
bo
board
bob
bobbi
body
boeing
bog
bohemiya
bok
boko
boks
boksc
boksit
bol
bolivar
boliviya
bollug
bolluq
bolnisi
bolonya
bolqar
bolqarıstan
bolqarıstanda
bolqarıstanın
bols
bolsonaru
bolu
bomba
bombanın
bombardir
bombardiri
bombardman
bombardmanc
bombası
bon
bonapart
bonapartın
bond
bonn
book
books
bor
borc
borcları
borclu
borcludur
borcu
borcunu
border
bordo
boris
born
borneo
borno
borobudur
boru
borular
boruları
borussiya
borusu
borusunun
bos
bosfor
bosniya
bostan
bostanabad
bostanc
boston
bosworth
bot
botanik
botanika
botaniki
botanikləri
both
botsvana
bottom
box
boy
boya
boyakarı
boyalarla
boyalı
boyanmıs
boyaq
boyda
boykot
boyları
boylu
boynu
boynuna
boynunda
boynunu
boys
boyu
boyun
boyuna
boyunbag
boyunca
boyunda
boyundan
boyunun
boz
bozdag
bozqır
bozumtul
bp
bq
br
bra
brahim
brahimbəyov
brahimi
brahimin
brahimli
brahimov
brahimova
brahimovic
brahimovun
brahimxəlil
brahimə
bratislava
braun
brayan
braziliya
braziliyada
braziliyalı
braziliyanın
braziliyaya
brekc
bremen
brend
brendi
brendon
bres
brest
bri
brian
bridge
brief
brill
brilliant
brilyant
briqada
briqadanın
briqadası
briqadasının
bristol
britain
britaniya
britaniyada
britaniyalı
britaniyanın
britaniyaya
britannica
british
broadcasting
brom
bronxial
bros
brothers
brown
bru
bruce
bruklin
bruno
brə
bs
bsu
bt
btidai
btr
bts
btəda
bu
buc
bucag
bucaq
bucaqlı
bud
buda
budag
budapes
budapest
budaq
budaqları
budaqlı
budaqov
budda
buddist
buddizm
buddizmin
budu
buduq
budur
buenos
bug
bugu
building
bul
bulag
bulaq
bulaqlar
bulaqları
bulaqların
bulas
bulbofilium
bulbophyllum
buldu
bulgaria
bulgarian
bull
bulletin
bulqar
bulud
buludlar
buludları
buludların
bulvar
bulvarı
buna
bunca
bunda
bundan
bundesliqa
bunko
bunlar
bunlara
bunlarda
bunlardan
bunlardır
bunlarla
bunları
bunların
bunu
bunun
bununla
bununlada
buqro
bur
bura
burada
buradakı
buradan
buranı
buranın
burax
buraxan
buraxaraq
buraxdı
buraxdıg
buraxmag
buraxmaq
buraxmıs
buraxıb
buraxılan
buraxıldı
buraxıldıqdan
buraxılması
buraxılmıs
buraxılıb
buraxılır
buraxılıs
buraxır
buraya
burda
burdan
bureau
burjua
burjuaziya
burjuaziyanın
burk
burkina
burnu
burnundan
burqundiya
bursa
bursada
bursaya
burulg
burun
burundi
burunları
buruq
bus
busan
business
but
buta
butan
butdur
butlar
butu
buxar
buxara
buxarest
buxari
buxarlanma
buxarı
buxta
buxtası
buynuz
buynuzlu
buyur
buyurdu
buyurdug
buyurmus
buyurur
buz
buzdan
buzla
buzlag
buzlaq
buzlaqlar
buzlaqların
buzlas
buzlu
buzovna
buzu
buzun
bwf
by
bı
bıc
bıg
bə
bəbir
bəd
bədbəxt
bədii
bədr
bədxassəli
bədə
bədəlbəyli
bədəlov
bədən
bədəndə
bədəndən
bədəni
bədənin
bədənində
bədənindən
bədənini
bədəninin
bədəninə
bədənləri
bədənə
bədəvi
bədəxs
bəg
bəhai
bəhanə
bəhanəsi
bəhlul
bəhmən
bəhmənli
bəhmənyar
bəhram
bəhramov
bəhreyn
bəhruz
bəhs
bək
bəkir
bəkirzadə
bəkr
bəkrin
bəktas
bəla
bəlag
bəlazuri
bəlg
bəli
bəlkə
bəlli
bəllidir
bəlucistan
bəlx
bələd
bələdc
bələdiyyə
bələdiyyələr
bələdiyyələri
bələdiyyələrin
bələdiyyənin
bələdiyyəsi
bələdiyyəsinin
bələk
bələklər
bələr
bələri
bələrin
bələrini
bələrinin
bəm
bən
bənd
bəndi
bəndin
bəndində
bəndinin
bəndinə
bəndə
bəndər
bəni
bənim
bənin
bəno
bənu
bənzər
bənzəri
bənzərsiz
bənzəyir
bənzəyirdi
bənzəyən
bəqərə
bər
bərabər
bərabərdir
bərabərlik
bərabərliyi
bərabərləs
bərabərə
bəraət
bərbad
bərbər
bərdə
bərdədə
bərgu
bəri
bərk
bərkidilmis
bərkidilmək
bərpa
bərpası
bərpasına
bərpasını
bərpasının
bərqərar
bərə
bərəkət
bərəkətli
bəs
bəsdir
bəsi
bəsində
bəsindən
bəsini
bəsinin
bəsinə
bəsit
bəsiz
bəsləyir
bəsləyən
bəsrə
bəsti
bəstəkar
bəstəkarlar
bəstəkarları
bəstəkarların
bəstəkarlarının
bəstəkarlıq
bəstəkarı
bəstəkarın
bəstələdiyi
bəstələmis
bəstələnmis
bət
bətini
bətlə
bəxs
bəxt
bəxti
bəxtiyar
bəxtiyari
bəxtlik
bəy
bəyan
bəyanat
bəyanatı
bəyannamə
bəyannaməsi
bəyaz
bəyazid
bəyazidin
bəydili
bəydən
bəyi
bəyim
bəyin
bəylik
bəyliyi
bəylə
bəylər
bəylərbəyi
bəylərbəyliyi
bəyləri
bəylərin
bəyə
bəyənilmis
bəzi
bəziləri
bəzilərində
bəzilərini
bəzilərinin
bəzilərinə
bəzisi
bəzədilib
bəzədilmis
bəzək
bəzəkli
bəzəkləri
bəzən
bəzənmis
bəzəyi
bəzəyir
bəzəyən
bəə
bəəs
c
ca
cabbar
cabbarlı
cabbarlının
cabbarov
cabir
cabədi
cadu
cadugər
cag
cah
cahan
cahanda
cahangir
cahangirov
cahans
cahid
cahil
cakənd
calallı
california
call
called
cam
camaat
camaata
camaatı
camaatın
camaatının
camal
camalın
cambridge
came
cami
campbell
camıs
can
cana
canada
canadian
canan
canavar
canavarı
cancer
candan
cangu
cani
canis
canlandıracag
canlandıran
canlandırdı
canlandırdıg
canlandırmaq
canlandırmıs
canlandırıb
canlandırılmıs
canlandırır
canlanma
canlarını
canlı
canlılar
canlıları
canlıların
cansız
canvas
canı
canım
canımı
canın
canına
canını
capital
caqayın
car
carabus
carc
cari
carl
cartoon
casa
case
cases
casino
caspian
cassini
castilho
castin
castle
casus
casusluq
cat
catalog
catalogue
catherine
catholic
catocala
caucasian
caucasus
cavab
cavabdeh
cavabdehdir
cavablar
cavabsız
cavabı
cavabında
cavabını
cavad
cavadov
cavadın
cavan
cavans
cavid
cavidin
caz
cazibə
cazibədar
caət
caəti
caətə
cbs
cc
cd
cdot
cdən
ce
ceff
cefferson
cek
ceki
cekson
ceksonun
cem
cenevrə
cenevrədə
cennifer
census
center
central
centre
centuries
century
ceremi
cerri
cersi
cessi
cessika
cev
cey
ceyhan
ceyhun
ceykob
ceyms
ceymsin
ceyn
ceyran
ceyranc
ceyrə
ceyrədə
ceyrəli
ceyrələr
ceyrələrdə
ceyrələrdən
ceyrələri
ceyrələrin
ceyrələrində
ceyrələrinin
ceyrənin
ceyrəsi
ceyson
cf
ch
cha
challenge
championship
chan
change
changes
channel
chant
chapter
charles
chart
che
chem
chemical
chemistry
chen
chess
chicago
child
children
china
chinese
choice
chris
christ
christian
christmas
christopher
chronicle
chthonius
church
ci
cia
cib
ciddi
cihad
cihaz
cihazlar
cihazları
cihazların
cihazı
cil
cilalanmıs
cild
cilddə
cilddən
cildi
cildində
cildinə
cildlik
cildlər
cilt
cim
cimmi
cin
cinah
cinahında
cinayət
cinayəti
cinayətin
cinayətkar
cinayətkarlıg
cinayətlər
cinayətləri
cinayətlərin
cinayətlərə
cinayətə
cinema
cinin
cinlər
cinnah
cins
cinsdən
cinsi
cinsin
cinsindən
cinsinin
cinsinə
cinsiyyət
cinsli
cinsləri
cinsə
circ
cis
cisim
cisimlər
cisimləri
cisimlərin
cismani
cismi
cismidir
cismin
cit
cities
city
civarında
civil
civə
ciyər
cizgi
cizgiləri
cl
clark
class
classic
classical
claude
climate
cloud
clu
club
clə
cləndi
cləndirdi
cləndirilmis
cləndirilməsi
cləndirir
cləndirmək
clənir
clənmis
clənməsi
clənməsinə
clənən
clər
cləri
clərini
cm
cma
cmalar
cn
cnn
co
coan
coast
code
cog
coker
cold
cole
collected
collection
college
collins
color
colors
columbia
com
come
comic
comics
command
commission
committee
common
commons
commune
communication
communications
community
companion
company
comparative
complete
complex
composition
computer
computing
con
conatan
conference
conflict
congress
conni
cons
conservation
conson
construction
consun
contemporary
content
context
control
conun
corab
corc
corciya
cordan
core
cornell
coronavirus
corporation
cos
council
countries
country
county
court
covanni
covi
covid
cox
coys
cozef
cr
cra
crac
craiyyə
creation
creed
crime
crisis
critical
cropped
cross
crown
cru
crud
cry
crystal
cs
csu
ctimai
cu
cud
cuda
cudi
cug
culfa
cultural
culture
cum
cuma
cumc
cumda
cumdan
cumla
cumlar
cumlara
cumları
cumların
cumlarına
cumlarından
cumlarını
cumlarının
cumu
cumun
cumuna
cumundan
cumunu
cumunun
cun
cup
current
cut
cw
cx
cı
cıdır
cıg
cırtdan
cə
cəbhə
cəbhədə
cəbhədən
cəbhənin
cəbhəsi
cəbhəsində
cəbhəsindəki
cəbhəsinin
cəbhəsinə
cəbhəyə
cəbiyev
cəbr
cəbrail
cəbrayıl
cəbrayılov
cəbrayılın
cəbri
cəbəllu
cədid
cədvəl
cədvəldə
cədvəli
cədvəlində
cəfa
cəfər
cəfəri
cəfərli
cəfərov
cəfərova
cəfərovun
cəfərqulu
cəfərzadə
cəhalət
cəhd
cəhdi
cəhdində
cəhdlər
cəhdləri
cəhdlərinə
cəhri
cəhənnəm
cəhənnəmə
cəhət
cəhətdən
cəhəti
cəhətlər
cəhətlərdən
cəhətləri
cəhətlərindən
cəhətlərini
cək
cəklər
cəlal
cəlalın
cəlaləddin
cəlb
cəlbedici
cəld
cəlil
cəlilabad
cəlilov
cəllad
cəm
cəmaləddin
cəmi
cəmil
cəmilə
cəmisi
cəmiyyət
cəmiyyətdə
cəmiyyətdəki
cəmiyyətdən
cəmiyyəti
cəmiyyətin
cəmiyyətində
cəmiyyətini
cəmiyyətinin
cəmiyyətinə
cəmiyyətlər
cəmiyyətlərdə
cəmiyyətləri
cəmiyyətlərin
cəmiyyətlərinin
cəmiyyətə
cəmlənmis
cəmləs
cəms
cənab
cənazə
cənazəsi
cəng
cəngavər
cəngavəri
cəngavərlər
cəngavərləri
cəngi
cənnət
cənnətdə
cənnəti
cənnətin
cənnətə
cənub
cənuba
cənubda
cənubdakı
cənubdan
cənubi
cənubu
cənubuna
cənubunda
cənubundakı
cənubundan
cərgə
cərimə
cərrah
cərrahi
cərrahiyyə
cərrahı
cərrəd
cərəyan
cərəyanlar
cərəyanları
cərəyanı
cərəyanın
cərəyanının
cəsarət
cəsarətli
cəsarətlə
cəsur
cəsəd
cəsədi
cəsədini
cəsədləri
cəza
cəzalandırmaq
cəzalandırılır
cəzalar
cəzanın
cəzası
cəzasına
cəzasını
cəzasının
cəzirə
d
da
daban
dabi
dad
dada
dadas
dadda
dadi
dadlı
dadı
dadın
dadına
dafiə
dafiəc
dafiənin
dafiəsi
dafiəsində
dafiəsini
dafiəsinin
dafiəsinə
dafiəyə
dag
daha
dahi
daily
daim
daima
daimi
dair
dairə
dairədə
dairələr
dairələrdə
dairələri
dairələrində
dairələrinin
dairənin
dairəsi
dairəsində
dairəsindəki
dairəsindən
dairəsini
dairəsinin
dairəsinə
dairəvi
daki
dakı
dal
dala
dalas
dalbadal
dalg
dali
dallas
dalı
dalına
dalınca
dam
dama
damar
damarlar
damarları
damarların
damcı
damda
damg
damla
damı
damın
dan
dana
danabas
dance
daniel
danimarka
danimarkada
danimarkalı
danimarkanın
danis
dans
dante
danın
danıs
dar
dara
daranın
darc
darg
dari
dark
darkgrey
darmadag
daru
darvaza
darvazanın
darvazası
darvin
darı
darıdag
darə
darəc
darəetmə
darəsi
darəsində
darəsinin
darəsinə
das
dastan
dastanlar
dastanları
dastanı
dastanın
dastanında
dastanının
data
database
date
dateformat
daun
dava
davam
davamc
davamlı
davamlıdır
davamlılıg
davamlılıq
davamı
davamıdır
davası
david
davidin
davis
davranıs
davud
davuda
davudun
daxil
daxildir
daxildə
daxildən
daxili
daxilində
daxilindəki
daxilinə
daxilə
daxiləsi
day
dayag
dayan
dayana
dayanacag
dayanacaq
dayanan
dayanaraq
dayandı
dayandıg
dayandırdı
dayandırmag
dayandırmaq
dayandırmıs
dayandırıb
dayandırıldı
dayandırılması
dayandırılmıs
dayandırılıb
dayandırılır
dayandırır
dayanmadan
dayanmıs
dayanıb
dayanıqlı
dayanır
dayanırdı
dayaq
dayaz
days
dayı
dayısı
dayə
db
dc
dcə
dcəsi
dcəsindən
dcəsinin
dd
ddi
ddin
ddo
ddu
ddə
ddəalar
ddəaları
ddən
ddət
ddətdir
ddətdə
ddətdən
ddəti
ddətində
ddətini
ddətinin
ddətinə
ddətli
ddətlik
ddətə
de
dead
deal
death
debu
dec
december
dedi
dedikdə
dedikləri
dediklərini
dediklərinə
dedilər
dedim
dedin
dediyi
dediyini
dediyinə
deep
default
defense
deformasiya
deg
dehistanı
dehli
dei
dekabr
dekabrda
dekabrın
dekabrına
dekabrında
dekabrından
dekan
dekanı
dekart
dekor
dekorasiya
dekorativ
del
dell
della
delta
deltası
deltasında
dem
demir
demis
demo
democracy
demokrat
demokratik
demokratiya
demokratiyanın
demokratlar
demoqrafik
demoqrafiya
demə
demək
deməkdir
deməli
deməyə
den
dendrochilum
dendroflorası
dendrologiya
dengeki
deni
deniel
denikin
denis
deniz
denmark
denni
dennis
deo
departament
departamenti
departamentin
departamentində
departamentinin
departamentləri
departamentlərindən
department
deportasiya
deportasiyası
depressiya
deputat
deputatlar
deputatları
deputatların
deputatlarının
deputatlıg
deputatı
der
dergisi
des
desant
description
desert
design
desin
desə
desək
det
detail
details
detallar
detalları
detalların
detallı
detektiv
deutsche
deutschen
dev
development
devi
devid
devirmək
devis
devlet
devon
devrildi
devrilmis
devrilməsi
dey
deyib
deyil
deyildi
deyildilər
deyildir
deyildiyi
deyilik
deyilir
deyilirdi
deyillər
deyilmi
deyilmis
deyilsə
deyilsən
deyiləm
deyilən
deyilənlərə
deyilənə
deyilər
deyim
deyin
deyir
deyirdi
deyirdilər
deyirlər
deyirsən
deyirəm
deyis
deyv
deyə
deyəcək
deyəcəklər
deyək
deyən
deyəndə
deyər
deyərdi
deyərlər
deyərək
deyəsən
dh
di
diabet
dialekt
dialekti
dialektik
dialektində
dialektləri
dialoq
dialoqu
diametri
diametrli
diana
diapazonu
diaqnostik
diaqnostika
diaqnostikası
diaqnoz
diaqnozu
diaqonal
dias
diaspor
diaspora
diasporu
diasporunun
dib
dibi
dibində
dibindən
dibinə
dic
dictionary
did
didaktik
didərgin
die
diego
dieqo
diferensial
differensial
different
dig
digital
digər
digəri
digərini
digərinin
digərinə
digərləri
digərlərindən
digərlərini
digərlərinin
digərlərinə
dik
dikcə
dikdə
dikdən
dikləri
diktator
diktaturası
dil
dilarə
dilbazi
dilbər
dilc
dildir
dildə
dildən
dili
dilidir
dilim
dilimizdə
dilin
dilində
dilindəki
dilindən
dilini
dilinin
dilinə
dilli
dillə
dilləndi
dillər
dillərdə
dillərdən
dilləri
dillərin
dillərində
dillərindəki
dillərindən
dillərini
dillərinin
dillərinə
dillərə
dilmis
dilqəm
dils
dilə
dilənc
dilər
dim
din
dinamik
dinamikası
dinamo
dinar
dinc
dindar
dində
dindən
dini
dinin
dinində
dinindən
dinini
dininin
dininə
dinlə
dinləmək
dinlər
dinləri
dinlərin
dinlərə
dinləyici
dinə
dio
diplom
diplomat
diplomatik
diplomatiya
diplomatlar
diplomatları
diplomatı
diplomla
diplomu
diplomuna
diplomunu
diqq
diqqət
diqqəti
diqqətini
diqqətli
diqqətlə
diqqətə
diqqətəlayiq
dir
dirc
dirdi
dirdilər
dirdiyi
direktor
direktorlar
direktorları
direktoru
direktorudur
direktorun
direktorunun
dirhəm
diri
dirib
dirici
diridir
dirijor
dirijorluq
dirijoru
dirildi
dirildikdən
dirildiyi
dirilib
dirilik
dirilir
dirilirdi
dirilmis
dirilmə
dirilməmis
dirilməsi
dirilməsində
dirilməsindən
dirilməsini
dirilməsinin
dirilməsinə
dirilə
dirilən
dirilərək
dirin
dirinin
dirir
dirirdi
dirirlər
dirlər
dirmis
dirmə
dirmək
dirməklə
dirmənin
dirməsi
dirməyi
dirməyə
dirsə
dirə
dirəcək
dirək
dirən
dirərək
dis
discovery
disk
diski
diskin
diskoqrafiya
diskret
disney
display
dissertasiya
dissertasiyası
dissertasiyasını
dissertasiyasının
distant
distillə
distribution
district
div
divan
divani
divanxana
divanı
divanə
divar
divara
divarda
divardan
divarla
divarlar
divarlara
divarlarda
divarlarla
divarları
divarların
divarlarına
divarlarında
divarlarından
divarlarını
divarlarının
divarı
divarın
divarına
divarında
divarının
division
divizion
divizionu
diviziya
diviziyanın
diviziyası
diviziyasının
diya
diyar
diyarbəkir
diyarbəkirdə
diyarbəkirin
diyars
diyarı
diyarın
diyarına
diyarında
diyarının
diyi
diyindən
diyini
diyinə
diz
dizaq
dizayn
dizayner
dizayneri
dizaynı
dizaynına
dizaynını
dizel
dizi
dizə
dj
dl
dlu
dlə
dlər
dləri
dm
dman
dmanc
dmanisi
dmanı
dmitri
dnepr
dnt
do
doc
documents
dodag
dodaq
dodaqları
does
dog
doi
doktor
doktora
doktorantura
doktorları
doktorluq
doktoru
doktorudur
doktrinası
dolan
dolanır
dolanıs
dolas
dolayı
dolayısı
dolc
doldu
doldurma
doldurmaq
doldurub
doldurulmus
doldurulur
dolg
dollar
dollara
dollardan
dollarlıq
dolları
dollarına
dolmabag
dolması
dolmus
dolu
doludur
dom
domain
domen
domenlər
dominant
dominik
dominikan
don
donald
donanma
donanmanın
donanması
donanmasına
donanmasını
donanmasının
dondurma
donetsk
donma
donmus
donna
donor
donu
donur
donuz
donuzu
doom
doqquz
doqquzuncu
dor
dortmund
dos
dosent
dosenti
dost
dosta
dostlar
dostları
dostlarına
dostlarından
dostlarını
dostlarının
dostlas
dostlug
dostluq
dostoyevski
dostoyevskinin
dostu
dostudur
dostum
dostun
dostuna
dostunun
double
douglas
dov
dovik
dovikin
dovs
down
doxsan
doymamıs
doymus
doyunca
doza
dp
dqmv
dr
dragon
drak
drakula
dram
drama
dramatik
dramaturq
dramaturqları
dramaturqu
dramı
dramında
dream
dreams
drenaj
dresden
drezden
drik
driklik
dris
dru
drət
drəti
drətini
drətli
ds
dsi
dsu
dt
dtk
du
dua
dualar
duası
dubay
dubl
dublin
dublyaj
dudları
dudlarında
dudlarından
duet
dueti
dug
duke
dul
dular
dulusc
dum
duma
duman
dumanlı
dumanın
duması
dumasına
dumasının
dunay
dunya
duqda
duqlas
dur
dura
duran
durant
durdu
durdug
durg
during
durlar
durma
durmadan
durmag
durmaq
durmus
durna
durnalar
dursun
duru
durub
durum
durumu
durur
dururdu
durus
dus
dust
dustaq
dutch
duyan
duydug
duyg
duyulur
duz
duzdag
duzlar
duzları
duzlu
duzu
dvd
dviq
dx
dyakonov
dynamics
dynasty
dyu
dı
dıg
dılar
dım
dın
dıog
dıq
dıqca
dıqda
dıqdan
dıqları
dır
dıra
dıran
dıraraq
dırarkən
dırdı
dırdıg
dırdılar
dırerm
dırlar
dırma
dırmac
dırmada
dırmag
dırmalar
dırmalara
dırmaları
dırmaların
dırmalarına
dırmanın
dırmaq
dırmaqla
dırmas
dırması
dırmasına
dırmaya
dırmıs
dırnaq
dırsa
dırıb
dırıcı
dırıla
dırılan
dırılaraq
dırıldı
dırıldıg
dırılma
dırılmamıs
dırılması
dırılmasına
dırılmasında
dırılmasından
dırılmasını
dırılmasının
dırılmıs
dırılıb
dırılır
dırılırdı
dırın
dırır
dırırdı
dırırlar
dıs
də
dəb
dəbdəbəli
dəbilqə
dəclə
dədə
dəf
dəfn
dəfni
dəfnə
dəftər
dəftəri
dəftərxana
dəfə
dəfədən
dəfələrlə
dəfəyə
dəhliz
dəhlizi
dəhnə
dəhs
dək
dəki
dəlalət
dəli
dəlik
dəliklər
dəlil
dəlili
dəlillər
dəlilləri
dəlilər
dəliyi
dəliyin
dəm
dəmdə
dəmir
dəmirc
dəmirdən
dəmirin
dəmirov
dəmiryol
dəmiryolu
dəmis
dəmə
dəmək
dəməli
dəməs
dəməyə
dən
dəni
dənilir
dənilməsi
dənilən
dənis
dəniz
dənizc
dənizdə
dənizdən
dənizi
dənizin
dənizində
dənizindəki
dənizindən
dənizini
dənizinin
dənizinə
dənizkənarı
dənizlə
dənizlər
dənizlərdə
dənizləri
dənizlərin
dənizə
dənli
dənə
dənəvər
dəq
dəqiq
dəqiqlik
dəqiqliklə
dəqiqliyi
dəqiqləs
dəqiqə
dəqiqədə
dəqiqədən
dəqiqəlik
dəqiqələrdə
dəqiqəsində
dəqiqəyə
dər
dərbənd
dərbənddə
dərbənddən
dərbəndi
dərbəndin
dərbəndə
dərc
dərd
dərdi
dərdim
dərdimi
dərdin
dərdini
dərdinə
dərdli
dərdu
dərdə
dərgahına
dərgi
dərgisi
dərgisinin
dərhal
dəri
dəridə
dəridən
dərili
dərin
dərindən
dərinin
dərinlik
dərinlikdə
dərinliyi
dərinliyində
dərinliyinə
dərinliyə
dərinləs
dərisi
dərisindən
dərisini
dərisinin
dəriyə
dərk
dərman
dərmandır
dərmanlar
dərmanların
dərmanı
dərnək
dərnəyi
dərnəyin
dərnəyinin
dərris
dərs
dərsi
dərslik
dərsliklər
dərsliyi
dərsliyin
dərslər
dərsləri
dərslərində
dərslərini
dərvis
dərya
dərzi
dərə
dərəc
dərəcə
dərəcədə
dərəcədən
dərəcəli
dərəcələri
dərəcəsi
dərəcəsində
dərəcəsindən
dərəcəsini
dərəcəsinin
dərəcəsinə
dərəcəyə
dərədə
dərələr
dərələri
dərələyəz
dərənin
dərəsi
dərəsində
dərəsinin
dəs
dəst
dəsti
dəstə
dəstək
dəstəkc
dəstəklədi
dəstəklədiyi
dəstəklədiyini
dəstəkləmis
dəstəkləmək
dəstəkləməyə
dəstəklənir
dəstəklənməsi
dəstəklənən
dəstəkləyir
dəstəkləyirdi
dəstəkləyən
dəstələr
dəstələri
dəstələrin
dəstələrini
dəstələrinin
dəstələrinə
dəstəmaz
dəstəni
dəstənin
dəstəsi
dəstəsində
dəstəsindən
dəstəsini
dəstəsinin
dəstəsinə
dəstəyi
dəstəyini
dəstəyinə
dəstəyə
dəvam
dəvə
dəvəc
dəvət
dəvəti
dəxi
dəydi
dəyib
dəyir
dəyirman
dəyirmanı
dəyirmi
dəyis
dəymis
dəyə
dəyən
dəyər
dəyəri
dəyərində
dəyərini
dəyərinin
dəyərinə
dəyərli
dəyərlər
dəyərləri
dəyərlərin
dəyərlərini
dəyərlərinin
dəyərlərə
dəzgah
e
ea
early
earth
east
eastern
ebinger
ebu
ec
ecazkar
economic
economics
economy
ed
edam
edamı
eddi
eden
edge
edi
edib
edibdir
ediblər
edici
edildi
edildikdə
edildikdən
edildilər
edildiyi
edildiyindən
edildiyini
edildiyinə
edilib
edilir
edilirdi
edilirdilər
edilirlər
edilmir
edilmirdi
edilmis
edilmə
edilmədi
edilmədən
edilmək
edilməkdədir
edilməklə
edilməli
edilməlidir
edilməmis
edilməməsi
edilməsi
edilməsidir
edilməsində
edilməsindən
edilməsini
edilməsinin
edilməsinə
edilməyib
edilməyə
edilməyən
edilsin
edilsə
edilə
ediləcək
ediləcəkdir
ediləcəyi
ediləcəyini
edilən
ediləndən
edilənlər
edilənlərin
edilənə
edilər
edilərkən
edilərsə
edilərək
edim
edin
edinburgh
edinburq
edir
edirdi
edirdilər
edirdim
edirik
edirlər
edirmis
edirsiniz
edirsə
edirsən
edirəm
edit
edited
edition
editions
editor
editors
edmund
edo
edqar
eds
edu
eduard
eduardo
eduardın
education
edvard
edvin
edward
edə
edəcək
edəcəkdi
edəcəkdir
edəcəklər
edəcəklərini
edəcəyi
edəcəyik
edəcəyini
edəcəyinə
edəcəyəm
edək
edən
edəndir
edəndə
edəndən
edəni
edənin
edənlər
edənlərdən
edənləri
edənlərin
edənlərə
edənə
edər
edərdi
edərdilər
edərkən
edərlər
edərsə
edərək
edərəm
ef
efendi
effect
effects
effekt
effekti
effektiv
effektivliyi
effektli
effektlər
effektləri
efiopiya
efir
efirdə
efirə
eg
egey
egypt
eh
ehara
ehir
ehr
ehram
ehsan
ehtimal
ehtimala
ehtimalla
ehtimalı
ehtimalını
ehtiram
ehtiramla
ehtiras
ehtiraslı
ehtiva
ehtiyac
ehtiyacları
ehtiyaclarını
ehtiyacı
ehtiyacını
ehtiyat
ehtiyata
ehtiyatda
ehtiyatla
ehtiyatlar
ehtiyatları
ehtiyatların
ehtiyatlarına
ehtiyatlarının
ehtiyatlı
ehtiyatsızlıqdan
ehtiyatı
ehtiyatının
ei
ein
eine
einstein
eir
eirdə
eiri
eirin
eirində
eirini
eirinin
eirlər
eirləri
eirlərin
eirlərində
eirlərindən
eirlərini
eirlərinin
eirlərinə
ejen
ek
ekipaj
eko
ekologiya
ekologiyanın
ekologiyası
ekoloji
ekran
ekrana
ekranda
ekranlara
ekranlas
eks
eksklu
ekskursiya
ekspedisiya
ekspedisiyanın
ekspedisiyası
ekspedisiyasının
eksperiment
eksperimental
ekspert
eksperti
ekspertizası
ekspertlər
ekspir
ekspirin
eksponat
eksponatlar
eksponatları
ekspozisiya
ekspozisiyası
ekspress
ekstremal
ekvador
ekvatorial
ekvivalent
ekzogen
ekzotik
el
elam
elan
elanı
elastik
elastiklik
elazıg
elba
elbrus
elc
eldar
eldə
eldəniz
eldənizin
elections
electric
electronic
elektrik
elektrikləs
elektro
elektromaqnit
elektron
elektronik
elektronika
elektronlar
elektronların
elektronun
elektrotexnika
element
elementar
elementi
elementin
elementlər
elementlərdən
elementləri
elementlərin
elementlərindən
elementlərini
elementlərinin
elena
elf
elgu
eli
elin
elindən
elinin
elinə
elis
elit
elizabet
elizabeth
elizabetin
ell
ellen
elli
ellinizm
ellipsvari
elliptik
ellis
ellər
elm
elman
elmar
elmdir
elmdə
elmi
elmin
elmində
elmini
elminin
elminə
elmir
elmira
elmlə
elmlər
elmləri
elmlərin
elmlərinin
elmlərə
elmə
elməddin
elnarə
elnur
els
elsevier
elsi
elton
elvin
elvis
elxan
elxani
elxanilər
elyabinsk
elza
elə
eləcə
eləcədə
elədi
elədilər
elədiyi
elədə
eləmis
eləmək
eləməyə
eləsin
eləyib
eləyir
em
emal
emalatxanası
emalatxanasında
emalı
emanuel
emblem
emblemi
emi
emil
emili
emin
emissiya
emma
emmanuel
emmi
emosional
empion
empionat
empionatda
empionatları
empionatlarında
empionatlarının
empionatı
empionatın
empionatına
empionatında
empionatından
empionatını
empionatının
empionlar
empionları
empionlug
empionluq
empionu
empire
empirik
en
encyclopaedia
encyclopedia
encyclopædia
end
endemik
endi
endirdi
endirildi
endirilmis
endirilməsi
endirir
endirmək
endru
endryu
eneolit
energetik
energetika
energy
enerji
enerjili
enerjini
enerjinin
enerjisi
enerjisindən
enerjisini
enerjisinin
enerjisinə
enerjiyə
eng
engels
engineering
england
english
eni
enib
enin
enində
eninə
enir
enis
enistan
enistanda
enistanın
enko
enkonun
enli
enlik
enliyarpaqlı
enlər
enlərin
enmis
enmə
enməsi
enn
enq
ensiklopedik
ensiklopediya
ensiklopediyası
ensiklopediyasında
ensiklopediyasının
ensiz
enstitu
entertainment
entoni
entry
environment
environmental
enə
enən
ep
epic
epidemiologiya
epidemiya
epidemiyası
epik
epiku
epiqrafik
episode
epitel
epiteli
epizod
epizodik
epizodu
equations
er
era
eradan
eramızdan
eramızın
eranın
erasmus
erazi
eren
eri
eric
eridan
erif
erigeron
erik
erin
erinin
eris
eritreya
erix
erk
erklər
erkək
erkəklər
erkən
erl
erlər
erləri
erm
ermitaj
erməni
ermənicə
ermənilər
ermənilərdən
erməniləri
ermənilərin
ermənilərlə
ermənilərə
ermənistan
ermənistana
ermənistanda
ermənistandakı
ermənistandan
ermənistanla
ermənistanı
ermənistanın
ermənistanının
ernest
ernobıl
ernst
erol
eron
eronda
eronun
erotik
eroziya
ertəsi
ervin
es
esc
eser
esi
eski
eskimos
eskiz
esko
eslav
espan
esperanto
essays
esse
esselər
est
established
ester
estetik
estetika
eston
estoniya
estoniyada
estoniyanın
estrada
et
etc
etdi
etdik
etdikcə
etdikdə
etdikdən
etdikləri
etdiklərindən
etdiklərini
etdiklərinə
etdilər
etdim
etdin
etdiniz
etdirdi
etdirdilər
etdirdiyi
etdirdiyinə
etdirib
etdirildi
etdirilib
etdirilir
etdirilmis
etdirilməsi
etdirilməsinə
etdirilən
etdirir
etdirirdi
etdirirlər
etdirmis
etdirmək
etdirməklə
etdirməsi
etdirməyi
etdirməyə
etdirə
etdirən
etdirərək
etdiyi
etdiyim
etdiyimiz
etdiyin
etdiyindən
etdiyini
etdiyiniz
etdiyinə
ethnic
eti
etibar
etibarilə
etibarlı
etibarlılıg
etibarsız
etibarı
etibarən
etik
etika
etil
etimad
etimologiya
etimologiyası
etimoloji
etiqad
etiqadlarda
etiraf
etiraz
etirazc
etirazlar
etirazlara
etirazları
etirazlarına
etirazı
etirazına
etirazını
etiya
etland
etm
etmir
etmirdi
etmirdilər
etmirlər
etmis
etmə
etmədi
etmədilər
etmədiyi
etmədiyini
etmədən
etmək
etməkdir
etməkdə
etməkdədir
etməkdən
etməklə
etməli
etməlidir
etməlidirlər
etməliyik
etmələri
etmələrini
etmələrinə
etməmis
etməmək
etməməsi
etmənin
etməsi
etməsidir
etməsin
etməsində
etməsindən
etməsini
etməsinin
etməsinə
etməsə
etməyi
etməyib
etməyin
etməyə
etməyəcək
etməyəcəyini
etməyən
etməyərək
etməz
etməzdən
etnik
etno
etnonimi
etnoqraf
etnoqrafik
etnoqrafiya
etnoqrafiyası
etnotoponimdir
etsin
etsinlər
etsə
etsək
etsələr
etsən
etsəniz
etu
etyen
eu
eupatorium
euro
europa
europe
european
eurovision
euseius
ev
eva
evakuasiya
evan
evans
evc
evdar
evdə
evdən
even
event
events
ever
everest
evi
evic
evidence
evik
eviklər
eviklərin
eviklərə
evil
evin
evində
evindən
evini
evinin
evinə
evir
evirdi
evirdə
evirib
evirir
evirmis
evirmək
evirən
evirərək
evklid
evli
evlidir
evlilik
evlilikdən
evliliyi
evliliyindən
evləndi
evləndilər
evləndirildi
evlənib
evlənir
evlənmis
evlənmək
evlənməsi
evlənən
evlər
evlərdə
evləri
evlərin
evlərində
evlərindən
evlərini
evlərinin
evlərinə
evlərə
evo
evolution
evrildi
evrildilər
evrildiyi
evrilib
evrilir
evrilirdi
evrilirlər
evrilis
evrilmis
evrilmə
evrilməsi
evrilməsinə
evrilə
evriləcək
evrilən
evrilərək
evrə
evrənin
evsiz
evski
evə
ex
example
exiya
exiyada
exiyanın
exoslovakiya
exoslovakiyanın
exov
exovun
experience
exploration
express
ey
eyb
eybani
eybi
eyda
eydir
eydə
eydən
eye
eyes
eyi
eyin
eyl
eyler
eylu
eylə
eylədi
eylədim
eyləmis
eyləmə
eylər
eylərdən
eyləri
eylərin
eylərə
eylərəm
eyləyib
eym
eyn
eyni
eyniadlı
eynidir
eynilə
eyniləs
eyns
eynəkli
eypur
eyr
eys
eytan
eytana
eytanın
eyvan
eyvaz
eyvazov
eyx
eyxi
eyxin
eyxman
eyxmanın
eyxov
eyxu
eyxəli
eyyub
eyə
ez
ezam
f
fa
fabrik
fabriki
fabrikində
fabrikinin
fac
face
facebook
faciə
faciəli
faciəsi
faciəsinin
faciəvi
fact
factor
facts
fahis
faiq
fair
faith
faiz
faizdən
faizi
faizini
faizə
fakt
faktiki
faktlar
faktlara
faktları
fakto
faktor
faktorlar
faktorları
faktorların
faktoru
faktı
faku
fakultəsi
fakultəsində
fakultəsini
fakultəsinin
fakultəsinə
falc
fall
fallout
false
famil
family
fan
fani
fantastik
fantastika
fantaziya
far
faradey
farer
fariz
fars
farsca
farsdilli
farslar
farsların
faruk
fas
fasad
fasadı
fasadın
fasadında
fasadının
fasilə
fasilədən
fasilələrlə
fasiləsiz
fat
fatda
fate
fateh
fatih
fatimi
fatimilər
fatimə
fatları
fatlarının
fatma
fatı
fatın
fatına
fatında
fatını
fatının
fauna
faunası
faxralı
fay
fayda
faydaları
faydalı
faydalıdır
faydası
fayl
faylların
faza
fazada
fazası
fazil
fc
fd
fe
feat
features
feb
february
federal
federasiya
federasiyanın
federasiyası
federasiyasında
federasiyasının
federativ
federiko
feldmars
felds
feli
feliks
feminist
feminizm
fenomen
fenomeni
fentezi
feodal
feodallar
feodalları
feodalların
ferdinand
ferdinandın
ferma
ferment
fermentlər
fermentlərin
fermer
fermerlər
fernando
ferrari
festival
festivalda
festivallar
festivallarda
festivalları
festivallarında
festivalı
festivalın
festivalında
festivalının
fettel
fevral
fevralda
fevralın
fevralında
fevralından
ff
fi
fiber
fidan
fide
field
fields
fifa
fight
fighter
fikir
fikirdə
fikirli
fikirlər
fikirləri
fikirlərin
fikirlərini
fikirlərinin
fikirlərinə
fikirlərə
fikirləs
fikr
fikri
fikrin
fikrincə
fikrində
fikrindən
fikrini
fikrinin
fikrinə
fikrə
fikrət
fil
filadelfiya
filan
filarmoniya
filarmoniyasında
filarmoniyasının
file
files
fili
filial
filialları
filialı
filialında
filialının
filip
filipp
filippin
filippinin
filis
filiz
filizi
filizləri
film
filmdir
filmdə
filmdəki
filmdən
filmi
filmidir
filmin
filmində
filmindəki
filmindən
filmini
filminin
filminə
filmlər
filmlərdə
filmlərdən
filmləri
filmlərin
filmlərində
filmlərindən
filmlərini
filmlərinin
filmlərinə
filmlərə
filmoqrafiya
films
filmə
filologiya
filologiyası
filoloq
filosof
filosoflar
filosofları
filosofların
filosofu
filosofun
fin
final
finala
finalc
finalda
finalı
finalına
finalında
finalının
financial
fincan
find
fine
finis
finlandiya
finlandiyada
finlandiyanın
fiq
fiqh
fiqur
fiqurlar
fiqurları
fiqurların
fiqurlu
fiquru
fir
firdovsi
firdovsinin
fire
firidun
firma
firmalar
firmaların
firmanın
firması
firmasının
firon
fironun
firqə
firqəsi
first
firudin
firuz
firuzə
firəng
firəngiz
fis
fischer
fit
fitnə
fitosenoloji
fitoterapiya
fitri
five
fiyyat
fiyyatc
fiyyatı
fizik
fizika
fizikanın
fizikası
fiziki
fiziklər
fizikləri
fiziologiya
fiziologiyası
fizioloji
fk
fl
fla
flag
flamand
flash
fles
fleyta
flis
flisləs
flora
florası
florasının
florensiya
florensiyada
florida
flu
flər
fm
fo
foks
fokus
folk
folklend
folklor
folklors
folkloru
folklorunda
folklorunun
fon
fond
fonda
fondları
fondu
fondun
fonduna
fondunda
fondundan
fondunun
fonetik
font
fontsize
fonunda
food
football
for
forbes
force
forces
ford
foreign
forest
form
forma
formada
formadadır
formal
formalar
formalara
formalarda
formaları
formaların
formalarına
formalarında
formalarından
formalarını
formalarının
formalas
formalı
formanın
formasiyaları
forması
formasıdır
formasına
formasında
formasındadır
formasından
formasını
formasının
format
formatda
formation
formatı
formatında
formaya
formula
formulu
fort
fortepiano
forum
forumu
forumunun
fosfat
fosfor
foster
foto
fotolar
fotoqraf
fotoqrafiya
fotoqrafları
fotoqrafı
fotos
fotosu
found
foundation
four
fox
fp
fr
fra
frac
frakiya
fraksiya
fraksiyası
fraksiyasının
frameless
framework
franc
france
francis
francisco
frank
frankfurt
franklin
franko
frans
fransa
fransada
fransadakı
fransadan
fransalı
fransanı
fransanın
fransaya
fransisk
fransisko
fransua
fransız
fransızca
fransızlar
fransızların
franz
fraqmentləri
fred
freddi
frederick
frederik
free
freedom
french
frenk
frensis
freyd
fridrix
friedrich
fritz
from
front
fru
frunze
frə
frəyə
ft
ftb
fti
ftə
fu
fuad
full
fundamental
funksional
funksiya
funksiyalar
funksiyaları
funksiyaların
funksiyalarını
funksiyalarının
funksiyanı
funksiyanın
funksiyası
funksiyasını
funksiyasının
funt
fus
fut
futbol
futbola
futbolc
futbolu
futbolunun
future
futzal
fuz
fuza
fuzlu
fuzu
fuzuna
fuzunu
fuzunun
fuzzy
fyodor
fyodorovic
fındıq
fırc
fırlanan
fırlanma
fırlanır
fırtına
fırıldaqc
fıstıq
fə
fəal
fəaliyyət
fəaliyyətdə
fəaliyyəti
fəaliyyətin
fəaliyyətində
fəaliyyətindən
fəaliyyətini
fəaliyyətinin
fəaliyyətinə
fəaliyyətlə
fəaliyyətlər
fəaliyyətləri
fəaliyyətlərini
fəaliyyətlərinin
fəaliyyətlərinə
fəaliyyətsiz
fəaliyyətsizdir
fəaliyyətə
fəalları
fəallas
fəallıg
fəallıq
fəalı
fəda
fədakar
fədakarlıg
fədakarlıq
fəg
fəhlə
fəhlələr
fəhlələri
fəhlələrin
fəhləsi
fəlakət
fəlakətlər
fəlsəfi
fəlsəfə
fəlsəfədə
fəlsəfəni
fəlsəfənin
fəlsəfəsi
fəlsəfəsində
fəlsəfəsini
fəlsəfəsinin
fəlsəfəsinə
fəlsəfəyə
fələk
fələstin
fələstində
fələstinin
fələstinli
fələstinə
fələyin
fən
fəna
fənd
fəng
fəngc
fəngi
fənlər
fənlərarası
fənləri
fənn
fənni
fənninin
fənər
fənərbaxc
fəqih
fəqir
fəqət
fər
fərat
fərd
fərdi
fərdin
fərdlər
fərdləri
fərdlərin
fərhad
fərhadın
fəribu
fərid
fəridə
fərman
fərmana
fərmanla
fərmanlar
fərmanları
fərmanı
fərmanına
fərq
fərqanə
fərqi
fərqinə
fərqli
fərqlidir
fərqləndi
fərqləndirici
fərqləndirir
fərqləndirmək
fərqləndirən
fərqləndiyinə
fərqlənib
fərqlənir
fərqlənirdi
fərqlənirlər
fərqlənmis
fərqlənmə
fərqlənməyə
fərqlənən
fərqlər
fərqləri
fərrux
fəryad
fəryadı
fərz
fərziyyə
fərziyyələr
fərzəliyev
fərəc
fərəcov
fərəh
fəsad
fəsil
fəsildə
fəsillər
fəsilə
fəsiləsi
fəsiləsindən
fəsiləsinin
fəsiləsinə
fəsiləyə
fəsli
fəslində
fəssəl
fət
fəth
fəthi
fəthindən
fəttis
fətulla
fətullayev
fətva
fətəli
fətəliyev
fəvvarə
fəvvarəsi
fəxr
fəxri
fəxrəddin
fəza
fəzada
fəzası
fəzilət
fəzl
fəzlullah
g
ga
gah
gallery
game
games
gamma
gandhi
garden
gary
gas
gasimov
gate
gavalı
gay
gazette
gazetteer
gb
ge
gec
gecikmis
gecə
gecədə
gecədən
gecələr
gecələri
gecəni
gecənin
gecəsi
gecəsində
ged
gedib
gedim
gedin
gedir
gedirdi
gedirdilər
gedirlər
gedirsən
gedirəm
gedis
gedə
gedəcək
gedək
gedən
gedəndə
gedəndən
gedənlər
gedər
gedərkən
gedərək
gel
gen
gender
general
generallar
generalları
generalı
generalın
generation
genetik
genetika
genis
genlərin
gennadi
genocide
genuya
genə
geodeziya
geofizika
geographic
geography
geokimyəvi
geological
geologiya
geologiyası
geoloji
geoloq
geoloqu
geomorfoloji
georg
george
georgi
georgia
georgian
georq
geosiyasi
ger
gerb
gerbi
gerbin
gerbinin
gerc
gerhard
geri
geridə
geriyə
german
germany
germi
geschichte
get
getdi
getdikcə
getdikdən
getdilər
getdim
getdiyi
getdiyini
getm
getmir
getmis
getmə
getmək
getməli
getməmis
getməsi
getməsini
getməsinə
getməyi
getməyə
getsin
getsə
gey
geyib
geyim
geyimdə
geyimi
geyimində
geyimli
geyimlər
geyimləri
geyindiyi
geyinib
geyinir
geyinmis
geyinən
geymis
gge
ghost
gi
gibi
gibson
gidliyə
gif
gigiyena
gil
gilan
gilanc
gilbert
gildən
gilli
giləmeyvə
gimnast
gimnastika
gimnastlar
gimnastları
gimnaziya
gimnaziyada
gimnaziyası
gimnaziyasında
gimnaziyasının
ginnesin
giovanni
gips
gir
girdi
girdilər
girdiyi
girdə
girib
girir
giris
girl
girls
girmis
girmək
girməsi
girməyə
girov
girə
girən
girəndə
girərək
gis
gitara
gitarac
gitarist
gizir
giziri
gizli
gizlicə
gizlin
gizlincə
gizləndi
gizlənir
gizlənmis
gizlənən
gizlətmək
glise
global
globe
gmbh
go
god
gogh
gold
golden
good
google
goranboy
gordon
gorus
gospel
got
gov
government
gps
grace
grand
grande
grant
gray
great
greatest
greece
greek
green
greenwich
greenwood
gridcolor
group
groups
growth
gsds
gu
guardian
guide
gun
gupta
gur
gus
guy
guya
gə
gəc
gədəbəy
gədər
gəl
gəldi
gəldik
gəldikdə
gəldikdən
gəldikləri
gəldilər
gəldim
gəldin
gəldiyi
gəldiyini
gəlib
gəliblər
gəlin
gəlincə
gəlini
gəlinin
gəlinir
gəlinmir
gəlinmis
gəlinən
gəlir
gəlirdi
gəlirdilər
gəliri
gəlirik
gəlirin
gəlirli
gəlirlə
gəlirlər
gəlirləri
gəlirlərin
gəlirlərinin
gəlis
gəlmir
gəlmirdi
gəlmis
gəlmə
gəlmədi
gəlmək
gəlməkdədir
gəlməmis
gəlməsi
gəlməsində
gəlməsindən
gəlməsini
gəlməsinin
gəlməsinə
gəlməyə
gəlməyən
gəlməz
gəlsin
gəlsə
gəlu
gələ
gələcək
gələcəkdə
gələcəyi
gələcəyin
gələcəyini
gələcəyə
gələn
gələndə
gələndən
gələni
gələnlər
gələnləri
gələnlərin
gələnə
gələr
gələrkən
gələrsə
gələrək
gəmi
gəmic
gəmidə
gəmidən
gəmilər
gəmiləri
gəmilərin
gəmilərini
gəmilərinin
gəmilərinə
gəmilərə
gəmini
gəminin
gəmiqaya
gəmiqayırma
gəmiricilər
gəmisi
gəmisində
gəmisini
gəmisinin
gəmisinə
gəmiyə
gənc
gənci
gəncin
gənclik
gəncliyi
gəncliyində
gənclər
gənclərdən
gəncləri
gənclərin
gənclərinin
gənclərə
gəncə
gəncədə
gəncədəki
gəncədən
gəncəli
gəncələrə
gəncəni
gəncənin
gəncəvi
gəncəvinin
gəncəyə
gənə
gər
gəray
gəraybəyli
gəraylı
gəraylılar
gərayın
gərc
gərgin
gərginlik
gərginliyi
gərginliyin
gərginləs
gərək
gərəkdir
gərəkli
gətir
gətirdi
gətirdikləri
gətirdilər
gətirdiyi
gətirib
gətirildi
gətirilib
gətirilir
gətirilirdi
gətirilmis
gətirilməsi
gətirilən
gətirilərək
gətirin
gətirir
gətirirdi
gətirirlər
gətirmis
gətirmə
gətirmək
gətirməsi
gətirməyi
gətirməyə
gətirsin
gətirə
gətirəcək
gətirən
gətirənlər
gətirər
gətirərək
gətu
gəvən
gəz
gəzdi
gəzib
gəzinti
gəzir
gəzmis
gəzmək
gəzməyə
gəzə
gəzən
gəzər
gəzərək
h
ha
haaqa
habbl
habelə
haber
habil
habsburq
hac
hacir
hacirlər
hacirlərin
hacirət
hacirətdə
hacı
hacıag
hacıbaba
hacıbəyli
hacıbəylinin
hacıbəyov
hacıbəyovun
hacılar
hacılı
hacınski
hacıqabul
hacıyev
hacıyeva
hacıyevin
hacızadə
had
hadena
hadi
hadinin
hadis
hadisə
hadisədir
hadisədə
hadisədən
hadisələr
hadisələrdə
hadisələrdən
hadisələri
hadisələrin
hadisələrində
hadisələrindən
hadisələrini
hadisələrinin
hadisələrinə
hadisələrlə
hadisələrə
hadisəni
hadisənin
hadisəsi
hadisəsindən
hadisəsinin
hadisəyə
hadrut
hafiz
hafizə
hafizəc
hafizəkar
hafizəkarlar
hafizəsi
hafizəsinin
hafizəsinə
haiti
hakan
hakim
hakimdir
hakimi
hakimin
hakiminin
hakimiyyət
hakimiyyətdə
hakimiyyətdən
hakimiyyəti
hakimiyyətin
hakimiyyətində
hakimiyyətindən
hakimiyyətini
hakimiyyətinin
hakimiyyətinə
hakimiyyətləri
hakimiyyətə
hakimlik
hakimliyi
hakimlər
hakimləri
hakimlərin
hakimlərinin
hakimə
hakkari
hakkı
hakkında
hal
hala
halal
halbuki
halda
haldır
half
hali
halil
halk
hall
hallar
hallara
hallarda
halları
halların
hallarına
hallarının
halqa
halqası
halı
halım
halın
halına
halında
halından
halını
halının
hamam
hamamlar
hamamı
hamamın
haman
hamar
hamardır
hamburq
hami
hamilton
hamilə
hamiləlik
hamisi
hamlet
hammer
hamı
hamıdan
hamımız
hamını
hamının
hamısı
hamısına
hamısında
hamısından
hamısını
hamısının
hamıya
han
hand
handbook
hanna
hannover
hans
hansı
hansının
hansısa
hanı
haq
haqda
haqdan
haqları
haqlarını
haqlarının
haqlı
haqq
haqqa
haqqda
haqqinda
haqqı
haqqın
haqqında
haqqındadır
haqqındakı
haqqını
haqqının
haqsız
haqsızlıq
haqverdiyev
haqverdiyevin
hara
harada
haradadır
haradan
haram
haray
haraya
hard
harda
hardan
hare
haribə
haribədə
haribədən
haribələr
haribələrdə
haribələri
haribələrində
haribələrinin
haribəni
haribənin
haribəsi
haribəsində
haribəsindəki
haribəsindən
haribəsini
haribəsinin
haribəsinə
haribəyə
haris
harmonik
harmoniya
harold
harper
harri
harrinin
harris
harrison
harry
hart
harun
harunun
harvard
harvey
has
hasan
hasar
hasib
hasibat
hasil
hasilat
hasilatı
hasili
hasirə
hasirədə
hasirədən
hasirəni
hasirənin
hasirəsi
hasirəsini
hasirəsinə
hasirəyə
hat
hatəm
hatəmxan
haus
hava
havada
havadan
havanı
havanın
havası
havay
havaya
have
hay
hayatı
hayfa
haz
hazirə
hazirələr
hazır
hazırda
hazırdır
hazırki
hazırkı
hazırladı
hazırladıg
hazırladıqları
hazırlama
hazırlamag
hazırlamaq
hazırlamıs
hazırlanan
hazırlandı
hazırlandıg
hazırlanma
hazırlanması
hazırlanmasına
hazırlanmasında
hazırlanmasını
hazırlanmıs
hazırlanıb
hazırlanır
hazırlanırdı
hazırlas
hazırlayan
hazırlayaraq
hazırlayıb
hazırlayır
hazırlayırdı
hazırlayırdılar
hazırlayırlar
hazırlıg
hazırlıq
hb
hbət
hbəti
hbətlər
hcl
hd
hdəlik
hdəlikləri
hdəliyi
hdəsindən
hdəsinə
he
head
health
heart
heaven
heavy
hec
heca
heidelberg
height
heinrich
heinz
hekayə
hekayədə
hekayələr
hekayələri
hekayələrini
hekayəni
hekayənin
hekayəsi
hekayəsində
hekayəsindən
hekayəsini
hekayəsinin
hekayəti
hektar
hektara
hektardan
hektardır
hektarlıq
hektarı
helen
helena
helikopter
helikopteri
helium
hell
hello
hellouin
helmut
help
helsinki
henk
henri
henrik
henrinin
henrix
henry
hepatit
her
herakl
herald
herat
herbert
here
heris
heritage
herkules
herman
hermann
hermes
hermiona
hero
herodot
herodotun
heroes
hers
herseqovina
herseqovinanın
hersoq
hersoqlug
hersoqu
hes
hesab
hesaba
hesabat
hesabatda
hesabatlar
hesabatları
hesabatı
hesabatına
hesabatında
hesabda
hesabla
hesablama
hesablamalar
hesablamalara
hesablamalarda
hesablamalarına
hesablamaq
hesablanamıs
hesablanan
hesablanması
hesablanmıs
hesablanır
hesabları
hesablas
hesablı
hesabsız
hesabı
hesabına
hesabında
het
hey
heybət
heyd
heydar
heydər
heydərin
heydərov
heykəl
heykəli
heykəlin
heykəlini
heykəlinin
heykəllər
heykəlləri
heykəllərin
heykəltəras
heyran
heyrət
heyrətamiz
heyrətə
heyva
heyvan
heyvanat
heyvandarlıg
heyvandarlıq
heyvandarlıqla
heyvanlar
heyvanlara
heyvanlarda
heyvanlardan
heyvanlarla
heyvanları
heyvanların
heyvanlarının
heyvanı
heyvanın
heyət
heyətdə
heyəti
heyətin
heyətində
heyətini
heyətinin
heyətinə
heyətlə
heyətləri
heyətə
hfə
hfələr
hfələri
hfəsi
hfəsini
hhq
hi
hibrid
hic
hicaz
hicr
hicran
hicri
hicrət
hicrətin
hidayət
hidra
hidravlik
hidrogen
hidrogenin
hidroloji
hidrometeoroloji
hidrotermal
hidrotexniki
hifz
high
higher
hikmət
hikməti
hikmətin
hikmətli
hilal
hill
hills
hilmi
hilton
him
himalay
himayə
himayəc
himayədarlıq
himayədarı
himayəsi
himayəsində
himayəsinə
himn
himni
hind
hindi
hindistan
hindistana
hindistanda
hindistandakı
hindistandan
hindistanı
hindistanın
hindli
hindu
hinduizm
hindular
hip
hirkan
hiros
his
hisar
hiss
hissi
hissini
hisslər
hissləri
hisslərini
hissə
hissəcik
hissəciklər
hissəcikləri
hissəciklərin
hissəciklərinin
hissədə
hissədən
hissəli
hissələr
hissələrdə
hissələrdən
hissələri
hissələrin
hissələrində
hissələrindən
hissələrini
hissələrinin
hissələrinə
hissələrə
hissəni
hissənin
hissəsi
hissəsidir
hissəsində
hissəsindəki
hissəsindən
hissəsini
hissəsinin
hissəsinə
hissəyə
histoire
historia
historical
history
hit
hitdə
hitdən
hiti
hitin
hitində
hitinin
hitinə
hitler
hitlerin
hitlə
hits
hitə
hiv
hiylə
hiyləgər
hk
hkəm
hkəmliyi
hkəmləndirdi
hkəmləndirilmis
hkəmləndirilməsi
hkəmləndirmək
hkəmlənməsi
hkəmlənməsinə
hl
hli
hlət
hm
hms
hn
hnə
hnəlmis
ho
hoc
hokkaydo
holding
holdinq
holl
holland
hollandiya
hollandiyada
hollandiyalı
hollandiyanın
hollandlar
hollivud
hollivudda
hollywood
holocaust
holokost
hols
holt
holy
home
homer
homo
homoseksual
honda
honduras
honekker
hong
honkonq
honor
honq
hook
hop
hope
hopkins
hoqvarts
horadiz
horizontal
hormon
hos
hospital
hot
hotel
house
hovard
hovuz
hovuzu
how
howard
hp
hr
hrab
hran
hrandan
hranı
hranın
hrsg
hru
hrə
hrət
hrəti
hrətini
hrətli
hrəvərdi
hs
hsan
hsu
htac
htan
htm
html
http
https
htərəm
htəs
hu
hud
hudson
hugh
human
humanist
humanitar
humanizm
humay
humboldt
hun
hungarian
hungary
hunlar
hunların
hur
hurand
hurdur
huri
hurları
hurlas
hurlug
hurluq
huru
hus
hv
hyu
hyuston
hz
hə
həbib
həbibbəyli
həbibi
həbs
həbsdə
həbsdən
həbsi
həbsxana
həbsxanada
həbsxanadan
həbsxanasına
həbsxanasında
həbsxanaya
həbsə
həbəs
həcc
həccə
həcm
həcmdə
həcmi
həcmində
həcmini
həcminin
həcminə
həcmli
həcər
həd
hədd
həddi
həddində
həddindən
həddini
həddinə
həddə
həddən
hədis
hədisi
hədislər
hədiyyə
hədiyyələr
hədiyyələri
hədiyyələrlə
hədiyyəsi
hədsiz
hədə
hədəf
hədəfi
hədəfinə
hədəflər
hədəfləri
hədəfə
həftə
həftədə
həftədən
həftəlik
həftənin
həftəsi
həftəsində
həftəsonu
həkim
həkimi
həkimin
həkimlər
həkimləri
həkimlərin
həkimə
həkk
həkəri
həlak
həll
həlledici
həlli
həllində
həllini
həllinin
həllinə
hələ
hələb
hələdə
hələlik
həm
həmc
həmcinin
həmcins
həmd
həmdullah
həmdə
həmdəm
həmid
həmidov
həmidə
həmilton
həmin
həmis
həmkarlar
həmkarları
həmkarı
həmlə
həmmu
həmrəylik
həmrəyliyi
həmsədri
həmsərhəd
həmsərhəddir
həmtəsisc
həmyas
həmzə
həmədan
həmədana
həmən
həndbolc
həndis
həndisi
həndislik
həndisliyi
həndislər
həndisləri
həndəsi
həndəsə
hənifə
hənuz
hənəfi
həp
həq
həqiqi
həqiqət
həqiqətdə
həqiqəti
həqiqətin
həqiqətlər
həqiqətləri
həqiqətə
həqiqətən
həqq
hər
hərb
hərbc
hərbdə
hərbi
hərbic
hərbində
hərc
hərdən
hərf
hərfi
hərflər
hərfləri
hərflərlə
hərgiz
hərrik
hərriki
hərrikin
hərrikli
hərriklər
hərrikləri
hərtərəfli
hərə
hərəkat
hərəkata
hərəkatlar
hərəkatları
hərəkatı
hərəkatın
hərəkatına
hərəkatında
hərəkatını
hərəkatının
hərəki
hərəkət
hərəkətdə
hərəkəti
hərəkətin
hərəkətini
hərəkətinin
hərəkətinə
hərəkətli
hərəkətlər
hərəkətləri
hərəkətlərin
hərəkətlərindən
hərəkətlərini
hərəkətlərinin
hərəkətlərinə
hərəkətlərə
hərəkətsiz
hərəkətsizdir
hərəkətverici
hərəkətə
hərəm
hərəmi
hərəsi
həs
həsr
həsrət
həsrəti
həssas
həssasdır
həssaslıg
həssaslıq
həsəd
həsən
həsənag
həsəni
həsənin
həsənli
həsənog
həsənov
həsənova
həsənovun
həsənzadə
həsənə
həsənəli
hətta
həv
həvalə
həvari
həvarilərin
həvva
həvəs
həvəsi
həvəskar
həvəskarlar
həvəskarları
həvəslə
həyat
həyata
həyatda
həyatdan
həyati
həyatla
həyatları
həyatlarını
həyatı
həyatım
həyatın
həyatına
həyatında
həyatındakı
həyatından
həyatını
həyatının
həyəcan
həyəcanlı
həyət
həyətdə
həyəti
həyətin
həyətində
həyətinə
həyətə
həzi
həzin
həzm
həzrət
həzrəti
həzrətin
həzz
i
ia
ian
iana
ianə
ias
ib
iba
ibadət
ibadətgahı
ibarət
ibarətdir
iblər
ibm
ibn
ibni
ibrahim
ibrani
ibrət
ibtidai
ibutani
ibəy
ibəyin
ic
icad
icarə
icarəyə
icazə
icazəsi
icazəsiz
icbari
ice
ici
icik
icilər
icilərin
iclas
iclasda
iclaslarında
iclası
iclasında
icma
icmal
icmalar
icmaları
icmaların
icmalı
icmanın
icması
icmasına
icmasının
icon
icra
icrac
icraedici
icraiyyə
icrası
icrasına
icrasını
ictimai
ictimaiyyət
ictimaiyyəti
ictimaiyyətin
ictimaiyyətinin
ictimaiyyətinə
ictimaiyyətə
icəsinə
id
ida
idarə
idarəc
idarəedici
idarəetmə
idarəetmənin
idarəetməsi
idarələri
idarələrində
idarələrinin
idarənin
idarəsi
idarəsində
idarəsindəki
idarəsini
idarəsinin
idarəsinə
idbanu
iddia
iddiac
iddialar
iddiaları
iddialarına
iddialarını
iddialı
iddianı
iddiası
iddiasına
iddiasını
iddə
iddət
iddəti
iddətli
iddətlə
idea
ideal
idealist
identifikasiya
identity
ideologiya
ideologiyası
ideologiyasının
ideoloji
ideya
ideyalar
ideyaları
ideyaların
ideyalarına
ideyalarını
ideyalarının
ideyanı
ideyanın
ideyası
ideyasına
ideyasını
ideyasının
idi
idib
idik
idilir
idilər
idim
idin
idini
idinin
idir
idisə
idli
idlər
idləri
idman
idmanc
idmanla
idmanı
idmanın
idmanında
idrak
idu
idxal
idxalı
idze
idə
idəddin
idən
idəndə
ie
ieee
if
ifa
ifac
ifadə
ifadəli
ifadələr
ifadələri
ifadəsi
ifadəsini
ifadəsinin
ifadəsinə
ifahi
ifası
ifasında
ifasını
iflasa
iflic
ifrat
ifraz
ifrazat
ifs
ig
igid
igidlik
igidliyi
igidliyin
ign
ih
ihabəddin
ii
iii
iiiq
iiiqd
iiq
ik
ika
ikada
ikag
ikalı
ikanın
ikaqo
ikaqoda
ikar
ikayət
ikayəti
ikc
ikdir
iki
ikili
ikimərtəbəli
ikinci
ikincili
ikincisi
ikiqat
ikisi
ikisində
ikisini
ikisinin
ikisinə
ikitərəfli
ikiu
ikiyə
iklik
ikliklər
ikliklərdən
iklikləri
ikliklərin
ikliklərlə
ikliklərə
ikliyi
ikliyinin
ikliyinə
ikliyə
iklər
ikləri
ikov
iktas
ikən
ikəst
il
ila
ilahi
ilahiyyat
ilahiyyatc
ilahə
ilahəsi
ilan
ilanlar
ilanı
ilc
ild
ildi
ildikdən
ildir
ildiyi
ildo
ildırım
ildə
ildəki
ildən
ile
ilham
ilhamlanaraq
ilhamlanmıs
ilhaq
ili
ilib
ilidə
ilik
ilikdə
ilikdən
iliklə
ilin
ilində
ilindən
ilingər
ilini
ilinin
ilinə
ilir
ilirdi
ilirlər
ilis
iliyi
iliyin
iliyində
iliyini
iliyinin
iliyinə
iliyə
ilk
ilki
ilkin
ill
illik
illiyi
illiyinə
illu
illustrated
illə
illər
illərdir
illərdə
illərdəki
illərdən
illəri
illərin
illərində
illərindən
illərini
illərinin
illərinə
illərlə
illərə
ilmis
ilmə
ilmək
ilməsi
ilməsini
ilməsinə
ilməz
ilov
iltihab
iltihabi
iltihabı
ilə
ilədək
ilən
ilər
ilərdə
ilərdən
iləri
ilərin
ilərindən
ilərini
ilərinin
ilərinə
ilərlə
ilərə
ilərək
im
ima
image
images
imagesize
imal
imala
imalda
imaldakı
imaldan
imali
imalı
imalına
imalında
imalındakı
imalından
imam
imamı
iman
imanı
imanın
imarət
imax
imdb
imdi
imdə
img
imi
imin
imini
imis
imiz
imkan
imkanlar
imkanları
imkanlarına
imkanlarından
imkanlarını
imkanlarının
imkanlı
imkanı
imkanına
imkanını
imli
imləri
immiqrasiya
immun
immunitet
imov
impact
imperator
imperatora
imperatorları
imperatorlug
imperatoru
imperatorun
imperatorunun
imperatric
imperial
imperialist
imperiya
imperiyanın
imperiyası
imperiyasına
imperiyasında
imperiyasından
imperiyasını
imperiyasının
important
impuls
ims
imtahan
imtahanı
imtina
imtiyaz
imtiyazlar
imtiyazlı
imza
imzaladı
imzaladıg
imzaladılar
imzalamag
imzalamıs
imzalanan
imzalandı
imzalanması
imzalanmıs
imzalanıb
imzalanır
imzalayan
imzalayaraq
imzalayıb
imzalayır
imzası
imərlik
imərliyi
in
ina
inam
inamla
inamlı
inamı
inamını
inan
inanan
inanc
inanclar
inancları
inancı
inancına
inancında
inandıg
inandırmag
inandırıcı
inanmaq
inanılmaz
inanılır
inanır
inanırdı
inanırdılar
inanırlar
inar
inc
inci
incisi
including
increment
incə
incəsənət
incəsənətdə
incəsənəti
incəsənətin
incəsənətində
incəsənətinin
incəsənətə
ind
inde
indeks
indeksi
independence
independent
index
indi
india
indian
indiana
indiki
individual
indiyə
indiyədək
indonesia
induksiya
industrial
industry
ində
indəki
indən
infarkt
infeksion
infeksiya
infeksiyası
influence
inflyasiya
info
informasiya
informasiyanı
informasiyanın
informatika
information
infraqırmızı
infrastruktur
infrastrukturu
infrastrukturun
infrastrukturunun
infty
ing
ingilis
ingiliscə
ingilisdilli
ingilislər
ingilislərin
ingilislərə
ingiz
ingizog
ini
inin
ininin
inkar
inkis
inli
inlilər
inlilərin
inlə
inlər
inləri
inlərin
inn
innovasiya
innovativ
ino
inq
inqilab
inqilaba
inqilabc
inqilabdan
inqilabi
inqilabı
inqilabın
inqilabına
inqilabından
inqilabının
inqton
inqtonda
inqus
ins
insan
insana
insanda
insandan
insandır
insani
insanla
insanlar
insanlara
insanlarda
insanlardan
insanlarla
insanları
insanların
insanlıg
insanlıq
insanı
insanın
insee
inside
inski
inskinin
inspektor
instagram
institusional
institut
instituta
institutda
institute
institutları
institutu
institutun
institutuna
institutunda
institutunun
instrumental
int
intel
intellekt
intellektual
intelligence
intensiv
intensivliyi
intensivləs
inteqral
inteqrasiya
inteqrasiyası
interactive
interaktiv
interfeysi
interior
internat
international
internet
internetdə
internetə
interview
interyer
interyeri
intibah
intihar
intiqam
intiqamını
intizam
intizamı
into
intonasiya
introduction
introduksiya
investigation
investisiya
investisiyalar
investisiyaların
inyov
inzibatc
inzibati
inə
inək
io
iog
ion
ionları
ionlas
ios
ip
iphone
ipponla
ipək
ipəkc
iq
iqamətgahı
iqan
iqi
iqin
iqlim
iqlimi
iqlimin
iqliminə
iqlimə
iqtidar
iqtidarında
iqtisad
iqtisadc
iqtisadi
iqtisadiyyat
iqtisadiyyata
iqtisadiyyatda
iqtisadiyyatı
iqtisadiyyatın
iqtisadiyyatına
iqtisadiyyatında
iqtisadiyyatını
iqtisadiyyatının
ir
ira
iradə
iradəsi
iradəsini
irak
iran
iranian
iranica
iranlı
iraq
iraz
irazda
irazi
ircog
irdi
irdikdən
irdikləri
irdilər
irdiyi
irdiyini
irfiziki
iri
irib
iribuynuzlu
irici
iricilik
iricilər
iridir
irildi
irildikdən
irildiyi
irilib
irilir
irilirdi
irilmis
irilmə
irilməlidir
irilməsi
irilməsində
irilməsindən
irilməsini
irilməsinin
irilməsinə
irilməyə
irilə
iriləcək
iriləcəyi
irilən
irilərək
irimiqyaslı
irin
irini
irinin
irinli
irinov
irinə
irir
irirdi
irirdilər
irirlər
iris
irk
irkab
irkin
irkli
irklənmis
irklənmə
irklənməsi
irkət
irkətdə
irkəti
irkətidir
irkətin
irkətində
irkətini
irkətinin
irkətinə
irkətlər
irkətləri
irkətlərin
irkətlərindən
irkətlərinin
irkətlərə
irkətə
irland
irli
irlər
irmis
irmə
irmək
irməklə
irməsi
irməyi
irməyə
irniyyat
iro
iron
irov
irq
irqc
irqdən
irqi
irs
irsi
irsin
irsini
irsinin
irsinə
irsə
irsən
irtdi
irvan
irvana
irvanda
irvani
irvaninin
irvannəs
irvans
irvanı
irvanın
irə
irəli
irəlidə
irəlilədi
irəlilədilər
irəliləmis
irəliləmək
irəliləməsi
irəliləməyə
irəliləyir
irəliləyis
irəliləyən
irəliləyərək
irəliyev
irəliyə
irəm
irən
irərkən
irərək
irəsi
irəvan
is
isbat
isbn
isi
isidir
isim
isindən
isini
isinin
isinə
islah
islahat
islahatc
islahatlar
islahatlara
islahatları
islahatların
islahatı
islam
islama
islamc
islami
islamic
islamı
islamın
island
islands
ismayıl
ismi
iso
ispan
ispanlar
israel
israeli
israr
issn
issue
issues
ist
istanbul
istedad
istedadlı
istedadı
istedadını
istefa
istefası
istefasını
istefaya
istehkam
istehkamlar
istehkamları
istehlak
istehlakc
istehlakı
istehsal
istehsala
istehsalat
istehsalc
istehsalı
istehsalın
istehsalına
istehsalında
istehsalını
istehsalının
istehza
isti
istifadə
istifadəc
istifadədə
istifadəni
istifadənin
istifadəsi
istifadəsində
istifadəsini
istifadəsinin
istifadəsinə
istifadəyə
istila
istilası
istilik
istiliyi
istiliyin
istiləs
istinad
istinadlar
istinadən
istintaq
istiot
istiqamət
istiqamətdə
istiqamətdən
istiqaməti
istiqamətində
istiqamətindəki
istiqamətindən
istiqamətini
istiqamətinin
istiqamətinə
istiqamətli
istiqamətlənir
istiqamətlənmis
istiqamətlər
istiqamətlərdə
istiqamətləri
istiqamətlərində
istiqamətlərindən
istiqamətlərini
istiqamətə
istiqlal
istiqlaliyyət
istirahət
istismar
istismara
istismarı
istisna
istixana
istlər
istədi
istədikdə
istədikləri
istədiklərini
istədilər
istədim
istədiyi
istədiyini
istək
istəkləri
istəklərini
istəklərinə
istəmir
istəmirdi
istəmirdilər
istəmirəm
istəmis
istəmədi
istəmək
istəməsi
istəməyən
istəməz
istənilən
istər
istərsə
istərəm
istəsə
istəsən
istəyi
istəyib
istəyini
istəyinə
istəyir
istəyirdi
istəyirdilər
istəyirik
istəyirlər
istəyirsən
istəyirəm
istəyə
istəyən
istəyəndə
istəyənlər
istəyərkən
isu
isvec
isə
isən
it
ita
italian
italiyalı
italy
italyan
italyanlar
itaət
itaətsizlik
itdi
itdim
itdiyi
ithaf
iti
itib
itir
itirdi
itirdilər
itirdiyi
itirib
itirilmis
itirilməsi
itirir
itirmis
itirmək
itirməsi
itirməyə
itirən
itirərək
itki
itkilər
itkiləri
itkilərə
itkin
itkisi
itkisinə
itlər
itmis
itmə
itmək
itməsi
its
ittifaq
ittifaqa
ittifaqda
ittifaqları
ittifaqı
ittifaqın
ittifaqına
ittifaqının
ittiham
ittihamlar
ittihamları
ittihamı
itunes
iucn
iv
iva
ivan
ivanov
ivlendi
ivrit
ivə
ivədə
ivələri
ivəsi
ivəsində
ix
ixrac
ixracat
ixracatı
ixracı
ixtilaf
ixtira
ixtirac
ixtiraları
ixtiranın
ixtirası
ixtisar
ixtisas
ixtisasartırma
ixtisaslar
ixtisasları
ixtisaslas
ixtisaslı
ixtisası
ixtisasına
ixtisasını
ixtiyar
ixtiyari
ixtiyarı
ixtiyarına
ixtiyarında
iy
iya
iyesi
iyev
iyeva
iyevin
iyi
iyin
iyində
iyinə
iyirmi
iyli
iylə
iynə
iynəyarpaqlı
iyrənc
iyul
iyulda
iyulun
iyulunda
iyulundan
iyun
iyunda
iyunun
iyununda
iyə
iz
izah
izahat
izahlı
izahı
izdiham
izhar
izi
izin
izinə
izlə
izlədi
izləmis
izləmək
izləməyə
izlər
izləri
izlərini
izləyici
izləyir
izləyən
izm
izn
izolyasiya
iztirab
izzət
iə
iələr
iələrin
j
ja
jack
jackson
jacob
jak
james
jan
jandarm
jandarma
jane
janeyro
janeyroda
janna
janr
janrda
janrlarda
janrları
janrlarında
janrlı
janrı
janrın
janrına
janrında
janrının
january
japan
japanese
java
jazz
jdə
jdəsi
je
jean
jen
jermen
jersey
jerusalem
jesus
jet
jeti
jetli
jetlər
jewish
jews
ji
jim
jin
jo
joan
joe
johann
john
johns
johnson
jon
jonathan
jones
jordan
jorj
jose
joseph
jou
journal
journey
jozef
jpeg
jpg
jr
js
jstor
ju
juan
julius
july
jump
jun
june
jung
jupiter
jurinea
jurnal
jurnalda
jurnalist
jurnalisti
jurnalistika
jurnalistlər
jurnalistləri
jurnalistlərin
jurnalistlərə
jurnallar
jurnallarda
jurnalları
jurnalların
jurnallarında
jurnallarının
jurnalı
jurnalın
jurnalına
jurnalında
jurnalından
jurnalını
jurnalının
just
justice
justify
jyp
k
ka
kabab
kabarda
kabardin
kabel
kabil
kabinet
kabineti
kabinetində
kabinetinin
kabinetinə
kabus
kac
kadar
kadet
kadokawa
kadr
kadrlar
kadrları
kadrların
kadın
kafat
kafata
kafatc
kafatla
kafatlandırma
kafatlandırılmıs
kafatlar
kafatlara
kafatları
kafatlarına
kafatlarında
kafatlarını
kafatlarının
kafatı
kafatın
kafatına
kafatını
kafatının
kafe
kafedra
kafedrada
kafedral
kafedralı
kafedralın
kafedralının
kafedranın
kafedrası
kafedrasına
kafedrasında
kafedrasının
kafi
kafir
kafirlər
kafirlərin
kafirlərə
kafka
kafkanın
kag
kahin
kahinlər
kainat
kainatda
kainatı
kainatın
kakao
kal
kala
kalankatlı
kalar
kalas
kalası
kale
kaliforniya
kaliforniyada
kaliforniyanın
kalimantan
kalininqrad
kalium
kalsium
kam
kama
kamal
kamalın
kaman
kamanc
kamaz
kamboca
kamc
kamera
kameral
kamerası
kamerun
kamil
kamilləs
kampaniya
kampaniyası
kampaniyasına
kampaniyasının
kampus
kampusda
kampusu
kampusunda
kamran
kamu
kan
kanada
kanadada
kanadalı
kanadanın
kanadaya
kanal
kanalizasiya
kanallar
kanalları
kanallarında
kanallarının
kanalı
kanalın
kanalına
kanalında
kanalının
kanar
kanc
kanlıg
kann
kano
kansler
kansleri
kant
kanton
kantonun
kantonuna
kanyon
kanzas
kanı
kanın
kapella
kapellanın
kapellası
kapital
kapitalist
kapitalizm
kapitalizmin
kapitalı
kapitalın
kapitalının
kapitan
kapitanı
kaptan
kar
kara
karabakh
karantin
karate
karbohidrogen
karbohidrogenlər
karbohidrogenlərin
karbon
karbonat
karbonatlı
kardinal
kardiologiya
karel
karen
karg
kargu
karib
karikatura
karl
karla
karlanması
karlanmıs
karlanır
karları
karlo
karlos
karlın
karlıq
karmen
karolina
karpat
kars
karst
kart
karter
kartları
kartli
kartoc
kartof
kartoqrafiya
kartı
karvan
karvansara
karvansarası
karvansaray
karvanı
karyera
karyerası
karyerasına
karyerasında
karyerasını
karyerasının
karı
kas
kasa
kasacıg
kaspi
kassa
kastamonu
kastiliya
kastro
kasıb
kasım
katalan
katalitik
kataliz
katalizator
kataloniya
kataloq
kataloqda
kataloqu
katarina
katayama
kateqoriya
kateqoriyalar
kateqoriyaları
kateqoriyalı
kateqoriyası
kateqoriyasına
kateqoriyasında
kateqoriyaya
katerina
katib
katibi
katibinin
katiblik
katibləri
katma
katolik
katoliklər
katolikləri
katolikos
katolikosu
kauc
kaunas
kaxeti
kaxetiya
kay
kaya
kaynag
kayseri
kazak
kazaklar
kazakları
kazakların
kazan
kazanda
kazım
kazımov
kazımova
kazımovanın
kazımzadə
kb
kc
kcu
kcə
kd
kdas
kdir
kdu
kdə
kdədir
kdən
ke
kec
kef
kek
kelli
kelt
kelvin
kemal
kembric
ken
keniya
kennedi
kennedinin
kennet
kenneth
kent
kepler
keramik
keramika
kerc
keriya
kerol
kerosin
kerri
kes
keti
ketlin
ketrin
kevin
key
keyfiyyət
keyfiyyətcə
keyfiyyəti
keyfiyyətini
keyfiyyətinin
keyfiyyətinə
keyfiyyətli
keyfiyyətlər
keyfiyyətləri
keyfiyyətə
keyn
keyqubad
keyt
kg
kh
khan
ki
kibernetika
kibi
kic
kids
kidə
kifayət
kifayətdir
kikboksinq
kil
kilat
kilata
kilatc
kilatda
kilati
kilatlar
kilatlara
kilatlarda
kilatlarla
kilatları
kilatların
kilatlarına
kilatlarında
kilatlarından
kilatlarının
kilatı
kilatıdır
kilatın
kilatına
kilatında
kilatını
kilatının
kili
kilik
kilikiya
kilində
kilinə
kiliyə
kill
kilometr
kilometrdir
kilometrlik
kilometrə
kiloqram
kilsə
kilsədə
kilsədən
kilsələr
kilsələri
kilsələrin
kilsələrinin
kilsəni
kilsənin
kilsəsi
kilsəsində
kilsəsindən
kilsəsini
kilsəsinin
kilsəsinə
kilsəyə
kilər
kilərdə
kilərdən
kiləri
kilərin
kilərində
kilərindən
kilərinin
kilərinə
kilərə
kim
kimdi
kimdir
kimdən
kimi
kimidir
kimin
kiminsə
kimlik
kimliyi
kimliyini
kimlər
kimsə
kimsən
kimsənin
kimsəsiz
kimsəyə
kimya
kimyac
kimyanın
kimyası
kimyəvi
kimə
kin
kinci
kincisi
kinematoqrafc
kinematoqrafiya
kinetik
king
kingdom
kings
kini
kinin
kino
kinoda
kinofestivalı
kinofestivalında
kinolent
kinolentdə
kinorejissor
kinorejissoru
kinostudiyası
kinostudiyasında
kinostudiyasının
kinosu
kinosunun
kinoteatr
kinoteatrlarda
kinoteatrı
kinoya
kinq
kinqin
kins
kioto
kip
kipr
kiprdə
kiprin
kiqat
kir
kira
kiran
kirayə
kiril
kirin
kirman
kirmans
kirov
kirovabad
kirpi
kirs
kis
kisi
kiss
kisə
kisəsi
kit
kita
kitab
kitaba
kitabc
kitabda
kitabdan
kitabdır
kitabi
kitablar
kitablara
kitablarda
kitablardan
kitabları
kitabların
kitablarına
kitablarında
kitablarından
kitablarını
kitablarının
kitabxana
kitabxanac
kitabxanada
kitabxanalar
kitabxanaları
kitabxananın
kitabxanası
kitabxanasına
kitabxanasında
kitabxanasının
kitabxanaya
kitabı
kitabıdır
kitabın
kitabına
kitabında
kitabından
kitabını
kitabının
kitabə
kitabədə
kitabələr
kitabənin
kitabəsi
kitabəsində
kitap
kiyev
kiyevdə
kiyə
kk
kkal
kl
klara
klark
klarnet
klassik
klaus
klaviatura
klavis
klement
kleopatra
klinik
kliniki
klinton
klip
klipi
klipin
klivlend
klod
klu
klub
kluba
klubda
klubdan
klublar
klublararası
klubları
klubların
klublarında
klublarından
klublarının
klubu
klubudur
klubun
klubuna
klubunda
klubundan
klubunu
klubunun
klə
kləmə
klənmis
klənmə
klənməsi
klər
klərdə
klərdən
kləri
klərin
klərində
klərindən
klərini
klərinin
klərinə
klərlə
klərə
km
kmdar
kmdarlar
kmdarları
kmdarların
kmdarlarının
kmdarlıg
kmdarlıq
kmdarı
kmdarın
kmdarının
kmləri
kmranlıg
kmranlıq
kmu
kmə
kmək
kmən
kməsi
kn
knar
knight
know
knowledge
known
knut
knyaz
knyazları
knyazlıg
knyazlıq
knyazı
ko
koalisiya
koalisiyası
kobalt
kobud
koc
kod
koda
kodansha
kodlara
kodlas
kodu
kog
kokand
kokos
kol
kola
kolanı
kolc
koldur
kolin
kollar
kolları
kollec
kollecdə
kolleci
kollecin
kollecində
kollecini
kollecinin
kollecinə
kollegiyasının
kolleksiya
kolleksiyac
kolleksiyaları
kolleksiyası
kolleksiyasına
kolleksiyasında
kolleksiyasını
kolleksiyasının
kollektiv
kollektivi
kollektivin
kollektivləs
kollektor
kolloid
kolluqlar
kolluqlarda
koloniya
koloniyalar
koloniyaları
koloniyası
kolorado
kolumb
kolumbiya
kolumbiyanın
kolxoz
kolxozc
kolxozda
koma
komanda
komandada
komandadan
komandalar
komandaları
komandaların
komandalarının
komandan
komandanlıg
komandanlıq
komandanı
komandanın
komandası
komandasına
komandasında
komandasını
komandasının
komandaya
komandir
komandiri
komandirinin
komandirlər
komandirləri
kombat
kombinatı
komediya
komediyası
komendant
komendantı
komi
komik
komiks
komiksinin
komissar
komissarları
komissarlıg
komissarı
komissarının
komissiya
komissiyanın
komissiyası
komissiyasına
komissiyasında
komissiyasının
komissiyaya
komitə
komitələri
komitələrinin
komitənin
komitəsi
komitəsində
komitəsinin
komitəsinə
komitəyə
kommersiya
kommuna
kommunal
kommunaları
kommunanın
kommunası
kommunikasiya
kommunist
kommunistlər
kommunistləri
kommunistlərin
kommunizm
kommunizmin
kompakt
kompaniya
kompaniyası
kompaniyasının
kompensasiya
kompleks
kompleksdə
kompleksi
kompleksidir
kompleksin
kompleksində
kompleksinin
kompleksinə
kompleksləri
komplekslərinin
kompleksə
komponent
komponenti
komponentlər
komponentləri
komponentlərin
komponentlərindən
komponentlərinin
kompozisiya
kompozisiyaları
kompozisiyanın
kompozisiyası
kompozisiyasının
kompozit
kompu
komsomol
komsomolu
kon
konan
konfederasiya
konfederasiyalar
konfederasiyası
konfederasiyasının
konflikt
konfrans
konfransda
konfranslar
konfranslarda
konfransların
konfransı
konfransın
konfransına
konfransında
konfransının
kong
kongresi
konkisu
konkret
konnor
konq
konqo
konqres
konqresdə
konqresi
konqresin
konqresində
konqresinin
konrad
konsentrasiya
konsentrasiyası
konsepsiya
konsepsiyası
konsepsiyasını
konsepsiyasının
konseptual
konsert
konsertdə
konserti
konsertin
konsertində
konsertlər
konsertlərdə
konsertləri
konserv
konservasiya
konservativ
konservatoriyası
konservatoriyasında
konservatoriyasının
konspekti
konstantin
konstantinin
konstantinopol
konstantinopola
konstantinopolun
konstitusiya
konstitusiyada
konstitusiyalı
konstitusiyanın
konstitusiyası
konstitusiyasına
konstitusiyasında
konstitusiyasını
konstitusiyasının
konstitusiyaya
konstruksiya
konstruksiyası
konstruktiv
konstruktor
konsul
konsullug
konsulluq
konsulu
kontakt
kontekstdə
kontekstində
kontinental
konus
konusvari
konvensiya
konvensiyanın
konvensiyası
konvensiyasına
konvensiyasının
konya
kooperasiya
kooperativ
koordinasiya
koordinat
koordinatlarla
koordinatları
koordinatoru
kopenhagen
kor
korc
korea
korean
koreya
koreyada
koreyalı
koreyanı
koreyanın
koreyaya
korinf
korkotyan
korog
koronavirus
korporasiyası
korporativ
korpus
korpusu
korpusun
korpusuna
korpusunun
korroziya
korrupsiya
korrupsiyaya
korsika
kortəbii
kos
kosa
kosmetik
kosmik
kosmos
kosmosa
kosmosda
kosmosdan
kosmosun
kosova
kosovo
kosta
kostyum
kostyumu
kot
kov
kova
kovalent
koza
kp
kq
kr
krakov
kral
krala
kralic
krallar
kralları
krallarının
krallıg
krallıq
krallıqda
kralı
kralın
kralının
kran
krasnodar
krasnoyarsk
krater
krateri
kredit
kreditlər
krekinq
krem
kreml
kremlin
kreyser
kriminal
kris
kristal
kristallar
kristalları
kristallas
kristallik
kristian
kristin
kristina
kristof
kristofer
krit
kritik
kross
krossover
kru
kruz
krım
krıma
krımda
krımın
ks
ksek
ksemburq
kserofit
ksu
ksək
ksəkdir
ksəkdə
ksəklik
ksəklikdir
ksəklikdə
ksəklikdədir
ksəklikdən
ksəkliklər
ksəkliklərdə
ksəklikləri
ksəkliyi
ksəkliyə
ksəldi
ksəldilməsi
ksəlib
ksəlir
ksəlis
ksəlmis
ksəlməsi
ksəlməsinə
ksəlməyə
ksəltmək
ksələ
ksələn
kt
ktp
ku
kub
kuba
kuban
kubanın
kubik
kubinka
kubmetr
kubok
kuboklar
kuboklarında
kuboku
kubokun
kubokuna
kubokunda
kubokunu
kubokunun
kuc
kufi
kufə
kuin
kuk
kukla
kul
kulinariya
kult
kultu
kuman
kumət
kumətdə
kumətdən
kuməti
kumətin
kumətində
kumətindən
kumətini
kumətinin
kumətinə
kumətlər
kumətlərarası
kumətləri
kumətə
kun
kunq
kuper
kur
kurfu
kuril
kurort
kurqan
kurqanlar
kurqanları
kurqanı
kurs
kursda
kursk
kurslar
kursları
kurslarında
kurslarını
kursu
kursuna
kursunda
kursunu
kursunun
kurt
kurts
kurumu
kus
kut
kutaisi
kv
kvadrat
kvadratmetr
kvant
kvars
kvartet
kvebek
kvt
kı
kə
kəbir
kəbirli
kəbə
kəbənin
kədə
kədər
kədərli
kəffarə
kəhriz
kək
kəklik
kəkliklər
kəkliyi
kəkliyinin
kəl
kəlag
kəlam
kəlamı
kəlbəcər
kəlbəcərin
kəlbəli
kəleybər
kəli
kəlidir
kəllə
kəlmə
kəlməsi
kələ
kələm
kəm
kəmalə
kəmaləddin
kəmiyyət
kəmiyyəti
kəmməl
kəmər
kəməri
kəmərin
kəmərinin
kəmərli
kəmərləri
kən
kənan
kənar
kənara
kənarda
kənardan
kənarları
kənarlarında
kənarlas
kənarı
kənarına
kənarında
kənarındakı
kənarından
kənd
kənddir
kənddə
kənddəki
kənddən
kəndi
kəndidir
kəndidə
kəndin
kəndində
kəndindəki
kəndindən
kəndindəndir
kəndini
kəndinin
kəndinə
kəndir
kəndistanında
kəndli
kəndlilər
kəndliləri
kəndlilərin
kəndlilərə
kəndlər
kəndlərdə
kəndlərdən
kəndləri
kəndlərin
kəndlərində
kəndlərindən
kəndlərini
kəndlərinin
kəndlərinə
kəndlərə
kəndu
kəndə
kəngərli
kəni
kənin
kənli
kənliyi
kənmis
kənməz
kəpənək
kəpənəklər
kəpəz
kər
kərac
kərbəla
kərbəlayi
kərbəlayı
kəri
kərim
kərimdə
kərimi
kərimin
kərimli
kərimov
kərimova
kərimovun
kərku
kərpic
kərpicdən
kərpiclə
kərtənkələ
kərə
kərək
kərəm
kəs
kəsb
kəsdi
kəsdən
kəsi
kəsib
kəsici
kəsik
kəsildi
kəsilib
kəsilir
kəsilis
kəsilmis
kəsilmək
kəsilməkdə
kəsilməsi
kəsilməyə
kəsilməz
kəsilən
kəsin
kəsini
kəsir
kəsis
kəsiyi
kəsiyində
kəsiz
kəsizlik
kəsizliyi
kəsizliyin
kəsizliyini
kəsizliyinin
kəsizliyinə
kəskin
kəskinləs
kəslər
kəsmis
kəsmə
kəsmək
kəsə
kəsəmən
kəsən
kəsərək
kət
kətan
kəyə
l
la
lab
label
laborant
laboratoriya
laboratoriyada
laboratoriyası
laboratoriyasına
laboratoriyasında
laboratoriyasının
labu
lac
lad
lady
ladı
ladıg
ladılan
ladılar
ladılmıs
ladım
ladıqda
ladıqdan
lag
lahi
lahiyyat
lahizə
lahizələr
lahıc
lahə
lak
lake
lakin
laku
lal
lallar
lalların
lalı
lalə
lalələr
lalələri
lalənin
laləsi
laləsindən
laləsinin
laləsinə
lam
lama
lamadan
lamag
lamamıs
lamaq
laması
lamasına
lamasından
lamazdan
lambda
lambert
lamiyə
lamlıg
lamlıq
lampa
lamıs
lan
lana
lanan
lanaraq
land
lands
landı
landıg
landıqdan
lang
language
languages
lanka
lanlar
lanları
lanların
lanma
lanması
lanmasına
lanmasından
lanmasını
lanmıs
lansetvari
lanı
lanıb
lanıldı
lanılmıs
lanılıb
lanılır
lanın
lanır
lanıs
lao
laos
lap
laptevlər
laq
laqeyd
laqun
lar
lara
laram
larda
lardan
lardır
large
larisa
larla
larri
lars
larsan
ları
larıdır
larım
ların
larına
larında
larındakı
larından
larını
larının
las
lasa
last
lasıg
lasın
lasə
lasəsi
lat
latdı
latdıg
late
later
latin
latmıs
latviya
latviyada
latviyanın
latın
latınca
latıs
laura
laureat
laureatları
laureatı
laureatıdır
lav
lava
lavas
lavrenti
law
lawrence
lay
laya
layacag
layacaq
layan
layanda
layandan
layar
layaraq
layarkən
layer
layihə
layihədə
layihələndirilməsi
layihələndirmə
layihələr
layihələrdə
layihələri
layihələrin
layihələrində
layihələrini
layihələrinin
layihələrinə
layihələrə
layihələs
layihəni
layihənin
layihəsi
layihəsində
layihəsini
layihəsinin
layihəsinə
layihəyə
layim
layiq
layiqdir
layiqincə
layiqli
layı
layıb
layıblar
layıcı
layın
layır
layırdı
layırdılar
layırlar
lazar
lazer
lazım
lazımdı
lazımdır
lazımi
lazımlı
lazımsız
lazımı
lazımınca
lb
lbu
lc
ld
ldi
ldu
ldug
lduqda
ldı
ldırım
ldə
ldən
le
leader
league
learning
led
ledi
lee
left
legacy
legal
legend
legends
legion
legioner
legionu
lehinə
leiden
leipzig
leksik
len
lena
lenin
leninin
leninizm
leninqrad
leninqradda
lennon
lens
lent
lentə
leo
leon
leonard
leonardo
leonardonun
leone
leonid
leopard
leopold
leqal
ler
leri
lerik
lermontov
les
lester
let
letter
letters
lev
level
levi
levin
levon
lewis
lex
leya
leyden
leyk
leyla
leyli
leylinin
leyman
leymana
leymaniyyə
leymanlı
leymanov
leymanın
leypsiq
leysan
leytenant
leytenantı
leyxa
lf
lfi
lfiyyə
lfu
lfət
lfəz
lg
lgbt
lgu
lgə
lgədə
lgədəki
lgədən
lgəli
lgələr
lgələrdə
lgələrdən
lgələri
lgələrin
lgələrində
lgələrindən
lgələrini
lgələrinin
lgələrinə
lgələrə
lgəni
lgənin
lgər
lgəsi
lgəsində
lgəsindəki
lgəsindən
lgəsini
lgəsinin
lgəsinə
lgəyə
lh
lham
lhamə
lhan
lhməramlı
lhu
lhə
lhəmid
lhəmidin
lhəsən
li
lib
liberal
liberallar
library
libretto
lic
lider
lideri
liderlik
liderlər
liderləri
liderlərindən
liderlərinin
lidir
lidiya
lids
lif
life
lifli
liflər
lifləri
lift
light
lightgrey
ligularia
lik
like
lil
lili
lill
lilər
lim
liman
limana
limanları
limanı
limanıdır
limanın
limanına
limanında
limanından
limanını
limanının
limfa
limit
limited
limiti
limon
lin
linc
lincoln
lind
linda
line
lines
lini
linin
link
linkin
linklər
linkoln
links
linnaeus
linqvistik
linux
lion
liondan
lionel
lipnitskaya
liqa
liqada
liqanı
liqanın
liqası
liqasına
liqasında
liqasını
liqasının
liqaya
lir
lira
lirik
lis
lisa
lisenziya
lisenziyalas
lisenziyası
lisey
liseydə
liseyi
liseyində
lislam
lislamlıg
lislamı
lissabon
lissabonda
list
lisu
literary
literature
litosfer
litr
little
litva
litvada
litvanın
liu
livan
livanda
livanın
live
liverpul
lives
living
livingston
liviya
liviyada
liviyanın
lixtens
liyi
liyində
liyə
liz
liza
lizinq
lk
lkgi
lki
lkin
lkiyyət
lkiyyətc
lkiyyəti
lkiyyətin
lkiyyətində
lkiyyətinə
lkləri
lklərini
lklərinə
lku
lkə
lkədar
lkədaxili
lkədir
lkədə
lkədəki
lkədən
lkələr
lkələrdə
lkələrdəki
lkələrdən
lkələri
lkələrin
lkələrində
lkələrindən
lkələrini
lkələrinin
lkələrinə
lkələrlə
lkələrə
lkəmizdə
lkəmizin
lkəni
lkənin
lkər
lkərim
lkəsi
lkəsində
lkəsindən
lkəsini
lkəsinin
lkəsinə
lkəyə
ll
llah
ller
lli
llik
llinoys
lloyd
llu
llur
llə
llədən
llələndi
llələnmis
llələr
llələri
llələrin
llənin
llər
llərdə
llərdən
lləri
llərin
llərində
llərindən
llərinin
llərinə
llərə
lləs
lləsi
lləsində
lləsinin
lləsinə
lm
lman
lmi
lmis
lmu
lmus
lmə
lməc
lməcid
lməcidin
lmədə
lmədən
lmək
lməkdədir
lməli
lməlidir
lmələr
lmələri
lmələrin
lmələrinin
lməmis
lməmməd
lməmmədov
lmənin
lməsi
lməsidir
lməsində
lməsindən
lməsini
lməsinin
lməsinə
lmət
lməyə
lməz
ln
lnar
lnarə
lo
lobya
local
log
logistika
logo
lokal
lokk
lokomotiv
lombardiya
lomonosov
london
londona
londonda
londondakı
londonun
long
lonq
look
lopez
loqan
loqo
loqosu
loran
lord
lordlar
lordu
loren
lorens
lorenso
lorenzo
lori
loru
los
lost
lotus
lou
louis
lourens
love
lovg
low
lozanna
lq
lqadir
lqar
lqasım
lqədir
lqədər
ls
lsu
lsə
lt
ltd
ltesi
ltu
ltə
ltədə
ltələr
ltələri
ltənin
ltəpə
ltəsi
ltəsində
ltəsini
ltəsinin
ltəsinə
lu
luara
lub
lubiyyət
lubiyyətdən
lubiyyəti
lubiyyətin
lubiyyətindən
lubiyyətlə
lubiyyətə
luc
ludur
ludwig
lug
lui
luici
luis
luiza
luk
luka
lukas
lum
lun
luna
lunar
lundan
lunmus
lunu
lunun
luq
luqlar
lur
luristan
lus
lusi
lut
luvr
luya
lvi
lviyyə
lvov
lya
lyas
lyetta
lyu
lyubov
lyudmila
lyuis
lyuk
lzar
lı
lıca
lıcası
lıdır
lıg
lılar
lıların
lılıg
lılıq
lın
lına
lını
lının
lıq
lıqda
lıqdan
lıqdır
lıqla
lıqlar
lıqları
lıqlı
lə
ləbi
ləc
ləcək
lədi
lədikdən
lədilir
lədilmis
lədilməsi
lədilən
lədir
lədiyi
lədən
ləg
ləhcəsi
lək
ləklə
ləklər
ləkləri
ləklərin
ləkə
ləkələr
ləl
ləli
ləlik
lələ
lələkvari
ləm
ləma
ləman
ləmis
ləmə
ləmək
ləməklə
ləməsi
ləməyi
ləməyə
lən
ləndi
ləndirdi
ləndirildi
ləndirilmis
ləndirilməsi
ləndirir
ləndirmis
ləndirmə
ləndirmək
ləndirməyə
ləndə
ləndən
ləng
lənib
lənilmis
lənilməsi
lənin
lənir
lənkəran
lənkəranda
lənkəranın
lənlər
lənlərin
lənmis
lənmə
lənməsi
lənməsinə
lənməyə
lənə
lənən
lənərək
lənət
ləqəb
ləqəbi
ləqəbini
ləqəbli
lər
lərdir
lərdə
lərdən
ləri
lərin
lərində
lərindən
lərini
lərinin
lərinə
lərkən
lərlə
lərə
lərək
ləs
ləsi
lətdiyi
lətif
lətifə
lətmis
lətmək
ləvazimatları
ləvənd
ləyaqət
ləyaqətli
ləyaqətlə
ləyi
ləyib
ləyin
ləyir
ləyirdi
ləyirlər
ləyə
ləyən
ləyənlər
ləyərkən
ləyərək
ləzgi
ləzgilər
ləziz
ləzizin
ləzzət
m
ma
maa
maarif
maarifc
maarifi
maarifləndirici
maarifləndirmə
maas
mac
macar
macaranga
macarlar
macarların
macarıstan
macarıstana
macarıstanda
macarıstanın
mach
machine
macmillan
macəra
macəraları
macərası
mad
mada
madam
madan
madaqaskar
maddi
maddə
maddədir
maddədə
maddədən
maddələr
maddələrdən
maddələri
maddələrin
maddələrində
maddələrinin
maddələrlə
maddələrə
maddənin
maddəsi
maddəsində
maddəsinin
maddəsinə
maddəyə
made
madonna
madrid
madriddə
madridin
madı
madıg
madır
madəddin
mafiya
mag
magazine
magic
magistr
magistral
magistratura
mah
mahac
mahal
mahalları
mahalı
mahalın
mahalına
mahalında
mahalından
mahalının
mahi
mahir
mahiyyət
mahiyyətcə
mahiyyəti
mahiyyətini
mahiyyətinə
mahmud
mahmudbəyov
mahmudlu
mahmudov
mahmudova
mahmudun
mahnı
mahnıda
mahnıdan
mahnılar
mahnılardan
mahnıları
mahnıların
mahnılarından
mahnılarını
mahnılarının
mahnını
mahnının
mahnısı
mahnısıdır
mahnısına
mahnısında
mahnısını
mahnısının
mahnıya
mai
mail
maili
main
mais
major
majoritar
mak
makdonald
make
makedoniya
makedoniyada
makedoniyalı
makedoniyanın
making
makoto
makroiqtisadi
maks
maksim
maksimal
maksimilian
maksimum
maku
mal
mala
malar
malara
malarda
malardan
maları
maların
malarına
malarında
malarını
malarının
malatya
malavi
malay
malayziya
malayziyanın
maldar
maldarlıq
maldarlıqla
maldiv
male
malgo
mali
malik
malikanə
malikanəsi
malikdir
malikdirlər
maliyyə
maliyyələs
malkolm
mallar
malları
malların
mallarını
mallarının
malmo
malta
malyariya
malı
malıdır
malın
malını
mam
mama
maması
mamazlıg
mamedov
mamont
mamqulu
mamverdiyev
mamzadə
mamın
mamıs
man
mana
manaf
manafov
management
manas
manat
manata
manatadək
manatdan
manatlıq
manatı
manc
manchester
mancur
mandat
mane
manec
manenin
manevr
maneə
maneələr
maneəsiz
manfred
manga
manhetten
mani
manifesti
manipulyasiya
manisa
maniyev
mann
manna
manov
manqa
manqada
manqalar
manqaları
manqan
manqanın
manqası
mans
mansur
mansurov
manual
manuel
many
manı
manın
mao
map
maps
maq
maqda
maqdadır
maqdan
maqla
maqmatik
maqnezium
maqnit
maqomayev
maqomayevin
maqsud
mar
mara
marafon
marag
maral
maralı
maraq
maraqla
maraqlanan
maraqlanmag
maraqlanmıs
maraqlanır
maraqlanırdı
maraqlar
maraqları
maraqlarına
maraqlarını
maraqlarının
maraqlı
maraqlıdır
maraqlısı
maras
marat
marc
march
mardin
mardinin
margaret
mari
maria
marian
marie
marina
marine
marinin
marino
mario
mariya
mariyanın
marjinal
mark
marka
markaları
markalarında
markalı
markası
market
marketinq
marko
marks
marksist
marksizm
marksın
markus
marneuli
marozzi
marqaret
marqarita
marriage
mars
marsel
marshall
marsın
mart
marta
martda
marten
marti
martin
martines
martın
martında
martından
marvel
marx
mary
mas
masa
masallı
mask
maska
maskası
mason
mass
massac
massiv
massivi
master
masters
ması
masıdır
masına
masında
masından
masını
masının
mat
matc
material
materialdan
materialist
materiallar
materiallara
materiallardan
materiallarla
materialları
materialların
materiallarından
materiallarının
materials
materialı
materialın
materik
materikdən
materikin
materiya
materiyanın
matfey
math
mathbf
mathematical
mathematics
mathrm
mathsf
matilda
matris
matthew
matəm
mavi
mavritaniya
mavərau
max
may
maya
mayak
mayakı
mayami
mayan
mayda
maye
mayedir
mayenin
mayer
mayis
mayk
maykl
maykop
mayor
mayoru
mayun
mayya
mayın
mayında
mayından
mayıs
mayəndə
mayəndəlik
mayəndəlikləri
mayəndəliyi
mayəndəliyinin
mayəndələr
mayəndələri
mayəndələrin
mayəndələrindən
mayəndələrini
mayəndələrinin
mayəndələrinə
mayəndəsi
mayəndəsidir
mayəndəsinin
maz
mazandaran
mazda
mazepa
mazlıg
mazlıq
mb
mba
mbm
mbox
mbət
mbətov
mbəz
mc
mcmurtry
mcu
md
mdb
mdu
mdə
mdən
me
mea
mebel
mec
mechanics
med
medal
medala
medalc
medalla
medallar
medallarla
medalları
medalların
medalı
medalın
medalına
medalını
media
mediada
medianın
medic
medical
medicine
medieval
medison
medvedyeva
meeting
meg
mehdi
mehdinin
mehdiqulu
mehdiyev
mehdiyeva
mehdiyevin
mehdizadə
mehman
mehmandarov
mehmanxana
mehmed
mehmedin
mehmet
mehr
mehrab
mehri
mehriban
meksika
meksikada
meksikalı
meksikanın
melburn
meliorasiya
melkonyan
melodik
melodiya
melodiyası
memar
memarlar
memarları
memarlıg
memarlıq
memarı
memarın
members
membran
memorial
memory
men
mendeleyev
mendes
menecer
meneceri
menecment
menecmenti
mens
mer
mercedes
mercury
mereti
meri
meril
merilin
merkezi
merkuri
merkurinin
mersin
mes
mesaj
mesajı
mesi
mesopotamiya
message
messi
met
meta
metabolik
metacritic
metafizika
metal
metaldan
metallar
metalların
metallurgiya
metalın
metamorfik
metan
meteorologiya
meteoroloji
method
methods
metil
metin
metod
metodik
metodikası
metodiki
metodist
metodlar
metodlardan
metodları
metodların
metodlarından
metodlarını
metodlarının
metodologiyası
metodoloji
metodu
metodun
metodunu
metodunun
metr
metrdir
metrdən
metrlik
metro
metropolitan
metropoliten
metropoliteni
metropoliteninin
metrə
mett
metyu
mexanik
mexanika
mexanikası
mexanikasının
mexaniki
mexanikləs
mexanizm
mexanizmi
mexanizmini
mexanizminin
mexanizmlər
mexanizmləri
mexico
mexiko
mey
meyci
meydan
meydana
meydanc
meydanda
meydandan
meydanı
meydanın
meydanına
meydanında
meydanından
meydanının
meyer
meyi
meyil
meyilli
meyl
meyli
meylli
meylləri
meymun
meyvə
meyvəc
meyvələr
meyvələri
meyvələrin
meyvənin
meyvəsi
meyxana
meyxanac
mezozoy
mfa
mg
mhp
mhuriyyət
mhuriyyəti
mhuriyyətin
mhuriyyətində
mhuriyyətinin
mhz
mi
mia
mic
michael
michigan
microsoft
mid
middle
midi
midini
midiya
midsiz
midt
mif
mifik
mifologiya
mifologiyası
mifologiyasına
mifologiyasında
mifoloji
mig
migel
mik
mikania
mikayıl
mikayılov
mike
mikelancelo
mikelancelonun
miklos
mikro
mikrobiologiya
mikrodalg
mikroorqanizmlərin
mikroskopik
mil
milad
miladdan
miladi
milan
milanda
milanın
milc
miles
mili
milis
military
mill
miller
milli
milliləs
millinin
million
millisi
millisində
millisinin
millisinə
milliyyətc
milliyyətcə
milliyətc
milliyətcə
millət
millətc
milləti
millətin
millətinin
millətlər
millətlərarası
millətlərdən
millətləri
millətlərin
millətlərə
millətə
milos
milton
milyard
milyon
milyona
milyonc
milyondan
milyonlarla
milyonu
mim
min
mina
minaatan
minanın
minarə
minarənin
minarəsi
minbas
mind
mindi
mindən
mineral
minerallar
mineralları
mineralların
minerallas
mineralogiya
mineralın
mingəc
mini
miniatu
minib
minik
minillik
minillikdə
minilliklər
minilliyin
minilliyə
minimal
minimum
minimuma
minin
minir
ministry
minium
minlik
minlər
minlərin
minlərlə
minlərə
minmis
minnesota
minor
minorsky
minouq
minsk
minvalla
minə
miq
miqdar
miqdarda
miqdarı
miqdarına
miqdarında
miqdarından
miqdarını
miqdarının
miqrant
miqrasiya
miqrasiyası
miqyas
miqyasda
miqyaslı
miqyası
miqyasında
mir
miranda
miras
mirası
mircəfər
miri
miris
mirqasımov
mirvari
mirz
mirza
mirzə
mirzəag
mirzəni
mirzənin
mirzəyev
mirzəyeva
mirzəyevin
mirzəyə
mirzəzadə
mirəli
mis
misal
misallar
misilsiz
misir
misirdə
misirdəki
misirdən
misiri
misirin
misirli
misirlilər
misirlilərin
misirə
miskin
misli
misri
miss
mission
missioner
missisipi
missiya
missiyası
missiyasını
missiyasının
missuri
mister
mistik
mit
mitc
mites
mitinq
mix
mixael
mixail
mixaylov
mixaylovic
mixi
miyandoab
miyanə
miyy
miədzin
mk
mki
mkm
mku
ml
mlf
mln
mlrd
mlu
mlə
mlədə
mlədən
mlələr
mlənin
mlər
mləri
mlərində
mləsi
mm
mma
mmc
mmu
mmət
mn
mo
mobil
mobile
moc
mod
moda
mode
model
modeli
modelin
modelində
modelini
modelinin
modelinə
modellik
modellər
modelləri
modellərin
modellərinin
modelləs
models
modern
modernləs
modifikasiya
modifikasiyası
modul
modulu
mog
moi
moir
moisey
mok
mol
moldova
moldovanın
molecular
molekul
molekullar
molekulları
molekulların
molekulu
molekulyar
molibden
molla
mollalar
molotov
moment
mon
mona
monako
monarx
monarxiya
monarxiyanın
monastır
monastırı
monastırın
monastırında
monastırının
monde
money
monika
monitor
monitorinq
monitorinqi
mono
monoklinik
monolit
monoqrafiya
monoqrafiyaları
monoqrafiyanın
monoqrafiyası
monqol
monqollar
monqollara
monqolların
monqolustan
monqolustanda
monqolustanın
monreal
monro
montaj
montana
monte
monteneqro
monteneqronun
monthly
montqomeri
monument
monumental
moon
moore
moqadis
mor
moraes
mordoviya
more
morfologiya
morfoloji
morgan
moris
morning
morqan
morris
morrison
mortal
mos
moscow
moskva
moskvada
moskvadakı
moskvadan
moskvanın
moskvaya
mosque
most
mosul
mother
motion
motiv
motivasiya
motivi
motivlər
motivləri
motoatıcı
motor
motorlu
motors
motosiklet
motsart
motsartın
mount
mountain
mov
movement
movie
mozaik
mozaika
mozalan
mozambik
mozart
mozdok
mp
mparatorlug
mpc
mperator
mperatorlug
mperatoru
mperatric
mperiya
mperiyanın
mperiyası
mperiyasına
mperiyasında
mperiyasının
mq
mr
mrah
mran
mre
mru
mrə
mrədə
mrəli
mrələr
mrələri
mrəsi
mrəsində
mrəyə
ms
msk
mssr
msu
mt
mtahan
mtaz
mtu
mtv
mu
mudros
mug
muhammad
muhammed
muhəmməd
multi
multikulturalizm
multimedia
mum
muma
mumbəs
mumdu
mumi
mumilikdə
mumiləs
mumittifaq
mumiyyətlə
mummilli
mumqos
mumrespublika
mumrusiya
mumtəhsil
mumxalq
mumən
mun
munə
munədir
munələr
munələri
munələrindən
munələrini
munələrinin
munələrinə
munəsi
munəsidir
munəsində
munəsinə
munəvi
mur
murad
murada
muradov
muradova
muradın
murat
murdar
murder
murmansk
murov
murovdag
murray
murtuz
murtuza
mus
musa
musanın
musaya
musayev
musayeva
muse
museum
music
musiqi
musiqic
musiqidə
musiqili
musiqilər
musiqiləri
musiqini
musiqinin
musiqis
musiqisi
musiqisində
musiqisindən
musiqisini
musiqisinin
musiqisinə
musiqiyə
muslim
mussolini
musson
must
mustafa
mustafanın
mustafayev
mustafayeva
mustafayevin
mustafazadə
musəvi
mutant
mutasiya
muxtar
muxtariyyət
muxtariyyəti
muxtarov
muzdlu
muzey
muzeydə
muzeyi
muzeyin
muzeyində
muzeyinin
muzeyinə
muzeylər
muzeyləri
muzeylərində
muzeyə
mvt
my
myanma
mystery
mı
mır
mırdı
mıs
mə
məbləg
məbud
məbəd
məbəddə
məbədi
məbədin
məbədində
məbədini
məbədinin
məbədinə
məbədlər
məbədləri
məbədlərin
məbədə
məc
məcazi
məcbur
məcburi
məcburiyyət
məcburiyyətində
məcid
məcidov
məclis
məclisdə
məclisi
məclisin
məclisində
məclisinin
məclisinə
məclislərdə
məclisləri
məclislərində
məclisə
məcmu
məcmusu
məcmuə
məcmuəsi
məcnun
məcnunun
məcəllənin
məcəlləsi
məcəlləsinin
mədh
mədi
mədinə
mədinədə
mədinəyə
mədir
mədrəsə
mədrəsədə
mədrəsənin
mədrəsəsi
mədrəsəsində
mədə
mədəaltı
mədəd
mədən
mədənc
mədəni
mədənin
mədəniyyət
mədəniyyətdə
mədəniyyəti
mədəniyyətin
mədəniyyətində
mədəniyyətindən
mədəniyyətini
mədəniyyətinin
mədəniyyətinə
mədəniyyətlər
mədəniyyətlərarası
mədəniyyətləri
mədəniyyətlərin
mədəniyyətə
mədənləri
mədənlərində
mədət
mədətov
məftun
məg
məgər
məhabad
məharətlə
məhbus
məhbuslar
məhbusların
məhbusu
məhdi
məhdud
məhduddur
məhdudiyyət
məhdudiyyətlər
məhdudiyyətləri
məhdudlas
məhkum
məhkumlar
məhkəmə
məhkəmədə
məhkəmələr
məhkəmələri
məhkəmələrin
məhkəmələrinin
məhkəmənin
məhkəməsi
məhkəməsində
məhkəməsinin
məhkəməsinə
məhkəməyə
məhlul
məhlulu
məhməd
məhrum
məhs
məhsul
məhsula
məhsuldar
məhsuldarlıg
məhsuldarlıq
məhsullar
məhsulları
məhsulların
məhsullarına
məhsullarından
məhsullarını
məhsullarının
məhsulu
məhsuludur
məhsulun
məhsulunun
məhsəti
məhv
məhvi
məhvinə
məhz
məhəbbət
məhəbbəti
məhəbbətin
məhəbbətini
məhəbbətlə
məhəl
məhəlli
məhəllə
məhəllədə
məhəllələri
məhəllənin
məhəlləsi
məhəlləsində
məhəlləsinin
məhəmməd
məhəmmədhu
məhəmmədhəsən
məhəmmədi
məhəmmədin
məhəmmədov
məhəmmədqulu
məhəmmədrəsul
məhəmmədə
məhəmmədəli
məhərrəm
məhərrəmov
məis
mək
məkan
məkana
məkanda
məkanlar
məkanı
məkanın
məkanına
məkanında
məkc
məkdə
məkdədir
məkdən
məkkə
məkkədə
məkkədən
məkkənin
məkkəyə
məklik
məkliyi
məklə
məktub
məktubda
məktubla
məktublar
məktubları
məktublas
məktubu
məktubun
məktubunda
məktubunu
məktəb
məktəbdə
məktəbdən
məktəbi
məktəbin
məktəbində
məktəbindən
məktəbini
məktəbinin
məktəbinə
məktəbli
məktəblilərin
məktəblər
məktəblərdə
məktəbləri
məktəblərin
məktəblərində
məktəblərindən
məktəblərinin
məktəblərə
məktəbə
məktəbəqədər
məlahət
məlhəm
məli
məlidir
məlik
məlikan
məlikov
məlikova
məlikovun
məliks
məlikzadə
məlum
məlumat
məlumata
məlumatda
məlumatlar
məlumatlara
məlumatlardan
məlumatlarla
məlumatları
məlumatların
məlumatlarına
məlumatlarını
məlumatlarının
məlumatı
məlumatın
məlumatına
məlumdur
mələk
mələklər
mələkləri
mələklərin
mələr
mələrdə
mələrdən
mələri
mələrin
mələrində
mələrindən
mələrini
mələrinin
mələrinə
mələrlə
mələrə
mələyi
mələyin
məmis
məmlu
məmməd
məmmədag
məmmədbəyli
məmmədhu
məmmədhəsən
məmmədli
məmmədov
məmmədova
məmmədovun
məmmədquluzadə
məmmədquluzadənin
məmmədrza
məmmədyarov
məmmədzadə
məmmədəli
məmmədəliyev
məmnun
məmulatlar
məmulatları
məmulatlarının
məmulatı
məmur
məmurlar
məmurları
məmurların
məmurlarının
məmuru
məməli
məməlilər
məməsi
mən
məna
mənaca
mənada
mənafeyini
mənalar
mənaları
mənalarında
mənalarını
mənalı
mənası
mənasına
mənasında
mənasındadır
mənasını
mənasız
mənbə
mənbədə
mənbədən
mənbələr
mənbələrdə
mənbələrdən
mənbələri
mənbələrin
mənbələrində
mənbələrindən
mənbələrinin
mənbələrinə
mənbələrə
mənbənin
mənbəsi
mənbəyi
mənbəyidir
mənbəyindən
mənbəyini
mənbəyinin
mənbəyinə
mənbəyə
mənc
məncə
məndə
məndən
mənfi
mənfəət
mənfəəti
məni
mənim
mənimlə
mənimsəmis
mənimsənilməsi
mənin
məninin
mənlə
mənlər
mənləri
mənlərin
mənlərini
mənlərinin
mənlərinə
məns
mənsub
mənsubdur
mənsubiyyət
mənsubiyyəti
mənsubları
mənsur
mənsəbi
mənsəbində
məntiq
məntiqi
məntəqə
məntəqələri
məntəqələrində
məntəqələrindən
məntəqələrini
məntəqələrinin
məntəqələrinə
məntəqəsi
məntəqəsində
məntəqəsini
məntəqəsinin
məntəqəsinə
mənuc
mənzil
mənzildə
mənzili
mənzilinə
mənzilli
mənzilə
mənzum
mənzərə
mənzərəli
mənzərələri
mənzərəsi
mənzərəsini
mənə
mənəm
mənəvi
mənəviyyat
məqalə
məqalədə
məqalələr
məqalələrdə
məqalələri
məqalələrin
məqalələrində
məqalələrlə
məqaləni
məqalənin
məqaləsi
məqaləsində
məqaləsini
məqaləsinə
məqam
məqamda
məqamlar
məqamları
məqamı
məqbul
məqbərə
məqbərəsi
məqsəd
məqsədi
məqsədilə
məqsədini
məqsədinə
məqsədiylə
məqsədli
məqsədlə
məqsədlər
məqsədləri
məqsədlərini
məqsədlərinə
məqsədlərlə
məqsədlərə
məqsədyo
məqsədə
məqsədəuyg
mər
mərakes
məramlı
mərasim
mərasimdə
mərasimi
mərasimin
mərasimində
mərasimindən
mərasimini
mərasiminin
mərasiminə
mərasimlə
mərasimlər
mərasimləri
mərasimlərində
mərcan
mərd
mərdan
mərdanov
mərdlik
mərdliyin
mərdəkan
mərhum
mərhumun
mərhələ
mərhələdə
mərhələdən
mərhələli
mərhələləri
mərhələlərində
mərhələni
mərhələnin
mərhələsi
mərhələsində
mərhələsindən
mərhələsini
mərhələsinin
mərhələsinə
mərhələyə
mərhəmət
mərhəmətli
mərifət
mərin
mərkəz
mərkəzdə
mərkəzdən
mərkəzi
mərkəzidir
mərkəzin
mərkəzində
mərkəzindəki
mərkəzindən
mərkəzini
mərkəzinin
mərkəzinə
mərkəzli
mərkəzlər
mərkəzləri
mərkəzlərində
mərkəzlərindən
mərkəzlərinin
mərkəzlərinə
mərkəzləs
mərkəzə
mərmi
mərmər
mərmərdən
mərmərə
mərtəbə
mərtəbədə
mərtəbədən
mərtəbəli
mərtəbənin
mərtəbəsi
mərtəbəsində
mərtəbəsinin
mərtəbəsinə
mərtəbəyə
məruz
məruzə
məruzəc
məruzələr
məruzələri
məruzələrlə
mərv
mərvan
məryəm
məryəmin
mərə
mərənd
mərəzə
məs
məsafə
məsafədə
məsafədən
məsafəli
məsafələr
məsafələrə
məsafəni
məsafəsi
məsafəyə
məscid
məsciddə
məscidi
məscidin
məscidində
məscidini
məscidinin
məscidinə
məscidlər
məscidləri
məscidlərin
məscidu
məscidə
məsh
məsi
məsidir
məsih
məsihi
məsihin
məsin
məsində
məsindən
məsini
məsinin
məsinə
məskunlas
məskən
məskəni
məskənləri
məskənlərindən
məsləhət
məsləhətc
məsləhətdir
məsləhəti
məsləhətlər
məsləhətləs
məsnəvi
məst
məstəli
məsud
məsudi
məsul
məsuliyyət
məsuliyyəti
məsuliyyətini
məsuliyyətinə
məsuliyyətli
məsuliyyətə
məsum
məsəl
məsələ
məsələdir
məsələdə
məsələlər
məsələlərdə
məsələlərdən
məsələləri
məsələlərin
məsələlərində
məsələlərini
məsələlərinin
məsələlərinə
məsələlərlə
məsələlərə
məsələn
məsələni
məsələnin
məsələsi
məsələsində
məsələsini
məsələsinin
məsələsinə
məsələyə
mət
mətanət
mətbu
mətbuat
mətbuata
mətbuatda
mətbuatı
mətbuatın
mətbuatında
mətbuatının
mətbəx
mətbəxi
mətbəxində
mətbəxinin
mətbəxinə
mətbəə
mətbəəsi
mətbəəsində
məti
mətin
mətinin
mətləb
mətn
mətndə
mətni
mətnin
mətnində
mətnini
mətninin
mətnlər
mətnləri
mətnlərin
mətns
məxfi
məxluq
məxsus
məxsusdur
məxsusi
məyi
məyib
məyilə
məyin
məyini
məyinə
məyus
məyə
məyən
məz
məzahir
məzar
məzarları
məzarlıg
məzarlıq
məzarı
məzarının
məzdən
məzhəb
məzhəbi
məzhəbinin
məzhəbinə
məzlum
məzmun
məzmunda
məzmunlu
məzmunu
məzmununa
məzmununu
məzrə
məzun
məzuniyyət
məzunları
məzunu
məzunudur
məzəli
məzəmmət
n
na
nab
nabat
nac
nach
nad
nadan
nadejda
naderi
nadir
nadirin
nadirov
nafta
naftalan
nag
nah
naha
nahaq
nahar
nahid
nahiyə
nahiyəsi
nahiyəsində
nahiyəsinin
nahkar
nahlandırdı
nahları
nahlarını
nahsız
nahı
nahın
nahını
naib
naibi
naibə
nail
nailiyyət
nailiyyəti
nailiyyətlər
nailiyyətləri
nailiyyətlərinə
nailiyyətlərə
nailə
nak
nakam
naklar
nakların
naksu
nal
nalc
nalə
nam
namaz
namazov
namazı
name
names
naminə
namiq
namizəd
namizədi
namizədin
namizədlik
namizədliyi
namizədliyini
namizədlər
namizədləri
namizədlərin
namus
namə
naməlum
namələr
namərd
nan
nana
nanc
nankin
nano
nant
nanə
napoleon
napoleonun
napoli
naq
naqis
nar
nara
narahat
narahatc
narahatlıg
narahatlıq
narazı
narazılıg
narazılıq
nardaran
narita
narkotik
narva
narın
narıncı
nas
nasa
nasib
nasibət
nasibətdə
nasibəti
nasibətilə
nasibətin
nasibətini
nasibətlə
nasibətlər
nasibətlərdə
nasibətləri
nasibətlərin
nasibətlərində
nasibətlərini
nasibətlərinin
nasibətlərinə
nasibətlərə
nasional
nasir
nasirəddin
nasist
nasistlər
nasistlərin
naslar
nasları
nasların
naslıg
naslıq
naslıqda
nasos
nası
nasıl
nat
natali
nataliya
natalya
natamam
natan
natas
nation
national
nations
natiq
nato
natrium
natu
natural
nature
natəvan
natəvanın
naviqasiya
nax
naxc
naxos
naxırc
naxıs
nay
naya
naz
nazarbayev
nazi
nazik
nazil
nazim
nazir
naziri
nazirin
nazirinin
nazirlik
nazirlikləri
nazirliyi
nazirliyin
nazirliyində
nazirliyinin
nazirliyinə
nazirlər
nazirləri
nazirlərinin
nazlı
nb
nba
nbc
nbit
nbu
nbəz
nbəzi
nbəzin
nbəzli
nbəzlə
nc
ncdən
nchen
nci
ncil
ncili
ncu
ncə
ncədən
ncəki
ncəli
ncələr
ncələri
ncələrini
ncənin
ncəsi
ncəsənət
ncəyə
nd
nda
ndan
nde
ndi
ndiana
ndiki
ndir
ndiyə
ndiyədək
ndog
ndoneziya
ndoneziyada
ndoneziyanın
ndu
ndə
ndədir
ndəki
ndəlik
ndəliyi
ndəliyində
ndələn
ndəmə
ndən
ndəndir
ndər
ndərdi
ndərdik
ndərdilər
ndərdiyi
ndərib
ndərildi
ndərilib
ndərilir
ndərilirdi
ndərilmis
ndərilməsi
ndərilməsini
ndərilən
ndərir
ndərirdi
ndərirlər
ndəris
ndərmis
ndərmək
ndərməyi
ndərməyə
ndərsin
ndərə
ndərən
ndərərək
ne
neapol
near
nebraska
nec
necə
need
neft
neftayırma
neftc
neftdən
nefti
neftin
neftinin
neftli
neftlə
nehrəm
nekropol
nekropolu
nel
nelson
nemət
nen
nenes
nensi
neo
neobisium
neogen
neoklassik
neolit
neoseiulus
nepal
neptun
neptunun
neqativ
ner
neron
neronun
nes
nesom
net
netflix
network
networks
neue
neva
nevada
never
nevrologiya
nevroloji
nevs
nevski
new
news
next
ney
neyd
neyron
neytral
neytrallas
neytron
nf
nformasiya
nformatika
nfrastruktur
ng
ngc
ngilis
ngiliscə
ngilislər
ngilislərin
ngiltərə
ngiltərədə
ngiltərədəki
ngiltərədən
ngiltərəni
ngiltərənin
ngiltərəyə
ngo
ngu
nh
nhan
nhen
nhendə
ni
nic
nicat
nicholas
nida
niderland
niderlandda
niderlandın
nifrət
nig
nigah
nigahdan
nigar
niger
nigeriya
night
nijni
nik
nikah
nikaha
nikahdan
nikahı
nikaraqua
nikel
niki
nikita
niko
nikol
nikola
nikolas
nikolay
nikolayev
nikolayevic
nikolayın
nikov
nil
nils
nim
nin
nina
nino
nintendo
nir
nis
nisan
nisbi
nisbilik
nisbət
nisbətdə
nisbəti
nisbətində
nisbətini
nisbətinin
nisbətinə
nisbətən
nisə
nitq
nitqi
nitqin
nitqində
nitrat
nitsa
niversitesi
niy
niyaz
niyazi
niyy
niyyət
niyyəti
niyyətində
niyyətini
niyə
niz
nizam
nizama
nizami
nizaminin
nizamlı
nizamnamə
nizamnaməsi
nizamsız
nizamu
nizamı
nizaməddin
nizə
nk
nki
nkis
nkpi
nku
nkvd
nl
nlu
nlə
nlər
nlərdə
nlərdən
nləri
nlərin
nlərində
nlərindən
nlərini
nlərinin
nlərinə
nlərlə
nlərə
nm
nmu
nmə
nmədən
nmək
nməmis
nməsi
nməsini
nməsinə
nməyə
nməyən
nməz
nn
nna
nni
nnovasiya
nnu
nnə
nnən
nnət
no
nobel
nofəl
nog
nokia
nolan
nom
nominal
nominasiya
nominasiyalar
nominasiyası
nominasiyasında
non
none
noqay
nor
nord
norma
normadan
normal
normalar
normaları
normalarına
normalarının
normallas
norman
normandiya
normativ
norta
nortadan
north
northern
norton
norvec
nos
not
nota
note
notes
notr
nov
nova
novel
novella
november
novo
novosibirsk
novqorod
novruz
novruzlu
novruzov
now
noxud
noy
noyabr
noyabrda
noyabrın
noyabrında
noyabrından
nqilab
nqilabc
nqilabdan
nqilabi
nqilabı
nqilabından
nqilabının
nqus
nr
nra
ns
nsan
nsanlar
nsanların
nsanın
nsif
nsiflər
nsiyyət
nsiyyətdə
nstitunun
nstitut
nstitutda
nstitutu
nstitutun
nstitutuna
nstitutunda
nstitutundan
nstitutunu
nstitutunun
nsu
nsə
nt
ntellektual
nteqrasiya
nter
nternational
nternet
nternetdə
ntertoto
ntibah
ntihar
ntiqam
ntu
ntv
ntəzəm
nu
nuclear
nuh
nuhun
nuklein
number
numizmatika
nun
nunun
nur
nura
nuri
nuriyev
nuriyeva
nuriyyə
nurlan
nurlar
nurlu
nursultan
nuru
nurəddin
nus
nuts
nuxa
nv
nvan
nvanlanmıs
nvanı
nvanına
nvanında
nvanını
nvestisiya
ny
nya
nyaca
nyada
nyadakı
nyadan
nyadov
nyadovun
nyadzadə
nyago
nyam
nyanı
nyanın
nyası
nyasına
nyasında
nyasını
nyasının
nyatov
nyaya
nyu
nyuton
nyutonun
nyəvi
nz
nzibatc
nzibati
nı
nın
nə
nəbatat
nəbati
nəbaxan
nəbi
nəbiyev
nəcib
nəcibə
nəcməddin
nəcəf
nəcəfov
nəcəfqulu
nəcəfzadə
nəcək
nədi
nədir
nədək
nədən
nədənsə
nəf
nəfis
nəfs
nəfsi
nəfər
nəfərdir
nəfərdən
nəfəri
nəfərin
nəfərini
nəfərlik
nəfərlə
nəfərə
nəfəs
nəfəsi
nəfəsli
nəg
nəhayət
nəhcu
nəhəng
nəinki
nəldi
nəldilmis
nəldir
nəlir
nəlmis
nəltdi
nəltmis
nəltmək
nələn
nələr
nəm
nəmdə
nəmi
nəmin
nəmində
nəmli
nəmlidir
nəməxsus
nəməxsuslug
nən
nənlər
nənə
nənəsi
nəql
nəqli
nəqliyyat
nəqliyyatı
nəqliyyatın
nəqliyyatının
nəqqas
nəqs
nər
nərgiz
nəriman
nərimanbəyov
nərimanov
nərimanovun
nərkən
nərmin
nərə
nərək
nəs
nəsib
nəsibov
nəsibə
nəsihət
nəsil
nəsildən
nəsillər
nəsilləri
nəsillərin
nəsillərə
nəsimi
nəsiminin
nəsir
nəsirov
nəsirəddin
nəsli
nəslin
nəslindən
nəslindəndir
nəslini
nəslinin
nəslinə
nəslə
nəsr
nəsri
nəsrulla
nəsrəddin
nəsx
nəsə
nəticə
nəticədə
nəticələndi
nəticələnir
nəticələnmis
nəticələnə
nəticələnən
nəticələr
nəticələri
nəticələrin
nəticələrindən
nəticələrini
nəticələrinin
nəticələrinə
nəticələrə
nəticəni
nəticəsi
nəticəsidir
nəticəsində
nəticəsini
nəticəsinə
nəticəsiz
nəticəyə
nəvai
nəviyyə
nəvvab
nəvvər
nəvələri
nəvəsi
nəvəsidir
nəyi
nəyin
nəyə
nəzakət
nəzarət
nəzarətc
nəzarətdə
nəzarəti
nəzarətin
nəzarətində
nəzarətini
nəzarətinin
nəzarətinə
nəzarətə
nəzdində
nəzdindəki
nəzir
nəzm
nəzər
nəzərdə
nəzərdən
nəzəri
nəzərində
nəzərindən
nəzəriyyə
nəzəriyyəc
nəzəriyyələr
nəzəriyyələri
nəzəriyyəni
nəzəriyyənin
nəzəriyyəsi
nəzəriyyəsində
nəzəriyyəsini
nəzəriyyəsinin
nəzəriyyəsinə
nəzəriyyəyə
nəzərli
nəzərov
nəzərə
nəzərəc
nəzərən
o
oann
ob
oba
obama
oban
obanlar
obanı
obanın
obası
obraz
obrazlar
obrazları
obrazların
obrazlarını
obrazlı
obrazı
obrazın
obrazına
obrazında
obrazını
obrazının
obyekt
obyekti
obyektin
obyektinə
obyektiv
obyektlər
obyektləri
obyektlərin
obyektlərinin
obyektlərə
obyektə
oc
ocag
ocaq
ocaqları
ocaqlarından
ocaqlarının
ocean
ocl
oclc
oct
october
od
oda
odda
oddan
odessa
odlar
odlu
odu
odun
oduna
oduncag
odur
of
off
office
official
ofis
ofisi
ofisində
og
oglu
ogu
oh
ohan
ohann
ohannın
ohayo
oil
ois
ok
oka
okean
okeana
okeanda
okeaniya
okeanların
okeanı
okeanın
okeanına
okeanında
okeanının
okinava
oklahoma
okolad
oksana
oksford
oksid
oksidi
oksidləs
oksigen
oksigenin
oksigenlə
oktay
oktyabr
oktyabrda
oktyabrın
oktyabrında
oktyabrından
ol
ola
olacag
olacaq
olacaqdı
olacaqdır
olacaqlar
olacaqsan
olam
olan
olana
olanda
olandan
olanlar
olanlara
olanlardan
olanları
olanların
olanı
olanın
olaq
olar
olarak
olaraq
olardı
olarkən
olarmı
olarsa
olasan
olaydı
old
oldu
oldug
oldular
oldum
oldun
olduq
olduqca
olduqda
olduqdan
olduqları
olduqlarına
olduqlarından
olduqlarını
oldur
oldı
oleq
olimp
olimpiada
olimpiadanın
olimpiadası
olimpiadasına
olimpiadasında
olimpiadasını
olimpiadasının
olimpik
olimpiya
oliver
ollar
olların
olma
olmadan
olmadı
olmadıg
olmadıqda
olmag
olmaları
olmalarına
olmalarını
olmalı
olmalıdır
olmalıdırlar
olmamalıdır
olmamaq
olmaması
olmamasıdır
olmamasına
olmamasından
olmamasını
olmamıs
olmaq
olmaqda
olmaqdan
olmaqdır
olmaqla
olmasa
olmasaydı
olması
olmasıdır
olmasın
olmasına
olmasında
olmasından
olmasını
olmasının
olmaya
olmayacag
olmayacaq
olmayan
olmayanlar
olmayaraq
olmayıb
olmayın
olmaz
olmazdı
olmazsa
olmur
olmurdu
olmus
olqa
olsa
olsada
olsalar
olsam
olsan
olsaydı
olsun
olsunlar
olu
olub
olubdu
olubdur
olublar
olum
olun
oluna
olunacag
olunacaq
olunacaqdır
olunan
olunana
olunandan
olunanlar
olunanların
olunaraq
olunarkən
olunarsa
olundu
olundug
olundular
olunduqda
olunduqdan
olunma
olunmadı
olunmadıg
olunmag
olunmalı
olunmalıdır
olunmamıs
olunmaq
olunmaqdadır
olunmaqla
olunması
olunmasıdır
olunmasına
olunmasında
olunmasından
olunmasını
olunmasının
olunmayan
olunmayıb
olunmaz
olunmur
olunmus
olunsa
olunsun
olunub
olunur
olunurdu
olunurdular
olunurlar
olur
olurdu
olurdular
olurlar
olursa
oluruq
olus
om
oman
omega
omsk
omski
on
ona
onda
ondadır
ondan
one
ongu
onikibarmaq
onilliklər
onkologiya
onlar
onlara
onlarca
onlarda
onlardan
onlarla
onları
onların
onlayn
online
onlug
onluq
only
onsuz
ontario
onu
onun
onuncu
onunda
onunla
onurg
op
open
opera
operada
operalar
operaları
operanın
operası
operasında
operasının
operation
operativ
operator
operatorlar
operatorname
operatoru
operetta
optik
optika
optimal
optimallas
optional
options
oq
oqtay
or
ora
orada
oradakı
oradan
oral
oran
orange
oranı
oranın
oraq
oraya
orba
orbası
orbit
orbital
orbitinə
orbitə
orchestra
orconikidze
orda
ordan
ordaniya
ordaniyanın
ordanın
orden
ordeni
ordenin
ordeninin
ordeninə
ordenli
ordenləri
order
ordu
ordubad
ordubadda
ordubadi
ordubadinin
orduda
ordudan
ordular
orduları
ordularını
ordularının
ordunu
ordunun
ordusu
ordusuna
ordusunda
ordusundan
ordusunu
ordusunun
orduya
orenburq
oreqon
orfoqrafiya
org
organization
orhan
orient
oriental
orientation
origin
original
origins
orijinal
orijinallıg
orjinal
orkestr
orkestri
orkestrin
orkestrinin
orlando
orlas
orlean
orlov
orlu
ornament
ornamentlər
oronim
orqan
orqanik
orqanizm
orqanizmdə
orqanizmi
orqanizmin
orqanizmində
orqanizmlər
orqanizmlərin
orqanizmə
orqanlar
orqanlara
orqanları
orqanların
orqanlarına
orqanlarında
orqanlarından
orqanlarını
orqanlarının
orqanı
orqanıdır
orqanın
orqanına
orqanının
ort
orta
ortac
ortada
ortadan
ortag
ortalama
ortaları
ortalarına
ortalarında
ortalarından
ortalıg
ortancıl
ortaq
ortası
ortasına
ortasında
ortasından
ortaya
ortodoks
oruc
orucov
orucu
orxan
orxon
os
osaka
oscar
ose
osetin
osetiya
osetiyanın
osif
oskar
oslo
osma
osman
osmani
osmanlı
osmanlılar
osmanlılara
osmanlılarla
osmanlıların
osmanlının
osmanlıya
osmanog
osmanov
osmanın
osmond
osse
ost
ostanı
ostanında
ostanındakı
ostanının
ostin
ot
ota
otag
otaq
otaqda
otaqdan
otaqlar
otaqları
otaqların
otaqlarının
otaqlı
otel
oteldə
oteli
otelin
otello
otellər
other
otland
otlandiya
otlandiyada
otlandiyanın
otlaq
otlaqlar
otlaqları
otlar
otlu
otrs
otto
ottoman
otu
otur
oturacag
oturacaq
oturan
oturaq
oturdu
oturdug
oturmus
oturub
oturur
otuz
ou
ouda
ounun
our
ousu
ousunda
ousunun
out
ov
ova
oval
ovalıg
ovalıq
ovc
ovdan
ovdar
over
overn
overview
ovg
ovlanması
ovu
ovuc
ovun
own
ox
oxalma
oxalması
oxalır
oxatan
oxatanlar
oxatma
oxc
oxdan
oxdu
oxdur
oxford
oxfunksiyalı
oxillik
oxlar
oxları
oxlarının
oxlu
oxlug
oxluq
oxmillətli
oxot
oxs
oxsaylı
oxtərəfli
oxu
oxucu
oxucular
oxuculara
oxucuları
oxucuların
oxucuya
oxudu
oxudug
oxuduqdan
oxuma
oxumag
oxumaq
oxumaqla
oxumus
oxun
oxuna
oxunan
oxunda
oxunması
oxunmus
oxunu
oxunun
oxunur
oxunus
oxusu
oxuya
oxuyan
oxuyanda
oxuyaraq
oxuyarkən
oxuyub
oxuyur
oxuyurdu
oxuyurlar
oy
oyadır
oyan
oyanır
oyanıs
oyk
oykonim
oykonimi
oykonimin
oyma
oymag
oymaq
oynadı
oynadıg
oynag
oynamag
oynamaq
oynamıs
oynanan
oynanılan
oynanılır
oynaq
oynaya
oynayan
oynayaraq
oynayıb
oynayır
oynayırdı
oynayırlar
oyulmus
oyun
oyuna
oyunc
oyuncaq
oyuncaqlar
oyunda
oyundakı
oyundan
oyunlar
oyunlara
oyunlarda
oyunları
oyunların
oyunlarına
oyunlarında
oyunlarından
oyunlarını
oyunlarının
oyunu
oyunudur
oyunun
oyununa
oyununda
oyununu
oyununun
oyuq
oz
ozan
ozon
p
pa
pablo
pac
pacific
pad
padar
padis
pads
page
pages
painting
pak
paket
paketi
pakistan
pakistana
pakistanda
pakistanın
paktı
pal
palace
palata
palatanın
palatası
palatasına
palatasında
palatasının
palc
paleogen
paleolit
paleozoy
palermo
palgrave
palma
palmira
paltar
paltarlar
paltarları
paltarlarını
paltarı
paltarın
paltarını
palıd
pambıg
pambıq
pambıqc
pamir
pan
panama
panc
pandemiyası
panel
panorama
panoramio
pantera
panzer
paolo
papa
papag
papanın
papaq
papası
paper
papers
papua
par
para
parad
paradlarda
paradlarında
paradı
paradında
paralel
paralimpiya
parameter
parameters
parametr
parametrlər
parametrləri
paraqvay
paras
parazit
parazitin
parazitlik
parc
parfiya
pari
paris
parisdə
parisdəki
parisdən
parisi
parisin
parisə
park
parka
parkda
parker
parklar
parkları
parkı
parkın
parkında
parkının
parlament
parlamentdə
parlamenti
parlamentin
parlamentində
parlamentinin
parlamentinə
parlamentlərarası
parlamentə
parlaq
parlaqlıg
pars
part
partial
partiya
partiyadan
partiyalar
partiyaları
partiyaların
partiyalarının
partiyanı
partiyanın
partiyası
partiyasına
partiyasında
partiyasından
partiyasını
partiyasının
partiyaya
partizan
partizanlar
partladılması
partladılmıs
partlaması
partlayıcı
partlayıs
party
parıltı
pas
paskal
paskevic
pasport
passiv
past
pasxa
patent
patenti
patoloji
patriarx
patriarxı
patrick
patrik
patrul
paul
paulo
paulu
pavel
pavelin
pavilyonu
pavlov
pavlovic
paxla
paxlalı
pay
paylanma
paylanması
paylanmıs
paylanır
paylas
paytaxt
paytaxta
paytaxtda
paytaxtları
paytaxtı
paytaxtıdır
paytaxtın
paytaxtına
paytaxtında
paytaxtını
paytaxtının
payı
payına
payını
payız
payızda
payızın
payızında
paz
pb
pc
pdf
pdu
pe
peace
pec
pedaqogika
pedaqoji
pedaqoq
pedaqoqlar
pedaqoqları
pedaqoqu
pedoqoji
pedro
pek
pekin
pekində
peloponnes
pen
penalti
pendir
penguin
penis
pensilvaniya
pensiya
pentacalia
people
peoples
peqas
per
peres
performans
performansı
periferik
perikl
period
perm
perpendikulyar
perri
perry
persey
persia
persian
personaj
personajlar
personajları
personajların
personajlarından
personajı
personajın
personajının
personal
perspective
perspectives
perspektiv
perspektivli
perspektivlər
perspektivləri
peru
perunun
pes
pet
peter
peterburq
peterburqa
peterburqda
peterburqdakı
peterburqun
peterhof
petra
petroleum
petrov
petrovic
peyda
peyg
peyk
peyki
peykin
peyklər
peykləri
peyman
peyvənd
peyzaj
pfals
pfk
pg
ph
phase
phd
phi
philadelphia
philip
philosophy
photo
photos
php
phyllonorycter
phys
physical
physics
phytoseiidbase
phytoseius
pi
piano
pianoc
pic
picture
pictures
pierre
pik
pillə
pillədə
pilləkən
pilləkənlər
pilləli
pillələrin
pillənin
pilləsi
pilləsində
pilləsini
pilot
pilotlar
pilotları
pilotsuz
pilotu
pilotun
pilsudski
pink
pinyin
pioner
pir
pirallahı
piramida
pirans
pireney
pireneylər
piri
pirin
piriyev
pirs
pirsinq
pis
pislik
pisləs
pit
piter
pitsbergen
pivə
piy
piyada
piyadalar
piyadaları
piyalə
pkk
pl
place
plan
plana
planda
planet
planetar
planetary
planeti
planetin
planetinin
planetlər
planetlərin
plank
planlar
planları
planlarını
planlarının
planlas
planlı
plans
plant
plants
planı
planın
planına
planında
planını
planının
plastik
plata
platforma
platformaları
platforması
platformasında
platin
plato
platon
platonun
play
player
playstation
plaza
plazma
please
pley
pliosen
plitəsi
plos
plotarea
plotdata
plov
plu
plus
plutarx
pluton
pm
pmid
png
po
poc
podpolkovnik
podratc
poema
poemada
poemalar
poemaları
poemanın
poeması
poemasında
poemasını
poemasının
poetik
poetikası
poetry
poeziya
poeziyası
poeziyasında
poeziyasının
point
pol
polad
poladov
poland
policy
polimer
polimerlərin
polimerləs
polimetal
polinq
poliqrafiya
polis
polish
polisi
polisin
polisinin
polislər
polisə
politexnik
political
politics
politologiya
politoloq
polkovnik
polkovniki
polo
poloc
pols
poltava
poly
polyak
polyaklar
polyar
pomidor
pompey
pont
pop
popov
popular
population
populyar
populyardır
populyarlas
populyarlıg
populyarlıq
populyasiya
populyasiyanın
populyasiyası
pors
porsug
porsuq
port
portag
portal
portalı
portalın
portalında
portalının
portrait
portret
portreti
portretini
portretlər
portretləri
portu
portugal
portuqal
portuqaliya
portuqaliyada
portuqaliyalı
portuqaliyalılar
portuqaliyanın
portuqallar
poruc
pos
pospolita
possibl
post
postsovet
postu
postuna
postunu
potensial
potensialı
potensialına
potensialını
potensialının
potter
pour
povest
povesti
power
poza
pozan
pozaraq
pozdu
pozdug
pozg
pozitiv
pozma
pozmaq
pozmus
pozuldu
pozuldug
pozulması
pozulmasına
pozulmus
pozulur
pozuntuları
pozuntusu
pozur
pp
pr
prabhupada
practice
prades
prado
praha
praktik
praktikada
praktiki
praqa
praqada
pravda
pravoslav
pre
predmeti
prefektura
prefekturası
prefekturasında
prefekturasının
premyer
premyerası
preparatlar
preparatları
present
president
presli
preslinin
press
prezident
prezidenti
prezidentidir
prezidentin
prezidentinin
prezidentinə
prezidentlik
prezidentliyi
prezidentliyinə
prezidentliyə
prezidentlər
prezidentləri
prezidentə
pri
prime
primitiv
prince
princess
princeton
principles
prins
prinsip
prinsipi
prinsipial
prinsipini
prinsipinin
prinsipinə
prinsiplər
prinsipləri
prinsiplərini
prinsiplərinin
prinsiplərinə
prinsiplərə
prinston
print
prioritet
pris
prisi
prisində
prisinin
prix
prize
prizmatik
pro
problem
problemi
problemin
problemini
probleminin
probleminə
problemli
problemlər
problemlərdən
problemləri
problemlərin
problemlərindən
problemlərini
problemlərinin
problemlərinə
problemlərlə
problemlərə
problems
problemə
proceedings
process
produ
production
prof
professional
professor
professorlar
professorları
professoru
professorudur
profil
profilaktik
profilaktika
profilaktikası
profile
profili
profilli
program
project
prokuror
prokurorlug
prokurorluq
prokuroru
prokurorunun
proletar
properties
proporsional
proprioseiopsis
proqnoz
proqnozlas
proqnozu
proqram
proqrama
proqramc
proqramda
proqramdan
proqramlar
proqramlarda
proqramları
proqramların
proqramlarına
proqramlarında
proqramlarını
proqramlarının
proqramlas
proqramı
proqramın
proqramına
proqramında
proqramını
proqramının
proqressiv
prorektor
prorektoru
prosedur
proses
prosesdir
prosesdə
prosesi
prosesidir
prosesin
prosesində
prosesini
prosesinin
prosesinə
proseslər
proseslərdə
prosesləri
proseslərin
proseslərində
proseslərini
proseslərinin
proseslərinə
proseslərə
prosessor
prosessual
prosesə
prospekt
prospekti
prospektində
protection
protein
protestant
proto
protokol
protokolu
proton
prototip
prototipi
provans
pru
prussiya
prussiyanın
ps
psi
psixi
psixiatriya
psixologiya
psixologiyası
psixoloji
psixoloq
pskov
pt
ptolemey
pu
pua
pub
public
publication
publications
publik
publika
published
publisher
publishers
publishing
publisist
publisistik
publisistika
publisistləri
puc
pud
puerto
pul
pula
pulemyot
pulemyotu
pulla
pullar
pulları
pulların
pullu
pulsuz
pulu
pulun
pulunu
pus
pusqu
pusquya
put
putin
putinin
px
pyer
pyes
pyesi
pyesinin
pyeslər
pyesləri
pyotr
pyotrun
pıc
pə
pəhləvan
pəhləvanın
pəhləvi
pəhriz
pək
pələng
pəmbək
pənah
pənahəli
pəncab
pəncərə
pəncərədən
pəncərələr
pəncərələri
pəncərələrin
pəncərəsi
pər
pərakəndə
pərdə
pərdəli
pərdənin
pərdəsi
pəri
pəris
pərisi
pərsabad
pərvanə
pərvin
pərviz
pərən
pərəstis
pəs
q
qa
qab
qaba
qabad
qabag
qaban
qabaq
qabaqcadan
qabaqcıl
qabaqda
qabarma
qabarıq
qabda
qabil
qabilində
qabiliyyəti
qabiliyyətini
qabiliyyətinin
qabiliyyətinə
qabiliyyətli
qabiliyyətləri
qablar
qablarda
qabları
qabların
qablas
qabriel
qabı
qabıg
qabın
qabıq
qabıqlı
qabırg
qac
qacar
qacarlar
qacarların
qacarın
qadag
qadar
qadir
qadirdir
qadın
qadına
qadından
qadındır
qadınla
qadınlar
qadınlara
qadınlararası
qadınlarda
qadınlardan
qadınlarla
qadınları
qadınların
qadınlarının
qadını
qadının
qadınəfəndi
qafan
qafar
qafarov
qafarova
qafil
qafiyə
qafqaz
qafqaza
qafqazda
qafqazdakı
qafqazdan
qafqazinfo
qafqazı
qafqazın
qafur
qag
qahirə
qahirədə
qahirəyə
qaidə
qal
qala
qalac
qalacag
qalacaq
qalacıq
qalada
qaladan
qalaktik
qalaktika
qalaktikadır
qalaktikalar
qalaktikaların
qalaktikanın
qalalar
qalaları
qalaların
qalalarını
qalan
qalanlar
qalanları
qalanı
qalanın
qalaq
qalar
qalaraq
qaları
qalarına
qalarından
qalarını
qalarının
qalası
qalasına
qalasında
qalasından
qalasını
qalasının
qalatasaray
qalay
qalaya
qaldı
qaldıg
qaldılar
qaldım
qaldıqdan
qaldıqları
qaldıra
qaldıran
qaldıraraq
qaldırdı
qaldırdıg
qaldırdılar
qaldırma
qaldırmag
qaldırmaq
qaldırmıs
qaldırıb
qaldırıldı
qaldırılması
qaldırılmasına
qaldırılmıs
qaldırılır
qaldırır
qalereya
qalereyanın
qalereyası
qalereyasında
qalereyasının
qalib
qalibi
qalibiyyət
qaliblər
qalibləri
qalileo
qaliley
qalina
qalisiya
qalma
qalmadı
qalmadıg
qalmag
qalmalı
qalmamıs
qalmaq
qalmaqal
qalmaqda
qalmaqdadır
qalması
qalmasın
qalmasına
qalmasını
qalmayan
qalmayıb
qalmaz
qalmır
qalmıs
qalsa
qalsın
qalx
qalxa
qalxan
qalxanabənzər
qalxanı
qalxaraq
qalxdı
qalxma
qalxmag
qalxmaq
qalxması
qalxmıs
qalxıb
qalxır
qalıb
qalıcı
qalıg
qalın
qalınlas
qalınlıg
qalıq
qalıqlar
qalıqları
qalıqlarına
qalıqlarından
qalıqlarını
qalıqlarının
qalır
qalırdı
qalırdılar
qalırlar
qam
qambiya
qamc
qamma
qamıs
qan
qana
qanad
qanadlar
qanadları
qanadların
qanadlı
qanadı
qanadın
qanadında
qanadının
qanaxma
qanda
qandi
qandinin
qane
qanla
qanlar
qanlı
qanq
qanun
qanuna
qanunauyg
qanunda
qanundan
qanuni
qanuniləs
qanunla
qanunlar
qanunlara
qanunları
qanunların
qanunlarına
qanunlarını
qanunlarının
qanunsuz
qanunu
qanunun
qanununa
qanununu
qanununun
qanunverici
qanunvericilik
qanunvericilikdə
qanunvericiliklə
qanunvericiliyi
qanunvericiliyin
qanunvericiliyinə
qanunvericiliyə
qanı
qanın
qanına
qanından
qanını
qanıx
qap
qapag
qapalı
qapaq
qapı
qapıc
qapıda
qapıdan
qapılar
qapıları
qapılarını
qapını
qapının
qapısı
qapısına
qapısında
qapısından
qapısını
qapısının
qapıya
qaqarin
qaqauz
qar
qara
qaraag
qarabag
qarabas
qarabulaq
qarabəkir
qarac
qaraca
qaraciyər
qaraciyərin
qaradag
qaradır
qaradərili
qarag
qarago
qaragu
qarakilsə
qaralama
qaralamaları
qaralar
qaramal
qaraman
qaramanlı
qaramanog
qaraməryəm
qaranlıg
qaranlıq
qaranlıqda
qaranqus
qaranın
qarapapaq
qaraqalpaq
qaraqas
qaraqaya
qaraqoyunlu
qaraqoyunlular
qaraqurd
qaraqus
qaras
qarasu
qaraxanlı
qarayazı
qarayev
qarayevin
qardas
qarg
qari
qarlar
qarların
qarlı
qarnizon
qarnizonu
qarnizonunun
qarnı
qarov
qarpız
qarqar
qars
qarsda
qarsiya
qartal
qartalı
qaryag
qarı
qarın
qarının
qarıs
qarət
qas
qasid
qasim
qastrol
qası
qasım
qasımlı
qasımov
qasımova
qasımovun
qasımus
qasımzadə
qasımın
qasına
qasının
qasırg
qat
qatar
qatarlar
qatarı
qatarın
qatdı
qatil
qatili
qatilin
qatları
qatlarında
qatlı
qatı
qatılan
qatılaraq
qatılas
qatıldı
qatıldıg
qatılmag
qatılmaq
qatılması
qatılmıs
qatılıb
qatılıg
qatılır
qatın
qatına
qatında
qatından
qatının
qatıq
qatır
qatıs
qavilə
qavilədə
qavilələr
qavilələri
qavilələrin
qaviləni
qavilənin
qaviləsi
qaviləsində
qaviləsindən
qaviləsini
qaviləsinin
qaviləsinə
qaviləyə
qavimət
qaviməti
qavimətin
qavimətini
qavimətinə
qavimətlə
qavimətə
qavrayıs
qax
qay
qaya
qayalar
qayaların
qayalı
qayalıq
qayanın
qayası
qayau
qayc
qayda
qaydada
qaydalar
qaydalara
qaydaları
qaydaların
qaydalarına
qaydalarını
qaydalarının
qaydası
qaydasına
qaydasında
qaydasını
qaydaya
qayg
qayisə
qayisədə
qayisəli
qayisəsi
qaymaq
qaynag
qaynama
qaynaq
qaynaqlanan
qaynaqlanır
qaynaqlar
qaynaqlarda
qaynaqları
qaynaqlarında
qaynar
qaynayan
qaynayıb
qaytara
qaytardı
qaytarmag
qaytarmaq
qaytarıldı
qaytarılması
qaytarılmasını
qaytarılmıs
qaytarılır
qaytarır
qayıbov
qayıda
qayıdacag
qayıdan
qayıdanda
qayıdandan
qayıdaraq
qayıdarkən
qayıdıb
qayıdır
qayıdırlar
qayıdıs
qayıg
qayıq
qayıqlar
qayıs
qayıt
qayıtdı
qayıtdıg
qayıtdılar
qayıtdıqdan
qayıtmag
qayıtmaq
qayıtması
qayıtmasına
qayıtmıs
qaz
qazan
qazana
qazanan
qazananlar
qazanaraq
qazanc
qazandı
qazandıg
qazandılar
qazandıqdan
qazandıqları
qazandıran
qazandırdı
qazandırmıs
qazandırır
qazanmag
qazanmaq
qazanması
qazanmasına
qazanmıs
qazanıb
qazanılan
qazanılmıs
qazanın
qazanır
qazax
qazaxda
qazaxlar
qazaxların
qazaxıstan
qazaxıstana
qazaxıstanda
qazaxıstanın
qazi
qazinin
qazla
qazlar
qazları
qazların
qazlı
qazma
qazyumov
qazı
qazılması
qazılmıs
qazın
qazıntı
qazıntılar
qazıntıları
qazıntıların
qazının
qazısı
qazıyev
qbal
qc
qd
qdansk
qdə
qdən
qeyb
qeybullayev
qeyd
qeydi
qeydiyyat
qeydiyyata
qeydiyyatdan
qeydiyyatı
qeydiyyatına
qeydlər
qeydləri
qeydlərində
qeydlərinə
qeydə
qeyr
qeyri
qeyrət
qeys
qht
qi
qibleyi
qiblə
qida
qidalanan
qidalanma
qidalanması
qidalanır
qidalanırlar
qidanın
qin
qinə
qiq
qiraət
qis
qisas
qisasc
qisasını
qisim
qism
qismi
qismində
qismini
qisminin
qismən
qismət
qitə
qitələrarası
qitənin
qitəsində
qitəsinin
qiyabi
qiyam
qiyamc
qiyamı
qiyamət
qiyas
qiyasəddin
qiymət
qiyməti
qiymətini
qiymətinin
qiymətinə
qiymətli
qiymətləndirdi
qiymətləndirildi
qiymətləndirilir
qiymətləndirilmis
qiymətləndirilməsi
qiymətləndirilən
qiymətləndirir
qiymətləndirmis
qiymətləndirmə
qiymətləndirmək
qiymətləndirən
qiymətləndirərək
qiymətlər
qiymətləri
qiymətlərin
qiymətlərinin
qiymətlərlə
qiymətə
ql
qlazqo
qlim
qlimi
qlobal
qloballas
qlobus
qlu
qlər
qo
qobu
qobustan
qobustanda
qoc
qoca
qocalar
qocaman
qocanın
qocayev
qohum
qohumları
qohumlarının
qohumlug
qohumluq
qohumu
qol
qola
qolc
qolf
qoll
qolla
qollar
qolları
qolların
qollarından
qollarını
qollarının
qollu
qoltug
qoltuq
qolu
qoludur
qolun
qoluna
qolundan
qolunu
qolunun
qomes
qonag
qonaq
qonaqlar
qonaqlara
qonaqları
qonaqların
qonc
qondarma
qons
qonur
qoq
qoqol
qoqun
qor
qorbac
qorc
qordon
qori
qorki
qorqud
qorudu
qorudug
qorug
qoruma
qorumag
qorumaq
qorumus
qorunan
qorunma
qorunmaq
qorunması
qorunmasına
qorunmasında
qorunmasını
qorunmus
qorunub
qorunur
qoruq
qoruqları
qoruya
qoruyan
qoruyub
qoruyucu
qoruyucusu
qoruyur
qoruyurdu
qorxan
qorxaq
qorxaraq
qorxdug
qorxma
qorxmaz
qorxu
qorxub
qorxudan
qorxulu
qorxun
qorxunc
qorxur
qorxuram
qorxurdu
qorxusu
qorxusundan
qorxutmaq
qorxuya
qos
qotik
qotika
qovanlı
qovaq
qovdu
qovg
qovmaq
qovs
qovub
qovuldu
qovulması
qovulmus
qovulur
qovur
qovus
qoxu
qoxusu
qoy
qoya
qoyan
qoyaraq
qoydu
qoydug
qoydular
qoyma
qoymadı
qoymag
qoymaq
qoymaqla
qoyması
qoymur
qoymus
qoynunda
qoyub
qoyulan
qoyuldu
qoyuldug
qoyulması
qoyulmus
qoyulub
qoyulur
qoyulurdu
qoyulus
qoyun
qoyunc
qoyunlu
qoyunlular
qoyunu
qoyur
qoyurdu
qoyurlar
qoz
qozbel
qq
qr
qrad
qraf
qrafik
qrafika
qrafikalı
qrafikası
qrafiki
qrafit
qraflıg
qraflıq
qrafı
qram
qrammatik
qrammatika
qrammatikası
qran
qranada
qrand
qranit
qrant
qravitasiya
qravu
qremmi
qrenlandiya
qrenobl
qrenobldan
qreq
qrey
qreys
qrim
qrin
qrinvic
qrip
qriqor
qriqori
qriqorian
qriqoryan
qrossmeyster
qroznı
qrunt
qrup
qrupa
qrupda
qrupdan
qrupla
qruplar
qruplara
qruplarda
qruplardan
qruplarla
qrupları
qrupların
qruplarına
qruplarında
qruplarından
qruplarını
qruplarının
qruplas
qrupu
qrupudur
qrupun
qrupuna
qrupunda
qrupundan
qrupunu
qrupunun
qrız
qs
qsan
qsc
qteyi
qtisad
qtisadc
qtisadi
qtisadiyyat
qtisadiyyatı
qtisadiyyatın
qtə
qtədə
qtədən
qtəli
qtələr
qtələri
qtəsi
qtəsidir
qtəsində
qtəsindən
qtəsini
qtəsinə
qtəyə
qu
quarterly
quba
qubad
qubada
qubadlı
qubadlının
qubalı
qubernator
qubernatorlug
qubernatoru
quberniya
quberniyası
quberniyasında
quberniyasının
qucag
qudovic
que
queen
questions
qul
qulac
qulag
qulam
qulaq
qulaqları
quldarlıq
quldur
quldurlar
quldurları
quliyev
quliyeva
quliyevin
qullar
qulları
qulların
qullug
qulluq
qulluqc
qulu
qulun
quluzadə
qum
qumar
qumas
qumdas
qumlu
qumuq
qun
quq
quqa
quqi
quqlar
quqlara
quqları
quqların
quqlarına
quqlarından
quqlarını
quqlarının
quqlu
quqs
ququ
ququn
ququna
ququndan
ququnu
ququnun
ququs
qur
qura
quran
qurana
quranda
qurandan
qurani
quranı
quranın
quraq
quraqlıg
quraqlıq
quraraq
quras
qurbag
qurban
qurbangah
qurbani
qurbanlar
qurbanları
qurbanların
qurbanlarına
qurbanlarının
qurbanlı
qurbanov
qurbanova
qurbanovun
qurbanı
qurbanın
qurbanəli
qurd
qurdlar
qurdu
qurdug
qurdular
qureys
qurg
qurlus
qurma
qurmag
qurmaq
qurması
qurmus
qurs
qurtar
qurtara
qurtaracag
qurtaran
qurtardı
qurtardıqdan
qurtarmag
qurtarmaq
qurtarmıs
qurtarıb
qurtarır
qurtulmaq
qurtulus
quru
qurub
quruc
qurucu
qurucuları
qurucularından
quruculug
quruculuq
qurucusu
quruda
qurudan
qurudulmus
qurulan
qurulandan
quruldu
quruldug
qurulduqdan
qurulması
qurulmasına
qurulmasında
qurulmasından
qurulmasını
qurulmasının
qurulmus
qurultay
qurultayda
qurultayı
qurultayın
qurultayında
qurultayının
qurulub
qurulur
qurulus
qurum
quruma
qurumlar
qurumlarla
qurumları
qurumların
qurumlarının
qurumu
qurumun
qurumunun
qurumus
qurur
qururlar
qurus
quruya
quruyur
qus
qusar
qusma
qustav
qut
quta
qutaracag
qutluq
qutqas
qutu
qutuları
qutundan
qutusu
quyrug
quyruq
quyruqlu
quyu
quyudan
quyuları
quyuların
quyularının
quyunun
quyusu
quyuya
quzey
quzu
qvardiya
qvardiyac
qvatemala
qvineya
qvk
qıc
qıg
qıl
qılan
qıldı
qılman
qılmaq
qılmıs
qılub
qılıb
qılınc
qılıncbalıg
qılıncdan
qılıncla
qılıncı
qılıncını
qılır
qın
qınlar
qınlara
qınları
qınların
qınlıq
qını
qıpc
qır
qırag
qıran
qıraq
qıraraq
qırd
qırdlar
qırdı
qırdıstan
qırdıstanın
qırg
qırmag
qırmaq
qırmıs
qırmızı
qırmızıdır
qırmızımtıl
qırx
qırxbulaq
qırıb
qırıcı
qırıldı
qırılma
qırılması
qırılmıs
qırıq
qırıqları
qırır
qırıs
qıs
qısa
qısaca
qısadır
qısaldılmıs
qısametrajlı
qısamu
qıtlıg
qıtlıq
qız
qıza
qızardılmıs
qızdan
qızdır
qızdırma
qızg
qızla
qızlar
qızlara
qızları
qızların
qızlarından
qızlarını
qızlarının
qızlıq
qızmar
qızı
qızıdır
qızıl
qızıla
qızılag
qızılbas
qızılca
qızıldan
qızılgu
qızılla
qızılqus
qızılı
qızılın
qızım
qızın
qızına
qızını
qızının
qızıs
qə
qəbildən
qəbilə
qəbilələr
qəbilələri
qəbilələrin
qəbilələrinin
qəbilənin
qəbiləsi
qəbiləsindən
qəbiləsinin
qəbir
qəbirdən
qəbiristanlıg
qəbiristanlıq
qəbiristanlıqda
qəbirlər
qəbirlərdən
qəbirləri
qəbirlərin
qəbirstanlıg
qəbiru
qəbri
qəbrin
qəbristanlıg
qəbul
qəbulu
qəbuluna
qəbələ
qəbələdə
qəddar
qəddarlıg
qəddimə
qəddəm
qəddəratını
qəddəs
qəddəsi
qəddəslərin
qədim
qədimdir
qədimdə
qədimdən
qədimi
qədimov
qədir
qədirov
qədr
qədəh
qədəhi
qədəm
qədər
qədərdir
qədəri
qədərini
qədərki
qəfil
qəfildən
qəflət
qəflətən
qəfəs
qəfəsi
qəhqəhə
qəhrəman
qəhrəmancasına
qəhrəmanlar
qəhrəmanları
qəhrəmanların
qəhrəmanlarından
qəhrəmanlarının
qəhrəmanlıg
qəhrəmanlıq
qəhrəmanlıqla
qəhrəmanov
qəhrəmanova
qəhrəmanı
qəhrəmanın
qəhrəmanının
qəhvə
qəhvəyi
qəlb
qəlbi
qəlbim
qəlbin
qəlbində
qəlbini
qəlbinə
qəlpə
qələbə
qələbədən
qələbələr
qələbəni
qələbənin
qələbəsi
qələbəsindən
qələbəsini
qələbəyə
qələm
qələmi
qələmə
qələndər
qələvi
qəm
qəmbər
qəmdən
qəmgin
qəmi
qəmli
qəmər
qəməri
qəmərli
qənaət
qənaətbəxs
qənaətinə
qənaətə
qənbər
qəndəhar
qəni
qənimət
qəniyev
qənizadə
qəpik
qərar
qərara
qərarda
qərargah
qərargahı
qərargahın
qərargahına
qərargahında
qərargahının
qərarla
qərarlar
qərarları
qərarların
qərarlarına
qərarlarını
qərarlarının
qərarlas
qərarı
qərarın
qərarına
qərarından
qərarını
qərarının
qərb
qərbdə
qərbdədir
qərbdəki
qərbdən
qərbi
qərbin
qərbində
qərbindəki
qərbindən
qərbinə
qərbə
qərib
qəribə
qərq
qərəz
qərəzli
qəs
qəsd
qəsdc
qəsdi
qəsdin
qəsdən
qəsidə
qəsr
qəsri
qəsrin
qəsrində
qəsrinin
qəssab
qəsəbə
qəsəbədə
qəsəbələri
qəsəbənin
qəsəbəsi
qəsəbəsində
qəsəbəsindəki
qəsəbəsindən
qəsəbəsinin
qəsəbəsinə
qət
qəti
qətiyyən
qətiyyətli
qətiyyətlə
qətl
qətli
qətliam
qətliamı
qətlin
qətllər
qətlə
qətnamə
qətran
qətər
qəz
qəza
qəzada
qəzadan
qəzalar
qəzaları
qəzalarında
qəzanın
qəzası
qəzasına
qəzasında
qəzasından
qəzasının
qəzaya
qəzet
qəzetdə
qəzeti
qəzetin
qəzetində
qəzetini
qəzetinin
qəzetinə
qəzetlər
qəzetlərdə
qəzetləri
qəzetlərin
qəzetlərində
qəzetlərinin
qəznəvi
qəzvin
qəzvində
qəzvini
qəzvinə
qəzzə
qəzəb
qəzəbi
qəzəbinə
qəzəbli
qəzəblənən
qəzəl
qəzəllər
qəzəlləri
qəzənfər
r
ra
rab
rabitə
rabitənin
rabitəsi
raboc
rac
race
raciət
raciəti
rada
radar
radial
radiasiya
radik
radikal
radio
radioaktiv
radioda
radionova
radionun
radiosu
radiosunda
radiosunun
radius
radiusu
radı
radıg
radə
radələrində
raf
rafael
rafi
rafiq
rafiya
rafiyac
rafiyas
rafiyası
rag
rahat
rahatlıg
rahatlıq
rahatlıqla
rahi
rahib
rahibi
rahiblər
rahibə
rahim
rai
rain
raket
raketi
raketin
raketlər
raketləri
rakli
raklinin
ralf
ram
rama
raması
ramazan
ramazanog
ramazanov
ramil
ramin
ramiz
ramon
ramıs
ran
rana
rand
randa
randakı
randan
random
range
ranla
ranlı
ranmıs
ranobe
ranı
ranın
rapid
raq
raqa
raqda
raqdakı
raqı
raqın
rar
ras
rasim
rasional
rassel
rast
rastlas
rat
ratdı
ratifikasiya
ratus
ratı
rauf
raul
ray
rayan
rayaraq
raymond
rayon
rayona
rayonda
rayonlar
rayonlara
rayonlarda
rayonları
rayonların
rayonlarına
rayonlarında
rayonlarından
rayonlarını
rayonlarının
rayonlas
rayonu
rayonun
rayonuna
rayonunda
rayonundakı
rayonundan
rayonunu
rayonunun
rays
rayt
rayıb
rayır
rayıs
razi
razı
razılas
razılıg
razılıq
rb
rbaycan
rbə
rbəcu
rbədə
rbələr
rbələri
rbənin
rbəsi
rbəsində
rbəsinin
rbəsinə
rbət
rc
rclər
rcu
rcək
rd
rdbucaqlı
rddə
rdi
rdir
rdku
rdlu
rdlər
rdləri
rdlərin
rdu
rdə
rdək
rdəmir
rdən
re
reabilitasiya
read
reaksiya
reaksiyalar
reaksiyaları
reaksiyaların
reaksiyanın
reaksiyası
reaksiyaya
reaktiv
real
realist
realiti
realizm
reallas
reallıg
reallıq
rec
record
records
rect
red
redaksiya
redaksiyası
redaksiyasında
redaksiyasının
redaktor
redaktorları
redaktorlug
redaktoru
redaktorudur
redaktorun
redaktə
redaktəsi
reduksiya
ref
reference
referendum
referendumu
reform
reformasiya
regenerasiya
region
regiona
regional
regionda
regionlar
regionlarda
regionları
regionların
regionlarında
regions
regionu
regionun
regionunda
regionunun
reich
rej
rejim
rejimdə
rejimi
rejimin
rejimində
rejimini
rejiminin
rejiminə
rejissor
rejissorlar
rejissorları
rejissorlug
rejissorluq
rejissoru
rejissorun
rek
reklam
reklamı
rekonstruksiya
rekord
rekordlar
rekordu
rekordunu
rekreasiya
rektor
rektoru
related
relations
relative
release
religion
religious
relikt
relyef
relyefdə
relyefi
relyefin
relyefli
remix
ren
renaissance
renault
rene
renessans
rentgen
rep
repc
reper
repertuarında
repin
report
reportaj
reporter
reports
repressiya
repressiyalar
repressiyaya
reprinted
reproduktiv
republic
reqbi
required
rer
res
research
resmi
resort
resources
respubli
respublika
respublikac
respublikada
respublikaları
respublikaların
respublikalarında
respublikalarının
respublikamızda
respublikamızın
respublikanın
respublikası
respublikasına
respublikasında
respublikasındakı
respublikasından
respublikasını
respublikasının
respublikaya
restavrasiya
restoran
restoranlar
restoranı
results
resurs
resurslar
resursları
resursların
resurslarının
retrieved
return
reuters
rev
review
reviews
revised
revolution
revue
rey
reyc
reyhan
reyn
reynolds
reyqan
reys
reytinq
reytinqi
reytinqində
reytinqinə
reyx
reyxin
rezin
rezonans
rf
rfan
rfi
rfu
rfə
rfələr
rfələri
rfəz
rfəzi
rfəzin
rfəzində
rfəzinin
rfəzinə
rfəzləri
rg
rgb
rgu
rgə
rh
rhanəddin
rho
rhum
ri
riayət
rib
ric
rica
rich
richard
rid
rif
rifah
rifahı
rifi
rift
right
rightarrow
rights
rih
rik
rika
rikardo
riklər
riko
rim
rin
rina
rind
rində
rindən
ring
rini
rinin
rinq
rinqin
rinə
rio
riqa
rir
ris
risalə
rise
risk
riski
riskini
riskli
rita
ritm
ritmik
ritual
river
rix
rixard
riyad
riyazi
riyaziyyat
riyaziyyatc
riyaziyyatda
riyaziyyatı
riyaziyyatın
riyy
riyyat
riyyatı
riyyatında
riyyatının
riza
rizvan
rk
rkan
rkc
rkcə
rkcəsi
rkcəsində
rkdilli
rkes
rki
rkistan
rkiye
rkiyə
rkiyədə
rkiyədəki
rkiyədən
rkiyəli
rkiyəni
rkiyənin
rkiyəyə
rklu
rklər
rklərdə
rklərdən
rkləri
rklərin
rklərindən
rklərinin
rklərlə
rklərə
rkləs
rkman
rkmən
rkmənc
rkmənistan
rkmənistanda
rkmənistanın
rkmənlər
rkmənlərin
rkməns
rkologiya
rkoloji
rkoloq
rksoy
rku
rkutsk
rkəm
rkəmli
rl
rland
rlandiya
rlandiyada
rlandiyanın
rli
rlu
rlə
rlər
rlərdə
rlərdən
rləri
rlərin
rlərində
rlərindən
rlərini
rlərinin
rlərə
rləs
rm
rmis
rmu
rmə
rmədi
rmədim
rmədən
rmək
rməkdə
rməkdən
rməklə
rməli
rmələr
rmələri
rməmis
rmənin
rməsi
rməsindən
rməsini
rməsinə
rmət
rməti
rmətini
rmətli
rmətlə
rməyi
rməyin
rməyə
rməyən
rməz
rn
rnberq
rner
rnt
rnək
ro
road
rob
robert
roberto
roberts
robertson
robin
robinson
robot
roc
rocer
rocers
rock
rod
roden
rodez
rodezdən
rodos
roger
rok
rokratik
rol
rola
roland
rolda
role
roll
rollar
rollarda
rolları
rolların
rollarında
rollarını
rolling
rolu
rolun
roluna
rolunda
rolunu
rolunun
rom
roma
romada
romalı
romalılar
romalıların
roman
romanc
romanda
romanlar
romanları
romans
romantik
romantizm
romanı
romanın
romanında
romanını
romanının
romaya
rome
romeo
ron
rona
ronald
ronaldo
ronun
room
ros
rosa
rose
ross
rostov
rostropovic
rosu
rosunun
rotten
rotterdam
routledge
rov
roy
royal
roza
rp
rpu
rpə
rpələr
rpənin
rq
rqi
rr
rriyyət
rru
rrəhim
rrəhman
rrəhmanov
rrəm
rrəmilər
rs
rsfsr
rsi
rst
rstu
rsu
rsə
rsəl
rsən
rsənir
rsət
rsətdən
rsəti
rt
rtdu
rtis
rtku
rtmu
rtmək
rtu
rtəce
rtən
ru
ruanda
rub
ruben
rubin
rubl
rudan
rudolf
rudur
rue
ruh
ruha
ruhani
ruhanilər
ruhanilərin
ruhdan
ruhi
ruhiyyə
ruhlar
ruhları
ruhların
ruhlu
ruhu
ruhulla
ruhum
ruhun
ruhuna
ruhunda
ruhunu
ruhunun
rul
rular
rule
rulug
rum
rumeli
rumi
rumlu
rumın
rumıniya
rumıniyada
rumıniyanın
run
runda
ruqiyyə
rur
rus
rusca
rusdilli
rusiya
rusiyada
rusiyadakı
rusiyadan
rusiyalı
rusiyanı
rusiyanın
rusiyası
rusiyasının
rusiyaya
ruslan
ruslar
ruslara
ruslardan
ruslarla
rusları
rusların
russell
russia
russian
russo
rustaveli
rusu
rut
rutları
rutu
rutə
ruzi
ruzvelt
ruzə
rv
rvə
ry
ryan
ryu
rz
rza
rzanın
rzaqulu
rzayev
rzayeva
rzazadə
rzu
rzə
rı
rılar
rıları
rılmıs
rılı
rım
rın
rınd
rını
rının
rısı
rıza
rə
rəb
rəbb
rəbbi
rəbbim
rəbbimiz
rəbbin
rəbbinin
rəbbinə
rəbbə
rəcəb
rəcəbov
rəcək
rədd
rədildikdə
rədilmis
rədilməsi
rədilən
rədir
rədə
rədən
rəf
rəfael
rəfi
rəfibəyli
rəfiq
rəfiqə
rəfiqəsi
rəfiyev
rəftar
rəg
rəhbər
rəhbəri
rəhbəridir
rəhbərinin
rəhbərlik
rəhbərliyi
rəhbərliyin
rəhbərliyində
rəhbərliyindəki
rəhbərliyini
rəhbərliyinin
rəhbərliyinə
rəhbərlər
rəhbərləri
rəhbərlərindən
rəhbərlərinin
rəhbərlərinə
rəhim
rəhimli
rəhimov
rəhimova
rəhimovun
rəhm
rəhman
rəhmanov
rəhmət
rəis
rəisi
rəisinin
rəisləri
rək
rəkc
rəkdən
rəkkəb
rəkkəbc
rəkkəbdir
rəkkəbləs
rəkli
rəklə
rəklər
rəkləri
rəkən
rəkəni
rəli
rəm
rəmis
rəmzi
rəmzidir
rəmzləri
rəmə
rəmələri
rəmələrinin
rəməsi
rən
rəna
rəndə
rəng
rəngarəng
rəngdə
rəngdədir
rəngi
rəngin
rəngində
rəngini
rənginə
rəngkarlıq
rəngli
rənglidir
rənglə
rənglər
rənglərdə
rənglərdən
rəngləri
rənglərin
rəngsiz
rəngə
rəni
rənin
rənlər
rəqabət
rəqabəti
rəqabətin
rəqabətə
rəqib
rəqibi
rəqibin
rəqibini
rəqibinə
rəqibləri
rəqiblərini
rəqqas
rəqqasə
rəqs
rəqsdə
rəqsi
rəqsin
rəqslər
rəqsləri
rəqəm
rəqəmi
rəqəmli
rəqəmlər
rəqəmləri
rəqəmsal
rər
rərik
rərkən
rərsən
rərək
rəs
rəsi
rəsində
rəsinin
rəsm
rəsmdə
rəsmi
rəsmiləri
rəsmiləs
rəsmin
rəsmlər
rəsmləri
rəsmlərin
rəsmən
rəssam
rəssamlar
rəssamları
rəssamların
rəssamlarının
rəssamlıg
rəssamlıq
rəssamı
rəssamın
rəsul
rəsulov
rəsulullah
rəsulum
rəsulzadə
rəsulzadənin
rəsədxana
rəsədxanası
rəsən
rət
rətdikləri
rətdiyi
rətdə
rəti
rətindən
rətini
rətinin
rətinə
rətli
rətlə
rətləndirir
rətmis
rətməyə
rətə
rəva
rəvan
rəvana
rəvanda
rəvani
rəvanın
rəvayət
rəvayətlər
rəvayətlərə
rəvayətə
rəy
rəyasət
rəyc
rəyel
rəyi
rəyim
rəyin
rəyində
rəyindən
rəyini
rəyinin
rəyinə
rəylər
rəyya
rəyə
rəzəvi
s
sa
saak
saakas
saat
saata
saatda
saatdan
saatları
saatlarında
saatlı
saatlıq
saatı
saatın
sab
sabah
sabahın
sabiq
sabiqə
sabiqədə
sabiqənin
sabiqəsi
sabiqəsində
sabiqəsindəki
sabiqəsinin
sabiqəsinə
sabiqəyə
sabir
sabirabad
sabirin
sabit
sabitdir
sabiti
sabitlik
sabitliyi
sabitliyin
sabitləs
sabitog
sabun
sabunc
sac
sad
sadalanan
sadiq
sadirə
sadıq
sadıqov
sadıqova
sadıqzadə
sadıxov
sadə
sadəcə
sadədir
sadəliyi
sadəlo
sadələs
saf
saflıg
sag
sah
sahib
sahibdir
sahibdirlər
sahibi
sahibidir
sahibin
sahibinin
sahibinə
sahibkar
sahibkarlar
sahibkarlıg
sahibkarlıq
sahiblik
sahibliyi
sahibliyində
sahibləri
sahiblərindən
sahiblərinin
sahiblərinə
sahibə
sahibədə
sahibələr
sahibəsi
sahibəsində
sahil
sahilboyu
sahildə
sahildən
sahili
sahilində
sahilindədir
sahilindəki
sahilindən
sahilinin
sahilinə
sahillər
sahillərdə
sahilləri
sahillərində
sahillərindəki
sahillərindən
sahillərini
sahillərinin
sahillərinə
sahilyanı
sahilə
sahə
sahədə
sahədəki
sahədən
sahələr
sahələrdə
sahələrdən
sahələri
sahələrin
sahələrində
sahələrindən
sahələrini
sahələrinin
sahələrinə
sahələrə
sahəni
sahənin
sahəsi
sahəsidir
sahəsində
sahəsindəki
sahəsindən
sahəsini
sahəsinin
sahəsinə
sahəyə
said
sailor
saint
sair
sairə
sait
sak
sakarya
sakin
sakindən
sakini
sakinlər
sakinləri
sakinlərin
sakinlərindən
sakinlərini
sakinlərinin
sakinlərinə
sakit
sakitlik
sakitləs
sakson
saksoniya
sal
sala
salah
salahlı
salahov
salam
salamat
salamov
salamzadə
salamın
salan
salar
salaraq
salatı
salatın
salavat
salayev
saldı
saldıg
saldılar
saleh
salma
salmag
salman
salmanov
salmanova
salmaq
salmas
salmıs
saln
salnamə
salnaməc
salnamələr
salnaməsi
salon
salonda
saloniki
salonu
salonunda
salvador
salvatore
salvia
salyan
salyanda
salıb
salın
salınan
salındı
salındıg
salınması
salınmasına
salınmasında
salınmıs
salınıb
salınır
salır
salırlar
salə
sam
saman
samanta
samara
sambo
same
sami
samir
samirə
sammiti
samson
samsun
samsung
samsunspor
samuel
samur
samuray
samux
san
sana
sanat
sanballı
sanc
sancag
sancaq
sancaqbəyi
sanders
sandra
sandıg
sandıq
sani
sanitar
sanitariya
saniyə
saniyədə
saniyəlik
saniyəyə
sanki
sankt
sanlı
sanma
sanskrit
sant
santa
santimetr
santinin
santos
santyaqo
sanı
sanın
sap
saplag
saplaqlı
saq
saqi
saqqal
saqqallar
saqqalları
saqqallı
saqqalı
saqqız
sar
sara
sarabski
sarac
sarah
saratov
saray
saraya
sarayda
saraydakı
saraydan
sarayevo
saraylar
sarayları
sarayı
sarayın
sarayına
sarayında
sarayındakı
sarayından
sarayını
sarayının
sardiniya
sarg
sarkisyan
sarmas
sarsıdıcı
sarvan
sarı
sarıcalı
sarıko
sarımsaq
sarımtıl
sarıqamıs
sarıs
sas
sasani
sasanilər
sasanilərin
sat
sata
satan
sataraq
satas
satdı
satira
satirik
satmag
satmaq
satmıs
saturn
saturnun
satıb
satıcı
satılan
satıldı
satılması
satılmıs
satılıb
satılır
satılırdı
satın
satınalan
satınalma
satır
satıs
saundtrek
savad
savadlı
savadsız
savalan
savas
savat
savatc
savayı
savoyya
saxa
saxalin
saxanlı
saxla
saxladı
saxladıg
saxladılar
saxlama
saxlamag
saxlamaq
saxlamaqla
saxlamıs
saxlanan
saxlandıg
saxlanma
saxlanması
saxlanmasına
saxlanmıs
saxlanılan
saxlanıldı
saxlanıldıg
saxlanılması
saxlanılmasına
saxlanılmasında
saxlanılmıs
saxlanılıb
saxlanılır
saxlanılırdı
saxlanır
saxlaya
saxlayan
saxlayaraq
saxlayıb
saxlayın
saxlayır
saxlayırdı
saxlayırdılar
saxlayırlar
saxsı
saxta
saxtakarlıg
saxtalas
say
saya
sayan
sayca
sayda
saydıg
sayev
sayfa
sayg
sayları
saylı
saymaq
saymon
says
saysız
sayt
saytda
saytlar
saytları
saytı
saytın
saytına
saytında
saytının
sayı
sayıla
sayılan
sayılmır
sayılmıs
sayılıb
sayılır
sayılırdı
sayın
sayına
sayında
sayından
sayınqala
sayını
sayının
sayır
sayırdı
sayəsində
saz
sazi
sazis
sazı
sb
sba
sbb
sbbc
sbc
sbu
sbət
sc
scale
scalemajor
scaleminor
scar
schicha
school
schuster
sci
science
sciences
scientific
scotland
scott
scwra
sd
sdu
sdə
se
sea
search
season
sebastian
sebastyan
sec
second
secret
section
security
seds
see
sega
segah
sehirli
sehr
sehrbaz
sehrli
seigler
seks
seksual
sektor
sektoru
sektoruna
sektorunda
sektorunun
sel
sela
selected
seleksiya
self
selikli
sellu
sellər
sem
semantik
sement
semi
seminar
seminariyasında
seminariyasının
seminarlar
sempozyumu
semyon
sen
sena
senat
senator
senatı
senatın
senatının
senecio
senegalia
seneqal
sensor
sent
sentai
sentavr
sentinel
sentrokaspi
sentyabr
sentyabrda
sentyabrın
sentyabrında
sentyabrından
senzura
separatc
september
seqmentinin
ser
serb
serbiya
serbiyada
serbiyanın
serblər
sergey
seri
serial
serialda
seriallar
serialları
serialı
serialın
serialında
serialının
serie
series
seriya
seriyada
seriyadan
seriyalar
seriyaları
seriyalı
seriyanın
seriyası
seriyasına
seriyasında
seriyasından
seriyasını
seriyasının
serj
serjant
serji
serlər
serləri
sertifikat
sertifikatlas
sertifikatı
server
service
services
servis
ses
sessiyası
sessiyasında
set
seul
sev
sevastopol
sevda
sevdiyi
sevdiyim
sevdiyini
seven
sevgi
sevgili
sevgilim
sevgilisi
sevgilisinin
sevginin
sevgisi
sevgisini
sevil
sevilya
sevilən
sevimli
sevimlisi
sevinc
sevinci
sevinclə
sevir
sevirdi
sevirəm
sevmir
sevə
sevən
sevər
sex
seyfulla
seyfəddin
seyib
seyid
seyidbəyli
seyidli
seyidlər
seyidov
seyidzadə
seyin
seylor
seyminin
seymur
seyn
seynag
seyni
seynin
seynli
seynov
seynova
seynovun
seynqulu
seynzadə
seynzadənin
seynə
seynəli
seyr
seyran
seyrək
seys
seysmik
seyyid
sezar
sezarın
sezon
sezonu
sezonunda
sf
sfahan
sfahana
sfahanda
sfahani
sferik
sfondo
sfəndiyar
sgəndər
sgəndərin
sgəndəriyyə
sgəndərnamə
sgəndərov
sh
shadow
shah
shaq
she
shell
shift
sho
short
should
show
si
sibir
sibirdə
sibirin
sibirə
sic
siciliya
sicill
sid
side
sidik
sidney
sidqi
sidr
sie
siemens
sifaris
sifət
sifəti
sifətlər
sifətləri
sig
sigma
siirt
sikkə
sikkələr
sikkələri
sikkələrin
sikkəsi
siklop
sil
silah
silaha
silahdan
silahdas
silahla
silahlanmıs
silahlar
silahlardan
silahlarla
silahları
silahların
silahlarını
silahlarının
silahlı
silahsız
silahı
silahın
silindr
silindrik
silinmis
silinməz
silisium
silk
silsilə
silsilələr
silsilələri
silsilənin
silsiləsi
silsiləsində
silsiləsindən
silsiləsinin
silsiləsinə
silva
silver
sim
sima
simalarından
siman
siması
simasında
simasını
simfonik
simfoniya
simfoniyası
simli
simmetrik
simmetriya
simon
simpozium
simpoziumlarda
simptomlar
simptomları
sims
simsiz
simurq
simvol
simvolik
simvolizə
simvollar
simvolları
simvollarından
simvollas
simvolu
simvoludur
simvoluna
sin
sina
sinan
sinanın
sinaqoq
sinay
sincan
since
sind
sindrom
sindromu
sində
sinfi
sinfin
sinfində
sinfini
sinfinin
sinfinə
sinfə
single
sini
sinif
sinifdə
sinifdən
sinifi
sinifinə
sinifli
siniflər
siniflərdə
sinifləri
sinifə
sinin
sinir
sinitsina
sink
sinonim
sinonimi
sinonimləri
sinqapur
sinqapurda
sinql
sinqllar
sinqlları
sinqlı
sinqoniya
sintaksis
sintaktik
sintetik
sintez
sintezi
sintezində
sinxron
sinə
sinəsi
sinəsinə
sio
sion
sionist
siqaret
siqnal
siqnalları
siqnalların
siqnalı
sir
sirab
sirdas
sirius
sirk
sirkə
sirli
sirlər
sirləri
sirlərini
sirr
sirri
sirrini
sis
sisianov
sisianovun
sistan
sistem
sistematik
sistematikası
sistemdir
sistemdə
sistemdən
sistemi
sistemidir
sistemin
sistemində
sistemindəki
sistemindən
sistemini
sisteminin
sisteminə
sistemli
sistemlə
sistemlər
sistemlərdə
sistemləri
sistemlərin
sistemlərində
sistemlərindən
sistemlərini
sistemlərinin
sistemlərinə
sistemlərə
sistemləs
sistemə
sisyan
sit
sitat
sitayis
site
sitesi
siti
sitrus
sivas
sivil
sivilizasiya
sivilizasiyanın
sivilizasiyası
sivilizasiyasının
sivri
six
siy
siyah
siyahı
siyahıda
siyahılar
siyahıları
siyahılarında
siyahısı
siyahısına
siyahısında
siyahısından
siyahısını
siyahıya
siyahıyaalma
siyahıyaalmasına
siyahıyaalmaya
siyahıyaalınması
siyahıyaalınmasına
siyahıyaalınmasının
siyasi
siyası
siyasət
siyasətc
siyasətdə
siyasətdən
siyasəti
siyasətin
siyasətində
siyasətindən
siyasətini
siyasətinin
siyasətinə
siyasətlə
siyasətə
siyavus
siyəzən
siz
sizdir
sizdən
size
sizi
sizin
sizinlə
sizlik
sizliyin
sizə
sk
ska
skandinav
skandinaviya
skar
skarı
skaut
skelet
ski
skif
skiflər
skopye
skot
skott
skripka
skripkac
sku
sky
skəndər
skəndərin
sl
sla
slam
slama
slamda
slamdan
slami
slamı
slamın
slandiya
slandiyanın
slavyan
sli
slim
slovak
slovakiya
slovakiyanın
sloveniya
sloveniyanın
slu
slub
slubda
slubları
slublu
slubu
slubun
slubuna
slubunda
slubunu
slubunun
slər
sləri
sm
smail
small
smart
smayıl
smayıllı
smayılov
smayılova
smayılovun
smayılzadə
smayılın
smit
smith
smitin
smolensk
sms
smət
sn
snayper
sni
snow
snu
so
soba
soc
socar
soccerway
social
society
soda
sofi
sofia
sofiya
soft
software
sog
sokrat
sol
sola
solar
solc
solda
soldan
solg
solid
solist
solisti
solmaz
solo
solomon
soltan
solunda
solution
somali
some
son
sona
sonata
sonda
song
songs
sonic
sonları
sonlarına
sonlarında
sonlarından
sonlu
sonlug
sonra
sonradan
sonraki
sonrakı
sonralar
sonrası
sonrasında
sonraya
sons
sonsuz
sonsuzluq
sonu
sonuna
sonunadək
sonuncu
sonuncunun
sonuncusu
sonunda
sonundan
sonunu
sony
sonya
soprano
sora
sorag
soraq
sorg
sortları
sorus
sos
sosial
sosialist
sosialistlər
sosializm
sosializmin
sosiologiya
sosioloji
sosioloq
sosyal
sotnikova
sotomayor
soul
sound
source
sources
sous
south
southern
sov
sovet
soveti
sovetin
sovetindən
sovetinin
sovetinə
sovetliyi
sovetliyindən
sovetliyinə
sovetlər
sovetlərin
sovetləs
soviet
sovxoz
soy
soya
soyad
soyadlar
soyadı
soyadını
soydas
soyg
soyqırım
soyqırımı
soyqırımına
soyqırımını
soyqırımının
soyu
soyuducu
soyug
soyun
soyundan
soyuq
soyuqbulaq
soyutma
sp
spa
space
spacex
spain
span
spanish
spaniya
spaniyada
spaniyadan
spaniyanı
spaniyanın
spaniyaya
sparta
spartak
special
species
spektr
spektral
spektri
spesifik
spider
spikeri
spilosoma
spin
spiral
spirit
spirt
spirti
spirtli
split
sponsor
sponsorluq
spor
sport
sports
spring
springer
sprint
sputnik
sq
sqrt
square
sr
srafil
srafilov
srail
sraildə
sraili
srailin
sraillilər
srailə
srət
ss
ssel
sseldorf
sseldə
ssenari
ssenarini
ssenarinin
ssenarisi
ssenarisini
ssenarist
ssenaristi
ssenaristlər
ssenaristləri
ssenariyə
sser
ssr
ssri
ssu
ssə
ssəltənə
st
stabil
stabilləs
stadion
stadionda
stadionları
stadionu
stadionun
stadionunda
stadium
stadnik
stafa
staff
stalin
stalinin
stalinqrad
stalinə
stamp
stamps
stan
stana
stanbul
stanbula
stanbulda
stanbuldakı
stanbuldan
stanbulun
standa
standakı
standan
standard
standart
standartlar
standartlara
standartları
standartlarına
standartlas
standartı
stanford
stani
stanislav
stanla
stanley
stansiya
stansiyada
stansiyalar
stansiyaları
stansiyalarının
stansiyanın
stansiyası
stansiyasına
stansiyasında
stansiyasından
stansiyasının
stanı
stanın
star
stark
starkın
stars
start
stasionar
state
states
statik
station
statistical
statistics
statistik
statistika
statistikası
statistikasına
status
statusa
statusu
statusuna
statusunu
statusunun
stavropol
stdən
stedadlı
steel
stefan
stefani
stefano
stehlakc
stehsal
stehsalat
stehsalc
stehsalı
steins
sten
stenli
step
stepan
stephen
sterlinq
steve
steven
sti
stifadə
stifadəc
stifadəsi
stil
stildə
stili
stilik
stilində
still
stimullas
stinad
stinadlar
stintaq
stiqlal
stiqlaliyyət
stirahət
stisu
stiv
stiven
stlu
stokholm
stokholmda
stolu
stomatologiya
stone
stones
stop
store
stories
storm
story
stoun
str
strabon
strabonun
strasburq
strasiya
strategiya
strategiyası
strategiyasının
strategy
strateji
stray
street
stress
string
structure
struggle
struktur
struktura
strukturlar
strukturları
strukturların
strukturlarının
strukturu
strukturun
strukturuna
strukturunda
strukturunu
strukturunun
stu
stuart
studies
studio
studios
studiya
studiyanın
studiyası
studiyasında
studiyasının
study
stur
sturu
stuttgart
style
stə
stəkan
stəlik
stəm
stəmbəyov
stəmin
stəmləkə
stəmləkəc
stəmləkəsi
stəmov
stəmova
stəmovun
stənilən
stəntiq
stəqil
stəqillik
stəqilliklərini
stəqilliyi
stəqilliyin
stəqilliyini
stəqilliyinin
stəqilliyinə
stəqilliyə
stər
stərdi
stərdikləri
stərdilər
stərdiyi
stərdiyini
stərdiyinə
stərib
stərici
stəricilər
stəriciləri
stəricilərinin
stəricilərinə
stəricilərə
stəricisi
stəricisidir
stəriciyə
stərildi
stərildiyi
stərilib
stərilir
stərilirdi
stərilmis
stərilməsi
stərilməsinə
stərilsə
stərilə
stərilən
stərir
stərirdi
stərirdilər
stərirlər
stəris
stərmir
stərmis
stərmək
stərməkdədir
stərməklə
stərməsi
stərməsinə
stərməyi
stərməyə
stərsə
stərə
stərəcək
stərən
stərərək
stəsna
stəvi
stəvidə
su
sual
suala
suallar
suallara
sualları
sualtı
sualı
sualına
suayrıcı
sub
subalp
subay
subtropik
subyekti
subyektiv
subyektləri
subyektlərinin
suc
such
sud
suda
sudan
sufi
sufilər
sui
suiti
sul
sular
sulara
sularda
sulardan
sularla
suları
suların
sularında
sularından
sularının
suldan
sulduz
sulfat
sulfid
suli
sulla
sullar
sullardan
sullarla
sulları
sulların
sullarından
sullarını
sullarının
sultan
sultana
sultandan
sultani
sultanla
sultanlar
sultanları
sultanlarının
sultanlıg
sultanov
sultanova
sultanovun
sultanzadə
sultanı
sultanın
sultanının
sulu
suludur
sulun
suluna
sulundan
sulunu
sulunun
sum
sumatra
summer
summit
sumqayıt
sumqayıtda
sun
sunda
sunja
super
superkuboku
superkubokunun
superman
supermen
supermenin
superqəhrəman
support
suprefektura
suqovus
sur
suraxanı
surface
suriya
suriyada
suriyadakı
suriyadan
suriyalı
suriyanı
suriyanın
suriyaya
surları
surlu
sursat
sursatı
sursuz
suru
survey
surxay
surə
surəsi
surəsinin
surət
surətdə
surəti
surətini
sus
susan
susi
susilə
susiyyət
susiyyəti
susiyyətini
susiyyətinə
susiyyətlər
susiyyətləri
susiyyətlərin
susiyyətlərindən
susiyyətlərini
susiyyətlərinin
susiyyətlərinə
susiyyətlərə
susiyyətə
susuz
susən
sutka
sutkalıq
suvarma
suvarılan
suveren
suverenlik
suverenliyi
suverenliyini
suvorov
suxoy
suxumi
suya
suyu
suyun
suyuna
suyundan
suyunu
suyunun
suz
sv
svay
svayc
svec
sverdlovsk
svetlana
svg
sweet
sword
sx
sxem
sxemi
sxə
sxələri
sxəsi
sxəsini
sy
syan
syana
syanc
syanda
syankar
syanlar
syanları
syanı
syanın
syanına
syanında
syanını
syanının
sydney
syerra
symphyotrichum
symposium
synthesis
syo
system
systems
sı
sıc
sıfır
sıfıra
sıfırdan
sıg
sıldırım
sıldırımlı
sın
sınadı
sınag
sınaq
sınaqdan
sınaqları
sınd
sında
sınmıs
sının
sınıq
sıra
sırada
sıradan
sıralamasında
sıraları
sıralarına
sıralarında
sıralarından
sırası
sırasına
sırasında
sırasındadır
sırasının
sıravi
sıraya
sırf
sırg
sıx
sıxlas
sıxlıg
sıxlıq
sıxılma
sıxılmıs
sıxıs
sız
sə
səadət
səba
səbail
səbinə
səbr
səbri
səbuhi
səbəb
səbəbdən
səbəbi
səbəbilə
səbəbindən
səbəbini
səbəbiylə
səbəbkarı
səbəblə
səbəblər
səbəblərdən
səbəbləri
səbəblərindən
səbəblərini
səbəblərə
səbəbə
səbət
səcdə
səciyyə
səciyyələnir
səciyyəvi
səciyyəvidir
səd
səda
sədaları
sədaqət
sədaqətli
sədarət
sədarətə
sədası
sədd
səddam
səddi
sədi
sədr
sədri
sədridir
sədrin
sədrinin
sədrlik
sədrliyi
sədrləri
sədrəddin
sədrəzəm
sədrəzəmi
sədrəzəmin
sədəf
sədəqə
sədərək
səfa
səfi
səfiku
səfir
səfiri
səfirinin
səfirlik
səfirliyi
səfirliyində
səfirliyinin
səfirliyinə
səfirlər
səfirləri
səfər
səfərbər
səfərbərlik
səfərdə
səfərdən
səfəri
səfərin
səfərində
səfərindən
səfərini
səfərinə
səfərli
səfərlər
səfərləri
səfərlərində
səfərov
səfərova
səfərə
səfərəli
səfəvi
səfəvilər
səfəvilərin
səfəvilərlə
səfəvilərə
səfəvinin
səh
səhabələr
səhhət
səhhəti
səhifə
səhifədə
səhifədən
səhifəlik
səhifələr
səhifələri
səhifələrin
səhifələrində
səhifənin
səhifəsi
səhifəsində
səhih
səhiyyə
səhl
səhləbkimilərə
səhm
səhmdar
səhmlərin
səhmlərinin
səhnə
səhnədə
səhnələr
səhnələrdə
səhnələri
səhnələrin
səhnələrində
səhnələrinin
səhnələs
səhnəni
səhnənin
səhnəsi
səhnəsində
səhnəsinin
səhnəsinə
səhnəyə
səhra
səhrada
səhraları
səhralas
səhranın
səhrası
səhraya
səhv
səhvi
səhvlər
səhvləri
səhvən
səhər
səhəri
səhərə
səid
səidin
səidə
səkinə
səkkiz
səkkizbucaqlı
səkkizgus
səkkizinci
səksən
səlahiyyət
səlahiyyəti
səlahiyyətinə
səlahiyyətli
səlahiyyətlilər
səlahiyyətliləri
səlahiyyətlər
səlahiyyətləri
səlahiyyətlərini
səlahiyyətlərinin
səlahiyyətlərinə
səlahəddin
səlcuq
səlcuqlar
səlcuqlu
səlcuqlular
səlib
səlibc
səlim
səlimin
səlimov
səlimova
səlimə
səliqəli
səlis
səlləllahu
səlman
səlmandırlar
səlmanlar
səlmanlara
səlmanlardan
səlmanları
səlmanların
səlmanlarının
səltənət
səltənəti
səltənətində
səltənətinin
sələfi
sələfləri
səm
səma
səmada
səmanın
səmavi
səmaya
səmimi
səmtində
səməd
səmədog
səmədov
səmədova
səməndər
səmərqənd
səmərqənddə
səmərqəndə
səmərəli
səmərəliliyi
səmərəliliyinin
səmərələs
sən
səna
sənan
sənaye
sənayec
sənayedə
sənayeləs
sənayenin
sənayesi
sənayesində
sənayesinin
sənayesinə
səncər
səndə
səndən
səngər
səni
sənin
səninlə
sənsiz
sənsən
sənubər
sənə
sənəd
sənəddə
sənədi
sənədin
sənədli
sənədlər
sənədlərdə
sənədlərdən
sənədləri
sənədlərin
sənədlərində
sənədlərini
sənədlərinin
sənədlərə
sənədləs
sənədə
sənəm
sənət
sənətc
sənətdə
sənəti
sənətin
sənətində
sənətini
sənətinin
sənətinə
sənətkar
sənətkarlar
sənətkarları
sənətkarların
sənətkarlarının
sənətkarlıg
sənətkarlıq
sənətkarı
sənətkarın
sənətlər
sənətləri
sənəts
sənətə
səpələnmis
sər
sərab
sərbəst
sərbəstlik
sərc
sərdabə
sərdar
sərdarabad
sərdarı
sərdəs
sərf
sərfi
sərfəli
sərgi
sərgidə
sərgilənir
sərgilənən
sərgilər
sərgilərdə
sərgiləri
sərginin
sərgisi
sərgisində
sərgisinin
sərgu
sərgərdan
sərhəd
sərhədc
sərhəddi
sərhəddində
sərhəddinə
sərhəddir
sərhəddə
sərhədi
sərhədin
sərhədində
sərhədindən
sərhədini
sərhədinin
sərhədinə
sərhədlər
sərhədləri
sərhədlərin
sərhədlərində
sərhədlərindən
sərhədlərini
sərhədlərinin
sərhədlərinə
sərhədə
səri
sərin
səris
sərkərdə
sərkərdələr
sərkərdələri
sərkərdələrindən
sərkərdəsi
sərmayə
sərnis
sərraf
sərt
sərtlik
sərtliyi
sərtləs
sərv
sərvi
sərvər
sərvət
sərvəti
sərvətlər
sərvətləri
sərvətlərin
sərxan
sərxos
sərəncam
sərəncamı
sərəncamına
sərəncamında
səs
səsdən
səsi
səsin
səsindən
səsini
səsinin
səsinə
səsli
səslə
səsləndirilir
səsləndirilmis
səsləndirir
səsləndirmis
səsləndirmə
səsləndirən
səsləndirənlər
səslənir
səslənmis
səslənməsi
səslənən
səslər
səsləri
səslərin
səslərini
səsləs
səssiz
səsvermə
səsvermədə
səsvermənin
səsverməsi
səsyazma
səsə
sət
səth
səthdə
səthi
səthin
səthində
səthindən
səthini
səthinin
səthinə
səthləri
səthə
sətir
səttar
səud
səudiyyə
səviyyə
səviyyədə
səviyyəli
səviyyələrdə
səviyyələri
səviyyəsi
səviyyəsində
səviyyəsindən
səviyyəsini
səviyyəsinin
səviyyəsinə
səviyyəyə
səxavət
səy
səyahət
səyahətc
səyahəti
səyahətlər
səyahətləri
səyahətə
səyavus
səyi
səylə
səylər
səyləri
səylərini
səylərinə
səyyad
səyyah
səyyahlar
səyyahları
səyyahı
səyyar
t
ta
taala
tab
tabasaran
tabe
tabec
tabedir
tabeli
tabeliyində
tabeliyindəki
tabeliyinə
table
tablo
tablosu
tabor
taboru
tabriz
tac
taca
tacik
tacikistan
tacikistanın
tacir
taciri
tacirin
tacirlər
tacirləri
tacirlərin
tacqoyma
tacı
tacın
tacına
tacını
tacının
tacəddin
tadt
taekvondo
tag
tahir
tahirov
tahirzadə
tahirə
tahya
tailand
tak
take
takes
taksi
taksonlar
taksonomik
taktika
taktikası
taktiki
tal
tala
talan
tale
taleh
tales
taleyi
taleyin
taleyini
taleyinə
talib
taliban
talibin
taliya
taliyada
taliyadakı
taliyadan
taliyalı
taliyanı
taliyanın
taliyaya
taliə
talk
tallin
talyan
talıb
talıbov
talıs
tam
tamah
tamam
tamamilə
tamamladı
tamamladıqdan
tamamlamaq
tamamlamıs
tamamlanan
tamamlandı
tamamlanmamıs
tamamlanması
tamamlanmıs
tamamlanır
tamamlayan
tamamlayıb
tamamlayır
tamamən
tamar
tamara
tamaranın
tamas
tamerlan
tamil
tamilla
tamlıg
tammetrajlı
tan
tank
tanklar
tankları
tankların
tanklarının
tankı
tankın
tankının
tanrı
tanrıc
tanrıdan
tanrılar
tanrılara
tanrıları
tanrıların
tanrının
tanrısı
tanrısının
tanrıya
tanzaniya
tanıdı
tanıdıg
tanımadıg
tanımag
tanımaq
tanımır
tanımıs
tanınan
tanındı
tanınmag
tanınmamıs
tanınması
tanınmasına
tanınmıs
tanınıb
tanınır
tanınırdı
tanıs
tanıtmaq
tanıyan
tanıyıb
tanıyır
tap
tapa
tapan
tapanc
tapar
taparaq
tapdı
tapdıg
tapdılar
tapdıq
tapmadı
tapmag
tapmamıs
tapmaq
tapması
tapmıs
taps
tapıb
tapıla
tapılan
tapılar
tapıldı
tapıldıg
tapılması
tapılmaz
tapılmıs
tapılıb
tapılır
tapıntı
tapıntılar
tapıntıları
tapır
tapırlar
taq
taqanroq
taqım
tar
tarafından
taranova
taras
tarazlıg
tarazlıq
tari
tarif
tarih
tarihi
tarihinde
tariq
tarix
tarixc
tarixdə
tarixdən
tarixi
tariximizin
tarixin
tarixində
tarixindəki
tarixindən
tarixini
tarixinin
tarixinə
tarixli
tarixlərdə
tarixləri
tarixlərində
tarixs
tarixə
tarixən
tariyel
tarla
tartu
tarzən
tarı
tarım
tarın
tas
tat
tata
tatar
tatarlar
tatarları
tatarların
tatarlarının
tatarı
tatarıstan
tatarıstanın
tatda
tatev
tatlar
tatlarda
tatları
tatların
tatlarında
tatlarının
tatyana
tatı
tatın
tatında
tatının
tau
taun
tavan
tavanı
taxc
taxt
taxta
taxtadan
taxtda
taxtdan
taxtı
taxtın
taxtına
taxtında
taxtını
taxtının
taxıl
taxılc
tay
tayfa
tayfalar
tayfalardan
tayfaları
tayfaların
tayfalarından
tayfalarını
tayfalarının
tayfanın
tayfası
tayfasına
tayfasından
tayfasının
tayland
tayler
taylor
taymır
tayn
tayqa
tayvan
tayyib
tayı
tazılar
tazə
tb
tbilisi
tbilisidə
tbmm
tbu
tbə
tbəli
tbələr
tbəsi
tbəsində
tbəsini
tbəsinə
tc
tcp
td
tdi
tdikdə
tdilər
tdir
tdu
tdə
tdən
te
team
teatr
teatra
teatrda
teatrları
teatrlarında
teatrs
teatrı
teatrın
teatrına
teatrında
teatrının
technical
technologies
technology
ted
tehran
tehrana
tehranda
tehranın
tek
tekstil
tektonik
tel
tele
telefon
telefonla
telegraph
telekanal
telekanalı
telekanalın
telekanalında
telekanalının
telekommunikasiya
teleqraf
teleqram
telequ
teleradio
teles
teleserial
teleseriallar
teleserialları
teleserialı
teleserialında
teleserialının
teleskop
teleskopu
television
televiziya
televiziyada
televiziyanın
televiziyası
televiziyasında
televiziyasının
telli
telman
tematik
temperatur
temperatura
temperaturda
temperaturlu
temperaturu
temperaturun
temperaturunun
tempi
template
temple
tempo
temuc
ten
tendensiyası
tender
tenin
tennis
tennisc
tenor
teo
teodor
teoremi
ter
teran
terapiya
terapiyası
terek
tereza
teri
terin
terlər
terlərin
term
termal
termik
termiki
termin
terminal
terminalı
termindir
termini
terminin
terminini
termininin
terminlər
terminləri
terminlərin
terminlərinin
terminologiya
termodinamik
terra
terras
terri
terror
terrorc
terrorist
terrorizm
terrorizmi
terə
tes
tesla
teslanın
test
testament
testi
testlər
testləri
tetc
texas
texnik
texnika
texnikaları
texnikanın
texnikası
texnikasına
texnikasını
texnikasının
texniki
texnikumu
texnikumuna
texnikumunda
texnikumunu
texnikumunun
texnologiya
texnologiyalar
texnologiyaları
texnologiyaların
texnologiyalarının
texnologiyanın
texnologiyası
texnologiyasının
texnoloji
text
textcolor
texts
teylor
teymur
teymura
teymuri
teymurilər
teymurun
teyn
teynin
teyyub
tez
tezdən
tezi
tezis
tezisləri
tezlik
tezlikli
tezliklə
tezliyi
tf
tfi
tfu
tfəli
th
than
that
the
theatre
their
them
then
theoretical
theory
there
these
they
things
third
this
thomas
thomson
thought
three
through
thumb
thumbnail
ti
tibb
tibbdə
tibbi
tibet
tic
ticari
ticarət
ticarətc
ticarətdə
ticarəti
ticarətin
ticarətinin
ticarətlə
ticarətə
tiflis
tiflisdə
tiflisdəki
tiflisdən
tiflisi
tiflisin
tiflisə
tig
tiger
tigin
tik
tikan
tikanlı
tikdi
tikdirdi
tikdirdiyi
tikdirmis
tikildi
tikildiyi
tikili
tikilib
tikililər
tikililərdən
tikililəri
tikililərin
tikilinin
tikilir
tikilirdi
tikilisi
tikilmis
tikilmə
tikilməsi
tikilməsinə
tikilən
tikinti
tikintidə
tikintinin
tikintisi
tikintisində
tikintisini
tikintisinin
tikintisinə
tikis
tikmis
tikmə
tikmək
tikməyə
tikə
til
till
tim
time
timeaxis
times
timor
timoti
timsah
timsahlar
timsalında
timur
tin
tina
tind
tini
tinin
tintin
tip
tipi
tipik
tipinin
tipinə
tipli
tipləri
tipoloji
tipə
tiqran
tir
tiraj
tirajla
tirajı
tirak
tirakc
tirakdan
tirakı
tirakına
tirakını
tirakının
tirana
tirilmis
tiryək
tirə
tis
titan
titanik
title
tito
titrlərdə
titul
titullar
titulları
titulu
tituluna
titulunu
tki
tl
tli
tlu
tlə
tləli
tlələr
tlələri
tlələrin
tlələrinin
tlənin
tləq
tlər
tləri
tlərin
tlərə
tləs
tləsi
tləsini
tləsinin
tləsinə
tləvi
tləyə
tm
tmis
tmu
tmə
tmək
tməyə
to
today
todd
tofiq
tog
tok
tokio
tokioda
tokionun
tokuqava
tokyo
tolerantlıq
tolstoy
tolstoyun
tom
tomas
tomatoes
tome
tommi
tompson
tomson
ton
tona
tondan
tondur
toni
tony
too
top
topa
topal
topasıdır
topc
topdan
topla
topladı
topladıg
toplam
toplama
toplamag
toplamaq
toplamıs
toplanan
toplanaraq
toplandı
toplandıg
toplanması
toplanmasına
toplanmıs
toplantı
toplantısı
toplantısında
toplanıb
toplanır
toplanıs
toplar
topları
topların
toplas
toplaya
toplayan
toplayaraq
toplayıb
toplayır
toplu
toplusu
toplusudur
toplusunda
toplusunu
toplusunun
topographic
toponim
toponimdir
toponimi
toponimikası
toponimin
toponiminin
toponimiyası
toponimlər
toponimləri
toponimlərin
toponimlərinin
topoqrafik
topoqrafiya
toppuztikan
topqapı
topu
topun
toqqus
tor
tora
torf
torino
toronto
torpag
torpaq
torpaqda
torpaqdan
torpaqla
torpaqlar
torpaqlara
torpaqlarda
torpaqlardan
torpaqları
torpaqların
torpaqlarına
torpaqlarında
torpaqlarından
torpaqlarını
torpaqlarının
torpaqs
torpedo
toru
torun
tos
toskana
total
totalitar
totmyanina
tour
tourism
tovuz
tower
town
toxtamıs
toxucu
toxuculuq
toxum
toxuma
toxumaların
toxuması
toxumla
toxumlar
toxumları
toxumlarının
toxumu
toxunan
toxunma
toxunmus
toxunulmaz
toxunulmazlıg
toxunur
toy
toya
toyota
toyu
toyuq
toz
tozag
tozu
tpərəst
tr
tra
trabzon
trade
tradition
traktat
traktor
tramp
tramvay
trans
transactions
transfer
transkripsiya
translated
translation
transmilli
transport
tranzit
travel
travma
trc
tre
treatment
tree
trek
trend
trestinin
tri
tribune
trik
triller
trilyon
trinidad
triniti
trio
tripoli
trolleybus
trophy
tropik
trotski
troya
troyan
trt
tru
trud
true
trump
truppası
trust
ts
tsin
tt
ttifaq
ttifaqları
ttifaqı
ttifaqın
ttifaqına
ttifaqında
ttifaqından
ttifaqının
ttihad
ttəfiq
ttəfiqi
ttəfiqlik
ttəfiqlər
ttəfiqləri
ttəfiqlərin
tu
tubət
tubətli
tufan
tug
tula
tullanma
tullantı
tullantıları
tullantıların
tuluza
tun
tuna
tunc
tuncdan
tundra
tunel
tuneli
tunis
tunlar
tunları
tunların
tunlu
tunu
tunun
tuqay
tur
tura
turabov
tural
turan
turbin
turda
turin
turist
turistik
turistlər
turistləri
turistlərin
turizm
turizmi
turizmin
turkey
turkic
turkish
turks
turner
turnir
turnirdə
turniri
turnirin
turnirində
turnirinin
turnirinə
turnirlər
turnirlərdə
turnirləri
turnirlərində
turnirə
turqut
turs
turu
turuna
turunda
turxan
tus
tusi
tusinin
tut
tuta
tutacag
tutacaq
tutan
tutar
tutaraq
tutarlı
tutdu
tutdug
tutdular
tutduqdan
tutduqları
tuti
tutma
tutmadı
tutmag
tutmaları
tutmalı
tutmamıs
tutmaq
tutmaqla
tutması
tutmasına
tutmasından
tutmur
tutmus
tutqart
tutqun
tutsa
tutsun
tutub
tutublar
tutulan
tutularaq
tutuldu
tutuldug
tutulma
tutulması
tutulmus
tutulsa
tutulub
tutulur
tutulurdu
tutumlu
tutumu
tutumuna
tutuqus
tutur
tuturdu
tuturdular
tuturlar
tutus
tuva
tv
tver
twitter
two
tyan
type
typhlodromips
typhlodromus
tzin
tı
tıq
tır
tırma
tırmaları
tısbag
tıva
tə
təala
təb
təbabət
təbabətdə
təbabəti
təbabətində
təbas
təbi
təbib
təbii
təbiidir
təbil
təbiət
təbiətdə
təbiətdən
təbiəti
təbiətin
təbiətini
təbiətinin
təbiətinə
təbiətli
təbiəts
təbiətə
təblig
təbrik
təbriz
təbrizdə
təbrizdən
təbrizi
təbrizin
təbrizinin
təbrizli
təbrizə
təbəqə
təbəqədən
təbəqələr
təbəqələri
təbəqələrin
təbəqələrinin
təbəqənin
təbəqəsi
təbəqəsindən
təbəqəsinin
təbəqəyə
təbər
təbəri
təbəssu
təcavu
təchiz
təchizat
təchizatı
təcili
təcnis
təcnislər
təcrid
təcru
təcəssu
tədaru
tədavu
tədbiq
tədbir
tədbirdə
tədbiri
tədbirin
tədbirində
tədbirlər
tədbirlərdə
tədbirləri
tədbirlərin
tədbirlərində
tədbirlərinin
tədbirlərinə
tədbirlərə
tədil
tədqiq
tədqiqat
tədqiqata
tədqiqatc
tədqiqatlar
tədqiqatlara
tədqiqatlarda
tədqiqatları
tədqiqatların
tədqiqatlarına
tədqiqatlarında
tədqiqatlarını
tədqiqatlarının
tədqiqatı
tədqiqatın
tədqiqi
tədqiqinə
tədqiqlər
tədricən
tədris
tədrisi
tədrisin
təfsir
təfsiri
təftis
təfəkkir
təfəkkiri
təfəkku
təfərru
təg
təhdid
təhkim
təhkimc
təhlil
təhlili
təhlilinə
təhlu
təhmasib
təhmasibin
təhmasibə
təhməzov
təhqiqat
təhqir
təhrif
təhrik
təhriki
təhsil
təhsildə
təhsili
təhsilin
təhsilini
təhsilinin
təhsilinə
təhsilli
təhsillərini
təhsilə
təhvil
təhər
tək
təkamu
təkan
təkbas
təkbətək
təkcə
təki
təkid
təkidi
təkin
təklif
təklifi
təklifin
təklifini
təklifinin
təklifinə
təkliflər
təklifləri
təkliflərin
təkliflərini
təklifə
təklə
təkmil
təkmilləs
təkrar
təkrarlanan
təkrarlanması
təkrarlanmıs
təkrarlanır
təkrarlayır
təkrarən
təkzib
təkə
təkəbbu
təkəli
təkər
təkərli
təl
təlas
təlatu
təlif
təlim
təlimat
təlimatc
təlimc
təlimi
təlimin
təlimində
təlimini
təliminin
təliminə
təlimlər
təlimləri
təllibov
təlqin
təltif
təltifləri
tələ
tələb
tələbat
tələbatı
tələbatını
tələbi
tələbin
tələbini
tələbinə
tələbkar
tələblər
tələbləri
tələblərini
tələblərinin
tələblərinə
tələblərə
tələbə
tələbəlik
tələbələr
tələbələrdən
tələbələri
tələbələrin
tələbələrindən
tələbələrinin
tələbələrinə
tələbələrə
tələbənin
tələbəsi
tələf
tələffu
tələsik
tələt
tələyə
təmadi
təmas
təmasda
təmayu
təmin
təminat
təminatc
təminatı
təminatının
təmir
təmiri
təmiz
təmizlik
təmizləmə
təmizləmək
təmizlənir
təmizlənmis
təmizlənmə
təmizlənməsi
təmkinli
təmsil
təmsilc
təmtəraqlı
təməl
təməli
təməlini
tən
tənasib
tənbəl
təngə
tənha
tənliklər
tənliklərin
tənliyi
tənqid
tənqidc
tənqidi
tənqidlər
tənqidlərə
tənqidə
təntənə
təntənəli
tənzim
tənzimləmə
tənzimləmək
tənzimlənir
tənzimlənməsi
tənzimlənən
tənzimləyici
tənzimləyir
tənzimləyən
tənəffu
tənəzzu
təpə
təpədə
təpədən
təpəgo
təpəli
təpələr
təpələri
təpənin
təpəsi
təpəsində
təqau
təqdim
təqdimat
təqdimatı
təqdimi
təqdir
təqdirdə
təqdis
təqib
təqiblərə
təqlid
təqr
təqribi
təqribən
təqsirkar
təqsirli
təqsirləndirilən
təqvim
təqvimi
təqvimində
təqviminin
təqviminə
tər
tərbiyə
tərbiyəc
tərbiyəsi
tərc
tərcim
tərcu
təri
tərif
tərifi
tərifləmis
təriflər
tərilərin
tərilərə
tərinin
təriqət
təriqəti
təriqətinin
tərk
tərki
tərkib
tərkibi
tərkibində
tərkibindədir
tərkibindəki
tərkibindən
tərkibini
tərkibinin
tərkibinə
tərkibli
tərksilah
tərlan
tərs
tərsinə
tərtib
tərtibat
tərtibatc
tərtibatı
tərtibc
tərtibi
tərtər
tərvari
tərxan
tərxis
tərxunu
tərzdə
tərzi
tərzində
tərzini
tərzinin
tərzinə
tərəddu
tərəf
tərəfdar
tərəfdarları
tərəfdarlarını
tərəfdarlarının
tərəfdarı
tərəfdas
tərəfdə
tərəfdəki
tərəfdən
tərəfi
tərəfin
tərəfində
tərəfindəki
tərəfindən
tərəfini
tərəfinin
tərəfinə
tərəfli
tərəflər
tərəflərdən
tərəfləri
tərəflərin
tərəflərində
tərəflərini
tərəfındən
tərəfə
tərək
tərəkəmə
tərənnu
tərəqqi
tərəqqinin
tərəvəz
tərəvəzc
tərəvəzlər
tərəzi
təs
təsadu
təsbit
təsdiq
təsdiqi
təsdiqini
təsdiqlədi
təsdiqləmis
təsdiqləndi
təsdiqlənir
təsdiqlənmis
təsdiqləyir
təsdiqləyən
təsir
təsirdə
təsiri
təsirin
təsirindən
təsirini
təsirinin
təsirinə
təsirli
təsirlənmis
təsirlənən
təsirlənərək
təsirlər
təsirləri
təsirlərin
təsirlərini
təsirlərə
təsirsiz
təsirə
təsis
təsisc
təslim
təsnif
təsnifat
təsnifata
təsnifatı
təsvir
təsviri
təsvirin
təsvirində
təsvirini
təsvirinin
təsvirinə
təsvirlər
təsvirləri
təsvirlərin
təsvirlərinin
təsəlli
təsəlliverici
təsərru
təsəru
təsəvvu
tətbiq
tətbiqi
tətbiqini
tətbiqinin
tətbiqinə
tətbiqləri
tətil
tətili
təvarix
təvazo
təvəkku
təvəllu
təxirə
təxliyə
təxm
təxmin
təxmini
təxminən
təxribat
təxribatc
təxəllu
təxəssis
təxəssisi
təxəssislər
təxəssisləri
təxəssislərin
təxəssislərinin
təxəyyu
təyin
təyinat
təyinatla
təyinatlı
təyinatı
təyini
təyyarə
təyyarəc
təyyarədə
təyyarədən
təyyarələr
təyyarələri
təyyarələrin
təyyarələrinin
təyyarəni
təyyarənin
təyyarəsi
təyyarəsini
təyyarəsinin
təyyarəyə
təyəmmu
təzahu
təzminat
təzyiq
təzyiqi
təzyiqin
təzyiqini
təzyiqinin
təzyiqlər
təzyiqlərə
təzyiqə
təzə
təzəcə
təzədən
təzəkənd
təəccu
təəssu
u
ua
uaz
ub
ubas
ubug
ubuq
uc
uca
ucadan
ucalan
ucaldılmıs
ucaldılıb
ucalır
ucar
ucbatından
ucları
uclu
ucqar
ucu
ucuna
ucunda
ucundan
ucuz
ud
uda
udan
udi
udlaq
udma
udur
uduzdu
uefa
uels
ueyn
ufa
ufc
ug
uilyam
uizli
uk
ukot
ukraine
ukrainian
ukrayna
ukraynada
ukraynalı
ukraynalılar
ukraynanı
ukraynanın
ukraynaya
ul
ula
uladı
ulamaq
ulamıs
ulan
ulanlar
ulanmıs
ulanır
ular
ulara
ularaq
ularda
ulardan
ularla
uları
uların
ularına
ularından
ularını
ularının
ulas
ulayır
uldu
uldug
uldular
uldur
ulduz
ulduza
ulduzdan
ulduzdur
ulduzlar
ulduzlararası
ulduzları
ulduzların
ulduzlu
ulduzu
ulduzun
uliyyəti
uliyyətini
ullar
ulları
ullarına
ullarından
ullarını
ullarının
ullug
ulluq
ulma
ulmag
ulmaq
ulması
ulmus
ultimate
ultimatum
ultra
ultrabəno
ultrasəs
ulu
ulub
ulug
uluq
uluqda
uluqla
ulur
ulus
uluslararası
ulusu
um
uma
umayaqlılar
umdan
umer
umlar
umlu
umu
umuz
un
una
unayev
unc
uncharted
und
unda
undadır
undakı
undan
under
understanding
undur
unduru
une
unesco
uni
unikal
union
unit
unitar
united
univ
universal
universe
universitet
universitetdə
universitetdən
universiteti
universitetin
universitetində
universitetindən
universitetini
universitetinin
universitetinə
universitetlər
universitetlərdə
universitetləri
universitetlərin
universitetlərində
universitetlərindən
universitetlərinin
universitetə
university
unix
unla
unlar
unları
unların
unlarına
unlarında
unlarından
unlarını
unlarının
unlas
unlug
unluq
unluqlar
unluqları
unluqlarını
unu
unudulmaz
unudulmus
unun
ununa
unundan
ununu
ununun
unutma
unuz
uorren
up
updated
uppsala
upright
uq
uqanda
uqor
ur
ura
urada
ural
uran
uranın
urartu
urası
urasına
urasında
urasının
uraya
urban
urbanizasiya
urbəyli
urdan
urdu
urdug
uri
url
urla
urlanması
urlanmıs
urlar
urlara
urları
urların
urlarına
urlu
urlug
urluq
urmiya
urmus
ursuz
ursuzlug
ursuzluq
ursuzluqla
uru
urud
urum
urumc
urun
uruna
urunda
urunu
urunun
uruqvay
urur
urus
us
usa
usb
use
used
user
usets
using
uss
ussr
ust
usta
ustaclı
ustad
ustadı
ustalar
ustaları
ustalarının
ustalıg
ustalıqla
ustası
usu
usudur
usuna
usunda
usundan
usunu
usunun
ut
utancaq
utc
uti
utrext
uvas
uvertu
ux
uxur
uya
uydurma
uydurmada
uyg
uyus
uz
uzadıb
uzadılması
uzadılmıs
uzag
uzanan
uzanmıs
uzanıb
uzanır
uzanırdı
uzaq
uzaqda
uzaqdan
uzaqdır
uzaqgo
uzaqlas
uzaqlıg
uzaqlıqda
uzaqlıqdadır
uzatdı
uzlar
uzların
uzlas
uzun
uzunc
uzundur
uzunlug
uzunluq
uzunluqda
uzunluqdadır
uzunluqları
uzunmu
uzuno
uzunsov
uzunu
uzununa
v
va
vac
vacib
vacibdir
vacibliyi
vacibliyini
vadar
vadi
vadidə
vadilərində
vadim
vadisi
vadisində
vadisinin
vadisinə
vafiq
vag
vahabzadə
vahid
vahidi
vahididir
vahidində
vahidinin
vahidlər
vahidləri
vahidlərinin
vahidov
vahimə
vaiz
vakfı
vakuum
val
valaxiya
valeh
valensiya
valentin
valentina
valeri
valeriya
vali
valideyn
valideynlər
valideynləri
valideynlərin
valideynlərini
valideynlərinin
validə
valisi
vallah
valley
vals
valter
value
valyuta
valyutanın
vampir
vampirlər
vampirə
van
vanda
vankuver
vanna
vanov
vanovic
vanq
vanın
vaqe
vaqif
vaqifin
vaqner
vaqon
var
varaz
vardı
vardır
vari
variant
variantda
variantları
variantı
variantında
variantını
variasiyalar
variety
varilər
variləri
varis
varisi
varislik
varisləri
varlı
varlıg
varlıq
varlıqdır
varlıqlar
varlıqları
varlıqların
varmı
varmıs
varna
varphi
vars
varsa
varvara
varı
vas
vasif
vasil
vasili
vasilyevic
vasitə
vasitəc
vasitədir
vasitələr
vasitələrdən
vasitələri
vasitələrin
vasitələrində
vasitələrindən
vasitələrini
vasitələrinin
vasitələrinə
vasitələrlə
vasitəsi
vasitəsidir
vasitəsilə
vasitəsinin
vasitəsiylə
vassal
vassalı
vastəsi
vatikan
vaxt
vaxta
vaxtadək
vaxtanq
vaxtas
vaxtda
vaxtdan
vaxtdır
vaxtilə
vaxtkı
vaxtla
vaxtlar
vaxtlarda
vaxtları
vaxtlarında
vaxtlarını
vaxtsa
vaxtsız
vaxtı
vaxtın
vaxtına
vaxtında
vaxtından
vaxtını
vaxtının
vay
vayt
vayxır
vaz
vaza
vazeh
vb
vbə
vbədə
vbədənkənar
vbəli
vbələs
vbəsində
vbətc
vbəti
vc
vcu
vcud
vcuddur
vcudlug
vd
vdu
vdə
vdəli
vdələs
vdən
vdənin
vdəsi
vdəsinin
vdət
ve
veb
veber
vebsaytı
vec
vedi
vedibasar
vegetasiya
vegetativ
vektor
velosiped
velosipedc
ven
vena
venc
venera
veneranın
venesiya
venesiyada
venesiyanın
venesiyaya
venesuela
venom
venoz
venus
veqa
ver
vera
verdi
verdik
verdikdə
verdikdən
verdikləri
verdilər
verdim
verdin
verdiyev
verdiyi
verdiyini
verdiyinə
vergi
vergidən
vergilər
vergilərdən
vergiləri
vergilərin
vergisi
vergu
verib
veriblər
verici
verildi
verildikdən
verildiyi
verildiyini
verilib
verilir
verilirdi
verilis
verilmir
verilmis
verilmədi
verilməli
verilməlidir
verilməmis
verilməməsi
verilməsi
verilməsindən
verilməsini
verilməsinin
verilməsinə
verilsin
verilsə
verilə
veriləcək
verilən
verilənlər
verilənləri
verilənlərin
verilərək
verim
verin
verir
verirdi
verirdilər
verirlər
verirəm
veris
verlag
verlis
verm
vermaxt
vermir
vermirdi
vermis
vermə
vermədi
vermədən
vermək
verməkdə
verməkdən
verməklə
verməli
verməlidir
verməmis
verməmək
verməsi
verməsindən
verməsini
verməsinə
verməyi
verməyib
verməyə
verməyən
verməz
verner
veronika
veronikanın
versal
versin
versinlər
version
versiya
versiyada
versiyalar
versiyaları
versiyası
versiyasıdır
versiyasına
versiyasında
versiyasını
versiyasının
versiyaya
verst
verstlik
versə
vertical
vertikal
vertolyot
vertyu
very
verə
verəcək
verəcəkdir
verəcəyi
verəcəyini
verəcəyəm
verən
verəndə
verənlər
verənləri
verənlərin
verər
verərkən
verərsə
verərək
verərəm
vest
vestfaliya
vestibu
vestminster
veteran
veteranlar
veteranları
veteranı
veto
vey
veymar
veys
veysəlli
veyt
vh
vhi
vhə
vhədə
vhələr
vhələri
vhənin
vhər
vhəri
vhəsi
vi
via
vial
vic
vicdan
vicdanla
victor
victoria
victory
vida
vidadi
vidalas
video
videoda
videolar
videoları
videosu
vie
vienna
view
vii
viii
viki
vikimənbə
vikimənbədə
vikipediya
vikipediyada
vikipediyanın
viktor
viktoriya
vilayət
vilayətdə
vilayəti
vilayətin
vilayətində
vilayətindəki
vilayətindən
vilayətini
vilayətinin
vilayətinə
vilayətlər
vilayətləri
vilayətlərin
vilayətlərində
vilayətlərindən
vilayətlərini
vilayətlərinin
vilayətlərinə
vilayətə
vilhelm
vili
vilinin
villa
village
vilnu
vilson
vilyam
vilyams
viləs
vin
vinc
vincent
vinsent
vinston
vinə
violonc
viq
viqat
viqi
viran
virciniya
virgin
virginia
virtual
virus
viruslar
virusu
virusun
vis
vision
visual
vita
vitali
vitamin
vitamini
vitaminlər
vitse
viz
viza
vizual
vkət
vl
vlad
vladimir
vladimirovic
vladiqafqaz
vladislav
vladları
vladlarına
vladlarından
vladlarını
vladlarının
vladlıg
vladı
vladına
vladını
vladının
vlana
vliya
vlu
vlud
vlə
vlər
vlərdə
vlərdən
vləri
vlərin
vlərində
vlərindən
vlərini
vlərinin
vlərinə
vlərə
vlət
vlətc
vlətdir
vlətdə
vlətdən
vləti
vlətin
vlətində
vlətindən
vlətini
vlətinin
vlətinə
vlətli
vlətlər
vlətlərarası
vlətlərdə
vlətlərdən
vlətləri
vlətlərin
vlətlərində
vlətlərindən
vlətlərini
vlətlərinin
vlətlərinə
vlətlərlə
vlətlərə
vlətə
vm
vmu
vo
vogue
voice
vokal
vokalc
vokalist
vol
voleybol
voleybolc
volf
volfqanq
volfram
volqa
volqoqrad
vols
volt
volter
volume
vom
von
voronej
voros
vostok
vq
vqe
vqedə
vqedən
vqelər
vqeləri
vqelərini
vqelərinə
vqeyi
vqeyində
vqeyindən
vqeyini
vqeyinin
vqeyinə
vqeyə
vqi
vqlə
vqu
vqə
vqəladə
vqəltəbii
vr
vran
vrangel
vranı
vrat
vrdə
vrdəki
vrdən
vri
vriyyədə
vriyyəsi
vriyyəsinin
vriyyəyə
vrlər
vrlərdə
vrlərdən
vrləri
vrlərin
vrlərində
vrlərinə
vrlərə
vru
vrə
vrədə
vrək
vrəs
vrəsi
vrəsində
vrəsini
vrəyə
vs
vsi
vsiyə
vsiyələr
vsiyəsi
vsu
vsər
vsət
vt
vu
vuar
vulkan
vulkanik
vulkanlar
vulkanları
vulkanogen
vulkanı
vulkanın
vur
vura
vuran
vuraraq
vurdu
vurdug
vurdular
vurduqdan
vurg
vurma
vurmag
vurmaq
vurmaqla
vurması
vurmus
vurub
vurulan
vurularaq
vuruldu
vurulması
vurulmus
vurulub
vurulur
vurur
vurus
vv
vvə
vvədə
vvədən
vvələr
vvələrdən
vvələri
vvələrin
vvələrində
vvələrindən
vvələrini
vvələrinin
vvələrinə
vvələrlə
vvələrə
vvənin
vvəsi
vvəsini
vvəsinin
vvəsinə
vvət
vvətli
vvəyə
vyac
vyana
vyanada
vyanaya
vyetnam
vyetnamda
vyetnamın
vzu
vzuda
vzular
vzulara
vzularda
vzulardan
vzuları
vzuların
vzularına
vzularında
vzulu
vzunu
vzunun
vzusu
vzusudur
vzusuna
vzusunda
vzusunu
vzusunun
vzuya
vzə
vzələri
vzələrində
vzələrinin
vzəsi
vzəsində
vzəsinin
vzəsinə
vıs
və
vəba
vəd
vədi
vədə
vəfa
vəfalı
vəfat
vəfatlar
vəfatı
vəfatından
vəfatının
vəffəq
vəffəqiyyət
vəffəqiyyəti
vəffəqiyyətli
vəffəqiyyətlə
vəftiz
vəftizc
vəhdət
vəhdəti
vəhs
vəhy
vəkil
vəkili
vəkillər
vəkilləri
vəkilov
vəkkili
vəl
vəli
vəlibəyov
vəliyev
vəliyeva
vəlizadə
vəliəhd
vəliəhdi
vələs
vən
vənin
vəqf
vəqfi
vəqqəti
vər
vərdis
vərziqan
vərəm
vərəqi
vərəqə
vərət
vəs
vəsait
vəsaiti
vəsaitin
vəsaitinin
vəsaitlər
vəsaitləri
vəsaitlərin
vəsaitlərinin
vəsf
vəsi
vəsinin
vəsiqə
vəsiyyət
vəsiyyətinə
vət
vətən
vətəndas
vətəni
vətənin
vətənində
vətəninə
vətənlərinə
vətənpərvər
vətənpərvərlik
vətənə
vəya
vəyə
vəz
vəzi
vəzifə
vəzifədə
vəzifədən
vəzifəli
vəzifələr
vəzifələrdə
vəzifələrdən
vəzifələri
vəzifələrin
vəzifələrində
vəzifələrindən
vəzifələrini
vəzifələrinin
vəzifələrinə
vəzifələrə
vəzifəni
vəzifəsi
vəzifəsində
vəzifəsindən
vəzifəsini
vəzifəsinin
vəzifəsinə
vəzifəyə
vəzilər
vəziləri
vəzin
vəzinin
vəzir
vəziri
vəzirin
vəzirov
vəzirovun
vəziyyət
vəziyyətdə
vəziyyətdədir
vəziyyətdən
vəziyyəti
vəziyyətin
vəziyyətində
vəziyyətindən
vəziyyətini
vəziyyətinin
vəziyyətinə
vəziyyətlə
vəziyyətlərdə
vəziyyətləri
vəziyyətə
w
wa
wainstein
walk
walker
wall
walt
walter
wang
want
war
warner
wars
warszawa
was
washington
watch
water
way
wayback
we
web
website
weekly
well
were
west
western
what
when
where
which
white
who
why
width
wien
wiki
wikidata
wikimedia
wikipedia
wikisource
wild
wiley
wilhelm
will
william
williams
wilson
wind
windows
winter
with
within
without
wo
wolf
wolfgang
woman
women
won
wood
woods
word
words
work
working
works
world
would
writing
wu
www
x
xa
xabarovsk
xac
xacə
xadim
xadimi
xadimlər
xadimləri
xadimlərindən
xadimlərinin
xadimlərinə
xahis
xain
xakas
xaki
xal
xala
xalası
xalc
xaldan
xali
xalid
xalidə
xalif
xalifət
xalifətc
xalifəti
xalifətin
xaliq
xalis
xalla
xallar
xalları
xallı
xalq
xalqa
xalqdan
xalqla
xalqlar
xalqlara
xalqlardan
xalqları
xalqların
xalqlarına
xalqlarında
xalqlarından
xalqlarını
xalqlarının
xalqı
xalqım
xalqımızın
xalqın
xalqına
xalqını
xalqının
xalxal
xalı
xalını
xam
xammal
xammalı
xammalın
xan
xana
xanc
xandan
xani
xankəndi
xanla
xanlar
xanlarova
xanları
xanların
xanlarının
xanlıg
xanlıq
xanlıqda
xanlıqlar
xanlıqları
xanlıqlarının
xanı
xanım
xanıma
xanımdan
xanımla
xanımlar
xanımları
xanımı
xanımın
xanın
xanının
xanızadə
xanə
xanəgah
xanəndə
xanəndəsi
xaos
xaqan
xaqani
xaqanlıg
xaqanı
xaqanın
xar
xara
xarab
xaraba
xarabalıg
xarabalıqları
xarakter
xarakteri
xarakterik
xarakterikdir
xarakterini
xarakterinə
xarakteristika
xarakteristikası
xarakterizə
xarakterli
xardal
xaric
xaricdə
xaricdəki
xaricdən
xarici
xaricində
xaricindəki
xaricinə
xaricə
xarkov
xarəzm
xarəzms
xas
xasay
xasdır
xasiyyəti
xasməmmədov
xassə
xassəli
xassələr
xassələri
xassələrini
xassələrinin
xassələrinə
xassələrə
xassəsi
xatirinə
xatirə
xatirələr
xatirələri
xatirələrində
xatirələrini
xatirələrinə
xatirəsi
xatirəsini
xatirəsinə
xatun
xatunun
xatırladan
xatırladır
xatırladırdı
xatırlanan
xatırlanır
xatırlayır
xavier
xayır
xbir
xbiri
xbox
xdi
xeber
xet
xetaq
xeybər
xeyir
xeyirli
xeyirxah
xeyirxahlıq
xeyli
xeyr
xeyri
xeyrinə
xeyriyyə
xeyriyyəc
xi
xidmət
xidmətc
xidmətdə
xidmətdən
xidməti
xidmətin
xidmətində
xidmətindən
xidmətini
xidmətinin
xidmətinə
xidmətlər
xidmətləri
xidmətlərin
xidmətlərindən
xidmətlərini
xidmətlərinin
xidmətlərinə
xidmətlərə
xidmətə
xii
xiii
xilafət
xilafəti
xilafətin
xilafətinin
xilas
xilasetmə
xilaskar
xitab
xitam
xiv
xivə
xix
xiyabanda
xiyabanı
xiyabanında
xiyar
xizək
xizəyi
xlor
xlorid
xo
xoca
xocalı
xocavənd
xocavəndin
xokkey
xomeyni
xonc
xor
xorasan
xorasana
xorasanda
xorasanın
xoreoqrafiya
xoru
xoruz
xorvat
xorvatiya
xorvatiyada
xorvatiyanın
xorvatlar
xos
xose
xosrov
xosrovun
xovlu
xoy
xoyski
xoyskinin
xr
xrightarrow
xristian
xristianlar
xristianlara
xristianları
xristianların
xristianlas
xristianlıg
xristianlıq
xristianlıqda
xristofor
xrom
xromosom
xroniki
xronologiya
xronologiyası
xronoloji
xrus
xs
xt
xtisas
xtisaslas
xtiyar
xtəlif
xtəlifdir
xtəliflik
xtəlifliyi
xtəlifliyin
xtəlifliyinə
xtəsər
xu
xuan
xubilay
xuda
xudabəndə
xudadat
xudafərin
xudat
xudaverdiyev
xudavənd
xudayar
xudiyev
xumar
xur
xuraman
xurlar
xurlarda
xurlardan
xurları
xurların
xurlarından
xurlarının
xurma
xurs
xutoru
xuzistan
xv
xvi
xvii
xviii
xx
xxi
xxii
xxiii
xxiv
xxix
xxv
xxvi
xxvii
xxviii
xxx
xxxi
xxxvii
xıdır
xınalıq
xırda
xırdalan
xıs
xızı
xızır
xəbər
xəbərc
xəbərdar
xəbərdarlıg
xəbərdarlıq
xəbəri
xəbərin
xəbərini
xəbərlər
xəbərləri
xəbərsiz
xəcalət
xədicə
xəldun
xəlifə
xəlifənin
xəlifəsi
xəlil
xəlilov
xəlilova
xəlq
xələc
xələf
xələfi
xələfov
xələl
xələt
xəmir
xəmsə
xəncər
xəndan
xəndək
xəqani
xərac
xərc
xərci
xərclər
xərcləri
xərclərin
xərclərini
xərclərinin
xəritə
xəritədə
xəritələr
xəritələri
xəritəsi
xəritəsində
xəritəsini
xəritəsinə
xəsarət
xəstə
xəstəlik
xəstəlikdən
xəstəliklər
xəstəliklərdən
xəstəlikləri
xəstəliklərin
xəstəliklərində
xəstəliklərinin
xəstəliklərinə
xəstəliklərə
xəstəliyi
xəstəliyin
xəstəliyindən
xəstəliyinin
xəstəliyinə
xəstəliyə
xəstələr
xəstələrdə
xəstələri
xəstələrin
xəstələrə
xəstənin
xəstəsi
xəstəxana
xəstəxanada
xəstəxanalar
xəstəxananın
xəstəxanası
xəstəxanasına
xəstəxanasında
xəstəxanasının
xəstəxanaya
xəstəyə
xəta
xətai
xətlə
xətlər
xətləri
xətlərin
xətlərinin
xətt
xəttat
xəttatlıq
xətti
xəttin
xəttində
xəttindən
xəttini
xəttinin
xəttinə
xəttləri
xəttə
xətvari
xəyal
xəyali
xəyalı
xəyanət
xəyanəti
xəyyam
xəz
xəzinə
xəzinəsi
xəzinəsini
xəzinəsinə
xəzinəyə
xəzri
xəzər
xəzərdə
xəzərin
xəzərlər
xəzərlərin
xəzəryanı
y
ya
yabanı
yabqu
yad
yada
yadda
yaddan
yaddaqalan
yaddas
yadelli
yadigar
yadıma
yadına
yag
yahoo
yak
yakob
yakov
yakovlev
yakut
yakutiya
yal
yalan
yalanc
yalandan
yalar
yaları
yaların
yalarını
yalarının
yalc
yale
yallı
yalnız
yalnızca
yalı
yamac
yamaclarda
yamacları
yamacların
yamaclarında
yamacı
yamacında
yaman
yamayka
yan
yana
yanacag
yanacaq
yanag
yanan
yanar
yanas
yanda
yandan
yandı
yandırdı
yandırma
yandırmaq
yandırmıs
yandırıb
yandırıldı
yandırılması
yandırılmıs
yandırılır
yandırır
yang
yankovic
yanlarında
yanlıs
yanma
yanması
yanmıs
yanos
yanq
yanvar
yanvarda
yanvarın
yanvarında
yanvarından
yanı
yanıb
yanıma
yanımda
yanın
yanına
yanında
yanındakı
yanından
yanıq
yanır
yap
yapon
yaponca
yaponiya
yaponiyada
yaponiyadakı
yaponiyadan
yaponiyalı
yaponiyanı
yaponiyanın
yaponiyaya
yaponlar
yaponların
yapıs
yaqub
yaqublu
yaqubog
yaqubov
yaqubun
yaqut
yar
yara
yarada
yaradacaq
yaradan
yaradaraq
yaradıb
yaradıcı
yaradıcıları
yaradıcılarından
yaradıcılıg
yaradıcılıq
yaradıcılıqla
yaradıcısı
yaradıcısıdır
yaradılan
yaradıldı
yaradıldıg
yaradılması
yaradılmasına
yaradılmasında
yaradılmasından
yaradılmasını
yaradılmasının
yaradılmıs
yaradılıb
yaradılır
yaradılıs
yaradır
yaradırdı
yaradırlar
yaralamıs
yaralanan
yaralandı
yaralandıg
yaralanmıs
yaralanıb
yaralanır
yaralar
yaraları
yaralı
yaramaz
yarana
yaranan
yarananlar
yarandı
yarandıg
yarandıqda
yaranma
yaranmag
yaranması
yaranmasına
yaranmasında
yaranmasından
yaranmasını
yaranmasının
yaranmıs
yaranıb
yaranır
yaranırdı
yaranıs
yararlı
yararlıdır
yararsız
yaras
yarasa
yarası
yarat
yaratdı
yaratdıg
yaratdılar
yaratdıqları
yaratma
yaratmag
yaratmaq
yaratmaqla
yaratması
yaratmıs
yardım
yardıma
yardımc
yardımlar
yardımlı
yardımı
yardımın
yarg
yari
yaroslav
yarpag
yarpaq
yarpaqlar
yarpaqları
yarpaqların
yarpaqlarından
yarpaqlarının
yarpaqlı
yarı
yarıb
yarıdan
yarım
yarımada
yarımadada
yarımadaları
yarımadanın
yarımadası
yarımadasına
yarımadasında
yarımadasından
yarımadasını
yarımadasının
yarımc
yarımdairəvi
yarımfinal
yarımfinala
yarımfinalda
yarımkec
yarımku
yarımmu
yarımno
yarıms
yarımsəhra
yarın
yarıq
yarıs
yarısı
yarısına
yarısında
yarısından
yarısını
yarısının
yarıya
yarə
yas
yasamal
yasaq
yasaqlıg
yasin
yastı
yası
yasəmən
yat
yata
yatag
yatan
yataq
yataqda
yataqlar
yataqları
yataqların
yataqlarında
yataqlarının
yataqxana
yatdı
yatdıg
yatmıs
yatıb
yatır
yatırmaq
yatırıldı
yatırılması
yatırılmasında
yava
yavas
yavuz
yavər
yaxa
yaxs
yaxud
yaxın
yaxında
yaxından
yaxındır
yaxınlarda
yaxınları
yaxınlarında
yaxınlas
yaxınlıg
yaxınlıq
yaxınlıqda
yaxınlıqdakı
yay
yaya
yayan
yaycı
yayda
yaydı
yaydıg
yayla
yaylag
yaylaq
yaylası
yaylasında
yaylasının
yaylım
yaymag
yaymaq
yaymıs
yayı
yayılan
yayılaraq
yayıldı
yayıldıg
yayılma
yayılmag
yayılması
yayılmasına
yayılmasında
yayılmasını
yayılmasının
yayılmıs
yayılıb
yayılır
yayım
yayıma
yayımc
yayımladı
yayımladıg
yayımlamıs
yayımlanan
yayımlandı
yayımlanmag
yayımlanması
yayımlanmıs
yayımlanıb
yayımlanır
yayımları
yayımı
yayın
yayıncılık
yayında
yayınevi
yayınları
yayır
yaz
yaza
yazan
yazar
yazaraq
yazarkən
yazarlar
yazarı
yazda
yazdı
yazdıg
yazdıqları
yazma
yazmag
yazmaq
yazmaqla
yazması
yazmıs
yazı
yazıb
yazıc
yazıda
yazıg
yazılan
yazılar
yazılarda
yazılarla
yazıları
yazıların
yazılarında
yazılarını
yazılarının
yazıldı
yazıldıg
yazılma
yazılması
yazılmasında
yazılmıs
yazılı
yazılıb
yazılır
yazılırdı
yazılıs
yazın
yazında
yazını
yazının
yazıq
yazır
yazırdı
yazırlar
yazıs
yazısı
yazısında
yazısını
yazısının
yazıya
yc
yd
ydu
ydə
ydən
ye
year
years
yeddi
yeddiillik
yeddinci
yedi
yeg
yeganə
yek
yekaterina
yekaterinanın
yekdil
yekdilliklə
yeksan
yekun
yekunda
yekunlarına
yekunlas
yekə
yel
yelena
yelizaveta
yelizavetpol
yelkən
yelkənli
yellow
yem
yemis
yemə
yemək
yeməkdən
yeməklər
yeməkləri
yeməklərin
yeməkxana
yeməyi
yeməyin
yeməyə
yen
yengicə
yeni
yenic
yenicə
yenidən
yenidənqurma
yenikənd
yenilik
yenilikc
yeniliklər
yenilikləri
yenilməz
yeniləmə
yenilənmis
yenilənmə
yenilənməsi
yeniləs
yenisey
yeniyetmə
yeniyetməlik
yeniyetmələr
yeniyetmələrin
yenə
yeon
yepiskop
yepiskopu
yer
yeraltı
yerd
yerdir
yerdə
yerdədir
yerdəki
yerdən
yerdəyis
yerevan
yeri
yeridi
yeridir
yerin
yerində
yerindəcə
yerindən
yerini
yerinin
yerinə
yeris
yeriyən
yerli
yerlik
yerlilər
yerlə
yerlər
yerlərdə
yerlərdən
yerləri
yerlərin
yerlərində
yerlərindən
yerlərini
yerlərinin
yerlərinə
yerlərə
yerləs
yersiz
yeru
yerusəlim
yerusəlimdə
yerusəlimin
yerusəlimə
yerə
yes
yet
yetdi
yetim
yetir
yetirdi
yetirdilər
yetirdiyi
yetirdiyinə
yetirib
yetirildi
yetirilib
yetirilir
yetirilmis
yetirilməsi
yetirilməsinə
yetirilən
yetirir
yetirirdi
yetirirlər
yetirmis
yetirmək
yetirmələri
yetirməsi
yetirməyə
yetirə
yetirən
yetirərkən
yetirərək
yetis
yetkin
yetkinlik
yetkinliyə
yetmis
yetər
yetərincə
yetərli
yev
yeva
yevgeni
yevgeniya
yevlax
yeyib
yeyilir
yeyin
yeyinti
yeyir
yeyirlər
yeyə
yeyən
yezid
yg
ygo
yi
yib
yil
yim
yin
yir
yirmi
yis
yiyələnib
yiyələnir
yiyələnmis
yiyələnmək
ykənir
ykənən
yl
ylu
ylə
ylədi
ylədilər
ylədiyi
yləmis
yləmək
yləməyə
ylənilir
ylər
[...]
