!
"
#
##0
##1
##10
##11
##12
##13
##14
##15
##16
##17
##18
##19
##2
##20
##21
##22
##23
##24
##25
##26
##27
##28
##29
##3
##30
##31
##32
##33
##34
##35
##36
##37
##38
##39
##4
##40
##41
##42
##43
##44
##45
##46
##47
##48
##49
##5
##50
##51
##52
##53
##54
##55
##56
##57
##58
##59
##6
##60
##61
##62
##63
##64
##65
##66
##67
##68
##69
##7
##70
##71
##72
##73
##74
##75
##76
##77
##78
##79
##8
##80
##81
##82
##83
##84
##85
##86
##87
##88
##89
##9
##90
##91
##92
##93
##94
##95
##96
##97
##98
##99
$
%
&
'
(
)
*
+
,
-
.
/
0
00
000
0004
001
0011456
0024
0035
0049
005
00632
0067
007
00963
00996
01
010
013
0138
01765
02
025
02787
03
03134
0362
0365
04
05
0501674
0505025
06
0606440
061
0610732
07
0746
08
0806
09
0903
1
10
100
1000
10000
100000
1001
1002
1007
1008
101
1010
1011
1012
1016
1017
102
1021
1024
1025
1029
103
1038
104
1046
105
1050
1051
106
1063
1066
107
1071
1072
1073
108
1080
1086
1088
109
1090
1093
1095
1097
1098
11
110
1100
1101
1105
1107
111
1111
112
1126
113
1130
1136
114
1146
115
1150
116
1160
1163
117
1173
1177
1179
118
1180
1183
1186
119
1190
1191
12
120
1200
120000
1204
1205
1206
1207
121
1210
122
1220
1225
123
1235
124
1240
125
1250
126
1260
127
128
1280
1282
1284
1286
129
1290
1291
1299
13
130
1300
1304
1307
1308
131
1310
1313
1314
1316
1317
1318
132
1326
1327
1328
133
1330
1335
1336
1338
134
1340
1348
135
1350
1353
1356
1357
136
1360
1365
1368
137
1370
1371
138
1380
1382
1385
1386
1387
1389
139
1390
1392
1394
1395
14
140
1400
1402
1403
1405
1408
141
1410
1415
1417
142
1420
143
1430
1432
14344
1435
144
1440
1444
1447
145
1450
1451
1452
1453
146
1460
1461
1465
1467
1468
1469
147
1470
1471
1473
1474
1475
1478
148
1480
1481
1482
1483
1485
1487
149
1490
1492
1494
1495
1497
1498
1499
15
150
1500
1501
1502
1503
1504
1505
1506
1507
1508
1509
151
1510
1511
1512
1513
1514
1515
1516
1517
1518
1519
152
1520
1521
1522
1523
1524
1525
1526
1527
1529
153
1530
1531
1532
1533
15338
1534
1535
1536
1537
1538
1539
154
1540
1541
1542
1543
1544
1545
1546
1547
1548
1549
155
1550
1551
1552
1553
1554
1555
1556
1557
1558
1559
156
1560
1561
1562
1564
1565
1566
1567
1568
1569
157
1570
1571
1572
1573
1574
1576
1577
1578
158
1580
1581
1582
1583
1584
1585
1586
1587
1588
1589
159
1590
1591
1592
1593
1594
1595
1596
1597
1598
1599
16
160
1600
1601
1602
1603
1604
1605
1606
1607
1609
161
1610
1611
1612
1613
1614
1615
1616
1617
1618
1619
162
1620
1621
1622
1623
1624
1625
1626
1627
1628
1629
163
1630
1631
1632
1633
1634
1635
1636
1637
1638
1639
164
1640
1642
1643
1644
1645
1647
1648
1649
165
1650
1651
1652
1653
1654
1655
1656
1657
1658
1659
166
1660
1661
1662
1663
1664
1665
1666
1667
1668
1669
167
1670
1671
1672
1674
1675
1676
168
1680
1681
1683
1685
1687
1688
1689
169
1690
1694
1695
1696
1697
1698
1699
17
170
1700
1701
1702
1703
1704
1706
1707
1708
1709
171
1710
1711
1712
1713
1714
1715
1716
1717
1718
1719
172
1720
1721
1722
1723
1724
1725
1726
1727
1728
1729
173
1730
1731
1732
1733
1734
1735
1736
1737
1738
1739
174
1740
1741
1742
1743
1744
1745
1746
1747
1748
1749
175
1750
1751
1752
1753
1754
1755
1756
1757
1758
1759
176
1760
1761
1762
1763
1764
1765
1766
1767
1768
1769
177
1770
1771
1772
1773
1774
1775
1776
1777
1778
1779
178
1780
1781
1782
1783
1784
1785
1786
1787
1788
1789
179
1790
1791
1792
1793
1794
1795
1796
1797
1798
1799
18
180
1800
1801
1802
1803
1804
1805
1806
1807
1808
1809
181
1810
1811
1812
1813
1814
1815
1816
1817
18174
1818
1819
182
1820
1821
1822
1823
1824
1825
1826
1827
1828
1829
183
1830
1831
1832
1833
1834
1835
1836
1837
1838
1839
184
1840
1841
1842
1843
1844
1845
1846
1847
1848
1849
185
1850
1851
1852
1853
1854
1855
1856
1857
1858
1859
186
1860
1861
1862
1863
1864
1865
1866
1867
1868
1869
187
1870
1871
1872
1873
1874
1875
1876
1877
1878
1879
188
1880
1881
1882
1883
1884
1885
1886
1887
1888
1889
189
1890
1891
1892
1893
1894
1895
1896
1897
1898
1899
19
190
1900
1901
1902
1903
1904
1905
1906
1907
1908
1909
191
1910
1911
1912
1913
1914
1915
1916
1917
1918
1919
192
1920
1921
1922
1923
1924
1925
1926
1927
1928
1929
193
1930
1931
1932
1933
1934
1935
1936
1937
1938
1939
194
1940
1941
1942
1943
1944
1945
1946
1947
1948
1949
195
1950
1951
1952
1953
1954
1955
1956
1957
1958
1959
196
1960
1961
1962
1963
1964
1965
1966
1967
1968
1969
197
1970
1971
1972
1973
1974
1975
1976
1977
1978
1979
198
1980
1981
198182
1982
1983
1984
1985
1986
1987
1988
1989
199
1990
1991
1992
1993
1994
1995
1996
1997
1998
1999
2
20
200
2000
2001
2002
2003
2004
20042523
2005
2006
2007
2008
2009
201
2010
201014188
2011
2012
2013
2014
2015
201528048
2016
2017
2018
2019
202
2020
2021
2022
2023
2025
203
2030
204
2041
205
2050
206
207
208
209
21
210
2100
211
212
213
214
2142
2146
2148
215
216
2164
217
218
219
22
220
2200
221
222
223
224
225
226
227
228
229
2294
23
230
2300
2306
2307
231
232
233
234
235
236
237
238
239
24
240
2400
241
242
243
244
245
246
247
248
249
25
250
2500
250000
251
252
253
254
255
256
257
258
259
26
260
2600
261
262
263
264
265
266
267
268
269
27
270
2700
271
272
273
274
275
276
277
278
279
28
280
2800
281
282
283
284
285
286
287
288
289
29
290
291
292
293
294
295
296
2966
297
298
299
3
30
300
3000
301
302
303
304
305
306
307
308
309
31
310
311
312
313
314
3148
315
316
317
318
319
32
320
3200
321
322
322488
323
324
325
326
327
328
329
33
330
331
332
333
334
335
336
337
338
339
34
340
341
342
343
344
345
346
347
348
349
35
350
3500
351
352
353
354
355
356
357
358
359
36
360
361
362
363
364
365
366
367
368
369
37
370
371
372
373
3737
374
375
376
377
378
379
38
380
381
382
383
384
3847
385
386
387
3873
388
3881
389
39
390
391
392
393
394
395
396
397
398
399
4
40
400
4000
401
402
4020
403
404
405
406
407
4074
408
409
41
410
411
412
413
414
415
416
417
418
419
42
420
421
422
423
424
425
426
427
428
429
43
430
431
431550
432
433
4331
434
435
4357
436
4365
437
438
439
44
440
441
442
443
444
445
446
447
448
449
45
450
4500
451
452
453
454
455
456
457
458
459
46
460
461
462
463
464
465
466
467
468
469
47
470
471
472
473
474
475
476
477
478
479
48
480
481
482
483
484
4846
485
486
487
488
489
49
490
491
492
493
494
495
496
497
498
498708
499
5
50
500
5000
501
502
503
504
505
506
507
508
509
51
510
510201
511
512
513
5139
514
515
516
516636
517
518
519
52
520
521
522
523
524
525
526
527
528
529
53
530
531
532
533
534
535
536
537
538
539
54
540
541
542
543
544
545
5451
546
547
548
549
55
550
551
552
553
554
555
556
557
558
559
56
560
561
562
563
564
565
566
567
568
569
57
570
571
572
573
574
575
576
578
579
58
580
581
582
5822
583
584
585
586
587
588
589
59
590
591
592
593
594
595
596
5962
597
598
599
6
60
600
6000
601
602
603
6036
604
605
606
607
608
609
61
610
611
612
613
614
615
616
617
618
619
62
620
621
622
623
624
625
6256
626
627
628
6280
629
63
630
631
632
633
634
635
636
6361
637
638
639
64
640
641
642
643
644
645
646
647
648
649
65
650
651
652
653
654
655
656
657
658
66
660
661
662
663
664
665
666
667
668
669
67
670
671
672
673
674
675
676
678
679
68
680
681
683
684
685
688
689
69
690
691
696
697
698
699
7
70
700
7000
701
702
703
704
705
706
707
708
709
71
710
711
712
713
7137
714
715
716
717
718
72
720
721
7213
724
725
727
728
73
730
731
733
734
735
736
737
739
74
740
741
744
745
746
747
75
750
751
752
753
754
755
757
758
759
76
760
762
766
767
768
77
770
771
775
776
777
78
780
786
787
79
790
791
794
8
80
800
8000
8018
802
804
8066
808
809
81
810
811
812
813
814
815
816
82
820
8205
821
8213
822
8221
83
830
831
833
8339
836
837
84
840
842
843
849
85
850
853
855
859
86
860
868
869
86977
87
870
87011
871
8711
874
875
88
880
881
884
89
890
893
9
90
900
905
907
91
910
911
92
920
92032
923
925
928
93
930
935
936
94
940
945
946583
95
950
951
953
954
96
960
962
963
964
965
966
969
97
970
975
976
978
98
980
981
982
985
987
99
992
994
995
9952
996
999
:
;
<
=
>
?
@
[
\
]
^
_
`
a
aa
aak
aaron
aat
aatc
ab
aba
abad
abadlas
abadlıq
abala
abalıd
abalıdı
aban
abaran
abas
abasov
abay
abba
abbas
abbasa
abbasi
abbasilər
abbaslı
abbasov
abbasova
abbasovun
abbasqulu
abbaszadə
abbası
abbasın
abbasəli
abc
abd
abdal
abdu
abdul
abdulla
abdullah
abdullayev
abdullayeva
abdullayevin
abe
abel
abi
abid
abidə
abidədir
abidələr
abidələrdən
abidələri
abidələrin
abidələrində
abidələrindən
abidələrinin
abidəni
abidənin
abidəsi
abidəsidir
abidəsinin
ablon
about
abraham
abrams
abran
abs
abstract
abstrakt
absurd
abu
abunə
abunəc
abuzər
abxaz
abxaziya
abıs
abə
ac
aca
acacia
academia
academic
academy
acag
acaq
access
accessdate
accessed
accipiter
according
account
acda
acdan
acdır
acer
acgo
achillea
achyrocline
acid
aciz
aclar
aclara
acları
acların
aclarının
aclıg
aclıq
aclıqdan
acmella
across
act
acta
action
active
activity
actor
acı
acıc
acıg
acın
acınacaqlı
acından
acını
acının
acıq
acıqlı
ad
ada
adac
adada
adadan
adadır
adakı
adalar
adalara
adalarda
adalardan
adaları
adaların
adalarına
adalarında
adalarından
adalarını
adalarının
adam
adama
adambas
adamdan
adamdır
adamla
adamlar
adamlara
adamlardan
adamlarla
adamları
adamların
adamlarına
adamlarından
adamlarını
adamlarının
adams
adamı
adamın
adamının
adan
adana
adanı
adanın
adaptasiya
adaptasiyası
adası
adasıdır
adasına
adasında
adasındakı
adasından
adasını
adasının
adaya
add
adda
adds
addım
addımlar
addımı
addır
adekvat
adelman
adi
adil
adilog
adilə
adjusted
adla
adladı
adlanan
adlandıran
adlandıraraq
adlandırdı
adlandırdıg
adlandırdılar
adlandırdıqları
adlandırmag
adlandırmaq
adlandırmıs
adlandırıb
adlandırılan
adlandırıldı
adlandırılması
adlandırılmıs
adlandırılıb
adlandırılır
adlandırılırdı
adlandırır
adlandırırdı
adlandırırdılar
adlandırırlar
adlanmag
adlanmıs
adlanıb
adlanır
adlanırdı
adlar
adlarla
adları
adların
adlarına
adlarında
adlarından
adlarını
adlarının
adler
adlı
adlıq
administrasiyası
administrasiyasının
administration
administrative
admiral
admiralı
adnan
adolf
adpu
adr
adrian
adriatik
adsız
adu
adult
adults
advanced
advances
adventure
adventures
adı
adıdır
adıg
adıge
adıgey
adıgo
adım
adın
adına
adında
adındakı
adından
adındandır
adını
adının
adıqları
adır
adıyla
adək
adəm
adəmin
adət
adəti
adətli
adətlər
adətləri
adətən
ae
aechmea
aegiphila
aerokosmik
aeroport
aes
af
afa
afaq
affa
affairs
afghanistan
afi
afina
afinada
afinanın
afis
aforizmlər
afr
africa
african
afrika
afrikaans
afrikada
afrikadakı
afrikadan
afrikalı
afrikanın
afrikaya
afs
aft
aftalı
after
aftı
afı
afın
afına
afında
afındakı
afını
afının
afərin
afət
ag
agah
again
against
age
agency
agent
agenti
agentlik
agentliyi
agentliyin
agentliyinin
ageratina
ages
agird
agirdi
agirdlər
agirdləri
agirdlərin
agirdlərə
aglaia
agreement
agriculture
agrostis
agəlməz
ah
aha
ahbaz
ahbazov
ahbulaq
ahbuz
ahdag
ahdan
ahi
ahid
ahidi
ahidlik
ahidlərin
ahidə
ahidəc
ahidələr
ahin
ahla
ahlar
ahları
ahların
ahlarının
ahlıg
ahlıq
ahmad
ahmar
ahmat
ahmatc
ahmed
ahmet
ahn
ahnamə
ahqulu
ahrux
ahsevən
ahtaxtinski
ahtaxtı
ahu
ahverdi
ahverdiyev
ahzadə
ahzadələr
ahzadənin
ahzadəsi
ahı
ahın
ahına
ahının
ahəng
ahəngdar
ahəns
ai
aid
aida
aiddir
aiddirlər
aidə
ailə
ailədə
ailədən
ailəli
ailəlidir
ailələr
ailələri
ailələrin
ailələrindən
ailələrinin
ailələrinə
ailəni
ailənin
ailəsi
ailəsində
ailəsindən
ailəsini
ailəsinin
ailəsinə
ailəyə
aip
aiq
air
airbus
aircraft
airi
airin
airlines
airlər
airləri
airlərin
airlərindən
airlərinin
airport
airy
airə
airəsi
ais
aise
aiyət
ajax
ak
aka
akad
akademik
akademiki
akademiya
akademiyada
akademiyanı
akademiyanın
akademiyası
akademiyasına
akademiyasında
akademiyasını
akademiyasının
akasiya
akc
aki
akif
akir
akira
akis
akkad
akov
akp
aks
aksiya
aksiyaları
aksiyası
aksu
akt
aktiv
aktivliyi
aktivləs
aktlar
aktları
aktların
aktlarının
aktrisa
aktrisanın
aktrisası
aktual
aktuallıg
aktyor
aktyorlar
aktyorları
aktyorların
aktyorlug
aktyorluq
aktyoru
aktyorudur
aktyorun
aktı
aktında
aktının
akustik
akın
al
ala
alabama
alac
alacag
alacaq
alag
alago
alain
alam
alan
alana
alanan
alanda
alandan
alandı
alanlar
alanların
alanma
alanmanın
alanması
alanmıs
alanır
alaq
alar
alara
alaraq
alarda
alardan
alarkən
alarla
alarlı
alarov
aları
aların
alarına
alarında
alarından
alarını
alarının
alas
alaska
alatoran
alay
alayı
alayın
alayına
alayında
alayının
alazan
alb
alba
albalı
alban
albania
albanian
albaniya
albaniyada
albaniyanın
albaniyası
albaniyasının
albaniyaya
albanlar
albanların
albareti
alber
albert
alberta
alberto
albom
alboma
albomda
albomdan
albomlar
albomları
albomlarını
albomu
albomudur
albomun
albomuna
albomunda
albomundan
albomunu
albomunun
album
albums
alc
aldadıcı
aldan
aldatmaq
aldı
aldıcı
aldıg
aldılar
aldım
aldıqda
aldıqdan
aldıqları
aldır
aldıran
alekperov
aleks
aleksandr
aleksandra
aleksandropol
aleksandrovic
aleksandrın
aleksey
alessandro
aleut
alex
alexa
alexander
alexandroff
alfa
alfonso
alfred
alg
algae
alguliyev
ali
alice
alicə
alicəsi
alicəsində
alicəvi
aliev
align
aliguliyev
alih
alim
alimdir
alimi
alimin
alimlik
alimlər
alimlərdən
alimləri
alimlərin
alimlərindən
alimlərinin
alimlərə
alina
alis
alisa
alita
aliyev
aliyeva
aliyə
alkoqol
all
alla
allah
allaha
allahdan
allahdır
allahla
allahverdi
allahverdiyev
allahverdiyeva
allahyar
allahı
allahım
allahın
allahının
allahınız
allan
allar
alle
allen
allergik
alliance
allium
allmovie
allmusic
allu
alm
alma
almadan
almag
almalı
almamıs
alman
almanca
almaniya
almaniyada
almaniyadakı
almaniyadan
almaniyanı
almaniyanın
almaniyası
almaniyasının
almaniyaya
almanlar
almanlara
almanların
almanın
almaq
almaqda
almaqdan
almaqla
almas
alması
almasına
almasını
almatı
almaya
almayan
almaz
almq
almır
almıs
aloe
alone
along
alonso
alov
alovlu
alovu
alovun
alp
alpha
alpina
alpine
alplar
alpları
alqı
alqıs
als
alsa
alsaq
also
alsın
alt
altar
altay
altda
altdan
alternativ
alternative
altmaq
altmıs
altun
altı
altın
altına
altıncı
altında
altındadır
altındakı
altından
alu
alvar
alyaska
alye
alyona
alı
alıb
alıcı
alıg
alılar
alım
alın
alına
alınan
alınaraq
alından
alındı
alındıg
alındıqdan
alınma
alınmalıdır
alınmamıs
alınmaqla
alınması
alınmasına
alınmasında
alınmasını
alınmasının
alınmaya
alınmır
alınmıs
alını
alınıb
alının
alınır
alınırdı
alıq
alır
alırdı
alırdılar
alırlar
alıs
alıyev
aləm
aləmdə
aləmi
aləmin
aləmində
aləminin
aləminə
aləmə
alət
aləti
alətin
alətlər
alətləri
alətlərin
alətlərinin
am
ama
amadey
amag
amalı
aman
amanda
amanlıq
amansız
amaq
amaqda
amaqdadır
amar
amaranthus
amasiya
amasya
aması
amasına
amaxı
amaxıda
amaxının
amaxıya
amazing
amazon
ambassador
amblyseius
amc
amdan
ame
amea
america
american
americana
americans
amerika
amerikada
amerikadakı
amerikadan
amerikalı
amerikalılar
amerikalıların
amerikan
amerikanın
amerikası
amerikaya
ames
ami
amid
amil
amili
amilin
amillər
amillərdən
amilləri
amillərin
amin
aminturs
amir
amlar
amları
amlı
amma
ammonium
ammonyak
amnesty
amo
among
amos
ampan
amsterdam
amu
amundsen
amur
amxal
amxor
amy
amı
amın
amır
amıs
aməhəmməd
an
ana
anadan
anadangəlmə
anadolu
anadoluda
anadolunun
anadoluya
anadır
anag
anakya
anal
analar
anaları
anaların
analitik
analiz
analizi
analoji
analoq
analoqu
analysis
anam
anamın
anan
ananın
anaq
anaqlı
anaqqala
anar
anarxist
anastasiya
anası
anasıdır
anasına
anasından
anasını
anasının
anatoli
anatomik
anatomiya
anatomiyası
anatomy
anaya
anbar
anbarları
anbarı
anbarında
anbarının
anc
ancaq
anceles
ancelesdə
ancient
and
anda
andaman
andan
anders
anderson
anderton
andezit
andorra
andre
andrea
andreas
andrew
andrews
andrey
android
andromeda
androsace
andy
andı
andır
andız
angel
angela
angeles
angiosperm
anglo
angraecum
angustifolia
ani
animal
animals
animasiya
animation
anime
animenin
aniplex
ankara
ankarada
ankaraya
anl
anla
anladım
anlamag
anlamaq
anlamı
anlamına
anlamını
anlar
anlara
anlarda
anları
anların
anlas
anlaya
anlayan
anlayır
anlayıs
anlı
anlıq
anlısı
anma
anmıs
ann
anna
annals
annanın
anne
anniversary
announced
announces
annual
anonim
anons
another
anq
anqola
anri
ans
ansambl
ansamblı
ansamblın
ansamblının
ansiklopedisi
anspress
ansı
ant
anta
antalya
antanta
antarctic
antarctica
antarktida
antarktidanın
antarktika
anthemis
anthony
anthurium
anti
antifas
antik
antiquity
antisovet
antologiyası
anton
antoni
antonio
antropogen
antropologiya
antropoloji
antuan
anturium
anxay
any
anı
anım
anın
anına
anında
anır
anə
ao
aog
ap
apa
apar
apara
aparacaq
aparan
aparar
apararaq
apararkən
aparat
aparatı
aparatında
aparatının
apardı
apardıg
apardılar
apardıqları
aparmag
aparmalı
aparmaq
aparması
aparmıs
aparıb
aparıcı
aparıcısı
aparılan
aparıldı
aparıldıg
aparılmalıdır
aparılması
aparılmasına
aparılmasını
aparılmıs
aparılıb
aparılır
aparılırdı
aparır
aparırdı
aparırdılar
aparırlar
apasport
apdan
apelyasiya
apg
api
aplin
aplı
apollo
apollon
apostol
apostrophe
app
appendix
apple
application
applications
applied
approach
apr
aprel
apreldə
aprelin
aprelində
aprelindən
april
aptek
apur
apı
aq
aqata
aqda
aqdan
aqdır
aqgəncnəs
aqibət
aqibəti
aqil
aqla
aqlaiya
aqlar
aqlara
aqlarda
aqlardan
aqlarla
aqları
aqların
aqlarına
aqlarında
aqlarını
aqlarının
aqlı
aqlıg
aqlıq
aqlıqda
aqlıqdan
aqmalc
aqqal
aqrar
aqreqat
aqressiv
aqs
aquatica
aquatics
aquli
ar
ara
arab
araba
arabia
arabic
arabis
arada
aradan
aral
aralar
araları
aralarında
aralarındakı
aralı
aralıda
aralıg
aralık
aralıq
aram
arami
aramsız
aramızda
aran
aranın
aranızda
araq
araqon
ararat
aras
araslı
arası
arasına
arasında
arasındadır
arasındakı
arasından
araya
arayıs
araz
arazboyu
arazın
arb
arbitraj
arc
archaeological
archaeology
archinform
architecture
archive
archived
archives
archivio
arctic
arctostaphylos
ard
arda
ardns
ardı
ardıc
ardıcıl
ardıcılları
ardıcıllıg
ardıcıllıq
ardıcıllıqla
ardınca
ardından
ardır
are
area
arealı
areas
arena
arenada
arenasında
arg
argelander
argentina
argentinada
argentinanın
ari
aria
aric
arid
ariel
arif
aristokrat
aristotel
aristotelin
arizona
ark
arktik
arktika
arkən
arl
arlar
arları
arların
arli
arlotta
arlz
arlıg
arlıq
armed
armenia
armenian
armenians
arms
armud
armudu
army
armıxa
arn
arnold
aromatik
aron
around
aroymaq
arpa
arpac
arpacaq
arpan
arpaz
arpır
arpıs
arqun
arran
arrest
arrondissement
arrow
ars
arsen
arsenal
arslan
arslanın
art
artan
artar
artaraq
artas
artdı
artdıg
artdıqca
artemisia
arterial
arthur
article
articles
artileriya
artilleriya
artist
artisti
artistləri
artists
artmag
artması
artmasına
artmıs
arts
artur
artıb
artıg
artım
artımı
artıq
artıqdır
artır
artıran
artırdı
artırmag
artırmaq
artırmıs
artırılması
artırılmasına
artırılmıs
artırır
arvad
arvadı
arvadın
arvadına
arvadını
arvadının
arvensis
arx
arxa
arxada
arxadan
arxaik
arxangel
arxangelsk
arxası
arxasına
arxasınca
arxasında
arxasındakı
arxasından
arxaya
arxayın
arxeologiya
arxeologiyası
arxeoloji
arxeoloq
arxeoloqlar
arxipelaq
arxipelaqı
arxipelaqın
arxipelaqına
arxipelaqının
arxitektura
arxitekturası
arxiv
arxivi
arxivində
arxivləndi
arxivlənmis
arxivləri
arxivləs
arxiyepiskopu
arxı
arzu
arzular
arzuları
arzusu
arzusuna
arzusunda
arzusunu
arı
arıc
arılar
arın
arını
arının
arıq
arə
arədir
arələr
arələri
arəsi
arəsiz
arət
as
asa
asan
asandır
asanlas
asanlıqla
asaray
asayis
asc
ascii
ase
asfalt
asi
asia
asian
asif
asim
asiman
asir
asiri
asirlik
asirləri
asirləs
asiya
asiyada
asiyadakı
asiyadan
asiyanın
asiyaya
aslan
aslanov
aslanova
aslanın
asma
asmaq
asp
aspects
aspektləri
aspirant
aspirantura
aspiranturada
aspiranturanı
aspiranturasına
aspiranturasında
aspiranturaya
aspirantı
asplenium
aspx
assambleyası
assambleyasının
assassin
assembly
assessment
assimilyasiya
assistent
assistenti
associated
association
associations
assosiasiya
assosiasiyası
assosiasiyasının
assur
assuriya
ast
asta
astana
astanasında
astara
aster
asteroid
astma
aston
astrac
astragalus
astro
astrofizika
astrofoto
astron
astronom
astronomical
astronomik
astronomiya
astronomu
astronomy
astrophys
astrophysical
astrophysics
asturiya
asudə
asya
ası
asıdır
asılmıs
asılı
asılıdır
asılılıg
asılılıq
asın
asına
asında
asından
asını
asının
asır
asırqalotu
asızlar
asəf
at
ata
atabəy
atabəylər
atacag
atacaq
atadan
atakis
atalar
ataları
atalarının
atam
atamın
atan
atana
atanda
atanın
atar
ataraq
atas
atası
atasıdır
atasına
atasından
atasını
atasının
atatu
atay
atc
atdan
atdı
atdıg
atdılar
atdım
atdıqda
atdıqdan
atdıra
atdıran
atdırdı
atdırmag
atdırmaq
atdırmıs
atdırıldı
atdırılması
atdırılmıs
atdırılır
atdırır
ateist
athens
athletes
ati
atilla
atka
atla
atlanta
atlantic
atlantik
atlantika
atlar
atlara
atları
atların
atlarını
atlas
atlası
atlet
atletika
atletiko
atlı
atma
atmag
atmamıs
atmaq
atması
atmasına
atmayan
atmaz
atmosfer
atmosferdə
atmosferi
atmosferin
atmosferə
atmır
atmıs
ato
atom
atomlar
atomları
atomların
atomu
atomun
atriplex
atropatena
ats
atsa
atsız
attack
attacks
attestasiya
attila
atu
atv
atı
atıb
atıcı
atılan
atıldı
atılması
atılmıs
atılıb
atılır
atın
atına
atında
atını
atının
atır
atırdı
atırlar
atıs
atəs
atət
au
aubourg
audi
audio
audit
auditoriya
auf
auflage
aug
august
aul
aumyan
aus
austin
australia
australian
australis
austria
author
authorities
authority
authors
auto
automatic
av
ava
avada
avadanlıg
avadanlıq
avadanlıqlar
avadanlıqları
avadanlıqların
available
avam
avanqard
avant
avar
avara
avarc
avarlar
avatar
avaz
avc
avena
avengers
averon
avesta
avias
aviasiya
aviation
avin
avini
avinidir
avir
aviri
aviyə
avorne
avqust
avqustda
avqustun
avqustunda
avraam
avrasiya
avro
avropa
avropada
avropadakı
avropadan
avropalı
avropalılar
avropalıların
avropanı
avropanın
avropaya
avroviziya
avroviziyada
avroya
avs
avstraliya
avstraliyada
avstraliyalı
avstraliyanın
avstriya
avstriyada
avstriyalı
avstriyanın
avstriyaya
avtobioqrafik
avtobus
avtomat
avtomatik
avtomatlas
avtomobil
avtomobili
avtomobilin
avtomobillər
avtomobilləri
avtomobillərin
avtoritar
avus
award
awards
away
ax
axan
axar
axarı
axarında
axc
axcp
axdıg
axirət
axirətdə
axmag
axmaq
axmaqlar
axmaqlıg
axmaqlıq
axnas
axs
axta
axtac
axtaran
axtardıg
axtarmag
axtarmaq
axtarıb
axtarır
axtarıram
axtarırdı
axtarıs
axtaya
axund
axundov
axundova
axundovun
axundzadə
axundzadənin
axworthy
axı
axıb
axım
axın
axınları
axını
axınında
axınını
axınının
axır
axıra
axırda
axırlarında
axırı
axırına
axırıncı
axırında
axıs
axısqa
axəli
axələnmis
ay
aya
ayag
ayaks
ayan
ayanlar
ayanların
ayaq
ayaqda
ayaqlar
ayaqları
ayaqlarını
ayaqlarının
ayaqlı
ayaqqabı
ayar
ayarpag
ayaz
ayb
ayc
ayda
aydan
aydın
aydındır
aydınlas
aydınlıg
aydınlıq
aydır
ayev
ayeva
ayevin
ayg
aygu
ayi
ayin
ayinə
ayinəsi
ayiələr
ayiət
ayiəti
aykovski
aykənd
ayla
aylar
aylarda
aylarla
ayları
ayların
aylarına
aylarında
aylarının
aylend
aylı
aylıq
ayn
ayna
aynur
aypara
ayres
ayrı
ayrıca
ayrılan
ayrılaraq
ayrıldı
ayrıldıg
ayrıldıqdan
ayrılma
ayrılmag
ayrılmaq
ayrılması
ayrılmaz
ayrılmıs
ayrılıb
ayrılıg
ayrılıq
ayrılıqda
ayrılır
ayrılırlar
ayrım
ayrısec
ays
aysel
aytən
ayxan
ayı
ayıb
ayıdır
ayılar
ayın
ayına
ayınadək
ayında
ayından
ayını
ayının
ayıq
ayıqulag
ayır
ayıran
ayırd
ayırdı
ayırdılar
ayırlar
ayırmag
ayırmaq
ayırmıs
ayırıb
ayırır
ayırırlar
ayıs
ayısı
ayıtdı
ayə
ayələr
ayələri
ayət
ayətullah
az
aza
azacıq
azad
azaddır
azadliq
azadlıg
azadlıq
azadlıqdan
azadlıqlarının
azadə
azalar
azaldı
azaldılması
azaldır
azalma
azalmag
azalması
azalmasına
azalmıs
azaltmag
azaltmaq
azalıb
azalır
azan
azar
azarkes
azası
azca
azda
azdan
azdır
aze
azerbaijan
azerbaijani
azerbaycan
azerdict
azeri
azerisport
azermarka
azerpost
azertag
azg
azic
aziz
azlıg
azlıq
azlıqlar
azlıqların
azmıs
azn
azot
azov
azsaylı
aztu
aztv
azur
azyas
azı
azın
azına
azında
azından
azını
azının
azıx
azər
azərb
azərbaycan
azərbaycana
azərbaycanc
azərbaycanca
azərbaycanda
azərbaycandakı
azərbaycandan
azərbaycanfilm
azərbaycanla
azərbaycanlı
azərbaycanlılar
azərbaycanlılara
azərbaycanlılardan
azərbaycanlıları
azərbaycanlıların
azərbaycanlılarının
azərbaycanı
azərbaycanın
azərbaycanının
azəri
azərnəs
azərpoc
azərtac
b
ba
bab
baba
babaları
babam
babas
babası
babasının
babayev
babayeva
babayevin
babazadə
babelio
babi
babil
babilistan
babur
baby
babı
babək
babəkin
bac
bacanaqlar
bacara
bacaran
bacardı
bacardıg
bacarmıs
bacarıg
bacarıq
bacarıqla
bacarıqları
bacarıqlarını
bacarıqlı
bacarır
baccharis
back
background
bacı
bacıları
bacısı
bacısıdır
bacısını
bacısının
bad
badam
badamlı
baden
badi
badilə
badiləsi
badiləsini
badiləsinin
badullayeva
badımcan
badə
badət
bafta
bag
baha
bahadur
bahadır
bahalı
bahar
baharlı
baharı
baharın
bahasına
bahisə
bahisəli
bahisəlidir
bahisələr
bahisələri
bahisələrin
bahisələrə
bai
bailey
baill
bais
bak
bakalavr
bakalı
bakanlıg
bakanlık
baker
baki
bakinski
bakirə
bakteriya
bakteriyalar
baku
bakxaris
bakı
bakıda
bakıdakı
bakıdan
bakılı
bakını
bakının
bakıxanov
bakıxanovun
bakıya
bal
bala
balaban
balaca
balakis
balakən
balalar
balaları
balam
balans
balansı
balas
balası
balaxanı
balayev
balbinot
balet
baleti
baletin
bali
balina
balkan
balkanlarda
balkar
ball
balla
ballistik
balqabaq
balta
baltik
baltikyanı
baltimore
balzak
balı
balıg
balıq
balıqc
balıqlar
balıqları
balıqların
ban
bana
banan
band
bandunq
bang
bangladesh
banilərindən
banisi
bank
banka
banklar
bankları
bankların
banks
banksia
banksiya
bankı
bankın
bankının
banqlades
banu
baq
baqi
baqir
bar
bara
baraban
barak
barat
barbados
barbar
barbara
barbarossa
barcelona
bare
barens
bari
bariz
barizə
barizədə
barizədən
barizəni
barizənin
barizəsi
barizəsində
barizəsini
barizəsinin
barizəsinə
barizəyə
barlow
barmag
barmaq
barmaqları
barnes
barokko
baron
barri
barrie
barry
barselona
baryon
barı
barıs
barıt
barədə
barək
barəsində
barəsindəki
bas
basarkec
basdı
basdırılmıs
base
based
bashstat
basic
basin
basis
bask
basketball
basketbol
basketbolc
baskı
basmıs
basqın
basqınlar
bass
basıb
basımevi
bat
batalyon
batalyonu
batalyonunun
batan
bataqlıg
bataqlıq
batareya
batdı
batil
batist
batman
batmıs
battle
battlefield
batum
batumi
batı
batır
bauhinia
bautista
bavariya
bax
baxa
baxan
baxanda
baxar
baxaraq
baxc
baxdı
baxdıg
baxdım
baxdıqda
baxma
baxmag
baxmaq
baxmayaraq
baxs
baxıb
baxılan
baxılması
baxılır
baxımdan
baxımından
baxın
baxır
baxırdı
baxıs
bay
bayan
bayandur
bayat
bayatı
bayatılar
bayerische
bayern
baykal
baymak
bayqus
bayrag
bayram
bayramlar
bayramlı
bayramov
bayramova
bayramı
bayramın
bayramında
bayramının
bayraq
bayraqlar
bayraqları
baytarlıq
bayıl
bayır
bayıra
baz
baza
bazalt
bazar
bazara
bazarda
bazarlarda
bazarları
bazarı
bazarın
bazarına
bazarında
bazarının
bazası
bazasına
bazasında
bazasını
bazasının
bazel
bazilika
bazilikası
bb
bbas
bbc
bbə
bc
bd
bdu
be
beach
beat
beatles
beats
beautiful
beauty
bec
became
because
beck
becker
become
becərilir
becərilməsi
becərilən
been
before
begin
beginning
begins
behbud
behbudov
behind
behis
bei
beichman
beijing
beilschmiedia
being
bek
bekon
bel
bela
belar
belarus
belarusda
belarusiya
belarusun
belc
belediyesi
belgium
beli
belində
belinski
belinə
bell
bella
belle
belqrad
belə
beləcə
belədir
beləki
beləliklə
ben
bencamin
benedikt
beni
benin
benjamin
benqal
benth
benz
benzin
benzol
ber
berg
berger
berinq
beriya
berkeley
berkli
berlin
berlində
berlinin
berlinə
bern
bernard
bertran
bes
best
bet
beta
bethesda
bethoven
betmen
beton
better
betula
between
bey
beyin
beyləqan
beynalxalq
beyni
beynin
beyninin
beynəlmiləl
beynəlxalq
beyond
beyrut
beyrək
beyt
beyti
beytu
beyət
bf
bfə
bg
bh
bhan
bhl
bhu
bhə
bhəli
bhəsiz
bi
bianchi
bibcode
bibel
bibi
bibid
bibisi
bible
bibliographisches
biblioqrafik
biblioqrafiya
biblioqrafiyası
bibliothe
bibliya
bibər
bic
bicar
bico
bid
bidens
bieb
big
biganə
biggest
bihus
biki
bil
bilal
bilavasitə
bildi
bildilər
bildim
bildirc
bildirdi
bildirdilər
bildirdiyinə
bildirib
bildirildi
bildirilir
bildirilirdi
bildirilmis
bildirir
bildirirdi
bildirirlər
bildiris
bildirmis
bildirmək
bildirən
bildirərək
bildiyi
bildiyimiz
bildiyini
bilet
bilgi
bilgilər
bilgə
bilib
bilicisi
bilik
bilikli
biliklər
bilikləri
biliklərin
biliklərini
biliklərə
bilim
bilimler
bilin
bilinir
bilinmir
bilinməyən
bilinən
bilinər
bilir
bilirdi
bilirdilər
bilirdim
bilirik
bilirlər
bilirsiniz
bilirsən
bilirəm
biliyi
biliyin
biliyə
bill
billah
billboard
billi
billie
bilm
bilmir
bilmirdi
bilmirdilər
bilmirik
bilmirlər
bilmirsən
bilmirəm
bilmis
bilmə
bilmədi
bilmədikləri
bilmədilər
bilmədim
bilmədiyi
bilmədiyini
bilmədən
bilmək
bilməlidir
bilməm
bilməmis
bilməmək
bilməməsi
bilmərik
bilmərəm
bilməsi
bilməsə
bilməyib
bilməyəcək
bilməyəcəyi
bilməyəcəyini
bilməyən
bilməz
bilməzdi
bilməzlər
bilməzsiniz
bilməzsən
bilsin
bilsinlər
bilsə
bilsən
bilu
bilə
biləcək
biləcəri
biləcəyi
biləcəyini
biləcəyinə
bilən
biləndir
bilər
bilərdi
bilərdilər
bilərik
bilərlər
bilərmi
bilərsiniz
bilərsən
bilərək
bilərəkdən
bilərəm
biləsuvar
bin
bina
binada
binadan
binalar
binalardan
binaları
binaların
binalarının
binanı
binanın
binası
binasına
binasında
binasını
binasının
binaya
binaən
bingo
binti
binə
binəqədi
bio
biodiversity
biographical
biographie
biography
biokimya
biokimyəvi
biol
biological
biologiya
biologiyası
biology
bioloji
bioloq
biomu
bioqrafik
bioqrafiya
bioqrafiyası
biosfer
bip
bir
biraz
birbas
birc
bircə
bird
birdir
birds
birdəfəlik
birdən
birgə
biri
biridir
birillik
birilə
birimiz
birin
birinci
birincisi
birində
birindən
birini
birinin
birinə
birisi
birja
birlik
birlikdə
birliklər
birlikləri
birliklərin
birliklərinin
birliyi
birliyin
birliyində
birliyini
birliyinin
birliyinə
birliyə
birləri
birlərini
birlərinə
birləs
birma
birmənalı
birth
birthday
birtərəfli
biruzə
birə
bis
bismark
bit
bitcoin
bitdi
bitdikdən
bitir
bitirdi
bitirdikdən
bitirib
bitirir
bitirmis
bitirmək
bitirən
bitirəndən
bitirərək
bitis
bitki
bitkic
bitkidir
bitkilər
bitkilərdə
bitkilərdən
bitkiləri
bitkilərin
bitkilərinin
bitkilərinə
bitkilərlə
bitkilərə
bitkinin
bitkisi
bitkisidir
bitkisinin
bitlis
bitmis
bitter
bitən
bitər
bitərəf
biz
bizans
bizansın
bizdə
bizdən
bizi
bizim
bizimlə
biznes
biznesi
biznesin
biznesmen
bizə
bk
bl
black
blackwell
blade
blake
blast
blek
blis
blitz
block
blog
blogspot
blok
bloku
blokunun
blood
bloomberg
bloomsbury
blow
blu
blue
blues
blume
blyth
blər
bm
bmc
bmt
bmw
bmx
bn
bna
bnf
bni
bnu
bo
board
bob
bobbi
body
boeing
bog
bohemiya
bois
boiss
boissier
boko
boks
boksc
bol
bolivar
boliviya
bollug
bolluq
bolnisi
bolonya
bolq
bolqar
bolqarıstan
bolqarıstanda
bolqarıstanın
bols
bolu
bolus
bomb
bomba
bombardiri
bombardman
bombardmanc
bombası
bon
bonapart
bond
bonn
book
books
bor
borc
borclu
borcludur
borcu
borcunu
border
bordo
boris
born
borneo
bornm
borno
boru
borular
borusu
borusunun
bos
bosch
bosfor
bosniya
boss
bostan
bostanabad
bostanc
boston
bosworth
botanical
botanik
botanika
botaniki
botany
both
boundary
box
boxofficemojo
boy
boya
boyakarı
boyalı
boyanmıs
boyaq
boyaqotukimilər
boyda
boykot
boyları
boylu
boynu
boynuna
boynunda
boynunu
boys
boyu
boyun
boyuna
boyunbag
boyunca
boyunda
boyundan
boyunun
boz
bozdag
bozqır
bozumtul
bp
bq
br
bra
brahim
brahimbəyov
brahimi
brahimin
brahimli
brahimov
brahimova
brahimovic
brahimovun
brahimxəlil
brahimə
bran
brand
brasil
brassica
bratislava
braun
brayan
brazil
braziliya
braziliyada
braziliyalı
braziliyanın
braziliyaya
break
breaking
brekc
bremek
brend
brendi
bres
brest
breton
brian
brickellia
bridge
brief
bright
brill
brilliant
brilyant
briq
briqada
briqadası
briqadasının
bristol
brit
britain
britaniya
britaniyada
britaniyalı
britaniyanın
britaniyaya
britannica
british
britton
broadcast
broadcasting
broadway
brockhaus
brockhauz
bromeliyakimilər
bros
brothers
brown
bru
bruce
bruklin
bruno
bryan
bryophytes
brə
bs
bsu
bt
btidai
btr
bts
bu
buc
bucag
bucaq
bucaqlı
bud
buda
budag
budapes
budapest
budaq
budaqları
budaqlı
budaqov
budda
buddist
buddizm
budu
buduq
budur
buenos
bug
bugu
building
bul
bulag
bulaq
bulaqlar
bulaqları
bulaqların
bulas
bulbofilium
bulbofillium
bulbophyllum
buldu
bulgaria
bulgarian
bull
bulletin
bulqar
bulud
buludlar
bulvar
buna
bunca
bunda
bundan
bunge
bunko
bunlar
bunlara
bunlardan
bunlardır
bunlarla
bunları
bunların
bunu
bunun
bununla
bununlada
bur
bura
burada
buradakı
buradan
buranı
buranın
burax
buraxan
buraxaraq
buraxdı
buraxdıg
buraxmag
buraxmaq
buraxmıs
buraxıb
buraxılan
buraxıldı
buraxıldıg
buraxılması
buraxılmıs
buraxılıb
buraxılır
buraxılıs
buraxır
buraya
burda
burdan
bureau
burjua
burjuaziya
burk
burkina
burnu
burnundan
burqundiya
bursa
bursada
burton
burulg
burun
burundi
buruq
buryat
bus
business
but
buta
butan
butcher
butlar
butler
butu
buxar
buxara
buxarest
buxari
buxarlanma
buxarı
buxta
buxtası
buynuz
buynuzlu
buynuzu
buyur
buyurdu
buyurdug
buyurmus
buyurur
buz
buzdan
buzla
buzlag
buzlaq
buzlaqlar
buzlas
buzlu
buzovna
buzu
buzun
bxr
by
byzantine
byzantium
bı
bıc
bıg
bə
bəbir
bəd
bədbəxt
bədbəxtlik
bədii
bədr
bədə
bədəlbəyli
bədəlov
bədən
bədəndə
bədəndən
bədəni
bədənin
bədənində
bədənindən
bədənini
bədəninin
bədəninə
bədənləri
bədənə
bədəxs
bəg
bəhai
bəhanə
bəhlul
bəhmən
bəhmənli
bəhram
bəhreyn
bəhruz
bəhs
bəkir
bəkr
bəla
bəlag
bəlaya
bəlg
bəli
bəlkə
bəlli
bəllidir
bəlx
bələd
bələdc
bələdiyyə
bələdiyyələr
bələdiyyələrin
bələdiyyənin
bələdiyyəsi
bələdiyyəsinin
bələk
bələklər
bələr
bələri
bələrini
bələrinin
bən
bənd
bəndi
bəndin
bəndə
bəndər
bəni
bənim
bənin
bəno
bənu
bənzər
bənzəri
bənzərsiz
bənzəyir
bənzəyirdi
bənzəyən
bər
bərabər
bərabərdir
bərabərlik
bərabərliyi
bərabərləs
bəraət
bərbad
bərbər
bərdə
bərgu
bəri
bərk
bərkidilmis
bərpa
bərpası
bərpasına
bərqərar
bərə
bərəkət
bərəkətli
bəs
bəsdir
bəsi
bəsində
bəsindən
bəsini
bəsinin
bəsinə
bəsit
bəsiz
bəsləyən
bəsrə
bəsti
bəstəkar
bəstəkarlar
bəstəkarların
bəstəkarlarının
bəstəkarlıq
bəstəkarı
bəstəkarın
bəstələdiyi
bəstələmis
bəstələnmis
bət
bətini
bətlə
bəxs
bəxt
bəxti
bəxtiyar
bəxtlik
bəxtliyi
bəy
bəyan
bəyanat
bəyannamə
bəyannaməsi
bəyaz
bəyazid
bəyazidin
bəydən
bəyi
bəyim
bəyin
bəylik
bəyliyi
bəylə
bəylər
bəylərbəyi
bəyləri
bəylərin
bəyə
bəzi
bəziləri
bəzilərində
bəzilərini
bəzilərinin
bəzilərinə
bəzirxana
bəzisi
bəzədilib
bəzədilmis
bəzək
bəzəkli
bəzəkləri
bəzən
bəzənmis
bəzəyi
bəzəyir
bəzəyən
bəə
bəəs
c
ca
cabbar
cabbarlı
cabbarlının
cabbarov
cabir
cable
cabrera
cabədi
cadu
cadugər
cag
cah
cahan
cahanda
cahangir
cahangirov
cahans
cahid
cahil
calallı
calanthe
calceolaria
california
call
called
calliandra
callicarpa
calls
calophyllum
caloptilia
calyptranthes
cam
camaat
camaata
camaatı
camaatın
camaatının
camal
camalın
cambridge
came
cameron
cami
camp
campaign
campbell
camıs
can
cana
canada
canadian
canan
canarium
canavar
cancer
candan
cangu
cani
canis
canlandıran
canlandırdı
canlandırdıg
canlandırmaq
canlandırmıs
canlandırılmıs
canlandırır
canlarını
canlı
canlılar
canlıları
canlıların
cansız
canthium
canı
canım
canımı
canın
canına
canını
capcom
cape
capital
cappellari
capps
capsella
captain
caqayın
car
carabus
carbon
carc
cardamine
carduus
care
career
carex
cari
carl
carlos
carol
carolina
carpenter
carroll
carter
cartoon
case
cases
caspian
cass
cassini
cast
castilho
castilleja
castin
castle
casus
casusluq
cat
catalana
catalog
catalogue
categories
category
catherine
catholic
catocala
caucasian
caucasus
cav
cavab
cavabdeh
cavablar
cavabsız
cavabı
cavabında
cavabını
cavad
cavadov
cavan
cavanlar
cavans
cavid
cavidin
caz
cazibə
cazibədar
caət
caəti
caətə
cbc
cbs
cc
cd
cdc
cdot
cdən
ce
ceff
cefferson
cek
ceki
cekson
ceksonun
cell
cells
cem
cenevrə
cenevrədə
cennifer
census
centaurea
center
centers
centimeter
central
centre
centuries
century
ceo
ceremi
cerri
cersi
cessika
cetty
cev
cey
ceyhan
ceyhun
ceykob
ceyms
ceymsin
ceyn
ceyran
ceyrə
ceyrəli
ceyrələr
ceyrələri
ceyrələrin
ceyrələrində
ceyrələrinin
ceyrənin
ceyson
cf
cgi
ch
cha
challenge
chamber
champion
champions
championship
championships
chan
chang
change
changes
changing
channel
chant
chapter
character
characteres
characteristics
characters
charles
charlie
charlotte
chart
charts
chase
che
checklist
chelsea
chem
chemical
chemin
chemistry
chen
chenopodium
chess
chester
chicago
chief
chiffres
child
children
chile
china
chinensis
chinese
ching
chiov
choice
chris
christ
christian
christianity
christmas
christopher
chronicle
chronology
chrysanthemum
chthonius
church
ci
cia
cib
ciddi
cihad
cihaz
cihazlar
cihazları
cihazların
cihazı
cil
cilalanmıs
cild
cilddə
cilddən
cildi
cildində
cildlik
cildlər
cilt
cim
cimmi
cin
cinah
cinahında
cinayət
cinayəti
cinayətin
cinayətkar
cinayətlər
cinayətləri
cinayətlərin
cinayətlərə
cinayətə
cinema
cinlər
cinnamomum
cins
cinsdən
cinsi
cinsin
cinsindən
cinsinin
cinsinə
cinsiyyət
cinsli
cinsə
circle
cisim
cisimlər
cisimləri
cisimlərin
cismani
cismi
cismidir
cismin
citation
cite
cities
citizens
city
civarında
civil
civilization
civə
ciyər
cizgi
cizgiləri
cl
claims
clarendon
clark
clarke
clash
class
classic
classical
classics
classification
claude
cle
cleome
clerodendrum
climate
clinical
clinopodium
clio
close
cloud
clu
club
cluster
clusters
clə
cləndi
cləndirdi
cləndirilmis
cləndirilməsi
cləndirir
cləndirmək
clənir
clənmis
clənməsi
cləri
clərini
cm
cma
cmalar
cn
cnn
co
coan
coast
coca
code
codes
coefficients
coelogyne
cog
cognitas
cohen
cola
cold
cole
colin
collection
collections
college
collider
collins
color
columbia
com
coma
combat
combined
combretum
come
comedy
comes
comic
comics
coming
command
commelina
commentary
commerce
commiphora
commission
committee
common
commonwealth
communes
communication
communications
communis
communist
community
companion
company
comparative
comparison
competition
complete
complex
composition
compounds
comprehensive
computer
computing
comuni
con
conatan
concept
concert
conditions
conference
confirmed
confirms
conflict
congress
connect
conni
conquest
conrad
cons
conservation
conserved
conson
consortium
constitution
construction
contact
contemporary
content
contest
context
control
conun
convention
conyza
cook
cooper
cooperation
copa
copy
corab
corc
corciya
cordan
core
coreopsis
cornell
coronavirus
corporation
corwin
corydalis
cos
cosmic
cosmicflows
cost
costa
could
council
countries
country
county
course
court
courtois
covanni
cover
covid
cox
cozef
cr
cra
crac
craig
craiyyə
crash
crataegus
craven
crc
creation
creative
credits
creed
crepis
crh
crime
criminal
crisis
criteria
critical
critics
croatia
crook
cross
crown
cru
crunchyroll
cry
crystal
cs
csu
ct
ctimai
cu
cuatrec
cucumis
cud
cuda
cudi
cug
culfa
cult
cultural
culture
cultures
cum
cuma
cumc
cumda
cumdan
cumhuriyet
cumlar
cumlara
cumları
cumların
cumlarına
cumlarından
cumlarını
cumlarının
cumu
cumun
cumuna
cumundan
cumunu
cumunun
cup
current
curtis
cus
cut
cutri
cv
cw
cx
cy
cybernetics
cynanchum
cynometra
cyperus
cypripedium
cyprus
cz
czech
cı
cıg
cır
cırtdan
cə
cəbhə
cəbhədə
cəbhədən
cəbhənin
cəbhəsi
cəbhəsində
cəbhəsinin
cəbhəsinə
cəbhəyə
cəbr
cəbrail
cəbrayıl
cəbrayılov
cəbrayılın
cəbri
cəbəllu
cədid
cədvəl
cədvəldə
cədvəli
cədvəlində
cəfa
cəfər
cəfəri
cəfərli
cəfərov
cəfərova
cəfərovun
cəfərqulu
cəfərzadə
cəhalət
cəhd
cəhdi
cəhdlər
cəhdləri
cəhənnəm
cəhənnəmə
cəhət
cəhətdən
cəhəti
cəhətlər
cəhətləri
cəhətlərini
cək
cəklər
cəlal
cəlaləddin
cəlb
cəlbedici
cəld
cəlil
cəlilabad
cəlilov
cəllad
cəm
cəmaləddin
cəmi
cəmil
cəmilə
cəmiyyət
cəmiyyətdə
cəmiyyətdəki
cəmiyyətdən
cəmiyyəti
cəmiyyətin
cəmiyyətində
cəmiyyətini
cəmiyyətinin
cəmiyyətinə
cəmiyyətlər
cəmiyyətlərdə
cəmiyyətləri
cəmiyyətlərin
cəmiyyətlərinin
cəmiyyətə
cəmlənmis
cəmləs
cəms
cənab
cənazə
cənazəsi
cəng
cəngavər
cəngavərləri
cənnət
cənnətdə
cənnəti
cənnətin
cənnətə
cənub
cənuba
cənubda
cənubdakı
cənubdan
cənubi
cənubu
cənubuna
cənubunda
cənubundakı
cərgə
cərimə
cərrah
cərrahi
cərrahiyyə
cərrahı
cərrəd
cərəyan
cərəyanlar
cərəyanı
cərəyanın
cərəyanının
cəsarət
cəsarəti
cəsarətli
cəsarətlə
cəsur
cəsəd
cəsədi
cəsədini
cəsədləri
cəza
cəzalandırmaq
cəzalandırılır
cəzası
cəzasına
cəzasını
cəzirə
d
da
daban
dabi
dactylorhiza
dad
dada
dadas
dadda
dadi
dadlı
dadı
dadın
dadına
dafiə
dafiəc
dafiəsi
dafiəsində
dafiəsini
dafiəsinin
dafiəsinə
dafiəyə
dag
daha
dahi
dahlst
dai
daily
daim
daima
daimi
dair
dairə
dairələr
dairələri
dairələrində
dairələrinin
dairənin
dairəsi
dairəsində
dairəsindən
dairəsini
dairəsinin
dairəsinə
dairəvi
daki
dakı
dal
dala
dalamazkimilər
dalas
dalay
dalbadal
dalbergia
dalbergiya
dale
dalg
dali
dallas
dalı
dalına
dalınca
dalında
dam
dama
damar
damarlar
damarları
damarların
damcı
damda
dame
damg
damla
damı
damın
dan
dana
dance
daniel
danimarka
danimarkada
danimarkalı
danimarkanın
danis
danish
dans
dante
danın
danıs
dar
dara
daranın
daraq
darc
darg
dari
dark
darmadag
daru
darvaza
darvazası
darvin
darı
darə
darəc
darəetmə
darəsi
darəsində
darəsinin
darəsinə
das
dastan
dastanları
dastanı
dastanın
dastanında
dastanının
data
database
date
dates
datos
dava
davam
davamc
davamlı
davamlıdır
davamlılıg
davamı
davamıdır
davası
dave
david
davidin
davies
davis
davranıs
davud
davuda
davudun
dawn
daxil
daxildir
daxildə
daxildən
daxili
daxilində
daxilindəki
daxilinə
daxilə
daxiləsi
day
dayag
dayan
dayana
dayanacag
dayanacaq
dayanan
dayandı
dayandıg
dayandırdı
dayandırmag
dayandırmaq
dayandırmıs
dayandırıb
dayandırıldı
dayandırılması
dayandırılmıs
dayandırılır
dayandırır
dayanmadan
dayanmaq
dayanmıs
dayanıb
dayanıqlı
dayanır
dayanırdı
dayaq
dayaz
days
dayı
dayısı
dayə
db
dc
dcə
dcəsi
dcəsinin
dd
ddi
ddin
ddo
ddu
ddəaları
ddən
ddət
ddətcə
ddətdir
ddətdə
ddətdən
ddəti
ddətində
ddətini
ddətinin
ddətinə
ddətli
ddətə
de
dead
deadline
deadly
deal
dean
death
debu
debut
dec
december
decision
declaration
decline
dedi
dedikdə
dedikləri
dediklərini
dediklərinə
dedilər
dedim
dedin
dediyi
dediyin
dediyini
dediyinə
deep
default
defence
defense
definition
deformasiya
deg
dehistanı
dehli
dei
dek
dekabr
dekabrda
dekabrın
dekabrında
dekabrından
dekan
dekanı
dekart
dekor
dekorativ
del
delhi
dell
della
delphinium
delta
deltası
dem
demir
demis
demo
democracy
democratic
demokrat
demokratik
demokratiya
demokratiyanın
demokratlar
demoqrafik
demə
demək
deməkdir
deməli
deməyə
den
dendrobium
dendrochilum
dendroflorası
dendrologiya
dengeki
deni
denikin
denis
deniz
denmark
dennis
denti
deo
departament
departamenti
departamentin
departamentində
departamentinin
department
deportasiya
deportasiyası
deprecated
depressiya
depuis
deputat
deputatlar
deputatları
deputatlıg
deputatı
der
dergisi
des
desant
description
desert
design
desin
desə
desək
desəm
desən
det
detail
details
detallar
detalları
detektiv
detroit
deutsche
deutschen
deutschland
dev
development
devi
devid
devil
devirmək
devis
devlet
devon
dey
deyib
deyil
deyildi
deyildilər
deyildir
deyildiyi
deyilik
deyilir
deyilirdi
deyillər
deyilmi
deyilmis
deyilsə
deyilsən
deyiləm
deyilən
deyilənlərə
deyilənə
deyilər
deyim
deyin
deyir
deyirdi
deyirdilər
deyirlər
deyirsən
deyirəm
deyis
deyə
deyəcək
deyəcəklər
deyək
deyən
deyəndə
deyər
deyərdi
deyərlər
deyərək
deyəsən
df
dh
di
dia
diabet
dialekt
dialekti
dialektik
dialogue
dialoq
diametri
diana
diapazonu
diaqnostik
diaqnostika
diaqnostikası
diaqnoz
diaqnozu
diaries
diary
dias
diaspor
diaspora
diasporu
diasporunun
dib
dibi
dibində
dibindən
dibinə
dic
dictionary
dictionnaire
did
didaktik
didərgin
die
died
diego
diels
dieqo
dies
diferensial
different
differential
dig
digital
digər
digəri
digərinin
digərinə
digərləri
digərlərindən
digərlərinin
digərlərinə
dik
dikcə
dikdə
dikdən
dikkens
dikləri
diktator
dil
dilarə
dilbazi
dilbər
dilc
dildir
dildə
dildən
dili
dilidir
dilim
dilimizdə
dilin
dilində
dilindəki
dilindən
dilini
dilinin
dilinə
dilli
dillə
dilləndi
dillər
dillərdə
dillərdən
dilləri
dillərin
dillərində
dillərindəki
dillərindən
dillərini
dillərinin
dillərinə
dillərə
dilmis
dilqəm
dils
dilə
dilənc
dilər
dim
dimnə
din
dinamik
dinamikası
dinamo
dinar
dinc
dinclik
dindar
dində
dindən
dini
dinin
dinində
dinindən
dinini
dininin
dininə
dinlə
dinləmək
dinlər
dinləri
dinlərin
dinlərə
dinləyici
dinə
dio
diplom
diplomacy
diplomat
diplomatic
diplomatik
diplomatiya
diplomatı
diplomla
diplomu
diplomuna
diplomunu
diqq
diqqət
diqqəti
diqqətini
diqqətli
diqqətlə
diqqətə
diqqətəlayiq
dir
dirc
dirdi
dirdilər
dirdiyi
direct
director
directory
direktor
direktorlar
direktoru
direktorudur
direktorunun
diri
dirib
dirici
diridir
dirijor
dirijoru
dirildi
dirildiyi
dirilib
dirilik
dirilir
dirilirdi
dirilmis
dirilmə
dirilməmis
dirilməsi
dirilməsində
dirilməsindən
dirilməsini
dirilməsinin
dirilməsinə
dirilə
dirilən
dirilərək
dirin
dirinin
dirir
dirirdi
dirirlər
dirlər
dirmis
dirmə
dirmək
dirməklə
dirməsi
dirməyi
dirməyə
dirsə
dirə
dirəcək
dirək
dirən
dirərək
dis
discogs
discovery
disease
disk
diski
diskin
disney
displaystyle
dissertasiya
dissertasiyası
dissertasiyasını
dissertasiyasının
distance
distant
distribution
district
ditions
div
divan
divani
divanı
divanə
divar
divara
divarda
divardan
divarlar
divarları
divarların
divarlarına
divarlarında
divarlarını
divarlarının
divarı
divarın
divarına
divarında
divarının
diversity
division
divisions
divizionu
diviziya
diviziyanın
diviziyası
diviziyasının
diyanet
diyar
diyarbəkir
diyarbəkirdə
diyarbəkirin
diyars
diyarı
diyarın
diyarına
diyarında
diyarının
diyi
diyindən
diyini
diyinə
diz
dizaq
dizayn
dizayner
dizayneri
dizaynı
dizel
dizi
dizə
dj
dk
dl
dlu
dlə
dlər
dləri
dləyən
dləyənkimilər
dm
dman
dmanı
dmitri
dna
dnepr
dnt
do
doc
docs
doctor
document
documentary
documents
dodag
dodaq
dodaqları
dodson
does
dog
doi
doktor
doktora
doktorantura
doktorluq
doktoru
doktorudur
dokumentum
dolan
dolanır
dolanıs
dolas
dolayı
dolayısı
dolc
doldu
doldurmaq
doldurub
doldurulmus
dolg
dollar
dollara
dollardan
dollarlıq
dolları
dollarına
dolması
dolmus
dolphin
dolu
doludur
dom
domain
domen
domestic
domin
dominant
dominik
dominikan
don
donald
donanma
donanmanın
donanması
donanmasına
donanmasını
donanmasının
dondurma
donetsk
dong
donmus
donna
donu
donur
donuz
doqquz
doqquzuncu
dor
dorcadion
doris
dorstenia
dorsteniya
dortmund
dos
dosent
dosenti
dost
dosta
dostlar
dostları
dostların
dostlarına
dostlarından
dostlarını
dostlarının
dostlas
dostlug
dostluq
dostoyevski
dostu
dostum
dostun
dostunun
double
douglas
dov
dovik
dovikin
dovs
down
download
doxsan
doymamıs
doymus
doyunca
dp
dqmv
dr
dragon
drakula
dram
drama
dramatik
dramaturq
dramaturqu
dramı
dream
dreams
drenaj
drezden
driel
drik
driklik
dris
drosera
dryopteris
drət
drəti
drətini
drətli
ds
dsi
dss
dsu
dt
dtk
du
dua
dualar
duası
dubay
dublin
dublyaj
dubois
dudları
dudlarında
dudlarından
dudleya
due
duet
dueti
dug
duke
dul
dular
dulusc
dum
duma
duman
dumanlı
duması
dumasının
dumps
dunay
dunlop
dunya
duqda
duqlas
dur
dura
duran
durdu
durdug
durg
during
durlar
durma
durmadan
durmag
durmaq
durmus
durna
durnalar
dursun
duru
durub
durum
durumu
durur
dururdu
durus
dus
dust
dustaq
dutch
duty
duydug
duyg
duz
duzlar
duzları
duzlu
duzu
dvd
dviq
dvr
dwarf
dx
dynamics
dynasty
dyu
dı
dıg
dılar
dım
dın
dıog
dıq
dıqca
dıqda
dıqdan
dıqları
dır
dıra
dıran
dıraraq
dırdı
dırdıg
dırdılar
dırlar
dırma
dırmac
dırmada
dırmag
dırmalar
dırmalara
dırmaları
dırmaların
dırmanın
dırmaq
dırmaqla
dırmas
dırması
dırmasına
dırmaya
dırmıs
dırnag
dırnaq
dırsa
dırıb
dırıcı
dırıla
dırılan
dırılaraq
dırıldı
dırıldıg
dırılmamıs
dırılması
dırılmasına
dırılmasında
dırılmasından
dırılmasını
dırılmasının
dırılmıs
dırılıb
dırılır
dırılırdı
dırın
dırır
dırırdı
dırırlar
dıs
də
dəb
dəbdəbəli
dəbilqə
dəclə
dədə
dəf
dəfn
dəfnə
dəftər
dəftəri
dəfə
dəfədən
dəfələrlə
dəfəyə
dəhliz
dəhlizi
dəhs
dək
dəki
dəlalət
dəli
dəlik
dəlil
dəlillər
dəlilər
dəliyi
dəm
dəmdə
dəmir
dəmirc
dəmirdən
dəmirin
dəmirov
dəmiryol
dəmiryolu
dəmə
dəmək
dəməli
dəməs
dəməyə
dən
dəni
dənilir
dənilməsi
dənis
dəniz
dənizc
dənizdə
dənizdən
dənizi
dənizin
dənizində
dənizindəki
dənizindən
dənizini
dənizinin
dənizinə
dənizkənarı
dənizlə
dənizlər
dənizlərdə
dənizlərin
dənizə
dənli
dənə
dənəvər
dəq
dəqiq
dəqiqlik
dəqiqliklə
dəqiqliyi
dəqiqləs
dəqiqə
dəqiqədə
dəqiqədən
dəqiqəlik
dəqiqəsində
dər
dərbənd
dərbənddə
dərbəndi
dərbəndin
dərbəndə
dərc
dərd
dərdi
dərdim
dərdimi
dərdin
dərdini
dərdinə
dərdli
dərdu
dərdə
dərgi
dərgisi
dərgisinin
dərhal
dəri
dəridə
dəridən
dərili
dərin
dərindən
dərinin
dərinlik
dərinlikdə
dərinliyi
dərinliyində
dərinliyinə
dərinliyə
dərinləs
dərisi
dərisindən
dərisini
dəriyə
dərk
dərman
dərmandır
dərmanlar
dərmanı
dərnəyi
dərnəyinin
dərris
dərs
dərsi
dərslik
dərsliklər
dərsliyi
dərsliyin
dərslər
dərsləri
dərslərində
dərslərini
dərvis
dərya
dərzi
dərə
dərəcə
dərəcədə
dərəcədən
dərəcəli
dərəcələri
dərəcəsi
dərəcəsində
dərəcəsindən
dərəcəsini
dərəcəsinin
dərəcəsinə
dərəcəyə
dərədə
dərələr
dərələri
dərələyəz
dərənin
dərəsi
dərəsində
dərəsinin
dəs
dəst
dəsti
dəstə
dəstək
dəstəkc
dəstəklədi
dəstəklədiyi
dəstəkləmis
dəstəkləmək
dəstəklənir
dəstəklənməsi
dəstəklənən
dəstəkləyir
dəstəkləyirdi
dəstəkləyən
dəstələr
dəstələri
dəstələrinin
dəstələrinə
dəstənin
dəstəsi
dəstəsində
dəstəsini
dəstəsinin
dəstəsinə
dəstəyi
dəstəyini
dəstəyə
dəvə
dəvəc
dəvət
dəvəti
dəxi
dəydi
dəyib
dəyir
dəyirman
dəyirmanı
dəyirmi
dəyis
dəymis
dəyməz
dəyə
dəyən
dəyər
dəyəri
dəyərində
dəyərini
dəyərinin
dəyərinə
dəyərli
dəyərlər
dəyərləri
dəyərlərin
dəyərlərini
dəyərlərə
dəzgah
e
ea
early
earth
east
eastern
eberly
ebert
ebinger
ebu
ec
ecazkar
echinops
echo
eclipse
ecology
economic
economics
economist
economy
ed
edam
eddi
edebiyat
eden
edge
edi
edib
edibdir
ediblər
edici
edildi
edildikdə
edildikdən
edildilər
edildiyi
edildiyindən
edildiyini
edildiyinə
edilib
edilir
edilirdi
edilirdilər
edilirlər
edilmir
edilmis
edilmə
edilmədi
edilmədən
edilmək
edilməkdədir
edilməklə
edilməli
edilməlidir
edilməmis
edilməməsi
edilməsi
edilməsidir
edilməsində
edilməsindən
edilməsini
edilməsinin
edilməsinə
edilməyib
edilməyə
edilməyən
edilsin
edilsə
edilə
ediləcək
ediləcəyi
ediləcəyini
edilən
edilənlər
edilənlərin
edilər
edilərkən
edilərək
edim
edin
edinburgh
edinburq
edir
edirdi
edirdilər
edirdim
edirik
edirlər
edirmis
edirsiniz
edirsə
edirsən
edirəm
edit
edited
editintro
edition
editions
editor
editors
edmund
edo
edp
edqar
eds
edu
eduard
eduardo
education
educational
edvard
edvin
edward
edwards
edwin
edə
edəcək
edəcəkdi
edəcəkdir
edəcəklər
edəcəyi
edəcəyik
edəcəyini
edəcəyinə
edəcəyəm
edək
edən
edəndir
edəndə
edəndən
edəni
edənin
edənlər
edənlərdən
edənləri
edənlərin
edənlərə
edənə
edər
edərdi
edərdilər
edərik
edərkən
edərlər
edərsə
edərsən
edərək
edərəm
edəsən
ee
ef
efendi
effect
effects
effekt
effekti
effektiv
effektli
effektlər
effektləri
efiopiya
efir
efirdə
efirə
eg
egey
eggli
egypt
egyptian
eh
ehara
ehc
ehess
ehir
ehsan
ehtimal
ehtimala
ehtimalla
ehtimalı
ehtimalını
ehtiram
ehtiramla
ehtiras
ehtiraslı
ehtiva
ehtiyac
ehtiyacları
ehtiyaclarını
ehtiyacı
ehtiyacını
ehtiyat
ehtiyata
ehtiyatda
ehtiyatla
ehtiyatlar
ehtiyatları
ehtiyatların
ehtiyatlarına
ehtiyatlarının
ehtiyatlı
ehtiyatı
ehtiyatının
ei
eilish
ein
eine
eir
eiri
eirin
eirində
eirini
eirinin
eirlər
eirləri
eirlərin
eirlərində
eirlərindən
eirlərini
eirlərinin
eirlərinə
ek
ekim
ekipaj
eko
ekologiya
ekologiyanın
ekologiyası
ekoloji
ekran
ekrana
ekranda
ekranlara
ekranlas
eks
eksklu
ekspedisiya
ekspedisiyanın
ekspedisiyası
ekspedisiyasının
eksperiment
eksperimental
ekspert
eksperti
ekspertlər
ekspir
ekspirin
eksponat
eksponatlar
ekspozisiya
ekspress
ekstremal
ekvador
ekvatorial
ekvivalent
ekzotik
el
elam
elan
elastik
elazıg
elbrus
elc
eldar
eldən
eldəniz
elebi
election
elections
electric
electronic
elegans
elektrik
elektrikləs
elektromaqnit
elektron
elektronik
elektronika
elektronların
elektrotexnika
element
elementar
elementi
elementin
elementlər
elementlərdən
elementləri
elementlərin
elementlərindən
elementlərini
elementlərinin
elements
elena
eleocharis
eleventh
elf
elgu
eli
elias
elin
elindən
elinin
elinə
elis
elit
elizabet
elizabeth
ell
ellen
elli
ellipsvari
ellis
ellər
elm
elman
elmar
elmdir
elmdə
elmdən
elmi
elmin
elmində
elmini
elminin
elminə
elmir
elmira
elmlə
elmlər
elmləri
elmlərin
elmlərinin
elmlərə
elmə
elməddin
elnarə
elnur
elon
els
elsevier
elsevər
elsi
elton
elvin
elvis
elxan
elxani
elxanilər
elyabinsk
elə
eləcə
eləcədə
elədi
elədilər
elədir
elədiyi
elədə
eləmis
eləmə
eləmək
eləməyə
elər
eləsin
eləyib
eləyir
em
emal
emalı
emanuel
embassy
emblemi
emi
emil
emili
emilia
emin
emissiya
emma
emmanuel
emosional
emperor
empion
empionat
empionatda
empionatlarında
empionatlarının
empionatı
empionatın
empionatına
empionatında
empionatını
empionatının
empionlar
empionlug
empionluq
empionu
empire
empires
empirik
emploi
emporis
empty
emsellem
en
enciclope
enciklopedija
encyclopaedia
encyclopedia
encyclopædia
end
endemik
endi
ending
endirdi
endirildi
endirir
endirmək
endru
endryu
enemy
eneolit
energetik
energetika
energy
enerji
enerjili
enerjini
enerjinin
enerjisi
enerjisini
enerjisinin
enerjisinə
enerjiyə
eng
engels
engineering
engl
england
english
eni
enib
enin
enində
eninə
enir
enis
enistan
enistanın
enix
enko
enkonun
enli
enlik
enliyarpaqlı
enlər
enmis
enmə
enn
ensiklopedik
ensiklopediya
ensiklopediyası
ensiklopediyasında
ensiklopediyasının
ensiz
enstitu
enter
entertainment
entoni
entry
environment
environmental
enə
enən
eo
eorumque
ep
epic
epidemiya
epidendrum
epik
epiku
epilobium
epipactis
episode
epizod
epizodik
epling
equation
equations
er
era
eradan
eramızdan
eramızın
eranın
erazi
eren
eri
eria
eric
erica
eridan
erif
erigeron
erik
erin
eris
erix
erk
erklər
erkək
erkəklər
erkən
erlər
erləri
erm
ermisch
erməni
ermənicə
ermənilər
ermənilərdən
erməniləri
ermənilərin
ermənilərlə
ermənilərə
ermənistan
ermənistana
ermənistanda
ermənistandan
ermənistanla
ermənistanı
ermənistanın
ermənistanının
ernest
ernobıl
ernst
eron
eronda
eronun
erotik
eroziya
ertəsi
erythroxylum
es
eschmeyer
eser
esi
eski
esko
eslav
eso
espan
esperanto
espn
essays
esse
est
estadi
ester
estetik
estimates
eston
estoniya
estoniyada
estoniyanın
estrada
et
etc
etdi
etdik
etdikcə
etdikdə
etdikdən
etdikləri
etdiklərini
etdiklərinə
etdilər
etdim
etdin
etdirdi
etdirdilər
etdirdiyi
etdirdiyinə
etdirib
etdirildi
etdirilib
etdirilir
etdirilmis
etdirilməsi
etdirilməsinə
etdirilən
etdirir
etdirirdi
etdirirlər
etdirmis
etdirmək
etdirməklə
etdirməsi
etdirməyi
etdirməyə
etdirə
etdirən
etdirərək
etdiyi
etdiyim
etdiyimiz
etdiyin
etdiyindən
etdiyini
etdiyiniz
etdiyinə
ethnic
ethno
ethnologue
eti
etibar
etibarilə
etibarlı
etibarlılıg
etibarsız
etibarı
etibarən
etik
etika
etiketi
etil
etimad
etimalogiya
etimologiya
etiqad
etiraf
etiraz
etirazc
etirazlar
etirazları
etirazını
etiya
etland
etm
etmir
etmirdi
etmirdilər
etmirlər
etmirəm
etmis
etmə
etmədi
etmədilər
etmədiyi
etmədiyini
etmədən
etmək
etməkdir
etməkdə
etməkdədir
etməkdən
etməklə
etməli
etməlidir
etməlidirlər
etməliyik
etmələri
etmələrini
etmələrinə
etməmis
etməmək
etməməsi
etmənin
etməsi
etməsidir
etməsin
etməsində
etməsindən
etməsini
etməsinin
etməsinə
etməsə
etməyi
etməyib
etməyin
etməyə
etməyəcək
etməyən
etməz
etməzdən
etnik
etnonimi
etnoqraf
etnoqrafik
etnoqrafiya
etnoqrafiyası
etnos
etnotoponimdir
etsin
etsinlər
etsə
etsək
etsələr
etsən
etsəniz
etu
etyen
eu
eucalyptus
eugene
eugenia
eulophia
euonymus
eupatorium
euphorbia
euphrasia
eurasia
eurasian
eurasianet
euro
europa
europe
european
eurovision
euseius
ev
eva
evakuasiya
evaluation
evan
evans
evc
evdar
evdə
evdən
even
evening
event
events
ever
everest
every
everything
evgeniya
evi
evic
evidence
evik
eviklər
eviklərin
eviklərə
evil
evin
evində
evindən
evini
evinin
evinə
evir
evirdi
evirib
evirir
evirmis
evirmək
evirən
evirərək
evkalipt
evli
evlidir
evlilik
evlilikdən
evliliyi
evliliyindən
evləndi
evlənib
evlənir
evlənmis
evlənmək
evlənməsi
evlənən
evlər
evlərdə
evləri
evlərin
evlərində
evlərini
evlərinin
evlərinə
evlərə
evolution
evrildi
evrildiyi
evrilib
evrilir
evrilirlər
evrilis
evrilmis
evrilmə
evrilməsi
evrilməsinə
evrilə
evriləcək
evrilən
evrilərək
evrə
evrənin
evski
evə
ex
excel
exchange
exclusive
executive
exhibentes
exhibition
exit
exiya
exiyada
exiyanın
exmeya
exoslovakiya
exov
expedition
experience
experimental
exploration
explorer
express
extended
extra
ey
eyb
eybani
eybi
eybəcər
eyda
eydir
eydə
eydən
eye
eyes
eyi
eyib
eyin
eyl
eylu
eylə
eylədi
eylədim
eyləmis
eyləmə
eylər
eylərdən
eyləri
eylərin
eylərə
eylərəm
eyləyib
eyn
eyni
eyniadlı
eynidir
eynilə
eyniləs
eyns
eypur
eyr
eys
eytan
eytana
eytanın
eyvan
eyvaz
eyvazov
eyx
eyxi
eyxin
eyxu
eyxəli
eyyub
eyə
ez
ezam
f
fa
fabrik
fabriki
fabrikində
fac
face
facebook
faciə
faciəli
faciəsi
faciəvi
fact
factbook
factor
factory
facts
fadə
fahis
faiq
fair
fairall
faith
faiz
faizi
faizini
faizə
fakt
faktiki
faktlar
faktları
faktların
fakto
faktor
faktorlar
faktoru
faktı
faku
fakultəsi
fakultəsində
fakultəsini
fakultəsinin
fakultəsinə
falc
falco
fall
fallout
false
fame
famil
families
family
famous
fan
fani
fans
fantastik
fantastika
fantasy
fantaziya
far
farer
fariz
fars
farsca
farsdilli
farslar
farsların
faruk
fas
fasad
fasadı
fasadın
fasadında
fashion
fasilə
fasilədən
fasilələrlə
fasiləsiz
faso
fast
fat
fatda
fate
fateh
father
fatih
fatimə
fatları
fatlarının
fatma
fatı
fatın
fatına
fatında
fatının
fauna
faunası
fay
fayda
faydalı
faydalıdır
faydası
faydasız
fayl
faylın
faza
fazası
fazil
fbref
fc
fd
fe
feat
feature
features
feb
february
federal
federasiya
federasiyanın
federasiyası
federasiyasında
federasiyasının
federation
federativ
feel
feil
feldmars
felds
feli
feliks
female
fembio
feminist
fenomen
fenomeni
fentezi
feodal
feodallar
feodalların
fer
ferdinand
ferdinandın
ferma
fermentlər
fermentlərin
fermer
fernald
fernando
ferrari
festival
festivalda
festivallarda
festivalı
festivalın
festivalında
festivalının
fevral
fevralda
fevralın
fevralında
fevralından
ff
fi
fiber
fiction
ficus
fidan
fide
field
fields
fifa
fifty
fight
fighter
fighting
figuram
figures
fikir
fikirdə
fikirli
fikirlər
fikirləri
fikirlərin
fikirlərini
fikirlərinin
fikirlərinə
fikirlərə
fikirləs
fikr
fikri
fikrin
fikrincə
fikrində
fikrindən
fikrini
fikrinin
fikrinə
fikrə
fikrət
fil
filadelfiya
filan
filarmoniyasının
file
files
fili
filial
filialı
filialında
filialının
filip
filipp
filippin
filis
filiz
filizi
film
filmalkotasok
filmdir
filmdə
filmdəki
filmdən
filmek
filmi
filmidir
filmin
filmində
filmindəki
filmindən
filmini
filminin
filminə
filmlər
filmlərdə
filmlərdən
filmləri
filmlərin
filmlərində
filmlərindən
filmlərinin
filmlərinə
filmlərə
filmportal
films
filmə
filologiya
filologiyası
filoloq
filosof
filosoflar
filosofların
filosofu
fin
fina
final
finala
finalc
finalda
finalı
finalına
finalında
finance
financial
fincan
fincə
find
fine
finland
finlandiya
finlandiyada
finlandiyanın
fiq
fiqh
fiqur
fiqurlar
fiqurları
fiqurların
fiqurlu
fiquru
fir
firdovsi
fire
firidun
firma
firmalar
firmaların
firmanın
firması
firmasının
firon
fironun
firqəsi
first
firudin
firuz
firuzə
firəngiz
fis
fisch
fischer
fish
fisher
fishes
fit
fitnə
fitoterapiya
fitri
five
fiyyat
fiyyatc
fiyyatı
fizik
fizika
fizikanın
fizikası
fiziki
fiziologiya
fizioloji
fk
fl
fla
flag
flamand
flash
fleming
fles
fleyta
flight
flis
flo
floor
flora
florası
florasının
florensiya
florensiyada
florida
flower
flowering
flu
flər
fm
fo
focus
foks
folk
folklor
folklors
folkloru
folklorunun
following
fon
fond
fonda
fondu
fondun
fonduna
fondunda
fondunun
fonetik
fonunda
food
football
for
forbes
force
forces
ford
foreign
forest
forestie
forever
forgotten
form
forma
formada
formadadır
formal
formalar
formalarda
formaları
formaların
formalarına
formalarında
formalarından
formalarını
formalarının
formalas
formalı
formasiyaları
forması
formasıdır
formasına
formasında
formasındadır
formasından
formasını
formasının
format
formatda
formation
formatı
formatında
formaya
former
formula
formulu
fort
fortepiano
fortune
forum
forumu
forumunun
forveille
fosfat
fosfor
foster
foto
fotolar
fotoqraf
fotoqrafiya
fotoqrafı
fotos
found
foundation
fouque
four
fourth
fox
fr
fra
frac
fragaria
frakiya
fraksiya
fraksiyası
fraksiyasının
framework
franc
france
franch
francis
francisco
franco
frank
frankfurt
franklin
franko
frans
fransa
fransada
fransadakı
fransadan
fransalı
fransanı
fransanın
fransaya
fransisko
fransua
fransız
fransızca
fransızlar
fransızların
franz
fred
freddi
frederick
frederik
free
freebase
freedom
french
frenk
frensis
freyd
friday
fridrix
friedrich
friends
fritz
from
front
frontier
fru
fructificationis
frunze
frə
frəyə
ft
fti
ftə
fu
fuad
fuko
full
fullurl
function
functions
fund
fundamental
fungi
funksional
funksiya
funksiyalar
funksiyaları
funksiyaların
funksiyalarını
funksiyalarının
funksiyanın
funksiyası
funksiyasını
funksiyasının
funt
fus
fut
futbol
futbola
futbolc
futbolu
futbolunun
future
futzal
fuz
fuza
fuzlu
fuzu
fuzuna
fuzunu
fuzunun
fuzzy
fyodor
fındıq
fırc
fırlanan
fırlanma
fırlanır
fırtına
fırıldaqc
fıstıq
fə
fəal
fəaliyyət
fəaliyyətdə
fəaliyyəti
fəaliyyətin
fəaliyyətində
fəaliyyətindən
fəaliyyətini
fəaliyyətinin
fəaliyyətinə
fəaliyyətlə
fəaliyyətlər
fəaliyyətləri
fəaliyyətlərini
fəaliyyətlərinə
fəaliyyətsiz
fəaliyyətsizdir
fəaliyyətə
fəallas
fəallıg
fəallıq
fəalı
fəda
fədakar
fədakarlıg
fədakarlıq
fəg
fəhlə
fəhlələr
fəhlələri
fəhlələrin
fəhləsi
fəlakət
fəlakətlər
fəlsəfi
fəlsəfə
fəlsəfədə
fəlsəfəni
fəlsəfənin
fəlsəfəsi
fəlsəfəsində
fəlsəfəsini
fəlsəfəsinin
fəlsəfəsinə
fəlsəfəyə
fələk
fələstin
fələstində
fələstinin
fələstinli
fələstinə
fələyin
fən
fəna
fənd
fəng
fəngi
fənlər
fənn
fənni
fənərbaxc
fəqih
fəqir
fəqət
fərat
fərd
fərdi
fərdin
fərdlər
fərdləri
fərdlərin
fərhad
fərhadın
fəribu
fərid
fəridə
fərman
fərmanla
fərmanlar
fərmanları
fərmanı
fərmanına
fərq
fərqanə
fərqi
fərqinə
fərqli
fərqlidir
fərqləndirici
fərqləndirmək
fərqləndirən
fərqləndiyinə
fərqlənir
fərqlənirdi
fərqlənirlər
fərqlənmis
fərqlənmə
fərqlənməyə
fərqlənən
fərqlər
fərqləri
fərrux
fəryad
fəryadı
fərz
fərziyyə
fərziyyələr
fərzəliyev
fərəc
fərəcov
fərəh
fəsad
fəsil
fəsildə
fəsillər
fəsilə
fəsiləsi
fəsiləsindən
fəsiləsinin
fəsiləsinə
fəsli
fəslində
fəssəl
fət
fəth
fəthi
fəthindən
fəttis
fətulla
fətullayev
fətəli
fətəliyev
fəvvarə
fəxr
fəxri
fəxrəddin
fəza
fəzada
fəzilət
fəzl
fəzlullah
g
ga
gabriel
gag
gagea
gagnep
gah
gaia
gains
gal
galactic
galaxies
galaxy
gale
gales
galex
galium
gallery
gamble
game
games
gamespot
gandhi
ganja
gaon
garcinia
garden
gardenia
gardner
gary
gas
gasimov
gate
gaultheria
gavalı
gay
gazetesi
gazette
gazetteer
gb
gd
ge
gebhardt
gec
gecikmis
gecə
gecədə
gecədən
gecələr
gecələri
gecəni
gecənin
gecəsi
gecəsində
ged
gedib
gedim
gedin
gedir
gedirdi
gedirdilər
gedirlər
gedirsən
gedirəm
gedis
gedə
gedəcək
gedək
gedən
gedəndə
gedəndən
gedər
gedərkən
gedərək
gel
geller
gen
genc
gender
gene
genealogy
geneastar
genel
genera
general
generalları
generalı
generation
genetic
genetik
genetika
genis
gennadi
gennaio
genocide
genus
genuya
genə
geo
geodeziya
geoffrey
geofizika
geographic
geographical
geography
geological
geologiya
geologiyası
geology
geoloji
geoloq
geomorfoloji
geonames
geonet
georg
george
georges
georgi
georgia
georgian
georq
geosiyasi
ger
gerb
gerbi
gerc
gerhard
geri
geridə
geriyə
german
germany
germi
geschichte
gesellschaft
get
getdi
getdikcə
getdikdən
getdilər
getdim
getdiyi
getdiyini
getm
getmir
getmis
getmə
getmək
getməli
getməmis
getməsi
getməsini
getməsinə
getməyi
getməyə
getməz
gets
getsin
getsə
gey
geyib
geyim
geyimi
geyimli
geyimlər
geyimləri
geyinib
geyinir
geyinmis
geymis
ghost
gi
giant
gibi
gibson
gid
gidliyə
gigiyena
gil
gilan
gilbert
gildən
gilli
giləmeyvə
gimnast
gimnastika
gimnaziya
gimnaziyada
gimnaziyası
gimnaziyasında
gimnaziyasının
ginnesin
giovanelli
giovanni
gips
gir
girdi
girdilər
girdiyi
girdə
girib
girir
giris
girl
girls
girmis
girmək
girməsi
girməyə
girov
girə
girən
girəndə
girərək
gitara
gitarac
gitarist
given
gizir
giziri
gizli
gizlicə
gizlin
gizlincə
gizlənir
gizlənmis
gizlənən
gizlətmək
gks
gl
glasgow
global
globe
globular
glochidion
gmbh
gnd
go
goal
goals
god
gods
goes
gogh
gold
golden
good
google
goranboy
gordon
gorus
got
gouv
gov
govaerts
government
gps
gr
gracilis
graham
gran
grand
grande
grandiflora
grant
grave
gray
great
greatest
greece
greek
green
greene
greenm
greenwich
greenwood
greg
gregory
greuter
grevillea
grey
griseb
group
groups
grove
growth
grup
grupo
gsater
gsds
gu
guardian
guardians
guarea
guide
guioa
gulf
guliyev
gun
gupta
gur
gus
guy
guya
gə
gəc
gədəbəy
gədər
gəl
gəldi
gəldik
gəldikdə
gəldikdən
gəldikləri
gəldilər
gəldim
gəldin
gəldiyi
gəldiyini
gəlib
gəliblər
gəlin
gəlincə
gəlini
gəlinin
gəlinir
gəlinmir
gəlinmis
gəlinən
gəlir
gəlirdi
gəlirdilər
gəliri
gəlirik
gəlirin
gəlirli
gəlirlər
gəlirləri
gəlirlərin
gəlirlərinin
gəlirəm
gəlis
gəlmir
gəlmirdi
gəlmis
gəlmə
gəlmədi
gəlmək
gəlməmis
gəlməsi
gəlməsində
gəlməsindən
gəlməsini
gəlməsinin
gəlməsinə
gəlməyə
gəlməyən
gəlməz
gəlsin
gəlsə
gəlu
gələ
gələcək
gələcəkdə
gələcəyi
gələcəyin
gələcəyini
gələcəyə
gələn
gələndə
gələndən
gələni
gələnlər
gələnlərin
gələnə
gələr
gələrkən
gələrsə
gələrək
gəmi
gəmic
gəmidə
gəmidən
gəmilər
gəmiləri
gəmilərin
gəmilərini
gəmilərinin
gəmilərinə
gəmilərə
gəmini
gəminin
gəmiqaya
gəmiqayırma
gəmiricilər
gəmisi
gəmisində
gəmisini
gəmisinin
gəmisinə
gəmiyə
gənc
gənci
gəncin
gənclik
gəncliyi
gəncliyində
gənclər
gənclərdən
gəncləri
gənclərin
gənclərinin
gənclərə
gəncə
gəncədə
gəncədən
gəncəli
gəncənin
gəncəvi
gəncəvinin
gəncəyə
gənə
gər
gəray
gərc
gərgin
gərginlik
gərginliyi
gərginliyin
gərginləs
gərmi
gərək
gərəkdir
gərəkli
gətir
gətirdi
gətirdikləri
gətirdilər
gətirdiyi
gətirib
gətirildi
gətirilib
gətirilir
gətirilirdi
gətirilmis
gətirilməsi
gətirilən
gətirilərək
gətirin
gətirir
gətirirdi
gətirirlər
gətirmir
gətirmis
gətirmə
gətirmək
gətirməsi
gətirməyə
gətirsin
gətirə
gətirəcək
gətirən
gətirənlər
gətirər
gətirərək
gətu
gəvən
gəz
gəzib
gəzinti
gəzir
gəzmis
gəzmək
gəzməyə
gəzə
gəzən
gəzər
gəzərək
h
ha
haaqa
habelə
haber
habil
habsburq
hac
hacir
hacirlər
hacirət
hacirətdə
hacı
hacıbaba
hacıbəyli
hacıbəylinin
hacıbəyov
hacıbəyovun
hacılar
hacılı
hacınski
hacıqabul
hacıyev
hacıyeva
hacıyevin
hacızadə
had
hadi
hadid
hadis
hadisə
hadisədir
hadisədən
hadisələr
hadisələrdə
hadisələrdən
hadisələri
hadisələrin
hadisələrindən
hadisələrini
hadisələrinin
hadisələrinə
hadisələrlə
hadisələrə
hadisəni
hadisənin
hadisəsi
hadisəsinin
hadisəyə
hadrut
hafiz
hafizə
hafizəc
hafizəkar
hafizəkarlar
hafizəsi
hafizəsinin
hafizəsinə
haglund
haiti
hakan
hakim
hakimdir
hakimi
hakimin
hakiminin
hakimiyyət
hakimiyyətdə
hakimiyyətdən
hakimiyyəti
hakimiyyətin
hakimiyyətində
hakimiyyətindən
hakimiyyətini
hakimiyyətinin
hakimiyyətinə
hakimiyyətə
hakimlik
hakimlər
hakimləri
hakimlərin
hakimlərinin
hakimə
hakkari
hakkı
hakkında
hal
hala
halal
halbuki
halda
haldır
half
hali
halil
halk
hall
hallanması
hallar
hallarda
halları
halların
hallarının
hallet
halqa
halı
halım
halın
halına
halında
halındadır
halını
ham
hamam
hamamı
hamamın
haman
hamar
hamardır
hamburg
hamburq
hamid
hamilton
hamilə
hamiləlik
hamisi
hamlet
hammer
hamı
hamıdan
hamımız
hamını
hamının
hamısı
hamısına
hamısında
hamısından
hamısını
hamısının
hamıya
han
hand
handbook
hanna
hannover
hans
hansı
hansının
hansısa
hanı
happened
happy
haq
haqda
haqdan
haqları
haqlarının
haqlı
haqq
haqqa
haqqda
haqqinda
haqqı
haqqın
haqqında
haqqındadır
haqqındakı
haqqını
haqqının
haqsız
haqsızlıg
haqsızlıq
haqverdiyev
haqverdiyevin
har
hara
harada
haradadır
haradan
haram
haray
haraya
hard
harda
hardan
haribə
haribədə
haribədən
haribələr
haribələrdə
haribələri
haribələrində
haribələrinin
haribəni
haribənin
haribəsi
haribəsində
haribəsindəki
haribəsindən
haribəsini
haribəsinin
haribəsinə
haribəyə
harmonik
harmoniya
harold
harper
harpercollins
harri
harrinin
harris
harrison
harry
hart
harun
harv
harvard
harvey
has
hasan
hasar
hasib
hasibat
hasil
hasilat
hasilatı
hasirə
hasirədə
hasirədən
hasirəni
hasirəsi
hasirəyə
hat
hatəm
hatəmxan
haus
hava
havada
havadan
havanı
havanın
havası
havay
havaya
have
haven
haw
hawksworth
hay
hayata
hayatı
hayfa
haynes
haz
haziran
hazirə
hazirələr
hazır
hazırda
hazırdır
hazırki
hazırkı
hazırladı
hazırladıg
hazırladıqları
hazırlamag
hazırlamaq
hazırlamıs
hazırlanan
hazırlandı
hazırlandıg
hazırlanma
hazırlanması
hazırlanmasına
hazırlanmasında
hazırlanmasını
hazırlanmıs
hazırlanıb
hazırlanır
hazırlanırdı
hazırlas
hazırlayan
hazırlayıb
hazırlayır
hazırlayırdı
hazırlayırlar
hazırlıg
hazırlıq
hb
hbo
hbət
hbəti
hbətlər
hbətə
hcl
hd
hdəlikləri
hdəsindən
hdəsinə
he
head
health
heart
hearts
heaven
heavy
hec
heca
hecalama
hedysarum
hegel
heidelberg
heinrich
heinz
hekayə
hekayələr
hekayələri
hekayəni
hekayənin
hekayəsi
hekayəsini
hekayəsinin
hekayəti
hektar
hektara
hektardan
hektardır
hektarı
held
helen
helena
helichrysum
helikopter
helikopteri
helium
hell
helmut
help
helsinki
hemsl
henri
henrik
henrinin
henrix
henry
hepatit
her
herald
herat
herbert
here
herendeen
heritage
herkules
herman
hermann
hero
herodot
herodotun
heroes
hers
herseqovina
herseqovinanın
hersoq
hersoqlug
hersoqu
hes
hesab
hesaba
hesabat
hesabatda
hesabatlar
hesabatı
hesabatına
hesabatında
hesabla
hesablama
hesablamalar
hesablamalara
hesablamalarına
hesablamaq
hesablanamıs
hesablanan
hesablanması
hesablanmıs
hesablanır
hesablas
hesablı
hesabsız
hesabı
hesabına
hesabında
het
hey
heybət
heyd
heydar
heydər
heydərov
heykəl
heykəli
heykəlin
heykəlinin
heykəllər
heykəlləri
heykəltəras
heyran
heyrət
heyrətamiz
heyrətə
heyva
heyvan
heyvanat
heyvandarlıg
heyvandarlıq
heyvandarlıqla
heyvanlar
heyvanlara
heyvanlarda
heyvanlardan
heyvanları
heyvanların
heyvanlarının
heyvanı
heyvanın
heyət
heyətdə
heyəti
heyətin
heyətində
heyətini
heyətinin
heyətinə
heyətə
hfə
hfələr
hfəsini
hhq
hi
hibrid
hic
hicaz
hicr
hicran
hicri
hicrət
hidayət
hidden
hidra
hidravlik
hidrogen
hidrometeoroloji
hidrotermal
hieron
high
higher
hikmət
hikməti
hikmətin
hikmətli
hil
hilal
hill
hilliard
hills
hilmi
hilton
him
himalay
himayə
himayəc
himayədarı
himayəsi
himayəsində
himayəsinə
himn
himni
hind
hindi
hindistan
hindistana
hindistanda
hindistandan
hindistanı
hindistanın
hindu
hindular
hip
hirkan
hiros
hirsli
his
hisar
hiss
hissi
hissini
hisslər
hissləri
hisslərin
hisslərini
hissə
hissəcik
hissəciklər
hissəcikləri
hissəciklərin
hissədə
hissədən
hissəli
hissələr
hissələrdə
hissələrdən
hissələri
hissələrin
hissələrində
hissələrindən
hissələrini
hissələrinin
hissələrinə
hissələrə
hissəni
hissənin
hissəsi
hissəsidir
hissəsində
hissəsindəki
hissəsindən
hissəsini
hissəsinin
hissəsinə
hissəyə
histoire
historia
historic
historical
history
hit
hitdə
hiti
hitin
hitində
hitinin
hitinə
hitler
hitlerin
hitlə
hits
hitə
hiv
hiylə
hiyləgər
hk
hkəm
hkəmləndirilmis
hkəmləndirilməsi
hkəmləndirmək
hl
hli
hlət
hm
hn
hnə
hnəlmis
ho
hobby
hoc
hoffm
hoffmann
hokkaydo
hold
holding
holdinq
holes
holl
holland
hollandiya
hollandiyada
hollandiyalı
hollandiyanın
hollivud
hollywood
holmes
holocaust
holokost
holt
holub
holy
homalium
home
homer
homo
homoseksual
honda
honduras
hong
honkonq
honor
honq
hook
hookeri
hop
hope
hopkins
horadiz
horn
horror
horse
hortenziya
hos
hospital
host
hot
hotel
hour
house
housing
hovard
hovuz
how
howard
hp
hr
hrab
hran
hranı
hrsg
hru
hrvatska
hrə
hrət
hrəti
hrətini
hrətli
hs
hsu
ht
htac
htan
htm
html
http
https
htərəm
htəs
hu
hub
huchra
hud
hudson
huffington
hugh
hughes
hulk
human
humanist
humanitar
humanizm
humay
humbert
hun
hung
hungarian
hungary
hunlar
hunların
hunt
hunter
hunting
huperzia
hur
hurdur
huri
hurlas
hurlug
hurluq
hurriyet
huru
hus
huseynov
hutch
hv
hyptis
hyu
hyun
hyuston
hz
hə
həbib
həbibbəyli
həbibi
həbs
həbsdə
həbsdən
həbsi
həbsxana
həbsxanada
həbsxanadan
həbsxanasında
həbsxanaya
həbsə
həbəs
həcc
həccə
həcm
həcmdə
həcmi
həcmində
həcmini
həcminin
həcminə
həcmli
həcər
həd
hədd
həddi
həddindən
həddini
həddinə
həddə
həddən
hədis
hədiyyə
hədiyyələr
hədiyyəsi
hədsiz
hədə
hədəf
hədəfi
hədəfinə
hədəfləri
hədəfə
həftə
həftədə
həftədən
həftəlik
həftənin
həftəsi
həftəsində
həkim
həkimi
həkimin
həkimlər
həkimləri
həkimlərin
həkimə
həkk
həkəri
həlak
həll
həlledici
həlli
həllində
həllini
həllinin
həllinə
hələ
hələb
hələdə
hələlik
həm
həmc
həmcinin
həmd
həmdullah
həmdə
həmdəm
həmid
həmidov
həmidə
həmin
həmis
həmkarlar
həmkarları
həmkarı
həmlə
həmmu
həmrəylik
həmrəyliyi
həmsərhəd
həmsərhəddir
həmtəsisc
həmzə
həmədan
həmən
həndbolc
həndis
həndisi
həndislik
həndisliyi
həndislər
həndisləri
həndəsi
həndəsə
hənifə
hənuz
hənəfi
həp
həq
həqiqi
həqiqət
həqiqətdir
həqiqətdə
həqiqəti
həqiqətin
həqiqətlər
həqiqətləri
həqiqətə
həqiqətən
həqq
hər
hərb
hərbc
hərbdə
hərbi
hərbic
hərc
hərdən
hərf
hərfi
hərflər
hərfləri
hərflərlə
hərgiz
hərrik
hərriki
hərrikin
hərrikli
hərriklər
hərrikləri
hərtərəfli
hərə
hərəkat
hərəkata
hərəkatı
hərəkatın
hərəkatına
hərəkatında
hərəkatını
hərəkatının
hərəkət
hərəkətdə
hərəkəti
hərəkətin
hərəkətini
hərəkətinin
hərəkətinə
hərəkətli
hərəkətlər
hərəkətləri
hərəkətlərin
hərəkətlərini
hərəkətlərinin
hərəkətlərinə
hərəkətsiz
hərəkətsizdir
hərəkətverici
hərəkətə
hərəm
hərəsi
həs
həsr
həsrət
həsrəti
həssas
həssaslıg
həssaslıq
həsəd
həsən
həsənag
həsəni
həsənin
həsənli
həsənog
həsənov
həsənova
həsənovun
həsənzadə
həsənəli
hətta
həv
həvalə
həvari
həvva
həvəs
həvəsi
həvəskar
həvəslə
həya
həyat
həyata
həyatda
həyatdan
həyati
həyatla
həyatları
həyatlarını
həyatı
həyatım
həyatın
həyatına
həyatında
həyatından
həyatını
həyatının
həyəcan
həyəcanlı
həyət
həyətdə
həyəti
həyətin
həyətində
həyətə
həzi
həzin
həzm
həzrət
həzrəti
həzrətin
həzz
i
ia
ian
iana
ianə
ias
iata
ib
ibadət
ibarət
ibarətdir
ibge
iblər
ibm
ibn
ibni
ibrahim
ibrani
ibrət
ibtidai
ibutani
ibəy
ibəyin
ic
icad
icarə
icarəyə
icazə
icazəsi
icazəsiz
icbari
ice
ich
ici
icik
icilərin
iclas
iclasda
iclası
iclasında
icma
icmal
icmaları
icmanın
icması
icmasına
icmasının
icra
icrac
icraedici
icrası
icrasına
ictimai
ictimaiyyət
ictimaiyyəti
ictimaiyyətin
ictimaiyyətinin
ictimaiyyətə
icəsinə
id
ida
idarə
idarəc
idarəedici
idarəetmə
idarəetmənin
idarəetməsi
idarələri
idarələrinin
idarənin
idarəsi
idarəsində
idarəsindəki
idarəsini
idarəsinin
idarəsinə
idbanu
iddia
iddiac
iddialar
iddiaları
iddialarını
iddialı
iddiası
iddiasına
iddiasını
iddə
iddət
iddətli
iddətlə
idea
ideal
idealist
ideas
identification
identifikasiya
identifikatoru
identity
ideologiya
ideologiyası
ideoloji
ideya
ideyalar
ideyaları
ideyaların
ideyalarına
ideyalarını
ideyalarının
ideyanın
ideyası
ideyasına
ideyasını
ideyasının
idi
idib
idik
idilir
idilər
idim
idin
idini
idir
idisə
idli
idlər
idləri
idman
idmanc
idmanla
idmanı
idmanın
idol
idrak
idrakın
idu
idxal
idə
idəddin
idən
idəndə
ie
ieee
if
ifa
ifac
ifadə
ifadəli
ifadələr
ifadələri
ifadəsi
ifadəsini
ifadəsinin
ifahi
ifası
ifasında
iflic
ifrat
ifraz
ifrazat
ifs
ig
igid
igidlik
igidliyi
igidliyin
ign
ignored
ih
ii
iib
iii
iiiq
iiq
ik
ika
ikada
ikalı
ikanın
ikaqo
ikar
ikayət
ikc
ikdir
ikdə
iki
ikili
ikimərtəbəli
ikinci
ikincisi
ikiqat
ikisi
ikisini
ikisinin
ikitərəfli
ikiu
ikiyə
iklik
ikliklər
iklikləri
ikliklərin
ikliklərlə
ikliklərə
ikliyi
ikliyə
iklər
ikləri
iktas
ikən
ikəst
il
ila
ilahi
ilahiyyat
ilahiyyatc
ilahə
ilahəsi
ilan
ilanlar
ilanı
ilc
ild
ildi
ildikdən
ildir
ildo
ildırım
ildə
ildəki
ildən
ile
ilham
ilhamlanaraq
ilhaq
ili
ilib
ilidə
ilik
ilikdə
ilikdən
iliklə
ilin
ilində
ilindən
ilini
ilinin
ilinə
ilir
ilirdi
ilirlər
ilis
iliyi
iliyin
iliyində
iliyini
iliyinin
iliyinə
iliyə
iljin
ilk
ilki
ilkin
ill
illegitimate
iller
illik
illinois
illiyi
illiyinə
illu
illustrated
illə
illər
illərdir
illərdə
illərdəki
illərdən
illəri
illərin
illərində
illərindən
illərini
illərinin
illərinə
illərlə
illərə
ilmis
ilmə
ilmək
ilməsi
ilməsinə
ilməz
ilov
iltihab
iltihabı
ilə
ilədək
ilən
ilər
ilərdə
ilərdən
iləri
ilərin
ilərindən
ilərini
ilərinin
ilərinə
ilərlə
ilərə
ilərək
im
ima
image
images
imal
imala
imalda
imaldakı
imaldan
imali
imalı
imalında
imalındakı
imalından
imam
imamverdiyev
imamı
iman
imanı
imarət
imax
imdb
imdi
imdə
imi
imin
imis
imiz
imkan
imkanlar
imkanları
imkanlarına
imkanlarından
imkanlarını
imkanlarının
imkanlı
imkanı
imkanına
imkanını
imli
imləri
immiqrasiya
immun
immunitet
imov
impact
impatiens
imperator
imperatorlug
imperatoru
imperatorun
imperatric
imperial
imperiya
imperiyanın
imperiyası
imperiyasına
imperiyasında
imperiyasını
imperiyasının
implications
important
impuls
ims
imtahan
imtina
imtiyazlar
imza
imzaladı
imzaladıg
imzaladılar
imzalamıs
imzalanan
imzalandı
imzalanması
imzalanmıs
imzalanıb
imzalanır
imzalayıb
imzalayır
imzası
imərlik
imərliyi
in
ina
inadkar
inam
inamla
inamlı
inamı
inan
inanan
inanc
inanclar
inancları
inancı
inancına
inancında
inandıg
inandırmag
inandırıcı
inanmaq
inanılmaz
inanılır
inanır
inanıram
inanırdı
inanırdılar
inanırlar
inar
inc
inci
incisi
include
including
increase
incə
incəsənət
incəsənəti
incəsənətin
incəsənətində
incəsənətinin
incəsənətə
ind
inde
indeksi
independence
independent
index
indi
india
indian
indiana
indiki
individual
indiyə
indiyədək
indo
indonesia
indonesian
indoneziya
industrial
industry
ində
indədir
indəki
indən
ine
infeksion
infeksiya
infinity
influence
inflyasiya
info
informasiya
informasiyanı
informasiyanın
informatics
informatika
information
infraqırmızı
infrared
infrastruktur
infrastrukturu
infrastrukturunun
infty
ing
inga
ingilis
ingiliscə
ingilislər
ingilislərin
ingiz
ingizog
ini
inin
inkar
inkis
inli
inlilər
inlə
inlər
inləri
inlərin
inn
innovasiya
innovativ
ino
inqilab
inqilabc
inqilabdan
inqilabi
inqilabı
inqilabın
inqilabından
inqilabının
inqton
inqtonda
inqus
ins
insaf
insan
insana
insanda
insandan
insandır
insani
insanla
insanlar
insanlara
insanlarda
insanlardan
insanlardır
insanlarla
insanları
insanların
insanlıg
insanlıq
insanı
insanın
insee
inside
insider
inski
inskinin
inspektor
instagram
institut
instituta
institutda
institute
institution
institutions
institutları
instituto
institutu
institutun
institutunda
institutunun
instrumental
int
integral
integrated
integration
intel
intellekt
intellektual
intelligence
intelligent
intensiv
intensivliyi
intensivləs
inteqral
inteqrasiya
inteqrasiyası
inter
interactive
interaktiv
interest
intermedia
internat
international
internationale
internet
internetdə
internetə
interview
interyeri
intibah
intihar
intiqam
intiqamını
intizam
into
intonasiya
intro
introduction
introduksiya
inula
invalid
invasion
investigation
investisiya
investor
inyov
inzibatc
inzibati
inə
inək
io
ioc
iog
ion
ionlas
iop
ios
ip
ipa
ipac
iphone
ipomoea
ipək
ipəkc
iq
iqamətgahı
iqan
iqi
iqin
iqlim
iqlimi
iqlimin
iqliminə
iqlimə
iqtidar
iqtidarında
iqtisad
iqtisadc
iqtisadi
iqtisadiyyat
iqtisadiyyata
iqtisadiyyatda
iqtisadiyyatı
iqtisadiyyatın
iqtisadiyyatına
iqtisadiyyatında
iqtisadiyyatını
iqtisadiyyatının
ir
ira
iradə
iradəsi
iradəsini
irak
iran
iranian
iranica
iranlı
iraq
iraqi
iras
iraz
irazi
irdi
irdikdən
irdikləri
irdilər
irdiyi
ireland
iri
irib
irici
iricilər
iridir
irildi
irildiyi
irilib
irilir
irilirdi
irilmis
irilməsi
irilməsində
irilməsindən
irilməsini
irilməsinin
irilməsinə
irilməyə
irilə
iriləcək
irilən
irilərək
irimiqyaslı
irin
irini
irinin
irinli
irinov
irir
irirdi
irirdilər
irirlər
iris
irish
irk
irkab
irkin
irkli
irklənmis
irklənmə
irklənməsi
irkət
irkəti
irkətidir
irkətin
irkətində
irkətini
irkətinin
irkətinə
irkətlər
irkətləri
irkətlərin
irkətlərinin
irkətə
irland
irli
irlər
irmis
irmə
irmək
irməklə
irməsi
irməyi
irməyə
irniyyat
iro
iron
irov
irq
irqc
irqi
irs
irsi
irsin
irsini
irsinin
irsinə
irsə
irsən
irtdi
irvan
irvana
irvanda
irvani
irvaninin
irvannəs
irvans
irvanı
irvanın
irə
irəli
irəlidə
irəlilədi
irəliləməyə
irəliləyir
irəliləyis
irəliləyən
irəliləyərək
irəliyev
irəliyə
irəm
irən
irərkən
irərək
irəsi
irəvan
is
isaac
isbat
isbn
isi
isidir
isim
isindən
isini
isinin
isinə
islah
islahat
islahatc
islahatlar
islahatları
islahatların
islahatı
islam
islamc
islamic
islamı
islamın
island
islands
ismayıl
ismi
isminin
iso
isp
ispan
ispanca
israel
israeli
israr
iss
issn
issue
issues
ist
istanbul
istedad
istedadlı
istedadı
istedadını
istefa
istefaya
istehkam
istehlak
istehlakc
istehlakı
istehsal
istehsala
istehsalat
istehsalc
istehsalı
istehsalın
istehsalına
istehsalında
istehsalını
istehsalının
istehza
isti
istifadə
istifadəc
istifadədə
istifadəni
istifadənin
istifadəsi
istifadəsini
istifadəsinin
istifadəsinə
istifadəyə
istila
istilası
istilik
istiliyi
istiləs
istinad
istinadən
istintaq
istiot
istiqamət
istiqamətdə
istiqamətdən
istiqaməti
istiqamətində
istiqamətindən
istiqamətini
istiqamətinə
istiqamətli
istiqamətlənmis
istiqamətlərdə
istiqamətləri
istiqamətlərində
istiqamətlərindən
istiqamətə
istiqlal
istirahət
istismar
istismara
istismarı
istisna
istlər
istədi
istədikdə
istədikləri
istədiklərini
istədilər
istədim
istədiyi
istədiyini
istədiyiniz
istək
istəkləri
istəklərini
istəklərinə
istəmir
istəmirdi
istəmirəm
istəmis
istəmədi
istəmək
istəməsi
istəməyən
istəməz
istənilən
istər
istərdim
istərsə
istərəm
istəsə
istəsən
istəyi
istəyib
istəyini
istəyinə
istəyir
istəyirdi
istəyirdilər
istəyirik
istəyirlər
istəyirsinizsə
istəyirsən
istəyirsənsə
istəyirəm
istəyə
istəyən
istəyəndə
istəyənlər
istəyərkən
isu
isv
isvec
isə
isən
it
ita
ital
italia
italian
italiane
italy
italyan
italyanca
itaət
itaətsizlik
itdi
itdim
itdiyi
item
ithaf
iti
itib
itim
itin
itir
itirdi
itirdilər
itirdiyi
itirib
itirilmis
itirilməsi
itirir
itirmis
itirmək
itirməsi
itirməyə
itirən
itirərək
itki
itkilər
itkiləri
itkin
itkisi
itlər
itmis
itmə
itmək
itməsi
its
ittifaq
ittifaqa
ittifaqları
ittifaqı
ittifaqın
ittifaqına
ittifaqının
ittiham
ittihamı
itunes
iucn
iv
iva
ivan
ivanov
ivlendi
ivr
ivrit
ivə
ivəsi
ivəsində
iw
ix
ixora
ixrac
ixracı
ixtilaf
ixtira
ixtirac
ixtisar
ixtisas
ixtisasartırma
ixtisaslar
ixtisasları
ixtisaslas
ixtisaslı
ixtisası
ixtisasına
ixtisasını
ixtiyar
ixtiyari
ixtiyarı
ixtiyarına
iy
iya
iyesi
iyev
iyeva
iyevin
iyi
iyin
iyində
iyinə
iyirmi
iyli
iynə
iynəyarpaqlı
iyrənc
iyul
iyulda
iyulun
iyulunda
iyun
iyunda
iyunun
iyununda
iyə
iyələk
iz
izah
izahat
izahli
izahlı
izahı
izhar
izi
izin
izlə
izlədi
izləmis
izləmək
izləməyə
izlər
izləri
izlərini
izləyici
izləyir
izləyən
izm
izn
iztirab
izzət
iə
iələr
iələrin
j
ja
jack
jackson
jacob
jacobs
jacq
jacques
jak
james
jan
jandarma
jane
janeyro
janeyroda
janna
janr
janrda
janrlarda
janrı
janrın
janrında
janrının
january
japan
japanese
japonica
jarrett
jason
jatropha
java
jay
jazeera
jazz
jdə
je
jean
jeff
jeffrey
jen
jennifer
jeremy
jermen
jersey
jerusalem
jesus
jet
jeti
jewish
jews
jhu
ji
jim
jimmy
jin
jo
joan
joe
joel
johann
johannes
john
johns
johnson
join
joins
joint
jon
jonathan
jones
jong
jord
jordan
jorj
jose
josef
joseph
joshua
jou
journal
journals
journey
jozef
jp
jpg
jr
js
jstor
ju
juan
julia
julian
julius
july
jump
jun
june
jung
junior
juniperus
jupiter
jurinea
jurnal
jurnalda
jurnalist
jurnalisti
jurnalistika
jurnalistlər
jurnalistləri
jurnalistlərin
jurnallar
jurnallarda
jurnalları
jurnalların
jurnallarında
jurnallarının
jurnalı
jurnalın
jurnalına
jurnalında
jurnalını
jurnalının
just
justice
justicia
justin
juz
k
ka
kaa
kabab
kabarda
kabardin
kabel
kabil
kabinet
kabineti
kabinetində
kabinetinin
kabul
kabus
kac
kadar
kadokawa
kadr
kadrlar
kadrları
kadrların
kadın
kafat
kafata
kafatc
kafatlandırılmıs
kafatlar
kafatlara
kafatları
kafatlarına
kafatlarında
kafatlarının
kafatı
kafatın
kafatına
kafatını
kafatının
kafe
kafedra
kafedral
kafedralı
kafedralın
kafedralının
kafedranın
kafedrası
kafedrasına
kafedrasında
kafedrasının
kafi
kafir
kafirlər
kafirlərin
kafirlərə
kafka
kag
kahin
kahinlər
kainat
kainatda
kainatı
kainatın
kakao
kal
kalankatlı
kalası
kale
kaliforniya
kaliforniyada
kaliforniyanın
kalimantan
kalininqrad
kalium
kalofillum
kalsium
kam
kama
kamal
kamalın
kaman
kamanc
kamaz
kamboca
kamc
kamera
kameral
kamerası
kamerun
kamil
kamilləs
kampaniya
kampaniyası
kampus
kampusu
kampusunda
kamran
kamu
kan
kanada
kanadada
kanadalı
kanadanın
kanal
kanalizasiya
kanallar
kanalları
kanallarının
kanalı
kanalın
kanalına
kanalında
kanalının
kanlıg
kann
kansler
kansleri
kant
kanton
kantonuna
kanı
kanın
kapellası
kapital
kapitalist
kapitalizm
kapitalizmin
kapitalı
kapitalın
kapitan
kapitanı
kaptan
kar
kara
karabakh
karachentsev
karaman
karantin
karate
karbohidrogen
karbohidrogenlərin
karbon
karbonat
kardinal
karel
karen
karg
kargu
karib
karikatura
karl
karlanması
karlanmıs
karları
karlo
karlos
karlın
karlıq
karmen
karolina
karpat
kars
karst
kart
karter
kartları
kartli
kartof
kartı
karvan
karvansara
karvansarası
karvansaray
karyera
karyerası
karyerasına
karyerasında
karyerasını
karyerasının
karı
kas
kasa
kasacıg
kasi
kaspi
kassa
kastamonu
kastiliya
kastro
kasıb
kasım
kat
katalan
katalitik
kataliz
katalizator
kataloniya
kataloq
kataloqda
kataloqu
kataloqunda
katarina
kate
kateqoriya
kateqoriyalı
kateqoriyası
kateqoriyasına
kateqoriyasında
kateqoriyaya
katerina
katib
katibi
katibinin
kato
katolik
katoliklər
katolikos
katolikosu
kauc
kaunas
kaxeti
kaxetiya
kay
kaya
kaynag
kayseri
kazak
kazakhstan
kazaklar
kazan
kazım
kazımov
kazımova
kazımovanın
kazımzadə
kb
kbd
kc
kcu
kcə
kd
kdas
kdir
kdu
kdə
kdədir
kdən
ke
kec
kef
keith
kek
kelli
kelly
kelt
kemal
kembric
ken
keniya
kennedi
kennedy
kenneth
kent
kepler
keramika
kerc
keriya
kerol
kerri
kes
keti
ketrin
kevin
key
keyfiyyət
keyfiyyətcə
keyfiyyəti
keyfiyyətini
keyfiyyətinin
keyfiyyətinə
keyfiyyətli
keyfiyyətlər
keyfiyyətləri
keyn
keyt
kg
kh
khan
kharchenko
ki
kibernetika
kibi
kic
kids
kidə
kifayət
kifayətdir
kikboksinq
kil
kilat
kilata
kilatc
kilati
kilatlar
kilatlara
kilatlarda
kilatlarla
kilatları
kilatların
kilatlarına
kilatlarının
kilatı
kilatıdır
kilatın
kilatına
kilatında
kilatını
kilatının
kili
kilik
kilində
kilinə
kill
killed
killer
killing
kilometr
kilometrdir
kilometrlik
kilometrə
kiloqram
kilsə
kilsədə
kilsələr
kilsələri
kilsələrin
kilsəni
kilsənin
kilsəsi
kilsəsində
kilsəsini
kilsəsinin
kilsəsinə
kilsəyə
kilər
kilərdə
kilərdən
kiləri
kilərin
kilərində
kilərindən
kilərinin
kilərə
kim
kimdi
kimdir
kimdən
kimi
kimidir
kimin
kiminsə
kimliyi
kimliyini
kimlər
kimsə
kimsən
kimsənin
kimsəsiz
kimsəyə
kimya
kimyac
kimyanın
kimyası
kimyəvi
kimə
kin
kinci
kincisi
kinematoqrafc
kinematoqrafiya
kinetik
king
kingdom
kings
kini
kinin
kino
kinoda
kinofestivalında
kinolent
kinolentdə
kinorejissor
kinorejissoru
kinostudiyası
kinostudiyasında
kinostudiyasının
kinosu
kinosunun
kinoteatr
kinoteatrı
kinoya
kinq
kinqin
kins
kioto
kipr
kiprdə
kiprin
kir
kira
kiran
kirayə
kiril
kirk
kirman
kirmans
kirov
kirovabad
kirpi
kirs
kis
kisi
kiss
kisə
kisəsi
kit
kitab
kitaba
kitabc
kitabda
kitabdan
kitabdır
kitabi
kitablar
kitablarda
kitablardan
kitabları
kitabların
kitablarına
kitablarında
kitablarını
kitablarının
kitabxana
kitabxanac
kitabxanada
kitabxanalar
kitabxanaları
kitabxananın
kitabxanası
kitabxanasına
kitabxanasında
kitabxanasının
kitabı
kitabıdır
kitabın
kitabına
kitabında
kitabından
kitabını
kitabının
kitabə
kitabədə
kitabələr
kitam
kitap
kiyev
kiyevdə
kiyə
kjh
kk
kkal
kl
klara
klark
klarnet
klassik
klatt
klaus
klavis
kleijn
klein
klement
kleopatra
klinik
kliniki
klinton
klip
klipi
klivlend
klod
klu
klub
kluba
klubda
klublar
klubları
klublarında
klublarının
klubu
klubudur
klubun
klubuna
klubunda
klubunu
klubunun
klə
kləmə
klənmis
klənmə
klənməsi
klər
klərdə
klərdən
kləri
klərin
klərində
klərindən
klərini
klərinin
klərinə
klərlə
klərə
km
kmdar
kmdarlar
kmdarları
kmdarların
kmdarlarının
kmdarlıg
kmdarlıq
kmdarı
kmdarın
kmdarının
kmranlıg
kmranlıq
kmu
kmə
kmək
kmən
kməsi
kn
knapp
knar
knight
know
knowledge
known
knut
knyaz
knyazlıg
knyazı
ko
koalisiya
koalisiyası
kobalt
kobud
koc
kocaeli
koch
kochanek
kod
kodansha
kodlas
kodu
koelyo
kog
kokand
kokos
kol
kola
kolanı
kolc
koldur
kolları
kollec
kollecdə
kolleci
kollecin
kollecində
kollecinin
kollecinə
kollegiyasının
kolleksiya
kolleksiyac
kolleksiyası
kolleksiyasına
kolleksiyasında
kollektiv
kollektivi
kollektivin
kollektivləs
kolloid
kolluqlar
kolluqlarda
koloniya
koloniyalar
koloniyası
kolorado
kolumb
kolumbiya
kolumbiyanın
kolxoz
kolxozc
kolxozda
kom
koma
komanda
komandada
komandadan
komandalar
komandaları
komandaların
komandalarının
komandan
komandanlıg
komandanlıq
komandanı
komandanın
komandası
komandasına
komandasında
komandasını
komandasının
komandaya
komandir
komandiri
komandirinin
komandirləri
kombat
komediya
komediyası
komendant
komi
komik
komiks
komissar
komissarları
komissarlıg
komissarı
komissiya
komissiyanın
komissiyası
komissiyasına
komissiyasının
komitə
komitələri
komitələrinin
komitənin
komitəsi
komitəsində
komitəsinin
komitəsinə
kommersiya
kommuna
kommunal
kommunanın
kommunikasiya
kommunist
kommunistlər
kommunizm
kompakt
kompaniyası
kompaniyasının
kompensasiya
kompleks
kompleksdə
kompleksi
kompleksin
kompleksində
kompleksinin
kompleksinə
kompleksləri
komplekslərinin
kompleksə
komponent
komponenti
komponentlər
komponentləri
komponentlərin
komponentlərindən
komponentlərinin
kompozisiya
kompozisiyanın
kompozisiyası
kompu
kompyuter
komsomol
komsomolu
kon
konan
kondolojy
konfederasiya
konfederasiyası
konfederasiyasının
konfrans
konfransda
konfranslar
konfranslarda
konfransların
konfransı
konfransın
konfransına
konfransında
konfransının
konfutsi
kong
kongresi
konkret
konq
konqo
konqres
konqresdə
konqresi
konqresin
konqresində
konqresinin
konrad
konsentrasiyası
konsepsiya
konsepsiyası
konsepsiyasını
konsepsiyasının
konseptual
konsert
konsertdə
konserti
konsertlər
konsertlərdə
konsertləri
konserv
konservatoriyası
konservatoriyasında
konservatoriyasının
konspekti
konstantin
konstantinopol
konstitusiya
konstitusiyada
konstitusiyalı
konstitusiyanın
konstitusiyası
konstitusiyasına
konstitusiyasının
konstitusiyaya
konstruksiya
konstruktiv
konstruktor
konsul
konsullug
konsulluq
konsulu
kontakt
kontekstində
kontinental
konus
konusvari
konvensiya
konvensiyanın
konvensiyası
konvensiyasının
konya
kooperasiya
kooperativ
koordinasiya
koordinat
koordinatlarla
koordinatları
koordinatlarına
kopenhagen
kor
korc
kordestan
korea
korean
koreopsis
koreya
koreyaca
koreyada
koreyalı
koreyanı
koreyanın
koreyaya
korinf
korkotyan
korog
koronavirus
korporasiyası
korporativ
korpus
korpusu
korpusun
korpusunun
korroziya
korrupsiya
korrupsiyaya
korsika
kos
kosa
kosmik
kosmos
kosmosa
kosmosda
kosovo
kosta
kosterm
kostyum
kot
kotze
kov
kova
koza
kp
kq
kr
kraenzl
krajnovic
krakov
kral
krala
kralic
krallar
kralları
krallıg
krallıq
krallıqda
kralı
kralın
kralının
kran
krasch
krasnodar
krasnoyarsk
krater
krateri
krause
krc
kredit
kreditlər
kredo
kreml
kremlin
kriminal
kris
kristal
kristallar
kristallas
kristallik
kristi
kristian
kristina
kristof
kristofer
krit
kritik
kru
krım
krıma
krımda
krımın
ks
ksemburq
ksu
ksək
ksəkdir
ksəkdə
ksəklik
ksəklikdir
ksəklikdə
ksəklikdədir
ksəklikdən
ksəkliklərdə
ksəkliyi
ksəkliyə
ksəldi
ksəldilməsi
ksəlib
ksəlir
ksəlis
ksəlmis
ksəlməsi
ksəltmək
ksələ
ksələn
kt
ktp
ku
kub
kuba
kuban
kubmetr
kubok
kuboklar
kuboku
kubokun
kubokuna
kubokunda
kubokunu
kubokunun
kuc
kufə
kuk
kukla
kul
kulinariya
kulis
kult
kultu
kultur
kum
kumar
kumət
kumətdə
kuməti
kumətin
kumətində
kumətindən
kumətini
kumətinin
kumətinə
kumətlər
kumətlərarası
kumətləri
kumətə
kun
kunq
kunth
kuntze
kuper
kur
kurdish
kurdistan
kurds
kuril
kurort
kurqan
kurs
kursda
kursk
kurslar
kursları
kurslarında
kursu
kursuna
kursunda
kursunu
kursunun
kurt
kurumu
kus
kusber
kut
kutaisi
kuzinellus
kv
kvadrat
kvant
kvars
kvt
ky
kyrgyzstan
kyu
kz
kı
kıbrıs
kə
kəbir
kəbirli
kəbə
kədə
kədər
kədərli
kəffarə
kəhriz
kək
kəklik
kəkliyi
kəkliyinin
kəl
kəlag
kəlam
kəlamı
kəlbəcər
kəlbəcərin
kəlbəli
kəleybər
kəli
kəlidir
kəlilə
kəllə
kəlmə
kəlməsi
kələm
kəm
kəmalə
kəmaləddin
kəmiyyət
kəmiyyəti
kəmməl
kəmər
kəməri
kəmərinin
kəmərləri
kən
kənan
kənar
kənara
kənarda
kənardan
kənarları
kənarlarında
kənarlas
kənarı
kənarına
kənarında
kənarındakı
kənd
kənddir
kənddə
kənddəki
kənddən
kəndi
kəndidir
kəndidə
kəndin
kəndində
kəndindəki
kəndindən
kəndindəndir
kəndini
kəndinin
kəndinə
kəndir
kəndistanında
kəndli
kəndlilər
kəndliləri
kəndlilərin
kəndlilərə
kəndlər
kəndlərdə
kəndlərdən
kəndləri
kəndlərin
kəndlərində
kəndlərindən
kəndlərini
kəndlərinin
kəndlərinə
kəndlərə
kəndu
kəndə
kəngərli
kəni
kənin
kənli
kənməz
kəpənək
kəpənəkc
kəpənəklər
kəpəz
kər
kərbəla
kərbəlayi
kərbəlayı
kəri
kərim
kərimdə
kərimi
kərimin
kərimli
kərimov
kərimova
kərimovun
kərku
kərpic
kərpicdən
kərtənkələ
kərə
kərək
kərəm
kəs
kəsb
kəsdi
kəsdən
kəsi
kəsib
kəsici
kəsik
kəsildi
kəsilib
kəsilir
kəsilis
kəsilmis
kəsilmək
kəsilməkdə
kəsilməsi
kəsilən
kəsin
kəsir
kəsis
kəsiz
kəsizlik
kəsizliyi
kəsizliyin
kəsizliyini
kəsizliyinin
kəsizliyinə
kəskin
kəskinləs
kəslər
kəsmis
kəsmə
kəsmək
kəsə
kəsəmən
kəsən
kəsərək
kətan
kəyə
l
la
lab
labor
laborant
laboratoriya
laboratoriyada
laboratoriyası
laboratoriyasında
laboratoriyasının
laboratory
labour
labu
lac
ladan
ladies
lady
ladı
ladıg
ladılar
ladılmıs
ladım
ladıqdan
lag
lahi
lahiyyat
lahizə
lahizələr
lahıc
lahə
lak
lake
lakin
laku
lal
lallar
lalların
lalə
lalənin
laləsi
laləsindən
laləsinin
laləsinə
lam
lama
lamag
lamaq
laması
lamasına
lamasından
lamazdan
lambda
lambert
lamiyə
lamlıg
lamlıq
lampa
lamıs
lan
lana
lanan
land
lands
landı
landıg
landıqdan
lane
lang
lange
language
languages
lanka
lanlar
lanları
lanma
lanması
lanmasına
lanmasından
lanmasını
lanmıs
lansetvari
lantana
lanı
lanıb
lanıldı
lanılmıs
lanılıb
lanılır
lanın
lanır
lanıs
lao
laos
lap
laptevlər
laq
laqeyd
laqun
lar
lara
laram
larda
lardan
lardır
large
largest
larisa
larla
laros
larri
larry
lars
larsan
ları
larıdır
larım
ların
larına
larında
larından
larını
larının
las
lasa
lasianthus
last
lasıg
lasın
lasə
lat
latdı
latdıg
late
later
latest
latifolia
latin
latmıs
latviya
latviyanın
latın
latınca
latıs
launch
launches
laura
laureatları
laureatı
laureatıdır
laurent
lav
lava
lavas
law
lawrence
laws
lay
laya
layacag
layacaq
layan
layanda
layandan
layar
layaraq
layihə
layihədə
layihələndirilməsi
layihələr
layihələri
layihələrin
layihələrini
layihələrinin
layihələs
layihəni
layihənin
layihəsi
layihəsində
layihəsini
layihəsinin
layihəsinə
layihəyə
layim
layiq
layiqdir
layiqincə
layiqli
layı
layıb
layıblar
layıcı
layın
layır
layırdı
layırlar
lazer
lazım
lazımdı
lazımdır
lazımi
lazımlı
lazımsız
lazımı
lb
lbe
lbu
lc
lccn
ld
ldi
ldu
ldug
lduqda
ldı
ldırım
ldə
ldən
le
lead
leader
leaders
leading
leads
league
learning
least
leavenworth
lebanon
lecture
led
leda
ledeb
ledi
lee
left
legacy
legal
legend
legends
legion
legionu
lehinə
lehnert
leiden
leipzig
leksik
leksikon
len
lena
lenin
leninin
leninizm
leninqrad
leninqradda
lennon
lens
lent
lenta
lentə
leo
leon
leonard
leonardo
leone
leonid
leopold
leqal
ler
leri
lerik
lermontov
les
leslie
less
lester
let
letter
letters
leucas
lev
level
levi
levin
levis
levon
lewis
lex
lexicon
lexikon
leya
leyden
leyk
leyla
leyli
leylinin
leyman
leymaniyyə
leymanlı
leymanov
leymanın
leypsiq
leysan
leytenant
leytenantı
leyxa
lez
lf
lfi
lfiyyə
lfu
lfət
lfəz
lg
lgbt
lgu
lgə
lgədə
lgədəki
lgədən
lgəli
lgələr
lgələrdə
lgələrdən
lgələri
lgələrin
lgələrində
lgələrindən
lgələrini
lgələrinin
lgələrinə
lgələrə
lgəni
lgənin
lgər
lgəsi
lgəsində
lgəsindəki
lgəsindən
lgəsini
lgəsinin
lgəsinə
lgəyə
lh
lham
lhan
lhməramlı
lhu
lhə
lhəmid
lhəmidin
lhəsən
li
lib
libas
liberal
liberty
libraries
library
libris
lic
lide
lider
lideri
liderlik
liderlər
liderləri
liderlərindən
liderlərinin
lidir
lidiya
lie
lif
life
lifli
liflər
lifləri
lift
light
ligularia
lik
like
lil
lili
lilər
lim
lima
liman
limanları
limanı
limanıdır
limanın
limanına
limanında
limanından
limanının
limfa
limit
limited
limon
lin
linc
lincoln
lind
linda
lindl
line
ling
lini
linin
link
linkoln
links
linnaeus
linnean
linney
linnæi
linqvistik
linux
lion
liondan
lionel
liparis
lippia
liqa
liqada
liqanın
liqası
liqasına
liqasında
liqasının
liqaya
liqulariya
lir
lirik
lis
lisa
lisenziya
lisenziyalas
lisenziyası
lisey
liseydə
liseyi
liseyində
lislam
lislamı
lissabon
list
lisu
lit
literary
literature
litr
litsea
little
littlefield
litva
litvada
litvanın
liu
livan
livanda
livanın
live
liverpool
liverpul
lives
living
livingston
liviya
liviyada
liviyanın
lixtens
liyi
liyə
liza
lizinq
lk
lkgi
lki
lkin
lkiyyət
lkiyyətc
lkiyyəti
lkiyyətin
lkiyyətində
lkiyyətinə
lkləri
lklərini
lku
lkə
lkədar
lkədir
lkədə
lkədəki
lkədən
lkələr
lkələrdə
lkələrdən
lkələri
lkələrin
lkələrində
lkələrindən
lkələrini
lkələrinin
lkələrinə
lkələrlə
lkələrə
lkəmizdə
lkəmizin
lkəni
lkənin
lkər
lkərim
lkəsi
lkəsində
lkəsindən
lkəsini
lkəsinin
lkəsinə
lkəyə
ll
lla
llah
llc
ller
lli
llik
llinoys
lloyd
llu
llur
llə
llələnmis
llələr
llələri
llənin
llər
llərdə
llərdən
lləri
llərin
llərində
llərindən
llərə
lləs
lləsi
lləsinin
lləsinə
lm
lman
lmi
lmu
lmus
lmə
lməc
lməcid
lmədə
lmədən
lmək
lməli
lməlidir
lmələr
lmələri
lmələrinin
lməmis
lməmmədov
lmənin
lməsi
lməsidir
lməsində
lməsindən
lməsini
lməsinin
lməsinə
lmət
lməyə
lməz
ln
lnar
lo
lobelia
lobya
local
location
log
lokal
lokk
lokomotiv
lomonosov
london
londona
londonda
londondakı
londonun
lonely
long
longifolia
lonicera
look
lopez
lord
loren
lorenso
lorenzo
lori
loru
los
lost
lotus
lou
louis
lourens
love
lovg
low
lozanna
lq
lqadir
lqar
lqasım
lqədir
lqədər
ls
lsu
lsə
lt
ltd
ltekin
ltesi
ltu
ltə
ltədə
ltələri
ltənin
ltəpə
ltəsi
ltəsində
ltəsini
ltəsinin
ltəsinə
lu
lua
lub
lubiyyət
lubiyyətdən
lubiyyəti
lubiyyətindən
lubiyyətə
luc
lucas
ludur
ludwig
luer
lug
luget
lui
luis
luiza
luk
luka
lukas
luke
lum
luminosity
lun
luna
lunar
lundan
lundy
lunmus
lunu
lunun
lupinus
luq
lur
lus
lut
luther
luvr
lv
lvi
lviyyə
lvov
lya
lyas
lyetta
lynch
lyon
lyu
lyuis
lyuk
lzar
lı
lıca
lıcası
lıdır
lıg
lılar
lıların
lılıg
lılıq
lım
lın
lına
lını
lının
lıq
lıqda
lıqdan
lıqdır
lıqlar
lıqları
lıqlı
lə
ləc
ləcək
lədi
lədikdən
lədilir
lədilmis
lədilən
lədir
lədiyi
ləg
ləhcəsi
lək
ləklər
ləkləri
ləklərin
ləkə
ləkələr
ləl
ləli
lələ
lələkvari
ləm
ləma
ləman
ləmis
ləmə
ləmək
ləməsi
ləməyə
lən
ləndi
ləndirdi
ləndirilmis
ləndirilməsi
ləndirir
ləndirmis
ləndirmək
ləndirməyə
ləndə
ləndən
ləng
ləni
lənib
lənilməsi
lənin
lənir
lənkəran
lənkəranda
lənkəranın
lənlər
lənlərin
lənmis
lənmə
lənməsi
lənməsinə
lənə
lənən
lənət
ləqəbi
ləqəbini
ləqəbli
lər
lərdir
lərdə
lərdən
ləri
lərin
lərində
lərindən
lərini
lərinin
lərinə
lərkən
lərlə
lərə
lərək
ləs
ləsi
lətdiyi
lətif
lətifə
lətmis
lətmək
ləvənd
ləyaqət
ləyaqətli
ləyaqətlə
ləyi
ləyib
ləyin
ləyir
ləyirdi
ləyirlər
ləyə
ləyən
ləyərkən
ləyərək
ləzgi
ləzgilər
ləziz
ləzizin
ləzzət
m
ma
maa
maarif
maarifc
maarifi
maarifləndirmə
maas
mac
macar
macaranga
macarca
macarlar
macarıstan
macarıstana
macarıstanda
macarıstanın
macedonia
machine
macmillan
macri
macəra
macəraları
mad
mada
madam
madan
madaqaskar
maday
maddi
maddə
maddədir
maddədə
maddədən
maddələr
maddələrdən
maddələri
maddələrin
maddələrinin
maddələrlə
maddələrə
maddənin
maddəsi
maddəsində
maddəsinin
maddəsinə
maddəyə
made
mader
madison
madonna
madore
madrid
madriddə
madı
madıg
madəddin
maeda
mafiya
mag
magazine
magellanic
magic
magistr
magistral
magistratura
magnolia
magyar
mah
mahac
mahal
mahalı
mahalın
mahalına
mahalında
mahalından
mahalının
mahatma
mahi
mahir
mahiyyət
mahiyyətcə
mahiyyəti
mahiyyətini
mahmud
mahmudbəyov
mahmudlu
mahmudov
mahmudova
mahmudun
mahmızc
mahnı
mahnılar
mahnılardan
mahnıları
mahnıların
mahnılarından
mahnılarını
mahnılarının
mahnını
mahnının
mahnısı
mahnısıdır
mahnısına
mahnısını
mahnısının
mahnıya
mai
maiden
mail
maili
main
maire
mais
major
mak
makarov
makarova
make
makedon
makedoniya
makedoniyalı
makedoniyanın
makes
making
makino
makoto
makroiqtisadi
maks
maksim
maksimal
maksimilian
maksimum
maktutor
maku
mal
mala
malaqasi
malar
malara
malarda
malardan
maları
maların
malarına
malarında
malarını
malarının
malatya
malavi
malaxis
malay
malaysia
malayziya
malayziyanın
malcolm
maldar
maldarlıq
maldarlıqla
maldiv
male
mali
malik
malikdir
malikdirlər
maliyyə
maliyyələs
malkolm
mallar
malları
malların
mallarını
mallarının
malmo
malta
malthinus
malyariya
malı
malıdır
malın
malını
mam
mama
mamaq
mamazlıg
mamedov
mammadov
mammal
mammals
mamont
mamqulu
mamverdiyev
mamzadə
mamıs
man
mana
manaf
manafov
management
manat
manata
manatadək
manatdan
manatlıq
manc
manchester
mancur
mandat
mane
manettia
manevr
maneə
maneələr
manfred
manga
mangifera
manhattan
manhetten
mani
manisa
mann
manna
manov
manqa
manqan
manqanın
mans
mansur
mansurov
manual
manuel
many
manı
manın
mao
map
maps
maq
maqda
maqdan
maqdır
maqla
maqmatik
maqnezium
maqnit
maqomayev
maqomayevin
maqsud
mar
mara
marafon
marag
maral
maralı
maraq
maraqla
maraqlanan
maraqlanmag
maraqlanmıs
maraqlanır
maraqlanırdı
maraqları
maraqlarına
maraqlarını
maraqlarının
maraqlı
maraqlıdır
maras
marc
march
marco
marcus
mardin
mardinin
mare
margaret
marhold
mari
maria
marian
marie
marina
marine
marinin
marino
mario
mariya
mariyanın
marjinal
mark
marka
markadan
markadır
markaları
markalarının
markalı
markanın
markası
market
marketing
marketinq
marko
marks
marksist
marksizm
marksın
markup
markus
marneuli
marqaret
marqarita
marriage
mars
marsel
marshall
marsın
mart
marta
martda
marten
marti
martimbeau
martin
martinez
martın
martında
martından
marvel
marx
mary
mas
masa
masallı
masdevallia
mask
maska
maslin
mason
mass
massac
massachusetts
massacre
massiv
massivi
master
masters
ması
masıdır
masına
masında
masından
masını
masının
mat
matc
match
material
materialdan
materialist
materiallar
materiallara
materiallardan
materialları
materialların
materiallarından
materiallarının
materials
materialı
materialın
materik
materikin
materiya
materiyanın
math
mathbf
mathematical
mathematics
mathrm
mathsf
matilda
matt
matter
matthee
matthew
matəm
mauch
maurice
mavi
mavərau
max
maxim
may
maya
mayak
mayan
mayda
maye
mayenin
mayer
mayis
mayk
maykl
maykop
mayor
mayoru
mayun
mayya
mayıl
mayın
mayında
mayıs
mayəndə
mayəndəlik
mayəndəliyi
mayəndəliyinin
mayəndələr
mayəndələri
mayəndələrindən
mayəndələrini
mayəndələrinin
mayəndələrinə
mayəndəsi
mayəndəsidir
maz
mazandaran
mazda
mazlıg
mazlıq
mazz
mb
mbm
mbox
mbət
mbətov
mc
mccarthy
mcdermid
mcdonald
mcgraw
mcmurtry
mcu
mcvaugh
md
mdb
mdu
mdə
mdən
me
mea
meaning
mebel
mec
mechanics
meclis
med
medal
medala
medalc
medalla
medallar
medallarla
medalları
medallarının
medalı
medalın
medalına
medalını
medalının
medeniyyet
media
mediada
mediafayllar
medianın
medic
medical
medicine
medien
medieval
mediterranean
meet
meeting
meg
mehdi
mehdiqulu
mehdiyev
mehdiyeva
mehdiyevin
mehdizadə
mehman
mehmandarov
mehmanxana
mehmed
mehmedin
mehmet
mehr
mehrab
mehri
mehriban
meisn
meksika
meksikada
meksikanın
mel
melaleuca
melanie
melburn
melicope
meliorasiya
melissa
melkonyan
melo
melodik
melodiya
memar
memarlar
memarları
memarlıg
memarlıq
memarı
memarın
member
members
membran
memoirs
memorial
memories
memory
men
mendeleyev
mendes
menecer
meneceri
menecment
mens
mentha
mer
mercedes
mercury
mereti
meri
merilin
merkezi
merkuri
merr
mersin
mes
mesaj
mesi
mesopotamiya
messi
messier
met
meta
metacritic
metafizika
metal
metaldan
metallar
metalların
metallurgiya
metalın
metan
metaseiulus
mete
meteorologiya
meteoroloji
method
methods
metil
metin
metod
metodik
metodikası
metodiki
metodist
metodlar
metodları
metodların
metodlarının
metodoloji
metodu
metr
metrdir
metrdən
metrlik
metro
metropolitan
metropoliten
metropoliteni
metrə
mett
metyu
mexanik
mexanika
mexanikası
mexaniki
mexanikləs
mexanizm
mexanizmi
mexanizmini
mexanizminin
mexanizmləri
mexico
mey
meyci
meydan
meydana
meydanc
meydanda
meydanı
meydanın
meydanına
meydanında
meydanından
meydanının
meyer
meyerius
meyi
meyil
meyilli
meyl
meyli
meylli
meymun
meyvə
meyvəc
meyvələr
meyvələri
meyvələrin
meyvənin
meyvəsi
meyxana
mez
mfa
mg
mhuriyyət
mhuriyyəti
mhuriyyətin
mhuriyyətinin
mi
mia
mic
michael
michel
michigan
miconia
micron
microsoft
mid
middle
midi
midini
midiya
midsiz
midt
mie
mif
mifik
mifologiya
mifologiyası
mifologiyasında
mifoloji
mig
migel
migration
mik
mikania
mikayıl
mikayılov
mike
mikelancelo
mikelancelonun
mikoniya
mikro
mikroskopik
mil
milad
miladdan
miladi
milan
milanda
milc
miles
mili
milis
military
milky
mill
millennium
miller
milli
milliləs
millinin
million
millisi
millisində
millisinin
millisinə
milliyet
milliyyətc
milliyyətcə
milliyətc
milliyətcə
millət
millətc
milləti
millətin
millətinin
millətlər
millətlərarası
millətləri
millətlərin
millətlərə
millətə
milos
milton
milyard
milyon
milyona
milyonc
milyondan
milyonlarla
milyonu
mim
min
mina
minaatan
minanın
minarə
minarəsi
minbas
minchin
mind
mindi
mindən
mine
mineral
minerallar
mineralları
minerallas
mineralogiya
mineralın
mingəc
mini
miniatu
minib
minik
minillik
minillikdə
minilliyin
minilliyə
minimal
minimum
minimuma
minin
minir
ministe
minister
ministry
minium
minlik
minlər
minlərin
minlərlə
minlərə
minmis
minnesota
minnətdarlıq
minor
minorities
minority
minorsky
minsk
minutes
minvalla
minə
miq
miqdar
miqdarda
miqdarı
miqdarına
miqdarında
miqdarını
miqdarının
miqrasiya
miqrasiyası
miqyas
miqyasda
miqyaslı
miqyası
miqyasında
mir
miranda
miras
mirası
mirbəs
miri
miris
mirqasımov
mirror
mirvari
mirz
mirza
mirzə
mirzəni
mirzənin
mirzəyev
mirzəyeva
mirzəyevin
mirzəyə
mirzəzadə
mirəli
mis
misal
misilsiz
misir
misirdə
misirdəki
misirdən
misiri
misirin
misirli
misirlilər
misirə
miskin
misli
miss
missile
missing
mission
missioner
missiya
missiyası
missiyasını
missiyasının
missuri
mister
mistik
mit
mitc
mitchell
mites
mitinq
mitronova
mix
mixail
mixaylovic
mixi
miyanə
miyy
miədzin
mk
mki
mkm
mku
ml
mlf
mln
mlrd
mlu
mlə
mlədə
mlədən
mlələr
mlənin
mlər
mləri
mləsi
mm
mma
mmc
mmu
mmət
mn
mnras
mo
mobil
mobile
moc
mod
moda
mode
model
modeli
modelin
modeling
modelini
modelinin
modelinə
modellər
modelləri
modelləs
models
modern
modernləs
modifikasiya
modul
module
modulu
mog
mohammad
moi
moir
moisey
mojo
mol
moldenke
moldova
moldovanın
molecular
molekul
molekullar
molekulları
molekulların
molekulyar
molibden
molla
mollalar
molotov
moment
mon
mona
monaco
monako
monardella
monarx
monarxiya
monastır
monastırı
monastırın
monastırında
monastırının
monde
monetary
money
mongol
monika
monitor
monitoring
monitorinq
monitorinqi
monkeys
mono
monoqrafiya
monoqrafiyanın
monoqrafiyası
monqol
monqolca
monqollar
monqolların
monqolustan
monqolustanda
monqolustanın
monreal
monro
montaj
montana
monte
monteneqro
monteneqronun
monthly
monument
monumental
monuments
moon
moore
mor
moraes
mordellistena
more
morfologiya
morfoloji
morgan
moris
morning
morqan
morris
morrison
mort
mortal
morton
moruq
mos
moscow
moskva
moskvada
moskvadakı
moskvadan
moskvanın
moskvaya
mosque
most
mosul
mother
motion
motivasiya
motivi
motivlər
motivləri
motoatıcı
motor
motorlu
motors
motsart
motsartın
mount
mountain
mountains
mov
move
movement
movie
movies
mozaika
mozalan
mozambik
mozart
mp
mparatorlug
mperator
mperatorlug
mperatoru
mperatric
mperiya
mperiyanın
mperiyası
mperiyasına
mperiyasında
mperiyasının
mq
mr
mran
mru
mrə
mrəli
mrələri
mrəsi
mrəsində
mrəsinin
ms
msk
mssr
msu
mt
mta
mtahan
mtaz
mtu
mtv
mu
much
muell
mug
muhammad
muhammed
muhəmməd
multi
multidissiplinar
multikulturalizm
multimedia
mum
muma
mumbəs
mumdu
mumi
mumilikdə
mumiləs
mumittifaq
mumiyyətlə
mummilli
mumrusiya
mumtəhsil
mumxalq
mumən
mun
municipal
municipios
munzinger
munə
munədir
munələr
munələri
munələrindən
munələrini
munələrinin
munələrinə
munəsi
munəsidir
munəsinə
munəvi
mur
murad
muradov
muradova
muradın
murat
murdar
murder
murov
murovdag
murray
murtuz
murtuza
mus
musa
musanın
musavat
musaya
musayev
musayeva
muse
museum
music
musical
musigi
musiqi
musiqic
musiqidə
musiqili
musiqilər
musiqiləri
musiqini
musiqinin
musiqis
musiqisi
musiqisində
musiqisindən
musiqisini
musiqisinin
musiqisinə
musiqiyə
musk
muslim
muslims
mussolini
musson
must
mustafa
mustafanın
mustafayev
mustafayeva
mustafayevin
mustafazadə
musəvi
mutant
muxtar
muxtariyyət
muxtarov
muzdlu
muzey
muzeydə
muzeyi
muzeyin
muzeyində
muzeyinin
muzeyinə
muzeylər
muzeyləri
muzeyə
mvt
my
myanma
mystery
myth
mı
mır
mırdı
mıs
mə
məbləg
məbəd
məbəddə
məbədi
məbədin
məbədində
məbədinin
məbədinə
məbədlər
məbədləri
məbədə
məc
məcazi
məcbur
məcburi
məcburiyyətində
məcid
məcidov
məclis
məclisdə
məclisi
məclisin
məclisində
məclisinin
məclisinə
məclislərdə
məclisləri
məclislərində
məclisə
məcmu
məcmusu
məcmuə
məcmuəsi
məcnun
məcnunun
məcəllənin
məcəlləsi
məcəlləsinin
mədh
mədi
mədinə
mədinədə
mədinəyə
mədir
mədrəsə
mədrəsədə
mədrəsəsi
mədrəsəsində
mədə
mədəaltı
mədəd
mədən
mədənc
mədəni
mədənin
mədəniyyət
mədəniyyəti
mədəniyyətin
mədəniyyətində
mədəniyyətini
mədəniyyətinin
mədəniyyətinə
mədəniyyətlər
mədəniyyətlərarası
mədəniyyətləri
mədəniyyətlərin
mədəniyyətə
mədənləri
mədənlərində
mədət
mədətov
məftun
məg
məgər
məharətlə
məhbus
məhbusların
məhbusu
məhdud
məhduddur
məhdudiyyət
məhdudiyyətlər
məhdudlas
məhkum
məhkəmə
məhkəmədə
məhkəmələr
məhkəmələri
məhkəmənin
məhkəməsi
məhkəməsində
məhkəməsinin
məhkəməsinə
məhkəməyə
məhlul
məhlulu
məhməd
məhrum
məhs
məhsul
məhsuldar
məhsuldarlıg
məhsuldarlıq
məhsullar
məhsulları
məhsulların
məhsullarına
məhsullarından
məhsullarını
məhsullarının
məhsulu
məhsuludur
məhsulun
məhsulunun
məhsəti
məhv
məhz
məhəbbət
məhəbbəti
məhəbbətin
məhəbbətini
məhəbbətlə
məhəl
məhəlli
məhəllə
məhəllədə
məhəllələri
məhəllənin
məhəlləsi
məhəlləsində
məhəlləsinin
məhəmməd
məhəmmədhu
məhəmmədhəsən
məhəmmədi
məhəmmədin
məhəmmədov
məhəmmədqulu
məhəmmədə
məhəmmədəli
məhərrəm
məhərrəmov
məis
mək
məkan
məkana
məkanda
məkanı
məkanın
məkanında
məkc
məkdə
məkdədir
məkdən
məkkə
məkkədə
məkkəyə
məklik
məkliyi
məklə
məktub
məktubda
məktubla
məktublar
məktubları
məktublas
məktubu
məktubun
məktubunda
məktubunu
məktəb
məktəbdə
məktəbdən
məktəbi
məktəbin
məktəbində
məktəbindən
məktəbini
məktəbinin
məktəbinə
məktəbli
məktəblilərin
məktəblər
məktəblərdə
məktəbləri
məktəblərin
məktəblərində
məktəblərindən
məktəblərinin
məktəblərə
məktəbə
məktəbəqədər
məlahət
məlhəm
məli
məlidir
məlik
məlikov
məlikova
məliks
məlikzadə
məlum
məlumat
məlumata
məlumatda
məlumatlar
məlumatlara
məlumatlardan
məlumatları
məlumatların
məlumatlarına
məlumatlarını
məlumatlarının
məlumatı
məlumatın
məlumatına
məlumdur
mələk
mələklər
mələklərin
mələr
mələrdə
mələrdən
mələri
mələrin
mələrində
mələrini
mələrinin
mələrinə
mələrə
mələyi
məmis
məmlu
məmməd
məmmədag
məmmədhu
məmmədhəsən
məmmədli
məmmədov
məmmədova
məmmədovun
məmmədquluzadə
məmmədquluzadənin
məmmədrza
məmmədxanlı
məmmədyarov
məmmədzadə
məmmədəli
məmmədəliyev
məmnun
məmulatlar
məmulatları
məmulatı
məmur
məmurlar
məmurları
məmurlarının
məmuru
məməli
məməlilər
məməsi
mən
məna
mənada
mənalar
mənaları
mənalarında
mənalarını
mənalı
mənası
mənasına
mənasında
mənasındadır
mənasını
mənasız
mənbə
mənbədə
mənbədən
mənbələr
mənbələrdə
mənbələrdən
mənbələri
mənbələrin
mənbələrində
mənbələrindən
mənbələrinin
mənbələrinə
mənbələrə
mənbəyi
mənbəyidir
mənbəyindən
mənbəyini
mənbəyinə
mənbəyə
mənc
məncə
məndə
məndən
mənfi
mənfəət
məni
mənim
mənimlə
mənimsəmis
mənimsənilməsi
mənin
məninin
mənlə
mənlər
mənləri
mənlərin
mənlərini
mənlərinə
məns
mənsub
mənsubdur
mənsubiyyət
mənsubiyyəti
mənsur
mənsəbində
məntiq
məntiqi
məntəqə
məntəqələri
məntəqələrində
məntəqələrindən
məntəqələrini
məntəqələrinin
məntəqələrinə
məntəqəsi
məntəqəsində
məntəqəsini
məntəqəsinin
məntəqəsinə
mənuc
mənzil
mənzildə
mənzili
mənzilli
mənzilə
mənzum
mənzərə
mənzərəli
mənzərələri
mənzərəsi
mənzərəsini
mənə
mənəm
mənəvi
mənəviyyat
məqalə
məqalədə
məqalələr
məqalələri
məqalələrin
məqalələrlə
məqaləni
məqalənin
məqaləsi
məqaləsində
məqam
məqamda
məqamlar
məqamları
məqamı
məqbul
məqbərə
məqbərəsi
məqsəd
məqsədi
məqsədilə
məqsədini
məqsədinə
məqsədiylə
məqsədli
məqsədlə
məqsədlər
məqsədləri
məqsədlərinə
məqsədlərlə
məqsədlərə
məqsədyo
məqsədə
məqsədəuyg
mər
mərakes
mərasim
mərasimdə
mərasimi
mərasimində
mərasiminin
mərasiminə
mərasimlə
mərasimlər
mərasimləri
mərasimlərində
mərcan
mərd
mərdan
mərdanov
mərdlik
mərdliyin
mərdəkan
mərhum
mərhumun
mərhələ
mərhələdə
mərhələdən
mərhələli
mərhələləri
mərhələlərində
mərhələni
mərhələnin
mərhələsi
mərhələsində
mərhələsindən
mərhələsini
mərhələsinin
mərhələsinə
mərhələyə
mərhəmət
mərhəmətli
mərifət
mərin
mərkəz
mərkəzdə
mərkəzdən
mərkəzi
mərkəzidir
mərkəzin
mərkəzində
mərkəzindəki
mərkəzindən
mərkəzini
mərkəzinin
mərkəzinə
mərkəzli
mərkəzlər
mərkəzləri
mərkəzlərində
mərkəzlərindən
mərkəzlərinin
mərkəzləs
mərkəzə
mərmi
mərmər
mərmərdən
mərmərə
mərsinkimilər
mərtəbə
mərtəbədə
mərtəbədən
mərtəbəli
mərtəbənin
mərtəbəsi
mərtəbəsində
mərtəbəsinə
məruz
məruzə
məruzəc
məruzələr
məruzələri
məruzələrlə
mərvan
məryəm
məryəmin
mərə
mərənd
məs
məsafə
məsafədə
məsafədən
məsafəli
məsafələr
məsafəni
məsafəsi
məsafəyə
məscid
məsciddə
məscidi
məscidin
məscidində
məscidinin
məscidlər
məscidləri
məscidlərin
məscidə
məsh
məsi
məsidir
məsih
məsihin
məsin
məsində
məsindən
məsini
məsinin
məsinə
məskunlas
məskən
məskəni
məskənləri
məsləhət
məsləhətc
məsləhətdir
məsləhəti
məsləhətlər
məsləhətləs
məst
məstəli
məsud
məsudi
məsul
məsuliyyət
məsuliyyəti
məsuliyyətini
məsuliyyətinə
məsuliyyətli
məsum
məsəl
məsələ
məsələdir
məsələdə
məsələlər
məsələlərdə
məsələlərdən
məsələləri
məsələlərin
məsələlərində
məsələlərini
məsələlərinin
məsələlərinə
məsələlərlə
məsələlərə
məsələn
məsələni
məsələnin
məsələsi
məsələsində
məsələsini
məsələsinin
məsələsinə
məsələyə
mət
mətanət
mətbu
mətbuat
mətbuata
mətbuatda
mətbuatı
mətbuatın
mətbuatında
mətbuatının
mətbəx
mətbəxi
mətbəxində
mətbəxinin
mətbəxinə
mətbəə
mətbəəsi
mətbəəsində
məti
mətin
mətləb
mətn
mətndə
mətni
mətnin
mətnində
mətnini
mətninin
mətnlər
mətnləri
mətnlərin
məxfi
məxluq
məxsus
məxsusdur
məxsusi
məyi
məyib
məyilə
məyin
məyinə
məyus
məyə
məyən
məz
məzahir
məzar
məzarları
məzarlıg
məzarı
məzarının
məzhəb
məzhəbi
məzhəbinin
məzhəbinə
məzlum
məzmun
məzmunda
məzmunlu
məzmunu
məzmununa
məzmununu
məzrə
məzun
məzunları
məzunu
məzunudur
məzəli
məzəmmət
n
na
nab
nabat
nac
nach
nacional
nad
nadan
nadanlıq
nadejda
nadir
nadirin
nafta
naftalan
nag
nagorno
nah
naha
nahaq
nahar
nahid
nahiyə
nahiyəsi
nahiyəsində
nahiyəsinin
nahkar
nahları
nahsız
nahı
nahını
naib
naibi
naibə
nail
nailiyyət
nailiyyətlər
nailiyyətləri
nailiyyətlərinə
nailiyyətlərə
nailə
nak
nakai
nakam
naklar
naksu
nal
nalayiq
nalc
nalə
nam
namaz
namazov
namazı
name
named
names
naminə
namiq
namizəd
namizədi
namizədlik
namizədliyi
namizədliyini
namizədlər
namizədlərin
namus
namuslu
namə
naməlum
namələr
namərd
nan
nana
nanc
nancy
nankin
nano
nanə
naoko
napoleon
napoleonun
napoli
naq
naqis
nar
nara
narahat
narahatc
narahatlıg
narahatlıq
narazı
narazılıg
narazılıq
narcissus
nardaran
narita
narkotik
narod
narın
narıncı
nas
nasa
nasib
nasibət
nasibətdə
nasibəti
nasibətilə
nasibətini
nasibətlə
nasibətlər
nasibətlərdə
nasibətləri
nasibətlərin
nasibətlərində
nasibətlərini
nasibətlərinin
nasibətlərinə
nasibətlərə
nasional
nasir
nasiri
nasirəddin
nasist
nasistlər
nasistlərin
naslar
naslıg
naslıq
naslıqda
nasos
nası
nasıl
nat
natali
natalie
nataliya
natalya
natamam
natas
nation
national
nationalbibliothek
nationale
nationalism
nations
natiq
natiqlik
native
nato
natrium
natu
natural
naturales
naturalist
nature
natəvan
natəvanın
nausithoe
naval
naver
naviqasiya
naxc
naxos
naxırc
naxıs
nay
naya
naz
nazarbayev
nazi
nazik
nazil
nazim
nazir
naziri
nazirin
nazirinin
nazirlik
nazirliyi
nazirliyin
nazirliyində
nazirliyinin
nazirliyinə
nazirlər
nazirləri
nazlı
nb
nba
nbc
nbit
nbu
nbəz
nbəzi
nbəzin
nbəzli
nbəzlə
nc
ncdən
nchen
nci
ncil
ncili
ncu
ncə
ncədən
ncəki
ncəli
ncələr
ncələri
ncələrini
ncənin
ncəsi
ncəsənət
ncəyə
nd
nda
ndan
ndar
nde
ndekslər
ndez
ndi
ndiana
ndiki
ndiyə
ndiyədək
ndog
ndoneziya
ndoneziyada
ndoneziyanın
ndu
ndə
ndədir
ndəki
ndəlik
ndəliyi
ndələn
ndəmə
ndən
ndəndir
ndər
ndərdi
ndərdik
ndərdilər
ndərdiyi
ndərib
ndərildi
ndərilib
ndərilir
ndərilmis
ndərilməsi
ndərilməsini
ndərilən
ndərir
ndərirlər
ndəris
ndərmis
ndərmək
ndərməyə
ndərsin
ndərə
ndərən
ndərərək
ne
neapol
near
nearby
nebraska
nec
necdet
nectandra
necə
ned
need
nees
neft
neftayırma
neftc
nefti
neftin
neftinin
neftlə
nehrəm
neil
nek
nekropol
nekropolu
nel
nelson
nemi
nemət
nen
nenes
nensi
neo
neobisium
neoklassik
neolit
neoseiulella
neoseiulus
nepal
nepeta
neptun
neptunun
neqativ
ner
nes
nesom
net
netflix
netherlands
network
networks
neue
nevada
never
nevs
nevski
new
newman
news
newspaper
newton
next
ney
neyron
neytral
neytrallas
neytron
nez
nf
nformasiya
nformatika
ng
ngc
ngilis
ngiliscə
ngilislər
ngilislərin
ngiltərə
ngiltərədə
ngiltərədən
ngiltərənin
ngiltərəyə
ngo
ngu
nh
nhan
nhen
nhendə
ni
nibles
nic
nicat
nicholas
nick
nickelodeon
nicolas
nid
nida
niderland
niderlandın
nielsen
nifrət
nig
nigah
nigahdan
nigar
niger
nigeriya
night
nijni
nik
nikah
nikahdan
nikaraqua
nikel
niki
nikita
niko
nikol
nikola
nikolas
nikolay
nikolayevic
nikolayın
nikov
nil
nils
nim
nin
nina
nine
nineteenth
nino
nintendo
ninth
nir
nis
nisan
nisbi
nisbilik
nisbət
nisbətdə
nisbəti
nisbətində
nisbətən
nisə
nitq
nitqi
nitqin
nitqində
nitrat
nitsa
nitss
niversitesi
niy
niyaz
niyazi
niyy
niyyət
niyyəti
niyyətində
niyyətini
niyə
niz
nizam
nizama
nizami
nizaminin
nizamlı
nizamnamə
nizamnaməsi
nizamsız
nizamu
nizamı
nizə
nj
nk
nki
nkis
nkpi
nku
nkvd
nl
nlu
nlə
nlər
nlərdə
nlərdən
nləri
nlərin
nlərində
nlərindən
nlərini
nlərinin
nlərinə
nlərə
nm
nme
nmhh
nmu
nmə
nmədən
nmək
nməmis
nməsi
nməsini
nməsinə
nməyə
nməyən
nməz
nn
nna
nndb
nni
nnovasiya
nnu
nnə
nnən
nnət
no
nobel
nobelprize
noel
nofəl
nog
noise
nokia
nolan
nom
nomenclature
nominal
nominasiya
nominasiyası
nominasiyasında
nominations
nominees
non
noqay
nor
noras
nord
norma
normal
normaları
normalarına
normallas
norman
normandiya
normativ
norris
norske
norta
nortadan
north
northern
norton
norv
norvec
norway
norwegian
nos
not
nota
note
notes
notr
nov
nova
novel
november
novo
novosibirsk
novosti
novqorod
novruz
novruzlu
novruzov
novxanı
now
noxud
noy
noyabr
noyabrda
noyabrın
noyabrında
noyabrından
np
npm
nqa
nqilab
nqilabc
nqilabi
nqilabı
nqus
nr
nra
ns
nsan
nsanlar
nsanlara
nsanları
nsanların
nsanı
nsanın
nsif
nsiflər
nsiyyət
nsiyyətdə
nstitunun
nstitut
nstitutda
nstitutu
nstitutun
nstitutuna
nstitutunda
nstitutundan
nstitutunu
nstitutunun
nsu
nsə
nt
ntellektual
nter
nternational
nternet
nternetdə
ntibah
ntiqam
ntu
ntv
ntəzəm
nu
nuclear
nuclei
nuh
nuhun
nuklein
number
numbers
numerum
nun
nunun
nur
nuri
nuriyev
nurlan
nurlar
nurlu
nursultan
nuru
nurəddin
nus
nuts
nutt
nuxa
nv
nvan
nvanı
nvanına
nvanında
nvanını
nvestisiya
ny
nya
nyaca
nyada
nyadakı
nyadan
nyadov
nyadzadə
nyago
nyam
nyanı
nyanın
nyası
nyasına
nyasında
nyasını
nyasının
nyatov
nyaya
nyc
nyilvantartasa
nyman
nytimes
nyu
nyuton
nyəvi
nz
nzibatc
nzibati
nı
nın
nə
nəbatat
nəbati
nəbaxan
nəbi
nəbiyev
nəcib
nəcməddin
nəcəf
nəcəfov
nəcəfqulu
nəcəfzadə
nəcək
nədi
nədir
nədək
nədən
nədənsə
nəf
nəfis
nəfs
nəfsi
nəfər
nəfərdir
nəfərdən
nəfəri
nəfərin
nəfərini
nəfərlik
nəfərlə
nəfərə
nəfəs
nəfəsi
nəfəsli
nəg
nəhayət
nəhəng
nəinki
nəldi
nəldilmis
nəldir
nəlir
nəlmis
nəltdi
nələn
nələr
nəm
nəmdə
nəmi
nəmin
nəmində
nəmli
nəməxsus
nəməxsuslug
nən
nəndə
nənlər
nənə
nənəsi
nəql
nəqli
nəqliyyat
nəqliyyatı
nəqliyyatın
nəqliyyatının
nəqqas
nəqs
nər
nərgiz
nəriman
nərimanov
nərimanovun
nərkən
nərmin
nərə
nərək
nəs
nəsib
nəsibov
nəsibə
nəsihət
nəsil
nəsildən
nəsillər
nəsilləri
nəsillərin
nəsillərə
nəsimi
nəsiminin
nəsir
nəsirov
nəsirəddin
nəsli
nəslin
nəslindən
nəslindəndir
nəslini
nəslinin
nəslinə
nəslə
nəsr
nəsrulla
nəsrəddin
nəsə
nəticə
nəticədə
nəticələndi
nəticələnir
nəticələnmis
nəticələnə
nəticələnən
nəticələr
nəticələri
nəticələrin
nəticələrindən
nəticələrini
nəticələrinin
nəticələrinə
nəticələrə
nəticəni
nəticəsi
nəticəsidir
nəticəsində
nəticəsini
nəticəsinə
nəticəsiz
nəticəyə
nəvai
nəvazis
nəvvab
nəvvər
nəvələri
nəvəsi
nəvəsidir
nəyi
nəyin
nəyə
nəzakət
nəzakətli
nəzarət
nəzarətc
nəzarətdə
nəzarəti
nəzarətin
nəzarətində
nəzarətini
nəzarətinə
nəzarətə
nəzdində
nəzdindəki
nəzir
nəzirli
nəzm
nəzər
nəzərdə
nəzərdən
nəzəri
nəzərində
nəzərindən
nəzəriyyə
nəzəriyyəc
nəzəriyyələr
nəzəriyyələri
nəzəriyyənin
nəzəriyyəsi
nəzəriyyəsində
nəzəriyyəsini
nəzəriyyəsinin
nəzəriyyəsinə
nəzəriyyəyə
nəzərli
nəzərov
nəzərə
nəzərəc
nəzərən
o
oann
ob
oba
obama
oban
obanlar
obanı
obanın
obası
obituary
objects
obraz
obrazlar
obrazları
obrazların
obrazlarını
obrazlı
obrazı
obrazın
obrazında
obrazını
obrazının
observations
observer
obyekt
obyekti
obyektin
obyektinə
obyektiv
obyektlər
obyektləri
obyektlərin
obyektlərinin
obyektlərə
oc
ocag
ocak
ocaq
ocaqları
occidentalis
occupation
ocean
ocl
oclc
ocotea
oct
october
octobre
od
oda
odda
oddan
oder
odessa
odlar
odlu
odu
odun
oduna
oduncag
odur
oecd
of
off
office
official
officielle
officinalis
oficial
ofis
ofisi
ofisində
og
oglu
ographique
oh
ohan
ohann
ohannın
ohayo
ohio
oil
ois
ok
oka
okean
okeana
okeanda
okeaniya
okeanı
okeanın
okeanına
okeanında
okeanının
okinava
oklahoma
okolad
oks
oksford
oksid
oksidləs
oksigen
oksigenin
oksitan
oktay
oktmo
oktyabr
oktyabrda
oktyabrın
oktyabrında
oktyabrından
ol
ola
olacag
olacaq
olacaqdı
olacaqdır
olacaqlar
olacaqsan
olacaqsınız
olam
olan
olana
olanda
olandan
olanlar
olanlara
olanlardan
olanları
olanların
olanı
olanın
olaq
olar
olarak
olaraq
olardı
olarkən
olarlar
olarmı
olarsa
olarsan
olasan
olaydı
olaylar
old
oldu
oldug
oldular
oldum
oldun
olduq
olduqca
olduqda
olduqdan
olduqları
olduqlarına
olduqlarından
olduqlarını
oldur
oldı
olearia
oleq
olimpiada
olimpiadasında
olimpiadasını
olimpiadasının
olimpik
olimpiya
oliv
oliveira
oliver
ollar
olma
olmadan
olmadı
olmadıg
olmadıqda
olmag
olmaları
olmalarına
olmalı
olmalıdır
olmalıdırlar
olmamalıdır
olmamaq
olmaması
olmamasıdır
olmamasına
olmamasını
olmamıs
olmaq
olmaqda
olmaqdan
olmaqdır
olmaqla
olmasa
olmasaydı
olması
olmasıdır
olmasın
olmasına
olmasında
olmasından
olmasını
olmasının
olmaya
olmayacag
olmayacaq
olmayacaqdır
olmayan
olmayanda
olmayanlar
olmayaraq
olmayıb
olmayın
olmaz
olmazdı
olmazsa
olmur
olmurdu
olmus
olqa
olsa
olsada
olsalar
olsam
olsan
olsaydı
olsun
olsunlar
olu
olub
olubdur
olublar
olum
olun
oluna
olunacag
olunacaq
olunacaqdır
olunan
olunana
olunandan
olunanlar
olunaraq
olunarkən
olunca
olundu
olundug
olundular
olunduqda
olunduqdan
olunma
olunmadı
olunmadıg
olunmag
olunmalı
olunmalıdır
olunmamıs
olunmaq
olunmaqdadır
olunmaqla
olunması
olunmasıdır
olunmasına
olunmasında
olunmasından
olunmasını
olunmasının
olunmayan
olunmayıb
olunmaz
olunmur
olunmus
olunsa
olunsun
olunub
olunur
olunurdu
olunurdular
olunurlar
olur
olurdu
olurdular
olurlar
olursa
olursan
oluruq
olus
olympedia
olympic
olympics
om
oman
omar
omega
omnium
omsk
on
ona
once
onda
ondadır
ondan
one
ongu
onkologiya
onlar
onlara
onlarca
onlarda
onlardan
onlarla
onları
onların
onlayn
online
onluq
only
onore
onsuz
ontario
ontology
onu
onun
onuncu
onunda
onunla
onurg
op
opc
open
openhauer
opening
opens
opera
operanın
operası
operasında
operasının
operation
operations
operativ
operator
operatorlar
operatorname
operators
operatoru
operetta
optical
optically
optik
optika
optimal
optimallas
optimization
options
oq
oqtay
or
ora
orada
oradakı
oradan
oral
oran
orange
oranı
oranın
oraq
oraya
orba
orbası
orbit
orbital
orbitə
orconikidze
orda
ordan
ordaniya
orden
ordeni
ordenin
ordeninin
ordeninə
ordenli
ordenləri
order
orders
ordu
ordubad
ordubadi
ordubadinin
orduda
ordudan
ordular
orduları
ordularının
ordunu
ordunun
ordusu
ordusuna
ordusunda
ordusundan
ordusunu
ordusunun
orduya
orenburq
orfoqrafiya
org
organization
orhan
oricon
orient
oriental
orientalis
origin
original
origins
orijinal
orijinalından
orkestr
orkestri
orkestrin
orkestrinin
orlando
orlov
orlu
ornament
orqan
orqanizm
orqanizmdə
orqanizmi
orqanizmin
orqanizmində
orqanizmlər
orqanizmlərin
orqanizmə
orqanlar
orqanları
orqanların
orqanlarına
orqanlarında
orqanlarından
orqanlarının
orqanı
orqanıdır
orqanın
orqanına
orqanının
orta
ortada
ortadan
ortag
ortalama
ortaları
ortalarına
ortalarında
ortalarından
ortalıg
ortancıl
ortaq
ortası
ortasına
ortasında
ortasından
ortaya
ortodoks
oruc
orucov
orucu
orxan
orxon
os
osaka
oscar
oscillation
oset
osetin
osetiya
osetiyanın
osif
oskar
oslo
osm
osma
osman
osmani
osmanlı
osmanlılar
osmanlılara
osmanlıların
osmanlının
osmanlıya
osmanov
osmanın
osse
ost
ostanı
ostanında
ostanının
ostin
ot
ota
otag
otaq
otaqda
otaqdan
otaqlar
otaqları
otaqların
otel
oteli
otello
other
others
othonna
otland
otlandiya
otlandiyada
otlandiyanın
otlaq
otlaqları
otlar
otrs
otto
ottobre
ottoman
otu
otur
oturacag
oturacaq
oturan
oturaq
oturdu
oturdug
oturmaq
oturmus
oturub
oturur
otuz
ou
ounun
oup
our
ousu
ousunda
out
outline
ov
ova
oval
ovalıg
ovc
ovdar
over
overn
overview
ovg
ovu
ovuc
ovun
owen
own
ox
oxalis
oxalma
oxalması
oxalır
oxatan
oxatma
oxc
oxdan
oxdu
oxdur
oxford
oxillik
oxları
oxlu
oxlug
oxluq
oxmillətli
oxot
oxs
oxsaylı
oxtərəfli
oxu
oxucu
oxucular
oxuculara
oxucuların
oxucuya
oxudu
oxudug
oxuduqdan
oxuma
oxumag
oxumaq
oxumus
oxun
oxuna
oxunan
oxunda
oxunması
oxunu
oxunun
oxunur
oxunus
oxuya
oxuyan
oxuyanda
oxuyaraq
oxuyarkən
oxuyub
oxuyur
oxuyurdu
oxuyurlar
oy
oyadır
oyan
oyanır
oyanıs
oyk
oykonim
oykonimi
oykonimin
oyma
oymag
oymaq
oynadı
oynadıg
oynamag
oynamaq
oynamıs
oynanılan
oynaq
oynaya
oynayan
oynayıb
oynayır
oynayırdı
oynayırlar
oyun
oyuna
oyunc
oyuncaq
oyunda
oyundan
oyunlar
oyunlarda
oyunları
oyunların
oyunlarına
oyunlarında
oyunlarından
oyunlarını
oyunlarının
oyunu
oyunudur
oyunun
oyununa
oyununda
oyununu
oyununun
oz
ozan
ozon
p
pa
pablo
pac
pacific
package
pad
padar
padis
pads
pafiopedilum
page
pages
pahre
painting
pairs
pak
paket
paketi
pakistan
pakistanda
pakistanın
paktı
palace
palata
palatanın
palatası
palatasında
palatasının
palc
paleolit
palestine
palgrave
palicourea
palma
palmer
palmira
paltar
paltarlar
paltarları
paltarlarını
paltarı
paltarın
paltarını
palustris
palıd
pambıg
pambıq
pambıqc
pamela
pamir
pan
panama
panda
pandemiyası
panel
panorama
panther
panthera
panzer
paolo
papa
papag
papanın
papaq
papası
paper
papers
paphiopedilum
papua
par
para
parad
paradise
paradında
paralel
paralimpiya
paralympic
param
parameter
parameters
parametrləri
paraqvay
paras
parazit
parazitlik
parc
parfiya
paris
parisdə
parisdəki
parisdən
parisi
parisin
parisə
park
parka
parkda
parker
parklar
parkları
parks
parkı
parkın
parkında
parkının
parlament
parlamentdə
parlamenti
parlamentin
parlamentində
parlamentinin
parlamentinə
parlamentlərarası
parlamentə
parlaq
parlaqlıg
parliament
pars
parsons
part
partial
partium
partiya
partiyadan
partiyalar
partiyaları
partiyaların
partiyanın
partiyası
partiyasına
partiyasından
partiyasını
partiyasının
partiyaya
partizan
partlaması
partlayıcı
partlayıs
party
parıltı
pas
paskal
paskevic
pasport
pass
passiflora
passiv
past
pasxa
pat
patent
patenti
path
patoloji
patriarxı
patrick
patrik
patrul
paturel
paul
paula
paulo
paulu
pav
pavel
pavelin
pavetta
pavlov
pavlovic
pax
paxlakimilər
paxıllıq
pay
paylanması
paylanmıs
paylas
paytaxt
paytaxta
paytaxtda
paytaxtlar
paytaxtı
paytaxtıdır
paytaxtın
paytaxtında
payı
payına
payını
payız
payızda
payızın
payızında
paz
pb
pbs
pc
pci
pdf
pdu
pe
peace
pearson
pec
pedaqogika
pedaqoji
pedaqoq
pedaqoqu
pedoqoji
pedro
peerage
pek
pekin
pekində
pellegrini
pen
penalti
pendir
penguin
peninsula
penis
penn
pennsylvania
pensilvaniya
pensiya
penstemon
pentacalia
people
peoples
peqas
per
percent
percentage
peres
performance
performans
performansı
periferik
period
perm
perpendikulyar
perri
perrier
perry
pers
persia
persian
person
personaj
personajlar
personajları
personajların
personajlarından
personajı
personajın
personal
personen
perspective
perspectives
perspektiv
perspektivli
perspektivlər
perspektivləri
pertoire
peru
pes
pet
peter
peterburq
peterburqa
peterburqda
peterburqdakı
peterburqun
peterhof
peters
petersburg
petit
petra
petroleum
petrov
petrovic
peyda
peyg
peyk
peyki
peykləri
peyman
peyvənd
pfals
pfk
pfl
pg
ph
phase
phd
phi
phil
philadelphia
philip
philippe
philippines
phillips
philosophical
philosophy
phlomis
phoenix
photinia
photo
photography
photometric
photometry
photos
php
phreatia
phyllanthus
phyllonorycter
phylogeny
phys
physical
physics
physiology
phytoseiidae
phytoseiidbase
phytoseius
pi
piano
pianoc
pic
picture
pictures
pierre
pifaqor
pik
pillə
pillədə
pilləkən
pilləli
pillələrin
pillənin
pilləsi
pilləsində
pilləsini
pilosella
pilot
pilotsuz
pilotu
pink
pinus
pinyin
pioner
pipe
pir
pirallahı
piramida
pirans
pireney
pireneylər
piri
pirin
piriyev
pirs
pis
pisdir
piskunov
pislik
pisliyi
pisləs
pit
piter
pivə
piy
piyada
pkk
pl
place
places
plan
plana
planda
plane
planet
planetar
planetary
planeti
planetin
planetinin
planetlər
planetlərin
planets
planlar
planları
planlarını
planlas
planlı
planning
plans
plant
plantarum
plantas
plants
planı
planın
planına
planında
planını
planının
plastik
plata
platforma
platformaları
platforması
platformasında
platin
plato
platon
platonun
play
player
players
playstation
plaza
plazma
please
plectranthus
pley
plitəsi
plos
plov
plu
plus
plutarx
pm
pmc
pmid
pnas
pno
po
poa
poc
pocket
podpolkovnik
podratc
podzol
poema
poemalar
poemaları
poemanın
poeması
poemasında
poemasını
poemasının
poetik
poetikası
poetry
poeziya
poeziyası
poeziyasında
poeziyasının
point
points
poir
pol
polad
poland
polar
pole
police
policy
polimer
polimerləs
poliqrafiya
polis
polish
polisi
polisin
polisinin
polislər
polisə
politexnik
political
politics
politologiya
politoloq
polkovnik
polkovniki
polo
poloc
pols
poltava
polyak
polyakca
polyaklar
polygon
polygonum
polystachya
pomidor
pompey
pont
poor
pop
pope
popolazione
popov
popular
population
populations
populyar
populyarlas
populyarlıg
populyarlıq
populyasiya
populyasiyanın
por
pors
porsug
porsuq
port
portag
portal
portalı
portalında
porter
porto
portrait
portret
portreti
portretini
portretləri
portu
portugal
portuguese
portuqal
portuqalca
portuqaliya
portuqaliyada
portuqaliyalı
portuqaliyanın
poruc
pospolita
possible
post
postaux
poste
postsovet
postuna
postunu
potensial
potensialı
potensialını
potensialının
potential
potentilla
potter
pour
povest
povesti
power
powers
poza
pozan
pozaraq
pozdug
pozg
pozitiv
pozmaq
pozuldu
pozulması
pozulmasına
pozulmus
pozulur
pozuntusu
pozur
pp
pr
practice
prades
praha
praktik
praktikada
praktiki
praqa
praqada
pravda
pravoslav
pre
predmeti
prefektura
prefekturası
prefekturasının
preload
preloadparams
premier
premiere
premyer
premyerası
present
president
presidential
presl
preslib
press
pretty
preview
prezi
prezident
prezidenti
prezidentidir
prezidentin
prezidentinin
prezidentinə
prezidentlik
prezidentliyi
prezidentliyə
prezidentə
pri
price
prieto
prime
primitiv
prince
princess
princeton
principles
prins
prinsip
prinsipi
prinsipial
prinsipini
prinsipinə
prinsiplər
prinsipləri
prinsiplərini
prinsiplərinin
prinsiplərinə
prinston
print
printing
prioritet
pris
prisa
prisi
prisində
prisinin
private
prix
prize
pro
problem
problemi
problemin
problemini
probleminin
probleminə
problemlər
problemlərdən
problemləri
problemlərin
problemlərindən
problemlərini
problemlərinin
problemlərinə
problemlərlə
problemlərə
problems
problemə
proc
proceedings
process
processes
processing
produ
production
prof
professional
professor
professoru
professorudur
profil
profilaktika
profile
profili
program
programme
progress
proje
project
projects
prokuror
prokurorlug
prokurorluq
prokuroru
proletar
properties
proporsional
proportionem
proprioseiopsis
proqnoz
proqnozlas
proqram
proqrama
proqramc
proqramda
proqramlar
proqramlarda
proqramları
proqramların
proqramlarında
proqramlarını
proqramlarının
proqramlas
proqramı
proqramın
proqramına
proqramında
proqramını
proqramının
proqressiv
prorektor
prorektoru
proses
prosesdir
prosesdə
prosesi
prosesidir
prosesin
prosesində
prosesini
prosesinin
prosesinə
proseslər
proseslərdə
prosesləri
proseslərin
proseslərində
proseslərini
proseslərinin
proseslərə
prosessor
prosessual
prosesə
prospekti
prospektində
protection
protein
protest
protestant
protests
proteyakimilər
proto
protocol
protokol
protokolu
proton
prototip
prototipi
provans
province
provinces
pru
prunus
prussiya
prussiyanın
ps
psixi
psixiatriya
psixologiya
psixologiyası
psixoloji
psixoloq
psixotriya
pskov
psycho
psychology
psychotria
pt
ptolemey
pu
pua
pub
pubescens
public
publication
publications
publika
published
publisher
publishers
publishing
publisist
publisistik
publisistika
puc
pud
puerto
pul
pula
pulemyot
pulemyotu
pulla
pullar
pulları
pulların
pullu
pulsuz
pulu
pulun
pulunu
pus
pusquya
put
putin
px
pyeonchang
pyeongchang
pyer
pyes
pyesi
pyeslər
pyesləri
pyotr
pyotrun
pıc
pə
pəhləvan
pəhləvi
pəhriz
pək
pələng
pəmbək
pənah
pənahəli
pəncab
pəncərə
pəncərədən
pəncərələr
pəncərələri
pəncərəsi
pər
pərakəndə
pərdə
pərdəli
pərdəsi
pəri
pəris
pərsabad
pərvanə
pərvin
pərviz
pərən
pərəstis
pəs
q
qa
qab
qaba
qabad
qabag
qaban
qabaq
qabaqcadan
qabaqcıl
qabaqda
qabarma
qabarıq
qabda
qabil
qabilində
qabiliyyət
qabiliyyəti
qabiliyyətini
qabiliyyətinin
qabiliyyətinə
qabiliyyətli
qablar
qabları
qabların
qablas
qabriel
qabı
qabıg
qabın
qabıq
qabıqlı
qabırg
qac
qacar
qacarlar
qacarın
qadag
qadar
qadir
qadirdir
qadın
qadına
qadından
qadındır
qadınla
qadınlar
qadınlara
qadınlarda
qadınlardan
qadınlarla
qadınları
qadınların
qadınlarının
qadını
qadının
qadınəfəndi
qafan
qafar
qafarov
qafil
qafiyə
qafqaz
qafqaza
qafqazda
qafqazdakı
qafqazdan
qafqazinfo
qafqazı
qafqazın
qag
qahirə
qahirədə
qahirəyə
qaidə
qal
qala
qalac
qalacag
qalacaq
qalacıq
qalada
qaladan
qalaktik
qalaktika
qalaktikadır
qalaktikalar
qalaktikanın
qalalar
qalaları
qalan
qalanlar
qalanları
qalanların
qalanı
qalanın
qalaq
qalar
qalaraq
qaları
qalarına
qalarından
qalarını
qalarının
qalası
qalasına
qalasında
qalasından
qalasını
qalasının
qalatasaray
qalay
qalaya
qaldı
qaldıg
qaldılar
qaldım
qaldıqdan
qaldıra
qaldıran
qaldıraraq
qaldırdı
qaldırdıg
qaldırma
qaldırmag
qaldırmaq
qaldırmıs
qaldırıb
qaldırıldı
qaldırılması
qaldırılmasına
qaldırılmıs
qaldırır
qalereya
qalereyası
qalereyasında
qalib
qalibi
qalibiyyət
qalibləri
qalisiya
qalma
qalmadı
qalmag
qalmamıs
qalmaq
qalmaqal
qalmaqda
qalmaqdadır
qalması
qalmasın
qalmasına
qalmasını
qalmayıb
qalmaz
qalmır
qalmıs
qalsa
qalsın
qalx
qalxa
qalxan
qalxanabənzər
qalxaraq
qalxdı
qalxma
qalxmaq
qalxması
qalxmıs
qalxıb
qalxır
qalıb
qalıcı
qalıg
qalın
qalınlas
qalınlıg
qalıq
qalıqlar
qalıqları
qalıqlarına
qalıqlarını
qalıqlarının
qalır
qalırdı
qalırlar
qam
qamc
qamma
qamıs
qan
qana
qanad
qanadlar
qanadları
qanadlı
qanadı
qanadında
qanaxma
qanda
qandi
qane
qanla
qanlar
qanlı
qanun
qanuna
qanunauyg
qanunda
qanundan
qanuni
qanunla
qanunlar
qanunlara
qanunları
qanunların
qanunlarına
qanunlarını
qanunlarının
qanunsuz
qanunu
qanunun
qanununa
qanununda
qanununu
qanununun
qanunverici
qanunvericilik
qanunvericiliklə
qanunvericiliyi
qanunvericiliyinə
qanunvericiliyə
qanı
qanın
qanına
qanını
qap
qapag
qapalı
qapaq
qapı
qapıc
qapıda
qapıdan
qapılar
qapıları
qapılarını
qapını
qapının
qapısı
qapısına
qapısında
qapısından
qapısını
qapısının
qapıya
qaqauz
qar
qara
qaraag
qarabag
qarabas
qarabulaq
qarac
qaraca
qaraciyər
qaraciyərin
qaradag
qaradır
qaradərili
qarag
qarago
qaragu
qarakilsə
qaralama
qaralar
qaraman
qaramanlı
qaramanog
qaranlıg
qaranlıq
qaranlıqda
qaranqus
qaranın
qarapapaq
qaraqalpaq
qaraqas
qaraqoyunlu
qaraqurd
qaraqus
qaras
qarasu
qaraxanlı
qarayazı
qarayev
qarayevin
qardas
qarg
qari
qarlar
qarların
qarlı
qarnizon
qarnizonu
qarnı
qarov
qarpız
qarqar
qars
qarsiniya
qartal
qartalı
qaryag
qaryagin
qarı
qarın
qarının
qarıs
qarət
qas
qasid
qastrol
qası
qasım
qasımlı
qasımov
qasımova
qasımovun
qasımus
qasımzadə
qasımın
qasına
qasını
qasının
qasırg
qat
qatar
qatarı
qatarın
qatil
qatili
qatı
qatılan
qatılaraq
qatılas
qatıldı
qatıldıg
qatılmaq
qatılmıs
qatılıb
qatılıg
qatılır
qatında
qatının
qatıq
qatıqotu
qatır
qatıs
qavilə
qavilədə
qavilələr
qavilələri
qavilələrin
qaviləni
qavilənin
qaviləsi
qaviləsindən
qaviləsini
qaviləsinin
qaviləsinə
qaviləyə
qavimət
qaviməti
qavimətini
qavimətə
qavrayıs
qax
qay
qaya
qayalar
qayaların
qayalı
qayalıq
qayanın
qayası
qayau
qayc
qayda
qaydada
qaydalar
qaydalara
qaydaları
qaydaların
qaydalarına
qaydalarını
qaydalarının
qaydası
qaydasında
qaydaya
qayg
qayisə
qayisədə
qayisəli
qayisəsi
qaymaq
qaymaqc
qaynag
qaynama
qaynaq
qaynaqlanan
qaynaqlanır
qaynaqlar
qaynaqlarda
qaynaqları
qaynar
qaynayıb
qaytara
qaytardı
qaytarma
qaytarmag
qaytarmaq
qaytarıldı
qaytarılması
qaytarılmıs
qaytarılır
qaytarır
qayıbov
qayıda
qayıdacag
qayıdan
qayıdanda
qayıdandan
qayıdaraq
qayıdarkən
qayıdıb
qayıdır
qayıdırlar
qayıdıs
qayıg
qayıq
qayıs
qayıt
qayıtdı
qayıtdılar
qayıtdıqdan
qayıtmag
qayıtmaq
qayıtması
qayıtmıs
qaz
qazan
qazana
qazanan
qazanaraq
qazanc
qazandı
qazandıg
qazandılar
qazandıqdan
qazandıqları
qazandıran
qazandırdı
qazandırmıs
qazandırır
qazanmag
qazanmaq
qazanması
qazanmıs
qazanıb
qazanılan
qazanılmıs
qazanın
qazanır
qazax
qazaxda
qazaxlar
qazaxıstan
qazaxıstana
qazaxıstanda
qazaxıstanın
qazi
qazlar
qazların
qazlı
qazma
qazyumov
qazı
qazılması
qazılmıs
qazın
qazıntı
qazıntılar
qazıntıları
qazıntıların
qazının
qazısı
qazıyev
qbal
qc
qdansk
qdə
qdən
qedimqala
qeyb
qeybullayev
qeyd
qeydi
qeydiyyat
qeydiyyata
qeydiyyatdan
qeydiyyatı
qeydiyyatına
qeydlər
qeydləri
qeydlərində
qeydə
qeyr
qeyri
qeyrət
qeys
qht
qi
qibleyi
qibtə
qida
qidalanan
qidalanma
qidalanması
qidalanır
qidalanırlar
qidanın
qin
qinə
qiq
qiraət
qis
qisas
qisasc
qisasını
qisim
qism
qismi
qismində
qismini
qisminin
qismən
qismət
qitə
qitələrarası
qitənin
qitəsində
qitəsinin
qiyabi
qiyam
qiyamc
qiyamı
qiyamət
qiyas
qiyasəddin
qiymət
qiyməti
qiymətini
qiymətinin
qiymətinə
qiymətli
qiymətlidir
qiymətləndirildi
qiymətləndirilir
qiymətləndirilmis
qiymətləndirilməsi
qiymətləndirir
qiymətləndirmis
qiymətləndirmə
qiymətləndirmək
qiymətləndirərək
qiymətlər
qiymətləri
qiymətlərin
qiymətlərinin
qiymətlərlə
qiymətə
ql
qlazqo
qlim
qlimi
qlobal
qloballas
qlobus
qlu
qlər
qo
qobu
qobustan
qobustanda
qoc
qoca
qocalar
qocalıq
qocaman
qocanın
qocayev
qohum
qohumları
qohumlarının
qohumlug
qohumluq
qohumu
qol
qola
qolc
qolf
qoll
qolla
qollar
qolları
qolların
qollarından
qollarını
qoltug
qoltuq
qolu
qoludur
qolun
qoluna
qolundan
qolunu
qolunun
qonag
qonaq
qonaqlar
qonaqları
qonaqların
qonc
qondarma
qons
qonur
qoq
qoqol
qor
qorbac
qorc
qordon
qori
qorki
qorqodyan
qorqud
qorudu
qorug
qoruma
qorumag
qorumaq
qorumus
qorunan
qorunma
qorunmaq
qorunması
qorunmasına
qorunmasında
qorunmasını
qorunmus
qorunub
qorunur
qoruq
qoruya
qoruyan
qoruyub
qoruyucu
qoruyucusu
qoruyur
qorxan
qorxaq
qorxaraq
qorxdug
qorxma
qorxmaz
qorxu
qorxub
qorxudan
qorxulu
qorxun
qorxunc
qorxur
qorxuram
qorxusu
qorxusundan
qorxutmaq
qorxuya
qos
qotik
qovanlı
qovaq
qovdu
qovg
qovmaq
qovs
qovub
qovuldu
qovulması
qovulmus
qovur
qovus
qoxu
qoxusu
qoy
qoya
qoyan
qoyar
qoyaraq
qoydu
qoydug
qoydular
qoyma
qoymadı
qoymag
qoymaq
qoymaqla
qoymaz
qoymur
qoymus
qoynunda
qoyub
qoyulan
qoyuldu
qoyuldug
qoyulması
qoyulmus
qoyulub
qoyulur
qoyulurdu
qoyulus
qoyun
qoyunc
qoyunlu
qoyunlular
qoyunu
qoyur
qoyurdu
qoyurlar
qoz
qq
qr
qraf
qrafik
qrafika
qrafikalı
qrafikası
qrafiki
qraflıg
qrafı
qram
qrammatik
qrammatika
qrammatikası
qran
qranada
qrand
qranit
qrant
qravitasiya
qravu
qremmi
qrenlandiya
qrenobl
qrenobldan
qreuter
qrevilleya
qrey
qrim
qrin
qriqor
qriqori
qriqorian
qriqoryan
qrossmeyster
qroznı
qrunt
qrup
qrupa
qrupda
qrupdan
qruplar
qruplara
qruplarda
qruplardan
qruplarla
qrupları
qrupların
qruplarına
qruplarında
qruplarından
qruplarının
qruplas
qrupu
qrupudur
qrupun
qrupuna
qrupunda
qrupundan
qrupunu
qrupunun
qs
qsan
qsc
qteyi
qtisad
qtisadc
qtisadi
qtisadiyyat
qtisadiyyatın
qtə
qtədə
qtədən
qtələr
qtələri
qtəsi
qtəsidir
qtəsində
qtəsini
qtəsinə
qtəyə
qu
qualification
quantum
quarterly
quasars
quba
qubad
qubada
qubadlı
qubadlının
qubernator
qubernatorlug
qubernatoru
quberniya
quberniyası
quberniyasında
quberniyasının
qucag
que
queen
quercus
quest
question
questions
qui
qul
qulac
qulag
qulam
qulanc
qulaq
qulaqları
quldarlıq
quldur
quldurlar
quldurları
quliyev
quliyeva
quliyevin
qullar
qulların
qullug
qulluq
qulluqc
qulu
qulun
quluyev
quluzadə
qum
qumar
qumdas
qumlu
qumuq
qun
quota
quq
quqa
quqi
quqlar
quqlara
quqları
quqların
quqlarına
quqlarını
quqlarının
quqlu
quqs
ququ
ququn
ququna
ququndan
ququnu
ququnun
qur
qura
quran
qurana
quranda
qurani
quranı
quranın
quraq
quraqlıg
quraqlıq
quraraq
quras
qurbag
qurban
qurbangah
qurbani
qurbanlar
qurbanları
qurbanların
qurbanlarının
qurbanlı
qurbanov
qurbanova
qurbanovun
qurbanı
qurbanın
qurbanəli
qurd
qurdlar
qurdu
qurdug
qurdular
qurdun
qureys
qurg
qurlus
qurma
qurmag
qurmaq
qurmus
qurs
qurtar
qurtara
qurtaracag
qurtaran
qurtardı
qurtardıqdan
qurtarmag
qurtarmaq
qurtarmıs
qurtarıb
qurtarır
qurtulmaq
qurtulus
quru
qurub
quruc
qurucu
qurucuları
qurucularından
quruculug
quruculuq
qurucusu
quruda
qurudulmus
qurulan
qurulandan
quruldu
quruldug
qurulduqdan
qurulması
qurulmasına
qurulmasında
qurulmasından
qurulmasını
qurulmasının
qurulmus
qurultay
qurultayda
qurultayı
qurultayın
qurultayında
qurultayının
qurulub
qurulur
qurulus
qurum
quruma
qurumlar
qurumlarla
qurumları
qurumların
qurumlarının
qurumu
qurumun
qurumunun
qurumus
qurur
qururlar
qurus
quruya
quruyur
qus
qusar
qusma
qustav
qut
quta
qutaracag
qutluq
qutqas
qutu
qutundan
qutusu
quyrug
quyruq
quyruqlu
quyu
quyudan
quyuların
quyularının
quyunun
quyusu
quyuya
quzey
quzu
qvardiya
qvardiyac
qvatemala
qvineya
qıc
qıg
qıl
qılan
qıldı
qılman
qılmaq
qılmıs
qılub
qılıb
qılınc
qılıncbalıg
qılıncdan
qılıncla
qılıncı
qılıncını
qın
qınlar
qınları
qınların
qınlıq
qıpc
qır
qırag
qıran
qıraq
qıraraq
qırd
qırdlar
qırdı
qırdıstan
qırdıstanın
qırg
qırmaq
qırmıs
qırmızı
qırmızıdır
qırmızımtıl
qırx
qırxbug
qırıb
qırıcı
qırıldı
qırılma
qırılması
qırılmıs
qırıq
qırıqları
qırır
qırıs
qıs
qısa
qısaca
qısadır
qısaldılmıs
qısametrajlı
qısamu
qısqanclıq
qıtlıg
qız
qıza
qızardılmıs
qızdan
qızdır
qızdırma
qızg
qızla
qızlar
qızlara
qızları
qızların
qızlarından
qızlıq
qızmar
qızı
qızıdır
qızıl
qızıla
qızılag
qızılbas
qızılca
qızıldan
qızılgu
qızılla
qızılqus
qızılı
qızılın
qızım
qızın
qızına
qızını
qızının
qızıs
qə
qəbilə
qəbilələr
qəbilələri
qəbiləsi
qəbiləsindən
qəbiləsinin
qəbir
qəbiristanlıg
qəbiristanlıq
qəbiristanlıqda
qəbirlər
qəbirləri
qəbirlərin
qəbirstanlıg
qəbiru
qəbri
qəbrin
qəbristanlıg
qəbul
qəbulu
qəbələ
qəddar
qəddarlıg
qəddimə
qəddəm
qəddəratını
qəddəs
qəddəslərin
qədim
qədimdir
qədimdə
qədimdən
qədimi
qədimov
qədir
qədirov
qədr
qədrini
qədəh
qədəm
qədər
qədərdir
qədəri
qədərki
qəfil
qəfildən
qəflət
qəflətən
qəfəs
qəhqəhə
qəhrəman
qəhrəmancasına
qəhrəmanlar
qəhrəmanları
qəhrəmanların
qəhrəmanlarından
qəhrəmanlarının
qəhrəmanlıg
qəhrəmanlıq
qəhrəmanov
qəhrəmanova
qəhrəmanı
qəhrəmanın
qəhvə
qəhvəyi
qəlb
qəlbi
qəlbim
qəlbin
qəlbində
qəlbini
qəlbinin
qəlbinə
qəlbə
qələbə
qələbədən
qələbələr
qələbəni
qələbənin
qələbəsi
qələbəsini
qələbəyə
qələm
qələmi
qələmə
qələndər
qələvi
qəm
qəmbər
qəmdən
qəmgin
qəmi
qəmli
qəmər
qəməri
qəmərli
qənaət
qənaətbəxs
qənaətinə
qənaətə
qənbər
qənd
qəndəhar
qəni
qənimət
qəniyev
qənizadə
qəpik
qərar
qərara
qərargah
qərargahı
qərargahın
qərargahına
qərargahında
qərargahının
qərarla
qərarlar
qərarları
qərarların
qərarlarının
qərarlas
qərarı
qərarın
qərarına
qərarını
qərb
qərbdə
qərbdədir
qərbdəki
qərbdən
qərbi
qərbin
qərbində
qərbindəki
qərbindən
qərbə
qərib
qəribə
qərq
qərənfil
qərəz
qərəzli
qəs
qəsd
qəsdc
qəsdi
qəsdən
qəsidə
qəsr
qəsri
qəsrin
qəsrinin
qəssab
qəsəbə
qəsəbədə
qəsəbələri
qəsəbənin
qəsəbəsi
qəsəbəsində
qəsəbəsindəki
qəsəbəsindən
qəsəbəsinin
qəsəbəsinə
qət
qəti
qətiyyən
qətiyyətli
qətiyyətlə
qətl
qətli
qətliam
qətliamı
qətlə
qətnamə
qətran
qətər
qəz
qəza
qəzada
qəzadan
qəzanın
qəzası
qəzasına
qəzasında
qəzasının
qəzaya
qəzet
qəzetdə
qəzeti
qəzetin
qəzetində
qəzetini
qəzetinin
qəzetinə
qəzetlər
qəzetlərdə
qəzetləri
qəzetlərin
qəzetlərində
qəzetlərinin
qəznəvi
qəzvin
qəzvini
qəzzə
qəzəb
qəzəbi
qəzəbinə
qəzəbli
qəzəl
qəzəllər
qəzənfər
r
ra
rab
rabindranat
rabitə
rabitəsi
raboc
rac
race
rachel
raciət
raciəti
rada
radar
radial
radiasiya
radikal
radio
radioaktiv
radioda
radionun
radiosu
radiosunda
radiosunun
radiusu
radı
radə
radələrində
raf
rafael
rafi
rafiq
rafiya
rafiyac
rafiyas
rafiyası
ragnarok
rah
rahat
rahatlıg
rahatlıq
rahatlıqla
rahi
rahib
rahim
rahət
rai
rail
raket
raketi
raketin
raketlər
raketləri
rakli
ral
ralf
ralph
ram
rama
raması
ramazan
ramazanov
ramil
ramin
ramiz
ramıs
ran
rana
rand
randa
randakı
randan
random
range
ranking
rankings
ranla
ranlı
ranmıs
ranobe
ranunculus
ranı
ranın
rapid
raq
raqa
raqda
raqdakı
raqın
rar
ras
rasim
rasional
rassel
rast
rastlas
rat
rate
ratifikasiya
ratings
ration
ratus
ratı
raudeau
rauf
raul
ray
rayan
raymond
rayon
rayona
rayonda
rayonlar
rayonlarda
rayonları
rayonların
rayonlarına
rayonlarında
rayonlarından
rayonlarının
rayonlas
rayonu
rayonun
rayonuna
rayonunda
rayonundakı
rayonundan
rayonunu
rayonunun
rays
rayt
rayıb
rayır
rayıs
razi
razı
razılas
razılıg
razılıq
rb
rbaycan
rbə
rbəcu
rbənin
rbəsi
rbəsinin
rbəsinə
rbət
rbətdə
rc
rchb
rcu
rcək
rd
rdbucaqlı
rddə
rdi
rdir
rdku
rdlu
rdlər
rdlərin
rdu
rdə
rdək
rdəmir
rdən
rdəyi
re
reabilitasiya
read
reader
reading
ready
reaksiya
reaksiyalar
reaksiyaları
reaksiyaların
reaksiyanın
reaksiyası
reaksiyaya
reaktiv
real
realist
reality
realizm
reallas
reallıg
reallıq
rebecca
rebel
rec
recensement
recent
rech
recognition
record
recording
records
red
redaksiya
redaksiyası
redaksiyasında
redaksiyasının
redaktor
redaktorları
redaktorlug
redaktoru
redaktorudur
redaktorun
redaktə
redaktəsi
redshift
redtaxlink
reduksiya
redundant
reeder
ref
reference
referendum
reflektor
reform
refraktor
refugees
regel
region
regiona
regional
regionda
regioni
regionlarda
regionlarında
regions
regionu
regionun
regionunda
regionunun
register
rehder
reich
reign
rej
rejected
rejim
rejimdə
rejimi
rejimin
rejimində
rejimini
rejiminin
rejiminə
rejissor
rejissorlar
rejissorlug
rejissorluq
rejissoru
rejissorun
rek
reklam
rekord
rekordlar
rekordu
rekordunu
rektor
rektoru
relatas
related
relation
relations
relationship
release
releases
religion
religions
religious
reliz
relyef
relyefi
relyefin
relyefli
remco
remix
ren
renaissance
rene
renessans
rentgen
rep
repc
repertuarında
report
reportaj
reporter
reports
repressiya
repressiyaya
reprint
reprinted
republic
reqbi
required
requirements
rer
res
research
researchgate
reserve
residente
resistance
resmi
resolution
resort
resource
resources
response
respubli
respublika
respublikac
respublikada
respublikaları
respublikalarının
respublikamızda
respublikamızın
respublikanın
respublikası
respublikasına
respublikasında
respublikasındakı
respublikasından
respublikasını
respublikasının
restavrasiya
restoran
results
resurs
resurslar
resursları
resursların
resurslarının
retrieved
return
reuters
rev
reveal
revealed
reveals
review
reviews
revised
revolution
revolutionary
revue
rey
reyhan
reyn
reynolds
reys
reytinq
reytinqi
reytinqində
reytinqinə
reyx
rez
rezin
rezonans
rf
rfan
rfc
rfi
rfu
rfə
rfələr
rfələri
rfəz
rfəzi
rfəzin
rfəzində
rfəzinin
rfəzinə
rg
rgen
rgu
rgə
rh
rhanəddin
rhodanthe
rhum
ri
ria
riayət
rib
ric
rica
rich
richard
richness
ricinus
rick
ricordi
rid
ridl
rie
rif
rifah
rifahı
rift
right
rightarrow
rights
rih
rik
rika
riklər
riko
rim
rin
rina
rind
rində
rindən
ring
rini
rinin
rinorea
rinq
rinə
rio
riqa
rir
ris
risalə
rise
rising
risk
riski
riskini
riskli
rita
rite
ritm
ritmik
ritual
river
rix
rixard
riyad
riyazi
riyaziyyat
riyaziyyatc
riyaziyyatı
riyaziyyatın
riyy
riyyat
riyyatı
riyyatında
riyyatının
rizvan
rizzi
rk
rkan
rkc
rkcə
rkcəsi
rkcəsində
rkd
rkdartists
rkdilli
rkes
rki
rkistan
rkiye
rkiyə
rkiyədə
rkiyədəki
rkiyədən
rkiyəli
rkiyəni
rkiyənin
rkiyəyə
rklu
rklər
rklərdə
rklərdən
rkləri
rklərin
rklərindən
rklərinin
rklərlə
rklərə
rkman
rkmən
rkmənc
rkmənistan
rkmənistanda
rkmənistanın
rkmənlər
rkməns
rkologiya
rkoloji
rkoloq
rksoy
rku
rkutsk
rkəm
rkəmli
rl
rland
rlandiya
rlandiyada
rlandiyanın
rli
rlu
rlə
rlər
rlərdə
rlərdən
rləri
rlərin
rlərində
rlərini
rlərinin
rlərə
rləs
rm
rmis
rmu
rmə
rmədi
rmədim
rmədən
rmək
rməkdə
rməkdən
rməklə
rməli
rmələri
rməmis
rməsi
rməsini
rmət
rməti
rmətini
rmətli
rmətlə
rmətə
rməyi
rməyib
rməyin
rməyə
rməyən
rməz
rn
rnberq
rner
rnt
rnək
ro
road
rob
robert
roberto
roberts
robertson
robin
robinson
robot
roc
rocer
rocers
rock
rod
rodez
rodezdən
rodos
roger
rogers
rok
rol
rola
roland
rolda
role
rolfe
roll
rollar
rollarda
rolları
rollarında
rollarını
rolling
rolu
roluna
rolunda
rolunu
rolunun
rom
roma
romada
romalı
romalılar
romalıların
roman
romanda
romania
romanlar
romanları
romans
romantik
romantizm
romanı
romanın
romanında
romanını
romanının
romaya
rome
romeo
ron
rona
ronald
ronaldo
rondeletia
room
roots
ros
rosa
rose
ross
rosstat
rostov
rosu
rosunun
roth
rotten
rotterdam
round
routledge
rov
row
rowman
roxb
roy
royal
roza
rp
rpu
rpə
rpələr
rq
rr
rriyet
rriyyət
rru
rrəhim
rrəhman
rrəhmanov
rrəm
rrəmilər
rs
rsfsr
rsi
rsssf
rst
rsu
rsə
rsəl
rsən
rsət
rsətdən
rsəti
rt
rtdu
rtku
rtmək
rtu
rtən
rtəza
ru
ruanda
rub
rubia
rubin
rubl
rubus
ruc
rudan
rudi
rudolf
rudur
ruellia
ruelliya
ruh
ruha
ruhani
ruhanilər
ruhanilərin
ruhdan
ruhi
ruhiyyə
ruhlar
ruhları
ruhların
ruhlu
ruhu
ruhulla
ruhum
ruhun
ruhuna
ruhunda
ruhunu
ruhunun
ruiz
rul
rular
rule
rules
rulug
rum
rumeli
rumi
rumlu
rumın
rumıniya
rumıniyada
rumıniyanın
run
runda
ruqiyyə
rur
rus
rusca
rusdilli
rusiya
rusiyada
rusiyadakı
rusiyadan
rusiyalı
rusiyanı
rusiyanın
rusiyası
rusiyasının
rusiyaya
ruslan
ruslar
ruslara
ruslardan
ruslarla
rusların
russell
russia
russian
russo
rustaveli
rusu
rut
rutu
rutə
ruzi
ruzvelt
ruzə
rv
rvə
rxi
ry
ryan
rydb
ryu
rz
rza
rzanın
rzaqulu
rzayev
rzayeva
rzazadə
rzə
rı
rılar
rıları
rılmıs
rılı
rım
rın
rınd
rını
rının
rısı
rə
rəb
rəbb
rəbbi
rəbbim
rəbbimiz
rəbbin
rəbbinin
rəbbinə
rəbbə
rəcəb
rəcəbov
rəcək
rədd
rədildikdə
rədilmis
rədilən
rədir
rədə
rədən
rəf
rəfael
rəfi
rəfibəyli
rəfiqə
rəfiqəsi
rəfiyev
rəftar
rəg
rəhbər
rəhbəri
rəhbəridir
rəhbərinin
rəhbərlik
rəhbərliyi
rəhbərliyində
rəhbərliyindəki
rəhbərliyini
rəhbərliyinin
rəhbərliyinə
rəhbərləri
rəhbərlərindən
rəhbərlərinin
rəhim
rəhimli
rəhimov
rəhimovun
rəhm
rəhman
rəhmanov
rəhmət
rəis
rəisi
rəisinin
rək
rəkc
rəkdə
rəkdən
rəkkəb
rəkkəbc
rəkkəbdir
rəkkəbləs
rəkli
rəklə
rəklər
rəkləri
rəkən
rəkəni
rəli
rəm
rəmis
rəmzi
rəmzidir
rəmə
rəmələri
rəməsi
rən
rəna
rəndə
rəng
rəngarəng
rəngdə
rəngdədir
rəngi
rəngin
rəngində
rəngini
rənginə
rəngkarlıq
rəngli
rənglidir
rənglə
rənglər
rənglərdə
rəngləri
rənglərin
rəngsiz
rəngə
rəni
rənin
rənlər
rəqabət
rəqib
rəqibi
rəqibin
rəqibini
rəqibinə
rəqibləri
rəqiblərini
rəqqas
rəqqasə
rəqs
rəqsdə
rəqsi
rəqsin
rəqslər
rəqsləri
rəqəm
rəqəmi
rəqəmli
rəqəmlər
rəqəmləri
rəqəmsal
rər
rərik
rərkən
rərsən
rərək
rəs
rəsi
rəsində
rəsinin
rəsm
rəsmi
rəsmiləri
rəsmiləs
rəsmin
rəsmlər
rəsmləri
rəsmən
rəssam
rəssamlar
rəssamları
rəssamların
rəssamlarının
rəssamlıg
rəssamlıq
rəssamı
rəssamın
rəsul
rəsulov
rəsulullah
rəsulum
rəsulzadə
rəsulzadənin
rəsədxanası
rəsən
rət
rətdikləri
rətdiyi
rətdə
rəti
rətini
rətinin
rətinə
rətli
rətlə
rətmis
rətə
rəva
rəvan
rəvana
rəvanda
rəvani
rəvanın
rəvayət
rəvayətlər
rəvayətə
rəy
rəyasət
rəyc
rəyi
rəyim
rəyin
rəyində
rəyindən
rəyini
rəyinin
rəyinə
rəylər
rəyya
rəyə
s
sa
saak
saakas
saat
saata
saatda
saatdan
saatları
saatlarında
saatlı
saatlıq
saatı
saatın
sab
sabah
sabaha
sabahın
sabiq
sabiqə
sabiqədə
sabiqənin
sabiqəsi
sabiqəsində
sabiqəsindəki
sabiqəsinin
sabiqəsinə
sabiqəyə
sabir
sabirabad
sabirin
sabit
sabitlik
sabitliyi
sabitləs
sabitog
sabun
sabunc
sac
sacred
sad
sadalanan
sadiq
sadirə
sadler
sadıq
sadıqov
sadıqova
sadıxov
sadə
sadəcə
sadədir
sadəlo
sadələs
saf
safavid
safety
saflıg
sag
saga
sage
sah
sahi
sahib
sahibdir
sahibdirlər
sahibi
sahibidir
sahibin
sahibini
sahibinin
sahibinə
sahibkar
sahibkarlar
sahibkarlıg
sahibkarlıq
sahibliyi
sahibliyində
sahibləri
sahiblərinin
sahiblərinə
sahibə
sahibədə
sahibələr
sahibəsi
sahibəsində
sahil
sahilboyu
sahildə
sahildən
sahili
sahilində
sahilindədir
sahilindəki
sahilindən
sahilinin
sahilinə
sahillərdə
sahilləri
sahillərində
sahillərindən
sahillərini
sahillərinin
sahillərinə
sahilyanı
sahilə
sahə
sahədə
sahədəki
sahədən
sahələr
sahələrdə
sahələrdən
sahələri
sahələrin
sahələrində
sahələrindən
sahələrini
sahələrinin
sahələrinə
sahələrə
sahəni
sahənin
sahəsi
sahəsidir
sahəsində
sahəsindəki
sahəsindən
sahəsini
sahəsinin
sahəsinə
sahəyə
said
sailor
saint
sair
sairə
sait
sak
sakarya
sakin
sakindən
sakini
sakinlər
sakinləri
sakinlərin
sakinlərindən
sakinlərini
sakinlərinin
sakinlərinə
sakit
sakitcə
sakitlik
sakitləs
saksoniya
sakura
sal
sala
salah
salahlı
salahov
salam
salamat
salamov
salamzadə
salamın
salan
salar
salaraq
salatı
salavat
salayev
saldı
saldıg
saldılar
saleh
sales
salisb
salix
salma
salmag
salman
salmanov
salmanova
salmaq
salmas
salmıs
saln
salnaməc
salnaməsi
salon
saloniki
salonu
salonunda
salvador
salvatore
salvia
salyan
salıb
salın
salınan
salındı
salındıg
salınması
salınmasında
salınmıs
salınıb
salınır
salır
salırlar
salə
sam
saman
samanta
samara
sambo
same
sami
samir
samirə
sample
samsun
samsung
samuel
samur
samuray
samux
saməddin
san
sana
sanat
sanballı
sanc
sancag
sancaqbəyi
sand
sanders
sandra
sandıg
sandıq
sani
sanitar
sanitariya
saniyə
saniyədə
saniyəlik
saniyəyə
sanki
sankt
sanlı
sanma
sanskrit
sant
santa
santiago
santimetr
santos
santyaqo
sanı
sanın
sap
saplag
saplaqlı
saq
saqi
saqqal
saqqallar
saqqalları
saqqallı
saqqalı
saqqız
sar
sara
sarabski
sarac
sarah
saratov
saray
saraya
sarayda
saraydan
sarayevo
saraylar
sarayı
sarayın
sarayına
sarayında
sarayından
sarayını
sarayının
sardiniya
sarg
sari
sarmas
sarsılmaz
sarvan
sarı
sarıcalı
sarıko
sarımsaq
sarımtıl
sarıqamıs
sarıs
sas
sasani
sasanilər
sat
satan
satas
satdı
satellite
satira
satirik
satmag
satmaq
satmıs
saturn
saturnun
satıcı
satılan
satıldı
satılması
satılmıs
satılıb
satılır
satın
satınalan
satınalma
satır
satıs
saudi
saunders
saussurea
savab
savad
savadlı
savadsız
savalan
savas
savat
savatc
savayı
save
savory
savoyya
saxa
saxalin
saxanlı
saxla
saxladı
saxladıg
saxlama
saxlamag
saxlamaq
saxlamaqla
saxlamıs
saxlanan
saxlandıg
saxlanması
saxlanmıs
saxlanılan
saxlanıldı
saxlanıldıg
saxlanılması
saxlanılmasında
saxlanılmıs
saxlanılıb
saxlanılır
saxlanılırdı
saxlanır
saxlaya
saxlayan
saxlayaraq
saxlayıb
saxlayın
saxlayır
saxlayırdı
saxlayırdılar
saxlayırlar
saxsı
saxta
saxtalas
say
saya
sayan
sayca
sayda
saydıg
sayev
sayfa
sayg
saylar
sayları
saylı
saymaq
says
saysız
sayt
saytda
sayti
saytı
saytın
saytında
saytındakı
saytının
sayı
sayıla
sayılan
sayılmıs
sayılıb
sayılır
sayılırdı
sayımı
sayına
sayında
sayından
sayınqala
sayını
sayının
sayır
sayəsində
saz
sazis
sazı
sb
sba
sbb
sbbc
sbc
sbu
sbət
sc
scale
scandal
scar
scarecrow
scene
sch
schicha
schilbach
schltr
schmidt
schneider
scholar
scholz
school
schult
schum
schur
schuster
schweinf
sci
science
sciences
scientific
scientists
scn
scorzonera
scotland
scott
scottish
screen
script
scutellaria
scwra
sd
sdss
sdu
se
sea
sean
search
season
seattle
sebastian
sebastyan
sec
second
secret
secretary
secrets
section
secundum
security
seds
sedum
see
sega
segah
sehirhafizasi
sehirli
sehr
sehrbaz
sehrli
seibert
seigler
seks
seksual
sektor
sektoru
sektorunda
sektorunun
sel
sela
selc
selected
selection
seleksiya
self
selikli
selim
sellu
sellər
sem
semantik
sement
semi
seminar
seminarlar
sempozyumu
semyon
sen
sena
senat
senator
senatın
senecio
senegalia
seneqal
sense
sensor
sent
sentai
sentavr
sentinel
sentyabr
sentyabrda
sentyabrın
sentyabrında
sentyabrından
senzura
seoul
sep
separatc
september
seqmentinin
sequel
ser
serb
serbiya
serbiyada
serbiyanın
serblər
sergey
seri
serial
serialda
serialı
serialın
serialında
serialının
serie
series
seriya
seriyada
seriyadan
seriyalar
seriyaları
seriyalı
seriyanın
seriyası
seriyasına
seriyasında
seriyasından
seriyasını
seriyasının
serj
serjant
serji
sertifikat
sertifikatı
server
service
services
servis
ses
session
sessiyasında
set
sets
seul
sev
sevastopol
sevda
sevdim
sevdiyi
sevdiyim
sevdiyini
seven
seventh
several
sevgi
sevgidən
sevgili
sevgilim
sevgilisi
sevgini
sevginin
sevgisi
sevgisini
sevgiyə
sevil
sevilya
sevilən
sevimli
sevin
sevinc
sevinci
sevinclə
sevir
sevirdi
sevirlər
sevirəm
sevmir
sevmək
sevə
sevən
sevər
sex
sexual
seyfulla
seyfəddin
seyib
seyid
seyidbəyli
seyidli
seyidlər
seyidov
seyidzadə
seyin
seylor
seyminin
seymur
seyn
seynag
seyni
seynin
seynli
seynov
seynova
seynovun
seynqulu
seynzadə
seynzadənin
seynəli
seyr
seyran
seyrək
seysmik
seyyid
sezar
sezarın
sezon
sf
sfahan
sfahana
sfahanda
sfahani
sfd
sferik
sfəndiyar
sg
sgəndər
sgəndərin
sgəndəriyyə
sgəndərnamə
sgəndərov
sh
shades
shadow
shah
shanghai
shaq
shaw
she
sheet
shell
shenzhen
sherff
shi
shim
sho
shooting
short
shot
shoten
should
show
shows
shtml
si
sia
sibir
sibirdə
sibirin
sibirə
sibət
sic
siciliya
sicill
sid
side
sidik
sidney
sidqi
sidr
sie
sif
sifaris
sifət
sifəti
sig
sigma
sign
signs
siirt
sikkə
sikkələr
sikkələri
sikkələrin
sil
silah
silaha
silahdan
silahdas
silahla
silahlanmıs
silahlar
silahlardan
silahlarla
silahları
silahların
silahlarını
silahlarının
silahlı
silahsız
silahı
silahın
silene
silindr
silindrik
silisium
silk
silsilə
silsilələri
silsilənin
silsiləsi
silsiləsində
silsiləsindən
silsiləsinin
silsiləsinə
silva
silver
sim
sima
simalarından
siman
siması
simasında
simasını
simbad
simfonik
simfoniya
simfoniyası
simli
simmetrik
simon
simpozium
simpoziumlarda
simpson
simptomlar
simptomları
sims
simsiz
simurq
simvol
simvolik
simvolizə
simvollar
simvolları
simvollarından
simvollas
simvolu
simvoludur
sin
sina
sinan
sinanın
sinaqoq
sinay
sincan
since
sind
sindromu
sində
sinfi
sinfin
sinfində
sinfini
sinfinin
sinfinə
sinfə
singapore
singer
singh
single
singles
sini
sinif
sinifdə
sinifdən
sinifi
sinifinə
sinifli
siniflər
sinifləri
sinifə
sinin
sinir
sink
sinonim
sinonimi
sinonimlər
sinop
sinqapur
sinql
sinqlı
sintaktik
sintetik
sintez
sintezi
sinxron
sinə
sinəsi
sinəsinə
sio
sion
sionist
siqaret
siqnal
siqnalları
siqnalı
sir
sirab
sirdas
sirius
sirk
sirkə
sirli
sirlər
sirləri
sirlərini
sirr
sirri
sirrini
sis
siseron
sisianov
sistem
sistematik
sistematikası
sistematikasını
sistemdir
sistemdə
sistemdən
sistemi
sistemidir
sistemin
sistemində
sistemindəki
sistemindən
sistemini
sisteminin
sisteminə
sistemli
sistemlər
sistemlərdə
sistemləri
sistemlərin
sistemlərində
sistemlərindən
sistemlərini
sistemlərinin
sistemlərinə
sistemləs
sistemə
sister
sisyan
sitat
sitatlar
sitayis
site
sites
sitesi
siti
sitrus
situation
situm
sivas
sivil
sivilizasiya
sivilizasiyanın
sivilizasiyasının
sivri
six
siy
siyah
siyahı
siyahıda
siyahısı
siyahısına
siyahısında
siyahısını
siyahıya
siyahıyaalma
siyahıyaalmasına
siyahıyaalınması
siyahıyaalınmasına
siyasi
siyasət
siyasətc
siyasətdə
siyasətdən
siyasəti
siyasətin
siyasətində
siyasətini
siyasətinin
siyasətinə
siyasətlə
siyasətə
siyavus
siyəzən
siz
sizdir
sizdə
sizdən
size
sizi
sizin
sizinlə
siziqium
sizlik
sizliyin
sizə
sk
ska
skandinav
skandinaviya
skarı
skaut
skelet
skeleton
ski
skif
skiing
skopye
skott
skripka
skripkac
skrutskie
sku
sky
skəndər
skəndərin
sl
sla
slam
slama
slamda
slamdan
slami
slamı
slamın
sland
slandiya
slavyan
slim
sloan
slovak
slovakiya
slovakiyanın
sloven
sloveniya
slu
slub
slubda
slublu
slubu
slubuna
slubunda
slubunu
slubunun
sm
smail
small
smart
smayıl
smayıllı
smayılov
smayılova
smayılovun
smayılzadə
smayılın
smilax
smit
smith
smithsonian
smolensk
smooth
sms
smət
sn
snayper
sni
snow
snu
snyder
so
soba
sobralia
sobreira
soc
socar
soccer
soccerbase
soccerdonna
soccerway
social
societies
society
sociology
soest
sofi
sofia
sofiya
soft
software
sog
sokrat
sol
sola
solanum
solar
solc
sold
solda
soldan
soldier
soldiers
solg
solid
solist
solisti
solmaz
solo
solomon
soltan
solution
solutions
somali
some
son
sona
sonata
sonda
song
songs
sonic
sonları
sonlarına
sonlarında
sonlarından
sonlu
sonlug
sonra
sonradan
sonraki
sonrakı
sonralar
sonrası
sonrasında
sons
sonsuz
sonsuzluq
sonu
sonuna
sonunadək
sonuncu
sonuncusu
sonunda
sonundan
sonunu
sony
soo
soprano
sora
sorag
sorbus
sorce
sorg
sortları
sorus
sos
sosial
sosialist
sosialistlər
sosializm
sosiologiya
sosioloji
sosioloq
sosyal
soul
sound
soundtrack
source
sources
sous
south
southern
sov
sovet
soveti
sovetin
sovetindən
sovetinin
sovetinə
sovetliyi
sovetliyindən
sovetlər
sovetlərin
soviet
sovxoz
soy
soya
soyad
soyadı
soyadını
soydas
soyg
soyqırım
soyqırımı
soyqırımının
soyu
soyuducu
soyug
soyundan
soyuq
soyuqbulaq
sp
spa
space
spaces
spacex
spain
span
spanish
spaniya
spaniyada
spaniyanı
spaniyanın
spaniyaya
sparta
spartak
spb
special
species
specific
spectra
spectral
spectroscopic
speculative
speech
speed
spektral
spektri
spencer
spermatophytes
spesifik
spider
spiegel
spilosoma
spin
spiraea
spiral
spirit
spirt
spirti
spirtli
split
sponsorluq
spor
sport
sports
spreng
spring
springer
springob
sputnik
spy
sq
sqrt
squad
square
sr
srafil
srafilov
srail
sraildə
sraili
srailin
sraillilər
srailə
sri
srət
ss
ssel
sseldorf
ssenari
ssenarisi
ssenarisini
ssenarist
ssenaristi
sser
ssr
ssri
ssu
ssə
st
sta
staatsbibliothek
stabil
stadion
stadionda
stadionu
stadionun
stadionunda
stadium
stadnik
stafa
staff
stage
stalin
stalinin
stalinqrad
stan
stana
stanbul
stanbula
stanbulda
stanbuldakı
stanbuldan
stanbulun
stand
standa
standakı
standan
standard
standart
standartlar
standartlara
standartları
standartlarına
standartlas
standartı
standl
stanford
stani
stanislav
stanla
stanley
stansiya
stansiyaları
stansiyalarının
stansiyanın
stansiyası
stansiyasına
stansiyasında
stansiyasından
stansiyasının
stanı
stanın
star
stark
stars
start
starting
stasionar
stat
state
statement
states
statik
station
statistical
statistics
statistik
statistika
statistikası
statistikasına
stats
statue
status
statusu
statusuna
statusunu
statusunun
stavropol
stay
stdən
steam
steel
stefan
stefano
stehlakc
stehsal
stehsalat
stehsalc
stein
steins
stellar
sten
stenli
step
stepan
stephen
sterlinq
sterreichische
steud
steve
steven
stevens
stevia
stewart
steyerm
sti
stica
stiening
stifadə
stifadəc
stil
stildə
stili
stilik
stilində
still
stimullas
stintaq
stiqlal
stiqlaliyyət
stirahət
stisu
stiv
stiven
stlu
stock
stockholm
stokholm
stokholmda
stolu
stomatologiya
stone
stop
storage
store
storico
stories
storm
story
str
strabon
strange
strasburq
strategic
strategiya
strategiyası
strategy
strateji
stray
street
stress
strike
strong
structural
structure
structures
struggle
struktur
struktura
strukturlar
strukturları
strukturların
strukturlarının
strukturu
strukturuna
strukturunda
strukturunu
strukturunun
stu
stuart
student
students
studies
studio
studios
studiya
studiyası
studiyasında
studiyasının
study
sturu
stuttgart
style
stə
stəkan
stəlik
stəm
stəmbəyov
stəmləkə
stəmləkəc
stəmləkəsi
stəmov
stəmova
stəmovun
stənilən
stəntiq
stəqil
stəqillik
stəqilliyi
stəqilliyin
stəqilliyini
stəqilliyinin
stəqilliyinə
stər
stərdi
stərdikləri
stərdilər
stərdiyi
stərdiyini
stərdiyinə
stərib
stərici
stəricilər
stəriciləri
stəricilərinin
stəricilərinə
stəricilərə
stəricisi
stəricisidir
stəriciyə
stərildi
stərildiyi
stərilib
stərilir
stərilirdi
stərilmis
stərilməsi
stərilməsinə
stərilməyib
stərilə
stərilən
stərin
stərir
stərirdi
stərirdilər
stərirlər
stəris
stərmir
stərmis
stərmək
stərməkdədir
stərməklə
stərməsi
stərməyi
stərməyə
stərsə
stərə
stərəcək
stərən
stərər
stərərək
stəsna
stəvi
stəvidə
su
suahili
sual
suala
suallar
suallara
sualları
sualtı
sualı
sualına
sub
subalp
subay
subject
subsp
subtropik
subyekti
subyektiv
subyektləri
subyektlərinin
suc
succulent
such
sud
suda
sudan
sufi
suggest
sui
suicide
suiti
sul
sular
sularda
suları
suların
sularında
sularından
sularının
sulduz
sulfat
sulfid
suli
sulla
sullar
sullardan
sullarla
sulları
sullarından
sullarını
sullarının
sultan
sultana
sultandan
sultani
sultanla
sultanlar
sultanları
sultanlıg
sultanov
sultanova
sultanovun
sultanzadə
sultanı
sultanın
sultats
sulu
suludur
suluna
sulundan
sulunu
sulunun
sum
sumaq
sumatra
summary
summer
summit
sumqayıt
sumqayıtda
sun
sunda
sunday
sung
suny
super
superficie
superkuboku
superman
supermassive
supermen
superqəhrəman
supplement
support
suprefektura
suqovus
sur
suraxanı
surface
suriya
suriyada
suriyalı
suriyanın
suriyaya
surları
surlu
surrey
sursat
sursatı
sursuz
suru
survey
surxay
surə
surəsi
surəsinin
surət
surətdə
surəti
surətini
sus
susan
susi
susilə
susiyyət
susiyyəti
susiyyətini
susiyyətinə
susiyyətlər
susiyyətləri
susiyyətlərindən
susiyyətlərini
susiyyətlərinin
susiyyətlərinə
susiyyətlərə
susiyyətə
susmag
susmaq
susu
susuz
susən
sutka
suvarma
suvarılan
suveren
suverenliyi
suverenliyini
suxumi
suya
suyu
suyun
suyuna
suyundan
suyunu
suyunun
suz
suzuki
sv
svay
svayc
svec
sverdlovsk
svetlana
svift
sw
sweden
swedish
sweet
swift
swimming
sword
sxem
sxemi
sxə
sxələri
sxəsi
sy
syan
syana
syanc
syankar
syanlar
syanları
syanı
syanın
syanına
syanını
syanının
sydney
symposium
syndrome
synthesis
syo
syria
syrian
system
systems
syur
syzygium
sı
sıc
sıfır
sıfıra
sıg
sıldırım
sıldırımlı
sın
sınadı
sınag
sınaq
sınaqdan
sınaqları
sınd
sınmıs
sının
sınıq
sıra
sırada
sıradan
sıralamasında
sıralanmıs
sıralarına
sıralarında
sıralarından
sırası
sırasına
sırasında
sırasının
sıravi
sıraya
sırf
sırg
sıx
sıxlas
sıxlıg
sıxlıq
sıxılmıs
sıxıs
sız
sə
səadət
səba
səbail
səbinə
səbir
səbr
səbri
səbuhi
səbəb
səbəbdən
səbəbi
səbəbilə
səbəbindən
səbəbini
səbəbiylə
səbəblə
səbəblər
səbəblərdən
səbəbləri
səbəblərindən
səbəblərini
səbəblərə
səbəbə
səbət
səcdə
səciyyə
səciyyələnir
səciyyəvi
səciyyəvidir
səd
səda
sədaları
sədaqət
sədaqəti
sədaqətli
sədarət
sədarətə
sədası
sədd
səddam
səddi
sədi
sədr
sədri
sədridir
sədrin
sədrinin
sədrlik
sədrliyi
sədrəddin
sədrəzəm
sədrəzəmi
sədəf
sədəqə
sədərək
səfa
səfi
səfiku
səfil
səfir
səfiri
səfirlik
səfirliyi
səfirliyində
səfirliyinin
səfər
səfərbər
səfərbərlik
səfərdə
səfərdən
səfəri
səfərin
səfərində
səfərindən
səfərinə
səfərli
səfərlər
səfərləri
səfərov
səfərova
səfərə
səfərəli
səfəvi
səfəvilər
səfəvilərin
səfəvilərə
səfəvinin
səh
səhhət
səhhəti
səhifə
səhifədə
səhifədən
səhifəlik
səhifələr
səhifələri
səhifələrin
səhifələrində
səhifəsi
səhifəsində
səhih
səhiyyə
səhl
səhləbkimilər
səhləbkimilərə
səhm
səhmdar
səhmlərin
səhmlərinin
səhnə
səhnədə
səhnələr
səhnələri
səhnələrin
səhnələs
səhnəni
səhnənin
səhnəsi
səhnəsində
səhnəsinə
səhnəyə
səhra
səhrada
səhranın
səhrası
səhraya
səhv
səhvi
səhvlər
səhvləri
səhvlərini
səhvən
səhər
səhəri
səhərə
səid
səidin
səidə
səkinə
səkkiz
səkkizbucaqlı
səkkizgus
səkkizinci
səksən
səlahiyyət
səlahiyyəti
səlahiyyətinə
səlahiyyətli
səlahiyyətlər
səlahiyyətləri
səlahiyyətlərini
səlahiyyətlərinin
səlahiyyətlərinə
səlahəddin
səlcuq
səlcuqlu
səlcuqlular
səlib
səlibc
səlim
səlimin
səlimov
səlis
səlləllahu
səlman
səlmandırlar
səlmanlar
səlmanlara
səlmanlardan
səlmanları
səlmanların
səlmanlarının
səltənət
səltənəti
səltənətində
səltənətinin
sələfi
sələfləri
səm
səma
səmada
səmavi
səmaya
səmimi
səmtində
səməd
səmədog
səmədov
səməndər
səmərqənd
səmərəli
səmərəliliyinin
sən
səna
sənan
sənaye
sənayec
sənayedə
sənayeləs
sənayenin
sənayesi
sənayesində
sənayesinin
sənayesinə
səndə
səndən
səngər
səni
sənin
səninlə
sənsiz
sənsən
sənubər
sənə
sənəd
sənəddə
sənədi
sənədin
sənədli
sənədlər
sənədlərdə
sənədləri
sənədlərin
sənədlərində
sənədlərini
sənədlərinin
sənədlərə
sənədləs
sənədə
sənəm
sənət
sənətc
sənətdə
sənəti
sənətin
sənətində
sənətini
sənətinin
sənətinə
sənətkar
sənətkarlar
sənətkarları
sənətkarların
sənətkarlıg
sənətkarlıq
sənətkarı
sənətkarın
sənətlər
sənətləri
sənəts
sənətə
səpələnmis
sər
sərab
sərbəst
sərc
sərdar
sərdarabad
sərdəs
sərf
sərfi
sərfəli
sərgi
sərgidə
sərgilənir
sərgilər
sərgilərdə
sərgiləri
sərgisi
sərgisində
sərgisinin
sərgu
sərgərdan
sərhəd
sərhədc
sərhəddi
sərhəddində
sərhəddir
sərhəddə
sərhədi
sərhədin
sərhədində
sərhədini
sərhədinin
sərhədinə
sərhədlər
sərhədləri
sərhədlərin
sərhədlərində
sərhədlərindən
sərhədlərini
sərhədlərinin
sərhədlərinə
sərhədə
səri
sərin
səris
sərkərdə
sərkərdələri
sərkərdələrindən
sərkərdəsi
sərmayə
sərnis
sərraf
sərt
sərtlik
sərtliyi
sərtləs
sərv
sərvi
sərvər
sərvət
sərvəti
sərvətlər
sərvətləri
sərxan
sərxos
sərəncam
sərəncamı
sərəncamına
sərəncamında
səs
səsi
səsin
səsindən
səsini
səsinin
səsinə
səsli
səslə
səsləndirilmis
səsləndirir
səsləndirmis
səsləndirən
səslənir
səslənən
səslər
səsləri
səslərin
səsləs
səssiz
səsvermə
səsvermədə
səsvermənin
səsverməsi
səsyazma
səsə
sət
səth
səthi
səthin
səthində
səthindən
səthini
səthinin
səthinə
səthə
sətir
səttar
səud
səudiyyə
səviyyə
səviyyədə
səviyyəli
səviyyələrdə
səviyyələri
səviyyəsi
səviyyəsində
səviyyəsindən
səviyyəsini
səviyyəsinin
səviyyəsinə
səviyyəyə
səxavət
səxavətli
səy
səyahət
səyahətc
səyahəti
səyahətlər
səyahətə
səyavus
səyi
səylər
səyləri
səylərini
səylərinə
səyyad
səyyah
səyyahı
səyyar
t
ta
taala
tab
tabasaran
tabe
tabec
tabedir
tabeli
tabeliyində
tabeliyindəki
tabeliyinə
table
tablo
tabor
taboru
tac
tacik
tacikistan
tacir
taciri
tacirin
tacirlər
tacirləri
tacirlərin
tacqoyma
tacı
tacını
tacının
tacəddin
tadt
tag
taha
tahir
tahirov
tahirzadə
tahirə
tahya
tai
tailand
tak
take
takes
takeuchi
taksi
takson
taksonomik
taksonun
taktikası
taktiki
tal
tala
talan
tale
taleh
tales
taleyi
taleyin
taleyini
taleyinə
talib
taliban
taliya
taliyada
taliyadan
taliyalı
taliyanı
taliyanın
taliyaya
taliə
talk
talking
talks
tallin
talyan
talıb
talıbov
talıs
tam
tamah
tamam
tamamilə
tamamladı
tamamladıqdan
tamamlamaq
tamamlamıs
tamamlanan
tamamlandı
tamamlanmamıs
tamamlanması
tamamlanmıs
tamamlanır
tamamlayan
tamamlayır
tamamən
tamara
tamas
tamerlan
tamil
tamilla
tamlıg
tammetrajlı
tan
tanacetum
tang
tank
tanklar
tankları
tanklarının
tankı
tankın
tanrı
tanrıc
tanrılar
tanrılara
tanrıları
tanrıların
tanrının
tanrısı
tanrıya
tanzaniya
tanıdı
tanıdıg
tanımadıg
tanımag
tanımaq
tanımır
tanımıs
tanınan
tanındı
tanınmag
tanınması
tanınmasına
tanınmıs
tanınıb
tanınır
tanınırdı
tanıs
tanıyan
tanıyır
tap
tapa
tapan
tapanc
tapar
tapdı
tapdıg
tapdılar
tapdıq
tapmag
tapmamıs
tapmaq
tapmıs
taps
tapıb
tapıla
tapılan
tapılar
tapıldı
tapıldıg
tapılması
tapılmaz
tapılmıs
tapılıb
tapılır
tapıntı
tapıntılar
tapır
tapırlar
taq
taqal
taqanroq
taqor
taqım
tar
tarafından
taras
taraxacum
tarazlıg
tarazlıq
targeted
tari
tarih
tarihi
tarihinde
tariq
tarix
tarixc
tarixdə
tarixdən
tarixi
tariximizin
tarixin
tarixində
tarixindəki
tarixindən
tarixini
tarixinin
tarixinə
tarixli
tarixləri
tarixlərində
tarixs
tarixə
tarixən
tariyel
tarla
tartu
tarzən
tarım
tas
tat
tatar
tatarca
tatarlar
tatarları
tatarların
tatarlarının
tatarıstan
tatlar
tatlarda
tatları
tatların
tatlarında
tatlarının
tatyana
tatı
tatın
tatında
tatının
tau
taun
tauris
tavan
tavanı
tax
taxc
taxon
taxonomic
taxonomy
taxt
taxta
taxtadan
taxtda
taxtdan
taxtı
taxtın
taxtına
taxtında
taxtını
taxıl
taxılc
tay
tayfa
tayfalar
tayfalardan
tayfaları
tayfaların
tayfalarından
tayfalarının
tayfanın
tayfası
tayfasına
tayfasından
tayfasının
tayland
taylor
taymır
tayqa
tayvan
tayyib
tayı
tazılar
tb
tbilisi
tbilisidə
tbmm
tbu
tbə
tbəli
tbəsi
tbəsində
tbəsini
tbəsinə
tc
tcp
td
tdi
tdikdə
tdilər
tdir
tdu
tdə
te
tea
team
teams
teatr
teatra
teatrda
teatrlarında
teatrs
teatrı
teatrın
teatrına
teatrında
teatrının
tech
technical
technologies
technology
ted
teen
tehran
tehrana
tehranda
tehranın
tek
tekstil
tektonik
tel
tele
telefon
telegraph
telekanal
telekanalı
telekanalında
telekanalının
telekommunikasiya
teleqraf
teleqram
teleradio
telescope
teleserial
teleserialında
teleskop
television
televiziya
televiziyada
televiziyanın
televiziyası
televiziyasında
televiziyasının
tell
telli
telman
tematik
temmuz
tempel
temperatur
temperatura
temperaturda
temperature
temperaturlu
temperaturu
temperaturun
tempi
templates
temple
temuc
ten
tender
tennis
tennisc
tenor
teodor
teoremi
teqi
ter
teran
terapiya
terek
tereza
teri
terin
terjesztett
terlər
terlərin
term
termal
termiki
termin
terminal
terminalia
terminalı
termindir
termini
terminin
terminini
termininin
terminlər
terminləri
terminlərin
terminlərinin
termodinamik
terra
terri
territorial
territories
territory
terror
terrorc
terrorism
terrorist
terə
tes
tesla
test
testi
testlər
tetc
teucrium
texas
texnik
texnika
texnikanın
texnikası
texnikasını
texnikasının
texniki
texnikumu
texnikumuna
texnikumunda
texnikumunu
texnikumunun
texnologiya
texnologiyalar
texnologiyaları
texnologiyaların
texnologiyalarının
texnologiyanın
texnologiyası
texnologiyasının
texnoloji
text
texts
teylor
teymur
teymuri
teymurilər
teymurun
teyn
teynin
teyyub
tez
tezdən
tezi
tezis
tezisləri
tezlik
tezlikli
tezliklə
tezliyi
tf
tfi
tfu
tfəli
tg
th
than
that
the
theatre
theguardian
their
thek
them
theme
then
theoretical
theory
there
these
they
thilker
thin
things
third
this
thomas
thompson
thomson
thor
those
thought
thousand
threatened
three
thrones
through
thunb
thursday
thymus
ti
tibb
tibbdə
tibbi
tibbin
tibet
tic
ticari
ticarət
ticarətdə
ticarəti
ticarətin
ticarətinin
ticarətlə
tiflis
tiflisdə
tiflisdəki
tiflisdən
tiflisə
tig
tiger
tigin
tik
tikan
tikanlı
tikdi
tikdirdiyi
tikdirmis
tikildi
tikildiyi
tikili
tikilib
tikililər
tikililəri
tikililərin
tikilinin
tikilir
tikilirdi
tikilmis
tikilməsi
tikilməsinə
tikilən
tikinti
tikintidə
tikintinin
tikintisi
tikintisində
tikintisini
tikintisinin
tikintisinə
tikis
tikmis
tikmə
tikmək
tikə
til
tim
timatic
time
timeanddate
timeline
times
timing
timor
timothy
timsah
timsalında
timur
tin
tina
tind
tini
tinin
tintin
tip
tipi
tipik
tipinin
tipinə
tipli
tipləri
tipə
tir
tiraj
tirajla
tirajı
tirak
tirakc
tirakdan
tirakı
tirakına
tirakını
tirana
tirilmis
tiryək
tirə
tis
titan
titanik
title
titrlərdə
titul
titulu
tituluna
titulunu
tk
tki
tl
tli
tlu
tlə
tlələr
tlələri
tlələrinin
tlənin
tləq
tlər
tləri
tlərin
tlərə
tləs
tləsi
tləsini
tləsinin
tləsinə
tləvi
tləyə
tm
tmis
tmu
tmə
tmək
tməyə
to
today
todd
tofiq
tog
together
tok
tokat
tokio
tokioda
tokyo
toledo
tolerantlıq
tolstoy
tolstoyun
tom
tomas
tomatoes
tome
tomentosa
tompson
tomson
ton
tona
tondan
toni
tonight
tony
too
top
topa
topal
topasıdır
topc
topic
topla
topladı
topladıg
toplam
toplama
toplamag
toplamaq
toplamıs
toplanan
toplanaraq
toplandı
toplandıg
toplanması
toplanmıs
toplantı
toplanıb
toplanır
toplar
topları
toplas
toplaya
toplayan
toplayaraq
toplayıb
toplayır
toplu
toplusu
toplusudur
toplusunda
toplusunu
toplusunun
topographic
toponim
toponimdir
toponimi
toponimin
toponiminin
toponimlər
toponimləri
toponimlərin
toponimlərinin
topoqrafik
toppuztikan
topqapı
tops
topu
topun
toqqus
tor
tora
torf
toronto
torpag
torpaq
torpaqda
torpaqdan
torpaqla
torpaqlar
torpaqlara
torpaqlarda
torpaqlardan
torpaqları
torpaqların
torpaqlarına
torpaqlarında
torpaqlarından
torpaqlarını
torpaqlarının
torpaqs
torr
torres
toru
torun
tos
toskana
total
totmyanina
tour
tourism
tovuz
toward
towards
tower
town
tox
toxtamıs
toxucu
toxuculuq
toxum
toxuma
toxumaların
toxuması
toxumla
toxumlar
toxumları
toxumu
toxunan
toxunma
toxunmus
toxunulmazlıg
toxunur
toy
toya
toyota
toyu
toyug
toyuq
toz
tozag
tozu
tpərəst
tr
tra
trabzon
track
trade
tradition
traditional
tragedy
trailer
training
traktor
tramp
tramvay
trans
transactions
transfer
transfermarkt
transformation
transition
transkripsiya
translated
translation
translit
transport
tranzit
travel
trc
tre
treatment
treaty
tree
trek
trend
trends
trestinin
tri
trial
tribune
trichilia
trifolium
triller
trillium
trilyon
trinidad
triniti
tripoli
trolleybus
troops
trophy
tropik
trotski
troya
troyan
trt
tru
trud
true
trump
trust
truth
ts
tsin
tt
ttifaq
ttifaqları
ttifaqı
ttifaqına
ttifaqında
ttifaqının
ttihad
ttəfiq
ttəfiqi
ttəfiqlər
ttəfiqləri
ttəfiqlərin
tu
tubət
tubətli
tufan
tug
tula
tulipa
tullanma
tullantı
tullantıları
tullantıların
tulli
tully
tuluza
tun
tuna
tunc
tuncdan
tundra
tunel
tunis
tunlar
tunları
tunların
tunu
tunun
tuqay
tur
tura
turabov
turac
tural
turan
turcz
turda
turdus
turin
turing
turist
turistik
turistlər
turistlərin
turizm
turizmi
turizmin
turk
turkey
turkic
turkish
turkmenistan
turks
turland
turner
turnir
turnirdə
turniri
turnirin
turnirində
turnirinin
turnirlərdə
turnirə
turqut
turs
turu
turunda
turxan
tus
tusi
tusinin
tut
tuta
tutacaq
tutan
tutar
tutaraq
tutarlı
tutdu
tutdug
tutdular
tutduqları
tutma
tutmadı
tutmag
tutmaları
tutmamıs
tutmaq
tutması
tutmasından
tutmus
tutqart
tutqun
tutsa
tutu
tutub
tutulan
tutularaq
tutuldu
tutuldug
tutulma
tutulması
tutulmus
tutulub
tutulur
tutulurdu
tutumlu
tutumu
tutumuna
tutuqus
tutur
tuturdu
tuturdular
tuturlar
tutus
tuva
tv
tven
tver
twelfth
twentieth
twenty
twilight
twitter
two
ty
tyan
type
typhlodromalus
typhlodromips
typhlodromus
tyv
tzvelev
tı
tıq
tır
tırma
tırmaları
tısbag
tıva
tə
təala
təb
təbabət
təbabətdə
təbabətində
təbas
təbi
təbib
təbii
təbiidir
təbil
təbiət
təbiətdə
təbiətdən
təbiəti
təbiətin
təbiətini
təbiətinin
təbiətinə
təbiətli
təbiətlə
təbiəts
təbiətə
təblig
təbrik
təbriz
təbrizdə
təbrizdən
təbrizi
təbrizin
təbrizli
təbrizə
təbəqə
təbəqədən
təbəqələr
təbəqələri
təbəqənin
təbəqəsi
təbəqəsindən
təbəqəsinin
təbər
təbəri
təbəssu
təcavu
təchiz
təchizat
təchizatı
təcili
təcrid
təcru
təcəssu
tədaru
tədavu
tədbiq
tədbir
tədbirdə
tədbiri
tədbirin
tədbirlər
tədbirlərdə
tədbirləri
tədbirlərin
tədbirlərində
tədbirlərinin
tədbirlərə
tədqiq
tədqiqat
tədqiqatc
tədqiqatlar
tədqiqatlara
tədqiqatlarda
tədqiqatları
tədqiqatların
tədqiqatlarına
tədqiqatlarında
tədqiqatlarının
tədqiqatı
tədqiqatın
tədqiqi
tədqiqinə
tədqiqlər
tədricən
tədris
tədrisi
təfsir
təfsiri
təftis
təfəkkir
təfəkkiri
təfəkku
təfərru
təg
təhdid
təhkimc
təhlil
təhlili
təhlu
təhmasib
təhmasibin
təhməzov
təhqiqat
təhqir
təhrif
təhrik
təhsil
təhsildə
təhsili
təhsilin
təhsilini
təhsilinin
təhsilinə
təhsilli
təhsilə
təhvil
təhər
tək
təkamu
təkan
təkbas
təkcə
təki
təkid
təkidi
təkin
təklif
təklifi
təklifin
təklifini
təkliflər
təklifləri
təkliflərini
təklə
təkmilləs
təkrar
təkrarlanan
təkrarlanmıs
təkrarlanır
təkrarən
təkzib
təkə
təkəbbu
təkəli
təkər
təkərli
təl
təlas
təlim
təlimat
təlimatc
təlimc
təlimi
təlimin
təlimində
təlimini
təliminin
təlimlər
təlimləri
təlqin
təltif
tələ
tələb
tələbat
tələbatı
tələbatını
tələbi
tələbin
tələbini
tələbinə
tələbkar
tələblər
tələbləri
tələblərini
tələblərinə
tələblərə
tələbə
tələbəlik
tələbələr
tələbələrdən
tələbələri
tələbələrin
tələbələrindən
tələbələrinin
tələbələrə
tələbənin
tələbəsi
tələf
tələffu
tələsik
tələt
tələyə
təmadi
təmas
təmasda
təmayu
təmin
təminat
təminatc
təminatı
təminatının
təmir
təmiri
təmiz
təmizlik
təmizləmə
təmizləmək
təmizlənir
təmizlənmis
təmizlənməsi
təmizləyir
təmsil
təmsilc
təmtəraqlı
təməl
təməli
təməlini
tən
tənasib
tənbəl
təngə
tənha
tənliklər
tənliyi
tənqid
tənqidc
tənqidi
tənqidlərə
təntənə
təntənəli
tənzim
tənzimləmə
tənzimləmək
tənzimlənir
tənzimlənməsi
tənzimləyici
tənzimləyir
tənzimləyən
tənəffu
tənəzzu
təpə
təpədə
təpədən
təpəgo
təpəli
təpələr
təpələri
təpənin
təpəsi
təpəsində
təq
təqau
təqdim
təqdimat
təqdimatı
təqdimi
təqdir
təqdirdə
təqdis
təqib
təqiblərə
təqlid
təqr
təqribi
təqribən
təqsirli
təqvim
təqvimi
tər
tərbiyə
tərbiyəc
tərbiyəsi
tərc
tərcim
tərcu
təri
tərif
tərifi
təriqət
təriqəti
təriqətinin
tərk
tərki
tərkib
tərkibi
tərkibində
tərkibindədir
tərkibindəki
tərkibindən
tərkibini
tərkibinin
tərkibinə
tərkibli
tərksilah
tərlan
tərs
tərsinə
tərtib
tərtibat
tərtibatc
tərtibatı
tərtibc
tərtibi
tərtər
tərxan
tərxis
tərxunu
tərzdə
tərzi
tərzində
tərzini
tərzinin
tərzinə
tərəddu
tərəf
tərəfdar
tərəfdarları
tərəfdarlarının
tərəfdarı
tərəfdas
tərəfdə
tərəfdəki
tərəfdən
tərəfi
tərəfin
tərəfində
tərəfindəki
tərəfindən
tərəfini
tərəfinin
tərəfinə
tərəfli
tərəflər
tərəflərdən
tərəfləri
tərəflərin
tərəflərini
tərəfındən
tərəfə
tərək
tərəkəmə
tərənnu
tərəqqi
tərəqqinin
tərəvəz
tərəvəzc
tərəvəzlər
tərəzi
təs
təsadu
təsbit
təsdiq
təsdiqi
təsdiqini
təsdiqlədi
təsdiqləmis
təsdiqləndi
təsdiqlənmis
təsdiqləyir
təsdiqləyən
təsir
təsirdə
təsiri
təsirin
təsirindən
təsirini
təsirinin
təsirinə
təsirli
təsirlənmis
təsirlənən
təsirlənərək
təsirlər
təsirləri
təsirlərini
təsirlərə
təsirsiz
təsirə
təsis
təsisc
təslim
təsnif
təsnifat
təsnifatı
təsvir
təsviri
təsvirin
təsvirini
təsvirinin
təsvirinə
təsvirlər
təsvirləri
təsəlli
təsərru
təsəvvu
tətbiq
tətbiqi
tətbiqini
tətbiqinin
tətbiqinə
tətil
təvarix
təvazo
təvəkku
təvəllu
təxirə
təxliyə
təxmin
təxmini
təxminən
təxribat
təxəllu
təxəssis
təxəssisi
təxəssislər
təxəssisləri
təxəssislərin
təxəyyu
təyin
təyinat
təyinatla
təyinatlı
təyinatı
təyini
təyyarə
təyyarəc
təyyarədə
təyyarələr
təyyarələri
təyyarələrin
təyyarələrinin
təyyarəni
təyyarənin
təyyarəsi
təyyarəsini
təyyarəsinin
təzahu
təzminat
təzyiq
təzyiqi
təzyiqin
təzyiqlər
təzə
təzəcə
təzədən
təzəkənd
təəccu
təəssu
u
ua
uayld
uaz
ub
ubas
ubat
ubug
ubuntu
ubuq
uc
uca
ucadan
ucalan
ucaldılmıs
ucalır
ucar
ucbatından
ucları
uclu
ucqar
ucu
ucuna
ucunda
ucundan
ucuz
ud
uda
udan
udi
udm
udmurt
udur
uduzdu
uefa
uels
ufa
ug
uilyam
uinston
uk
ukot
ukr
ukraine
ukrainian
ukrayna
ukraynaca
ukraynada
ukraynalı
ukraynalılar
ukraynanın
ukraynaya
ul
ula
uladı
ulamıs
ulan
ulanır
ular
ulara
ularaq
ulardan
ularla
uları
uların
ularına
ularından
ularını
ularının
ulas
ulayır
uldu
uldug
uldular
uldur
ulduz
ulduzdan
ulduzdur
ulduzlar
ulduzları
ulduzların
ulduzlu
ulduzu
ulduzun
uliyyət
uliyyəti
uliyyətini
ullar
ulları
ullarına
ullarından
ullarını
ullarının
ullug
ulluq
ulma
ulmag
ulmaq
ulması
ulmus
ultimate
ultra
ultrabəno
ultraviolet
ulu
ulub
ulug
uluq
uluqda
ulur
ulus
uluslararası
ulusu
um
uma
umayaqlılar
umer
umlu
umu
umuz
un
una
unayev
unc
und
unda
undadır
undakı
undan
under
understanding
undur
unduru
une
unesco
uni
unikal
union
unit
united
univ
universal
universe
universita
universitet
universitetdə
universitetdən
universiteti
universitetin
universitetində
universitetindən
universitetini
universitetinin
universitetinə
universitetlər
universitetlərdə
universitetləri
universitetlərin
universitetlərində
universitetlərindən
universitetlərinin
universitetə
universities
university
unix
unla
unlar
unları
unların
unlarına
unlarında
unlarını
unlarının
unlas
unlug
unluq
unluqları
unluqlarını
until
untranslated
unu
unuda
unudulmaz
unudulmus
unun
ununa
ununu
ununun
unutma
unutmaq
unutmayın
unuz
unuzu
up
update
updated
upon
uppsala
uq
uqanda
ur
ura
ural
uran
uranın
urartu
urası
urasına
urasında
urasının
uraya
urb
urban
urbanizasiya
urbəyli
urdan
urdu
uri
url
urla
urlanması
urlanmıs
urlar
urlara
urları
urların
urlarına
urlu
urlug
urluq
urmiya
urmus
ursuz
ursuzlug
ursuzluq
ursuzluqla
uru
urud
urum
urumc
urun
uruna
urunu
urunun
uruqvay
urur
urus
us
usa
usb
use
used
user
usets
using
ussr
ust
usta
ustaclı
ustad
ustadı
ustalar
ustaları
ustalarının
ustalıg
ustalıqla
ustası
ustos
usu
usudur
usuna
usunda
usundan
usunu
usunun
ut
utc
uti
utilities
utrecht
utrext
uvas
uvertu
ux
uxur
uya
uydurma
uyg
uyus
uz
uzadıb
uzadılmıs
uzag
uzanan
uzanmıs
uzanıb
uzanır
uzanırdı
uzaq
uzaqda
uzaqdan
uzaqdır
uzaqgo
uzaqlas
uzaqlıg
uzaqlıqda
uzatdı
uzbekistan
uzlar
uzların
uzlas
uzun
uzunc
uzundur
uzunlug
uzunluq
uzunluqda
uzunluqdadır
uzunluqları
uzunmu
uzuno
uzunsov
uzunu
uzununa
v
va
vac
vaccinium
vachellia
vacib
vacibdir
vacibliyi
vacibliyini
vadar
vadi
vadim
vadisi
vadisində
vadisinin
vadisinə
vafiq
vag
vahabzadə
vahid
vahidi
vahididir
vahidində
vahidinin
vahidlər
vahidləri
vahidlərinin
vahimə
vakfı
val
valaxiya
valeh
valensiya
valentin
valentina
valeri
valeriana
vali
valideyn
valideynlər
valideynləri
valideynlərin
valideynlərinin
validə
valisi
vallah
valley
valter
value
valyuta
valyutanın
vampir
vampire
van
vanda
vankuver
vanna
vanov
vanovic
vanın
vaqe
vaqif
vaqifin
vaqner
vaqon
var
vardı
vardır
vari
variant
variantda
variantları
variantı
variantında
variasiyalar
varidatı
variety
varilər
variləri
various
varis
varisi
varislik
varisləri
varlı
varlıg
varlıq
varlıqdır
varlıqlar
varlıqların
varmı
varmıs
varna
vars
varsa
vartas
varı
vas
vasif
vasil
vasili
vasilyevic
vasitə
vasitəc
vasitədir
vasitələr
vasitələrdən
vasitələri
vasitələrin
vasitələrindən
vasitələrini
vasitələrinin
vasitələrinə
vasitələrlə
vasitəsi
vasitəsidir
vasitəsilə
vasitəsiylə
vassal
vassalı
vastəsi
vatikan
vaucouleurs
vaxt
vaxta
vaxtanq
vaxtas
vaxtda
vaxtdan
vaxtilə
vaxtkı
vaxtla
vaxtlar
vaxtlarda
vaxtları
vaxtlarında
vaxtsa
vaxtsız
vaxtı
vaxtın
vaxtında
vaxtından
vaxtını
vaxtının
vay
vayt
vaz
vaza
vb
vbə
vbədə
vbədənkənar
vbəli
vbələs
vbəsində
vbəti
vc
vcu
vcud
vcuddur
vcudlug
vd
vdu
vdə
vdəli
vdələs
vdən
vdənin
vdəsi
vdəsinin
vdət
ve
veb
veber
vebsaytı
vec
vedi
vegas
vegetasiya
vegetativ
vektor
velocities
velosiped
velosipedc
ven
vena
venc
venera
veneranın
venesiya
venesuela
venezuela
venice
venom
venoz
venus
veqa
ver
vera
verbena
verdi
verdik
verdikdə
verdikdən
verdikləri
verdilər
verdim
verdin
verdiyev
verdiyi
verdiyini
verdiyinə
vergi
vergidən
vergilər
vergiləri
vergilərin
vergisi
vergu
verib
veriblər
verici
verildi
verildikdən
verildiyi
verildiyini
verilib
verilir
verilirdi
verilis
verilmir
verilmis
verilmədi
verilməlidir
verilməmis
verilməsi
verilməsini
verilməsinə
verilsə
verilə
veriləcək
verilən
verilənlər
verilənləri
verilənlərin
verim
verin
verir
verirdi
verirdilər
verirlər
verirəm
veris
veritabanı
verlag
verlis
verm
vermir
vermirdi
vermis
vermə
vermədi
vermədən
vermək
verməkdir
verməkdə
verməkdən
verməklə
verməli
verməlidir
verməmis
verməmək
verməsi
verməsindən
verməsini
verməsinə
verməyi
verməyib
verməyin
verməyə
verməyən
verməz
verner
veronica
veronikanın
versal
versin
version
versiya
versiyada
versiyaları
versiyası
versiyasıdır
versiyasına
versiyasında
versiyasını
versiyasının
versiyaya
verst
verstlik
versə
verticordia
vertikal
vertikordiya
vertyu
very
verə
verəcək
verəcəkdir
verəcəyi
verəcəyini
verəcəyəm
verən
verəndə
verənlər
verənləri
verər
verərdi
verərkən
verərək
verərəm
vest
vestfaliya
vestminster
veteran
veteranı
vey
veys
veysəlli
veyt
vg
vh
vhi
vhə
vhələr
vhələri
vhənin
vhər
vhəri
vhəsi
vi
via
vial
viburnum
vicdan
vicdanla
vicdanlı
victims
victor
victoria
victory
vida
vidadi
vidalas
video
videosu
vie
vienna
vietnam
view
views
vii
viii
viki
vikianbarda
vikimənbədə
viking
vikipediya
vikipediyada
vikipediyanı
vikisitatda
viktor
viktoriya
vila
vilayət
vilayətdə
vilayəti
vilayətin
vilayətində
vilayətindən
vilayətini
vilayətinin
vilayətinə
vilayətlər
vilayətləri
vilayətlərin
vilayətlərində
vilayətlərinin
vilhelm
vili
vilinin
vill
villa
village
vilnu
vilson
vilyam
vilyams
vin
vinc
vincent
vinsent
viola
violence
violonc
viq
viqat
viqi
viran
virciniya
virgin
virginia
viridis
virtual
virus
virusu
virusun
vis
visa
vishniac
vision
visit
vissarion
visual
vita
vitali
vitamin
vitamini
vitex
vitis
vitse
viz
viza
vizual
vkət
vl
vlad
vladimir
vladimirovic
vladiqafqaz
vladislav
vladları
vladlarına
vladlarından
vladlarını
vladlarının
vladlıg
vladı
vladını
vladının
vlana
vliya
vlu
vlud
vlə
vlər
vlərdə
vlərdən
vləri
vlərin
vlərində
vlərindən
vlərini
vlərinin
vlərinə
vlərə
vlət
vlətc
vlətdir
vlətdə
vlətdən
vləti
vlətin
vlətində
vlətindən
vlətini
vlətinin
vlətinə
vlətli
vlətlər
vlətlərarası
vlətlərdə
vlətlərdən
vlətləri
vlətlərin
vlətlərində
vlətlərindən
vlətlərini
vlətlərinin
vlətlərinə
vlətlərlə
vlətlərə
vlətə
vm
vmu
vo
vogue
voice
voices
vokal
vokalc
vokalist
vol
voleybol
voleybolc
volf
volfqanq
volqa
volqoqrad
vols
volt
volter
volume
volumes
vom
von
voronej
vostok
vote
voyage
vq
vqe
vqedə
vqedən
vqeləri
vqelərini
vqelərinə
vqeyi
vqeyində
vqeyindən
vqeyini
vqeyinin
vqeyinə
vqeyə
vqi
vqu
vqə
vqəladə
vqəltəbii
vr
vran
vranı
vrat
vrdə
vrdəki
vrdən
vri
vrit
vriyyədə
vriyyəsi
vriyyəyə
vrlər
vrlərdə
vrlərdən
vrləri
vrlərin
vrlərində
vrlərinə
vrlərə
vru
vrə
vrədə
vrək
vrəsi
vrəsini
vs
vsiyə
vsiyələr
vsiyəsi
vsu
vsər
vsət
vt
vu
vuar
vulgaris
vulkan
vulkanik
vulkanları
vulkanogen
vulkanı
vulkanın
vur
vura
vuran
vurar
vuraraq
vurdu
vurdug
vurdular
vurduqdan
vurg
vurma
vurmag
vurmaq
vurmaqla
vurmus
vurub
vurulan
vuruldu
vurulması
vurulmus
vurulub
vurulur
vurur
vurus
vv
vvə
vvədə
vvədən
vvələr
vvələrdən
vvələri
vvələrin
vvələrində
vvələrindən
vvələrini
vvələrinin
vvələrinə
vvələrlə
vvələrə
vvənin
vvəsi
vvəsini
vvəsinin
vvəsinə
vvət
vvətli
vvəyə
vyac
vyana
vyanada
vyanaya
vyetnam
vyetnamda
vyetnamın
vzu
vzuda
vzular
vzulara
vzularda
vzuları
vzularında
vzulu
vzunu
vzunun
vzusu
vzusuna
vzusunda
vzusunu
vzusunun
vzuya
vzə
vzələri
vzələrində
vzələrinin
vzəsi
vzəsində
vzəsinin
vzəsinə
və
vəba
vəd
vədi
vədə
vəfa
vəfalı
vəfat
vəfatı
vəfatından
vəfatının
vəffəq
vəffəqiyyət
vəffəqiyyəti
vəffəqiyyətli
vəffəqiyyətlə
vəftiz
vəftizc
vəhdət
vəhdəti
vəhs
vəhy
vəkil
vəkili
vəkillər
vəkilləri
vəkilov
vəkkili
vəl
vəli
vəlibəyov
vəliyev
vəliyeva
vəlizadə
vəliəhd
vəliəhdi
vələs
vən
vənin
vəqf
vəqfi
vəqqəti
vər
vərdis
vərziqan
vərəm
vərəq
vərəqi
vərəqə
vərət
vəsait
vəsaiti
vəsaitin
vəsaitinin
vəsaitlər
vəsaitləri
vəsaitlərin
vəsaitlərinin
vəsf
vəsi
vəsiqə
vəsiyyət
vəsiyyətinə
vət
vətən
vətəndas
vətəni
vətənin
vətənində
vətənini
vətəninə
vətənpərvər
vətənpərvərlik
vətənə
vəya
vəz
vəzi
vəzifə
vəzifədə
vəzifədən
vəzifəli
vəzifələr
vəzifələrdə
vəzifələri
vəzifələrin
vəzifələrində
vəzifələrindən
vəzifələrini
vəzifələrinin
vəzifələrinə
vəzifələrə
vəzifəni
vəzifəsi
vəzifəsində
vəzifəsindən
vəzifəsini
vəzifəsinin
vəzifəsinə
vəzifəyə
vəziləri
vəzinin
vəzir
vəziri
vəzirin
vəzirov
vəzirovun
vəziyyət
vəziyyətdə
vəziyyətdədir
vəziyyətdən
vəziyyəti
vəziyyətin
vəziyyətində
vəziyyətindən
vəziyyətini
vəziyyətinin
vəziyyətinə
vəziyyətlə
vəziyyətlərdə
vəziyyətə
w
wa
wainstein
wakita
wales
walk
walker
wall
wallace
walsh
walt
walter
wang
want
war
ward
warfare
warner
warren
warrior
wars
warsaw
was
washington
watch
water
watson
wave
way
wayback
wayne
wcm
we
weather
web
webb
webcitation
weber
website
webster
wedd
wedding
wednesday
week
weekend
weekly
weinberg
welcome
well
were
werner
west
western
what
when
where
which
while
white
who
why
wide
width
wien
wiersema
wife
wight
wiki
wikia
wikipedia
wikisky
wild
wildlife
wiley
wilhelm
will
willd
willem
william
williams
wilson
win
wind
windows
winner
winners
wins
winter
wissen
with
within
without
wo
woelfel
wolf
wolfgang
woman
women
won
wonder
wood
woods
word
wordpress
words
work
working
works
world
worlds
worldwide
would
wps
wright
writer
writers
writing
writings
written
wrong
ws
wu
wurdack
www
wyder
x
xa
xac
xacə
xadim
xadimi
xadimləri
xadimlərindən
xadimlərinin
xadimlərinə
xahis
xain
xakas
xaki
xal
xala
xalası
xalc
xali
xalid
xalidə
xalif
xalifət
xalifətin
xaliq
xalis
xalla
xallar
xallı
xalq
xalqa
xalqdan
xalqlar
xalqlara
xalqlardan
xalqları
xalqların
xalqlarına
xalqlarından
xalqlarının
xalqı
xalqım
xalqımızın
xalqın
xalqına
xalqını
xalqının
xalxal
xalı
xam
xammal
xammalı
xammalın
xan
xana
xanc
xandan
xani
xankəndi
xanla
xanlar
xanları
xanların
xanlarının
xanlıg
xanlıq
xanlıqlar
xanlıqları
xanı
xanım
xanıma
xanımdan
xanımla
xanımlar
xanımı
xanımın
xanın
xanının
xanəgah
xanəndə
xanəndəsi
xaos
xaqan
xaqani
xaqanlıg
xaqanı
xaqanın
xar
xara
xarab
xaraba
xarabalıg
xarabalıqları
xarakter
xarakteri
xarakterik
xarakterikdir
xarakterini
xarakterinə
xarakteristikası
xarakterizə
xarakterli
xardal
xaric
xaricdə
xaricdəki
xaricdən
xarici
xaricində
xaricindəki
xaricə
xarkov
xarəzm
xarəzms
xas
xasay
xasdır
xasiyyət
xasiyyəti
xassə
xassəli
xassələri
xassələrini
xassələrinin
xassələrinə
xassəsi
xatirinə
xatirə
xatirələr
xatirələri
xatirələrində
xatirələrini
xatirəsi
xatirəsini
xatirəsinə
xatun
xatunun
xatırladan
xatırladır
xatırlamaq
xatırlanır
xatırlayır
xavier
xayır
xbir
xbiri
xbox
xdi
xeber
xetaq
xeyir
xeyirli
xeyirlidir
xeyirxah
xeyirxahlıg
xeyirxahlıq
xeyli
xeyr
xeyri
xeyrinə
xeyriyyə
xeyriyyəc
xi
xidmət
xidmətc
xidmətdə
xidmətdən
xidməti
xidmətin
xidmətində
xidmətindən
xidmətini
xidmətinin
xidmətinə
xidmətlər
xidmətləri
xidmətlərin
xidmətlərindən
xidmətlərini
xidmətlərinin
xidmətlərinə
xidmətlərə
xidmətə
xie
xii
xiii
xilafət
xilafəti
xilafətin
xilafətinin
xilas
xilasetmə
xilaskar
xinjiang
xitab
xitam
xiv
xivə
xix
xiyabanda
xiyabanı
xiyabanında
xiyar
xizək
xlor
xlorid
xlsx
xo
xoca
xocalı
xocavənd
xocavəndin
xokkey
xomeyni
xonc
xor
xorasan
xorasana
xorasanda
xorasanın
xordalılar
xoreoqrafiya
xoru
xoruz
xorv
xorvat
xorvatiya
xorvatiyanın
xos
xose
xosrov
xosrovun
xovlu
xoy
xoyski
xoyskinin
xr
xrightarrow
xristian
xristianlar
xristianlara
xristianların
xristianlas
xristianlıg
xristianlıq
xristofor
xrom
xromosom
xroniki
xronoloji
xrus
xs
xt
xtisas
xtisaslas
xtiyar
xtəlif
xtəlifdir
xtəliflik
xtəlifliyi
xtəsər
xu
xuan
xubilay
xuda
xudabəndə
xudadat
xudafərin
xudat
xudavənd
xudayar
xudiyev
xudu
xumar
xur
xuraman
xurlar
xurlarda
xurlardan
xurları
xurların
xurlarından
xurma
xurs
xutoru
xuzistan
xv
xvi
xvii
xviii
xx
xxi
xxii
xxiii
xxiv
xxix
xxv
xxvi
xxvii
xxviii
xxx
xxxi
xxxvii
xxxx
xıdır
xınalıq
xırda
xırdalan
xırdaləc
xıs
xızı
xızır
xəbər
xəbərc
xəbərdar
xəbərdarlıg
xəbərdarlıq
xəbəri
xəbərin
xəbərini
xəbərlər
xəbərləri
xəbərsiz
xəcalət
xədicə
xəlifə
xəlifənin
xəlifəsi
xəlil
xəlilov
xəlq
xəlvət
xələc
xələf
xələfi
xələl
xələt
xəmir
xəmsə
xəncər
xəndan
xəndək
xəqani
xərac
xərc
xərci
xərclər
xərcləri
xərclərin
xərclərini
xərclərinin
xəritə
xəritədə
xəritələr
xəritəsi
xəritəsində
xəritəsini
xəritəsinə
xəs
xəsarət
xəsis
xəstə
xəstəlik
xəstəlikdir
xəstəlikdən
xəstəliklər
xəstəliklərdən
xəstəlikləri
xəstəliklərin
xəstəliklərində
xəstəliklərinin
xəstəliklərinə
xəstəliklərə
xəstəliyi
xəstəliyin
xəstəliyindən
xəstəliyinin
xəstəliyinə
xəstəliyə
xəstələr
xəstələrdə
xəstələri
xəstələrin
xəstələrə
xəstənin
xəstəsi
xəstəxana
xəstəxanada
xəstəxananın
xəstəxanası
xəstəxanasına
xəstəxanasında
xəstəxanasının
xəstəxanaya
xəstəyə
xəta
xətai
xətası
xətlə
xətlər
xətləri
xətlərin
xətlərinin
xətt
xəttat
xəttatlıq
xətti
xəttin
xəttində
xəttindən
xəttini
xəttinin
xəttinə
xəttə
xətvari
xəyal
xəyali
xəyalı
xəyanət
xəyyam
xəz
xəzinə
xəzinəsi
xəzinəsinə
xəzinəyə
xəzri
xəzər
xəzərdə
xəzərin
xəzərlər
xəzərlərin
xəzəryanı
y
ya
yabanı
yad
yada
yadda
yaddan
yaddaqalan
yaddas
yadelli
yadigar
yadıma
yadına
yag
yahoo
yak
yakob
yakov
yakut
yakutiya
yal
yalan
yalana
yalanc
yalandan
yalandır
yalanı
yalar
yaları
yaların
yalarını
yalc
yale
yallı
yalnız
yalnızca
yalqız
yalı
yamac
yamaclarda
yamacları
yamaclarında
yamacı
yamacında
yaman
yamayka
yan
yana
yanacag
yanacaq
yanag
yanan
yanar
yanas
yanda
yandan
yandı
yandırdı
yandırma
yandırmaq
yandırmıs
yandırıb
yandırıldı
yandırılması
yandırılmıs
yandırır
yang
yanlarında
yanlıs
yanma
yanmıs
yanos
yanq
yanvar
yanvarda
yanvarın
yanvarında
yanvarından
yanı
yanıb
yanıma
yanımda
yanın
yanına
yanında
yanındakı
yanından
yanıq
yanır
yap
yapon
yaponca
yaponiya
yaponiyada
yaponiyanı
yaponiyanın
yaponiyaya
yaponlar
yaponların
yapı
yapıs
yaqub
yaqublu
yaqubog
yaqubov
yaqubun
yaqut
yar
yara
yarada
yaradan
yaradaraq
yaradıb
yaradıcı
yaradıcıları
yaradıcılarından
yaradıcılıg
yaradıcılıq
yaradıcılıqla
yaradıcısı
yaradılan
yaradıldı
yaradıldıg
yaradılması
yaradılmasına
yaradılmasında
yaradılmasından
yaradılmasını
yaradılmasının
yaradılmıs
yaradılıb
yaradılır
yaradılıs
yaradır
yaradırdı
yaradırlar
yaralamıs
yaralanan
yaralandı
yaralanmıs
yaralanıb
yaralanır
yaralar
yaralı
yaramaz
yarana
yaranan
yarandı
yarandıg
yaranma
yaranmag
yaranması
yaranmasına
yaranmasında
yaranmasından
yaranmasını
yaranmasının
yaranmıs
yaranıb
yaranır
yararlı
yararlıdır
yararsız
yaras
yarasa
yarası
yarat
yaratdı
yaratdıg
yaratdılar
yaratdıqları
yaratmag
yaratmaq
yaratmaqla
yaratması
yaratmıs
yardım
yardıma
yardımc
yardımlı
yardımı
yardımın
yarg
yari
yarpag
yarpaq
yarpaqlar
yarpaqları
yarpaqların
yarpaqlarından
yarpaqlarının
yarpaqlı
yarı
yarıdan
yarım
yarımada
yarımadada
yarımadanın
yarımadası
yarımadasına
yarımadasında
yarımadasından
yarımadasını
yarımadasının
yarımc
yarımdairəvi
yarımfinal
yarımfinala
yarımfinalda
yarımkec
yarımku
yarımmu
yarımno
yarıms
yarımsəhra
yarın
yarıs
yarısı
yarısına
yarısında
yarısından
yarısını
yarısının
yarıya
yarə
yas
yasamal
yasaqlıg
yasin
yastı
yası
yasəmən
yat
yata
yatag
yatan
yataq
yataqda
yataqları
yataqlarında
yataqlarının
yataqxana
yatdı
yatdıg
yatmag
yatmaq
yatmıs
yatıb
yatır
yatırmaq
yatırıldı
yatırılması
yava
yavas
yavuz
yavər
yaxa
yaxs
yaxud
yaxın
yaxında
yaxından
yaxındır
yaxınlarda
yaxınları
yaxınlarında
yaxınlas
yaxınlıg
yaxınlıq
yaxınlıqda
yaxınlıqdakı
yay
yaya
yayan
yayda
yaydıg
yayla
yaylag
yaylaq
yaylası
yaylasında
yaylasının
yaylım
yaymag
yaymaq
yaymıs
yayı
yayılan
yayıldı
yayıldıg
yayılma
yayılmag
yayılması
yayılmasına
yayılmasında
yayılmasını
yayılmasının
yayılmıs
yayılıb
yayılır
yayım
yayıma
yayımladı
yayımlamıs
yayımlanan
yayımlandı
yayımlanmag
yayımlanmıs
yayımlanıb
yayımlanır
yayımı
yayın
yayıncılık
yayında
yayınevi
yayınları
yaz
yaza
yazan
yazar
yazaraq
yazarkən
yazarlar
yazarı
yazda
yazdı
yazdıg
yazdıqları
yazma
yazmag
yazmaq
yazmaqla
yazmıs
yazı
yazıb
yazıc
yazıda
yazıg
yazılan
yazılar
yazılarda
yazıları
yazıların
yazılarında
yazıldı
yazıldıg
yazılması
yazılmıs
yazılı
yazılıb
yazılır
yazılırdı
yazılıs
yazın
yazında
yazını
yazının
yazıq
yazır
yazırdı
yazırlar
yazıs
yazısı
yazısında
yazıya
yc
yd
ydu
ydə
ydən
ye
year
yearbook
years
yeddi
yeddinci
yedi
yeg
yeganə
yek
yekaterina
yekaterinanın
yekdilliklə
yeksan
yekun
yekunlarına
yekunlas
yekə
yel
yelena
yelizaveta
yelizavetpol
yelkən
yelkənli
yem
yemis
yemə
yemək
yeməkdən
yeməklər
yeməkləri
yeməli
yeməyi
yeməyin
yeməyə
yen
yengicə
yeni
yenic
yenicə
yenidən
yenidənqurma
yenikənd
yenilik
yenilikc
yeniliklər
yenilikləri
yenilməz
yenilənib
yenilənmis
yeniləs
yenisey
yeniyetmə
yeniyetməlik
yeniyetmələr
yeniyetmələrin
yenə
yeon
yepiskop
yepiskopu
yer
yeraltı
yerd
yerdir
yerdə
yerdədir
yerdəki
yerdən
yerdəyis
yerevan
yeri
yeridi
yeridir
yerin
yerində
yerindən
yerini
yerinin
yerinə
yeris
yeriyən
yerli
yerlik
yerlə
yerlər
yerlərdə
yerlərdən
yerləri
yerlərin
yerlərində
yerlərindən
yerlərini
yerlərinin
yerlərinə
yerlərə
yerləs
yersiz
yeru
yerusəlim
yerusəlimdə
yerusəlimə
yerə
yes
yet
yetdi
yetim
yetir
yetirdi
yetirdiyi
yetirdiyinə
yetirib
yetirildi
yetirilib
yetirilir
yetirilmis
yetirilməsi
yetirilməsinə
yetirilən
yetirir
yetirirdi
yetirirlər
yetirmis
yetirmək
yetirmələri
yetirməsi
yetirməyə
yetirə
yetirən
yetirərkən
yetirərək
yetis
yetkin
yetkinlik
yetkinliyə
yetmis
yetər
yetərincə
yetərli
yev
yevgeni
yevgeniya
yevlax
yeyib
yeyilir
yeyin
yeyinti
yeyir
yeyirlər
yeyə
yeyən
yeyər
yezid
yg
ygo
yi
yib
yil
yim
yin
yir
yirmi
yis
yiyələnib
yiyələnmis
ykənir
ykənən
yl
yle
ylu
ylə
ylədi
ylədiyi
yləmis
yləmək
yləməyə
ylənilir
ylər
ylərdə
yləri
ylərin
ylərə
yləyib
yləyir
yləyirlər
yləyə
yləyən
yləyərək
ym
ymə
yn
yni
ynu
ynək
yo
yod
yog
yohan
yohann
yol
yola
yolc
yolda
yoldan
yoldas
yoldur
yolla
yollanan
yollandı
yollanmıs
yollanıb
yollanır
yollar
yollara
yollarda
yollarla
yolları
yolların
yollarına
yollarında
yollarından
yollarını
yollarının
yolu
yoludur
yolun
yoluna
yolunda
yolundan
yolunu
yolunun
yoluxma
yoluxmus
yoluxucu
yon
yonca
yonulmus
yoq
yor
yorg
york
yorka
yorkda
yorkdakı
yorkun
yos
yosunlar
you
young
your
youth
youtube
yovs
yox
yoxa
yoxdu
yoxdur
yoxdursa
yoxlama
yoxlamaq
yoxlanılması
yoxlanılmıs
yoxlanılıb
yoxlug
yoxsa
yoxsul
yoxsullara
yoxsullug
yoxsulluq
yoxus
yozef
yr
yru
yrədir
yrək
yrəndi
yrəndikdən
yrənib
yrənilir
yrənilmis
yrənilməmis
yrənilməsi
yrənilməsində
yrənilməsinin
yrənilməsinə
yrənir
yrənirlər
yrənmis
yrənmə
yrənmək
yrənməlidir
yrənməyə
yrənə
yrənən
yrəs
yrətdi
yrətmis
yrətmək
ys
ysu
ytu
ytəpə
yu
yuan
yubiley
yubileyi
yubileyinə
yug
yul
yuli
yuliya
yulun
yumaq
yumor
yumoristik
yumru
yumruq
yums
yumurta
yumurtadan
yumurtalar
yumurtaları
yumurtanın
yumurtas
yumurtası
yumurtavari
yun
yuna
yunan
yunanca
yunanlar
yunanların
yunanıstan
yunanıstana
yunanıstanda
yunanıstanın
yunayted
yunesko
yunis
yunun
yunus
yupiter
yupiterin
yuqoslaviya
yuqoslaviyanın
yura
yurd
yurdu
yurdun
yuri
yurt
yus
yusif
yusifbəyli
yusifi
yusifin
yusifli
yusifov
yusifzadə
yusuf
yuva
yuvası
yuventus
yuxarı
yuxarıda
yuxarıdakı
yuxarıdan
yuxarıya
yuxu
yuxuda
yuxudan
yuxular
yuxusu
yuxuya
yuyub
yuyucu
yuyulması
yuyulur
yuyur
yuzat
yy
yı
yıg
yıl
yıldırım
yıldız
yılmaz
yırtıcı
yıs
yıxıldı
yıxılıb
yə
yəh
yəhuda
yəhudi
yəhudilər
yəhudiləri
yəhudilərin
yəhudilərinin
yəhudilərə
yəhya
yəhyanın
yəmən
yəməndə
yən
yəni
yəqin
yər
yərc
yərti
yərək
yəssər
yəzid
z
za
zabella
zabit
zabiti
zabitlər
zabitləri
zad
zadə
zadəgan
zadəganlar
zag
zaha
zahid
zahir
zahiri
zahirən
zahlı
zak
zakir
zakirog
zakirə
zakirələr
zakirələrə
zakirəsi
zakirəyə
zal
zala
zalda
zalları
zalı
zalım
zalın
zalına
zalında
zalının
zaman
zamana
zamanda
zamandan
zamankı
zamanla
zamanlar
zamanlarda
zamanlardan
zamanların
zamanov
zamanı
zamanın
zamanında
zambiya
zamin
zanthoxylum
zaqafqaziya
zaqafqaziyada
zaqatala
zaqreb
zar
zarafat
zaritsky
zat
zati
zaur
zavallı
zaven
zavod
zavodda
zavodları
zavodu
zavodun
zavodunda
zavodunun
zay
zb
zbas
zbucaqlı
zbək
zbəkistan
zbəkistanda
zbəkistanın
zbəklər
zbəu
zc
zcan
zcu
zd
zdu
zdə
zdəki
zdən
ze
zealand
zehni
zel
zelandiya
zemfira
zen
zenit
zeppe
zer
zerine
zero
zevs
zevsin
zeyd
zeyir
zeyn
zeynal
zeynalabdin
zeynallı
zeynalov
zeynalova
zeynəb
zeytun
zeyvə
zg
zgu
zgə
zh
zhang
zhou
zi
ziba
zibil
zidd
ziddiyyət
ziddiyyətli
ziddiyyətlər
zik
zikr
zil
zildə
zilin
zillik
zillikdə
zilliyin
zim
zimbabve
zin
zina
zindan
zindana
zinət
ziqmund
zir
zira
zireh
zirehli
zirvə
zirvələri
zirvəsi
zirvəsidir
zirvəsində
zirvəsindən
zirvəsinə
zirvəyə
zirə
ziv
ziya
ziyad
ziyadog
ziyadə
ziyafət
ziyalı
ziyalılar
ziyalıları
ziyalıların
ziyalılarının
ziyalısı
ziyan
ziyana
ziyarət
ziyarətc
ziyarətgah
ziyarətgahı
ziyarəti
ziyarətinə
ziyarətə
ziyəddin
zkar
zl
zlu
zlə
zləmə
zləmək
zlənilir
zlənilmədən
zlənilməz
zlənilən
zlənmis
zlər
zlərdə
zlərdən
zləri
zlərim
zlərimi
zlərin
zlərində
zlərindən
zlərindəndir
zlərini
zlərinin
zlərinə
zlərlə
zlərə
zləs
zləyin
zləyir
zləyirdi
zləyən
zm
zma
zmir
zmu
zmə
zmək
zn
zo
zod
zog
zolag
zolaq
zolaqlar
zolaqlı
zona
zonada
zonalarda
zonaları
zonalarında
zonanın
zonası
zonasına
zonasında
zonasının
zone
zoologiya
zoologiyası
zor
zorakı
zorakılıg
zorakılıq
zorla
zr
zrə
zsu
ztu
zu
zuli
zulinin
zum
zur
zurna
zuruna
zurunda
zv
zvdən
zvi
zvlu
zvlər
zvləri
zvlərin
zvlərindən
zvlərini
zvlərinin
zvlərinə
zvu
zz
zzəddin
zzət
zı
zıg
zına
zında
zından
zını
zə
zəb
zəbt
zədə
zədək
zədələnmis
zədələnməsi
zəffər
zəfər
zəfəran
zəhmət
zəhməti
zəhmətkes
zəhra
zəhər
zəhəri
zəhərli
zəif
zəifdir
zəiflik
zəifliyi
zəiflədi
zəifləmis
zəifləməsi
zəifləyir
zəka
zəkat
zəki
zəkəriyyə
zəl
zəldi
zəldilir
zəldilmis
zəldilməsi
zəldir
zəldən
zəli
zəlib
zəlimxan
zəlir
zəlis
zəllik
zəlliklə
zəllikləri
zəlliyi
zəlliyin
zəlliyini
zəlliyinə
zəllər
zəlləs
zəlmis
zəlov
zəltdi
zəltdiyi
zəltmə
zəltmək
zəlzələ
zəlzələdən
zəlzələlər
zəlzələnin
zəlzələsi
zələr
zəmanə
zəmanət
zəmin
zəmində
zən
zəncan
zənci
zəncir
zənciri
zənd
zəng
zəngi
zəngibasar
zəngilan
zəngilanın
zəngin
zəngindir
zənginlik
zənginliyi
zənginləs
zəngəzur
zənlik
zənlikdə
zənlikdədir
zənliklər
zənliklərdə
zənliyi
zənliyin
zənliyində
zənn
zər
zərb
zərbi
zərbə
zərbələr
zərbələri
zərbəsi
zərdab
zərdabi
zərdu
zərf
zərgər
zərgərlik
zəri
zərif
zərifə
zərində
zərindədir
zərindəki
zərindən
zərinə
zərnigar
zərrə
zəruri
zəruridir
zərurət
zərurəti
zərək
zərər
zərərc
zərəri
zərərin
zərərli
zərərsizləs
zəs
zəsi
zətc
{
|
}
~
¡
£
¥
§
©
ª
«
¬
­
®
¯
°
±
²
³
´
µ
·
¹
º
»
¼
½
¾
¿
×
æ
÷
ø
ı
ıb
ıblar
ıc
ıca
ıcda
ıcı
ıcında
ıcından
ıcını
ıda
ıdakı
ıdakılar
ıdakılardır
ıdakıları
ıdalı
ıdan
ıdurma
ıdurmada
ıdurmalar
ıdı
ıdıb
ıdıcı
ıdıg
ıdıldı
ıdılması
ıdılmıs
ıdılıb
ıdır
ıg
ık
ıkes
ıl
ıla
ılacaq
ıladı
ılamag
ılamaq
ılamıs
ılan
ılanda
ılandı
ılanmıs
ılanır
ılar
ılara
ılaraq
ılardan
ılarla
ıları
ıların
ılarına
ılarından
ılarını
ılarının
ılas
ılayır
ıldan
ıldı
ıldıg
ıldıqdan
ıldır
ılg
ılla
ıllar
ılları
ıllas
ıllı
ılma
ılmag
ılmamıs
ılması
ılmasına
ılmasından
ılmasını
ılmasının
ılmaz
ılmıs
ılpaq
ılpaqdır
ılsın
ılsız
ılı
ılıb
ılıg
ılımtıl
ılın
ılıq
ılıqda
ılıqdan
ılıqla
ılıqlı
ılır
ılırdı
ılıs
ım
ıma
ımag
ımaq
ımda
ımdan
ımtıl
ımı
ımın
ımıs
ımız
ımıza
ımızda
ımızı
ımızın
ın
ına
ınacag
ınacaq
ınadək
ınalıg
ınan
ıncag
ıncaq
ında
ındadır
ındakı
ından
ındaykən
ındı
ınla
ınlar
ınlarla
ınları
ınların
ınlarının
ınlıg
ınlıq
ınma
ınması
ınmaz
ınmıs
ınqayırma
ınqıl
ınqıllı
ınso
ıntı
ıntılar
ıntıları
ıntıların
ıntının
ını
ının
ınına
ınını
ınının
ınıq
ınır
ınız
ınıza
ınızı
ıog
ıq
ıqar
ıqc
ıqda
ıqdan
ıqdır
ıqla
ıqladı
ıqlama
ıqlamalar
ıqlamıs
ıqlandı
ıqlandırma
ıqlanmıs
ıqlar
ıqlara
ıqlarda
ıqlardan
ıqları
ıqların
ıqlarına
ıqlarının
ıqlayıb
ıqlayır
ıqlı
ıqlıg
ıqlıq
ır
ırag
ıram
ıran
ıraq
ıraraq
ırdı
ırdıg
ırdılar
ırdır
ırlar
ırlas
ırlı
ırlıg
ırlıq
ırmag
ırmaq
[...]
