!
"
#
##0
##1
##10
##11
##12
##13
##14
##15
##16
##17
##18
##19
##2
##20
##21
##22
##23
##24
##25
##26
##27
##28
##29
##3
##30
##31
##32
##33
##34
##35
##36
##37
##38
##39
##4
##40
##41
##42
##43
##44
##45
##46
##47
##48
##49
##5
##50
##51
##52
##53
##54
##55
##56
##57
##58
##59
##6
##60
##61
##62
##63
##64
##65
##66
##67
##68
##69
##7
##70
##71
##72
##73
##74
##75
##76
##77
##78
##79
##8
##80
##81
##82
##83
##84
##85
##86
##87
##88
##89
##9
##90
##91
##92
##93
##94
##95
##96
##97
##98
##99
$
%
&
'
(
)
*
+
,
-
.
/
0
00
000
001
01
02
03
04
05
06
07
08
09
0971
1
10
100
1000
10000
1001
1002
1007
101
1010
1016
1017
102
1029
103
1038
104
105
106
107
108
1080
1086
109
1093
11
110
1100
111
1111
112
1126
113
114
115
116
1163
117
1177
118
1186
119
12
120
1200
1204
1206
121
1210
12148
122
1220
123
1236
124
1240
125
1250
1258
126
1260
1266
127
128
1286
129
1290
1296
1299
13
130
1300
1301
1303
1304
1305
131
1310
132
1320
1323
1324
1325
1326
1327
133
1335
134
1340
1341
1342
1344
1348
1349
135
1350
1351
1352
1353
1355
1356
1357
1358
136
1360
1361
1362
1363
1364
1365
1366
1367
1368
1369
137
1370
1371
1372
1373
1374
1375
1376
1377
1378
1379
138
1380
1381
1382
1383
1384
1385
1386
1387
1388
1389
139
1390
1391
1392
1393
1394
1395
1396
1397
1398
1399
14
140
1400
1401
1402
1403
1404
1405
1406
1407
1408
1409
141
1410
1411
1412
1413
1414
1415
1416
1417
1418
1419
142
1420
1421
1422
1423
1424
143
1433
14344
144
145
1450
1451
1453
146
1469
147
148
149
1492
15
150
1500
151
1515
1517
1519
152
1520
1521
1524
1525
1526
1529
153
1530
1532
1534
154
1540
1542
155
1550
1555
1556
156
1560
1565
1566
1568
1569
157
1571
1572
158
1580
159
1595
1598
16
160
1600
1603
1605
1606
161
1610
1611
1612
1618
162
1620
1627
1628
163
1635
164
1642
1644
1648
165
1650
1658
166
1660
1666
167
168
1680
1683
1686
1687
1689
169
1690
1699
17
170
1700
1707
1708
171
1710
1712
1713
1715
1718
1719
172
1720
1721
1722
1723
173
1730
1739
174
1740
1746
1747
1748
1749
175
1750
1751
1752
1753
1754
1755
1756
1757
1758
1759
176
1760
1761
1762
1763
1764
1765
1768
1769
177
1770
1771
1772
1773
1774
1775
1776
1777
1778
178
1780
1781
1782
1783
1784
1785
1786
1787
1788
1789
179
1790
1791
1792
1793
1794
1795
1796
1797
1798
1799
18
180
1800
1801
1802
1803
1804
1805
1806
1807
1808
1809
181
1810
1811
1812
1813
1814
1815
1816
1817
1818
1819
182
1820
1821
1822
1823
1824
1825
1826
1827
1828
1829
183
1830
1831
1832
1833
1834
1835
1836
1837
1838
1839
184
1840
1841
1842
1843
1844
1845
1846
1847
1848
1849
185
1850
1851
1852
1853
1854
1855
1856
1857
1858
1859
186
1860
1861
1862
1863
1864
1865
1866
1867
1868
1869
187
1870
1871
1872
1873
1874
1875
1876
1877
1878
1879
188
1880
1881
1882
1883
1884
1885
1886
1887
1888
1889
189
1890
1891
1892
1893
1894
1895
1896
1897
1898
1899
19
190
1900
1901
1902
1903
1904
1905
1906
1907
1908
1909
191
1910
1911
1912
1913
1914
1915
1916
1917
1918
1919
192
1920
1921
1922
1923
1924
1925
1926
1927
1928
1929
193
1930
1931
1932
1933
1934
1935
1936
1937
1938
1939
194
1940
1941
1942
1943
1944
1945
1946
1947
1948
1949
195
1950
1951
1952
1953
1954
1955
1956
1957
1958
1959
196
1960
1961
1962
1963
1964
1965
1966
1967
1968
1969
197
1970
1971
1972
1973
1974
1975
1976
1977
1978
1979
198
1980
1981
1982
1983
1984
1985
1986
1987
1988
1989
199
1990
1991
1992
1993
1994
1995
1996
1997
1998
1999
2
20
200
2000
2001
2002
2003
2004
2005
2006
2007
2008
2009
201
2010
2011
2012
2013
2014
2015
2016
2017
2018
2019
202
2020
2021
2022
203
2030
204
205
206
207
208
209
21
210
211
212
213
214
215
216
217
218
219
22
220
221
222
223
224
225
226
227
228
229
23
230
2307
231
232
233
234
235
236
237
238
239
24
240
241
242
243
244
245
246
247
248
249
25
250
2500
251
252
253
254
255
256
257
258
259
26
260
261
262
263
264
265
266
267
268
269
27
270
271
272
273
274
275
276
277
278
279
28
280
281
282
283
284
285
286
287
288
289
29
290
291
292
293
294
295
296
297
298
299
3
30
300
3000
301
302
303
304
305
306
307
308
309
31
310
311
312
313
314
315
316
317
318
319
32
320
321
322
323
324
325
326
327
328
329
33
330
331
332
333
334
335
336
337
338
339
34
340
341
342
343
344
345
346
347
348
349
35
350
3500
351
352
353
354
355
356
357
358
359
36
360
361
362
363
364
365
366
367
368
369
37
370
371
372
373
374
375
376
377
378
379
38
380
381
382
383
384
385
386
387
388
389
39
390
391
392
393
394
395
396
397
398
399
4
40
400
4000
401
402
403
404
405
406
407
408
409
41
410
411
412
413
414
415
416
417
418
419
42
420
421
422
423
424
425
426
428
429
43
430
431
432
433
4331
434
435
436
437
438
439
44
440
441
442
443
444
445
446
447
448
449
45
450
451
452
453
454
455
456
457
458
459
46
460
461
462
463
4638
464
465
466
467
468
469
47
470
471
472
473
474
475
476
478
479
48
480
481
483
484
485
486
487
488
49
490
492
493
495
496
497
498
499
5
50
500
5000
501
502
503
504
505
506
507
508
509
51
510
511
512
513
514
515
516
517
518
519
52
520
521
522
524
525
527
528
529
53
530
531
532
533
534
535
538
539
54
540
541
542
543
544
545
547
548
55
550
551
552
554
555
556
557
558
56
560
563
564
565
567
569
57
570
571
572
573
575
576
577
578
58
580
581
582
586
589
59
590
593
595
596
597
599
6
60
600
6000
602
603
605
609
61
610
611
612
613
615
617
618
62
620
622
623
624
625
626
627
628
63
630
631
632
634
635
636
637
639
64
640
642
643
644
65
650
651
652
654
655
656
658
659
66
660
661
662
664
668
67
670
671
672
674
676
678
679
68
680
681
684
69
691
7
70
700
7000
705
707
71
710
711
712
714
715
717
718
72
720
724
728
73
730
734
7340
736
737
74
740
744
745
75
750
751
76
760
77
775
777
78
780
786
787
79
790
7914
8
80
800
8000
81
819
82
820
83
84
840
84511
85
850
86
87
870
88
880
89
9
90
900
9000
907
91
911
912
92
93
930
94
940
95
950
951
953
96
960
961
963
964
965
969
97
970
971
975
978
98
980
99
990
99166
997
999
:
;
<
=
>
?
@
[
\
]
^
_
`
a
aa
aaj
aamir
aap
aaron
ab
abbas
abbasi
abc
abcnews
abd
abdul
abdullah
abi
about
above
abraham
abs
abstract
abu
abuse
ac
academia
academic
academy
access
accessdate
accessed
accident
according
account
accounts
accused
achievement
acid
across
act
acting
action
active
activist
activists
activities
activity
actor
actors
actress
acts
ad
adam
adams
add
additional
address
adds
adelaide
aditi
admin
administration
administrative
adopted
adrian
adult
advaita
advanced
ae
af
affairs
afghan
afghanistan
afiya
afp
africa
african
after
ag
again
against
agarwal
age
aged
agence
agency
agenda
agent
ages
aggregate
agha
ago
agreement
agricultural
agriculture
ah
ahead
ahmad
ahmed
ahmedabad
ai
aid
aims
ain
air
aircraft
airlines
airport
airports
airstrikes
aj
ak
aka
akademi
akbar
akhtar
akshay
al
alam
alan
alarabiya
alaska
albania
albanian
albert
album
aleph
aleppo
alex
alexander
alfred
algeria
ali
alia
align
alive
aljazeera
all
alla
allah
allahabad
allama
alleged
allen
alliance
allied
allies
allowed
allu
almost
along
already
also
alternative
although
alumni
alvi
always
am
amar
amazon
ambassador
ambedkar
amendment
america
american
americans
americas
amersfoort
amid
amir
amit
amitabh
ammad
amman
amnesty
among
amp
amritsar
amsterdam
amy
an
ana
analysis
anand
anchor
ancient
and
anderson
andhra
andre
andrea
andrew
angeles
anglo
ani
animal
animals
animated
animation
anita
ankara
anmol
ann
anna
anne
annie
anniversary
announce
announced
announces
annual
another
ansari
anthem
anthony
anthropology
anti
antiquity
antonio
any
ap
api
app
appendchild
apple
application
appointed
appoints
approach
approves
apps
apr
april
ar
ara
arab
arabia
arabian
arabic
arabnews
arabs
archaeological
archaeology
architecture
archive
archived
archivedate
archives
are
area
areas
argentina
arif
arjun
ark
armed
armenia
armenian
arms
army
arnold
arora
around
array
arrest
arrested
art
arthur
article
articleid
articles
articleshow
artist
artists
arts
arun
ary
aryan
arynews
as
ashes
ashgate
ashok
ashraf
asia
asian
asiatic
asin
ask
asked
asks
asma
asp
aspects
aspx
assad
assam
assault
assembly
assessment
assets
associated
association
astronomical
astronomy
at
athens
athlete
athletes
atlantic
atlas
atomic
attack
attacked
attacks
attempt
attribution
au
auckland
audio
aug
august
aur
aus
austin
australia
australian
austria
aut
auteur
auth
author
authorities
authority
authors
auto
autobiography
autonomous
av
available
average
averages
aviation
avn
award
awarded
awards
away
axis
ayatollah
ayesha
ayodhya
az
azad
azam
azerbaijan
azhar
aziz
b
ba
baba
babar
babelio
babu
baby
bachchan
back
backed
background
bad
bagh
baghdad
bags
baha
bahadur
bahrain
bai
baker
baku
bala
balance
bali
balkan
balkans
ball
baloch
balochistan
baltic
ban
banarsidass
band
banerjee
bang
bangalore
bangkok
bangla
bangladesh
banglapedia
bank
banking
banks
banned
bar
barbara
barcelona
bartleby
bas
base
based
bashir
basic
basis
bat
batting
battle
battles
bay
bb
bbc
bc
bce
bd
be
beach
beat
beautiful
beauty
became
because
become
becomes
becoming
been
before
began
begin
beginning
begins
begum
behind
beijing
being
bel
belarus
belgium
belief
believe
bell
bella
ben
bengal
bengali
benjamin
berkeley
berlin
bernard
best
beta
better
between
bevo
beyond
bf
bg
bhai
bharat
bharatiya
bhaskar
bhatia
bhatt
bhavan
bhutan
bi
bibcode
bible
biblical
bibliographique
bibliographisches
bibliography
bibliothe
bid
big
bigg
biggest
bih
bihar
bill
billion
bin
bio
biographical
biographie
biographies
biography
biological
biology
bios
bir
bird
birds
birmingham
birth
birthday
bitcoin
biz
bjp
bl
black
blackwell
blast
blasts
block
blog
blogs
blogspot
blood
bloomberg
bloomsbury
blr
blue
bn
bnf
bo
board
bob
bodies
body
boeing
bolagh
bollywood
bollywoodhungama
bollywoodlife
bomb
bombay
bombing
bond
book
books
booksources
border
borders
born
bose
bosnia
boss
boston
bosworth
both
boundaries
boundary
bowling
box
boxofficeindia
boxofficemojo
boy
br
branch
brand
brasil
brazil
break
breaking
breaks
brecorder
brian
bride
bridge
brief
brill
bring
brings
britain
britannica
british
broadcasting
broadway
brockhaus
bronze
brother
brothers
brought
brown
bruce
bs
bu
buddha
buddhism
buddhist
budget
build
building
buildings
built
bukhari
bul
bulgaria
bulletin
bureau
burma
bush
business
businessinsider
but
butt
by
byzantine
byzantium
c
ca
caa
cabinet
cable
cache
cairo
calcutta
calendar
california
caliphate
call
called
calls
cambodia
cambridge
came
cameron
camp
campaign
campaignbox
campaigns
camps
campus
can
canada
canadian
canal
cancer
candidate
candidates
cannabis
cannot
cap
cape
capital
capitalism
captain
captured
car
card
care
career
caribbean
carl
carolina
caroline
carrier
cars
case
cases
cash
cast
caste
castle
casualties
casualty
cat
catalana
catalog
catalogue
category
catherine
catholic
catid
caucasus
cause
causes
cb
cbc
cbd
cbs
cc
ccl
cd
cdc
cdot
cdots
ce
ceasefire
celebrate
celebrated
celebrates
celebration
celebrities
celebrity
celebs
cell
census
censusindia
centenary
center
central
centre
centuries
century
ceo
ceremony
cern
cf
cfm
cgi
ch
chah
chairman
challenge
challenges
champion
champions
championship
championships
chan
chancellor
chand
chanda
chandigarh
chandra
change
changed
changes
changing
channel
channels
chapter
character
characters
charge
charges
charles
chart
charter
charts
chatterjee
chaudhry
chechen
chechnya
check
chemical
chemistry
chennai
chi
chicago
chicken
chief
child
children
chile
china
chinese
chipman
chn
choice
chopra
chosen
chris
christian
christianity
christians
christopher
chronicle
chronology
church
churches
churchill
ci
cia
cid
cine
cinema
circassian
citation
cite
cited
citeref
cities
citizen
citizens
citizenship
city
civil
civilian
civilians
civilization
civilizations
cl
claim
claimed
claims
clarendon
clark
clash
clashes
class
classic
classical
classics
classification
clean
clear
cleric
climate
clinical
clio
close
cloudid
club
cm
cms
cn
cnbc
cnn
co
coalition
coast
code
codes
cohen
coins
coke
col
cold
colin
collapse
collected
collection
collections
collective
college
colleges
collins
colombia
colombo
colonial
color
colorado
columbia
column
columns
com
combat
come
comeback
comedy
comes
coming
command
commander
comment
commentary
comments
commerce
commercial
commission
commissioner
committee
common
commons
commonwealth
communication
communications
communism
communist
communities
community
companies
companion
company
comparative
comparison
competition
complete
complex
composition
comprehensive
computer
con
concept
concise
condemns
conditions
conference
confirmed
confirms
conflict
conflicts
congo
congress
connection
connor
conquest
consequences
conservation
considered
consolidated
constantinople
constitution
constitutional
construction
contact
contains
contemporary
content
contents
contest
context
continue
continued
continues
continuum
contribution
contributions
control
controversial
controversy
convention
conversation
conversion
cook
cooperation
copy
copyright
cornell
coronavirus
corporate
corporation
corps
correspondent
corruption
cos
cost
costa
could
council
count
counter
countries
country
county
coup
course
court
courts
cover
covid
cr
craig
crash
create
created
createelement
creation
creative
credit
crew
cricbuzz
cricinfo
cricket
cricketarchive
cricketer
cricketers
crime
crimean
crimes
criminal
crisis
critic
critical
critics
croatia
crooke
crore
cross
crown
crusade
crusades
cs
csfd
csis
cso
ct
cu
cuba
cultural
culture
cultures
cup
currency
current
customs
cut
cv
cy
cyprus
cz
czech
d
da
dabangg
daily
dailypakistan
dailytimes
dalit
dam
damage
damascus
dan
dance
dangerous
daniel
danish
dans
dar
darfur
dark
darreh
darryl
darwin
das
dash
data
database
date
dated
dates
dating
daughter
david
davies
davis
dawn
dawnnews
day
days
db
dc
dd
de
dead
deadline
deadly
deal
dean
death
deaths
debate
debt
debut
dec
decade
deccan
deccanchronicle
deccanherald
december
decision
decisions
declaration
declared
declares
decline
deep
deepika
default
defeat
defence
defense
defined
definition
degree
deh
del
delhi
delta
demand
demands
democracy
democratic
demographic
den
denies
denmark
deoband
department
depression
depth
deputy
der
derek
des
desai
description
desert
design
desk
despite
destroyed
destruction
det
detail
detailed
details
deutsche
deutschen
deutschland
dev
developed
developing
development
develpment
devi
df
dg
dhaka
di
dia
dialogue
diamond
diary
diaspora
dictionary
dictionnaire
did
die
died
diego
dies
difference
different
digital
dil
din
dinar
dipalpur
dipika
diplomacy
diplomat
diplomatic
direct
directed
director
directorate
directors
directory
disaster
discogs
discovery
discrimination
discussion
disease
diseases
dish
disney
display
displaydetails
displaystyle
dispute
distribution
district
districts
div
diversity
divided
divine
division
divisions
divya
diwali
dk
dna
dnaindia
do
doc
docid
docs
doctor
doctors
document
documentary
documentation
documents
does
dog
doi
doing
dollar
domain
domestic
don
donald
done
dos
double
douglas
down
download
downloads
dozens
dp
dq
dr
draft
drama
dramas
dream
dreams
dreyer
drive
drl
drone
drop
drug
drugs
ds
du
dubai
dublin
dudley
due
duke
dunya
dunyanews
during
dutch
dutt
dw
dx
dynamics
dynasties
dynasty
e
ea
each
earlier
earliest
early
earth
earthquake
east
eastern
eb
ebchecked
ebooks
ec
ece
eci
eco
economic
economics
economictimes
economist
economy
ecp
ecs
ecumenical
ed
edge
edinburgh
edit
edited
edition
editions
editor
editorial
editors
edmund
eds
edu
education
educational
edward
edwin
ee
ef
effect
effects
effort
efforts
eg
egypt
egyptian
ei
eid
eight
einstein
either
ek
el
elected
election
elections
electoral
electric
electricity
electronic
element
elements
elite
elizabeth
ellis
else
em
embassy
emergence
emergency
emerging
emid
emily
emirate
emirates
emma
emmanuel
emperor
empire
empires
employment
emporis
empty
en
enciclope
enciclopedia
enciklopedija
encyclopaedia
encyclopedia
encyclopædia
end
ended
ending
ends
enemy
energy
eng
engine
engineering
england
english
eni
enough
enseignement
enter
enters
entertainment
entire
entity
entry
environment
environmental
enzy
enzyklopa
ep
epaper
epic
episode
equality
er
era
erdogan
eric
erickson
eritrea
error
es
espan
espn
espncricinfo
essay
essays
essential
est
established
establishment
estado
estimate
estimated
estimates
estonia
et
eta
etc
ethics
ethiopia
ethnic
ethnicity
ethnologue
eu
eurasia
euro
europa
europe
european
eurostat
ev
evans
eve
even
event
events
ever
everest
every
everything
evidence
evolution
evolutionary
ex
example
excerpt
exchange
excludes
exclusive
executed
execution
executive
exhibition
exodus
expandtemplate
expansion
experience
expert
experts
explained
explore
explosion
express
external
externalid
eye
eyes
f
fa
face
facebook
faces
fact
factbook
facts
faculty
failed
failure
fair
faisalabad
faith
fakhri
fall
falls
false
fame
families
family
famine
famous
fan
fans
faq
far
farah
farc
farm
farmer
farmers
farooq
fashion
fast
fastest
father
fatima
fb
fc
fd
fe
fear
feature
featured
features
feb
february
fed
federal
federation
feel
fellows
female
fembio
feminism
feminist
festival
festivals
few
ff
fi
fiction
field
fields
fifa
fifth
fight
fighter
fighters
fighting
figure
figures
file
files
film
filmfare
filmibeat
filmportal
films
filter
final
finally
finance
financial
find
findagrave
finds
fine
finland
finnish
fire
first
firstladies
firstpost
fischer
fish
fisher
five
fl
flag
flaglist
fleet
flight
flood
florida
fly
flying
fm
fo
focus
folk
folklore
following
food
football
for
forbes
force
forced
forces
ford
foreign
forest
forgotten
form
format
formation
former
formerly
forms
fort
forum
forward
fought
found
foundation
foundations
founder
four
fourth
fox
fr
fra
frac
franc
france
francis
francisco
frank
franklin
franz
frederick
free
freedom
french
fresh
friday
friedrich
friend
friendly
friends
friendship
from
front
frontier
frontline
fruit
ft
ftp
fu
fuel
full
fulltime
func
function
fund
further
future
g
ga
gabriel
gains
gallery
game
games
gamma
gandhi
ganguly
garden
gardens
gas
gates
gave
gay
gaza
gazette
gazetteer
gb
gc
gd
gdp
ge
gec
gen
gender
genealogy
geneastar
general
generation
genesis
genetic
geneva
genocide
geo
geoffrey
geographic
geographical
geography
geological
george
georgetown
georgia
georgian
geos
ger
german
germany
geschichte
get
getelementbyid
getelementsbytagname
gets
getting
getty
ghar
ghosh
ghulam
giant
gif
gill
girl
girls
give
given
gives
giving
glance
global
globalization
globalsecurity
globe
glory
glottolog
gnd
gnu
go
goa
goal
gob
god
goes
gogera
going
gol
gold
golden
good
google
gordon
gospel
gossip
got
gov
governance
government
governments
governor
governors
govt
gr
graham
gran
grand
grande
grant
grave
great
greater
greatest
greece
greek
green
greenwood
gregory
gross
ground
group
groups
grove
growing
growth
grup
gst
gt
gu
guard
guardian
guerra
gugara
guha
guide
guides
guinea
gujarat
gujarati
gul
gulf
gulfnews
gun
gupta
gurdwara
guru
gutenberg
guy
h
ha
haapala
haaretz
haber
habib
had
hadiqa
hadith
haftar
hai
haider
hain
hajj
hajji
half
hall
hamid
hamilton
han
hand
handbook
handle
hands
hans
haplogroup
happened
happy
haq
har
harassment
hard
harper
harpercollins
harris
harry
harv
harvard
haryana
has
hasan
hassan
hat
hate
have
haven
having
hawaii
hayat
hazrat
hbar
hc
hd
he
head
heads
health
heart
heat
heavy
hebrew
heidelberg
height
held
helen
helicopter
hell
help
helsinki
henry
her
herald
herbert
here
heritage
hermann
hero
heroes
herzegovina
hezbollah
hi
hidden
high
higher
highest
highlights
hill
him
himalayan
himself
hina
hindi
hindigeetmala
hindu
hinduism
hindus
hindustan
hindustantimes
hip
hipinpakistan
his
histoire
historia
historian
historians
historic
historical
histories
historiography
history
hit
hitler
hits
hk
hl
ho
hockey
hold
holds
holiday
hollywood
holocaust
holy
home
homepage
hong
honor
honorary
honour
honoured
honours
hope
hopkins
hospital
host
hot
hotel
hour
hours
house
household
houses
housing
how
howard
however
hr
href
hrvatska
hrw
htm
html
http
https
hu
huffington
huffingtonpost
hugh
hum
huma
human
humanitarian
humanity
hundred
hundreds
hungama
hungarian
hungary
hunt
hurst
husain
husband
hussain
hussein
hyderabad
i
iaea
ian
ians
ibdb
ibid
ibn
ibnlive
ibrahim
ibtimes
ic
ica
icc
ice
icon
id
idea
ideas
identifiants
identities
identity
ideology
idf
idlib
iduskbn
iduskcn
ie
if
ignored
ii
iii
iiss
il
illegal
illinois
illustrated
ils
im
image
images
imam
imdb
imf
img
immigration
impact
imperial
imperialism
implications
important
imran
in
ina
inc
incidents
include
included
includes
including
income
incorporated
increase
increased
ind
independence
independent
index
india
indiaglitz
indian
indiana
indianexpress
indians
indias
indiatimes
indiatoday
indiatvnews
indicators
indies
indigenous
indira
individual
indo
indonesia
indonesian
indus
industrial
industries
industry
influence
influential
info
infobox
information
initiative
injured
inline
inner
innerhtml
innings
innovation
input
inquiry
inscriptions
inside
insider
inspired
insse
instagram
instead
instep
institut
institute
institution
institutions
instituto
insurgency
int
integrated
intellectual
intelligence
inter
interactive
interest
interfax
interior
internal
international
internationale
internationals
internet
interpol
interpretation
intervention
interview
interviews
intl
into
intoday
introduction
invalid
invasion
investigation
investment
ioc
ipa
ipl
iplt
iqbal
iqra
ir
iran
iranian
iranica
iranicaja
iranicaonline
iraq
iraqi
ireland
irf
irfan
irish
irna
iron
is
isabart
isbn
ishq
isil
isis
islam
islamabad
islamic
islamist
island
islands
ismail
isna
iso
israel
israeli
issn
issue
issues
ist
istanbul
it
italian
italy
item
itemid
its
itself
iucn
iv
ivan
ix
j
ja
jack
jackson
jacob
jacques
jahan
jai
jail
jain
jaipur
jakarta
jamal
james
jamestown
jamil
jammu
jan
jane
jang
january
japan
japanese
jason
java
jay
jazeera
je
jean
jeddah
jeff
jefferson
jeffrey
jennifer
jeremy
jersey
jerusalem
jesus
jewish
jewishvirtuallibrary
jews
jhang
jharkhand
ji
jihad
jim
jinnah
jn
jnu
jo
joan
job
jobs
joe
johannesburg
john
johns
johnson
join
joined
joins
joint
jon
jonathan
jones
jong
jordan
jose
joseph
josh
joshi
joshua
journal
journalism
journalist
journalists
journals
journey
jp
jpg
jpost
jr
js
jsp
jstor
jta
ju
juan
judaism
judge
jul
julia
july
jun
june
just
justice
justin
k
ka
kabul
kalyan
kamal
kand
kandi
kannada
kapil
kapoor
kara
karabakh
karachi
karan
kardes
karen
karim
karl
karnataka
kashmir
kashmiri
kaur
kavkaz
kazakhstan
kb
ke
keep
keith
kemal
kennedy
kenneth
kenya
kepler
kerala
kevin
key
keynes
khalid
khan
khanate
khanewalmap
khanna
khans
khanum
khomeini
khyber
ki
kids
kiev
kill
killed
killing
killings
kills
kim
kind
king
kingdom
kings
kinh
kiran
kishori
km
know
knowledge
known
ko
kohli
kolkata
kommersant
kong
korea
korean
kosovo
kp
kr
krishna
ks
ku
kuala
kultur
kumar
kumari
kurdish
kurdistan
kurds
kuwait
kz
l
la
lab
label
labor
labour
ladakh
ladies
lady
lahore
lake
lakh
lal
lala
lambda
land
lands
landscape
lane
lang
language
languages
lanka
large
largest
las
last
late
later
latest
latimes
latin
launch
launched
launches
laura
laureates
law
lawrence
laws
lawyer
layyahamap
lb
lca
lccn
le
lead
leader
leaders
leadership
leading
leads
league
learn
learning
least
leave
leaves
leaving
lebanon
lecture
lectures
led
lee
leeds
left
legacy
legal
legend
legendary
legends
legislation
legislative
leiden
leipzig
length
lenin
leo
les
lesbian
less
lessons
let
letter
letters
level
lewis
lexington
li
lib
libar
liberal
liberation
liberty
libraries
library
libris
libya
libyan
license
lies
life
lifestyle
lifetime
light
like
likely
limited
line
lines
linguistics
link
links
list
listed
listing
lists
literary
literature
lithuania
little
littlefield
liu
live
livemint
liverc
lives
living
lk
ll
llc
ln
lo
loc
local
located
location
log
lok
london
lonely
long
longer
longman
look
looking
looks
lord
lore
los
loss
losses
lost
louis
love
low
lower
lp
lpg
lrcescapestr
lrchasstate
lst
lt
ltd
lu
lua
lucknow
lumpur
lundy
lux
lynching
lyrics
m
ma
macedonia
machine
macmillan
mad
made
madelung
madison
madras
madrid
maduro
mag
magazine
magic
mahabharata
mahal
maharaja
maharashtra
mahatma
maher
mahesh
mahmud
mai
mail
main
maint
major
majority
majumdar
make
makes
making
malala
malayalam
malaysia
male
mali
malik
malta
man
management
manageparams
manchester
mandir
mani
manila
mann
manohar
manual
many
map
mapping
maps
maptehsilgojra
maptehsiltoba
mapttsingh
mar
marathi
marc
march
margaret
margin
mari
maria
marie
maritime
mark
market
markets
marriage
married
mars
marshall
martial
martin
marvel
mary
masjid
mass
massachusetts
massacre
massive
master
match
matches
material
materials
mathbf
mathematical
mathematics
matrix
matt
matter
matters
matthew
maulana
max
may
maya
mayor
mazraeh
mc
mcfarland
mcgraw
md
me
meaning
means
measures
meat
mecca
mechanics
medal
media
medical
medicine
medieval
medina
mediterranean
medium
meena
meet
meeting
meets
mehta
mein
melbourne
member
members
memoirs
memorial
memories
memory
men
menon
mental
menu
mera
mere
meri
merriam
mersal
message
messier
met
metabrainz
method
metro
metroplus
metropolitan
mexico
mfa
mha
mi
michael
michigan
microsoft
mid
middle
middleeast
mideast
might
migration
mike
mil
milan
militant
militants
military
militia
miller
million
mills
mind
ming
minimum
minister
ministers
ministry
minnesota
minor
minorities
minority
minute
minutes
mir
mirror
mirza
miss
missile
missiles
missing
mission
mit
mitchell
mk
ml
mm
mn
mo
mob
mobile
mod
mode
model
models
modern
modi
module
mohamed
mohammad
mohammed
mohan
mom
moment
monarchy
monde
monetary
money
mongol
mongolia
monitor
month
monthly
months
monuments
moon
moore
more
morning
morocco
morris
moscow
mosque
most
mosul
mother
motilal
motion
mount
mountain
mountains
move
movement
movements
moves
movie
moviemicro
movies
moving
mozambique
mp
mr
mrs
ms
msn
mt
mtdna
mth
mtv
mu
much
mufti
mughal
muh
muhammad
mukherjee
multan
multi
multiple
mumbai
municipal
municipalities
municipality
munzinger
murder
murdered
murray
museum
music
musical
musicbrainz
muslim
muslims
must
mustafa
mw
mx
my
myanmar
mystery
myth
myths
n
na
naa
nach
nacional
nadia
nadu
nam
name
named
names
nancy
napoleon
narendra
nargis
narrative
nasa
nat
natasha
nath
nation
national
nationale
nationalism
nationalist
nations
native
nato
natural
nature
naval
navy
nawab
nawaz
nazi
nb
nbsp
ncov
nd
ndtv
ne
near
nearly
need
needed
needs
negative
neha
nehru
neil
neo
nepal
net
netflix
netherlands
network
networks
never
new
newindianexpress
newinput
news
newsid
newsite
newsletter
newspaper
newspapers
newsweek
newton
next
ng
nh
ni
nic
nicholas
nick
nicosia
nid
nigeria
night
nikki
nil
nimr
nine
nineteenth
nj
nkp
nl
nm
no
nobel
nobelprize
noble
noc
node
nominated
nominations
nominees
non
none
noor
nor
norman
north
northeast
northern
norton
norway
norwegian
nos
not
note
noted
notes
nothing
notice
noticias
nov
nova
novel
november
now
npr
nr
ns
nsf
nta
nu
nuclear
null
number
numbers
ny
nytimes
nyu
nz
o
obama
obituary
object
oblast
observatory
observer
occupation
occupied
ocean
oclc
oct
october
od
odi
odisha
oecd
of
off
offensive
offer
offers
office
officer
officers
official
officially
officials
offshore
often
og
oh
oil
ok
okaramap
ol
old
oldest
oldid
oliver
olya
olympic
olympics
om
oman
omar
omega
on
once
onclick
one
oneindia
onepage
online
only
op
opac
open
opening
openlibrary
opens
operation
operations
opinion
opposition
option
or
order
orderby
ordered
orders
org
organisation
organization
organizations
orient
oriental
origin
original
originally
origins
orissa
orthodox
os
osman
osmanlı
osprey
ossetia
ost
other
others
ots
otto
ottoman
our
out
outbreak
outlook
outlookindia
outside
oval
over
overseas
overview
owen
own
oxford
p
pa
pacific
package
pact
padma
page
pageid
pages
paid
painting
pak
pakistan
pakistani
pakistanis
pakistans
pakistantoday
pal
palace
palestine
palestinian
palestinians
palgrave
pallavi
pan
panama
pandey
panel
pantheon
paper
papers
par
para
param
parameter
params
parents
paris
park
parliament
parliamentary
part
partial
parties
partition
partner
partners
parts
party
pas
pass
passed
passenger
passes
past
patel
path
patna
patriarch
patriarchate
patrick
paul
pawan
pay
pays
paytm
pbs
pc
pca
pcb
pd
pdf
pdfs
pe
peace
pearl
pearson
pen
penalty
penguin
pennsylvania
people
peoples
per
percent
performance
period
permanent
perry
persia
persian
person
personal
personnel
persons
perspective
perspectives
peru
peshawar
peter
pew
pg
ph
phase
phi
philadelphia
philip
philippine
philippines
phillips
philosophical
philosophy
phoenix
photo
photos
php
physical
physics
physiology
pi
pib
pics
picture
pictures
pid
pierre
pilgrims
pilot
pioneer
pir
pittsburgh
pk
pkk
pl
place
places
plan
planck
plane
planet
planning
plans
plant
plants
platform
play
played
player
players
playing
plays
plo
plot
plus
pm
pmc
pmid
pml
png
po
poem
poems
poet
poetry
poets
point
points
pol
poland
police
policies
policy
polish
political
politician
politics
poll
polls
pooja
poonam
poor
pop
pope
popular
population
populations
por
port
portal
portrait
portugal
portuguese
position
positive
possession
possible
post
poster
posts
potential
pound
pour
poverty
pow
power
powerful
powers
pows
pp
ppp
pr
practice
practices
pradesh
praeger
prakash
prakashan
prasad
prayer
pre
prefecture
prefix
preliminary
prem
premier
premiere
premium
presence
present
presented
presidency
president
presidential
presidents
press
presse
presstv
pressure
prevention
preview
price
prices
pride
primary
prime
prince
princess
princeton
principles
print
printing
prison
prisoners
private
priyanka
prize
prizes
pro
probe
problem
problems
proceedings
process
producer
product
production
products
prof
professional
professor
profile
profiles
program
programme
programmes
programs
progress
project
projects
proleksis
prominent
pronunciation
property
prophet
prospects
protect
protection
protest
protesters
protests
proud
provided
province
provinces
provincial
provisional
ps
psi
psl
psychology
pt
pti
ptv
pub
publ
public
publication
publications
published
publisher
publishers
publishing
pubs
pulse
pune
punjab
punjabi
punjabitribuneonline
puri
purposes
push
put
putin
puts
pvt
px
q
qa
qaeda
qaleh
qamar
qarah
qasim
qatar
qeshlaq
quaid
quality
quantum
quarter
quarterly
que
queen
query
quest
question
questions
quetta
quits
quot
quote
quoted
qur
quran
qureshi
r
ra
race
radical
radio
rahman
rahul
rai
raid
railway
railways
rain
raises
raj
raja
rajasthan
rajinikanth
rajput
rajya
rakh
rally
ram
rana
ranbir
random
range
rani
ranjit
rank
ranking
rankings
rao
rape
rappaport
rare
rashid
rate
rates
rather
rating
ratings
ration
ravi
rawalpindi
ray
raymond
raza
rc
rd
re
reach
reaches
reaction
read
reader
reading
ready
real
reality
really
reason
reasons
rebel
rebellion
rebels
receive
received
receives
recent
recognition
recognize
recognized
record
recorded
records
red
reddy
rediff
redirect
ref
refbegin
refend
reference
references
reform
refugee
refugees
refworld
regarding
regime
region
regional
regions
register
registrar
rehman
reich
reign
rejects
rekhta
related
relation
relations
relationship
release
released
releases
relief
religion
religions
religious
religiousintelligence
remain
remains
remember
remembering
renaissance
rene
renowned
rentiels
replace
report
reported
reporter
reports
representation
reprint
republic
res
rescue
research
reserve
resident
residents
resistance
resolution
resource
resources
response
responsibility
rest
result
results
retirement
retrieved
retscreen
return
returns
reuters
rev
revealed
reveals
review
reviews
revised
revival
revolt
revolution
revolutionary
revolutions
reza
rferl
ri
ria
rica
rice
rich
richard
richards
rieur
right
rights
rio
riots
rise
rises
rising
risk
river
rivers
rizvi
rk
rkiye
rls
ro
road
robert
roberts
robin
robinson
rock
rocket
roger
roglo
rohingya
role
roles
roma
roman
romance
romania
romanian
rome
ron
ronald
room
roosevelt
roots
rose
ross
rough
round
route
routledge
row
rowman
roy
royal
rp
rs
rss
rt
ru
ruby
rukh
rule
ruled
rulers
rules
ruling
run
runs
rural
rus
russell
russia
russian
russo
rutgers
ruth
rwanda
ryan
s
sa
saarc
saba
sabah
sabha
sachin
sacred
saeed
safavid
safe
safety
sage
sahib
sahitya
sai
said
saint
saints
sakshi
salam
sale
saleem
sales
salma
salman
sam
samaa
same
samman
samuel
san
sana
sanam
sanctions
sanjay
sankara
sanskrit
santa
santiago
santosh
sar
sara
sarah
saran
sardar
sarkar
satellite
saud
saudi
save
saw
say
says
sb
sc
scale
scarecrow
schedule
scheme
scholar
scholars
school
schools
schuster
sci
science
sciences
scientific
scientist
scientists
score
scorecard
scorecards
scored
scores
scotland
scott
screen
scribunto
script
scroll
se
sea
seal
search
season
seat
seats
seattle
sec
second
secret
secretariat
secretary
section
sector
secular
security
seds
see
seek
seeks
seema
seen
select
selected
selection
self
sen
senate
send
sends
sengupta
senior
sense
sent
sentence
sep
separate
sept
september
serbia
serbian
serial
series
service
services
session
set
sets
settlement
settlements
seven
seventeenth
seventh
several
sex
sexual
sfd
sg
sh
sha
shadow
shah
shaheen
shahid
shahrak
shaikh
shamela
shanghai
shankar
share
shared
shares
sharif
sharjah
sharma
shaw
she
sheet
sheikh
shetty
shi
shia
shift
shiite
ship
shoot
shooter
shooting
short
shot
should
show
showbiz
shows
shraddha
shri
shtml
si
sid
siddiqui
side
sides
sidi
siege
sify
sig
sigma
sign
signed
signs
sikh
sikhs
silence
silent
silk
silver
simon
sin
since
sindh
sindhi
singapore
singer
singh
single
sinha
sino
sir
sister
sisters
site
sites
situation
six
sixteenth
sixth
size
sjid
sk
sky
sl
slams
slave
slavery
slaves
slide
slovar
small
smith
snac
snaccooperative
so
sobre
soccer
social
socialist
societies
society
socio
sofla
software
solar
sold
soldier
soldiers
solomon
solution
some
son
song
songs
sonia
sons
sony
soon
sort
soul
sound
source
sources
south
southeast
southern
sovereign
sovereignty
soviet
sp
space
spain
span
spanish
speak
speaker
speakers
speaking
speaks
special
species
specified
spectrum
speech
spencer
spiegel
spirit
spiritual
split
spoken
sport
sports
spot
spotlight
spread
spring
springer
sq
sqrt
squad
squads
square
sr
sri
srilanka
srk
ss
ssr
st
stable
stadium
staff
stage
stalin
stan
stanbul
stand
standard
stanford
stanley
star
starrer
starring
stars
start
started
starts
startup
stat
statcan
state
statement
statements
states
static
station
statistical
statistics
statistik
stats
statsguru
status
stay
step
stephen
steps
steve
steven
stewart
still
stm
stock
stone
stop
store
stories
storm
story
strange
strategic
strategy
stream
street
streets
strength
strike
strikes
string
strong
struck
structurae
structure
structures
struggle
stuart
student
students
studies
studio
study
style
su
sub
subcontinent
subhash
subject
subjects
success
successful
succession
such
sudan
sufi
sufism
suicide
sultan
sultanate
sum
summary
summer
summit
sun
sunday
sunil
sunni
sunny
suny
supe
super
supply
support
supporting
supreme
sur
surgery
survey
survival
susan
sushant
suspected
sustainable
sv
svg
swami
swamy
sweden
swedish
sworn
sy
sydney
syed
symbol
symbols
synod
syntax
syracuse
syria
syriahr
syrian
system
systems
t
ta
tab
tabari
tabid
table
tables
tactical
tag
taiwan
take
taken
takes
taking
tale
tales
taliban
talk
talks
tall
tallest
tamil
tang
tanzania
tappeh
target
targets
tarihi
task
tass
tata
tauris
tax
taylor
tazeh
td
tda
te
teacher
teachers
teaching
teachings
team
teams
teaser
tech
technical
technology
ted
teen
tehran
tel
telegram
telegraph
telegraphindia
television
tell
tells
tellychakkar
telugu
template
temple
temples
ten
tendulkar
tennis
tensions
term
terms
territorial
territories
territory
terror
terrorism
terrorist
terrorists
test
testament
testing
tests
texas
text
textbook
texts
th
thai
thailand
thakur
thal
than
that
the
theatre
thedailystar
theguardian
thehindu
thehindubusinessline
their
them
themselves
then
thenews
theology
theory
thepeerage
there
therefore
these
thesis
thestar
they
thing
things
think
third
this
thomas
thompson
those
though
thought
thousand
thousands
threat
threatened
threats
three
throne
through
thumb
thus
ti
tibet
tibetan
ties
tiger
tilak
till
tim
timatic
time
timeline
times
timesofindia
timesofisrael
timothy
tip
title
titled
titles
tn
tnn
tns
to
today
todays
together
tokyo
told
toll
tolombeh
tom
tomb
tomorrow
tony
too
took
toolforge
tooltips
top
topic
topics
tops
toronto
toss
total
totals
tour
tourism
tourist
tournament
toward
towards
tower
town
towns
tp
tr
track
trade
tradition
traditional
traditions
traffic
tragedy
trailer
train
training
trans
transaction
transformation
transgender
transition
translated
translation
translator
transport
transportation
travel
travels
treaties
treatment
treaty
tree
trends
trial
tribal
tribe
tribes
tribune
tribuneindia
tribute
tripathi
triple
triumph
troops
trophy
true
trump
trust
truth
tt
tu
tucker
tum
tunisia
tur
turkey
turkic
turkish
turkmen
turkmenistan
turks
turn
turned
turns
tv
tvurce
tw
twentieth
twenty
twin
twitter
two
tx
txt
type
u
ua
uae
ud
uefa
uk
ukraine
ukrainian
ul
umar
un
una
und
under
understanding
undp
une
unesco
unhcr
uni
unicef
union
unique
unit
united
units
unity
univ
universal
universe
universita
universities
university
unknown
unported
unrest
until
unveils
up
upcoming
update
updated
updates
upload
uploads
upon
upper
uprising
ur
urban
urdu
urges
url
us
usa
usatoday
usayn
use
used
user
users
uses
usgs
using
ussr
utm
uttar
uz
uzbek
uzbekistan
v
va
vaglieri
valley
value
values
van
var
varanasi
variety
various
varma
varun
vat
vatican
ve
veccia
ved
veda
vedanta
vehicle
vehicles
venezuela
verdict
verlag
verma
version
vertreibung
very
veteran
vi
via
vice
victim
victims
victor
victoria
victory
video
videos
vidya
vidyut
vienna
vietnam
view
views
vii
viii
vijay
vikas
village
villages
vincent
violence
violent
viral
virginia
virtual
virus
vision
visit
visits
visual
vladimir
vn
voanews
voice
voices
vol
volume
volumes
von
vote
votes
voting
vs
w
wa
wage
wahhabi
wales
walker
wall
walter
wang
want
wanted
wants
war
ward
warfare
warner
warns
warren
warrior
wars
was
washington
washingtonpost
watch
water
watson
wave
waves
way
wayback
wayne
ways
wd
we
wealth
weapons
weather
web
webcitation
weber
website
webster
wedding
week
weekend
weekly
weight
welcome
welfare
well
wellington
went
were
werner
west
western
what
whc
when
where
which
while
white
whitehouse
who
whole
whom
whose
why
wi
wickets
wide
width
wife
wiki
wikidata
wikimedia
wikipedia
wikisource
wild
wildlife
wiley
wilhelm
will
william
williams
wilson
win
wind
wing
winner
winners
winning
wins
winter
wisden
wisdom
wise
wissen
with
within
without
wjc
woman
women
womens
won
wood
word
wordpress
words
work
workers
working
works
world
worldbank
worldcat
worldcup
worldnews
worlds
worldwide
worst
worth
would
wounded
wp
wrestling
wright
writer
writers
writing
writings
written
wrong
wrote
ws
wsj
wt
wtc
wtca
ww
wwe
www
x
xa
xi
xii
xiii
xinjiang
xiv
xix
xls
xml
xv
xvi
xvii
xviii
xx
y
ya
yadav
yahoo
yale
yang
ye
year
yearbook
years
yeh
yellow
yemen
yes
yet
ynetnews
york
you
young
youngest
your
yousafzai
yousuf
youth
youtube
yu
yugoslavia
yusuf
z
za
zafar
zaman
zealand
zee
zeenews
zero
zh
zia
zimbabwe
zindagi
zionism
zionist
zone
zoo
zu
zur
{
|
}
~
£
§
©
«
­
¯
°
±
²
³
´
·
º
»
½
¾
¿
×
æ
ı
ƒ
ɑ
ə
ɛ
ɪ
ʲ
ʻ
ʼ
ʾ
ʿ
ˈ
ˌ
ː
̀
́
̂
̃
̄
̆
̇
̈
̉
̊
̋
̌
̓
̔
̛
̣
̤
̥
̦
̧
̨
̪
̱
̲
͂
͡
α
β
γ
δ
ε
η
θ
ι
λ
μ
ν
ο
π
ρ
ς
σ
τ
της
του
φ
ψ
ω
ϕ
а
б
большая
в
вои
г
года
города
д
е
з
за
и
имена
история
к
л
м
н
на
о
от
п
по
побратимы
про
р
россии
с
ская
советская
т
у
украі
ф
х
ч
энциклопедия
ю
я
і
ְ
ֲ
ִ
ֵ
ֶ
ַ
ָ
ֹ
ֺ
ּ
ׁ
א
ב
ג
ד
ה
ו
ז
ח
י
כ
ל
מ
ן
נ
ע
פ
ק
ר
ש
ת
؁
؂
،
؍
؎
ؐ
ؑ
ؒ
ؓ
ؔ
ؕ
؛
؜
؟
ء
ءء
ءتک
ءسے
ءماں
ءکو
ءکے
ا
اء
اا
ااں
اب
ابا
ابابا
ابادی
ابان
ابتدا
ابتداء
ابتداي
ابجد
ابحاث
ابخازیہ
ابدال
ابدالی
ابدی
ابر
ابرار
ابراهیم
ابراھیم
ابراہیم
ابراہیمی
ابردین
ابلاغ
ابلیس
ابن
ابو
ابواب
ابوالحسن
ابوالخیر
ابوالسرایا
ابوالعباس
ابوالعلاي
ابوالفتح
ابوالفرج
ابوالفضل
ابوالقاسم
ابوالکلام
ابوبک
ابوبکر
ابوجا
ابوجعفر
ابوحامد
ابوحنیفہ
ابوداو
ابوذر
ابوسعید
ابوسفیان
ابوسلمہ
ابوطالب
ابوظہبی
ابوعبداللہ
ابوعبیدہ
ابوعلی
ابومسلم
ابوموسی
ابوہریرہ
ابيطالب
ابھار
ابھر
ابھرتی
ابھردے
ابھرنے
ابھری
ابھریا
ابھرے
ابھنی
ابھی
ابہار
ابہام
ابی
ابیب
ابیطالب
ات
اتابک
اتابکان
اتاترک
اتار
اتارا
اتارنے
اتارے
اتالیق
اتباع
اتحاد
اتحادی
اتحادیاں
اتر
اترا
اتراکھنڈ
اتردے
اترنے
اترپردیش
اتری
اترے
اتسز
اتفاق
اتفاقا
اتفاقی
اتلا
اتلی
اتلے
اتم
اتنا
اتنی
اتنے
اتوار
اتوں
اتپتی
اتھارتی
اتھارٹی
اتھرو
اتھوا
اتھوں
اتھے
اتہاس
اتہاسک
اتہاسکار
اتہاسکاراں
اتہاسکاری
اتی
اتیامان
اتیرو
اتیلا
اتے
اثاثہ
اثاثے
اثاثےا
اثبات
اثر
اثرات
اثرورسوخ
اثنا
اثناء
اثناعشری
اثیر
اج
اجارہ
اجازت
اجازہ
اجالا
اجاي
اجاگ
اجاگر
اجتماع
اجتماعات
اجتماعى
اجتماعی
اجتناب
اجتہاد
اجداد
اجر
اجرا
اجراء
اجرام
اجرت
اجزا
اجزاء
اجسام
اجل
اجلاس
اجلاساں
اجماع
اجمالی
اجمعین
اجمل
اجمیر
اجمیری
اجناس
اجنبی
اجوکی
اجوکے
اجڑ
اجکل
اجہیاں
اجیاے
اجیت
اجین
اجیہا
اجیہی
اجیہے
اجے
اح
احادیث
احاطہ
احاطے
احباب
احبار
احتجاج
احتجاجی
احترام
احتساب
احتشام
احتمال
احتیاط
احد
احرار
احرام
احزاب
احساس
احساست
احسان
احسن
احمد
احمدا
احمدبن
احمدشاہ
احمدی
احمدیہ
احمر
احناف
احنف
احوال
احکا
احکام
احکامات
احکم
احیا
احیاء
اخ
اخبار
اخبارات
اخباراں
اخباری
اخباریاں
اختتام
اختتامی
اختر
اختراع
اختصار
اختلاط
اختلاف
اختلافات
اختلافی
اختیار
اختیارات
اختیاری
اخذ
اخراج
اخراجات
اخلاص
اخلاق
اخلاقی
اخلاقیات
اخوان
اخوت
اخوند
اخیر
اد
ادا
ادارت
ادارتی
ادارہ
اداریاں
ادارے
ادارےا
اداس
اداسی
ادانا
اداي
اداکار
اداکاراواں
اداکاراں
اداکارہ
اداکاری
اداہرن
ادب
ادبا
ادبی
ادبیات
ادرار
ادراک
ادرنہ
ادرک
ادریس
ادل
ادنی
ادنیہ
ادوار
ادور
ادوں
ادویات
ادویہ
ادھ
ادھا
ادھار
ادھارن
ادھر
ادھم
ادھورا
ادھوری
ادھي
ادھکار
ادھی
ادھین
ادھیکار
ادھے
ادی
ادیان
ادیب
ادیباں
ادیس
ادیش
ادے
اذا
اذان
اذکار
اذیت
اذیتاں
ار
اراد
ارادت
ارادہ
ارادے
ارادےا
اراضی
ارال
اراک
اراکان
اراکین
ارب
ارباب
ارباں
اربعہ
اربعین
اربلی
اربیل
ارتباط
ارتداد
ارتری
ارتقا
ارتقاء
ارتقاي
ارتوین
ارتکاب
ارتکاز
ارتھ
ارجمند
ارجن
ارجنٹاي
ارجنٹاین
ارجیر
ارد
ارداخان
ارداس
اردبیل
اردبیلی
اردشیر
اردل
اردن
اردنی
اردو
اردوي
اردگرد
اردیبہشت
ارزل
ارزنجان
ارسال
ارسطو
ارسلان
ارسنجان
ارسٹفیلڈ
ارسین
ارشاد
ارشد
ارض
ارضی
ارضیات
ارطبون
ارطغرل
ارغون
ارفرٹ
ارقم
ارل
ارلانگر
ارم
ارمان
ارمر
ارمنی
ارمیا
ارمینی
ارمینیا
ارنسٹ
ارواي
ارولا
ارومیہ
ارون
اروناچل
اروند
ارونگ
ارڈنگ
ارکان
ارگنہاو
اری
ارین
اریٹریا
اریٹیریا
ارے
از
ازاد
ازادی
ازالہ
ازاں
ازبک
ازبکستان
ازد
ازدواج
ازدواجی
ازدی
ازسر
ازسرنو
ازل
ازلی
ازم
ازمیر
ازنا
ازواج
ازہر
اس
اساتذہ
اساتید
اساری
اساریا
اساس
اساسی
اساطیر
اساطیری
اسامو
اسامہ
اسان
اسانتی
اسانی
اساں
اسباب
اسباق
است
استاد
استاداں
استادی
استاذ
استارا
استانبول
استانی
استبداد
استثنا
استثناء
استثنی
استحصال
استحقاق
استحکا
استحکام
استدلال
استدلالی
استر
استرا
استراخان
استشهاد
استطاعت
استعارہ
استعداد
استعف
استعفا
استعفی
استعمار
استعماری
استعمال
استغاثہ
استغفار
استفادہ
استقامت
استقبال
استقلال
استمبول
استناد
استنباط
استنبول
استو
استوار
استواي
استوں
استھان
استہبان
استیصال
استیعاب
اسحاق
اسحق
اسد
اسدا
اسدی
اسدیاں
اسدے
اسر
اسراء
اسرار
اسراي
اسسٹنٹ
اسطراں
اسطرح
اسعد
اسفار
اسفراین
اسفند
اسقاط
اسلاف
اسلام
اسلامى
اسلامک
اسلامی
اسلامیات
اسلامیہ
اسلحہ
اسلحے
اسلم
اسلنگن
اسلوب
اسلي
اسلیکن
اسم
اسما
اسماء
اسمارا
اسماعیل
اسماعیلی
اسماعیلیان
اسماعیلیاں
اسماعیلیہ
اسمان
اسماي
اسمبلی
اسمبلیاں
اسمتھ
اسمعیل
اسمگلنگ
اسناد
اسنو
اسنوں
اسنے
اسوان
اسود
اسور
اسوچ
اسوہ
اسى
اسيں
اسٹار
اسٹاف
اسٹالن
اسٹاي
اسٹاپ
اسٹاک
اسٹراي
اسٹریلیا
اسٹریٹ
اسٹریٹجک
اسٹن
اسٹور
اسٹوری
اسٹون
اسٹونیا
اسٹونین
اسٹوپا
اسٹوڈیو
اسٹوڈیوز
اسٹڈی
اسٹڈیز
اسٹیبلشمنٹ
اسٹیج
اسٹیشن
اسٹیشناں
اسٹیفن
اسٹیل
اسٹین
اسٹینڈ
اسٹینڈرڈ
اسٹیو
اسٹیون
اسٹیٹ
اسٹیٹس
اسٹیڈیم
اسپارتا
اسپاي
اسپتال
اسپتالاں
اسپرانتو
اسپن
اسپورٹس
اسپیس
اسپیشل
اسپین
اسپیکر
اسچگل
اسک
اسکالر
اسکالراں
اسکالرز
اسکالرشپ
اسکاي
اسکاٹ
اسکرپٹ
اسکرین
اسکس
اسکندر
اسکندریہ
اسکو
اسکواي
اسکواڈ
اسکواڈرن
اسکور
اسکول
اسکولاں
اسکونڈیڈو
اسکى
اسکی
اسکیم
اسکینڈل
اسی
اسید
اسیر
اسیران
اسیراں
اسیری
اسیں
اسے
اش
اشارات
اشاراں
اشارہ
اشاریہ
اشارے
اشاعت
اشاعتاں
اشاعرہ
اشبیلیہ
اشتر
اشتراک
اشتراکی
اشتراکیت
اشتعال
اشتہار
اشتہارات
اشتیاق
اشراف
اشرافیہ
اشرف
اشرفی
اشرفیاں
اشرفیہ
اشعار
اشعث
اشعری
اشفاق
اشنان
اشناک
اشنویہ
اشوک
اشوکا
اشک
اشکال
اشکنازی
اشیا
اشیاء
اشیاي
اصابہ
اصحاب
اصرار
اصطلاح
اصطلاحات
اصطلاحی
اصغر
اصفهانی
اصفہان
اصفہانی
اصل
اصلا
اصلاح
اصلاحات
اصلاحی
اصلی
اصلیت
اصناف
اصول
اصولاں
اصولی
اضافہ
اضافی
اضافیت
اضافے
اضطراب
اضلاع
اط
اطاعت
اطالوی
اطالویاں
اطالیہ
اطراف
اطفال
اطلاع
اطلاعات
اطلاق
اطلس
اطمینان
اطوار
اطہار
اطہر
اظہار
اظہر
اع
اعادہ
اعانت
اعتبار
اعتدال
اعتراض
اعتراضات
اعتراف
اعتقاد
اعتقادات
اعتقادی
اعتماد
اعتمادی
اعتکاف
اعثم
اعجاز
اعداد
اعدادوشمار
اعراب
اعراف
اعزاز
اعزازات
اعزازی
اعشاریہ
اعضا
اعضاء
اعظم
اعظمی
اعل
اعلا
اعلام
اعلامیہ
اعلامیے
اعلان
اعلانات
اعلانیہ
اعلم
اعلمی
اعلی
اعمال
اعوان
اعیان
اعین
اغجابادی
اغداش
اغراض
اغستافا
اغسو
اغوا
اغواط
اف
افادیت
افتادہ
افتتاح
افتتاحی
افتخار
افراتفری
افراد
افرادی
افراسیاب
افراط
افروز
افریقا
افریقن
افریقہ
افریقی
افزا
افزاي
افزودگی
افسانوی
افسانہ
افسانے
افسانےا
افست
افسر
افسران
افسراں
افسردگی
افسوس
افسوسناک
افشار
افشین
افضل
افطار
افعال
افغان
افغاناں
افغانستان
افغانی
افغانیاں
افق
افقی
افلاطون
افندی
افواج
افواہ
افواہاں
افکار
افیون
افیي
اق
اقارب
اقامت
اقبال
اقبالیات
اقتباس
اقتباست
اقتدار
اقتصادى
اقتصادی
اقتصادیات
اقدار
اقدام
اقدامات
اقدس
اقرار
اقساط
اقسام
اقصی
اقليتی
اقلیت
اقلیتاں
اقلید
اقلیم
اقوال
اقوام
اك
ال
الا
الاباما
الابرار
الاثر
الاحتجاج
الاحکا
الاحکم
الاخبار
الاخلاق
الادب
الاربعین
الارشاد
الارض
الازہر
الاستیعاب
الاسد
الاسرار
الاسلام
الاسلامی
الاسلامیہ
الاسلامیۃ
الاسماء
الاسود
الاسک
الاسکا
الاشراف
الاصابہ
الاصل
الاصول
الاضواء
الاعتدال
الاعتقاد
الاعظم
الاعلام
الاعلمی
الاعلی
الاعمال
الاعیان
الاغانی
الاقوال
الاقوامی
الام
الامالی
الامام
الامامہ
الامامۃ
الامانس
الاماکی
الامر
الامراء
الامم
الامین
الانبیاء
الاندلس
الانساب
الانصاری
الانوار
الاو
الاول
الاولی
الاولیاء
الاي
الاٹ
الایمان
الب
البا
الباب
الباری
الباسان
البانوی
البانی
البانیا
البانیہ
البتہ
البحار
البحر
البحرین
البخاری
البدایہ
البدایۃ
البر
البرخت
البرز
البرشوندے
البرٹ
البرٹا
البرکات
البرہان
البشر
البغدادی
البقرہ
البقیع
البلاغه
البلاغہ
البلاغۃ
البلد
البلدان
البم
البنی
البواقی
البيان
البیان
البیت
البیرونی
الت
التاريخ
التاریخ
التاي
التبیان
التتمش
التجا
التحصیل
التراث
التریخ
التعارف
التفسیر
التمش
التنبرگ
التنزیل
التواریخ
التوحید
التہذيب
التہذیب
الث
الثانی
الثقات
الج
الجامع
الجامعۃ
الجبرا
الجراح
الجزء
الجزاي
الجزیرہ
الجمل
الجنات
الجنان
الجھن
الجیریا
الجیش
الح
الحاج
الحاد
الحارث
الحافظ
الحاق
الحال
الحان
الحاکم
الحج
الحجاج
الحجة
الحجہ
الحديث
الحديثة
الحدیث
الحدید
الحرام
الحرمین
الحسن
الحسنی
الحسين
الحسین
الحسینی
الحفاظ
الحق
الحمد
الحمید
الحنبلی
الحي
الحکم
الحکومت
الحکیم
الخ
الخازن
الخالق
الخصال
الخط
الخطاب
الخلافہ
الخلفاء
الخلیل
الخواص
الخیر
الد
الدر
الدرجات
الدرر
الدمشقی
الدنیا
الدولة
الدولہ
الدين
الدین
الذ
الذریعہ
الذریعۃ
الذکر
الذھب
الذہب
الذہبی
الذی
الر
الرازی
الراضی
الراي
الرجال
الرحم
الرحمان
الرحمن
الرحمہ
الرحیم
الرد
الرزاق
الرسالہ
الرسالۃ
الرسل
الرسول
الرشید
الرضا
الرضی
الرقم
الرو
الرچ
الرہتل
الریاض
الز
الزام
الزامات
الزبتھ
الزمان
الزماں
الزواي
الزہراء
الزیارات
الس
الساي
الستار
السلام
السلطنت
السنة
السنن
السنہ
السنۃ
السيد
السيرة
السٹر
السید
السیر
السیرة
السیرۃ
الش
الشاعر
الشافعی
الشام
الشاملة
الشان
الشراي
الشریعہ
الشریف
الشمس
الشيخ
الشہداء
الشیخ
الشیعة
الشیعه
الشیعہ
الشیعۃ
الص
الصادق
الصالحین
الصباح
الصحابة
الصحابہ
الصحابۃ
الصحیح
الصحیحین
الصدر
الصغیر
الصفا
الصفحة
الصلاۃ
الصمد
الط
الطاف
الطالب
الطالبین
الطالبیین
الطاي
الطبري
الطبری
الطبعة
الطبعۃ
الطبقات
الطوال
الطوسی
الع
العابدین
العارفین
العاص
العالم
العالمین
العاملی
العباد
العباس
العبر
العراقیہ
العرب
العربي
العربية
العربی
العربیہ
العرفان
العروس
العروۃ
العزت
العزيز
العزیز
العصر
العظمی
العظیم
العقد
العقول
العقیدہ
العلم
العلما
العلماء
العلمیہ
العلمیۃ
العلوم
العلی
العمال
العمل
العنان
العین
العیون
الغ
الغابہ
الغدیر
الغرض
الغطا
الغطاء
الغفار
الغمہ
الغنی
الغیب
الغیبة
الغیبہ
الغیبۃ
الف
الفا
الفاظ
الفانسو
الفاي
الفت
الفتاوی
الفتح
الفتن
الفتوح
الفداء
الفرج
الفرق
الفرقان
الفرڈ
الفرید
الفریڈ
الفصل
الفصول
الفضل
الفطر
الفطرت
الفقار
الفقہ
الفقہاء
الفقیہ
الفكر
الفواي
الفونزے
الفوین
الفکر
الفہرست
الق
القاب
القابات
القادر
القادری
القاسم
القاعدہ
القاي
القدر
القدس
القدیر
القرا
القران
القرن
القسام
القضاۃ
القلوب
القوامی
القیس
الكبرى
الكتب
الل
اللسٹ
اللطیف
الله
اللو
اللہ
الم
الما
الماری
المال
المامون
الماي
الماگرو
المبارک
المبسوط
المتوفى
المتوفی
المتوکل
المثل
المجید
المحجوب
المحدثین
المختار
المختصر
المدارس
المدینہ
المذاہب
المراد
المرام
المرتضی
المزار
المساي
المستدرک
المسلمون
المسلمین
المسٹڈ
المشاي
المصابیح
المصری
المصطفی
المصنف
المطلب
المظفر
المعارف
المعانی
المعتصم
المعجم
المعروف
المعظم
المغازي
المغازی
المفید
المقاصد
المقال
المقالات
المقدس
المكتبة
الملل
المللی
الملوک
الملوکی
الملک
المناقب
المناک
المنتصر
المنتظر
المنتظم
المنثور
المنصور
المنکر
المهدي
المو
الموت
المودۃ
الموسوی
المومنین
المکتبۃ
المہدی
المیزان
المیہ
الن
الناس
الناشر
الناصر
النبلا
النبلاء
النبوية
النبوۃ
النبویہ
النبویۃ
النبی
النجاشی
النجف
النجوم
النحل
النسا
النساء
النسل
النشر
النصرہ
النعمان
النفس
النور
النکار
النہایہ
النہایۃ
النہر
النہرین
الو
الواحد
الوار
الوارز
الواعظین
الوافی
الواقدي
الواقدی
الوثقی
الوجود
الوداع
الور
الوری
الوساي
الوسيط
الوطنی
الوفاء
الوقت
الولید
الوپ
الوہاب
الٹ
الٹا
الٹنے
الٹو
الٹی
الٹے
الپ
الپاي
الپباحتل
الپتگین
الپس
الک
الکافی
الکامل
الکاہل
الکبری
الکبیر
الکتاب
الکتب
الکرام
الکریم
الکلام
الکمال
الکندی
الگ
الہ
الہادی
الہام
الہامبرا
الہامی
الہاي
الہدی
الہند
الہى
الہی
الہیات
الی
الیا
الیاس
الیبونار
الیعقوبی
الیقین
الینواي
الینوے
الیون
الیکسس
الیکسیناچ
الیکشن
الیکٹران
الیکٹرانک
الیکٹرانکس
الیکٹرو
الیکٹرون
الیکٹرک
الیکٹریکل
الیگزنڈر
الیگزینڈر
الیگودرز
الے
ام
اما
امارات
امارت
اماسیا
امالی
امام
اماماں
امامت
امامہ
امامی
امامیہ
امان
امانت
اماں
امب
امبر
امبرسر
امبری
امبیڈکر
امبیکاپور
امت
امتحان
امتحانات
امتزاج
امتیاز
امتیازات
امتیازی
امجد
امداد
امدادی
امر
امرا
امراء
امراض
امراو
امراي
امرت
امرتا
امرتسر
امرتسری
امرداس
امروز
امروہوی
امروہہ
امریندر
امریک
امریکا
امریکن
امریکہ
امریکی
امریکیو
امسٹ
امسٹربرگ
امل
املا
املاک
املش
امن
امناٹ
امنگاں
امنی
اموات
اموال
امور
اموی
امویاں
امویہ
امير
امپاي
امپریشنزم
امپیریل
امکان
امکانات
امکانی
امہاو
امی
امیتابھ
امید
امیداں
امیدوار
امیدواراں
امیدیہ
امیر
امیرالمو
امیرالمومنین
امیراں
امیری
امین
امینی
امیگریشن
امیہ
ان
انا
اناج
اناجیل
انار
انارکلی
اناطولیہ
اناو
اناں
انبار
انبالہ
انبوہ
انبیا
انبیاء
انت
انتباہ
انتخاب
انتخابات
انتخابی
انتخاگل
انتر
انتشار
انتشارات
انتطامی
انتظار
انتظام
انتظامات
انتظامی
انتظامیہ
انتفاضہ
انتقال
انتقام
انتقامی
انتم
انتونیو
انتپ
انتھونی
انتھک
انتہا
انتہاي
انج
انجام
انجان
انجم
انجمن
انجمناں
انجن
انجناں
انجنہاں
انجنیي
انجھ
انجیر
انجیل
انجیني
انجینیي
انحراف
انحصار
انحطاط
انخلا
انخلاء
اند
اندا
انداز
اندازا
اندازہ
اندازی
اندازے
اندازےا
اندر
اندرا
اندراج
اندرلے
اندرون
اندرونی
اندروں
اندرے
اندلس
اندلسی
اندور
اندوز
اندھیرا
اندھیرے
اندھے
اندیا
اندیجان
اندیش
اندیشہ
اندیشی
اندیکا
اندے
انرجی
انرولگراٹن
انزي
انس
انساب
انسان
انساناں
انسانی
انسانیت
انساي
انسداد
انسٹاگرام
انسٹی
انسٹیٹیوٹ
انسٹیچیوٹ
انسپکٹر
انش
انشا
انشاء
انشاي
انشورنس
انصار
انصاری
انصاریان
انصاف
انصافی
انضمام
انطاکیہ
انعام
انعامات
انعقاد
انفارمیشن
انفال
انفرادی
انفرادیت
انفراسٹرکچر
انفنٹری
انفو
انفیکشن
انقرہ
انقلاب
انقلابات
انقلابی
انقلابیاں
انمول
انناس
اننت
انند
انندپور
اننگ
اننگز
اننے
انهيں
انو
انوار
انواع
انوالا
انوبھو
انور
انوسار
انوکا
انوکھا
انوکھی
انوکی
انویاہیا
انٹارکٹکا
انٹر
انٹراگنا
انٹرمیڈیٹ
انٹرنیشنل
انٹرنیٹ
انٹرویو
انٹرویوز
انٹرٹینمنٹ
انٹرپراي
انٹلیجنس
انٹونیو
انٹہوون
انٹیلی
انٹیلیجنس
انچ
انچارج
انچیف
انڈر
انڈرگریجویٹ
انڈس
انڈسٹری
انڈسٹریز
انڈمان
انڈو
انڈونیشی
انڈونیشیا
انڈیا
انڈیانا
انڈیاناپولس
انڈیز
انڈیمان
انڈین
انڈیکس
انڈے
انک
انکا
انکار
انکرہ
انکشاف
انکشافات
انکو
انکواي
انکى
انگ
انگاتھ
انگاں
انگد
انگریز
انگریزاں
انگریزوں
انگریزی
انگل
انگلاں
انگلستان
انگلش
انگلی
انگلیاں
انگلینڈ
انگور
انگورہ
انگوش
انگولا
انگوٹھا
انگوٹھی
انگی
انگیز
انگیزی
انھا
انھاننوں
انھاننے
انھاں
انھوں
انھی
انھیں
انھے
انہاں
انہدام
انہوں
انہوںنے
انہيں
انہی
انہیں
انی
انیتا
انیس
انیل
انیک
انیکاں
انیہويں
انے
اه
اهرم
اهل
او
اواخر
اوارڈ
اواز
اواي
اوب
اوباما
اوبامہ
اوبرنبرگ
اوبروالڈ
اوبرگسٹلن
اوبلاست
اوبلاستاں
اوبون
اوت
اوتار
اوتھ
اوتھاي
اوتھوں
اوتھے
اوج
اوجڑی
اوجھل
اود
اودا
اوداں
اودو
اودون
اودوں
اودھ
اودھم
اودھی
اودھے
اودی
اودے
اور
اورا
اوراس
اوراق
اورال
اوران
اورانہاں
اوراپنے
اوراک
اورایہ
اورجا
اورحضرت
اوردا
اوردو
اورفیر
اورلینز
اورنبرگ
اورنج
اورنگ
اورنگزیب
اورنے
اوروہ
اورکنے
اوریسیو
اورینج
اورینٹل
اورینٹلز
اوریگون
اوریہ
اوز
اوزار
اوزاراں
اوزبیک
اوزون
اوس
اوساکا
اوستا
اوستھا
اوسط
اوسطا
اوسلو
اوسٹروبوتھنیا
اوسٹوالڈ
اوسچوایلا
اوسکو
اوسیتیا
اوسیچینا
اوسے
اوشاک
اوشیانا
اوشینساي
اوصاف
اوغلو
اوغوز
اوفا
اوقات
اوقاف
اوقیانوس
اول
اولا
اولاد
اولاداں
اولاي
اولمپک
اولمپکس
اولمپیا
اولو
اولڈ
اولڈنبرگ
اولی
اولیا
اولیاء
اولیاي
اولین
اولیوون
اوم
اومان
اومسک
اون
اونا
اوناں
اونس
اونساگر
اونوں
اونٹاریو
اونٹنی
اونٹھ
اونٹھاں
اونچاي
اونہاں
اونہوں
اونی
اونیں
اونے
اوور
اوورز
اوول
اوون
اوي
اوٹ
اوٹاوا
اوٹاگو
اوٹو
اوپر
اوپری
اوپریٹر
اوپن
اوپننگ
اوپوو
اوپیرا
اوچ
اوچوا
اوڈر
اوڈرنز
اوڈیشا
اوڑیسہ
اوژیچے
اوک
اوکاڑا
اوکاڑہ
اوکروگ
اوکس
اوکسفرڈ
اوکسنارڈ
اوکلاہوما
اوکلینڈ
اوکھا
اوکھے
اوکیناوا
اوگاڈوگو
اوہ
اوہاي
اوہدا
اوہدی
اوہدیاں
اوہدے
اوہناں
اوہنوں
اوہنے
اوہو
اوہی
اویس
اویسی
اویغور
اویں
اي
ايس
ايم
ايک
اٹ
اٹاراڈٹ
اٹارنی
اٹاری
اٹاریوالا
اٹاوا
اٹاں
اٹریبیوٹ
اٹل
اٹلانٹا
اٹلانٹک
اٹلس
اٹلی
اٹو
اٹک
اٹھ
اٹھا
اٹھارواں
اٹھارويں
اٹھارویں
اٹھارہ
اٹھارہويں
اٹھال
اٹھانا
اٹھاندا
اٹھاندے
اٹھانے
اٹھاو
اٹھاواں
اٹھاي
اٹھایا
اٹھدا
اٹھدے
اٹھنے
اٹھواں
اٹھويں
اٹھویں
اٹھی
اٹھیا
اٹھے
اپ
اپاتن
اپارٹمنٹ
اپج
اپر
اپرلے
اپرنت
اپروکت
اپریل
اپسرا
اپلاي
اپنا
اپنانا
اپنانے
اپناو
اپناي
اپنایا
اپنشد
اپنى
اپنی
اپنیاں
اپنے
اپوزیشن
اپڑ
اپڑیا
اپیل
اپݨی
اپݨے
اچ
اچا
اچار
اچارن
اچاریہ
اچانک
اچاي
اچچھم
اچھا
اچھاي
اچھوت
اچھوتاں
اچھی
اچھے
اچی
اچیاں
اچے
اڈ
اڈا
اڈاری
اڈان
اڈاں
اڈاہو
اڈدی
اڈن
اڈنا
اڈوبون
اڈہ
اڈیشن
اڈیٹر
اڈیٹنگ
اڈیک
اڈیہ
اڈے
اڈےا
اڑ
اڑا
اڑان
اڑانے
اڑایا
اڑنے
اڑیسہ
اک
اکا
اکابر
اکابرین
اکادمک
اکادمی
اکار
اکال
اکالی
اکانومی
اکانگی
اکاو
اکاي
اکبر
اکبرا
اکبری
اکتر
اکتساب
اکتفا
اکتوبر
اکثر
اکثریت
اکثریتی
اکرام
اکرم
اکسانے
اکسایا
اکشے
اکلا
اکلس
اکلے
اکمل
اکنامک
اکنامکس
اکو
اکول
اکویلا
اکي
اکٹھ
اکٹھا
اکٹھی
اکٹھیاں
اکٹھے
اکھ
اکھان
اکھاناں
اکھاڑ
اکھاں
اکھر
اکھراں
اکھواو
اکھواي
اکھٹا
اکھڑ
اکھیاں
اکیس
اکیلا
اکیلے
اکیوي
اکیڈمک
اکیڈمی
اکیڈیمی
اکیہويں
اگ
اگامہ
اگاي
اگایا
اگر
اگرتم
اگروال
اگرچہ
اگزیٹر
اگست
اگستیہ
اگلا
اگلی
اگلے
اگمان
اگنی
اگواي
اگوں
اگھے
اگے
اں
اںو
اھل
اہ
اہتمام
اہداف
اہر
اہراس
اہرام
اہروالڈ
اہل
اہلبیت
اہلسنت
اہلکار
اہلکاراں
اہلیا
اہلیت
اہلیہ
اہم
اہمیت
اہنا
اہناں
اہواز
ای
ایاز
ایاشی
ایام
ایاماں
ایامی
ایان
ایبٹ
ایبک
ایبیریا
ایتر
ایتھ
ایتھلیٹکس
ایتھنز
ایتھنول
ایتھنولوگ
ایتھوپیا
ایتھوں
ایتھے
ایثار
ایج
ایجاد
ایجادات
ایجرود
ایجنسی
ایجنسیاں
ایجنٹ
ایجنٹاں
ایجنڈے
ایجوکیشن
ایجوکیشنل
ایجکمین
ایجی
ایجین
ایجیي
ایدا
ایداں
ایدن
ایدوش
ایدھی
ایدھے
ایدی
ایدیاں
ایدے
ایذا
ایذہ
ایر
ایران
ایرانشہر
ایرانى
ایرانی
ایرانیاں
ایرل
ایرو
ایرک
ایری
ایریا
ایریزونا
ایریک
ایس
ایسا
ایسنے
ایسوسی
ایسون
ایسٹ
ایسٹر
ایسٹرن
ایسٹونیا
ایسڈ
ایسکس
ایسی
ایسے
ایشاي
ایشز
ایشلے
ایشن
ایشور
ایشیا
ایشیاء
ایشیاي
ایشین
ایشیي
ایضا
ایغدر
ایغور
ایغوراں
ایف
ایل
ایلازغ
ایلام
ایلبرٹ
ایلبم
ایلبیگنالپ
ایلس
ایلفرڈ
ایلم
ایلماو
ایلن
ایلون
ایلچی
ایلڈر
ایلک
ایلی
ایلیا
ایلیٹ
ایم
ایما
ایمان
ایمانداری
ایمانی
ایمبولینس
ایمرجنسی
ایمسٹرڈیم
ایمل
ایملی
ایمن
ایمنسٹی
ایمٹ
ایمپاي
ایمی
ایمیزن
ایمیزون
ایمیشلی
ایمیلیو
این
اینا
ایناپولس
ایناں
ایناہیم
اینج
اینجلس
ایندرے
ایندھن
اینرجی
اینرون
اینریکو
اینز
اینوں
اینٹاں
اینٹی
اینٹینٹ
اینٹیوخ
اینڈ
اینڈر
اینڈرز
اینڈرسن
اینڈریاس
اینڈریو
اینڈریوز
اینڈی
اینکر
اینگلز
اینگلو
اینہاں
اینی
اینے
ایو
ایوا
ایوارڈ
ایوارڈز
ایوان
ایواناں
ایوانیچا
ایوب
ایوبی
ایودھیا
ایورسٹ
ایولرچیلپن
ایون
ایونٹ
ایونیو
ایويں
ایوٹھایا
ایوں
ایوی
ایویرون
ایویں
ایي
ایٹ
ایٹا
ایٹم
ایٹماں
ایٹمی
ایٹنتھل
ایپ
ایپسس
ایپل
ایپلٹن
ایپی
ایچ
ایڈ
ایڈا
ایڈالف
ایڈاہو
ایڈجسٹ
ایڈریان
ایڈریاٹک
ایڈز
ایڈلبرٹ
ایڈلف
ایڈم
ایڈمرل
ایڈمز
ایڈمنسٹریشن
ایڈمنسٹریٹر
ایڈمنڈ
ایڈن
ایڈنبرا
ایڈنٹ
ایڈواي
ایڈورڈ
ایڈورڈز
ایڈولف
ایڈون
ایڈووکیٹ
ایڈگر
ایڈی
ایڈیشن
ایڈیلیڈ
ایڈیي
ایڈیٹر
ایک
ایکتا
ایکس
ایکسل
ایکسلراڈ
ایکسٹر
ایکسپریس
ایکسپریشنزم
ایکسپلورر
ایکسچینج
ایکشن
ایکو
ایکواڈور
ایکٹ
ایکٹر
ایکڑ
ایگاس
ایگزیکٹو
ایگزیکٹیو
ایگل
ایگوانے
ایں
ایہ
ایہدا
ایہدی
ایہدیاں
ایہدے
ایہناں
ایہنوں
ایہو
ایہہ
ایہی
اے
اےایل
اےکڑ
ب
با
باء
باا
بااثر
بااختیار
باب
بابا
باباجانی
باباي
بابت
بابر
بابری
بابل
بابلی
بابو
بابوشنیچا
بابویہ
بابک
بابی
بابے
بات
باتاں
باتمان
باتنہ
باتو
باتوں
باتھ
باتیں
باج
باجا
باجستان
باجوڑ
باجوں
باجوہ
باجگزار
باجی
باخ
باخبر
باختر
باد
بادام
بادان
بادشاہ
بادشاہاں
بادشاہت
بادشاہتاں
بادشاہی
بادل
بادلاں
بادنورتمبرگ
بادکاراں
بادکاری
بادہ
بادی
بادیات
بادیاں
بار
بارات
بارانی
باراں
باربرا
باربروسا
باربٹ
بارتن
بارسلونا
بارسیلونا
بارش
بارشاں
بارلے
بارود
بارودی
بارڈر
بارک
بارکلہ
بارگاہ
بارہ
بارہبنکی
بارہويں
بارہیا
باری
باریسال
باریک
بارے
باز
بازار
بازاراں
بازاری
بازاں
بازبینی
بازدید
بازنطیم
بازنطینی
بازنطینیاں
بازو
بازگشت
بازی
بازیابی
بازیافت
باس
باسادنگن
باستانی
باسفورس
باسل
باسو
باسکٹ
باسکی
باسی
باش
باشد
باشعور
باشندہ
باشندے
باشندےا
باشکیر
باشی
باصلاحیت
باضابطہ
باطل
باطن
باطنی
باعث
باعزت
باغ
باغات
باغاں
باغپت
باغی
باغیاں
بافت
باقاعدگی
باقاعدہ
باقر
باقی
باقیات
بال
بالا
بالاتر
بالاجی
بالاخر
بالادستی
بالاي
بالاکان
بالاکوٹ
بالاں
بالترتیب
بالخصوص
بالر
بالشویک
بالشویکاں
بالعموم
بالغ
بالغاں
باللہ
بالم
بالمعروف
بالمقابل
بالن
بالواسطہ
بالٹک
بالڈون
بالکل
بالی
بالیا
بالیوڈ
بالیکیسر
بام
بامر
بامیان
بان
بانات
باندر
باندراں
باندھے
باندی
بانس
بانو
بانٹنگ
بانڈ
بانکے
بانگ
بانہ
بانی
بانیاں
بانے
باو
باوا
باوجود
باور
باورچی
باویریا
باي
باٹن
باپ
باپو
باپٹسٹے
باچ
باچا
باچکا
باچکی
باڈی
باڑ
باڑا
باڑہ
باڑی
باک
باکر
باکس
باکسنگ
باکمال
باکو
باکیو
باگ
باں
باہ
باہجوں
باہر
باہرلے
باہروں
باہری
باہلک
باہمی
باہو
بایر
بایزید
ببر
ببری
ببلیوٹیک
بت
بتا
بتاریخ
بتاندے
بتاو
بتاواں
بتاي
بتاں
بتایا
بتدریج
بتریخ
بتی
بتیاں
بتیت
بج
بجا
بجانب
بجاندے
بجانے
بجاي
بجایہ
بجاے
بجبج
بجز
بجلي
بجلی
بجنور
بجٹ
بجھ
بجھا
بجھارتاں
بجھانے
بجیا
بجے
بحار
بحارالانوار
بحال
بحالی
بحث
بحثاں
بحر
بحرالعلوم
بحرالکاہل
بحران
بحراناں
بحرانی
بحری
بحرین
بحرینی
بحریہ
بحق
بحوالہ
بحیثیت
بحیرہ
بخار
بخارا
بخارات
بخارسٹ
بخاری
بخت
بختاور
بختیار
بختیاری
بخش
بخشا
بخشش
بخشنے
بخشی
بخوبی
بخود
بد
بدامنی
بدانا
بدانان
بدانہ
بداي
بدایاں
بدایونی
بدایوں
بدبو
بدتر
بدترین
بدحالی
بدخشان
بدخشاں
بدر
بدرالدین
بدرجہ
بدری
بدستور
بدسلوکی
بدعات
بدعت
بدعنوان
بدعنوانی
بدقسمتی
بدل
بدلا
بدلاو
بدلاں
بدلدا
بدلدی
بدلدے
بدلن
بدلنا
بدلنے
بدلو
بدلہ
بدلی
بدلیا
بدلے
بدن
بدنام
بدنامی
بدو
بدوز
بدوزاں
بدوش
بدوشاں
بدولت
بدوی
بدھ
بدھا
بدھو
بدھی
بدی
بدیسی
بدیع
بدین
بدیہ
بذات
بذریعہ
بر
برا
برابر
برابری
برات
براجمان
برادر
برادران
برادرز
برادری
برادریاں
برار
برازجان
برازیل
براستہ
براشوو
براعظم
براعظماں
برانچ
برانچاں
برانڈ
برانڈنبرگ
براهيم
براو
براون
براي
براڈ
براڈکاسٹ
براڈکاسٹنگ
براڑ
براں
براہ
براہمن
براہمی
براہوي
براہوی
برای
برباد
بربادی
بربر
بربری
بربریت
بربنک
برت
برتانت
برتاو
برتر
برتری
برتن
برتناں
برتھا
برتی
برج
برجستہ
برجمین
برجی
برجیاس
برحق
برخاست
برخلاف
برد
بردار
برداری
برداشت
بردسکن
بردسیر
بردور
بردہ
بردی
بردین
بررسی
برزخ
برزونا
برس
برسا
برسات
برساتی
برساں
برسبین
برسر
برسلز
برسٹل
برسی
برش
برصغیر
برصہ
برطانوی
برطانویاں
برطانیا
برطانیہ
برطرف
برطرفی
برعکس
برف
برفانی
برفیلے
برق
برقرار
برقی
برلن
برم
برما
برمن
برمنگم
برمنگھم
برمک
برمکی
برمی
برن
برنارڈ
برنالہ
برنزوک
برنٹ
برنی
برنینڈو
برو
بروجردی
بروجن
بروز
بروس
بروشسکی
بروصہ
بروقت
بروم
بروناي
برونل
برونن
برونوالڈ
برونڈی
برونکس
برونی
بروي
بروک
بروکلن
برٹ
برٹرینڈ
برٹش
برٹین
برپا
برڈ
برک
برکات
برکت
برکلی
برکلے
برکینا
برگ
برگزیدہ
برگیڈ
برہان
برہم
برہما
برہمن
برہمناں
برہمنی
برہمو
برہنہ
بری
بریان
بریانی
بریری
بریریاں
بریسٹ
بریلا
بریلوی
بریلی
بریمر
بریمن
برین
برینر
برینز
برینڈ
بریٹمین
بریٹن
بریٹیش
بریڈ
بریڈفورڈ
بریڈلے
بریک
بریکن
بریگ
بریگیڈ
بریگیڈیي
برے
بزار
بزبان
بزرور
بزرویٹری
بزرگ
بزرگان
بزرگاں
بزرگوار
بزرگی
بزم
بزمی
بزنس
بزور
بس
بسا
بساو
بساں
بسایا
بست
بستان
بستر
بستریتسا
بستک
بستہ
بستی
بستیاں
بستیوادی
بسر
بسم
بسمارک
بسمل
بسنت
بسنتی
بسنے
بسکرخ
بسکرہ
بسی
بسے
بش
بشار
بشارت
بشانہ
بشر
بشرح
بشرطیکہ
بشرویہ
بشری
بشریات
بشمول
بشنوي
بشپ
بشیر
بصاي
بصرہ
بصری
بصورت
بصیر
بصیرت
بطخ
بطریق
بطلیموس
بطن
بطور
بطوطہ
بظاہر
بعث
بعثت
بعد
بعدا
بعدازاں
بعدی
بعض
بعلبک
بعنوان
بعید
بعینہ
بغاوت
بغاوتاں
بغداد
بغدادی
بغض
بغل
بغلان
بغور
بغیر
بفر
بقا
بقاء
بقاي
بقایا
بقرہ
بقلم
بقول
بقیع
بقیہ
بكر
بل
بلا
بلاد
بلاذری
بلاسپور
بلاشبہ
بلاغت
بلاغی
بلال
بلانکو
بلانے
بلاو
بلاول
بلاي
بلايا
بلاک
بلاگ
بلاں
بلایا
بلب
بلبل
بلبن
بلتس
بلتستان
بلتی
بلحاظ
بلخ
بلخی
بلد
بلدی
بلدیات
بلدیو
بلدیہ
بلرام
بلز
بلعباس
بلغار
بلغاری
بلغاریاي
بلغاریہ
بلغراد
بلقان
بلقیس
بلند
بلندشہر
بلندی
بلندیاں
بلو
بلوا
بلواي
بلوایا
بلوخ
بلور
بلوغ
بلونت
بلوي
بلوچ
بلوچاں
بلوچستان
بلوچی
بلٹن
بلپ
بلچ
بلڈ
بلڈنگ
بلڈنگاں
بلکل
بلکہ
بلگرامی
بلھے
بلی
بلیا
بلیاں
بلیایا
بلیدہ
بلیغ
بلین
بلیو
بلیي
بلیک
بلیکٹ
بلیہ
بلے
بم
بماکو
بماں
بمب
بمبار
بمباراں
بمباری
بمبي
بمبے
بمشکل
بمطابق
بمعنی
بمقابلہ
بمقام
بمن
بموجب
بن
بنا
بناء
بنات
بنادتا
بنارس
بنارسی
بنالیا
بنام
بنان
بنانا
بناندا
بناندی
بناندے
بنانے
بناو
بناواں
بناون
بناوٹ
بناي
بناپر
بناکر
بناکے
بناں
بنایا
بنایاں
بناے
بنت
بنتر
بنجر
بند
بندا
بندر
بندرگاہ
بندرگاہاں
بندش
بندو
بندوبست
بندوق
بندوقاں
بندگان
بندگی
بندھ
بندھن
بندہ
بندی
بندیاں
بندے
بندےا
بنرجی
بنسی
بنن
بننا
بننے
بنو
بنوا
بنوامیہ
بنواي
بنوایا
بنوری
بنوں
بنویان
بني
بنٹن
بنچ
بنک
بنکاک
بنکر
بنگ
بنگال
بنگالہ
بنگالی
بنگالے
بنگلا
بنگلور
بنگلہ
بنگلے
بنگول
بنگڑیل
بنگیال
بنھ
بنھاں
بنھن
بنھی
بنھیا
بنی
بنیا
بنیاد
بنیاداں
بنیادى
بنیادی
بنیاں
بنین
بنے
به
بهی
بو
بوا
بوانات
بواي
بوبی
بوت
بوتا
بوتل
بوتنانت
بوتوشانی
بوتھے
بوتے
بوجا
بوجھ
بود
بودھ
بودھی
بور
بورا
بورالا
بوردے
بورس
بورلاگ
بورن
بورنیو
بورو
بورڈ
بورڈن
بورڈنگ
بورژوا
بورژوازی
بورگنون
بوری
بوریوالہ
بوزاو
بوس
بوستان
بوسنیا
بوسنیاي
بوسون
بوسٹن
بوسہ
بوسیلیگراد
بوش
بوشہر
بوقت
بول
بولا
بولان
بولاں
بولدا
بولدی
بولدے
بولر
بولن
بولنا
بولنگ
بولنے
بولو
بولٹن
بولڈ
بولی
بولیا
بولیاں
بولیوار
بولیویا
بولے
بوم
بومرداس
بون
بونا
بوناپارٹ
بونڈ
بونگو
بونیر
بونے
بوون
بوي
بوٹ
بوٹا
بوٹسوانا
بوٹی
بوٹیاں
بوٹے
بوچانن
بوچے
بوڑھا
بوڑھاں
بوڑھی
بوک
بوکا
بوکڑا
بوگاتس
بوگرا
بوہاری
بوہان
بوہت
بوہتا
بوہتی
بوہتے
بوہر
بوہرہ
بوہیمیا
بویانوواچ
بویراحمد
بوینا
بویہ
بویین
بى
بي
بيان
بيانات
بيروت
بين
بٹ
بٹالا
بٹالین
بٹلر
بٹن
بٹھا
بٹھایا
بٹھنڈا
بٹھنڈہ
بپا
بپار
بپاش
بپاشی
بپتسمہ
بچ
بچا
بچان
بچانا
بچانے
بچاو
بچاي
بچایا
بچت
بچن
بچنا
بچنے
بچوں
بچپن
بچھا
بچھاي
بچہ
بچی
بچیا
بچیاں
بچے
بچےا
بڈفورڈشاي
بڈھا
بڈھے
بڑ
بڑا
بڑھ
بڑھا
بڑھانا
بڑھاندے
بڑھاوا
بڑھاي
بڑھاپے
بڑھاں
بڑھدا
بڑھدے
بڑھی
بڑی
بڑے
بک
بکتر
بکثرت
بکر
بکری
بکریاں
بکرے
بکس
بکھر
بکھری
بکھرے
بکھڑ
بکھیال
بکیت
بکیٹ
بگ
بگاڑ
بگلا
بگوال
بگٹی
بگڑ
بگڑی
بگھیل
بھ
بھا
بھاجپا
بھار
بھارت
بھارتی
بھارتیاں
بھارتیہ
بھاری
بھاسکر
بھاشا
بھاشاي
بھاشن
بھاف
بھال
بھانت
بھانجے
بھانويں
بھاو
بھاونا
بھاوناواں
بھاویں
بھاي
بھاٹیا
بھاپ
بھاکھڑا
بھاگ
بھاگنے
بھاگوت
بھت
بھتیجا
بھتیجے
بھج
بھجدے
بھجن
بھجوا
بھجواي
بھجوایا
بھجیا
بھجے
بھدر
بھر
بھرا
بھراواں
بھرت
بھرتی
بھردے
بھرم
بھرن
بھرنا
بھرنے
بھروسا
بھروسہ
بھروسے
بھرپور
بھری
بھریا
بھرے
بھل
بھلا
بھلاي
بھلی
بھلے
بھمبر
بھن
بھنڈار
بھنگ
بھنگڑا
بھنگی
بھو
بھوانی
بھوت
بھوتک
بھوتکی
بھوج
بھوجپوری
بھورا
بھوری
بھورے
بھوسلے
بھوشن
بھول
بھولا
بھولو
بھولے
بھومکا
بھومی
بھون
بھوي
بھوٹان
بھوپال
بھوکے
بھى
بھي
بھٹ
بھٹاي
بھٹو
بھٹہ
بھٹی
بھٹیاں
بھپندر
بھڑک
بھڑکانے
بھکتی
بھکر
بھکشو
بھکھ
بھگ
بھگا
بھگت
بھگتاں
بھگتی
بھگوان
بھی
بھیانک
بھیت
بھیج
بھیجا
بھیجاں
بھیجن
بھیجنا
بھیجنے
بھیجی
بھیجیا
بھیجے
بھید
بھیر
بھیرہ
بھیس
بھیل
بھیم
بھیما
بھین
بھیناں
بھینس
بھینٹ
بھیٹ
بھیڑ
بھیڑاں
بھیڑیا
بھیک
بھے
بہ
بہا
بہاء
بہادر
بہادراں
بہادری
بہار
بہاری
بہاماس
بہانہ
بہانے
بہاو
بہاول
بہاولنگر
بہاولپور
بہاي
بہبود
بہبہان
بہبہانی
بہت
بہتا
بہتات
بہتر
بہتری
بہترین
بہتی
بہتے
بہر
بہرام
بہراي
بہرحال
بہرنگ
بہرہ
بہزاد
بہشت
بہشتی
بہشہر
بہلول
بہم
بہمن
بہمنی
بہمیی
بہن
بہناں
بہندی
بہندے
بہنوي
بہنے
بہو
بہوں
بہڑاي
بہہ
بی
بیا
بیابان
بیاس
بیان
بیانات
بیانی
بیانیہ
بیاں
بیاہ
بیبرس
بیبورت
بیبی
بیت
بیتھے
بیتی
بیج
بیجا
بیجار
بیجاپور
بیجنگ
بیجی
بید
بیدار
بیداری
بیدی
بیر
بیرات
بیراج
بیراگی
بیرتھ
بیرجند
بیردا
بیرسٹر
بیرل
بیرم
بیرن
بیرنگ
بیروت
بیرون
بیرونی
بیرکاں
بیری
بیریا
بیرین
بیزار
بیزاری
بیس
بیسارابیہ
بیسن
بیسٹ
بیسڈ
بیش
بیشتر
بیشلسی
بیشک
بیشی
بیض
بیضاوی
بیضوی
بیعت
بیف
بیل
بیلا
بیلارس
بیلاروس
بیلاں
بیلجي
بیلجیم
بیلجیي
بیلسٹک
بیلفاسٹ
بیلفورٹ
بیلنس
بیلٹ
بیلہ
بیلی
بیلیجک
بیلیقان
بیلے
بیم
بیمار
بیماری
بیماریاں
بین
بینا
بیناونٹے
بیناي
بینتی
بینر
بینظیر
بینٹ
بینڈ
بینک
بینکاری
بینکاک
بینکاں
بینکر
بینکنگ
بینگ
بینگلور
بینی
بیواہ
بیورو
بیوروکریسی
بیوقوف
بیونا
بیونس
بیوٹی
بیوچن
بیوہ
بیوی
بیویاں
بیي
بیٹ
بیٹا
بیٹری
بیٹریاں
بیٹزگ
بیٹسچیواندن
بیٹن
بیٹنگ
بیٹھ
بیٹھا
بیٹھدا
بیٹھدے
بیٹھن
بیٹھنا
بیٹھنے
بیٹھک
بیٹھی
بیٹھیا
بیٹھے
بیٹی
بیٹیاں
بیٹے
بیٹےا
بیچ
بیچلر
بیچنے
بیچیی
بیڈ
بیڈمنٹن
بیڑا
بیڑہ
بیڑیاں
بیڑے
بیک
بیکار
بیکانیر
بیکر
بیکرزفیلڈ
بیکرل
بیکن
بیکنز
بیکٹ
بیکٹیریا
بیکہم
بیکیسی
بیگ
بیگم
بیگمات
بیگی
بیہقی
بے
بݨ
بݨاي
ة
ت
تا
تاب
تابع
تابعی
تابعین
تابوت
تابکار
تابکاری
تاتار
تاتاراں
تاتارستان
تاتاری
تاتاریاں
تاثر
تاثرات
تاثیر
تاج
تاجدار
تاجر
تاجراں
تاجپوشی
تاجک
تاجکستان
تاحال
تاحیات
تاخت
تاخیر
تار
تارا
تاراج
تاراں
تارتار
تارم
تارن
تاريخ
تارڑ
تارک
تارکین
تارہ
تاریاں
تاریخ
تاریخاں
تاریخی
تاریک
تاریکی
تارے
تازگی
تازہ
تاسیس
تاش
تاشقند
تال
تالاب
تالش
تاليف
تالپور
تالیف
تالیفات
تامل
تاملناڈو
تان
تانا
تانبا
تانبے
تانجونگ
تاندلیانوالہ
تانگ
تانے
تاو
تاوان
تاویل
تاي
تاپ
تاپمان
تاک
تاکستان
تاکہ
تاکید
تاگہ
تاں
تاہم
تایا
تب
تبادلہ
تبادلے
تباہ
تباہی
تبت
تبتی
تبدیل
تبدیلی
تبدیلیاں
تبریز
تبریزی
تبسم
تبسہ
تبصرہ
تبصرے
تبع
تبلیسی
تبلیغ
تبلیغات
تبلیغی
تبوک
تبھی
تت
تتاں
تتر
تتھ
تتھاں
تثلیث
تجاذب
تجاذبی
تجارت
تجارتی
تجاهله
تجاوز
تجاویز
تجدید
تجربا
تجربات
تجربہ
تجربے
تجرید
تجزایہ
تجزیا
تجزیہ
تجزیے
تجسس
تجوید
تجویز
تجھ
تجھے
تجہیز
تحاي
تحت
تحرک
تحریر
تحریراں
تحریری
تحریف
تحریفات
تحریم
تحریک
تحریکاں
تحسین
تحصیل
تحصیلاں
تحف
تحفظ
تحفظات
تحفہ
تحفۃ
تحفے
تحقيق
تحقیق
تحقیقا
تحقیقات
تحقیقی
تحلیل
تحلیلی
تحمل
تحویل
تخت
تختہ
تختی
تختیاں
تخریب
تخریج
تخصصی
تخفیف
تخلص
تخلیق
تخلیقات
تخلیقی
تخمینہ
تخمینے
تخیل
تد
تدابیر
تدارک
تدبر
تدبیر
تدبیراں
تدریس
تدریسی
تدفین
تدلیس
تدوین
تذلیل
تذکرة
تذکرہ
تذکرۃ
تذکرے
تر
ترا
تراب
ترابزون
تراجم
تراش
تراشی
ترامیم
ترانہ
ترانے
تراوا
تراي
تراڑ
تراکیب
تربت
تربيت
تربیت
ترتیب
ترجمان
ترجمانی
ترجمه
ترجمہ
ترجمے
ترجیح
ترجیحات
ترجیحی
ترخان
تردی
تردید
ترس
ترستینک
ترسیل
ترغیب
ترفان
ترقى
ترقی
ترقیا
ترلاي
ترلي
ترمذ
ترمذی
ترمیم
ترن
ترنت
ترنم
ترنول
ترنگ
ترنگاں
ترویج
ترک
ترکان
ترکاں
ترکستان
ترکمان
ترکماناں
ترکمانستان
ترکمن
ترکوں
ترکھان
ترکھاناں
ترکی
ترکیب
ترکیباں
ترگوویشتے
تری
تریا
تریخ
تریخی
تریموں
ترین
تریپورہ
ترے
تزویراندی
تزي
تزک
تزکیہ
تس
تساں
تسبیح
تستری
تسخیر
تسلسل
تسلط
تسلی
تسلیم
تسمان
تسمانیہ
تسمسیلت
تسنیم
تسيں
تسکین
تسی
تسیں
تش
تشاں
تشبیہ
تشخص
تشخیص
تشدد
تشریح
تشریحات
تشریف
تشویش
تشکیل
تشہیر
تشی
تشیع
تصادم
تصانیف
تصاویر
تصحیح
تصدیق
تصرف
تصریح
تصفیہ
تصنیف
تصنیفات
تصو
تصور
تصورات
تصوف
تصویر
تصویراں
تصویری
تصیل
تضاد
تضادات
تطبیق
تطہیر
تعارف
تعاقب
تعال
تعالى
تعالی
تعامل
تعاون
تعبیر
تعجب
تعداد
تعدد
تعدیل
تعرض
تعریف
تعریفاں
تعزیت
تعزیرات
تعزیہ
تعصب
تعصبات
تعطل
تعطیل
تعطیلات
تعظیم
تعلق
تعلقات
تعلقاں
تعلقہ
تعلیق
تعلیقات
تعلیم
تعلیمات
تعلیمی
تعمیر
تعمیرا
تعمیرات
تعمیری
تعمیل
تعی
تعین
تعینا
تعینات
تعیناتی
تعیین
تغرل
تغلب
تغلق
تغیر
تغیرات
تفاسیر
تفاوت
تفتیش
تفرش
تفرقہ
تفریح
تفریحی
تفریق
تفسير
تفسیر
تفسیری
تفصیل
تفصیلات
تفصیلی
تفویض
تفکر
تفہیم
تقابل
تقابلی
تقاریب
تقاریر
تقاضا
تقاضاں
تقاضے
تقدس
تقدیر
تقرر
تقرری
تقریب
تقریبا
تقریبات
تقریبن
تقریر
تقریرات
تقریراں
تقسیم
تقلید
تقوی
تقویت
تقویم
تقی
تقیہ
تل
تلا
تلاش
تلاشی
تلافی
تلامذہ
تلاوت
تلخ
تلخی
تلخیص
تلر
تلسی
تلف
تلفظ
تلقین
تلمذ
تلمسان
تلنا
تلنگانہ
تلوار
تلواراں
تلونڈی
تلک
تلگو
تلی
تلے
تم
تما
تمارین
تماشا
تماشاي
تمام
تمباکو
تمثیل
تمدن
تمدنی
تمر
تمری
تمسک
تمغا
تمغہ
تمغے
تمل
تمنا
تمنراست
تموشنت
تمہارا
تمہاری
تمہارے
تمہید
تمہیں
تمیر
تمیز
تمیم
تمیمی
تن
تنا
تنازع
تنازعات
تنازعہ
تنازعے
تناسب
تناظر
تناو
تناں
تنبیہ
تنتر
تنجیلی
تنخواہ
تنخواہاں
تند
تندوف
تنز
تنزانیا
تنزانیہ
تنصیب
تنصیبات
تنظیم
تنظیماں
تنظیمی
تنقیح
تنقید
تنقیدی
تنوع
تنویر
تنکابن
تنگ
تنگی
تنہا
تنہاي
تنیڑے
تنے
تهران
تو
توا
توابین
تواتر
تواریخ
توازن
تواس
تواضع
توان
تواناي
تواناں
توانو
تواڈا
تواڈی
تواڈے
توبہ
توتسی
توثیق
توجہ
توجیہ
توحید
توحیدی
تودے
تور
تورات
توران
تورک
توریت
توسط
توسل
توسیع
توصیف
توضیح
توفیق
توقع
توقعات
توقف
توقیر
توقیع
تول
تولا
تولچا
تولید
تولیدی
تومان
تومر
تون
تونس
تونسوی
تونے
تووہ
توپ
توپاں
توپخانے
توپولا
توڑ
توڑن
توڑنا
توڑنے
توڑی
توڑیا
توڑے
توکت
توکل
توں
توہم
توہین
تویسرکان
تویہ
تي
تپ
تپہ
تڑپ
تک
تکاب
تکالیف
تکامل
تکبر
تکبیر
تکر
تکرار
تکریم
تکش
تکفیر
تکلف
تکلیف
تکلیفاں
تکملہ
تکمیل
تکنالوجی
تکنیک
تکنیکاں
تکنیکی
تکون
تکڑا
تکڑی
تکڑے
تکیہ
تھ
تھا
تھااور
تھال
تھالہ
تھام
تھاماراٹ
تھامس
تھامسن
تھان
تھانواں
تھانوی
تھانہ
تھانی
تھانے
تھاو
تھاواں
تھاي
تھاکہ
تھاں
تھر
تھراپی
تھرلر
تھرمل
تھرموڈاي
تھرن
تھرو
تھرڈ
تھری
تھریس
تھل
تھلواں
تھلویں
تھلگ
تھلے
تھم
تھمپٹن
تھن
تھند
تھو
تھور
تھونگ
تھوڑا
تھوڑھا
تھوڑھی
تھوڑھے
تھوڑی
تھوڑے
تھوک
تھى
تھي
تھک
تھکن
تھی
تھیسس
تھیلی
تھیم
تھیمز
تھیورل
تھیوری
تھیوریاں
تھیوڈر
تھیوڈور
تھیٹر
تھیں
تھے
تہ
تہانوں
تہاي
تہاڈے
تہاں
تہجد
تہجی
تہذيب
تہذیب
تہذیباں
تہذیبی
تہران
تہرانی
تہمت
تہوار
تہواراں
تہہ
تی
تیا
تیار
تیارت
تیاری
تیاریاں
تیان
تیاگ
تیاں
تیبازہ
تیتال
تیج
تیجا
تیجی
تیجے
تیر
تیرا
تیرانا
تیراکی
تیراں
تیرتھ
تیرہ
تیرہويں
تیری
تیرے
تیز
تیزاب
تیزی
تیس
تیسرا
تیسری
تیسرے
تیغ
تیل
تیلگو
تیمور
تیموری
تیمیرن
تیمیہ
تین
تینو
تینوں
تیونس
تیویں
تیي
تیک
تیکر
تیکرداغ
تیہہ
تے
ث
ثابت
ثار
ثاقب
ثالث
ثالثی
ثانوی
ثانی
ثانیہ
ثبات
ثبت
ثبوت
ثر
ثروت
ثریا
ثعلبہ
ثعلبی
ثقافت
ثقافتاں
ثقافتی
ثقفی
ثقل
ثقلین
ثقہ
ثقیف
ثلاث
ثلاثہ
ثلث
ثم
ثمر
ثنا
ثناء
ثناي
ثواب
ثور
ثوری
ج
جا
جاء
جابجا
جابر
جابرانہ
جابی
جات
جاتا
جاتاا
جاتاں
جاتاہے
جاتی
جاتے
جاجرم
جاحظ
جادا
جادو
جادوي
جادوگر
جادیاں
جاذب
جار
جارج
جارجیا
جارجیاي
جارحانہ
جارحیت
جارود
جارہی
جارہیا
جارہے
جاری
جاریا
جاز
جاسم
جاسنٹو
جاسوس
جاسوساں
جاسوسی
جاسپر
جاسک
جاسکتا
جاسکدا
جاسکدی
جاسکدے
جاسکن
جاسکے
جافر
جال
جالندھر
جالندھری
جالوت
جالور
جالی
جام
جامد
جامشورو
جامع
جامعہ
جامعۃ
جامعیت
جامنی
جامہ
جامی
جان
جانا
جاناں
جانب
جانبدار
جانبداری
جانتے
جاندا
جاندار
جانداراں
جاندی
جاندیاں
جاندے
جانسن
جانشین
جانشیناں
جانشینی
جانفشانی
جانن
جاننا
جاننے
جانو
جانور
جانوراں
جانچ
جانکاری
جانگے
جانی
جانیا
جانے
جاو
جاوا
جاواں
جاون
جاوی
جاوید
جاویگا
جاوے
جاي
جاٹ
جاٹاں
جاپان
جاپانی
جاپانیاں
جاپدا
جاک
جاکر
جاکے
جاگ
جاگو
جاگیر
جاگیراں
جاگیردار
جاگیردارانہ
جاگیرداراں
جاگیرداری
جاں
جاہ
جاہل
جاہلی
جاہلیت
جایا
جاے
جاݨ
جب
جبا
جبار
جبر
جبرا
جبرالٹر
جبران
جبراي
جبري
جبری
جبریل
جبل
جبلہ
جبوتی
جبکہ
جبیر
جبیل
جت
جتن
جتنا
جتنی
جتوي
جتھ
جتھا
جتھو
جتھوں
جتھیبندی
جتھیدار
جتھے
جتی
جتیا
جتے
جج
ججاں
جد
جدا
جداي
جداگانہ
جداں
جدت
جدل
جدو
جدوجہد
جدول
جدونکھ
جدونکہ
جدوں
جدکہ
جدھر
جدہ
جدی
جدید
جدیدیت
جذب
جذبات
جذبہ
جذبے
جذگل
جر
جرا
جرات
جراثیم
جراح
جراحی
جرار
جراسیم
جراي
جرجان
جرجانی
جرح
جرد
جرسی
جرم
جرمانہ
جرمانے
جرمن
جرمناں
جرمنی
جرمین
جرنل
جرنیل
جرنیلاں
جرگہ
جری
جریان
جریدہ
جریدے
جریر
جز
جزء
جزا
جزاي
جزو
جزوی
جزي
جزیرا
جزیراں
جزیرہ
جزیریاں
جزیرے
جزیرےا
جزیہ
جس
جسا
جسامت
جست
جستجو
جسد
جسدا
جسدی
جسدے
جسم
جسمانی
جسماں
جسنال
جسنو
جسنوں
جسنے
جسونت
جسٹ
جسٹس
جسٹن
جسے
جشن
جعاز
جعازاں
جعفر
جعفرصادق
جعفری
جعفریان
جعفریہ
جعل
جعلی
جغتاي
جغرافیاي
جغرافیہ
جل
جلا
جلال
جلالت
جلالی
جلانے
جلاوطن
جلاوطنی
جلاي
جلایا
جلتو
جلد
جلدا
جلداں
جلدی
جلدے
جلساں
جلسہ
جلسے
جلفا
جلفہ
جلن
جلندھر
جلنے
جلوس
جلوساں
جلوہ
جلگہ
جلی
جلیا
جلیل
جلے
جم
جما
جمادی
جماع
جماعت
جماعتاں
جماعتی
جمال
جمالی
جمالیا
جمانے
جماي
جمشید
جمع
جمعرات
جمعہ
جمعی
جمعیت
جمل
جملا
جملہ
جملے
جملےا
جمن
جمنا
جمهوری
جمود
جموں
جمکران
جمہور
جمہوری
جمہوریت
جمہوریہ
جمی
جمیا
جمیعت
جمیل
جمیکا
جمے
جن
جنا
جناب
جنات
جناح
جنازہ
جنازے
جناں
جنبش
جنت
جنتا
جنتی
جنج
جند
جنداں
جندب
جندل
جندی
جنرل
جنس
جنساں
جنسن
جنسی
جنسیت
جنم
جنوب
جنوبی
جنور
جنوراں
جنوری
جنون
جنونی
جنوں
جنڈ
جنڈالہ
جنڑالہ
جنڑگراں
جنک
جنکشن
جنگ
جنگاں
جنگجو
جنگجوواں
جنگل
جنگلات
جنگلاں
جنگلی
جنگننا
جنگی
جنھاں
جنہاں
جنہوں
جنہیں
جنی
جنید
جنین
جنیوا
جنے
جهان
جو
جوا
جواب
جوابا
جوابات
جوابدہ
جوابی
جواد
جوادی
جوار
جواز
جواس
جوامع
جوان
جواناں
جوانرود
جوانی
جواي
جواک
جواں
جواہر
جواہرات
جواین
جوبلی
جوت
جوتی
جوجی
جود
جودھ
جودھا
جودھپور
جور
جورا
جورجو
جوز
جوزجان
جوزف
جوزی
جوس
جوش
جوشخص
جوشوا
جوشی
جوق
جول
جولاي
جولو
جولی
جولیا
جولیس
جولین
جولیو
جولے
جون
جونا
جوناتھن
جوناگڑھ
جوندے
جونز
جونس
جونپور
جونپوری
جونہی
جونی
جونیا
جونیي
جوي
جوڑ
جوڑا
جوڑاں
جوڑدا
جوڑدی
جوڑدے
جوڑن
جوڑنا
جوڑنے
جوڑی
جوڑیا
جوڑے
جوکچھ
جوکھ
جوکہ
جوگ
جوگندر
جوگی
جوں
جوہانز
جوہد
جوہر
جوہری
جوہن
جویبار
جویریہ
جوینی
جویں
جي
جيسے
جٹ
جٹاں
جپان
جپانی
جپھا
جڑ
جڑا
جڑانوالہ
جڑاں
جڑدا
جڑواں
جڑی
جڑیا
جڑیاں
جڑے
جکارتا
جکارتہ
جگ
جگا
جگت
جگجیت
جگدیش
جگر
جگن
جگہ
جگہاں
جگی
جگیر
جگیوٹ
جھ
جھارکھنڈ
جھانسی
جھاڑ
جھاڑکھنڈ
جھاڑی
جھاڑیاں
جھرمٹ
جھل
جھلک
جھلی
جھلیاں
جھمرہ
جھنڈ
جھنڈا
جھنڈے
جھنگ
جھنگوی
جھنگی
جھولی
جھوٹ
جھوٹھ
جھوٹھا
جھوٹھے
جھوٹی
جھٹ
جھٹکے
جھڑپ
جھڑپاں
جھک
جھکا
جھکاو
جھگڑا
جھگڑے
جھگڑےا
جھیل
جھیلاں
جہ
جہا
جہاد
جہادی
جہاز
جہازاں
جہالت
جہان
جہانگیر
جہانگیری
جہانی
جہانیاں
جہاں
جہت
جہد
جہدے
جہرم
جہل
جہلم
جہناں
جہنم
جہڑا
جہڑی
جہڑیاں
جہڑے
جہی
جہیز
جہے
جی
جیا
جیب
جیت
جیتنے
جیتو
جیجاں
جیجل
جید
جیدا
جیدی
جیدے
جیرفت
جیریا
جیس
جیسا
جیساکہ
جیسس
جیسلمیر
جیسور
جیسپر
جیسی
جیسے
جیش
جیف
جیفرسن
جیفری
جیل
جیلانی
جیلاں
جیمز
جیمس
جین
جینا
جیناں
جیند
جیندی
جینز
جینسن
جینوا
جینوم
جینوں
جینی
جینیات
جینے
جیو
جیورجیاي
جیوری
جیومیٹری
جیون
جیوندا
جیونی
جیوک
جیوں
جیویں
جیي
جیٹ
جیڈ
جیڑا
جیڑی
جیڑے
جیک
جیکب
جیکر
جیکس
جیکسن
جیکوبس
جیکی
جیہا
جیہدا
جیہدی
جیہدے
جیہناں
جیہنوں
جیہنے
جیہڑا
جیہڑی
جیہڑیاں
جیہڑے
جے
ح
حاتم
حاج
حاجب
حاجت
حاجی
حاجیاں
حاد
حادثات
حادثہ
حادثے
حارث
حارثہ
حاشیہ
حاشیے
حاصل
حاصلپور
حاضر
حاضری
حاضرین
حافظ
حافظہ
حال
حالات
حالانکہ
حالاں
حالت
حالتاں
حالی
حالیہ
حالے
حامد
حامل
حاملہ
حامی
حامیاں
حاوی
حاي
حاکم
حاکماں
حاکمیت
حب
حبان
حبش
حبشہ
حبشی
حبیب
حبیبی
حت
حتمی
حتی
حثیت
حج
حجاب
حجاج
حجاز
حجازی
حجة
حجت
حجج
حجر
حجرہ
حجرے
حجم
حجۃ
حد
حداد
حداں
حدثنا
حدود
حدیبیہ
حدیث
حدیثاں
حدیثی
حدیقہ
حذف
حذیفہ
حر
حرا
حرارت
حرارتی
حراست
حراستی
حرام
حران
حرب
حربہ
حربے
حرث
حرج
حرص
حرف
حرفی
حرم
حرمت
حرمتی
حرمن
حرمین
حروف
حرکات
حرکت
حرکتاں
حریت
حریف
حریفاں
حزب
حزم
حزین
حس
حساب
حساس
حساسیت
حسام
حسان
حسب
حسد
حسرت
حسن
حسنہ
حسنی
حسنین
حسين
حسی
حسین
حسینہ
حسینی
حسینیہ
حشر
حشمت
حص
حصا
حصار
حصص
حصول
حصوں
حصہ
حصیاں
حصین
حصے
حصےا
حضر
حضرات
حضرت
حضرتامام
حضرموت
حضرمی
حضور
حضوری
حفاظ
حفاظت
حفاظتی
حفص
حفصہ
حفظ
حفظہ
حفیظ
حق
حقارت
حقانی
حقانیت
حقاي
حقاں
حقدار
حقوق
حقہ
حقیر
حقیقت
حقیقتا
حقیقی
حل
حلال
حلب
حلبی
حلف
حلفےا
حلق
حلقہ
حلقے
حلوان
حلول
حلی
حلیف
حلیفاں
حلیم
حلیمہ
حلیہ
حلیۃ
حم
حماد
حماس
حمام
حمای
حمایت
حمد
حمدان
حمزہ
حمص
حمل
حملہ
حملیاں
حملے
حملےا
حموی
حمید
حمیدہ
حمیری
حنا
حنبل
حنبلی
حنظلہ
حنفی
حنفیہ
حنیف
حنیفہ
حنین
حوا
حوادث
حواری
حواریاں
حواس
حواشی
حوال
حوالگی
حوالہ
حوالے
حوالےا
حوالےدی
حوثی
حوثیاں
حوزه
حوزہ
حوصلہ
حوصلے
حوض
حوي
حویلی
حویلیاں
حکا
حکاری
حکام
حکایات
حکایت
حکم
حکماء
حکمت
حکمران
حکمراناں
حکمرانوں
حکمرانی
حکمراں
حکمیت
حکومت
حکومتاں
حکومتى
حکومتی
حکیم
حہ
حی
حیا
حیاء
حیات
حیاتی
حیاتیات
حیاتیاندی
حیان
حیثیت
حیدر
حیدرا
حیدری
حیدریہ
حیران
حیرانی
حیرت
حیرہ
حیلہ
حیوان
حیوانات
حࢦق
خ
خا
خاتم
خاتمہ
خاتمی
خاتمے
خاتون
خادم
خار
خاران
خارج
خارجہ
خارجی
خارجیاں
خاش
خاص
خاصا
خاصکر
خاصہ
خاصی
خاصیت
خاصیتاں
خاصے
خاطر
خاطرات
خاقان
خال
خالد
خالص
خالصتا
خالصہ
خالصے
خالق
خالہ
خالی
خام
خامنہ
خاموش
خاموشی
خامی
خامیاں
خان
خانا
خانات
خانان
خاناں
خانخاناں
خاندان
خانداناں
خاندانی
خانزماں
خانقاہ
خانقاہاں
خانقاہی
خانم
خانوادگی
خانوادہ
خانہ
خانی
خانیت
خانیوال
خانے
خاوند
خاي
خاک
خاکہ
خاکی
خاکے
خاں
خبار
خبر
خبراں
خبردار
خبرگزاری
خبری
ختریل
ختم
ختن
ختنہ
ختیار
خد
خدا
خدابندہ
خداداد
خدام
خداواں
خداوند
خداوندعالم
خداوندی
خداي
خداکی
خدایا
خدری
خدشہ
خدشےا
خدمات
خدمت
خدمتاں
خدوخال
خدیجہ
خذ
خر
خراب
خرابی
خرابیاں
خراج
خراسان
خراسانی
خرافات
خربوزہ
خرت
خرد
خرداد
خرداپور
خرطوم
خرقہ
خرم
خروج
خروش
خروشیف
خرى
خرچ
خرچہ
خرچے
خرکار
خرگوش
خری
خرید
خریدا
خریدار
خریداری
خریدتا
خریدن
خریدنا
خریدنے
خریدی
خریدیا
خریدے
خرین
خزاعہ
خزاعی
خزانچی
خزانہ
خزانے
خزانےا
خزاي
خزاں
خزر
خزرج
خزرجی
خزیمہ
خسارے
خستہ
خسرو
خشک
خشکی
خصاي
خصوصا
خصوصی
خصوصیات
خصوصیت
خضدار
خضر
خط
خطا
خطاب
خطابات
خطابت
خطاط
خطاطی
خطبات
خطبہ
خطبے
خطر
خطرات
خطرنا
خطرناک
خطرہ
خطرے
خطوط
خطہ
خطی
خطیب
خطے
خطےا
خفا
خفی
خفیہ
خلا
خلاء
خلاصہ
خلاصۃ
خلاف
خلافت
خلاي
خلجی
خلخال
خلدون
خلعت
خلف
خلفا
خلفاء
خلفاي
خلق
خلقت
خلل
خلوت
خلوص
خلي
خلکان
خلیات
خلیاں
خلیج
خلیجی
خلیفہ
خلیفۃ
خلیق
خلیل
خلیہ
خم
خمس
خمسہ
خمیر
خمین
خمینى
خمینی
خن
خنال
خنج
خنجر
خندب
خندق
خندقاں
خنشلہ
خو
خوا
خواب
خواباں
خواتین
خواجہ
خوار
خوارج
خوارزم
خوارزمی
خواص
خواف
خوان
خواندگی
خوانسار
خوانساری
خوانی
خواہ
خواہاں
خواہش
خواہشات
خواہشمند
خواہی
خوب
خوبصورت
خوبصورتی
خوبی
خوبیاں
خوجہ
خود
خودمختار
خودمختاری
خودکار
خودکش
خودکشی
خودی
خور
خورانا
خوراک
خوراں
خورد
خوردہ
خورس
خورشید
خورموج
خوری
خوزستان
خوست
خوش
خوشاب
خوشامد
خوشبو
خوشحال
خوشحالی
خوشخبری
خوشنودی
خوشگوار
خوشی
خوشیاں
خوف
خوفزدہ
خوفناک
خول
خون
خوند
خونریز
خونریزی
خونی
خوي
خویی
خيابان
خير
خٹک
خچر
خیاط
خیال
خیالات
خیالاں
خیالی
خیام
خیانت
خیبر
خیر
خیرا
خیرات
خیرالدین
خیراندی
خیرمقدم
خیرپور
خیز
خیل
خیمہ
خیمے
خیمےا
خیوا
د
دا
داب
دات
داتا
داخل
داخلہ
داخلی
داخلے
داد
دادا
داداں
دادو
دادی
دار
دارا
داراب
داراشکوہ
دارالحکومت
دارالخلافہ
دارالسلطنت
دارالعلوم
دارالفکر
دارالکتب
داران
دارانہ
داراں
دارد
دارفور
دارو
دارى
داری
داریاں
داس
داستان
داستاناں
داشت
داعش
داعظم
داعی
داغ
داغستان
داغے
دال
دالان
دالاہو
دالہ
دالین
دام
داماد
دامن
دان
دانا
داناي
داناپوری
داناں
دانت
دانستہ
دانش
دانشمند
دانشنامه
دانشنامہ
دانشور
دانشورانہ
دانشوراں
دانشگاه
دانشگاہ
دانہ
دانی
دانیال
دانے
داو
داود
داوود
داي
داڑھی
داگ
داں
داہر
دایاں
دب
دبا
دباء
دبانے
دباو
دباي
دبایا
دبستان
دبي
دبیر
دبے
دت
دتا
دتہ
دتی
دتیاں
دتیہ
دتے
دجاجہ
دجال
دجلہ
دختر
دخل
دخیل
دد
ددپلانا
در
درا
دراز
دراس
دراصل
دراندازی
درانی
دراوڑ
دراوڑی
دراں
دربار
درباراں
درباره
دربارہ
درباری
درباریاں
دربان
دربند
درج
درجا
درجات
درجن
درجناں
درجہ
درجے
درحقیقت
درخت
درختاں
درخشاں
درخواست
درخواستاں
درد
دردناک
دردی
درس
درساو
درساي
درسایا
درست
درستگی
درستی
درسگاہ
درسی
درش
درشن
درشک
درعیہ
درمیان
درمیانی
درمیانے
دروازہ
دروازے
دروازےا
دروالہ
درود
دروز
دروس
دروم
درویش
درویشاں
درپن
درپیش
درپے
درک
درکار
درکالی
درگا
درگاہ
درگذشت
درگز
درہ
درہم
دری
دریا
دریافت
دریافتاں
دریاواں
دریاي
دریاے
دریغ
دریک
درے
دس
دساں
دست
دستار
دستاویز
دستاویزات
دستاویزاں
دستاویزی
دستبردار
دستبرداری
دستخط
دستر
دسترخوان
دسترس
دستور
دستک
دستکاری
دستہ
دستی
دستیاب
دستیابی
دستے
دستےا
دسدا
دسدی
دسدیاں
دسدے
دسم
دسمبر
دسن
دسنا
دسنیا
دسنے
دسو
دسواں
دسويں
دسویں
دسٹریبیوٹری
دسپوتوواچ
دسی
دسیا
دسیاں
دسے
دشا
دشت
دشتی
دشمن
دشمنان
دشمناں
دشمنی
دشمنیاں
دشوار
دشواری
دشواریاں
دشکیسین
دعا
دعاواں
دعاي
دعو
دعوت
دعوواں
دعوہ
دعوی
دعویدار
دعوے
دعوےا
دغا
دفاتر
دفاع
دفاعی
دفتر
دفتراں
دفتری
دفع
دفعات
دفعہ
دفن
دفنایا
دق
دقت
دقیق
دقیقہ
دل
دلا
دلال
دلالت
دلاندا
دلاندے
دلانے
دلاور
دلاي
دلاں
دلایا
دلت
دلتاں
دلجیت
دلدادہ
دلدار
دلدل
دلفان
دلوں
دلچسپ
دلچسپی
دلکش
دلگان
دلہن
دلی
دلیالہ
دلیجان
دلیر
دلیری
دلیل
دلیلاں
دلیپ
دلے
دم
دماغ
دماغی
دمتری
دمدار
دمشق
دمشقی
دمن
دمودر
دمی
دمیاں
دمیترووگراد
دن
دنا
دناں
دند
دندا
دنداں
دندی
دندیاں
دندے
دنوں
دنگ
دنیا
دنیاوی
دنیاي
دنیاپور
دنیاں
دنیزلی
دنیوی
ده
دهستان
دو
دوا
دواب
دوار
دوارا
دوالے
دوام
دوانی
دواواں
دواي
دواں
دوبارہ
دوبروی
دوبس
دوجا
دوجی
دوجیاں
دوجے
دوحہ
دودھ
دور
دوران
دورانیہ
دورانیے
دوراں
دوربین
دوردرشن
دوردون
دوره
دورود
دورہ
دوری
دورے
دوزجے
دوزخ
دوسال
دوست
دوستانہ
دوستاں
دوستی
دوسرا
دوسروں
دوسرى
دوسری
دوسریاں
دوسرے
دوسرےا
دوش
دوشنبہ
دوشی
دوطرفہ
دولت
دولدی
دولہا
دولیواچ
دوم
دوماک
دون
دوناو
دوناں
دونو
دونوں
دونویں
دونے
دوواں
دوویں
دوي
دوپہر
دوچار
دوڑ
دوڑا
دوڑاں
دوڑے
دوکان
دوکاناں
دوگنا
دوگنی
دوں
دوہالہ
دوہاں
دوہرا
دوہری
دوہرے
دوہڑے
دى
دي
دينا
دڑو
دژ
دکان
دکاناں
دکتر
دکن
دکنی
دکھ
دکھا
دکھادی
دکھانا
دکھاندا
دکھاندے
دکھانے
دکھاو
دکھاي
دکھاں
دکھایا
دکھن
دکھنی
دکھی
دکھیاں
دگنا
دھ
دھا
دھات
دھاتاں
دھار
دھارا
دھاراں
دھارت
دھارمک
دھارن
دھارنا
دھارناواں
دھارنی
دھاری
دھارے
دھالیوال
دھام
دھان
دھاوا
دھاگے
دھبے
دھر
دھراں
دھرتی
دھرم
دھرماں
دھرمی
دھرمیاں
دھرو
دھمادے
دھماکا
دھماکہ
دھماکے
دھماکےا
دھمکی
دھمکیاں
دھمکیو
دھمیال
دھن
دھناں
دھند
دھنی
دھو
دھواں
دھول
دھوم
دھون
دھونا
دھونک
دھونی
دھونے
دھوي
دھوپ
دھوکھا
دھوکہ
دھوکے
دھوہندے
دھپ
دھچکيا
دھڑ
دھڑا
دھڑاں
دھڑکن
دھڑے
دھکیل
دھی
دھیان
دھیاں
دھیرے
دھے
دہ
دہانی
دہانے
دہاي
دہاکان
دہاکیاں
دہاکے
دہراي
دہرایا
دہستان
دہشت
دہلران
دہلوی
دہلی
دہلیز
دہم
دہندگان
دہندہ
دہگلان
دہی
دی
دیا
دیار
دیاربکر
دیال
دیانت
دیانتداری
دیانند
دیاکہ
دیاگیا
دیاں
دیباچہ
دیبر
دیبل
دیتا
دیتی
دیتے
دیجي
دید
دیدار
دیدتا
دیده
دیدہ
دیدی
دیر
دیرپا
دیرینہ
دیس
دیساي
دیساں
دیسی
دیش
دیشی
دیل
دیلم
دیلمی
دین
دینا
دینار
دیندا
دیندار
دیندی
دیندے
دینوری
دینى
دینگے
دینی
دینیات
دینیہ
دینے
دیو
دیوا
دیوار
دیواراں
دیواری
دیوالی
دیوالیہ
دیوان
دیواندرہ
دیوانہ
دیوانی
دیوانے
دیوبند
دیوبندی
دیوت
دیوتا
دیوتاواں
دیوتیاں
دیوداس
دیور
دیوریا
دیول
دیوناگری
دیوی
دیویاں
دیویگا
دیوے
دیي
دیپ
دیپالپور
دیپک
دیکھ
دیکھا
دیکھتے
دیکھدا
دیکھدی
دیکھدے
دیکھن
دیکھنا
دیکھنے
دیکھو
دیکھي
دیکھی
دیکھیا
دیکھے
دیگر
دیگران
دیں
دیہات
دیہاتاں
دیہاتیاں
دیہاندی
دیہاڑ
دیہی
دیے
دے
ذ
ذا
ذات
ذاتاں
ذاتی
ذاتیاں
ذاي
ذاکر
ذبح
ذبیح
ذخاي
ذخیرہ
ذخیرے
ذر
ذرا
ذرات
ذراي
ذرباي
ذربایجان
ذرشہر
ذرہ
ذری
ذریعہ
ذریعے
ذرے
ذلت
ذلک
ذلیل
ذمہ
ذمی
ذمے
ذو
ذوالحجہ
ذوالفقار
ذوالقرنین
ذوق
ذي
ذک
ذکر
ذہاب
ذہانت
ذہبی
ذہن
ذہناں
ذہنی
ذہنیت
ذہین
ذی
ذیقعدہ
ذیل
ذیلی
ر
را
راء
رابر
رابرٹ
رابرٹس
رابطہ
رابطے
رابطےا
رابع
رابعہ
رابن
رابندر
رابندرناتھ
رابنسن
رات
راتاں
راتو
راتھ
راج
راجا
راجاواں
راجاں
راجدھانی
راجر
راجستان
راجستھان
راجستھانی
راجشاہی
راجن
راجندر
راجنیتک
راجو
راجوری
راجٹبر
راجپوت
راجپوتانہ
راجپوتاں
راجکمار
راجگڑھ
راجگھر
راجگہڑ
راجہ
راجی
راجیاں
راجیش
راجیو
راجیہ
راجے
راحت
راحیل
راد
رادھا
راز
رازانی
رازداری
رازی
راس
راست
راستہ
راستی
راستے
راسخ
راشد
راشدہ
راشدی
راشدین
راشن
راشٹر
راشٹریہ
راشی
راضی
راغب
رافضی
رافع
راقم
رالف
رالی
رام
راما
رامانجن
راماي
رامسر
رامشیر
رامفوٹاي
رامن
رامپور
رامگڑھیا
رامہرمز
رامی
رامیان
ران
رانا
رانجھا
رانجھے
رانو
رانونگ
رانچھو
رانچی
رانگسٹ
رانی
رانیاں
راو
راور
راول
راولاکوٹ
راولپنڈی
راون
راوندی
راوی
راویاں
راویوں
راي
راٹچابوری
راٹچاتھانی
راٹچاسیما
راٹھور
راک
راکٹ
راکٹاں
راکھ
راکھی
راکی
راگ
راگاں
راگل
راگنر
راں
راہ
راہاں
راہب
راہباں
راہداری
راہل
راہنما
راہنماي
راہول
راہی
راہیں
رای
رایا
رایل
رایونگ
راے
رب
ربا
رباب
رباح
رباط
رباعی
رباعیات
رباعیاں
ربانی
ربس
ربط
ربعی
ربڑ
ربی
ربیع
ربیعہ
رة
رةالمعارف
رت
رتا
رتبہ
رتبے
رتقاء
رتن
رتھ
رتھر
رتھوڈوکس
رتھک
رتہ
رتی
رتے
رج
رجال
رجالی
رجاي
رجب
رجحان
رجحانات
رجز
رجسٹر
رجسٹرار
رجسٹرڈ
رجسٹریشن
رجعت
رجل
رجمنٹ
رجمونڈ
رجوع
رجھان
رح
رحجان
رحلت
رحم
رحمان
رحمانی
رحمة
رحمت
رحمتہ
رحمن
رحمہ
رحمۃ
رحمی
رحیم
رخ
رخصت
رخصتی
رخی
رخین
رد
ردا
ردرفورڈ
ردعمل
ردو
ردیف
رر
رز
رزق
رزمیہ
رزن
رزو
رس
رسا
رسالت
رساله
رسالو
رسالہ
رسالۃ
رسالیاں
رسالے
رسالےا
رسانی
رساي
رساں
رست
رستم
رستہ
رستے
رستےا
رسد
رسرچ
رسل
رسم
رسماں
رسمی
رسوا
رسواي
رسوخ
رسول
رسولاں
رسولی
رسوم
رسومات
رسوي
رسی
رسید
رسیدہ
رش
رشاد
رشاي
رشت
رشتاں
رشتہ
رشتیاں
رشتے
رشد
رشدی
رشوت
رشک
رشی
رشید
رصد
رصدگاہ
رض
رضا
رضاعلیہ
رضاعی
رضامند
رضامندی
رضاي
رضاکار
رضاکارانہ
رضاکاراں
رضوان
رضوانشہر
رضوی
رضویہ
رضی
رضیہ
رعایا
رعایت
رعب
رعد
رعنا
رعیت
رغبت
رف
رفاقت
رفاہ
رفاہی
رفت
رفتار
رفتاری
رفتہ
رفسنجان
رفسنجانی
رفع
رفعت
رفقا
رفیع
رفیق
رفیلڈ
رقابت
رقاصہ
رقبہ
رقبے
رقص
رقم
رقمطراز
رقوم
رقہ
رقیہ
رل
رلا
رلاي
رلدا
رلدے
رلیز
رلینڈ
رلیٹیوٹی
رلے
رم
رماغ
رمز
رمضان
رملہ
رمن
رمنٹ
رموز
رمی
رمیش
رمین
رمینی
رمینیا
رمینیاي
رمینیاں
رن
رنبھ
رنبیر
رنج
رنجی
رنجیت
رند
رندھاوا
رنز
رنلڈ
رني
رنگ
رنگا
رنگاں
رنگت
رنگرتی
رنگلی
رنگون
رنگپور
رنگگولڈ
رنگی
رنگیلا
رنگین
رنگے
رنے
ره
رو
روا
روابط
روات
رواج
رواداری
روانسر
روانڈا
روانگی
روانہ
روانی
رواي
روايتی
رواں
روایات
روایت
روایتاں
روایتيں
روایتی
روبرو
روبرٹ
روبل
روبن
روبنز
روبوٹ
روبی
روتھ
روج
روح
روحانی
روحانیت
روحاں
روحی
رود
روداد
رودان
رودبار
رودسر
رور
روز
روزا
روزانہ
روزمرہ
روزنامہ
روزویلٹ
روزگار
روزگاری
روزہ
روزی
روزیکا
روزے
روس
روسو
روسولے
روسی
روسیاں
روسے
روش
روشاں
روشن
روشناس
روشنی
روضات
روضة
روضہ
روضۃ
روغن
روغنی
رول
رولا
رولاں
روم
روما
رومال
رومان
رومانس
رومانوف
رومانوی
رومانٹک
رومانی
رومانیت
رومانیہ
رومن
رومی
رومیاں
رومینموٹي
رون
رونا
رونالڈ
روندا
روندر
روندے
رونق
رونلڈ
رونما
رونٹیگن
رونے
روور
روي
روٹ
روٹلیج
روٹی
روٹیاں
روپ
روپاں
روپوش
روپي
روپڑ
روپیہ
روپیے
روپے
روڈ
روڈس
روڈلف
روک
روکاں
روکن
روکنا
روکنے
روکیا
روکے
روگ
روگاں
روگٹھ
روگی
روں
روہ
روہت
روہنگیا
روہی
روہیل
روہیلہ
روی
رویا
رویاں
رویداس
رویہ
رویے
ري
رٹ
رٹاي
رٹس
رٹسٹ
رٹلری
رٹیکل
رپرسن
رپن
رپورٹ
رپورٹاں
رپورٹر
رپورٹس
رپورٹنگ
رپھڑ
رچ
رچت
رچر
رچرڈ
رچرڈز
رچرڈسن
رچمنڈ
رچنا
رچناواں
رچنر
رچٹ
رچھ
رچی
رچیا
رچیاں
رچیبالڈ
رچے
رڈ
رڈر
رڈیننس
رک
رکا
رکاب
رکانساس
رکاوٹ
رکاوٹاں
رکاي
رکدا
رکدے
رکعت
رکن
رکنساس
رکنی
رکنیت
رکنے
رکوع
رکوکو
رکٹک
رکھ
رکھا
رکھاں
رکھتا
رکھتی
رکھتے
رکھدا
رکھدی
رکھدیاں
رکھدے
رکھن
رکھنا
رکھنی
رکھنے
رکھو
رکھي
رکھی
رکھیا
رکھیاں
رکھے
رکی
رکیٹیکٹ
رکیٹیکچر
رکے
رگ
رگاں
رگبی
رگناي
رگوید
رگڑ
رگھوناتھ
رھے
رہ
رہا
رہاي
رہاں
رہاہے
رہبر
رہبری
رہت
رہتا
رہتل
رہتلاں
رہتلی
رہتی
رہتے
رہدیاں
رہن
رہنا
رہندا
رہندی
رہندیاں
رہندے
رہنما
رہنماو
رہنماواں
رہنماي
رہنے
رہو
رہواں
رہون
رہوي
رہوڈز
رہي
رہڑا
رہی
رہیا
رہیاں
رہینولوفس
رہینیاس
رہیں
رہے
رۃ
ری
ریا
ریارت
ریاست
ریاستاں
ریاستہاي
ریاستی
ریاض
ریاضت
ریاضی
ریاضیا
ریاضیات
ریال
ریالٹو
ریان
ریاواں
ریاي
ریاں
ریت
ریتاں
ریتھے
ریتی
ریجن
ریجنل
ریجنٹ
ریح
ریحان
ریحانہ
ریخ
ریختہ
ریز
ریزرو
ریزہ
ریزی
ریزے
ریس
ریستوراں
ریسرچ
ریسلنگ
ریسکیو
ریشسٹاي
ریشم
ریشمی
ریشہ
ریف
ریفرنڈم
ریفری
ریل
ریلوے
ریلی
ریلیاں
ریلیز
ریلیف
ریلے
ریمارکس
ریمزے
ریمنڈ
ریمون
رین
رینا
رینالہ
رینج
رینجرز
ریندا
ریندی
ریندے
رینڈولف
رینک
رینکنگ
رینیساں
رینے
ریو
ریونیو
ریوٹ
ریویو
ریي
ریٹ
ریٹاي
ریپ
ریپبلک
ریپبلکن
ریپرسول
ریچھ
ریڈ
ریڈار
ریڈر
ریڈنگ
ریڈی
ریڈیاي
ریڈیو
ریڈیکل
ریڑھ
ریک
ریکا
ریکارڈ
ریکارڈاں
ریکارڈز
ریکارڈنگ
ریکو
ریکون
ریکوواچ
ریکویم
ریکٹ
ریکٹر
ریکٹرز
ریکٹوریٹ
ریکھ
ریکھا
ریگستان
ریگن
ریگنزبرگ
ریگولیشن
ریہ
رے
ز
زا
زاباری
زابل
زابلی
زاد
زادانہ
زادشہر
زاده
زادگان
زادہ
زادی
زادیاں
زادے
زار
زارا
زاری
زاغرب
زانوي
زاویہ
زاي
زاگوبیچا
زاں
زاہد
زاہدان
زبان
زباناں
زبانوں
زبانی
زبانیں
زباں
زبر
زبردست
زبردستی
زبور
زبیدہ
زبیر
زحل
زحمت
زخم
زخماں
زخمی
زخمیاں
زد
زدہ
زر
زرارہ
زراعت
زرباي
زرتشت
زرتشتی
زرخیز
زرخیزی
زرد
زرداری
زرعی
زرمات
زرناي
زرند
زرندیہ
زريں
زرکلی
زرہ
زری
زریعہ
زریعے
زریلے
زرین
زرینیانن
زفر
زلرٹل
زلزلہ
زلزلے
زلیخا
زم
زما
زمان
زمانہ
زمانی
زمانے
زمانےا
زماي
زماں
زمبابوے
زمخشری
زمراں
زمرد
زمرہ
زمرے
زمزم
زمستان
زموت
زمين
زمین
زمیناں
زمیندار
زمینداراں
زمینداری
زمینی
زن
زنا
زنانہ
زنانی
زنانیاں
زنجان
زنجانی
زنجبار
زنجیر
زنجیراں
زند
زندان
زندگانی
زندگى
زندگی
زندگیاں
زندہ
زنک
زنگ
زنگی
زنی
زو
زوال
زوجہ
زور
زوردار
زون
زونگولداک
زوورنک
زوے
زي
زيادہ
زچگی
زڈ
زک
زکات
زکار
زکریا
زکو
زکوۃ
زکیہ
زہ
زہد
زہر
زہرا
زہرہ
زہری
زہریلی
زہریلے
زہک
زہیر
زی
زیا
زیاد
زیادا
زیادتی
زیادتیاں
زیادہ
زیادہتر
زیارات
زیارت
زیارتی
زیانا
زیب
زیبا
زیتون
زید
زیدان
زیدی
زیدیہ
زیر
زیراہتمام
زیرقیادت
زیرو
زیريں
زیرک
زیشن
زیلنسکی
زیمبیا
زیمن
زین
زینال
زینب
زینت
زینوبیا
زینگ
زیور
زیورات
زیورچ
زیڈ
زیگلر
زے
س
سا
سابق
سابقہ
سات
ساتو
ساتواں
ساتھ
ساتھی
ساتھیاں
ساجد
ساحر
ساحل
ساحلاں
ساحلی
ساخت
ساختہ
ساختی
ساد
سادات
سادگی
سادھ
سادھارن
سادھو
سادہ
سادے
سار
سارا
سارابوری
ساربروکن
سارتر
سارجنٹ
سارنگ
سارٹ
سارک
سارہ
ساری
ساریاں
سارے
ساز
سازاں
سازش
سازشاں
سازشی
سازمان
سازوسامان
سازگار
سازی
ساس
ساسانی
ساسانیاں
ساعت
ساعدہ
ساغر
سافٹ
سافٹویي
ساقی
سال
سالا
سالار
سالاراں
سالاری
سالانہ
سالاں
سالسبری
سالفورڈ
سالم
سالمیت
سالویٹوری
سالٹ
سالک
سالگرہ
سالہ
سالہا
سالی
سالیان
سالیناس
سام
سامان
سامانی
سامانیاں
سامانیہ
سامرا
سامراج
سامراجی
سامرہ
سامری
سامسون
سامعین
سامنا
سامنتھا
سامنے
سامٹ
سامی
سان
سانبرنارڈینو
سانبھ
سانت
سانتا
سانتیاگو
سانجھ
سانجھا
سانجھی
سانجھے
سانحہ
ساندل
سانس
سانمارکوس
سانماٹیو
سانو
سانول
سانولا
سانوں
سانٹا
سانچہ
سانچے
سانکٹ
سانگ
سانگا
سانگھڑ
سانی
ساو
ساواں
ساوجبولاغ
ساون
ساونے
ساوہ
ساي
ساٹن
ساڈا
ساڈھے
ساڈی
ساڈے
ساڑ
ساک
ساکا
ساکار
ساکاي
ساکرامنٹو
ساکن
ساکون
ساکھ
ساکھی
ساگا
ساگر
ساں
ساہ
ساہت
ساہتک
ساہتکار
ساہتی
ساہتیہ
ساہمنا
ساہمنے
ساہنی
ساہیوال
سایت
سایہ
سب
سبا
سباق
سبان
سباي
سبب
سبتوں
سبحان
سبحانی
سبز
سبزوار
سبزواری
سبزہ
سبزی
سبزیاں
سبسڈی
سبط
سبع
سبق
سبقت
سبل
سبلنگن
سبندھ
سبندھت
سبي
سبٹیاي
سبک
سبکتگین
سبکدوش
سبھ
سبھا
سبھاء
سبھاش
سبھتوں
سبھی
سبھیاچار
سبی
سبیل
ست
ستا
ستاد
ستار
ستارا
ستاراں
ستاروں
ستارہ
ستارہويں
ستارے
ستارےا
ستان
ستانہ
ستاي
ستاں
ستر
ستعمال
ستلج
ستم
ستمبر
ستنتر
ستواں
ستون
ستوناں
ستويں
ستویں
ستکار
ستگرو
ستگی
ستھان
ستھاناں
ستھاپت
ستھاپنا
ستھت
ستھتی
ستھر
ستھرا
ستہ
ستی
ستیش
ستیہ
ستے
سج
سجا
سجاد
سجادہ
سجادیہ
سجان
سجاوٹ
سجاي
سجایا
سجدہ
سجدے
سجستان
سجن
سجھاء
سجے
سحر
سخاوت
سخت
سختی
سختیاں
سخن
سخی
سد
سدا
سدرن
سدوزي
سدھ
سدھا
سدھار
سدھارتھ
سدھارن
سدھانت
سدھن
سدھناي
سدھنوتی
سدھو
سدھی
سدھے
سدی
سدے
سر
سرا
سراب
سراج
سراسر
سراغ
سرانجام
سراوان
سراواں
سراي
سراپا
سراکھام
سراں
سراہا
سرایان
سراے
سرب
سرباز
سرباں
سربراہ
سربراہان
سربراہاں
سربراہی
سربوبران
سربیا
سربیاي
سربیشہ
سرجری
سرجن
سرجنا
سرجیت
سرحد
سرحداں
سرحدی
سرخ
سرخس
سرخی
سرخیاں
سرخیل
سرد
سرداب
سردار
سرداران
سرداراں
سرداری
سردولیچا
سردی
سردیاں
سرزد
سرزمین
سرزمیناں
سرزنش
سرسا
سرسبز
سرسوت
سرسوتی
سرسید
سرشار
سرطان
سرعت
سرفراز
سرفیررا
سرل
سرلسٹ
سرلیکھ
سرما
سرماي
سرمایا
سرمایہ
سرن
سرنگ
سرنگاں
سرو
سروا
سروت
سروتاں
سرور
سرورق
سروس
سروستان
سروسز
سروور
سروپ
سروکار
سروے
سرٹیفکیٹ
سرپرست
سرپرستاں
سرپرستى
سرپرستی
سرپل
سرچ
سرچشمہ
سرکار
سرکاراں
سرکاری
سرکردگی
سرکردہ
سرکس
سرکش
سرکشی
سرکل
سرکلر
سرکوبی
سرکٹ
سرکھات
سرکھیا
سرگ
سرگرم
سرگرمی
سرگرمیاں
سرگودھا
سرگي
سرہ
سرہند
سرہندی
سری
سریانی
سریر
سریش
سریلزم
سریلنکا
سریمسکا
سریمسکی
سریندر
سرینگر
سریہ
سرے
سز
سزا
سزاوار
سزاواں
سزاي
سس
سسة
سست
سستا
سستی
سستے
سسر
سسرال
سسلی
سسه
سسٹم
سسکس
سسہ
سسۃ
سسی
سسیکس
سشلز
سطح
سطحاں
سطحی
سطر
سطراں
سطیف
سعاب
سعادت
سعاي
سعد
سعدی
سعدیہ
سعود
سعودی
سعيد
سعی
سعید
سعیداں
سعیدہ
سعیدی
سغدیاي
سغدیہ
سفاح
سفارت
سفارتخانے
سفارتی
سفارش
سفارشات
سفاک
سفاکا
سفر
سفرنامہ
سفرنامے
سفری
سفل
سفلتا
سفیان
سفیانی
سفید
سفیر
سفیراں
سفینہ
سقراط
سقز
سقوط
سقیفہ
سل
سلا
سلاسل
سلاطین
سلام
سلامت
سلامتی
سلامي
سلامية
سلامی
سلانہ
سلاو
سلاوی
سلاي
سلب
سلجوق
سلجوقاں
سلجوقی
سلجوقیان
سلجوقیاں
سلسلہ
سلسلے
سلسلےا
سلطان
سلطاناں
سلطانہ
سلطانی
سلطنت
سلطنتاں
سلف
سلفی
سلم
سلما
سلماس
سلمان
سلمہ
سلمی
سلنڈر
سلو
سلواڈور
سلواکیا
سلور
سلوواک
سلوواکیہ
سلووینیا
سلوک
سلوینیا
سلویکیا
سليمان
سلک
سلہٹ
سلی
سلیس
سلیقہ
سلیم
سلیمان
سلیمانکی
سلیمانی
سلیمانیہ
سلیمہ
سلیوان
سلیچ
سم
سما
سماء
سماترا
سماج
سماجک
سماجی
سماجیات
سمادھ
سمادھی
سماع
سماعت
سمال
سمان
سماناں
سمانی
سماوی
سماي
سماٹرا
سماں
سمبل
سمبلی
سمبولزم
سمبھالی
سمبھالیا
سمت
سمتاں
سمتھ
سمتھسونین
سمتی
سمتیہ
سمجھ
سمجھا
سمجھانے
سمجھاو
سمجھاں
سمجھایا
سمجھتے
سمجھدا
سمجھدی
سمجھدے
سمجھن
سمجھنا
سمجھنے
سمجھو
سمجھوتہ
سمجھوتے
سمجھی
سمجھیا
سمجھے
سمجیا
سمر
سمراٹ
سمرتھا
سمرتی
سمرقند
سمرقندی
سمرپت
سمری
سمسیا
سمسیاواں
سمعانی
سمن
سمنان
سمندر
سمندراں
سمندری
سمنر
سموي
سموہ
سمٹ
سمپسن
سمچی
سمچے
سمگری
سمہودی
سمی
سمیاں
سمیت
سمیدیریوو
سمیر
سمیرم
سمیع
سمیونوو
سمیٹ
سمیں
سمے
سن
سنا
سناتن
سنان
سنانے
سناو
سناي
سناں
سنایا
سنبرگ
سنبندھ
سنبندھت
سنبندھی
سنبھال
سنبھالدے
سنبھالن
سنبھالنے
سنبھالی
سنبھالیا
سنبھالے
سنبھل
سنبھو
سنة
سنت
سنتاں
سنترین
سنج
سنجر
سنجیدگی
سنجیدہ
سنجے
سند
سندا
سنداں
سندر
سندری
سندو
سندھ
سندھو
سندھی
سندھیا
سندی
سندیش
سندے
سنز
سنس
سنسار
سنساری
سنستھا
سنسر
سنسنی
سنسکار
سنسکرت
سنسکرتی
سنقر
سنمان
سنن
سننا
سنندج
سننے
سنو
سنواد
سنوں
سنٹر
سنٹرل
سنچاي
سنچت
سنچری
سنچریاں
سنڈے
سنکٹ
سنکیانگ
سنگ
سنگا
سنگاپور
سنگبوری
سنگت
سنگتاں
سنگجانی
سنگر
سنگرام
سنگرور
سنگل
سنگلز
سنگم
سنگڑال
سنگھ
سنگھا
سنگھاں
سنگھرش
سنگی
سنگیاں
سنگیت
سنگیتک
سنگیتکار
سنگین
سنہ
سنہا
سنہالی
سنہری
سنہرے
سنۃ
سنی
سنیا
سنیاں
سنیل
سنیما
سنیویل
سنیہا
سنے
سو
سوا
سوات
سواد
سوادکوہ
سوار
سواراں
سواری
سواریاں
سوال
سوالات
سوالےا
سوامی
سوان
سوانتے
سوانح
سوانحی
سوانسی
سوانی
سوانیاں
سواي
سواں
سواݨی
سواݨیاں
سوبوتیچا
سوبھا
سوت
سوتر
سوتیلی
سوتیلے
سوج
سوجھ
سوخم
سود
سودا
سوداگ
سوداگراں
سودھ
سودھار
سودہ
سودے
سور
سوراج
سوراخ
سورانی
سورة
سورت
سورتاں
سورج
سورجی
سورلیي
سورما
سورن
سوره
سورہ
سورۃ
سوری
سوریا
سورے
سوز
سوس
سوساي
سوسن
سوشل
سوشلزم
سوشلسٹ
سوشلسٹاں
سوفی
سوق
سول
سولو
سولومن
سولہ
سولہويں
سولی
سوم
سوما
سومبور
سومرو
سومنات
سومناتھ
سوموار
سون
سونا
سونامی
سوندی
سوندے
سونپ
سونپی
سونپیا
سونگ
سونگاي
سونگکھرام
سونگکھلا
سونی
سونیا
سونے
سوویت
سوویتاں
سوي
سوٹ
سوٹزرلینڈ
سوپ
سوپري
سوپھانبوری
سوچ
سوچاوا
سوچاں
سوچدا
سوچدے
سوچن
سوچنا
سوچنے
سوچی
سوچیا
سوچے
سوڈا
سوڈان
سوڈانی
سوڈی
سوک
سوکھا
سوگ
سوں
سوہان
سوہن
سوہنا
سوہنی
سوہنے
سوی
سویا
سویت
سویر
سویرے
سویز
سویلایناس
سویلین
سویٹزرلینڈ
سویڈبرگ
سویڈش
سویڈن
سوے
سى
سي
سيد
سيف
سٹ
سٹار
سٹارک
سٹاف
سٹالن
سٹانز
سٹاي
سٹاک
سٹر
سٹرس
سٹرلنگ
سٹرن
سٹرنگ
سٹرو
سٹروبل
سٹریا
سٹریلوی
سٹریلیا
سٹریلیاي
سٹریلین
سٹرین
سٹریٹ
سٹن
سٹوباي
سٹور
سٹوری
سٹون
سٹوپا
سٹوڈیو
سٹوکٹن
سٹٹگارٹ
سٹڈی
سٹڈیز
سٹھ
سٹہ
سٹی
سٹیج
سٹیشن
سٹیفن
سٹیل
سٹیم
سٹینلے
سٹینڈرڈ
سٹیٹ
سٹیٹس
سٹیٹن
سٹیپ
سٹیڈیم
سٹیگ
سٹے
سپ
سپارٹا
سپاس
سپاي
سپاں
سپاہ
سپاہی
سپاہیاں
سپر
سپرد
سپرنگ
سپرنگفیلڈ
سپرنگن
سپریم
سپشٹ
سپلاي
سپن
سپنا
سپنسر
سپنور
سپنے
سپورٹ
سپورٹس
سپہ
سپیدان
سپیر
سپیس
سپیسٹاي
سپیشل
سپیمان
سپین
سپینی
سپیڈ
سپیکر
سچ
سچا
سچاي
سچن
سچی
سچیت
سچے
سڈنی
سڑ
سڑک
سڑکاں
سک
سکا
سکاریا
سکالر
سکاي
سکاٹ
سکاٹش
سکاٹلینڈ
سکاں
سکتا
سکتی
سکتے
سکدا
سکدی
سکدیاں
سکدے
سکر
سکردو
سکرپٹ
سکریلہ
سکرین
سکریٹری
سکم
سکن
سکنال
سکندر
سکنٹ
سکنک
سکنے
سکو
سکواي
سکوت
سکور
سکوشیا
سکول
سکولاں
سکولی
سکون
سکونت
سکوپي
سکيتی
سکھ
سکھا
سکھانے
سکھاي
سکھاں
سکھایا
سکھدیو
سکھر
سکھلاي
سکھن
سکھون
سکھونتھانی
سکھوں
سکھی
سکھیا
سکہ
سکی
سکیا
سکیاں
سکیسر
سکیلوپورس
سکیم
سکینہ
سکیورٹی
سکیکدہ
سکیں
سکے
سکےا
سگا
سگالی
سگریٹ
سگمونڈی
سگنل
سگوں
سہ
سہارا
سہارن
سہارنپور
سہارنپوری
سہارے
سہالا
سہاللی
سہان
سہاي
سہاگ
سہج
سہرا
سہروردی
سہروردیہ
سہرے
سہل
سہم
سہمت
سہن
سہنپ
سہولت
سہولتاں
سہولیات
سہگل
سہی
سہیل
سہیلی
سی
سیا
سیاح
سیاحاں
سیاحت
سیاحتی
سیادت
سیار
سیارا
سیاروی
سیارہ
سیارے
سیارےا
سیاست
سیاستدان
سیاستداناں
سیاسى
سیاسی
سیاسیات
سیاق
سیال
سیالوی
سیالکوٹ
سیام
سیانا
سیاہ
سیاہکل
سیاہی
سیب
سیبورگ
سیتا
سیتل
سیتھی
سیج
سید
سیداں
سیدنا
سیدھا
سیدھی
سیدہ
سیدی
سیر
سیرا
سیراب
سیرال
سیرالیون
سیرة
سیرت
سیرجان
سیره
سیرہ
سیرۃ
سیری
سیریز
سیریل
سیرین
سیریي
سیزر
سیزن
سیس
سیساکٹ
سیستان
سیستانی
سیسل
سیسہ
سیسیواچ
سیشن
سیف
سیفی
سیفیلڈ
سیل
سیلاب
سیلانی
سیلز
سیلف
سیلواڈور
سیلون
سیلی
سیم
سیما
سیماب
سیمت
سیمس
سیمسٹاگرن
سیمنٹ
سیموي
سیمی
سیمینار
سین
سینا
سیناں
سینتا
سیندا
سینس
سینسر
سینما
سینوپ
سیني
سینٹ
سینٹر
سینٹرل
سینٹی
سینٹیمیٹر
سینڈ
سینکٹ
سینکڑاں
سینکڑے
سینگاں
سینگر
سینہ
سینی
سینیٹ
سینیٹر
سینیگال
سینے
سیو
سیوا
سیواس
سیواواں
سیواے
سیوطی
سیول
سیون
سیوک
سیوکس
سیویرو
سیي
سیٹ
سیٹاں
سیٹر
سیٹلاي
سیٹھ
سیٹھی
سیٹی
سیچانی
سیڈار
سیڑھی
سیڑھیاں
سیک
سیکرامنٹو
سیکرٹری
سیکرٹریٹ
سیکری
سیکریٹری
سیکس
سیکسن
سیکسنی
سیکشن
سیکنڈ
سیکنڈری
سیکورٹی
سیکولر
سیکولرازم
سیکٹر
سیکٹری
سیکڑاں
سیکھ
سیکھنا
سیکھنے
سیکھوں
سیکھے
سیکیورٹی
سیگباہن
سیگرے
سیں
سیہ
سے
ش
شا
شاء
شاباچ
شابران
شابک
شاتلی
شاخ
شاخاں
شاد
شاداب
شادرا
شادگان
شادی
شادیاں
شاذان
شارجہ
شارح
شارع
شارنتے
شارٹ
شارپ
شارک
شارکاں
شازند
شازیہ
شاستر
شاستری
شاطر
شاعر
شاعرانہ
شاعراں
شاعرہ
شاعری
شافعی
شال
شالامار
شالیمار
شام
شاماخی
شامل
شاملہ
شامی
شامیاں
شان
شانت
شانتی
شاندار
شانلی
شانہ
شاه
شاو
شاي
شاٹ
شاپ
شاپنگ
شاپور
شاکر
شاکی
شاگرد
شاگرداں
شاگردی
شاں
شاہ
شاہان
شاہانہ
شاہاں
شاہجہان
شاہد
شاہراہ
شاہراہاں
شاہرود
شاہرودی
شاہزادہ
شاہنامہ
شاہنواز
شاہو
شاہپور
شاہکار
شاہی
شاہیاں
شاہین
شاید
شایع
شاین
شب
شباب
شبانہ
شباہت
شبد
شبداں
شبر
شبستر
شبلی
شبنم
شبہ
شبہات
شبہہ
شبیب
شبیر
شبیری
شبیہ
شبیہہ
شتاو
شتر
شترقی
شتو
شتی
شتیان
شتیانی
شجاع
شجاعت
شجر
شجرہ
شخص
شخصی
شخصیات
شخصیت
شخصیتاں
شد
شداد
شدت
شدن
شده
شدھ
شدہ
شدید
شذرات
شر
شراب
شرابی
شرارت
شراف
شرافت
شراي
شراکت
شربت
شرجیل
شرح
شرحاں
شردھا
شرر
شرط
شرطاں
شرع
شرعى
شرعی
شرعیہ
شرف
شرق
شرقی
شرقیہ
شرم
شرما
شرمناک
شرمندگی
شرمندہ
شرن
شرناک
شروع
شروعات
شروعاتی
شرومنی
شروڈنگر
شروکن
شرک
شرکاء
شرکت
شری
شریح
شریر
شریعت
شریف
شریفین
شرینی
شریک
شش
ششم
شطرنج
شعار
شعاع
شعاعاں
شعبان
شعبہ
شعبے
شعبےا
شعر
شعرا
شعراي
شعراں
شعری
شعلہ
شعلے
شعور
شعوری
شعیب
شغف
شغل
شفا
شفاء
شفاعت
شفاف
شفاي
شفت
شفقت
شفٹ
شفیع
شفیق
شق
شقاں
شلبرگ
شلبی
شلف
شلنز
شلوک
شلٹرز
شما
شمار
شماره
شمارہ
شماری
شماریا
شماریات
شمارے
شمال
شمالی
شماي
شمر
شمس
شمسی
شمشاد
شمشیر
شمع
شمعون
شمل
شملہ
شمن
شمولیت
شمیل
شمیم
شن
شنا
شناخت
شناختی
شناس
شناسی
شناي
شنایی
شنبہ
شنواری
شنکر
شنگ
شنگار
شنگھاي
شنیا
شنید
شهر
شهید
شو
شوال
شوالٹر
شوالک
شواي
شواہد
شوب
شوجی
شود
شودر
شور
شوراي
شورای
شورش
شورشاں
شورکوٹ
شوری
شوز
شوش
شوشتر
شوشتری
شوق
شوقین
شوقیہ
شونواي
شونگر
شووت
شوي
شوٹ
شوٹز
شوٹنگ
شوکت
شوکلے
شوگر
شوہر
شویتزر
شي
شيخ
شٹاي
شٹلینڈ
شپ
شک
شکار
شکارپور
شکاری
شکاگو
شکایات
شکایت
شکایتاں
شکتی
شکر
شکریال
شکریہ
شکست
شکستاں
شکستہ
شکل
شکلا
شکلاں
شکم
شکن
شکنی
شکودر
شکوک
شکوہ
شکیل
شگاف
شگفتہ
شگن
شھر
شہ
شہاب
شہابی
شہادت
شہادتاں
شہباز
شہد
شہدا
شہداء
شہداي
شہر
شہرا
شہراں
شہربابک
شہرت
شہرستان
شہرستانی
شہرضا
شہروں
شہرکرد
شہرہ
شہری
شہریار
شہریاں
شہریت
شہزاد
شہزادہ
شہزادی
شہزادیاں
شہزادے
شہزادےا
شہنشاہ
شہنشاہاں
شہید
شہیداں
شہیدی
شی
شیا
شیام
شیاں
شیبان
شیبانی
شیبہ
شیث
شیخ
شیخوپورا
شیخوپورہ
شیخپور
شیخہ
شیداي
شیر
شیراز
شیرازہ
شیرازی
شیرانی
شیراں
شیرنگٹن
شیرنی
شیروان
شیروانی
شیرون
شیريں
شیری
شیرین
شیش
شیشہ
شیشے
شیطان
شیطاناں
شیطانی
شیعان
شیعاں
شیعه
شیعوں
شیعہ
شیعی
شیعیان
شیعیت
شیف
شیفو
شیفیلڈ
شیل
شیلا
شیلڈ
شیلی
شیمرنت
شین
شینا
شیو
شیوا
شیواجی
شیواں
شیوخ
شیي
شیٹ
شیٹی
شیڈول
شیک
شیکسپیي
شیکھر
شے
ص
صا
صابر
صابرا
صابری
صابن
صاحب
صاحبان
صاحباں
صاحبزادہ
صاحبزادی
صاحبزادیاں
صاحبزادے
صاحبہ
صادر
صادق
صادقی
صادقیہ
صارف
صارفین
صاف
صافی
صالح
صالحین
صاي
صبا
صباح
صبح
صبر
صبیح
صحاب
صحابہ
صحابی
صحاح
صحارا
صحافت
صحافتی
صحافی
صحافیاں
صحبت
صحت
صحرا
صحراواں
صحراي
صحن
صحنہ
صحيح
صحیح
صحیفاں
صحیفہ
صحیفے
صد
صدا
صدارت
صدارتی
صداقت
صدام
صداي
صدر
صدرا
صدرالدین
صدرمقام
صدف
صدق
صدقات
صدقہ
صدقے
صدمہ
صدمے
صدور
صدوق
صدى
صدی
صدیاں
صدیق
صدیقہ
صدیقی
صدیوں
صراحت
صراط
صرف
صریح
صص
صعوبتاں
صغری
صغیر
صف
صفا
صفات
صفار
صفاي
صفاں
صفایا
صفت
صفحات
صفحة
صفحه
صفحہ
صفحے
صفدر
صفر
صفرہ
صفوان
صفوی
صفویاں
صفویہ
صفہ
صفی
صفین
صفیہ
صقلیہ
صل
صلاح
صلاحیت
صلاحیتاں
صلح
صلوات
صلى
صلہ
صلی
صلیب
صلیبی
صلیبیاں
صلے
صمد
صندوق
صنعا
صنعاء
صنعت
صنعتاں
صنعتی
صنف
صنفی
صنم
صنوبر
صو
صوابی
صواعق
صوبا
صوباي
صوبہ
صوبیاں
صوبیدار
صوبے
صوبےا
صور
صورت
صورتاں
صورتحال
صوفی
صوفیا
صوفیاء
صوفیانہ
صوفیاي
صوفیاں
صوفیہ
صول
صومالی
صومالیہ
صومعہ
صہیونی
صہیونیت
صیغہ
صیہونی
صیہونیت
ض
ضابطہ
ضابطے
ضامن
ضاي
ضبط
ضحاک
ضخیم
ضد
ضدی
ضرار
ضرب
ضرر
ضرور
ضرورت
ضرورتاں
ضرورى
ضروری
ضروریات
ضریح
ضعف
ضعیف
ضلع
ضلعاں
ضلعی
ضلعیاں
ضلعے
ضلعےا
ضم
ضمانت
ضمن
ضمنی
ضمیر
ضمیمہ
ضوابط
ضیا
ضیاء
ضیافت
ضیاي
ط
طا
طارق
طارم
طاری
طاس
طاعون
طاق
طاقت
طاقتاں
طاقتور
طالب
طالبات
طالبان
طالبہ
طالوت
طاو
طاووس
طاي
طاہر
طاہرہ
طاہرین
طب
طباطباي
طباطبایی
طباعت
طبرانی
طبرستان
طبرسی
طبری
طبس
طبع
طبعی
طبقات
طبقاں
طبقہ
طبقے
طبقےا
طبی
طبیب
طبیعت
طبیعی
طبیعیات
طر
طرابلس
طراز
طرح
طرحاں
طرز
طرف
طرفدار
طرفوں
طرفہ
طرفین
طرق
طریحی
طریق
طریقت
طریقہ
طریقیاں
طریقے
طریقےا
طعام
طعن
طعنہ
طغرل
طفیل
طلاق
طلال
طلاي
طلب
طلبا
طلباء
طلبہ
طلبی
طلحہ
طلعت
طلوع
طلیحہ
طمع
طنز
طنزیہ
طواف
طوالت
طواي
طور
طورپر
طوس
طوسى
طوسی
طوطا
طوفان
طوفاناں
طوفانی
طول
طولانی
طولون
طویل
طہ
طہارت
طہرانی
طہماسپ
طی
طیار
طیارہ
طیارے
طیارےا
طیب
طیبہ
طیف
طے
ظ
ظالم
ظالمانہ
ظالماں
ظاہر
ظاہرا
ظاہری
ظرافت
ظریف
ظریفی
ظفر
ظل
ظلم
ظن
ظہر
ظہور
ظہیر
ع
عا
عابد
عابدہ
عابدی
عاجز
عاجزی
عاد
عادات
عادت
عادتاں
عادل
عادی
عارضی
عارف
عارفوالا
عاری
عازم
عاشق
عاشور
عاشورا
عاشورہ
عاص
عاصم
عافیت
عاقل
عال
عالم
عالمانہ
عالماں
عالمگیر
عالمگیری
عالمگیریت
عالمی
عالی
عالیشان
عالیہ
عام
عامر
عامل
عاملاں
عاملہ
عاملی
عامہ
عاي
عباد
عبادات
عبادت
عبادہ
عبارت
عبارتاں
عباس
عباسی
عباسیاں
عباسیوں
عباسیہ
عبد
عبدا
عبدالبر
عبدالجبار
عبدالحسین
عبدالحق
عبدالحمید
عبدالحکیم
عبدالرحم
عبدالرحمان
عبدالرحمن
عبدالرحیم
عبدالرزاق
عبدالرشید
عبدالسلام
عبدالصمد
عبدالعزیز
عبدالعظیم
عبدالقادر
عبدالقیوم
عبدالل
عبداللطیف
عبدالله
عبداللہ
عبدالمالک
عبدالمجید
عبدالمحمد
عبدالمطلب
عبدالملک
عبدالواحد
عبدالوہاب
عبدالکریم
عبدل
عبدہ
عبدی
عبرانی
عبرت
عبقات
عبور
عبوری
عبید
عبیداللہ
عبیدہ
عتاب
عتبات
عتبہ
عترت
عتیق
عثمان
عثمانی
عثمانیاں
عثمانیوں
عثمانیہ
عج
عجاي
عجب
عجز
عجم
عجمی
عجیب
عد
عدالت
عدالتاں
عدالتی
عدالدی
عداوت
عدد
عددی
عدل
عدلیہ
عدم
عدن
عدنان
عدی
عذاب
عذر
عذرا
عر
عراق
عراقی
عراقیاں
عرب
عرباں
عربستان
عربوں
عربى
عربي
عربی
عربیہ
عرس
عرش
عرصہ
عرصے
عرض
عرضی
عرف
عرفا
عرفات
عرفان
عرفانی
عرفہ
عرفی
عرق
عروج
عروض
عروہ
عروۃ
عریریج
عریض
عز
عزاداری
عزالدین
عزاي
عزت
عزتی
عزم
عزوجل
عزیر
عزیز
عزیزاں
عزیمت
عساکر
عسقلانی
عسکر
عسکری
عسکریت
عشاء
عشر
عشراں
عشرت
عشرہ
عشری
عشریہ
عشرے
عشق
عشقیہ
عصا
عصر
عصری
عصمت
عضو
عطا
عطاء
عطار
عطارد
عطر
عطرے
عطیات
عطیہ
عظام
عظم
عظمت
عظمی
عظیم
عظیمی
عفان
عفت
عفو
عقاب
عقاي
عقاید
عقب
عقبہ
عقبی
عقد
عقل
عقلمند
عقلى
عقلی
عقلیت
عقلیہ
عقيدہ
عقیدت
عقیدہ
عقیدے
عقیل
عل
علا
علاء
علاج
علاحدہ
علاقا
علاقاي
علاقاں
علاقوں
علاقہ
علاقیاں
علاقے
علاقےا
علالت
علام
علامات
علامت
علامتاں
علامتی
علامه
علامہ
علانیہ
علاو
علاوا
علاوہ
علاي
علت
علقمہ
علل
علم
علما
علماء
علماي
علماں
علمبردار
علمى
علمی
علمیہ
علوم
علوی
علویاں
على
علي
عليه
عليہ
علی
علیا
علیحدگی
علیحدہ
علیل
علیم
علیه
علیهم
علیکم
علیگڑھ
علیھا
علیھم
علیہ
علیہا
علیہم
علیہما
عم
عماد
عمار
عمارت
عمارتاں
عمارہ
عمال
عمامہ
عمان
عماي
عمدہ
عمدۃ
عمر
عمران
عمرانیات
عمراں
عمربن
عمرو
عمروبن
عمرہ
عمری
عمرے
عمل
عملا
عملداری
عملدرا
عملى
عملہ
عملی
عملے
عمودی
عموم
عموما
عمومی
عمیر
عمیق
عن
عنابہ
عناصر
عنان
عناوین
عنایت
عنبر
عنبرا
عند
عنصر
عنصراں
عنقریب
عنوان
عنوانات
عنہ
عنہا
عنہم
عنہما
عوام
عوامل
عوامی
عورت
عورتاں
عورتوں
عوض
عوف
عون
عکاسی
عکرمہ
عکس
عہد
عہدہ
عہدی
عہدیدار
عہدیداراں
عہدے
عہدےا
عیادت
عیاش
عیاشی
عیاض
عیال
عیاں
عیب
عید
عیس
عیسا
عیساي
عیسن
عیسوى
عیسوی
عیسی
عیش
عیل
عین
عینی
عیون
عیینہ
غ
غا
غاخان
غار
غاراں
غارت
غاز
غازی
غاصب
غافل
غالب
غالبا
غامد
غاي
غبار
غدار
غداری
غدر
غدری
غدیر
غذا
غذاي
غرب
غربت
غربی
غرض
غرق
غرناطہ
غروب
غرور
غروی
غری
غریب
غریباں
غریبی
غز
غزال
غزالہ
غزالی
غزل
غزلاں
غزنوی
غزنویاں
غزنویہ
غزنہ
غزنی
غزوات
غزوہ
غزہ
غسل
غصب
غصہ
غصے
غضاي
غضب
غضبناک
غضنفر
غطفان
غفاری
غفلت
غل
غلاف
غلام
غلاماں
غلامی
غلبہ
غلبے
غلط
غلطی
غلطیاں
غلو
غلہ
غلیزان
غم
غمگین
غن
غناي
غنی
غنیم
غنیمت
غوث
غور
غوری
غوریاں
غوش
غوطہ
غیاث
غیب
غیبت
غیبی
غیر
غیرت
غیرملکی
ـ
ــ
ف
فا
فات
فاتح
فاتحانہ
فاتحہ
فاتحین
فادر
فار
فارس
فارسان
فارسى
فارسٹ
فارسی
فارسیاں
فارغ
فارم
فارماں
فارمولا
فارمولے
فارمیٹ
فارن
فارو
فاروج
فاروق
فاروقی
فاس
فاسد
فاسق
فاسو
فاسٹ
فاش
فاشزم
فاشسٹ
فاصل
فاصلہ
فاصلے
فاضل
فاضلکا
فاطمہ
فاطمی
فاطمیاں
فاطمیہ
فاق
فاقہ
فاقی
فال
فالج
فالز
فام
فان
فانت
فانی
فاو
فاونڈیشن
فاي
فاکس
فایٹ
فبگر
فت
فتاب
فتاوی
فتاں
فتح
فتحپور
فتنہ
فتنے
فتنےا
فتوح
فتوحات
فتوی
فتوے
فجر
فجی
فحش
فخر
فخرالدین
فخری
فدا
فداي
فدک
فدیہ
فر
فرات
فرار
فراز
فراست
فراش
فراشبند
فراغت
فراق
فراموش
فرامین
فرانز
فرانس
فرانسس
فرانسسکو
فرانسوا
فرانسیسی
فرانسیسیاں
فرانک
فرانکو
فراوانی
فراي
فراڈے
فراہ
فراہم
فراہمی
فرتانن
فرتز
فرتس
فرج
فرجن
فرجہ
فرح
فرحت
فرخ
فرخی
فرد
فردا
فردوس
فردوسی
فرزند
فرزندان
فرزنداں
فرسخ
فرسودہ
فرسٹ
فرش
فرشتہ
فرشتے
فرشتےا
فرصت
فرض
فرضی
فرعون
فرغانہ
فرق
فرقہ
فرقے
فرقےا
فرم
فرما
فرماتے
فرمان
فرماندا
فرماندے
فرمانروا
فرمانرواي
فرمانے
فرماواں
فرماي
فرماں
فرمایا
فرمایاکہ
فرمی
فرنٹ
فرنٹیي
فرنچ
فرنچاي
فرنگ
فرنگی
فرنگیاں
فرنیچر
فرهنگ
فرهنگی
فرو
فروخت
فروردین
فروری
فروزپور
فروسمان
فروش
فروشی
فروع
فروغ
فروٹ
فرٹز
فرڈیننڈ
فرڈینینڈ
فرہاد
فرہنگ
فرہنگی
فری
فریاد
فریب
فرید
فریدون
فریدپور
فریدکوٹ
فریدہ
فریدی
فریزر
فریضہ
فریق
فریقاں
فریقین
فریم
فریمان
فریمونٹ
فرین
فرینس
فرینسس
فرینسو
فرینچ
فرینڈ
فرینڈز
فرینک
فرینکفرٹ
فرینکفورٹ
فرینکلن
فریڈرخ
فریڈرک
فریڈم
فریڈمین
فریکوي
فزکس
فزیالوجی
فزیکل
فس
فساد
فسادات
فسانہ
فسق
فسن
فشانی
فشاں
فشر
فصاحت
فصل
فصلاں
فصوص
فصیح
فصیل
فضا
فضاء
فضاي
فضل
فضلا
فضلاء
فضلان
فضلہ
فضلی
فضول
فضیل
فضیلت
فطرت
فطری
فعال
فعالیت
فعل
فعلیات
فقاہت
فقدان
فقر
فقراء
فقرہ
فقرے
فقط
فقه
فقہ
فقہا
فقہاء
فقہاي
فقہى
فقہی
فقیر
فقیراں
فقیہ
فل
فلا
فلاح
فلاحی
فلاسفر
فلاسفہ
فلاسفی
فلاورجان
فلاي
فلاڈیلفیا
فلاں
فلرٹن
فلز
فلسروپ
فلسطین
فلسطینی
فلسطینیاں
فلسفہ
فلسفی
فلسفیانہ
فلسفیاں
فلسفے
فلم
فلماں
فلمایا
فلمز
فلمساز
فلمفیي
فلمی
فلنزبرگ
فلنڈ
فلو
فلورلنگ
فلورنس
فلوریڈا
فلورے
فلولن
فلوو
فلوپس
فلٹن
فلپ
فلپاي
فلپس
فلڈباخ
فلڈرا
فلک
فلکی
فلکیا
فلکیات
فلیمنگ
فلیٹ
فلیچر
فن
فنا
فنانس
فندی
فنستر
فنسن
فنلینڈ
فنون
فنڈ
فنڈز
فنکار
فنکارانہ
فنکاراں
فنکشن
فنی
فهرست
فو
فواد
فواي
فوت
فوج
فوجاں
فوجدار
فوجداری
فوجی
فوجیان
فوجیاں
فور
فورا
فوربس
فورخ
فورس
فورسز
فورسٹ
فورم
فورٹ
فورڈ
فورڈواہ
فوری
فوساي
فوق
فوقتا
فوقیت
فولاد
فومن
فون
فونٹ
فونٹانا
فوٹو
فوٹون
فوٹوگرافر
فوٹوگرافی
فوٹیج
فوڈ
فوک
فوکس
فى
في
فٹ
فک
فکر
فکری
فکشن
فہ
فہارست
فہد
فہرج
فہرست
فہرستاں
فہم
فہمی
فہمیاں
فہمیدہ
فی
فیاض
فیاضی
فیر
فیروز
فیروزا
فیروزپور
فیروزکوہ
فیری
فیز
فیس
فیسر
فیسٹ
فیسٹیول
فیشل
فیشن
فیصد
فیصدی
فیصل
فیصلہ
فیصلے
فیصلےا
فیض
فیضان
فیضی
فیضیہ
فیفا
فیل
فیلو
فیلوشپ
فیلڈ
فیلڈز
فیلڈنگ
فیلکس
فیم
فیما
فیملی
فیمینسٹ
فین
فینکس
فینگ
فینی
فینیش
فیه
فیوززبرگ
فیوض
فیوڈر
فیي
فیچر
فیڈ
فیڈر
فیڈرل
فیڈریشن
فیکس
فیکلٹی
فیکٹری
فیکٹریاں
فیہ
فے
ق
قا
قابزرگ
قابض
قابل
قابلیت
قابو
قابیل
قاتل
قاتلانہ
قاتلاں
قاتلین
قاجار
قاخ
قادر
قادری
قادریہ
قادسیہ
قادیانی
قاري
قاری
قازاخ
قازان
قازق
قازقستان
قاسم
قاسمی
قاصد
قاصر
قاضى
قاضی
قاضیاں
قاعدہ
قاعدے
قاف
قافلاں
قافلہ
قافلے
قافیہ
قال
قالب
قالمہ
قالین
قامت
قاموس
قانع
قانون
قانونی
قاهره
قاواں
قاورد
قاي
قاہره
قاہرہ
قای
قایم
قاینات
قبا
قباي
قبح
قبر
قبراں
قبرستان
قبرص
قبرصی
قبض
قبضہ
قبضے
قبطی
قبل
قبلاي
قبلہ
قبور
قبول
قبولیت
قبيلہ
قبہ
قبیح
قبیلہ
قبیلیاں
قبیلے
قبیلےا
قتادہ
قتال
قتل
قتیبہ
قتیل
قحط
قحطان
قحطبہ
قد
قدامت
قدامہ
قدر
قدراں
قدرت
قدرتی
قدرے
قدس
قدسی
قدسیہ
قدم
قدماں
قدمی
قدوسی
قدیر
قدیم
قدیمہ
قدیمی
قذافی
قرا
قراء
قرابت
قرات
قرار
قرارداد
قرارداداں
قراقرم
قرامطہ
قران
قراي
قرب
قربان
قربانی
قربانیاں
قربت
قرشی
قرض
قرضہ
قرضے
قرضےا
قرطبہ
قرطبی
قرقیسیا
قرن
قرون
قروہ
قرہ
قریب
قریبا
قریبی
قریش
قریشی
قریظہ
قریم
قرین
قریہ
قزاق
قزاقاں
قزاقی
قزل
قزلباش
قزوین
قزوینی
قس
قسط
قسطاں
قسطنطنیہ
قسطنطین
قسم
قسماں
قسمت
قسمتی
قسنطینہ
قشم
قصاب
قصاص
قصاي
قصبا
قصبہ
قصبے
قصبےا
قصد
قصر
قصرشیرین
قصص
قصور
قصوروار
قصہ
قصی
قصیدہ
قصیدے
قصے
قصےا
قضا
قضاء
قضاوت
قضیہ
قطار
قطاراں
قطب
قطبی
قطر
قطرہ
قطز
قطع
قطعا
قطعات
قطعہ
قطعی
قطیف
قعقاع
قف
قفقاز
قفقازی
قل
قلا
قلات
قلب
قلبی
قلت
قلع
قلعہ
قلعے
قلعےا
قلم
قلمبند
قلمرو
قلمی
قلندر
قلوب
قلی
قلیل
قم
قمر
قمرى
قمری
قمع
قمى
قمی
قمیض
قناعت
قنبر
قند
قندوز
قندوزی
قندھار
قندھاری
قندیل
قنسرین
قنوج
قنون
قنوناں
قنونی
قو
قواعد
قوالی
قوانین
قوبا
قوبادلی
قوت
قوتاں
قوسار
قوقند
قول
قولویہ
قوم
قومانتری
قوماں
قومی
قومیت
قومیتاں
قونصل
قونیہ
قوچان
قوی
قویونلو
قيمة
قپچاق
قہ
قہر
قی
قیادت
قیاس
قیام
قیامت
قید
قیدی
قیدیاں
قیراط
قیروان
قیس
قیصر
قیم
قیمت
قیمتاں
قیمتی
قین
قیوم
قے
ك
كان
كاي
كتاب
كر
كو
كى
كہ
كی
ل
لا
لاء
لابن
لابھ
لات
لاتعداد
لاتعلقی
لاج
لاجواب
لاجپت
لاحق
لاحقہ
لاد
لادن
لارا
لارس
لارستان
لارنس
لارڈ
لارڈز
لاری
لازم
لازمی
لازوال
لاس
لاش
لاشاں
لاطینی
لاعلمی
لافانی
لال
لالا
لالو
لالٹین
لالچ
لالہ
لالی
لام
لاما
لامت
لامتناہی
لامحدود
لامرد
لامپانگ
لامپھاي
لامپھو
لامپھون
لامہ
لان
لانا
لاندا
لاندی
لاندے
لانسنگ
لانچ
لانڈی
لانگ
لانگکامپفن
لانے
لاو
لاوا
لاواں
لاورز
لاویرن
لاي
لاٹ
لاٹھی
لاٹے
لاپتہ
لاچن
لاڑکانہ
لاک
لاکھ
لاگ
لاگت
لاگو
لاگے
لاں
لاہ
لاہور
لاہوری
لاہیجان
لایا
لب
لباب
لباس
لبرل
لبرلز
لبرٹی
لبریز
لبریشن
لبن
لبنان
لبنانی
لبھ
لبھدا
لبھن
لبھیا
لبھے
لبی
لبیا
لبیک
لبے
لت
لتا
لتاں
لتنڈورف
لتھوانیا
لتھوانیاي
لحاظ
لخت
لد
لدا
لداخ
لداخی
لدھا
لدھیانوی
لدھیانہ
لدھیانے
لدھیاݨا
لدہیوٹ
لدی
لدین
لدے
لذت
لر
لردگان
لز
لزبن
لس
لسان
لسانی
لسانیات
لسٹ
لسٹاں
لسٹر
لسی
لشک
لشکر
لشکراں
لشکری
لشکریاں
لطافت
لطان
لطاي
لطف
لطیف
لطیفہ
لعل
لعن
لعنت
لغات
لغاری
لغت
لغمان
لغو
لغوی
لف
لفظ
لفظاں
لفظی
لفٹ
لفین
لق
لقب
لقمان
لقمہ
لل
للا
للت
للمطبوعات
لله
للہ
للی
لم
لما
لماں
لمبا
لمباي
لمبی
لمبے
لمحات
لمحہ
لمحے
لموچی
لمٹڈ
لمپور
لمی
لمیاں
لمیٹڈ
لمے
لن
لنجان
لنداو
لندن
لنڈن
لنڈو
لنڈی
لنک
لنکا
لنکاسٹر
لنکاشاي
لنکن
لنگ
لنگر
لنگرود
لنگھ
لنگھدا
لنگھدی
لنگہ
لنگیناو
له
لو
لوا
لوار
لوازمات
لواي
لوتھر
لوح
لود
لودگی
لودھراں
لودھی
لودہ
لودی
لور
لورستان
لورنٹز
لورپول
لوری
لوریا
لورین
لورینٹز
لوزان
لوزر
لوزنیچا
لوزیانا
لوسی
لوط
لوف
لوقا
لوم
لومڑ
لومڑی
لون
لونا
لونبرگ
لونڈی
لونڈیاں
لونگ
لوو
لوور
لووی
لوي
لوٹ
لوٹتے
لوٹولی
لوٹے
لوپ
لوپبوری
لوچانی
لوچکاں
لوڈ
لوڑ
لوڑاں
لوک
لوکاي
لوکاں
لوکدھارا
لوکراج
لوکس
لوکل
لوکی
لوگ
لوگاں
لوگن
لوگو
لوگوں
لوہا
لوہار
لوہانسک
لوہن
لوہڑی
لوہے
لویر
لوے
لى
لي
ليا
ليکن
ليے
لٹ
لٹا
لٹاں
لٹرنز
لٹریری
لٹریچر
لٹل
لٹویا
لٹکا
لٹی
لپمان
لپمین
لپور
لپی
لپیاں
لپیٹ
لچک
لچکدار
لچھن
لڈ
لڈن
لڈو
لڈوگ
لڈہاو
لڑ
لڑا
لڑاي
لڑاکا
لڑاں
لڑدا
لڑدے
لڑن
لڑنا
لڑنے
لڑکا
لڑکپن
لڑکی
لڑکیاں
لڑکیو
لڑکے
لڑکےا
لڑی
لڑیا
لڑیاي
لڑیاں
لڑیوار
لڑے
لژہ
لک
لکس
لکسمبرگ
لکشمن
لکشمی
لکچرار
لکڑ
لکڑی
لکڑیاں
لکھ
لکھا
لکھاری
لکھاریاں
لکھاي
لکھاں
لکھایاں
لکھت
لکھتاں
لکھتی
لکھتے
لکھدا
لکھدی
لکھدے
لکھن
لکھنا
لکھنو
لکھنوی
لکھني
لکھنے
لکھو
لکھوا
لکھوال
لکھوایا
لکھياں
لکھی
لکھیا
لکھیاں
لکھیم
لکھے
لکی
لکیا
لکیر
لکیراں
لکیری
لگ
لگا
لگاتار
لگادی
لگام
لگان
لگانا
لگاندا
لگاندے
لگانے
لگاو
لگاواں
لگاي
لگاں
لگایا
لگبھگ
لگتا
لگتی
لگدا
لگدی
لگدیاں
لگدے
لگن
لگنا
لگنے
لگواي
لگياں
لگپگ
لگی
لگیا
لگیاں
لگیایا
لگے
لھ
لہ
لہاسا
لہجہ
لہجے
لہذا
لہر
لہراں
لہرایا
لہنا
لہندا
لہندی
لہندے
لہو
لہور
لی
لیا
لیاقت
لیانا
لیاندا
لیانڈرو
لیانے
لیاو
لیاي
لیاں
لیایا
لیب
لیبارٹری
لیبانے
لیبر
لیبل
لیبیا
لیتا
لیتھوانیا
لیتے
لیث
لیجنڈ
لیخ
لیختنشٹاین
لیر
لیرک
لیز
لیزر
لیس
لیسسٹر
لیسوتھو
لیسکوواچ
لیف
لیفٹ
لیفٹیننٹ
لیفٹینینٹ
لیفکوٹز
لیل
لیلا
لیلور
لیلہ
لیلی
لیماں
لیمب
لیمر
لین
لینا
لینارڈ
لینتھل
لیندا
لیندی
لیندیاں
لیندے
لینس
لینن
لینڈ
لینڈز
لینڈنگ
لینڈک
لینکاسٹر
لینکیران
لینگ
لینگمر
لینگوي
لینی
لینیي
لینے
لیو
لیوا
لیوبووي
لیور
لیورمور
لیوس
لیول
لیون
لیوناردو
لیونٹ
لیونہارڈ
لیوپولڈ
لیوی
لیي
لیٹ
لیٹر
لیٹویا
لیپ
لیپزش
لیپزگ
لیپٹوٹاي
لیڈ
لیڈر
لیڈراں
لیڈربرگ
لیڈرشپ
لیڈز
لیڈی
لیڈیا
لیک
لیکر
لیکس
لیکن
لیکووڈ
لیکچر
لیکچرار
لیکچرر
لیکچرز
لیکھ
لیکھا
لیکھاں
لیکھک
لیکے
لیگ
لیں
لیہ
لیے
لے
لےا
لےک
م
ما
مابعد
مابین
مات
ماتا
ماتحت
ماتحتی
ماترا
ماترم
ماتم
ماتھے
ماجد
ماجدہ
ماجرا
ماجو
ماجوج
ماجھا
ماجھی
ماجھے
ماجہ
ماجین
ماحول
ماحولیا
ماحولیات
ماخذ
ماخوذ
ماد
ماداں
مادر
مادری
مادو
مادگی
مادھ
مادھو
مادہ
مادی
مادیت
مادے
مار
مارا
ماراں
ماردا
ماردن
ماردے
مارس
مارشل
مارن
مارنا
مارنے
مارو
مارواڑ
مارول
ماروی
ماري
مارٹر
مارٹل
مارٹن
مارچ
مارک
مارکر
مارکس
مارکسزم
مارکسسٹ
مارکسی
مارکو
مارکونی
مارکیٹ
مارکیٹنگ
مارگ
مارگریٹ
مارہروی
ماری
ماریا
ماریشس
ماریو
ماریہ
مارے
مازندران
مازندرانی
ماس
ماسال
ماساں
ماسواي
ماسٹر
ماسٹرز
ماسک
ماسکو
ماضی
ماغنے
مافوق
مال
مالا
مالابار
مالاي
مالدار
مالدووا
مالدیپ
مالو
مالوا
مالوہ
مالوے
مالٹا
مالپور
مالک
مالکان
مالکاں
مالکی
مالی
مالیا
مالیات
مالیت
مالیکیول
مالیہ
مالے
مام
ماما
ماماں
مامقانی
مامور
مامون
مان
مانتا
ماند
ماندا
ماندہ
مانس
مانسا
مانسہرہ
مانع
مانند
ماننے
مانو
مانوس
مانٹریال
مانچسٹر
مانچو
مانچے
مانک
مانگ
مانگنے
مانی
مانیسا
ماه
ماو
ماواں
ماوراء
ماوراي
ماي
ماٹ
ماپہلے
ماپیاں
ماچھی
ماڈرن
ماڈل
ماڈلاں
ماڈلنگ
ماڈیول
ماڑا
ماڑی
ماڑے
ماژندران
ماکو
ماکھیو
ماگاڈینو
ماں
ماہ
ماہانہ
ماہر
ماہراں
ماہرین
ماہسو
ماہنامہ
ماہنشان
ماہی
ماہیا
ماہیت
مایا
مایوس
مایوسی
مایہ
مباح
مباحث
مباحثاں
مباحثہ
مباحثے
مبادلہ
مبارک
مبارکباد
مبارکہ
مبالغہ
مبانی
مباہلہ
مبتلا
مبذول
مبر
مبرا
مبصر
مبصرین
مبعوث
مبلغ
مبلغین
مبنی
مبہم
مبین
مبینہ
مة
مت
متا
متاثر
متاثرہ
متاثرین
متاخرین
متاع
متبادل
متبرک
متحد
متحدہ
متحرک
متحمل
متر
مترا
مترادف
مترجم
مترجمین
متروک
متزلزل
متشدد
متصادم
متصل
متضاد
متعارف
متعال
متعدد
متعدی
متعصب
متعلق
متعلقہ
متعہ
متعین
متغیر
متفرق
متفق
متفقہ
متقی
متلاشی
متمول
متمکن
متن
متنازع
متنازعہ
متناسب
متناسقات
متناہی
متنبہ
متنوع
متواتر
متوازن
متوازی
متوجہ
متوسط
متوف
متوفى
متوفی
متوقع
متولد
متولی
متون
متوکل
متکلم
متکلمین
متھ
متھا
متھرا
متھے
متی
مثال
مثالاں
مثالی
مثبت
مثل
مثلا
مثلاں
مثلث
مثنوی
مثنویاں
مثنی
مجاز
مجازی
مجالس
مجاہد
مجاہدین
مجبور
مجبورا
مجبوری
مجتبی
مجتمع
مجتہد
مجتہدین
مجد
مجدد
مجددی
مجددیہ
مجذوب
مجرم
مجرمانہ
مجرماں
مجروح
مجسم
مجسماں
مجسمہ
مجسمے
مجسٹریٹ
مجلدات
مجلس
مجلساں
مجلسی
مجله
مجلہ
مجمع
مجموعه
مجموعہ
مجموعی
مجموعے
مجموعےا
مجناں
مجوزہ
مجوسی
مجھ
مجھے
مجہول
مجیب
مجید
محاذ
محاذاں
محاسن
محاصرہ
محاصرے
محافظ
محافظاں
محافظہ
محافل
محال
محاورات
محاوروں
محاورہ
محاورے
محب
محبت
محبوب
محبوبہ
محتاج
محتاط
محترم
محترمہ
محد
محدث
محدثین
محدود
محراب
محراباں
محرقہ
محرم
محروم
محرومی
محرک
محرکات
محسن
محسنی
محسود
محسوس
محصور
محصول
محصولات
محض
محفل
محفلاں
محفوظ
محقق
محققاں
محققین
محل
محلات
محلول
محلہ
محلے
محلےا
محم
محمد
محمدباقر
محمدبن
محمدتقی
محمدحسین
محمدرضا
محمدعلی
محمدمہدی
محمدی
محمدیہ
محمود
محمودا
محمودی
محنت
محو
محور
محوری
محول
محکم
محکمہ
محکمے
محکمےا
محکوم
محی
محیط
مخ
مخاطب
مخالف
مخالفاں
مخالفت
مخالفین
مخبر
مختار
مختاری
مختص
مختصر
مختصرا
مختلف
مخدوم
مخزن
مخزومی
مخصوص
مخطوطات
مخطوطہ
مخفف
مخفی
مخلص
مخلوط
مخلوق
مخلوقات
مخنف
مخواہ
مد
مدات
مداح
مداخلت
مدار
مدارج
مدارس
مدافعت
مداي
مدبر
مدت
مدتاں
مدتی
مدح
مدخل
مدد
مددگار
مدر
مدرا
مدراس
مدرس
مدرسہ
مدرسۃ
مدرسی
مدرسین
مدرسے
مدرسےا
مدعا
مدعو
مدعی
مدعیاں
مدعے
مدفن
مدفون
مدلل
مدمقابل
مدن
مدنظر
مدنی
مدوراي
مدورفت
مدون
مدکی
مدھ
مدھم
مدھو
مدھیہ
مدہ
مدی
مدید
مدیر
مدیریت
مدین
مدینہ
مدینۃ
مدینے
مدے
مذاق
مذاکرات
مذاہب
مذمت
مذموم
مذکر
مذکور
مذکورہ
مذہب
مذہباں
مذہبى
مذہبی
مر
مرا
مرات
مراتب
مراجع
مراجعہ
مراحل
مراد
مرادا
مرادی
مراسم
مراعات
مراغہ
مراقبہ
مرانہ
مراوہتپہ
مراٹھا
مراٹھاں
مراٹھواڑہ
مراٹھی
مراٹھیاں
مراکز
مراکش
مراکشی
مربع
مربوط
مربی
مرتب
مرتبہ
مرتبے
مرتد
مرتداں
مرتدین
مرتضی
مرتفع
مرتکب
مرتکز
مرثیہ
مرثیے
مرج
مرجان
مرجع
مرجعیت
مرحلہ
مرحلے
مرحمت
مرحوم
مرد
مردا
مرداد
مردار
مردان
مردانگی
مردانہ
مرداں
مردم
مردہ
مردے
مرزا
مرزاپور
مرسل
مرسڈ
مرشد
مرصع
مرض
مرضی
مرطوب
مرعشی
مرعوب
مرغ
مرغی
مرفوع
مرفی
مرقد
مرقع
مرمت
مرمر
مرن
مرنا
مرند
مرنے
مرو
مروا
مروان
مروت
مروج
مروجہ
مروی
مرویات
مرٹن
مرچ
مرچنٹ
مرکب
مرکبات
مرکز
مرکزاں
مرکزہ
مرکزی
مرکزیت
مرکزے
مرکوز
مرگ
مرگیا
مرہ
مرہون
مرہٹاں
مرہٹہ
مرہٹے
مری
مریا
مریت
مریخ
مریخی
مرید
مریداں
مریدین
مریض
مریضاں
مریم
مرین
مریوان
مریکا
مرے
مز
مزا
مزاج
مزاجی
مزاح
مزاحم
مزاحمت
مزاحمتی
مزاحیہ
مزار
مزارات
مزدور
مزدوراں
مزدوری
مزہ
مزہب
مزہبی
مزید
مزین
مزے
مس
مسا
مسابقت
مسابقتی
مساجد
مسافت
مسافر
مسافراں
مسالک
مسالی
مسانو
مساوات
مساوی
مساي
مست
مستاغانم
مستثنی
مستحب
مستحق
مستحکم
مستدرک
مسترال
مسترد
مستری
مستشرق
مستشرقین
مستطیل
مستعار
مستعد
مستعفی
مستعمل
مستفید
مستفیض
مستقب
مستقبل
مستقر
مستقل
مستقیم
مستند
مستنصر
مستور
مستونگ
مستی
مسجد
مسجداں
مسجدےا
مسخ
مسخر
مسدود
مسرت
مسرور
مسز
مسسسپی
مسعود
مسعودی
مسقط
مسل
مسلاں
مسلح
مسلسل
مسلط
مسلم
مسلما
مسلمان
مسلمانان
مسلماناں
مسلمانوں
مسلماں
مسلمہ
مسلمین
مسلک
مسلہ
مسمار
مسن
مسند
مسودہ
مسودے
مسوری
مسولینی
مسي
مسٹر
مسکاٹین
مسکن
مسکین
مسیب
مسیت
مسیتاں
مسیح
مسیحا
مسیحی
مسیحیاں
مسیحیت
مسیسپی
مسیسیپی
مسیلمہ
مسیلہ
مشابہ
مشابہت
مشارکین
مشاعراں
مشاعرے
مشاورت
مشاورتی
مشاي
مشاہدات
مشاہدہ
مشاہدے
مشاہیر
مشایخ
مشتاق
مشتبہ
مشترک
مشترکہ
مشتری
مشتعل
مشتق
مشتمل
مشرا
مشرف
مشرق
مشرقی
مشروط
مشروطه
مشروطہ
مشروطیت
مشرک
مشرکاں
مشرکین
مشعر
مشعل
مشعور
مشغلہ
مشغول
مشق
مشقاں
مشقت
مشن
مشناں
مشنری
مشنریاں
مشهد
مشورہ
مشورے
مشک
مشکل
مشکلات
مشکلاں
مشکوک
مشگین
مشہد
مشہدی
مشہور
مشہوری
مشی
مشیر
مشیراں
مشیل
مشین
مشیناں
مشینری
مشینی
مشیگن
مصاحب
مصادر
مصارف
مصالح
مصالحت
مصالحہ
مصاي
مصباح
مصحح
مصحف
مصداق
مصدر
مصدقہ
مصر
مصرع
مصرعہ
مصرعے
مصروف
مصروفیات
مصروفیت
مصری
مصریاں
مصطف
مصطفا
مصطفوی
مصطفى
مصطفی
مصطفے
مصعب
مصلح
مصلحت
مصلی
مصن
مصنف
مصنفاں
مصنفہ
مصنفین
مصنوعات
مصنوعی
مصور
مصوری
مصیبت
مصیبتاں
مضافات
مضامین
مضبوط
مضبوطی
مضحکہ
مضر
مضطرب
مضمرات
مضمون
مطابق
مطابقت
مطالب
مطالبات
مطالبہ
مطالبے
مطالعات
مطالعہ
مطالعے
مطبع
مطبعہ
مطبوعات
مطبوعہ
مطلب
مطلع
مطلق
مطلقہ
مطلوب
مطلوبہ
مطمي
مطہر
مطہری
مطیع
مظالم
مظاہر
مظاہرعلوم
مظاہرہ
مظاہری
مظاہرین
مظاہرے
مظاہرےا
مظفر
مظفرنگر
مظلوم
مظہر
مع
معاجراں
معاد
معاذ
معارج
معارف
معاش
معاشراں
معاشرت
معاشرتى
معاشرتی
معاشرہ
معاشرے
معاشی
معاشیات
معاصر
معاصرین
معاف
معافی
معالج
معالجہ
معالم
معاملات
معاملہ
معاملیاں
معاملے
معاملےا
معانی
معاوضہ
معاوضے
معاون
معاونت
معاونین
معاویہ
معاي
معاہداں
معاہدہ
معاہدے
معاہدےا
معبد
معبود
معتبر
معتدل
معترف
معتز
معتزلہ
معتزلی
معتصم
معتضد
معتقد
معتقدین
معتمد
معجزات
معجزہ
معجزے
معجم
معد
معدن
معدنی
معدنیات
معدوم
معدہ
معذرت
معذور
معذوری
معراج
معرض
معرفة
معرفت
معرفہ
معرفۃ
معرفی
معروضی
معروف
معرکہ
معرکے
معرکےا
معز
معزز
معززین
معزول
معزولی
معشوق
معصر
معصوم
معصومہ
معصومین
معطل
معظم
معظمہ
معقول
معلق
معلم
معلوم
معلومات
معلی
معمار
معماراں
معمر
معمور
معمول
معمولات
معمولی
معن
معنا
معنوی
معنویت
معنى
معنی
معنے
معنےا
معہ
معیاد
معیار
معیارات
معیاری
معیت
معیشت
معیشتاں
معین
معینہ
مغازی
مغرب
مغربى
مغربی
مغرور
مغروں
مغز
مغفرت
مغل
مغلا
مغلاں
مغلوب
مغلیہ
مغنیہ
مغیرہ
مفاتیح
مفاد
مفادات
مفاہمت
مفاہیم
مفت
مفتاح
مفتوح
مفتوحہ
مفتی
مفرور
مفروضہ
مفروضے
مفسر
مفسرین
مفصل
مفقود
مفلوج
مفکر
مفکرین
مفہوم
مفید
مقابل
مقابلاں
مقابلہ
مقابلے
مقابلےا
مقاتل
مقاصد
مقالات
مقاله
مقالہ
مقالے
مقام
مقامات
مقامی
مقبراں
مقبرہ
مقبرے
مقبوضات
مقبوضہ
مقبول
مقبولیت
مقتدر
مقتل
مقتول
مقتولین
مقداد
مقدار
مقدر
مقدس
مقدسہ
مقدسی
مقدم
مقدمات
مقدمه
مقدمہ
مقدمۃ
مقدمے
مقدونیاي
مقدونیہ
مقرب
مقرر
مقررہ
مقرن
مقروض
مقریزی
مقصد
مقصود
مقلد
مقلہ
مقناطیس
مقناطیسی
مقننہ
مقید
مقیم
مل
ملا
ملاتیا
ملاح
ملاحاں
ملاحظہ
ملازم
ملازماں
ملازمت
ملازمتاں
ملازمین
ملاقات
ملاقاتاں
ملال
ملالہ
ملامت
ملاندا
ملاندی
ملانکن
ملانے
ملاو
ملاوٹ
ملاوی
ملاي
ملاپ
ملاکا
ملاں
ملایا
ملایر
ملبوس
ملبوست
ملبہ
ملبے
ملت
ملتا
ملتان
ملتانی
ملتانیکر
ملتوی
ملتی
ملتے
ملجم
ملحد
ملحق
ملحقہ
ملحوظ
ملد
ملدا
ملدی
ملدیاں
ملدے
ملر
ملز
ملزم
ملزمان
ملعون
ملف
ملفوظات
ملقب
ملل
ملن
ملنا
ملنی
ملنے
ملوث
ملوي
ملوٹ
ملوک
ملوکیت
ملٹری
ملٹی
ملک
ملکان
ملکاں
ملکر
ملکشاہی
ملکہ
ملکی
ملکیت
ملکیو
ملکے
ملہوترا
ملی
ملیا
ملیالم
ملیان
ملیاں
ملیح
ملیر
ملیریا
ملیشیا
ملیشیاواں
ملین
ملیکن
ملیکنز
ملیہ
ملے
مم
مماثل
مماثلت
ممالک
ممانعت
ممبر
ممبران
ممبراں
ممبي
ممتا
ممتاز
ممسنی
مملوک
مملوکاں
مملکت
مملکتاں
ممنوع
ممنوعہ
ممکن
ممکنہ
من
منا
منابع
منات
مناجات
منادی
منازل
مناسب
مناسبت
مناسک
مناصب
مناظر
مناظرہ
مناظرے
مناف
منافع
منافق
منافقین
منافی
مناقب
منانے
مناو
مناي
مناں
منایا
منبر
منبع
منت
منتج
منتخب
منتر
منتری
منتشر
منتظر
منتظری
منتظم
منتظمین
منتقل
منتقلی
منتہی
منجمد
منجملہ
منجی
منحرف
منحصر
مند
مندا
مندانہ
منداں
مندر
مندراں
مندرج
مندرجات
مندرجہ
مندوب
مندوبین
مندی
مندے
منذر
منرل
منرو
منزل
منزلاں
منزلت
منزلہ
منسسوٹا
منسلک
منسوب
منسوخ
منسوخی
منسٹر
منسک
منشا
منشور
منشورات
منشی
منشیات
منصب
منصباں
منصف
منصفانہ
منصفین
منصوب
منصوبہ
منصوبے
منصوبےا
منصور
منصورہ
منطق
منطقہ
منطقی
منظر
منظم
منظور
منظوری
منظوم
منع
منعقد
منعقدہ
منعم
منفرد
منفی
منقسم
منقطع
منقول
منقولہ
منموہن
منن
مننا
مننے
منو
منوا
منوجان
منور
منورنجن
منورہ
منوہر
منين
منٹ
منٹاں
منٹو
منٹگمری
منچ
منچوریا
منڈ
منڈا
منڈل
منڈلہ
منڈی
منڈیاں
منڈے
منکر
منکرین
منکووسکی
منکھ
منکھی
منگ
منگال
منگدا
منگدے
منگل
منگن
منگنی
منگو
منگول
منگولاں
منگولیا
منگی
منگیا
منگیال
منگیشکر
منگے
منھ
منہ
منہاج
منہاس
منہج
منہدم
منی
منیا
منیاں
منیجر
منیر
منیلا
منین
منے
مه
مهدی
مو
مواد
موارد
موازنہ
مواصلا
مواصلات
موافق
موافقت
مواقع
موباي
موت
موتہ
موتی
موتیاں
موثر
موثق
موج
موجاں
موجب
موجد
موجو
موجود
موجودات
موجودگی
موجودہ
موحدین
موخر
مود
مودت
مودود
مودودی
مودی
مور
موربیہان
مورت
مورتاں
مورتھے
مورتی
مورتیاں
مورث
مورخ
مورخاں
مورخہ
مورخین
مورد
مورس
مورنر
مورو
موروثی
موروس
مورچہ
مورچے
مورگن
مورگنز
موری
موریا
موریاں
موریس
موریش
مورینو
موریٹا
موریہ
موز
موزاں
موزر
موزش
موزل
موزمبیق
موس
موسا
موساد
موسسه
موسسہ
موسم
موسماں
موسمی
موسمیا
موسوعة
موسوعہ
موسوعۃ
موسوم
موسوی
موسى
موسی
موسیقار
موسیقاراں
موسیقی
موش
موشن
موصل
موصوف
موصول
موضع
موضوع
موضوعات
موضوعاں
موضوعی
موطا
موعود
موفق
موقع
موقعاں
موقعہ
موقعے
موقف
موقوف
مول
مولا
مولانا
مولر
مولف
مولن
مولوتوف
مولوی
مولک
مولی
مولیانا
موم
مومل
مومن
مومنین
مون
مونا
موناکو
موندی
مونس
مونو
مونود
مونونا
مونٹ
مونٹانا
مونٹاگنولا
مونٹمیلن
مونٹپلیي
مونٹگمری
مونٹگومری
مونٹی
مونٹیزوما
مونٹینیگرو
مونگ
مونگوز
مونھ
مونہايیم
مونہہ
مونیز
مونیکا
موومنٹ
مووی
موي
موٹ
موٹا
موٹاي
موٹر
موٹرساي
موٹی
موٹے
موچی
موڈ
موڈرنزم
موڈھی
موڈی
موڈیسٹو
موڑ
موڑی
موگا
موگادیشو
موگنو
موگو
موگیو
موہ
موہالی
موہری
موہن
موہنجودڑو
موہڑا
موہڑی
مویشی
مویشیاں
مي
مير
ميرے
ميں
مٹ
مٹا
مٹانے
مٹر
مٹلوڈی
مٹھ
مٹھا
مٹھاي
مٹھن
مٹھی
مٹی
مٹیاری
مچ
مچا
مچل
مچھ
مچھر
مچھلی
مچھلیاں
مچھی
مچھیاں
مڈ
مڈغاسکر
مڈل
مڈلسکس
مڈھ
مڈھلا
مڈھلی
مڈھلے
مڑ
مک
مکا
مکاتب
مکاتیب
مکارم
مکالمہ
مکالمے
مکان
مکانات
مکاناں
مکانی
مکاو
مکاک
مکاں
مکت
مکتب
مکتبة
مکتبہ
مکتبۃ
مکتسر
مکتوب
مکتوبات
مکتی
مکداہان
مکر
مکران
مکرر
مکرم
مکرمہ
مکروہ
مکعب
مکمل
مکن
مکي
مکڈاہان
مکڑا
مکڑی
مکھ
مکھرجی
مکھن
مکھی
مکھیاں
مکہ
مکی
مکینکس
مکینیکل
مکے
مگ
مگدھ
مگدھا
مگر
مگراس
مگرمچھ
مگروں
مہ
مہا
مہابت
مہابھارت
مہاتما
مہاجر
مہاجراں
مہاجرین
مہاجن
مہادیو
مہار
مہاراج
مہاراجا
مہاراجہ
مہاراجے
مہاراشٹر
مہاراشٹرا
مہارانا
مہارانی
مہارت
مہاسکا
مہان
مہاویر
مہاکاوی
مہاں
مہایان
مہت
مہتاب
مہتمم
مہتوپورن
مہتہ
مہدوی
مہدویت
مہدی
مہذب
مہر
مہران
مہراں
مہربان
مہربانی
مہریز
مہلب
مہلت
مہلک
مہم
مہمات
مہمان
مہماناں
مہماں
مہمند
مہنت
مہندر
مہندی
مہنگا
مہنگی
مہنگے
مہوبا
مہک
مہیا
مہیش
مہینا
مہیندر
مہینہ
مہینیاں
مہینے
مہینےا
مۃ
می
میا
میامی
میان
میانمار
میانوالی
میانچنوں
میانہ
میانی
میاو
میاں
میت
میتروویچا
میتھمیٹکس
میتھین
میتھیو
میثاق
میثم
میجر
میخاي
مید
میدان
میداناں
میدانی
میدویدا
میر
میرا
میراث
میراں
میرزا
میرسن
میرو
میروشینا
میرٹ
میرٹھ
میرٹھی
میرپور
میرہوف
میری
میریزہاو
میرین
میرینز
میریٹاي
میریڈتھ
میرے
میز
میزان
میزاي
میزبان
میزبانی
میزش
میزک
میسا
میساچوسٹس
میساچیوسٹس
میسر
میسرہ
میسن
میسور
میسوپوٹیمیا
میسی
میعاد
میقات
میل
میلا
میلاد
میلادی
میلان
میلانی
میلبورن
میلسی
میلو
میلون
میلکم
میلہ
میلے
میلےا
میم
میمبر
میمبراں
میمن
میمنہ
میموری
میموریال
میموریل
میمون
مین
مینا
میناب
مینار
میناراں
میناں
مینجمنٹ
مینز
مینن
مینو
مینودشت
مینوفیکچرنگ
مینوي
مینوں
مینٹ
مینڈیٹ
مینہ
مینہہ
مینہیٹن
مینی
مینیجر
مینیجمینٹ
مینیسوٹا
مینیفی
مینے
میو
میوات
میواڑ
میوزک
میوزیم
میوزیکل
میونخ
میونسپل
میونسپلٹی
میونسپلٹیاں
میونیچا
میوہ
میي
میٹ
میٹر
میٹرو
میٹروپولیٹن
میٹرک
میٹرکس
میٹری
میٹم
میٹنگ
میٹنگاں
میٹھی
میٹھے
میپ
میچ
میچاں
میچز
میچنیکوف
میڈ
میڈاوار
میڈرڈ
میڈل
میڈم
میڈگلیا
میڈیا
میڈیسن
میڈیم
میڈیکل
میک
میکاع
میکاي
میکرل
میکس
میکسم
میکسویل
میکسیکن
میکسیکو
میکفارلین
میکلوڈ
میکملن
میکنزی
میگا
میگاواٹ
میگزین
میں
میہ
مے
ن
نا
ناانصافی
نااہل
نااہلی
ناب
نابالغ
نابغہ
نابلس
نابود
نابھا
نابھہ
نابینا
نات
ناتھ
ناتھن
ناجاي
ناحق
ناخوش
ناد
نادر
نادرشاہ
نادرہ
نادیہ
نار
نارا
ناراض
ناراضگی
ناراضی
ناراي
ناراین
نارتھ
نارتھراپ
ناردرن
نارمل
نارمن
نارمنڈی
ناروا
نارووال
ناروچ
ناروے
ناریل
ناز
نازل
نازک
نازی
نازیاں
نازیہ
ناس
ناسا
ناسخ
ناسریت
ناشر
ناشولے
ناصر
ناصرالدین
ناصری
ناطق
ناطے
ناظر
ناظرین
ناظم
نافذ
نافرمانی
نافع
نافلز
ناقابل
ناقدین
ناقص
نال
نالاں
نالو
نالوں
نالہ
نالی
نالیاں
نالے
نام
نامزد
نامزدگی
نامزدگیاں
نامعلوم
ناممکن
نامناسب
نامه
نامور
ناموس
نامک
نامکس
نامکمل
نامہ
نامی
نامے
نان
نانا
نانجنگ
نانو
نانوتوی
نانک
نانی
ناو
ناواقف
ناواں
ناول
ناولاں
ناي
ناٹ
ناٹک
ناٹکاں
ناٹکی
ناپ
ناپا
ناپاک
ناپسند
ناپسندیدگی
ناپسندیدہ
ناپن
ناپیا
ناپید
ناچ
ناچار
ناڈو
ناڑا
ناک
ناکا
ناکارہ
ناکافی
ناکام
ناکامورا
ناکامی
ناکامیاں
ناکہ
ناگ
ناگا
ناگاساکی
ناگالینڈ
ناگزیر
ناگوار
ناگور
ناگورنو
ناگپور
ناں
ناہر
ناہید
نایاب
نایوک
نباتات
نباتہ
نبرد
نبوت
نبوی
نبویہ
نبھا
نبھاو
نبھاي
نبھایا
نبی
نبیاں
نبیل
نت
نتالیا
نتاي
نتقال
نتیجتا
نتیجہ
نتیجے
نثار
نثر
نثری
نج
نجات
نجار
نجاست
نجاشی
نجد
نجدی
نجران
نجس
نجف
نجفی
نجم
نجمی
نجن
نجوم
نجکاری
نجی
نجیب
نحضرت
نحل
نحو
نخعی
نخلستان
نخچیوان
ند
ندا
ندامت
ندتی
ندر
ندرس
ندرے
ندوۃ
ندوی
ندگان
ندگی
ندھرا
ندھراپردیش
ندھی
ندہ
ندی
ندیاں
ندیم
ندے
ندےا
نذر
نذرانہ
نذرانے
نذیر
نر
نراتھیواٹ
نراقی
نرالہ
نراي
نربھر
نرت
نردھارت
نرز
نرس
نرسمہا
نرسنگ
نرسی
نرش
نرم
نرمان
نرمدا
نرمی
نرنبرگ
نرندر
نرنسٹ
نروان
نرگس
نری
نریری
نریش
نریندر
نز
نزار
نزاع
نزاکت
نزد
نزدیک
نزدیکی
نزول
نزیر
نس
نساء
نساب
نسان
نسانی
نساو
نساي
نسب
نسبت
نسبتا
نسبی
نستعلیق
نسخ
نسخہ
نسخے
نسخےا
نسدان
نسداناں
نسز
نسق
نسل
نسلا
نسلاں
نسلی
نسو
نسوانی
نسوانیت
نسواں
نسٹ
نسٹاي
نسی
نسیم
نش
نشا
نشاط
نشان
نشانات
نشاندہی
نشانہ
نشانی
نشانیاں
نشانے
نشاں
نشاۃ
نشتر
نشر
نشریات
نشست
نشستاں
نشو
نشوونما
نشپ
نشچت
نشہ
نشیب
نشیبی
نشین
نشینی
نشے
نص
نصاب
نصابی
نصاری
نصب
نصر
نصراللہ
نصرانی
نصرت
نصف
نصوص
نصیب
نصیحت
نصیر
نصیرالدین
نضیر
نطفہ
نظارت
نظارہ
نظارے
نظام
نظاماں
نظامت
نظامی
نظامیہ
نظر
نظرا
نظرانداز
نظراں
نظربند
نظربندی
نظرثانی
نظري
نظری
نظریا
نظریات
نظریي
نظریہ
نظریے
نظم
نظماں
نظمی
نظیر
نعامہ
نعت
نعتیہ
نعراں
نعرہ
نعرے
نعمان
نعمانی
نعمت
نعمتاں
نعیم
نعیمی
نغدے
نغمہ
نغمے
نف
نفاذ
نفاست
نفاق
نفر
نفرت
نفری
نفس
نفسانی
نفسی
نفسیا
نفسیات
نفسیاتی
نفع
نفوذ
نفوس
نفی
نفیس
نقاب
نقاد
نقاداں
نقارہ
نقاشی
نقاط
نقاي
نقد
نقدہ
نقدی
نقش
نقشبند
نقشبندی
نقشبندیہ
نقشہ
نقشے
نقص
نقصان
نقصانات
نقطہ
نقطے
نقل
نقلاں
نقلی
نقوش
نقوی
نقی
نقیب
نل
نلاي
نلوا
نلینڈ
نم
نما
نماز
نمازاں
نمازی
نمازیاں
نماي
نمایاں
نمبر
نمبراں
نمر
نمو
نمود
نمودار
نمونہ
نمونے
نمونےا
نمٹنے
نمک
نمکین
نمی
نمیبیا
نمیر
نمین
نن
ننجا
نند
نندا
نندپور
نندہ
نندی
نني
ننکانہ
ننگ
ننگا
ننگرہار
ننگل
ننگی
ننگے
ننیں
نه
نهج
نو
نوا
نواب
نواباں
نوابی
نواح
نواحی
نوادرات
نوار
نواز
نوازی
نوازیا
نواس
نواسہ
نواسی
نواي
نواں
نوبت
نوبختی
نوبل
نوتھیا
نوجوان
نوجوانان
نوجواناں
نوجوانی
نوح
نوحہ
نور
نورا
نورالدین
نورانی
نورجہا
نورجہاں
نورزي
نورستان
نورش
نورنگا
نوروالک
نوروز
نورڈ
نوری
نوزاي
نوش
نوشت
نوشتہ
نوشہرہ
نوشی
نوع
نوعمر
نوعیت
نوغاي
نوفل
نول
نوم
نومبر
نون
نونتھابوری
نونگ
نونگبوا
نونہال
نوو
نووا
نوواگراڈ
نووو
نووگورد
نووی
نوویں
نوي
نويں
نوٹ
نوٹاں
نوٹری
نوٹس
نوٹنگہم
نوک
نوکر
نوکراں
نوکری
نوکریاں
نوگزی
نوں
نوںاي
نوی
نویاں
نوید
نویرہ
نویس
نویساں
نویسنده
نویسی
نوین
نویں
نوے
ني
نيں
نٹ
نٹا
نٹر
نٹس
نٹشکے
نٹنگ
نٹی
نٹیاں
نٹین
نپولین
نچ
نچلا
نچلی
نچلے
نچوڑ
نڈ
نڈر
نڈری
نڈس
نڈیشن
نڈے
نژاد
نک
نکا
نکات
نکاح
نکاراگوا
نکاس
نکاسی
نکال
نکالا
نکالنا
نکالنے
نکاندی
نکاي
نکتہ
نکتے
نکل
نکلا
نکلاں
نکلدا
نکلدی
نکلدیاں
نکلدے
نکلن
نکلنا
نکلنے
نکلی
نکلیا
نکلے
نکوبار
نکودر
نکولاي
نکولس
نکھ
نکھاں
نکھون
نکھوں
نکھیں
نکہ
نکی
نکیاں
نکے
نگ
نگا
نگار
نگاراں
نگاری
نگاہ
نگاہاں
نگر
نگران
نگرانی
نگراں
نگری
نگساو
نگل
نگم
نگن
نگورنو
نگہبان
نگہداشت
نگے
نں
نھ
نھاں
نھیں
نہ
نہا
نہاد
نہار
نہال
نہاوند
نہاں
نہایت
نہبندان
نہج
نہر
نہراں
نہرو
نہروان
نہری
نہم
نہنگ
نہولڈ
نہيں
نہی
نہیں
نی
نیا
نیابت
نیاز
نیازی
نیازیاں
نیام
نیامتس
نیانے
نیاگرا
نیاں
نیبراسکا
نیبراسکیا
نیت
نیتا
نیتک
نیتی
نیدرلینڈ
نیدرلینڈز
نیدرنڈورف
نیر
نیروبی
نیرے
نیز
نیزہ
نیزے
نیزےا
نیس
نیست
نیش
نیشا
نیشابور
نیشابوری
نیشاپور
نیشاپوری
نیشن
نیشنز
نیشنل
نیشنلسٹ
نیل
نیلا
نیلامی
نیلز
نیلسن
نیلم
نیلو
نیلوفر
نیلی
نیلے
نیم
نیمت
نین
نینا
نیند
نیندی
نینسی
نینو
نینوا
نیو
نیوا
نیواڈا
نیواں
نیور
نیورمبرگ
نیوری
نیوز
نیوزی
نیوزیلینڈ
نیوسٹفٹ
نیوشٹڈ
نیوشہر
نیول
نیولا
نیوٹران
نیوٹرون
نیوٹرینو
نیوٹن
نیوپورٹ
نیوکاسل
نیوکت
نیوکلیاي
نیوکلیس
نیوکلیي
نیوگنی
نیوی
نیویارک
نیویں
نیي
نیٹ
نیٹرز
نیٹو
نیٹورک
نیپال
نیپالی
نیپلز
نیپولین
نیپچون
نیچ
نیچا
نیچر
نیچرل
نیچے
نیڑلے
نیڑے
نیڑےی
نیک
نیکر
نیکل
نیکوسیا
نیکولاي
نیکولس
نیکولے
نیکی
نیگرو
نیگوتن
نیں
نیہہ
نے
ه
هء
ها
هاشم
هاشمی
های
هجری
هذا
هشام
هـ
هل
هم
همان
هو
و
وا
وابستگی
وابستہ
واجاي
واجب
واجبات
واجد
واجپاي
واحد
واخان
واد
وادا
وادي
وادھا
وادھو
وادھے
وادی
وادیاں
وار
وارانسی
وارانہ
واراں
واربرگ
وارتک
وارث
وارثاں
وارثی
وارد
واردات
وارسا
وارن
وارنا
وارنر
وارنٹ
وارڈ
وارہ
واری
واریت
واز
وازاں
واس
واسباب
واسط
واسطہ
واسطے
واسطےا
واسلوي
واسن
واسی
واسیاں
واشنگٹن
واصف
واصل
واضح
واضع
واعظ
وافر
واقدی
واقع
واقعات
واقعتا
واقعہ
واقعی
واقعے
واقف
واقفیت
وال
والا
والاں
والتھر
والجماعت
والد
والدہ
والدین
والز
والسلام
واللہ
والنہایہ
والو
والوں
والى
والي
والٹ
والٹر
والٹن
والڈ
والہ
والہانہ
والی
والیا
والیاں
والیجو
والیس
والیي
والے
والےا
وامان
وان
وانصاف
وانگ
وانگوں
وانی
واو
واي
واٹ
واٹر
واٹسن
واپس
واپسی
واپیلو
واچ
واڑا
واک
واکاولے
واکاٹوبی
واکر
واکسمان
واکنش
واں
واہ
واہلرن
واہن
واہی
وب
وبا
وباي
وبگاه
وبھاگ
وت
وتدریس
وتربیت
وتھ
وتی
وثوق
وج
وجاہت
وجد
وجوب
وجود
وجوں
وجوہ
وجوہات
وجي
وجہ
وجہہ
وجہہکرم
وجی
وجیں
وجے
وح
وحدانیت
وحدت
وحدیث
وحشت
وحشی
وحشیانہ
وحی
وحید
ود
وداع
ودروہ
ودوان
ودواناں
ودھ
ودھا
ودھان
ودھانے
ودھاو
ودھاي
ودھایا
ودھدا
ودھدتی
ودھدی
ودھدے
ودھن
ودھنا
ودھنے
ودھی
ودھیا
ودھیاں
ودھیرے
ودھے
ودیا
ودیساں
ودیش
ور
وراثت
وراثتی
ورامین
ورانہ
ورانیي
وراي
وراں
ورباس
وربي
ورت
ورتارے
ورتدا
ورتدے
ورتن
ورتو
ورتوں
ورتکنیک
ورتھ
ورتی
ورتیا
ورتیاں
ورتے
ورثہ
ورثے
ورجن
ورجینیا
ورد
وردہ
وردی
ورزبرگ
ورزش
ورزی
ورزیاں
ورس
ورساي
ورسٹی
ورشاج
ورق
ورقلہ
ورلڈ
ورم
ورما
ورمونٹ
ورن
ورنر
ورنن
ورنہ
ورودھ
ورچوي
ورڈ
ورژن
ورک
ورکر
ورکرز
ورکس
ورکشاپ
ورکنگ
ورگ
ورگا
ورگی
ورگیاں
ورگے
ورھیاں
ورھے
وری
وریاں
ورے
وزارت
وزارتاں
وزرا
وزراء
وزراي
وزن
وزنی
وزو
وزٹا
وزڈن
وزیر
وزیراعظم
وزیراعلی
وزیراں
وزیرستان
وزیری
وزے
وس
وساطت
وساي
وساکھی
وسایا
وستا
وستار
وستاں
وستم
وستو
وستواں
وستھار
وسدا
وسدے
وسری
وسرے
وسط
وسطی
وسعت
وسلم
وسن
وسنت
وسنیک
وسوں
وسٹ
وسٹا
وسٹمنسٹر
وسکونسن
وسی
وسیا
وسیب
وسیع
وسیلہ
وسیلے
وسیم
وسے
وش
وشا
وشاعر
وشال
وشنو
وشو
وشواس
وشوناتھ
وشوکوش
وشکار
وشکارلا
وشکارلہ
وشکارلے
وشیش
وشے
وصال
وصف
وصل
وصول
وصولی
وصی
وصیت
وضاحت
وضاحتاں
وضع
وضو
وطن
وطناں
وطنی
وظاي
وظیفہ
وظیفے
وعدہ
وعدے
وعدےا
وعظ
وعیال
وغارت
وغیر
وغیرا
وغیرہ
وف
وفا
وفات
وفادار
وفاداری
وفادارےا
وفاق
وفاقی
وفاي
وفد
وفضل
وفود
وفی
وفیات
وقار
وقاص
وقاي
وقایع
وقت
وقتا
وقتاں
وقتی
وقعت
وقف
وقفہ
وقفے
وقوع
وقوف
ول
ولا
ولات
ولاخ
ولادت
ولادیمیر
ولادیمیرچی
ولادیچن
ولاسوتینچے
ولانز
ولایت
ولبھ
ولد
ولر
ولرڈ
ولز
ولسن
ولسٹاٹ
ولف
ولفگانگ
ولن
ولندیزی
ولو
ولورہ
ولوں
ولى
ولکنز
ولکھن
ولگن
ولہلم
ولہیلم
ولہیلمینا
ولی
ولید
ولیس
ولیم
ولیمز
ولیي
ولیڈمر
ولیں
ولیہلم
ولے
وم
وما
ومن
ون
ونجارا
وند
وندا
وندانز
وندی
وندے
ونسنٹ
ونسٹن
ونش
ونود
ونچرا
ونچسٹر
ونڈ
ونڈا
ونڈاو
ونڈاں
ونڈن
ونڈوز
ونڈی
ونڈیا
ونڈے
ونگ
ونگن
ونگی
ونگیاں
ونی
ونیباگو
ونیشیک
وه
وو
وورےرلبرگ
وولراو
وولفہالدن
وولٹ
وولٹیج
وولگا
وومن
وومین
وون
ووي
ووٹ
ووٹاں
ووٹر
ووٹراں
ووٹرز
ووٹنگ
ووڈ
ووڈرو
ووڈس
ووکیبولری
ووگن
ووہان
وي
ويب
ويكي
ويں
وٹ
وٹامن
وپ
وپار
وپاری
وپر
وپل
وچ
وچار
وچاراں
وچاردھارا
وچالے
وچلی
وچلے
وچو
وچوں
وچکار
وچکارلا
وچکارلے
وڈ
وڈا
وڈبری
وڈورڈ
وڈھ
وڈھیاں
وڈی
وڈیاي
وڈیاں
وڈیو
وڈے
وڑ
وژن
وک
وکاس
وکالت
وکرم
وکری
وکلا
وکلاء
وکلاي
وکٹ
وکٹاں
وکٹر
وکٹورولے
وکٹوریا
وکٹوریہ
وکھ
وکھالہ
وکھالے
وکھاي
وکھایا
وکھرا
وکھری
وکھریاں
وکھرے
وکھو
وکھے
وکی
وکیع
وکیل
وکیپیڈیا
وگ
وگدا
وگدی
وگنر
وگیان
وگیانی
وں
وھی
وہ
وہابی
وہابیاں
وہابیت
وہار
وہاڑی
وہاں
وہب
وہران
وہم
وہی
وہیل
وہیں
وی
ویا
ویاس
ویانا
ویاپک
ویاکھیا
ویاں
ویاہ
ویاہیا
ویب
ویبر
ویبساي
ویبسٹر
ویت
ویتنام
ویتنامی
ویجو
وید
ویدانت
ویداں
ویدک
ویدی
ویر
ویرا
ویران
ویرو
ویروا
ویروے
ویری
ویز
ویزا
ویزاں
ویس
ویسا
ویسالیا
ویسن
ویسٹ
ویسٹرن
ویسٹمنسٹر
ویسی
ویسے
ویشنو
ویل
ویلا
ویلتھ
ویلر
ویلز
ویلس
ویلفیي
ویلنٹاي
ویلنگٹن
ویلچا
ویلڈ
ویلہ
ویلی
ویلیاں
ویلیم
ویلینڈ
ویلیکا
ویلیکو
ویلے
ویمن
ویمنز
وین
وینا
وینزویلا
وینس
وینڈل
وینکوور
وینکٹا
وینگ
وینیشین
وینیو
ویو
ویي
ویٹ
ویٹرنری
ویٹو
ویٹیکن
ویچ
ویچن
ویچیا
ویڈرنگ
ویڈیو
ویڈیوز
ویڑہ
ویژن
ویژیول
ویک
ویکتی
ویکتیاں
ویکسین
ویکٹر
ویکٹراں
ویکھ
ویکھدیاں
ویکھدے
ویکھن
ویکھنا
ویکھو
ویکھکے
ویکھی
ویکھیا
ویکھے
ویکی
ویکیپیڈیا
ویگن
ویگنر
ویں
ویہويں
ویہویں
ویہڑے
ویہہ
ویین
وے
ى
ي
يا
ياں
يت
يتی
يد
ير
يل
يم
ين
يه
يوسف
يں
يہ
ً
ٌ
ٍ
َ
ُ
ِ
ّ
ْ
ٓ
ٔ
ٕ
ٖ
ٗ
٘
ٛ
٠
١
١٠
١١
١٣
١٩
٢
٢٠
٣
٤
٥
٦
٦٦
٦٧
٧
٧٦
٧٧
٨
٩
٪
٫
٬
٭
ٰ
ٹ
ٹا
ٹارزن
ٹارسیر
ٹارن
ٹاس
ٹاسک
ٹال
ٹالیحسی
ٹام
ٹاما
ٹان
ٹانک
ٹانگ
ٹانگا
ٹانگاں
ٹاو
ٹاور
ٹاورز
ٹاي
ٹاٹا
ٹاپ
ٹاپو
ٹاک
ٹاں
ٹبر
ٹبری
ٹتے
ٹر
ٹرافی
ٹرام
ٹرانزٹ
ٹرانس
ٹرانسجینڈر
ٹرانسپورٹ
ٹراو
ٹراي
ٹراٹ
ٹراٹسکی
ٹرباي
ٹربیون
ٹردا
ٹرز
ٹرسٹ
ٹرسٹی
ٹرمپ
ٹرمینل
ٹرن
ٹرنر
ٹرنٹی
ٹرنگ
ٹروگن
ٹرپل
ٹرک
ٹرکاں
ٹری
ٹریا
ٹریبون
ٹریبونل
ٹریبیون
ٹریسی
ٹریفک
ٹرین
ٹریناں
ٹریننگ
ٹرینٹ
ٹرینٹن
ٹرینیٹی
ٹرینیڈاڈ
ٹریٹی
ٹریڈ
ٹریک
ٹریکٹر
ٹزرلینڈ
ٹس
ٹسیلیس
ٹشو
ٹفلوپس
ٹل
ٹلفس
ٹلہ
ٹم
ٹماٹر
ٹن
ٹنا
ٹنل
ٹنڈو
ٹنڈولکر
ٹنگ
ٹو
ٹوبا
ٹوباگو
ٹوبنگن
ٹوبہ
ٹور
ٹورانٹو
ٹورنامنٹ
ٹورنامینٹ
ٹورنٹو
ٹوری
ٹوریا
ٹورینس
ٹوسٹل
ٹول
ٹولز
ٹولی
ٹولیاں
ٹوم
ٹومب
ٹوموناگا
ٹومی
ٹومے
ٹونٹی
ٹونک
ٹونی
ٹوي
ٹوٹ
ٹوٹا
ٹوٹنے
ٹوٹی
ٹوٹے
ٹوپولوجی
ٹوپی
ٹوپیاں
ٹوڈ
ٹوڈرمل
ٹوڈے
ٹوک
ٹوکان
ٹوکری
ٹوکرے
ٹوکیو
ٹوگو
ٹویٹ
ٹویٹر
ٹي
ٹٹ
ٹٹن
ٹپ
ٹپنی
ٹپے
ٹڈ
ٹک
ٹکا
ٹکر
ٹکرا
ٹکراو
ٹکسال
ٹکنالوجی
ٹکو
ٹکٹ
ٹکٹاں
ٹکڑا
ٹکڑی
ٹکڑیاں
ٹکڑے
ٹکڑےا
ٹکے
ٹھ
ٹھا
ٹھاکر
ٹھایا
ٹھمنا
ٹھنڈ
ٹھنڈا
ٹھنڈی
ٹھنڈے
ٹھوس
ٹھونگا
ٹھوڈی
ٹھوکر
ٹھٹوی
ٹھٹھہ
ٹھٹہ
ٹھکانہ
ٹھکانے
ٹھکانےا
ٹھکرا
ٹھگ
ٹھہر
ٹھہرا
ٹھہرایا
ٹھہرے
ٹھی
ٹھیک
ٹھے
ٹہ
ٹی
ٹیا
ٹیاں
ٹیبل
ٹیراٹری
ٹیرول
ٹیسٹ
ٹیل
ٹیلر
ٹیلنٹ
ٹیلہ
ٹیلی
ٹیلیسکوپ
ٹیلیفون
ٹیلیوژن
ٹیلیگرام
ٹیلے
ٹیم
ٹیماں
ٹیمز
ٹیمپل
ٹیمکولا
ٹین
ٹینا
ٹینس
ٹیننگبریج
ٹینک
ٹینکاں
ٹینہیم
ٹینیسی
ٹیوب
ٹیونس
ٹیوٹ
ٹیوی
ٹیٹن
ٹیٹو
ٹیٹی
ٹیپ
ٹیپو
ٹیچر
ٹیچنگ
ٹیڈ
ٹیڈیوس
ٹیک
ٹیکا
ٹیکس
ٹیکساس
ٹیکساں
ٹیکسلا
ٹیکسٹ
ٹیکسٹاي
ٹیکسی
ٹیکنالوجی
ٹیکنالوجیز
ٹیکنیکل
ٹیگ
ٹیگور
ٹے
ٽ
پ
پا
پابند
پابندی
پابندیاں
پات
پاتر
پاتراں
پاتشاہ
پاتشاہی
پاتھم
پاتھوم
پاداش
پادری
پادریاں
پادشاہ
پار
پارا
پاراسن
پارس
پارسا
پارساگاد
پارسی
پارسیان
پارسیاں
پارش
پارلیمان
پارلیمانی
پارلیمنٹ
پارلیمینٹ
پاروں
پارٹ
پارٹنر
پارٹی
پارٹیاں
پارٹیکل
پارٹیکلز
پارک
پارکاں
پارکر
پارکس
پارہ
پارے
پارےا
پازووا
پاس
پاسا
پاساو
پاساڈینا
پاسداران
پاسداری
پاسو
پاسوں
پاسپورٹ
پاسہ
پاسیاں
پاسیوں
پاسے
پاسےاوں
پاش
پاشا
پاشی
پال
پالاگنڈرا
پالتو
پالم
پالن
پالنا
پالنگ
پالنے
پالو
پالپا
پالی
پالیا
پالیسی
پالیسیاں
پالے
پام
پامال
پامیر
پان
پانا
پاناما
پانامہ
پاندا
پاندھی
پاندی
پاندے
پانچ
پانچیوو
پانڈا
پانڈو
پانڈیا
پانڈے
پانی
پانیاں
پانے
پاو
پاواں
پاور
پاول
پاولوف
پاون
پاوہ
پاي
پاٹ
پاٹل
پاٹھ
پاٹھک
پاٹھکاں
پاپ
پاپاي
پاپوا
پاپوانیوگنی
پاپولر
پاک
پاکر
پاکستان
پاکستانی
پاکستانیاں
پاکپتن
پاکیزگی
پاکیزہ
پاگ
پاگل
پاگي
پاں
پایا
پایان
پایگاه
پایہ
پاییز
پاݨی
پبلشر
پبلشرز
پبلشنگ
پبلک
پبلی
پبلیشرز
پبلیکیشن
پبلیکیشنز
پت
پتا
پتایا
پتر
پترا
پتراں
پتری
پتل
پتلا
پتلی
پتلے
پتن
پتنگ
پتنی
پتھر
پتھراں
پتہ
پتی
پتیاں
پتے
پتےا
پج
پجاری
پجاریاں
پجے
پختون
پختونخوا
پختونخواہ
پختگی
پختہ
پد
پدر
پدم
پدما
پدھر
پدھرا
پدھری
پدی
پدے
پذیر
پذیراي
پذیری
پر
پرا
پراجیکٹ
پراس
پراسرار
پراسیکیوٹر
پرامن
پران
پرانا
پراناں
پرانی
پرانیاں
پرانے
پراي
پراپت
پراپرٹی
پراچنبوری
پراچوا
پراچین
پراک
پراکان
پراکرت
پراکسی
پراگ
پراگارتن
پراں
پربت
پربندھ
پربندھن
پربندھک
پربندھکی
پربھاشت
پربھاو
پربھاوت
پربھو
پربھی
پرت
پرتاب
پرتاپ
پرتاں
پرتشدد
پرتن
پرتو
پرتگال
پرتگالی
پرتگالیاں
پرتگیزی
پرتھ
پرتھوی
پرتی
پرتیت
پرتیک
پرجا
پرجاتیاں
پرجوش
پردان
پردرشت
پردھان
پردہ
پردیس
پردیسی
پردیش
پردے
پرزور
پرس
پرساد
پرسار
پرست
پرستار
پرستانہ
پرستاں
پرستش
پرستی
پرسدھ
پرسل
پرسن
پرسنل
پرسپر
پرسکار
پرسکو
پرسی
پرشاد
پرشیا
پرشین
پرط
پرعزم
پرفارم
پرفارمنس
پرقبضہ
پرل
پرم
پرماتما
پرمار
پرمانک
پرمپرا
پرمپراواں
پرمکھ
پرنالی
پرنالیاں
پرندہ
پرندے
پرندےا
پرنس
پرنسٹن
پرنسپل
پرنٹ
پرنٹنگ
پرو
پروا
پروار
پرواز
پروازاں
پرواس
پرواسی
پروان
پروانگی
پروانہ
پرواہ
پروجیکٹ
پروخروف
پرور
پرورتن
پرورتی
پروردگار
پرورش
پروری
پروسیسنگ
پروشیا
پروفاي
پروفیسر
پروفیشنل
پرولتاریہ
پرونس
پروویڈنس
پروٹسٹنٹ
پروٹو
پروٹون
پروٹوکول
پروٹین
پروپیگنڈا
پروپیگنڈہ
پروپیگنڈے
پروڈکشن
پروڈیو
پروڈیوس
پروڈیوسر
پروکرپلیي
پروگرام
پروگراماں
پروگرامنگ
پروگریسو
پروہت
پرویز
پروین
پرپیکھ
پرچار
پرچلت
پرچم
پرچہ
پرچے
پرکار
پرکاش
پرکاشت
پرکاشن
پرکشش
پرکھ
پرگنہ
پرگٹاوا
پرہیز
پرہیزگار
پری
پریا
پریاگ
پریاں
پریت
پریتم
پریرنا
پریری
پریزیڈنسی
پریس
پریسٹن
پریشان
پریشانی
پریشانیاں
پریشد
پریشر
پریشن
پریشنز
پریشنل
پریشیوو
پریفیکچر
پریم
پریمی
پریمیي
پریوار
پریواراں
پریوگ
پریٹنگ
پریٹو
پریڈ
پریکٹس
پریگل
پریہ
پرے
پزیر
پزیراي
پس
پسار
پست
پستول
پستک
پستی
پسر
پسماندگی
پسماندہ
پسند
پسندانہ
پسنداں
پسندی
پسندیدہ
پسو
پسوال
پسپا
پسپاي
پسی
پشاو
پشاور
پشت
پشتاں
پشتو
پشتون
پشتوناں
پشن
پشو
پشواں
پشین
پطرس
پعارت
پعاڑ
پعاڑاں
پعاڑی
پفافنہوفن
پفنڈز
پل
پلا
پلازہ
پلاسٹک
پلاسکی
پلاسی
پلان
پلانا
پلاندیشتے
پلاننگ
پلانٹ
پلانک
پلانکا
پلانے
پلاو
پلاي
پلاٹ
پلاٹا
پلاں
پلدختر
پلر
پلس
پلندری
پلوٹو
پلٹ
پلٹا
پلٹن
پلہ
پلی
پلیس
پلین
پلیوجاو
پلیي
پلیٹ
پلیٹاں
پلے
پمپ
پن
پنا
پناہ
پناہی
پنت
پنتھ
پنج
پنجاب
پنجابی
پنجابیاں
پنجابیت
پنجاں
پنجاہ
پنجرے
پنجشیر
پنجم
پنجواں
پنجويں
پنجویں
پنجہ
پنجے
پند
پندراں
پندرہ
پندرہويں
پنر
پنزوانگ
پنسلوانیا
پنشن
پنوال
پنوں
پنچ
پنچاي
پنچایت
پنچم
پنچھی
پنچھیاں
پنڈ
پنڈا
پنڈاں
پنڈت
پنڈتاں
پنڈوری
پنڈي
پنڈی
پنڈے
پنک
پنگ
پنہ
پنہہ
پنی
پنیاں
پنیر
پنے
په
پو
پوا
پوار
پواي
پوت
پوتا
پوتر
پوتن
پوتے
پوجا
پودا
پودیاں
پودے
پودےا
پور
پورا
پورب
پوربی
پورتو
پورس
پورم
پورن
پورو
پورٹ
پورٹر
پورٹریٹ
پورٹسماو
پورٹل
پورٹو
پورہ
پوری
پوریاں
پورے
پوزاریواچ
پوزیشن
پوزیشناں
پوسٹ
پوسٹر
پوسٹل
پوش
پوشاک
پوشن
پوشی
پوشیدہ
پوشیک
پول
پولس
پولش
پولو
پولک
پولی
پولیس
پولینڈ
پولیو
پولیٹیکل
پولیکارپ
پومرینیا
پومونا
پون
پونا
پونجی
پونزی
پونم
پونچھ
پونڈ
پونہ
پونی
پونے
پوي
پوٹاوٹامی
پوٹھوہار
پوٹھوہاری
پوپ
پوچھ
پوچھا
پوچھل
پوچھلی
پوڈ
پوڑی
پوکوہانٹاس
پوکیمون
پوے
پي
پيا
پيدا
پيش
پيغمبر
پٹ
پٹانی
پٹرول
پٹرولیم
پٹزٹال
پٹزگال
پٹن
پٹنا
پٹنہ
پٹواری
پٹھ
پٹھار
پٹھان
پٹھاناں
پٹھانکوٹ
پٹھاں
پٹھے
پٹی
پٹیالا
پٹیالہ
پٹیالے
پٹیاں
پٹیل
پٹے
پچ
پچھا
پچھان
پچھانیا
پچھلی
پچھلے
پچھم
پچھمی
پچھوکڑ
پچھوں
پچھیا
پچھے
پچی
پچیس
پڑ
پڑا
پڑاو
پڑاي
پڑاں
پڑتا
پڑتال
پڑدا
پڑدی
پڑدے
پڑنا
پڑنے
پڑوس
پڑوسی
پڑوسیاں
پڑھ
پڑھا
پڑھانا
پڑھاندے
پڑھانے
پڑھاو
پڑھاي
پڑھایا
پڑھت
پڑھدا
پڑھدے
پڑھن
پڑھنا
پڑھنے
پڑھو
پڑھی
پڑھیا
پڑھیاں
پڑھے
پڑی
پڑیاں
پڑے
پژوهش
پک
پکا
پکار
پکاردے
پکاریا
پکاسو
پکانے
پکاي
پکاچو
پکایا
پکو
پکوان
پکچر
پکچرز
پکڑ
پکڑی
پکڑے
پکھ
پکھاں
پکھراج
پکھوں
پکھڑوں
پکھی
پکی
پکیاں
پکے
پگ
پگڑی
پگھل
پھ
پھانسی
پھانوم
پھاي
پھاٹک
پھاڑ
پھر
پھرا
پھراي
پھردا
پھردی
پھردے
پھرن
پھرنا
پھرنے
پھرے
پھس
پھسٹانولوک
پھسے
پھل
پھلار
پھلاں
پھلواری
پھلوالے
پھلگراں
پھلی
پھلیاں
پھلے
پھنس
پھنگ
پھول
پھولا
پھولے
پھونک
پھوٹ
پھوڑ
پھوکٹ
پھٹ
پھٹا
پھٹتھالنگ
پھٹنے
پھٹچابن
پھٹچابوری
پھٹے
پھڑ
پھڑن
پھڑنا
پھڑنے
پھڑیا
پھی
پھیاو
پھیر
پھیری
پھیل
پھیلا
پھیلانے
پھیلاو
پھیلاي
پھیلایا
پھیلدا
پھیلدی
پھیلدے
پھیلن
پھیلنا
پھیلنے
پھیلڈ
پھیلی
پھیلیا
پھیلے
پھینکا
پھینکنے
پھینکے
پھیچٹ
پہ
پہاڑ
پہاڑاں
پہاڑی
پہاڑیاں
پہر
پہرہ
پہرے
پہل
پہلا
پہلاں
پہلو
پہلوا
پہلوان
پہلوں
پہلوی
پہلی
پہلیاں
پہلے
پہن
پہنا
پہنانے
پہنایا
پہندے
پہننا
پہننے
پہنچ
پہنچا
پہنچاندا
پہنچاندے
پہنچانے
پہنچاو
پہنچاي
پہنچاں
پہنچایا
پہنچدا
پہنچدے
پہنچن
پہنچنا
پہنچنے
پہنچک
پہنچکيا
پہنچی
پہنچیا
پہنچیاں
پہنچے
پہنی
پہنے
پہونچ
پہونچا
پہچان
پہچانا
پہچاننے
پہچانی
پہچانیا
پہچانے
پہیے
پی
پیا
پیادہ
پیار
پیارا
پیاری
پیارے
پیاز
پیاس
پیاسا
پیالہ
پیالے
پیام
پیامبر
پیانو
پیتا
پیتروواچ
پیتل
پیج
پیجٹ
پید
پیدا
پیداوا
پیداوار
پیداواراں
پیداواری
پیداي
پیداہوي
پیدل
پیر
پیرا
پیراشوٹ
پیرانشہر
پیراں
پیرایج
پیرزادہ
پیرس
پیرش
پیرمحل
پیرن
پیرو
پیروت
پیروکار
پیروکاراں
پیروی
پیری
پیرینیز
پیزارو
پیس
پیسا
پیسہ
پیسیفک
پیسے
پیسےا
پیش
پیشاب
پیشانی
پیشاور
پیشتر
پیشرفت
پیشرو
پیشن
پیشوا
پیشواي
پیشکاری
پیشکش
پیشگی
پیشہ
پیشین
پیشے
پیشےا
پیغام
پیغامات
پیغمبر
پیغمبراں
پیل
پیلا
پیلس
پیلن
پیلو
پیلی
پیلیس
پیلے
پیما
پیمان
پیمانہ
پیمانے
پیماي
پین
پینا
پینانگ
پیندا
پیندی
پیندیاں
پیندے
پینزر
پینل
پینٹ
پینٹاگون
پینٹر
پینٹنگ
پینٹنگز
پینڈا
پینڈو
پینڈے
پینگوي
پینین
پینے
پیو
پیوست
پیوند
پیي
پیٹ
پیٹا
پیٹر
پیٹرز
پیٹرزبرگ
پیٹرسن
پیٹرن
پیٹرو
پیٹرک
پیٹریاارک
پیٹنٹ
پیٹھ
پیٹی
پیپر
پیپسو
پیپل
پیپلز
پیچ
پیچھے
پیچیدگی
پیچیدگیاں
پیچیدہ
پیڈ
پیڈرو
پیڈیا
پیڑ
پیڑت
پیڑھی
پیڑی
پیک
پیکار
پیکج
پیکر
پیکنگ
پیکٹ
پیکیج
پے
چ
چا
چابیاں
چادر
چادراں
چادگان
چار
چارا
چاراویماق
چاراں
چارج
چارلز
چارلس
چارلسٹن
چارلی
چاروي
چاروں
چارٹ
چارٹر
چارہ
چاریہ
چارے
چاقو
چال
چالاک
چالاکی
چالاں
چالدران
چالو
چالوس
چالی
چالیس
چالیو
چام
چانتھابوری
چاند
چاندنی
چاندی
چانسلر
چانن
چاو
چاول
چاي
چاپ
چاچا
چاچاک
چاچوي
چاچے
چاڈ
چاک
چاکر
چاکلیٹ
چاں
چاہ
چاہا
چاہتا
چاہتے
چاہن
چاہندا
چاہندی
چاہندے
چاہنے
چاہو
چاہي
چاہی
چاہیا
چاہیدا
چاہیدی
چاہیدے
چاہیي
چاہیے
چاہے
چایپراہ
چبوترے
چت
چتر
چترال
چترالی
چتراکوٹ
چتراں
چترن
چترکار
چتوڑ
چتوڑگڑھ
چر
چرا
چراغ
چراغاں
چراگاہاں
چراہ
چربی
چرمٹ
چرن
چرنا
چرنکوف
چرنیا
چرنیسے
چرواہے
چرچ
چرچا
چرچل
چرچہ
چرکوا
چری
چست
چستی
چسٹر
چشت
چشتی
چشتیاں
چشتیہ
چشم
چشماں
چشمہ
چشمے
چغتاي
چل
چلا
چلان
چلانا
چلاندا
چلاندی
چلاندے
چلانے
چلاو
چلاي
چلاگیا
چلاں
چلایا
چلتا
چلدا
چلدی
چلدیاں
چلدے
چلن
چلنا
چلنے
چلو
چلياں
چلڈرن
چلی
چلیا
چلیاں
چلے
چمن
چمپا
چمپھون
چمڑمگر
چمڑے
چمک
چمکدار
چمگادڑ
چمگادڑاں
چن
چنا
چناب
چنار
چناران
چنانچہ
چناو
چناي
چناکلی
چناں
چنتا
چنج
چنجوالا
چند
چندا
چندر
چندرا
چندن
چندولن
چندہ
چندی
چنويں
چنوں
چنڈولی
چنڈی
چنکیری
چنگ
چنگا
چنگاری
چنگی
چنگیز
چنگیزی
چنگے
چنہ
چنی
چنیا
چنیاری
چنیوٹ
چنے
چهارم
چو
چوا
چوبارہ
چوبیس
چوتھ
چوتھا
چوتھاي
چوتھی
چوتھے
چوداں
چودھری
چودھواں
چودہ
چودہويں
چور
چوراں
چوروم
چوری
چول
چولا
چولستان
چون
چونا
چوناں
چونبوری
چونکہ
چونے
چوٹ
چوٹی
چوٹیاں
چوپڑ
چوپڑہ
چوچا
چوڑا
چوڑاي
چوڑی
چوڑیاں
چوڑے
چوک
چوکور
چوکھا
چوکھی
چوکھے
چوکی
چوکیاں
چوکیو
چوکے
چوں
چوہان
چوہدری
چوہے
چوے
چي
چٹا
چٹان
چٹاناں
چٹاگانگ
چٹرجی
چٹروح
چٹھی
چٹھیاں
چٹی
چٹیاں
چٹے
چپ
چپکے
چچا
چچازاد
چڑدے
چڑھ
چڑھا
چڑھاو
چڑھاي
چڑھایا
چڑھت
چڑھدا
چڑھدی
چڑھدے
چڑھن
چڑھنا
چڑھنے
چڑھی
چڑھیا
چڑھے
چڑی
چڑیا
چڑیاں
چک
چکا
چکاسا
چکر
چکرورتی
چکری
چکن
چکوال
چکور
چکيا
چکيت
چکچال
چکی
چکیا
چکیاں
چکے
چھ
چھا
چھات
چھاتی
چھال
چھان
چھاو
چھاونی
چھاي
چھاپ
چھاپا
چھاپہ
چھاپی
چھاپیا
چھاپے
چھاپےا
چھاچھی
چھاڑ
چھاگلہ
چھاں
چھایا
چھت
چھتاں
چھترپتی
چھتری
چھتیس
چھتیسگڑھ
چھدے
چھرا
چھری
چھل
چھلانگ
چھلڑ
چھمبر
چھن
چھند
چھنی
چھنے
چھو
چھولس
چھونے
چھوٹا
چھوٹی
چھوٹیاں
چھوٹے
چھوڑ
چھوڑدے
چھٹ
چھٹا
چھٹکارا
چھٹی
چھٹیاں
چھپ
چھپا
چھپانے
چھپاي
چھپایا
چھپدا
چھپدے
چھپن
چھپنے
چھپڑ
چھپی
چھپیا
چھپے
چھڈ
چھڈن
چھڈنا
چھڈنے
چھڈو
چھڈکے
چھڈی
چھڈیا
چھڈے
چھڑ
چھڑا
چھڑی
چھکے
چھیا
چھیتی
چھین
چھیندی
چھیواں
چھیويں
چھیویں
چھیڑ
چھے
چہ
چہار
چہارم
چہارمحال
چہراں
چہرہ
چہرے
چہل
چی
چیا
چیانگ
چیت
چیتا
چیتن
چیتنا
چیتے
چیخ
چیدہ
چیر
چیرو
چیروکی
چیز
چیزاں
چیسٹر
چیشاي
چیف
چیفس
چیلنج
چیلنجاں
چیلے
چیمبر
چیمبرلین
چیمنتز
چیمپي
چیمپکس
چیمپین
چیمپیي
چین
چیناي
چینل
چینلاں
چینلز
چینو
چیني
چینی
چینیاں
چیي
چیٹ
چیپل
چیپمین
چیچن
چیچنیا
چیچک
چیچہ
چیڈوک
چیک
چیکو
چیکوسلواکیہ
چیکوسلوواکیا
چے
ڈ
ڈا
ڈار
ڈارون
ڈارٹمنڈ
ڈارک
ڈاریکٹ
ڈال
ڈالا
ڈالاس
ڈالاں
ڈالدا
ڈالدی
ڈالدے
ڈالر
ڈالنا
ڈالنے
ڈالی
ڈالیا
ڈالے
ڈان
ڈانس
ڈانسر
ڈانگ
ڈاو
ڈاي
ڈاٹ
ڈاڈا
ڈاک
ڈاکو
ڈاکوواں
ڈاکٹر
ڈاکٹراں
ڈاکٹری
ڈاکٹریٹ
ڈب
ڈبل
ڈبلز
ڈبلن
ڈبلیو
ڈبنگ
ڈبو
ڈبہ
ڈبے
ڈر
ڈرافٹ
ڈراما
ڈراماي
ڈرامہ
ڈرامے
ڈرامےا
ڈرانے
ڈراو
ڈراي
ڈراپ
ڈرایا
ڈربورینس
ڈربی
ڈردا
ڈردے
ڈرو
ڈرون
ڈرھام
ڈرہم
ڈریا
ڈریسڈن
ڈریم
ڈریو
ڈریکشن
ڈریکٹ
ڈریکٹر
ڈریگن
ڈز
ڈزاي
ڈزنی
ڈس
ڈسلڈورف
ڈسٹرکٹ
ڈسچارج
ڈسک
ڈش
ڈل
ڈلہوزی
ڈن
ڈنزربرگ
ڈنمارک
ڈنڈا
ڈنڈی
ڈنڈے
ڈنگ
ڈنگر
ڈنگراں
ڈو
ڈواز
ڈواي
ڈوبنے
ڈوبوق
ڈور
ڈورتھی
ڈورن
ڈوری
ڈول
ڈولفن
ڈولی
ڈوم
ڈوما
ڈومیسٹک
ڈومین
ڈومینیکن
ڈون
ڈونلڈ
ڈونگ
ڈونگھا
ڈونگھی
ڈونگھے
ڈونیٹسک
ڈوور
ڈوي
ڈوگرا
ڈوگرہ
ڈوگری
ڈویزن
ڈویلپمنٹ
ڈویژن
ڈویژناں
ڈٹ
ڈپارٹمنٹ
ڈپلوما
ڈپلومہ
ڈپلومیسی
ڈپو
ڈپٹی
ڈچ
ڈچاں
ڈچس
ڈچی
ڈک
ڈکشنری
ڈکنسن
ڈکوٹا
ڈکٹیٹر
ڈگ
ڈگدا
ڈگدی
ڈگری
ڈگریاں
ڈگلس
ڈگن
ڈھ
ڈھال
ڈھالنے
ڈھالیا
ڈھانپ
ڈھانچا
ڈھانچہ
ڈھانچے
ڈھاي
ڈھاکا
ڈھاکہ
ڈھل
ڈھلوان
ڈھلوں
ڈھنگ
ڈھول
ڈھوک
ڈھڈ
ڈھکا
ڈھکویں
ڈھکی
ڈھکے
ڈھیر
ڈھیلے
ڈھے
ڈی
ڈیاگو
ڈیبیو
ڈیبے
ڈیتھ
ڈیجیٹل
ڈیر
ڈیرا
ڈیراک
ڈیرہ
ڈیری
ڈیرے
ڈیزاي
ڈیزرٹ
ڈیزل
ڈیس
ڈیشا
ڈیشن
ڈیفنس
ڈیل
ڈیلاویي
ڈیلبروک
ڈیلز
ڈیلٹا
ڈیلی
ڈیم
ڈیموکریسی
ڈیموکریٹ
ڈیموکریٹس
ڈیموکریٹک
ڈین
ڈینس
ڈینش
ڈینوب
ڈینور
ڈینٹل
ڈینی
ڈینیل
ڈینیوب
ڈینیي
ڈیو
ڈیواي
ڈیورنڈ
ڈیوس
ڈیولپمنٹ
ڈیون
ڈیوٹی
ڈیوڈ
ڈیوک
ڈیوی
ڈیي
ڈیٹ
ڈیٹا
ڈیٹابیس
ڈیٹلیکون
ڈیپارٹمنٹ
ڈیپارٹمنٹاں
ڈیڈ
ڈیڈھ
ڈیڑھ
ڈیکاٹر
ڈیکوٹا
ڈے
ڊ
ڏ
ڑ
ڑا
ڑاسر
ڑہ
ڑی
ڑیاں
ڑے
ژ
ژابالی
ژانگ
ژاں
ژنگ
ژو
ژوب
ژوو
ژینگ
ڙ
ڡ
ک
کا
کاا
کااک
کابل
کابلی
کابیان
کابینہ
کاتب
کاتھولک
کاج
کاجل
کاجون
کاخ
کار
کارا
کاراباخ
کارابوک
کاراحصار
کاراخانی
کارامان
کاراں
کاربن
کارج
کارجاں
کارخانہ
کارخانے
کارخانےا
کاردوبا
کارر
کاررواي
کارزار
کارس
کارسن
کارل
کارلزبیڈ
کارلوس
کارلووچی
کارن
کارنامہ
کارنامے
کارنامےا
کارناں
کاروان
کارواي
کارواں
کاروبار
کاروباری
کارٹر
کارٹون
کارٹیٹش
کارپس
کارپوریشن
کارپوریشناں
کارپوریٹ
کارڈ
کارڈف
کارڈوچی
کارکردگی
کارکن
کارکنان
کارکناں
کارگر
کارگزاری
کارگل
کارگو
کاری
کاریاں
کاریگر
کاریگراں
کاز
کازان
کازرون
کاس
کاساکی
کاستامانو
کاسترو
کاستیلو
کاسٹ
کاسٹاسگنا
کاسک
کاسکی
کاش
کاشان
کاشانی
کاشت
کاشتکار
کاشتکاراں
کاشتکاری
کاشغر
کاشف
کاشمر
کاشمیری
کاشی
کاظم
کاظمی
کاظمین
کاغان
کاغذ
کاغذات
کاغذی
کافر
کافراں
کافور
کافی
کافیاں
کال
کالا
کالاں
کالج
کالجاں
کالجز
کالروالا
کالز
کالعدم
کالم
کالماں
کالنجر
کالو
کالوادوس
کالونی
کالونیاں
کالہاو
کالی
کالیاں
کالیکٹ
کالے
کام
کاما
کامبیٹ
کامران
کامرس
کامرلنگ
کامریڈ
کامل
کامن
کامنز
کامک
کامکس
کامیاب
کامیابی
کامیابیاں
کامیلو
کامیو
کامیڈی
کان
کانام
کاناں
کانت
کاندھلوی
کانسی
کانفرنس
کانفرنساں
کانٹے
کانپور
کانچانابوری
کانڈ
کانگ
کانگان
کانگرس
کانگریس
کانگریسی
کانگو
کانگڑا
کانھ
کانہ
کانییژا
کاو
کاوش
کاوشاں
کاووس
کاوی
کاویری
کاي
کاٹ
کاپل
کاپٹر
کاپٹراں
کاپی
کاپیاں
کاک
کاکا
کاکس
کاکی
کاکیشین
کاں
کاہن
کایہ
کب
کباب
کبار
کبری
کبوتر
کبودرا
کبڈی
کبھی
کبھے
کبیر
کبیروالا
کبیرہ
کت
کتا
کتاب
کتاباں
کتابت
کتابخانه
کتابخانہ
کتابوں
کتابچہ
کتابچے
کتابی
کتابیات
کتابیں
کتاں
کتب
کتبہ
کتبے
کتنا
کتنے
کتھا
کتھاواں
کتھر
کتھن
کتھک
کتھے
کتی
کتیاں
کتے
کتےا
کثافت
کثرت
کثیر
کثیف
کج
کجنا
کجھ
کد
کداي
کدرے
کدو
کدوں
کدھرے
کدہ
کدی
کدے
کذاب
کر
کرا
کرابی
کرادتا
کراس
کراسنگ
کرافورڈ
کرافٹ
کرال
کرالیي
کرام
کرامات
کرامت
کران
کرانا
کراندے
کرانی
کرانیکل
کرانے
کراو
کراي
کراچی
کراکر
کراگوي
کراں
کرایا
کرایہ
کرب
کربز
کربلا
کرت
کرتا
کرتار
کرتارا
کرتارپور
کرتاہے
کرتى
کرتی
کرتے
کرخبرگ
کرخڈورف
کرد
کردا
کردار
کرداراں
کرداں
کردتا
کردتی
کردتیاں
کردتے
کردستان
کردند
کردو
کردي
کردہ
کردی
کردیا
کردیاں
کردیمیر
کردین
کردینا
کردیندا
کردیندی
کردیندے
کردینے
کردیے
کردے
کررہی
کررہیا
کررہیاں
کررہے
کرزن
کرس
کرسمس
کرسٹل
کرسٹوف
کرسٹوفر
کرسٹی
کرسٹیان
کرسچن
کرسک
کرسکا
کرسکدا
کرسکدی
کرسکدے
کرسکن
کرسکیا
کرسی
کرشمہ
کرشن
کرشنا
کرشنن
کرغزستان
کرغیز
کرغیزستان
کرفیو
کرلا
کرلاں
کرلو
کرلوٹ
کرلي
کرلی
کرلیا
کرلیاں
کرلیندا
کرلیندے
کرلینے
کرلے
کرم
کرما
کرمان
کرمانشاہ
کرمانی
کرمباخ
کرن
کرنا
کرنال
کرناٹک
کرناں
کرندے
کرنسی
کرنسیاں
کرنل
کرنٹ
کرنگے
کرنی
کرنیل
کرنے
کرو
کروا
کروانا
کرواندے
کروانے
کرواو
کرواي
کروایا
کروز
کروزر
کروشیا
کروشین
کروشیواچ
کروغ
کرون
کرونا
کرونیکل
کروٹ
کروپانیی
کروڑ
کروڑاں
کروگے
کروں
کريں
کرٹ
کرٹس
کرپا
کرپال
کرپشن
کرچک
کرچکيا
کرچکے
کرڈالیا
کرک
کرکلاریلی
کرکوک
کرکٹ
کرکٹر
کرکٹرز
کرکی
کرکے
کرگي
کرگیا
کرہ
کری
کریا
کریاواں
کریبین
کریس
کریلیا
کریم
کریملن
کریمہ
کریمیا
کریمیاي
کریمین
کرینز
کرینفیلڈ
کریو
کریي
کریٹ
کریڈٹ
کریک
کریگا
کریگی
کریں
کرے
کزن
کس
کساد
کسان
کساناں
کسانی
کساي
کسب
کسر
کسروی
کسری
کسفورڈ
کسناخت
کسوٹی
کسى
کسٹم
کسی
کسیجن
کسے
کش
کشادہ
کشان
کشاي
کشاں
کشت
کشتہ
کشتی
کشتیا
کشتیاں
کشش
کشف
کشمور
کشمکش
کشمیر
کشمیری
کشمیریاں
کشن
کشور
کشی
کشیدگی
کشیدہ
کشینیف
کعب
کعبہ
کعبے
کعر
کف
کفار
کفارہ
کفالت
کفایت
کفایۃ
کفر
کفن
کفیل
کل
کلا
کلاب
کلات
کلادووا
کلارا
کلارشی
کلارنز
کلارک
کلاریٹا
کلاس
کلاساں
کلاسن
کلاسک
کلاسیسزم
کلاسیکل
کلاسیکی
کلام
کلامی
کلانور
کلاو
کلاي
کلاکار
کلاکاراں
کلاں
کلب
کلباں
کلبی
کلثوم
کلدیپ
کلر
کلرز
کلرک
کلسرا
کلغی
کلمات
کلمہ
کلنٹن
کلنڈر
کلنگ
کلو
کلوج
کلومیٹر
کلون
کلووس
کلوگرام
کلوگن
کلپنا
کلچر
کلچرل
کلک
کلکتا
کلکتہ
کلکتے
کلکی
کلی
کلیات
کلیان
کلیاں
کلیبر
کلیبرن
کلیجہ
کلید
کلیدی
کلیر
کلیسا
کلیسیا
کلیسیاي
کلیم
کلین
کلینڈ
کلینک
کلینی
کلیي
کلیٹن
کلیہ
کلے
کم
کما
کمار
کماری
کمال
کمالات
کمالیہ
کمان
کمانڈ
کمانڈر
کمانڈراں
کمانڈنگ
کمانڈو
کمانڈوز
کمانے
کماو
کماي
کماں
کمایا
کمبریا
کمبل
کمبوج
کمبوڈیا
کمبوہ
کمتر
کمر
کمرشل
کمرہ
کمرے
کمرےا
کمزور
کمزوری
کمزوریاں
کمسن
کمشنر
کمل
کملا
کمپاو
کمپلیکس
کمپنی
کمپنیاں
کمپوزر
کمپونگ
کمپوچیا
کمپیوٹر
کمپیوٹنگ
کمک
کمی
کمیت
کمیجان
کمیدار
کمیشن
کمیشنر
کمیل
کمیون
کمیونزم
کمیونسٹ
کمیونسٹاں
کمیونٹی
کمیونٹیز
کمیونیکیشن
کمیٹی
کمیٹیاں
کن
کنا
کنار
کنارک
کنارہ
کناری
کنارے
کنارےا
کنال
کنانہ
کناڈا
کناں
کنایت
کنبہ
کنبے
کنت
کنجی
کند
کندھ
کندھاں
کندھے
کندھےا
کندہ
کندی
کنز
کنزرویٹو
کنساس
کنسرٹ
کنشک
کنعان
کنفیوشس
کنفیڈریشن
کنند
کنندگان
کنندہ
کننگھم
کنواری
کنواں
کنوج
کنور
کنول
کنونشن
کنويں
کنيز
کنٹ
کنٹال
کنٹربری
کنٹرول
کنٹری
کنڈ
کنڈا
کنڈکٹر
کنڈھے
کنڈی
کنڈیالی
کنڈیاں
کنڈیلے
کنڈے
کنڑ
کنڑا
کنک
کنکریٹ
کنکورڈ
کنگ
کنگز
کنگسٹن
کنگوٹہ
کنگڈم
کنہیا
کنی
کنیا
کنیت
کنید
کنیسہ
کنیژیواچ
کنیکٹیکٹ
کنے
که
کو
کوا
کوارٹر
کوارک
کوازیموڈو
کواس
کوالا
کوالٹی
کوالیفاي
کوان
کوانٹم
کواي
کوب
کوبان
کوبرا
کوبرگ
کوبلکا
کوبھی
کوبیسیک
کوتاہی
کوتاہیہ
کوتوال
کوثر
کوجاي
کوخ
کوخر
کود
کور
کورا
کورس
کورسز
کورسے
کورش
کورناند
کورو
کورونا
کورٹ
کورٹس
کورپس
کورچہ
کورک
کوری
کوریا
کوریاي
کوریج
کوریزی
کورین
کوریي
کوس
کوستھ
کوسل
کوسن
کوسوو
کوسووہ
کوسٹ
کوسٹا
کوسٹاریکا
کوش
کوشامبی
کوشاں
کوشش
کوششاں
کوشمبی
کوشک
کوفہ
کوفی
کوفیاں
کول
کولا
کولباخ
کولبرن
کولساس
کولمبس
کولمبو
کولمبي
کولمبیا
کولن
کولو
کولوراڈو
کولون
کولوک
کولوں
کولکات
کولکاتہ
کولکتہ
کولی
کوم
کومل
کوموڈو
کومپٹن
کون
کونراڈ
کونسا
کونستانتسا
کونسل
کونسلاں
کونسلر
کونٹن
کونکورڈ
کونے
کوواچیچا
کوونٹری
کووڈ
کووین
کووینا
کوي
کوٹ
کوٹا
کوٹبس
کوٹری
کوٹلا
کوٹلہ
کوٹلی
کوٹھا
کوٹھی
کوٹھے
کوٹہ
کوٹی
کوٹے
کوپر
کوپن
کوچ
کوچم
کوچنگ
کوچک
کوچہ
کوچی
کوچیلیي
کوچین
کوچیوو
کوڈ
کوڑا
کوڑے
کوک
کوکا
کوکاٹو
کوکاں
کوکس
کوکو
کوککرافٹ
کوہ
کوہاٹ
کوہبنان
کوہرنگ
کوہستان
کوہستانی
کوہلو
کوہلی
کوہن
کوی
کویاں
کویت
کویتا
کویتاواں
کویندی
کوینز
کوینمیری
کویٹا
کویڈ
کویں
کى
کي
کيا
کيت
کيتا
کيتاگیا
کيتاہے
کيتياں
کيتی
کيتیاں
کيتے
کيلي
کيونکہ
کٹ
کٹا
کٹاو
کٹاي
کٹر
کٹن
کٹنا
کٹنے
کٹک
کٹھ
کٹھا
کٹھن
کٹھیاں
کٹھے
کٹی
کٹیا
کٹے
کپ
کپاس
کپاڈیا
کپاہ
کپتان
کپتانی
کپل
کپور
کپورتھلہ
کپڑ
کپڑا
کپڑے
کپڑےا
کچ
کچا
کچل
کچلنے
کچھ
کچھی
کچہری
کچی
کچے
کڈ
کڈدے
کڈنا
کڈھ
کڈھن
کڈھی
کڈھیا
کڈی
کڈیا
کڈے
کڑا
کڑتال
کڑھاي
کڑی
کڑیاں
کک
ککر
ککسہیون
ککڑ
ککک
ککھوں
کگی
کگیاں
کھ
کھا
کھاتہ
کھاتے
کھاد
کھادی
کھالاں
کھان
کھانا
کھاناں
کھاندا
کھاندی
کھاندے
کھانی
کھانے
کھاو
کھاواں
کھاي
کھاڑی
کھاں
کھایا
کھبے
کھتری
کھجور
کھجوراں
کھدا
کھداي
کھدی
کھدے
کھر
کھرل
کھری
کھل
کھلا
کھلاڑی
کھلاڑیاں
کھلایا
کھلدا
کھلم
کھلنا
کھلنے
کھلونا
کھلونے
کھلھے
کھلی
کھلے
کھمبال
کھن
کھنا
کھنڈ
کھنڈر
کھنڈرات
کھنہ
کھو
کھوار
کھوج
کھوجاں
کھوجی
کھود
کھودنے
کھول
کھولنا
کھولنے
کھولھ
کھولھیا
کھولی
کھولیا
کھولے
کھون
کھونے
کھوي
کھوپي
کھوکھر
کھوہ
کھویا
کھي
کھٹ
کھٹمنڈو
کھٹی
کھٹے
کھپت
کھچ
کھچوپڑا
کھچوپڑہ
کھچوپڑے
کھچی
کھچیا
کھڈاری
کھڈاریاں
کھڑ
کھڑا
کھڑک
کھڑکی
کھڑکیاں
کھڑی
کھڑے
کھی
کھیا
کھیت
کھیتاں
کھیتر
کھیتراں
کھیتری
کھیتی
کھیر
کھیری
کھیل
کھیلا
کھیلاں
کھیلدا
کھیلدی
کھیلدے
کھیلنا
کھیلنے
کھیلی
کھیلے
کھیمر
کھینچنے
کھینچی
کھیڈ
کھیڈاں
کھیڈدے
کھیڈن
کھیڈی
کھیڈیا
کھیڈے
کھے
کہ
کہا
کہاجاندا
کہانی
کہانیاں
کہاوت
کہاکہ
کہاں
کہتا
کہتے
کہرامانمراش
کہف
کہلا
کہلاتا
کہلاندا
کہلاندی
کہلاندے
کہلانے
کہلاي
کہن
کہنا
کہندا
کہندی
کہندے
کہنوج
کہنہ
کہنے
کہو
کہکشاواں
کہکشاں
کہگیلویہ
کہہ
کہی
کہیا
کہیں
کہے
کی
کیا
کیار
کیانی
کیاں
کیاہے
کیبل
کیت
کیتا
کیتھرین
کیتھولک
کیتھڈرل
کیتھیڈرل
کیتی
کیتیاں
کیتے
کیجي
کیجیے
کیخلاف
کیدا
کیرالا
کیرالہ
کیرانوی
کیرتن
کیرشہر
کیرل
کیرلا
کیرن
کیرول
کیرولاي
کیرولینا
کیري
کیرک
کیری
کیریبین
کیریي
کیس
کیساں
کیسر
کیسری
کیسز
کیسل
کیسلر
کیسپین
کیسپیي
کیسے
کیش
کیشنز
کیف
کیفر
کیفی
کیفیات
کیفیت
کیفے
کیقباد
کیل
کیلاش
کیلبیجیر
کیلس
کیلنڈر
کیلومیٹر
کیلون
کیلوگ
کیلي
کیلگری
کیلی
کیلیفورنیا
کیلینڈر
کیلے
کیم
کیماتن
کیمبرج
کیمبل
کیمرا
کیمرون
کیمرہ
کیمرے
کیمسٹری
کیمپ
کیمپاں
کیمپریٹن
کیمپس
کیمپٹن
کیمیا
کیمیاء
کیمیاي
کیمیکل
کین
کینال
کینبرا
کیندا
کیندر
کیندی
کیندے
کینز
کینسر
کینٹ
کینٹن
کینٹکی
کینڈریو
کینڈل
کینہ
کینیا
کینیڈا
کینیڈی
کینیڈین
کینیڈیي
کیو
کیواں
کیوبا
کیوبزم
کیوبک
کیوبیک
کیوری
کیوسکس
کیول
کیولری
کیون
کیونجے
کیونکہ
کیوٹو
کیوکامونگا
کیوکک
کیوں
کیویاي
کیي
کیٹ
کیٹز
کیٹی
کیٹیگری
کیپ
کیپر
کیپلر
کیپوچن
کیپٹن
کیپیٹل
کیچ
کیچڑ
کیڈٹ
کیڑا
کیڑیاں
کیڑے
کیک
کیکندا
کیگالی
کیں
کیہ
کیہا
کیہڑا
کیہڑی
کییف
کیے
کے
کےلي
ڪ
گ
گا
گااں
گاجر
گادزن
گار
گارد
گارلینڈ
گارنٹی
گارون
گارڈ
گارڈز
گارڈن
گارڈنر
گارڈین
گارگی
گاری
گاسر
گال
گالاگو
گالنکرحے
گالٹر
گالڑ
گالی
گالیاں
گاما
گامزن
گان
گانا
گاناں
گانجا
گاندھی
گاندے
گانسو
گانے
گانےا
گاو
گاواں
گاوبندی
گاي
گاڑی
گاڑیاں
گاگڑی
گاں
گاہ
گاہاں
گاہک
گاہکاں
گاہی
گاہے
گایا
گبن
گبول
گت
گتوند
گتھری
گتی
گجر
گجرا
گجرات
گجراتی
گجرانوالا
گجراں
گجیانی
گد
گدا
گداز
گدھ
گدھا
گدھے
گدی
گذار
گذاری
گذر
گذرا
گذرنے
گذرے
گذشتہ
گر
گرا
گراتھیاں
گرادیشتے
گراف
گرافر
گرافی
گرام
گرامر
گرامی
گران
گرانٹ
گرانڈ
گرانڈے
گرانے
گراو
گراوٹ
گراي
گراڈ
گراں
گراہ
گرایا
گرب
گربانی
گربخش
گرج
گرجا
گرجاگھر
گرجستان
گرجے
گرد
گردا
گرداس
گرداسپور
گردان
گردانا
گردانہ
گرداں
گردش
گردن
گردناں
گردوارہ
گردوارے
گردی
گردیال
گردے
گرفت
گرفتار
گرفتاری
گرفتاریاں
گرل
گرلز
گرم
گرما
گرماي
گرمت
گرمسار
گرمکھ
گرمکھی
گرمی
گرمیاں
گرنتھ
گرنتھاں
گرنڈی
گرنے
گرو
گرودوارہ
گروزنی
گروزگلوکنر
گرون
گروو
گروواں
گروپ
گروپاں
گروپس
گروہ
گروہاں
گرٹی
گرچرن
گرچہ
گرڈ
گرڈن
گرگان
گرگنارڈ
گرگٹ
گرہ
گرہن
گری
گریجوي
گریجویشن
گریجویٹ
گریز
گریزاں
گریس
گریسون
گریمنٹز
گرین
گریناي
گریناڈا
گرینوچ
گرینٹ
گرینڈ
گریوال
گریوٹی
گریویٹیشنل
گریٹ
گریٹر
گریڈ
گریکو
گریگ
گریگری
گریگوری
گریہ
گرے
گز
گزار
گزارا
گزاراں
گزاردے
گزارش
گزارنا
گزارنے
گزارہ
گزاری
گزاریا
گزارے
گزر
گزردا
گزردے
گزرنا
گزرنے
گزرگاہ
گزری
گزریا
گزرے
گزشتہ
گزٹ
گزین
گزیناں
گسبرگ
گستاخی
گستاف
گسٹس
گشت
گشنٹز
گف
گفت
گفتار
گفتگو
گل
گلا
گلاب
گلابی
گلاس
گلاسر
گلاسگو
گلاي
گلاں
گلبرٹ
گلبرگ
گلدستہ
گلزار
گلستان
گلسٹرانڈ
گلشن
گلف
گلو
گلوب
گلوبل
گلوسسٹر
گلوور
گلوکار
گلوکاراں
گلوکارہ
گلوکاری
گلوگاہ
گلپایگان
گلپایگانی
گلڈ
گلگت
گلگن
گلہ
گلی
گلیاں
گلیشیر
گلیشیي
گلیلیو
گلین
گلینڈیل
گلے
گم
گمان
گمبھیر
گمراہ
گمراہی
گمشدہ
گمنام
گن
گنا
گناباد
گناوہ
گناڈنوالڈ
گناں
گناہ
گناہاں
گنبد
گنبداں
گنت
گنتک
گنتی
گنج
گنجا
گنجان
گنجاي
گنجھل
گنجی
گندم
گندگی
گندھارا
گندھک
گندھیاں
گندے
گنوا
گنٹیلینو
گنڈا
گنگ
گنگا
گنگال
گنگاوہی
گنگولی
گنی
گنیا
گنیازیادہ
گنیش
گنے
گو
گوا
گوادر
گوارا
گوالیار
گوالیي
گوانڈھی
گوانگڈونگ
گواي
گواڈلوپ
گواہ
گواہاں
گواہی
گوبند
گوت
گوتم
گوتھک
گوجر
گوجرانوالہ
گوجرہ
گود
گودام
گور
گورا
گورانبوي
گوراں
گورباچوف
گوردو
گوردواریاں
گورلٹز
گورمکھی
گورنر
گورنراں
گورنرز
گورنری
گورنریٹ
گورنمنٹ
گورننگ
گورو
گورڈن
گورکھ
گورکھا
گورکھپور
گورکی
گوری
گوریلا
گورین
گورے
گوسوامی
گوش
گوشت
گوشنن
گوشہ
گوشے
گوفر
گوفس
گول
گولجی
گولستان
گولف
گولن
گولوباچ
گولڈ
گولڈاو
گولڈسمتھ
گولڈن
گولڑہ
گولکنڈہ
گولہ
گولی
گولیاں
گولینڈ
گولیکانڈ
گولے
گومل
گوموشخانے
گومیشان
گون
گونج
گوند
گوندل
گوننگ
گونڈا
گونڈہ
گووند
گوي
گوٹزنز
گوٹنگن
گوٹھ
گوپال
گوپرٹ
گوپی
گوڈا
گوڈے
گوڑا
گوڑے
گوک
گوکہ
گوکینہ
گوگل
گوگیرہ
گوہر
گوہڑا
گویا
گویرا
گي
گيا
گٹار
گٹھ
گٹھجوڑ
گٹھن
گپت
گپتا
گچساران
گچھ
گڈ
گڈی
گڈیاں
گڈیرین
گڑ
گڑبڑ
گڑھ
گڑھا
گڑھاں
گڑھوال
گڑھی
گڑھے
گکو
گکھڑ
گکھڑاں
گھ
گھات
گھانا
گھاٹ
گھاٹا
گھاٹی
گھاٹیاں
گھاہ
گھبرا
گھبراي
گھبراہٹ
گھبلے
گھر
گھرا
گھرانا
گھراناں
گھرانہ
گھرانے
گھراں
گھروں
گھری
گھریلو
گھرے
گھس
گھل
گھلدا
گھلدے
گھماو
گھمدا
گھمدی
گھمدے
گھمسان
گھمن
گھن
گھنٹہ
گھنٹی
گھنٹیاں
گھنٹے
گھنٹےا
گھنے
گھوش
گھول
گھوم
گھومنے
گھونٹ
گھوٹکی
گھوڑ
گھوڑا
گھوڑسوار
گھوڑی
گھوڑیاں
گھوڑے
گھوڑےا
گھٹ
گھٹا
گھٹاو
گھٹن
گھٹنا
گھٹناواں
گھٹناں
گھٹنے
گھٹو
گھٹیا
گھڑ
گھڑت
گھڑسوار
گھڑی
گھڑیال
گھڑیاں
گھڑے
گھگر
گھگھ
گھی
گھیر
گھیرا
گھیراو
گھیرے
گھینٹے
گہرا
گہراي
گہری
گہرے
گہنے
گہوارہ
گہی
گی
گیا
گیاراں
گیارہ
گیارہواں
گیارہويں
گیان
گیانا
گیانی
گیاں
گیبرل
گیبون
گیت
گیتا
گیتاں
گیج
گیدیبے
گیر
گیرا
گیراش
گیرمہ
گیرون
گیرہارڈ
گیری
گیریژن
گیس
گیساں
گیسی
گیشینن
گیل
گیلان
گیلانی
گیلاپیگاس
گیلری
گیلی
گیم
گیمبیا
گیمز
گیند
گیندا
گینداں
گینگ
گیوشے
گیولیو
گیوم
گیي
گیٹ
گیٹس
گے
ں
ھ
ھء
ھا
ھاتھ
ھاں
ھایک
ھجری
ھر
ھل
ھم
ھمیر
ھن
ھندستان
ھنگری
ھو
ھوا
ھونے
ھوي
ھوگي
ھپ
ھی
ھیں
ھے
ہ
ہا
ہابر
ہات
ہاتھ
ہاتھرس
ہاتھورن
ہاتھوں
ہاتھی
ہاتھیاں
ہاتے
ہاجرہ
ہادی
ہار
ہارا
ہاربر
ہارس
ہارن
ہارنے
ہارورڈ
ہاروش
ہارون
ہارٹ
ہارٹفورڈ
ہارٹلاي
ہارڈ
ہارڈن
ہارڈنگ
ہارڈی
ہاری
ہارے
ہاس
ہاسل
ہاسلن
ہاسن
ہاسٹل
ہاشم
ہاشمی
ہاف
ہال
ہالشٹاٹ
ہالو
ہالي
ہالٹ
ہالڈر
ہالڈن
ہالہ
ہالی
ہالینڈ
ہالیوڈ
ہامبرگ
ہان
ہانز
ہانسی
ہانگ
ہانی
ہاو
ہاور
ہاورتھ
ہاورڈ
ہاوورڈ
ہاي
ہاٹ
ہاک
ہاکی
ہاں
ہاںز
ہای
ہبل
ہبیرہ
ہت
ہتار
ہتھ
ہتھاں
ہتھو
ہتھوں
ہتھکنڈاں
ہتھیار
ہتھیاراں
ہتھیاربند
ہتھیال
ہتھیان
ہجر
ہجرت
ہجرى
ہجری
ہجو
ہجوم
ہجومی
ہجویری
ہجے
ہخامنشی
ہدایات
ہدایت
ہدایتکار
ہدایتکاری
ہدف
ہدیہ
ہذا
ہر
ہرا
ہرات
ہرارے
ہراس
ہراسانی
ہراساں
ہراول
ہراک
ہرایا
ہربرٹ
ہربھجن
ہرثمہ
ہردوي
ہردوگھر
ہرزیگوونا
ہرزیگووینا
ہرزیگوینا
ہرس
ہرسین
ہرش
ہرشے
ہرقل
ہرمز
ہرمزان
ہرمزگان
ہرمن
ہرمند
ہرمندر
ہرن
ہرنام
ہرناں
ہرنو
ہروی
ہرٹز
ہرٹفورڈشاي
ہرچند
ہرڈن
ہرگز
ہرگوبند
ہری
ہریانہ
ہریرہ
ہریش
ہریک
ہریکے
ہرے
ہزار
ہزارا
ہزاراں
ہزاروں
ہزارہ
ہزاری
ہزارے
ہزیمت
ہس
ہستہ
ہستی
ہستیاں
ہسدے
ہسٹری
ہسپانوی
ہسپانویاں
ہسپانیہ
ہسپتال
ہسپتالاں
ہسپیریا
ہسی
ہشام
ہشت
ہشترود
ہشتم
ہشیار
ہشیارپور
ہضم
ہفت
ہفتم
ہفتگل
ہفتہ
ہفتیاں
ہفتے
ہفتےا
ہفسے
ہل
ہلا
ہلال
ہلالی
ہلاک
ہلاکت
ہلاکتاں
ہلاکو
ہلدی
ہلز
ہلمند
ہلووالیا
ہلچل
ہلکا
ہلکی
ہلکے
ہلہ
ہلیا
ہلیری
ہلے
ہم
ہما
ہمارا
ہمارشولد
ہماری
ہماریا
ہمارے
ہمالیا
ہمالیہ
ہمام
ہماچل
ہمایو
ہمایوں
ہمبولٹ
ہمت
ہمتی
ہمدان
ہمدانی
ہمدرد
ہمدردی
ہمراہ
ہمراہی
ہمراہیاں
ہمزہ
ہمساي
ہمسایہ
ہمشیرہ
ہمعصر
ہموار
ہمک
ہمکنار
ہمہ
ہمیر
ہمیشاں
ہمیشہ
ہمیں
ہن
ہناں
ہند
ہندا
ہندستان
ہندستانی
ہندسہ
ہندو
ہندوا
ہندواں
ہندوستان
ہندوستانی
ہندوستانیاں
ہندول
ہندومت
ہندوو
ہندوواں
ہندوي
ہندوکش
ہندوی
ہندکو
ہندی
ہندیاں
ہندیجان
ہندے
ہنر
ہنری
ہنزہ
ہنس
ہنسا
ہنسی
ہنشلوڈ
ہنومان
ہنٹ
ہنٹر
ہنٹنگٹن
ہنگ
ہنگامہ
ہنگامی
ہنگامے
ہنگامےا
ہنگری
ہنگی
ہنی
ہنے
ہو
ہوا
ہواتے
ہوازن
ہواواں
ہواي
ہوتا
ہوتاا
ہوتاہے
ہوتراں
ہوتو
ہوتى
ہوتی
ہوتے
ہوجا
ہوجان
ہوجانا
ہوجاندا
ہوجاندی
ہوجاندیاں
ہوجاندے
ہوجانے
ہوجاو
ہوجاواں
ہوجاي
ہوجکن
ہود
ہودیاں
ہور
ہوراں
ہوربرانز
ہورناں
ہورڈ
ہورہی
ہورہیا
ہورہے
ہوس
ہوسک
ہوسکا
ہوسکدا
ہوسکدی
ہوسکدیاں
ہوسکدے
ہوسکن
ہوسکی
ہوش
ہوشنگ
ہوشیار
ہوشیاری
ہوف
ہول
ہولر
ہولمز
ہولناک
ہولوکاسٹ
ہولکر
ہولی
ہوم
ہومز
ہومو
ہون
ہونا
ہوند
ہوندا
ہوندی
ہوندیاں
ہوندے
ہونولولو
ہونگی
ہونگے
ہونہار
ہونی
ہونے
ہوو
ہوورڈ
ہوون
ہوویگی
ہووے
ہووےگا
ہوي
ہويا
ہوٹل
ہوٹلاں
ہوٹے
ہوپ
ہوپکن
ہوچک
ہوچکيا
ہوچکيت
ہوچکے
ہوک
ہوکر
ہوکے
ہوگا
ہوگي
ہوگی
ہوگیا
ہوگے
ہوں
ہوہست
ہویا
ہویاں
ہویزہ
ہوے
ہوݨ
ہى
ہي
ہيں
ہٹ
ہٹا
ہٹانے
ہٹاو
ہٹاي
ہٹایا
ہٹلر
ہٹن
ہٹنا
ہٹنے
ہچکچاہٹ
ہڈ
ہڈسن
ہڈی
ہڈیاں
ہڑ
ہڑتال
ہڑتالاں
ہڑپا
ہڑپہ
ہک
ہکسلے
ہکل
ہگنز
ہی
ہیبت
ہیبرڈز
ہیبس
ہیبسبرگ
ہیت
ہیر
ہیرا
ہیرالڈ
ہیرس
ہیرسبرگ
ہیرو
ہیروز
ہیروسکی
ہیروشی
ہیروشیما
ہیروي
ہیروڈوٹس
ہیری
ہیریسن
ہیریٹیج
ہیرے
ہیس
ہیسلگیہڑ
ہیسٹنگز
ہیسے
ہیل
ہیلتھ
ہیلمٹ
ہیلن
ہیلٹ
ہیلی
ہیلیم
ہیلینا
ہیلیکاپٹر
ہیم
ہیملر
ہیملٹن
ہیمو
ہیمٹ
ہیمپسٹیڈ
ہیمپشاي
ہیمپٹن
ہین
ہینرک
ہینری
ہینوور
ہینچ
ہینڈ
ہینڈرسن
ہینڈرک
ہینڈگ
ہینکاک
ہیو
ہیوسٹن
ہیومن
ہیون
ہیوگو
ہیوی
ہیي
ہیٹ
ہیٹنگن
ہیٹھ
ہیٹھاں
ہیٹھلے
ہیٹی
ہیپلو
ہیڈ
ہیڈلبرگ
ہیڈن
ہیڈورکس
ہیڈکوارٹر
ہیک
ہیکل
ہیکٹر
ہیکٹیي
ہیگ
ہیگا
ہیگل
ہیگن
ہیگے
ہیں
ہے
ہےوارڈ
ۃ
ی
یا
یاب
یابی
یات
یاترا
یاتری
یاتریاں
یاجوج
یاد
یاداں
یادداشت
یادداشتاں
یادو
یادگار
یادگاراں
یادگاری
یار
یاراں
یاروسلاو
یاروسلاول
یارڈ
یارک
یارکشاي
یاری
یاس
یاسر
یاسمین
یاسوتھون
یاسین
یافتگان
یافتہ
یاقوت
یالا
یالووا
یاماناکا
یان
یانگ
یاو
یاي
یاپھم
یاگودینا
یاں
یاہو
یب
یبرگ
یبریری
یبل
یبیریا
یبیس
یة
یت
یتاں
یتن
یتناں
یتی
یتیم
یتیماں
یثرب
یجا
یجان
یجانی
یجیریا
یحضرہ
یحی
یحیی
ید
یدا
یداد
یداداں
یدار
یداری
یدانپیک
یدھ
یدہ
یدی
یر
یرا
یرس
یرغمال
یرموک
یروشلم
یروند
یرپورٹ
یریوان
یز
یزد
یزدانی
یزدگرد
یزدی
یزی
یزیا
یزید
یزیدی
یزیر
یزیشن
یس
یسار
یسان
یساں
یسن
یسو
یسوج
یسوع
یسي
یسٹ
یسی
یسے
یش
یشن
یشیا
یعقوب
یعقوبی
یعقین
یعلی
یعنى
یعنی
یغ
یف
یفل
یق
یقین
یقینا
یقینی
یل
یلدرم
یلز
یلزم
یلغار
یلٹی
یلی
یلیاں
یلینڈ
یم
یمامہ
یمان
یمانی
یماو
یمز
یمن
یمنا
یمنی
یموتھ
یمین
ین
ینا
ینابیع
یناں
ینباخ
یندی
ینر
ینرخ
ینز
ینس
ینسٹاي
ینسی
ینل
یننگن
ینک
ینگ
ینگے
ینہ
ینی
ینے
یه
یو
یوا
یوان
یواچ
یوتھ
یوجین
یوحنا
یودینا
یور
یورال
یوراگوي
یورتی
یورش
یورو
یوروپ
یوروپی
یورپ
یورپی
یورپیاں
یورپین
یورپیي
یوری
یوریشیا
یوریشیاي
یوریشین
یورینس
یورینیم
یورینیي
یورے
یوز
یوزگات
یوسف
یوسفزي
یوسفی
یوسماي
یول
یولر
یولوجی
یوم
یومنگ
یومیہ
یون
یونان
یونانی
یونانیاں
یوناي
یونس
یونٹ
یونٹاں
یونٹس
یونگ
یونہی
یونی
یونیسف
یونیسکو
یونین
یونیناں
یونیورس
یونیورسل
یونیورسٹی
یونیورسٹیاں
یوو
یووا
یوي
یوٹ
یوٹاہ
یوٹیوب
یوپی
یوکاوا
یوکراي
یوکرین
یوکرینی
یوکون
یوکے
یوگ
یوگا
یوگدان
یوگنڈا
یوگوسلاو
یوگوسلاویہ
یوگی
یوں
یوہان
یوہانز
یوہانس
یویٹ
یي
یٹ
یٹر
یٹروجن
یٹس
یٹن
یٹڈ
یٹی
یپ
یپھ
یچار
یچارے
یڈ
یڈر
یڈرو
یڈروجن
یڈل
یڈلبرگ
یڈن
یڈو
یڈکی
یڈیا
یڈیرک
یڈیل
یک
یکا
یکاٹ
یکاٹو
یکاک
یکتا
یکجا
یکجہت
یکرو
یکروسافٹ
یکس
یکساں
یکسر
یکطرفہ
یکل
یکلسن
یکلو
یکلوپیڈیا
یکم
یکو
یکوواچ
یکہ
یکی
یکے
یگ
یگا
یگانہ
یگر
یگرز
یگی
یگیاں
یں
یھی
یہ
یہانتک
یہاں
یہود
یہودا
یہوداہ
یہودی
یہودیاں
یہودیت
یہودیہ
یہہ
یہی
یۃ
یی
ییاپھم
ییل
ییٹس
یے
ې
ے
۔
ۖ
ۗ
ۙ
ۚ
ۡ
ۤ
۰
۰۰
۰۰۰
۱
۱۰
۱۰۰
۱۰۰۰
۱۰۱
۱۰۲
۱۰۳
۱۰۴
۱۰۵
۱۰۶
۱۰۷
۱۰۸
۱۰۹
۱۱
۱۱۰
۱۱۱
۱۱۲
۱۱۳
۱۱۴
۱۱۵
۱۱۶
۱۱۸
۱۱۹
۱۲
۱۲۰
۱۲۱
۱۲۲
۱۲۳
۱۲۴
۱۲۵
۱۲۶
۱۲۸
۱۲۹
۱۳
۱۳۰
۱۳۱
۱۳۲
۱۳۳
۱۳۴
۱۳۴۸
۱۳۵
۱۳۵۹
۱۳۶
۱۳۶۲
۱۳۶۳
۱۳۶۴
۱۳۶۸
۱۳۶۹
۱۳۷۱
۱۳۷۴
۱۳۷۵
۱۳۷۷
۱۳۷۸
۱۳۷۹
۱۳۸
۱۳۸۰
۱۳۸۱
۱۳۸۲
۱۳۸۳
۱۳۸۴
۱۳۸۵
۱۳۸۶
۱۳۸۷
۱۳۸۸
۱۳۸۹
۱۳۹
۱۳۹۰
۱۳۹۱
۱۳۹۲
۱۳۹۳
۱۳۹۴
۱۳۹۵
۱۳۹۶
۱۳۹۷
۱۳۹۸
۱۳۹۹
۱۴
۱۴۰
۱۴۰۰
۱۴۰۱
۱۴۰۳
۱۴۰۴
۱۴۰۵
۱۴۰۶
۱۴۰۷
۱۴۰۸
۱۴۰۹
۱۴۱
۱۴۱۰
۱۴۱۱
۱۴۱۲
۱۴۱۳
۱۴۱۴
۱۴۱۵
۱۴۱۶
۱۴۱۷
۱۴۱۸
۱۴۱۹
۱۴۲
۱۴۲۰
۱۴۲۱
۱۴۲۲
۱۴۲۳
۱۴۲۵
۱۴۲۶
۱۴۳
۱۴۴
۱۴۵
۱۴۶
۱۴۸
۱۴۹
۱۵
۱۵۰
۱۵۱
۱۵۲
۱۵۳
۱۵۴
۱۵۵
۱۵۸
۱۵۹
۱۶
۱۶۰
۱۶۱
۱۶۲
۱۶۳
۱۶۴
۱۷
۱۸
۱۸۰
۱۸۱
۱۸۲
۱۸۳
۱۸۴
۱۸۵
۱۸۵۷
۱۸۸
۱۸۹
۱۹
۱۹۰
۱۹۰۶
۱۹۱
۱۹۱۱
۱۹۱۵
۱۹۱۷
۱۹۱۸
۱۹۱۹
۱۹۲
۱۹۲۰
۱۹۲۱
۱۹۲۲
۱۹۲۳
۱۹۲۴
۱۹۳
۱۹۳۰
۱۹۳۶
۱۹۳۸
۱۹۳۹
۱۹۴
۱۹۴۰
۱۹۴۱
۱۹۴۵
۱۹۴۶
۱۹۴۷
۱۹۴۸
۱۹۴۹
۱۹۵
۱۹۵۰
۱۹۵۱
۱۹۵۲
۱۹۵۳
۱۹۵۵
۱۹۵۶
۱۹۵۸
۱۹۵۹
۱۹۶
۱۹۶۰
۱۹۶۱
۱۹۶۲
۱۹۶۳
۱۹۶۴
۱۹۶۵
۱۹۶۶
۱۹۶۷
۱۹۶۸
۱۹۶۹
۱۹۷۰
۱۹۷۱
۱۹۷۲
۱۹۷۳
۱۹۷۵
۱۹۷۶
۱۹۷۷
۱۹۷۸
۱۹۷۹
۱۹۸
۱۹۸۰
۱۹۸۱
۱۹۸۲
۱۹۸۳
۱۹۸۴
۱۹۸۵
۱۹۸۶
۱۹۸۷
۱۹۸۸
۱۹۸۹
۱۹۹
۱۹۹۰
۱۹۹۱
۱۹۹۲
۱۹۹۳
۱۹۹۴
۱۹۹۵
۱۹۹۶
۱۹۹۷
۱۹۹۸
۱۹۹۹
۲
۲۰
۲۰۰
۲۰۰۰
۲۰۰۱
۲۰۰۲
۲۰۰۳
۲۰۰۴
۲۰۰۵
۲۰۰۶
۲۰۰۷
۲۰۰۸
۲۰۰۹
۲۰۱
۲۰۱۰
۲۰۱۱
۲۰۱۲
۲۰۱۳
۲۰۱۴
۲۰۱۵
۲۰۱۶
۲۰۱۷
۲۰۱۸
۲۰۱۹
۲۰۲
۲۰۲۰
۲۰۲۱
۲۰۲۲
۲۰۳
۲۰۴
۲۰۵
۲۰۸
۲۱
۲۱۰
۲۱۲
۲۱۳
۲۱۴
۲۱۸
۲۲
۲۲۰
۲۲۲
۲۲۳
۲۲۴
۲۲۵
۲۲۸
۲۳
۲۳۰
۲۳۱
۲۳۲
۲۳۳
۲۳۴
۲۳۵
۲۳۸
۲۴
۲۴۰
۲۴۳
۲۴۸
۲۵
۲۵۰
۲۵۱
۲۵۲
۲۵۳
۲۵۴
۲۵۵
۲۵۸
۲۶
۲۶۰
۲۷
۲۸
۲۸۰
۲۹
۳
۳۰
۳۰۰
۳۱
۳۱۰
۳۱۳
۳۲
۳۲۰
۳۲۳
۳۲۹
۳۳
۳۳۰
۳۳۲
۳۳۳
۳۳۴
۳۴
۳۵
۳۵۰
۳۶
۳۷
۳۸
۳۹
۴
۴۰
۴۰۰
۴۱
۴۲
۴۳
۴۴
۴۵
۴۶
۴۷
۴۸
۴۹
۵
۵۰
۵۰۰
۵۱
۵۲
۵۳
۵۴
۵۵
۵۶
۵۷
۵۸
۵۹
۶
۶۰
۶۰۰
۶۱
۶۲
۶۳
۶۴
۶۵
۶۶
۶۷
۶۸
۶۹
۷
۷۰
۷۱
۷۲
۷۳
۷۴
۷۵
۷۶
۷۷
۷۸
۷۹
۸
۸۰
۸۰۰
۸۱
۸۲
۸۳
۸۴
۸۵
۸۶
۸۷
۸۸
۸۹
۹
۹۰
۹۱
۹۲
۹۳
۹۴
۹۵
۹۶
۹۷
۹۸
۹۹
۽
۾
܂
ݨ
ँ
ं
ः
अ
अगस
अम
आ
आण
इ
इट
इन
ई
ऊ
ए
एक
ऑफ
ओ
और
क
कर
ख
ग
घ
च
छ
ज
जनवर
झ
ञ
ट
ठ
ड
डस
ण
त
थ
द
ध
न
प
पर
फ
ब
बर
भ
म
मह
य
यन
र
रक
रत
रह
ल
ळ
व
वर
श
शन
ष
स
सम
ह
़
ा
ि
ी
ु
ू
ृ
ॅ
े
ै
ॉ
ो
ौ
्
।
॥
०
१
२
॰
ঁ
ং
ই
ও
ক
খ
গ
ঙ
চ
জ
ট
ঠ
ড
ণ
ত
থ
দ
ধ
ন
প
ফ
ব
ভ
ম
য
র
ল
শ
ষ
স
হ
়
া
ি
ী
ু
ূ
ৃ
ে
্
ৗ
ਂ
ਅ
ਆ
ਏ
ਕ
ਖ
ਗ
ਘ
ਚ
ਜ
ਟ
ਡ
ਣ
ਤ
ਥ
ਦ
ਧ
ਨ
ਪ
ਫ
ਬ
ਭ
ਮ
ਰ
ਲ
ਵ
ਸ
ਹ
਼
ਾ
ਿ
ੀ
ੁ
ੂ
ੇ
ੈ
ੋ
ੌ
੍
ੰ
ੱ
ં
એ
ક
ખ
ગ
ચ
છ
જ
ટ
ડ
ત
થ
દ
ધ
ન
પ
બ
મ
ય
ર
લ
વ
શ
સ
હ
ા
િ
ી
ુ
ૂ
ે
ો
્
ର
ା
ି
େ
୍
க
ச
ட
த
ந
ன
ப
ம
ய
ர
ற
ல
ழ
வ
ா
ி
ீ
ு
ெ
ே
ை
்
ం
క
త
ద
న
ప
ర
ల
ా
ి
ు
ె
ే
్
ಂ
ತ
ದ
ನ
ರ
ಶ
ಾ
ಿ
ು
ೆ
್
ೕ
ം
ക
ച
ട
ണ
ത
ദ
ന
പ
മ
യ
ര
റ
ല
ള
വ
സ
ാ
ി
ീ
ു
ൂ
െ
േ
്
ක
න
ර
ස
්
ා
ි
ු
ෙ
ั
ิ
ี
ุ
่
้
์
་
ོ
င
မ
ာ
ိ
ု
း
်
ြ
​
‌
‍
‎
‏
‐
‑
–
—
‖
‘
’
“
”
„
†
•
․
…
‬
′
″
›
※
‼
⁄
⁡
€
₹
ℏ
ℓ
№
™
←
↑
→
↔
↷
⇦
⇽
∂
∇
∈
∑
−
∗
∘
∞
∫
≈
≤
≥
⋅
⋮
⋯
③
④
⑦
▄
▪
◅
◌
●
◼
☃
⟩
⺀
⺄
⺆
⺈
⺊
⺌
⺕
⺝
⺸
⺼
⿰
⿱
⿲
⿳
⿴
⿵
⿶
⿷
⿸
⿹
⿺
⿻
、
。
《
》
「
」
〢
し
と
の
゙
゚
ア
コ
シ
ス
ト
ハ
フ
ユ
ラ
ル
ン
・
ー
㇁
㇂
㇄
㇇
㇈
㇉
㇓
㐁
㐄
㐅
㐌
㐫
㐬
㐭
㐮
㐱
㑒
㒵
㒸
㒼
㓁
㓞
㔾
㕛
㕣
㖾
㘝
㚅
㚇
㚔
㚘
㝉
㝡
㝴
㝵
㞋
㞢
㞷
㠩
㠭
㠯
㡀
㡭
㡿
㢲
㢴
㣇
㣺
㥯
㪅
㫄
㫐
㫒
㫺
㬅
㬎
㬥
㬰
㲋
㳄
㷠
㸒
㸚
㸦
㼌
㼲
㽞
㿟
䀠
䂞
䍃
䏍
䒑
䖍
䖒
䖝
䖵
䙴
䚻
䜌
䝿
䡛
䧹
䪞
一
丁
丂
七
丄
丅
丆
万
丈
三
上
下
丌
不
与
丏
丐
丑
专
且
丕
世
丘
丙
业
东
丞
丢
丣
两
严
並
丨
丩
个
丫
丬
中
丮
丰
丱
串
丵
丶
丷
丸
丹
为
主
丽
丿
乀
乂
乃
久
乆
乇
么
义
之
乌
乍
乎
乏
乐
乑
乔
乖
乗
乘
乙
乚
乛
乜
九
乞
也
习
乡
乳
乾
亀
亅
了
亇
予
争
事
二
亍
于
亏
亐
云
互
亓
五
井
亘
亚
亜
亞
亟
亠
亡
亢
交
亥
亦
产
亨
亩
享
京
亭
亮
亯
亰
亲
亳
亶
亷
人
亻
亼
亾
仁
今
介
仌
从
仐
仑
仒
仓
仕
他
付
仝
代
令
以
任
企
伊
伏
伐
休
会
伯
但
位
何
佘
余
作
佥
使
來
侈
侌
侖
侯
侵
便
保
俞
信
修
倉
倍
候
倠
備
傳
僉
僕
儿
兀
允
兂
元
兄
充
兆
兇
先
光
兊
克
兌
免
兑
兒
兓
兔
党
兜
兟
入
全
兩
兪
八
公
六
兮
兰
共
关
兵
其
具
典
兹
兼
冀
冂
冃
冄
内
冈
冉
冊
冋
册
再
冎
冏
冐
冒
冓
冖
冗
冘
军
农
冝
冡
冥
冫
冬
冰
冷
几
凡
凢
凵
凶
凷
凸
凹
出
函
凾
刀
刁
刂
刃
刄
刅
分
切
刍
刑
刕
刖
列
刘
则
初
別
利
别
到
制
刺
則
削
剌
前
剡
剽
劉
力
功
加
劦
助
劫
劳
劵
勃
勇
勉
勒
動
務
勞
勤
勹
勺
勻
勾
勿
匀
匂
包
匆
匈
匊
匋
匍
匕
化
北
匚
匝
匡
匪
匱
匸
匹
区
医
匽
匿
區
十
卂
千
卄
卅
卆
升
午
卉
半
卌
华
卑
卒
卓
单
卖
南
卜
卝
卞
占
卡
卢
卣
卤
卦
卩
卪
卬
卯
印
危
即
却
卵
卷
卸
卻
厂
厃
厄
历
厈
厉
厌
厓
厘
厚
原
厤
厥
厨
厭
厲
厶
厷
厸
去
厼
厽
县
叀
参
參
叅
又
叉
及
友
双
反
叐
发
叒
叔
叕
取
受
叚
叜
叟
口
古
句
另
叩
只
召
可
台
叱
史
右
叵
号
司
叹
吂
各
吅
合
吉
吊
吋
同
名
后
吏
向
吕
君
吝
吞
否
含
启
吳
吴
吹
吾
呂
呆
呈
告
员
呙
周
命
咅
和
咎
咠
咢
咨
咸
咼
哀
品
哉
員
哥
哲
唐
商
啇
問
啚
啬
啻
善
喜
喬
單
喿
嗇
噩
嚴
囊
囗
囘
囙
囚
四
回
囟
因
囧
囬
困
囱
囷
固
国
圂
圅
國
圍
圓
土
圡
圣
圥
在
圭
地
圶
圼
坐
坒
坚
坴
垂
垔
垚
埀
埋
城
埶
執
基
堂
堅
堆
堇
堯
塞
墨
壘
士
壬
壯
声
壳
壴
壹
壺
壽
夂
处
夅
夆
备
夊
夋
夌
复
夏
夒
夕
外
夗
夘
多
夜
夢
大
夨
天
太
夫
夬
夭
央
失
夲
头
夷
夸
夹
夻
夾
奂
奄
奇
奈
奉
奎
奏
奐
契
奓
奔
奚
奞
奠
奢
奥
奭
女
奴
奻
好
如
妄
妙
妟
妥
妻
妾
姑
委
姜
威
娄
婁
婴
嬰
嬴
子
孑
孔
孕
孖
字
存
孚
孛
孝
孟
季
孤
学
孫
孱
學
宀
宁
宂
它
宅
宇
守
安
宋
完
宏
宓
宗
官
定
宛
宜
宝
客
宣
室
宮
宰
害
家
容
宾
宿
寄
寅
密
富
寒
察
寧
審
寫
寬
寮
寸
对
寺
寻
寽
対
寿
封
尃
射
将
將
專
尉
尊
尋
尌
對
小
少
尒
尓
尔
尖
尗
尚
尞
尢
尣
尤
尧
尨
尭
就
尸
尹
尺
尻
尼
尽
尾
尿
局
居
屈
屋
屎
屏
屑
展
屖
屚
属
屠
屡
屬
屮
屯
屰
山
屵
屾
岁
岂
岑
岡
岩
岳
岸
峯
島
崇
崑
崔
崖
崙
崩
嵬
嶲
巂
巛
川
州
巟
巠
巢
巤
工
左
巧
巨
巩
巫
差
己
已
巳
巴
巷
巸
巽
巾
巿
帀
市
布
希
帚
帛
帝
带
師
席
帶
常
干
平
年
幵
并
幷
幸
幺
幻
幼
幽
幾
广
広
庄
床
底
店
庚
府
度
庫
庭
庶
康
庸
廉
廌
廛
廣
廩
廴
延
廷
建
廾
廿
开
弁
弃
弄
弇
弋
式
弓
弔
引
弗
弘
弜
弟
弥
弦
弱
張
強
强
彊
彌
彎
彐
彑
当
彔
录
彖
彗
彡
形
彥
彦
彧
彭
彳
役
彼
往
待
律
徒
得
徙
從
復
微
徵
心
忄
必
忌
忍
志
忝
忠
忩
快
念
忽
忿
思
怠
急
怱
恆
恒
恩
恭
息
悉
患
悤
悲
悶
惠
惡
惢
愁
愈
意
愛
感
慈
慧
慮
憂
憲
應
戀
戈
戉
戊
戋
戌
戍
戎
成
我
戒
戔
或
战
戚
戠
戢
截
戲
戶
户
戹
戼
戾
房
所
扁
扇
手
扌
才
打
托
执
承
折
报
拉
拜
拿
据
掌
推
提
摩
支
攴
攵
收
攸
改
放
政
敄
敏
敕
敖
敗
教
敝
敞
敢
散
敦
敫
敬
数
敷
數
斂
文
斉
斊
斗
斤
斥
斩
斬
斯
新
方
於
施
斿
旁
旋
族
无
旡
既
旣
日
旦
旧
旨
早
旬
旱
旲
时
旾
昆
昇
昌
昍
明
昏
易
昔
昗
昜
星
春
昬
是
昱
昴
昷
時
晃
晋
晏
普
景
晶
智
暑
暴
曇
曩
曰
曲
曳
更
曷
書
曹
曼
曾
替
最
朁
會
月
有
朋
服
朔
朕
朗
望
朝
木
朩
未
末
本
札
朮
术
朱
朵
朶
朿
杀
杏
杜
束
条
来
東
杲
杳
松
析
林
枚
果
枝
枲
枼
某
柔
查
柬
柰
柴
栗
桀
桑
桼
梁
條
梟
梨
棘
棠
棥
森
楚
業
楽
榮
樂
樊
欠
次
欣
欮
欲
欶
欽
款
歆
歇
歛
止
正
此
步
武
歨
歪
歮
歯
歰
歲
歴
歷
歸
歹
歺
死
殳
段
殷
殸
殹
殺
殻
殿
毋
毌
母
每
毒
比
毕
毚
毛
毳
氏
氐
民
气
氣
水
氵
氶
氷
永
氺
氾
求
汝
汞
江
沃
沓
沙
沝
河
泉
法
波
泣
泥
泰
洛
洪
活
派
流
浦
浪
浮
海
淡
淮
清
渚
渠
港
湯
滿
漸
火
灬
灭
灰
灵
灷
炅
炎
炏
炗
炙
炭
為
烈
烏
烝
焉
無
焦
焱
然
煞
熊
熏
燕
營
燮
爪
爫
爭
爯
爰
爱
爲
爵
父
爻
爽
爾
爿
片
版
牙
牚
牛
牜
牟
牢
牧
物
牪
牽
犀
犬
犭
犮
狂
狄
狊
独
狺
猋
猒
猪
献
獻
玄
率
玉
王
玟
玨
珎
班
琴
瑟
瑩
瓜
瓦
甘
甚
生
産
用
甫
甬
田
由
甲
申
电
甶
男
甸
甹
画
甾
畀
界
畏
畐
留
畜
畟
畢
畧
畨
番
畫
異
畱
當
畺
畾
疊
疋
疌
疑
疒
疾
癶
癸
癹
登
發
白
百
皀
皃
的
皆
皇
皋
皐
皕
皮
皷
皿
盃
盆
盇
盈
益
盍
盎
监
盒
盖
盛
盡
監
盤
盧
目
直
相
盾
省
眇
眉
看
眔
眞
真
眷
眼
眾
着
睘
睪
睿
瞏
瞢
瞿
矍
矛
矞
矢
矣
知
矦
短
石
破
碎
磊
磨
示
礻
礼
社
神
祟
票
祭
禀
禁
福
禸
禹
禺
离
禽
禾
禿
秀
秃
秉
秋
科
秝
秦
移
稟
穀
穌
穴
究
穹
空
穿
突
窄
窒
立
竒
竜
竝
竟
章
童
竹
笑
笠
第
筆
等
答
箕
算
箴
節
篤
篭
米
粉
粛
粟
粤
粦
粲
糞
糸
糹
系
約
納
素
索
紫
累
細
絜
絫
統
絲
維
綿
縣
繇
纍
纟
经
统
缶
网
罒
罔
罕
罗
罙
罡
罢
罪
署
罷
羅
羊
羌
羍
美
羔
羕
羗
羞
羡
羣
群
義
羲
羸
羽
翁
翏
習
翕
翟
翠
翼
老
耂
考
者
耆
而
耎
耑
耒
耳
耴
耶
耷
聂
聊
聖
聚
聶
聿
肀
肃
肅
肉
肖
肙
肥
肩
肯
育
肴
胃
背
胡
胥
能
脊
脩
膚
臣
臤
臧
自
臬
臭
臯
臱
至
致
臺
臼
臽
臾
臿
舀
舂
舄
與
興
舉
舌
舍
舛
舜
舞
舟
般
艮
良
色
艸
艹
艾
芒
芔
芬
芮
花
芳
芺
芻
苔
苗
苟
若
苦
英
茶
茸
荅
草
荒
荣
荼
莆
莧
莫
莽
菆
菊
菐
華
萬
落
葉
著
葛
董
葵
蒙
蒦
蒼
蓋
蓬
蓺
蔑
蔡
蕉
蕭
薄
薛
薦
薰
藍
藏
藥
蘭
虍
虎
虐
虒
虔
處
虖
虗
虘
虚
虛
虜
虞
虫
虽
蚤
蚩
蜀
蜜
蟲
蠡
血
行
衍
衛
衣
衤
表
衮
衰
袁
袞
褭
褱
襄
襾
西
覀
要
覃
見
規
覓
覧
親
覽
见
角
解
言
訁
訇
計
詹
語
誩
諸
讠
计
谷
豆
豈
豊
豐
豕
豖
豙
象
豦
豩
豪
豸
貇
貝
貞
貟
負
貢
貧
貪
貫
責
貳
貴
買
費
賁
資
賈
賏
賓
賔
賛
賞
賢
賣
質
賴
贊
贝
贡
责
贯
贲
贵
赖
赞
赤
赦
走
越
足
路
蹇
身
躬
車
軍
軎
軟
輦
车
辛
辜
辟
辥
辰
辱
農
辵
辶
边
达
过
近
连
迷
追
退
送
逆
逐
通
速
造
逢
連
逮
進
遀
遂
過
道
達
遣
適
遷
遺
邊
邑
邕
那
邦
邪
郎
部
郭
都
鄉
酉
酋
配
酓
釆
采
里
重
野
量
金
釒
錢
钅
铁
長
镸
长
門
閃
閉
開
閏
閑
閒
間
閔
閵
閻
闌
门
间
闷
阑
阜
阝
阿
降
陳
隆
隊
隋
隡
隨
隱
隶
隹
隺
隻
隼
隽
难
雀
雁
集
雈
雋
雍
雐
雔
雙
雚
雜
雝
離
難
雨
雩
雪
雲
零
雷
需
霍
霜
霝
霞
霸
靈
靑
青
非
靡
面
靣
革
韋
韦
韭
韯
韱
音
頁
頃
項
須
頗
頡
頻
顛
页
風
风
飛
飞
食
飠
養
饣
首
香
馬
馮
駦
马
骨
高
髟
鬥
鬯
鬲
鬼
魚
魯
鮮
鱼
鲁
鳥
鳳
鸟
鹵
鹿
麃
麗
麥
麦
麻
黃
黄
黍
黎
黑
黒
黨
黹
黽
黾
鼎
鼓
鼠
鼻
齊
齋
齐
齒
齿
龍
龙
龜
龟
龠
龰
龱
龴
龵
龶
龷
龸
龹










者
艹
ﭔ
ﭖ
ﭘ
ﭙ
ﭜ
ﭤ
ﭦ
ﭨ
ﭩ
ﭼ
ﭽ
ﮂ
ﮄ
ﮅ
ﮈ
ﮌ
ﮍ
ﮎ
ﮏ
ﮐ
ﮑ
ﮓ
ﮔ
ﮕ
ﮞ
ﮟ
ﮠ
ﮢ
ﮦ
ﮧ
ﮨ
ﮩ
ﮪ
ﮫ
ﮬ
ﮭ
ﮮ
ﮯ
ﯼ
ﯽ
ﯾ
ﯿ
﴾
﴿
﷤
﷫
ﷲ
ﷺ
️
ﹰ
ﺀ
ﺁ
ﺅ
ﺋ
ﺌ
ﺍ
ﺎ
ﺏ
ﺐ
ﺑ
ﺒ
ﺔ
ﺕ
ﺖ
ﺗ
ﺘ
ﺙ
ﺚ
ﺛ
ﺜ
ﺝ
ﺟ
ﺠ
ﺡ
ﺢ
ﺣ
ﺤ
ﺦ
ﺧ
ﺨ
ﺩ
ﺪ
ﺫ
ﺬ
ﺭ
ﺮ
ﺯ
ﺰ
ﺱ
ﺲ
ﺳ
ﺴ
ﺵ
ﺶ
ﺷ
ﺸ
ﺹ
ﺻ
ﺼ
ﺿ
ﻀ
ﻃ
ﻄ
ﻇ
ﻈ
ﻉ
ﻊ
ﻋ
ﻌ
ﻏ
ﻐ
ﻑ
ﻒ
ﻓ
ﻔ
ﻕ
ﻖ
ﻗ
ﻘ
ﻚ
ﻛ
ﻝ
ﻞ
ﻟ
ﻠ
ﻡ
ﻢ
ﻣ
ﻤ
ﻥ
ﻦ
ﻧ
ﻨ
ﻪ
ﻫ
ﻬ
ﻭ
ﻮ
ﻱ
ﻲ
ﻳ
ﻴ
ﻻ
ﻼ
﻿
（
）
，
：
？
￼
�
👈
👫
🔹
𠀁
𠀃
𠀆
𠀉
𠀎
𠀐
𠁁
𠁣
𠂆
𠂇
𠂈
𠂉
𠂊
𠂋
𠂎
𠂒
𠂔
𠂛
𠂡
𠂢
𠂤
𠂬
𠂭
𠂹
𠃊
𠃋
𠃌
𠃍
𠃎
𠃑
𠃓
𠃔
𠃜
𠄌
𠄎
𠄠
𠄢
𠆢
𠆥
𠇍
𠈌
𠌵
𠓜
𠔉
𠔥
𠔼
𠔽
𠔿
𠕀
𠕁
𠕋
𠘧
𠘨
𠙻
𠙼
𠚏
𠚒
𠚤
𠚪
𠣏
𠤎
𠤕
𠥓
𠦄
𠦑
𠦝
𠧒
𠧗
𠧪
𠩺
𠪚
𠫓
𠫔
𠫤
𠬛
𠬝
𠬞
𠬢
𠬤
𠬶
𠮛
𠮦
𠮷
𠯑
𠱠
𠳮
𠷎
𡈼
𡉀
𡉵
𡌥
𡍮
𡏳
𡕒
𡕩
𡕰
𡖅
𡗗
𡗜
𡘆
𡘤
𡧱
𡨄
𡩧
𡬠
𡭽
𡰣
𡰥
𡰪
𡰯
𡰱
𡷈
𡸁
𡿨
𡿩
𡿪
𡿺
𢀖
𢀛
𢀩
𢁙
𢆉
𢆰
𢆶
𢇁
𢇇
𢉖
𢌬
𢌿
𢏚
𢑑
𢑚
𢖻
𢙣
𢛳
𢦏
𢦒
𢧵
𢼄
𢾕
𣁋
𣄼
𣅀
𣅽
𣍘
𣎳
𣎵
𣏋
𣏼
𣗥
𣥂
𣥖
𣦵
𣦼
𣧄
𣪊
𣪠
𣬉
𣳾
𣶒
𤇾
𤊽
𤐫
𤓰
𤔔
𤕨
𤣩
𤰇
𤰔
𤰞
𤴓
𤴔
𤽄
𥁑
𥁕
𥃦
𥃩
𥃭
𥇡
𥑟
𥘅
𥘈
𥝢
𥫗
𥱡
𦈢
𦉪
𦉬
𦉼
𦍌
𦍒
𦎧
𦐇
𦓔
𦔮
𦘒
𦙃
𦚏
𦣝
𦣞
𦣻
𦥑
𦥔
𦥯
𦨉
𦭝
𦰩
𧆞
𧈧
𧘇
𧰨
𧴪
𧴮
𧵩
𧾷
𨸏
𨾴
𩙿
𩠐
𩫏
𩵋
𪉷
𪜀
𪟽
𪠲
𪩲
𫇦
𫔭
𫜸
𫝀
𫠣
𫠩
𫢉
𫥞
𫩏
𫩠
𫪡
𫲽
𫶧
𬀷
𬐘
𬗌
𬙙
𬛸
𬜯
𬟩
𬯁
𬴘
𬺻
𬼉
𬼖
𭀰
𭁈
𭁨
𭅰
𭑈
𭕄
𭗼
𭤨
𭥫
𭻾
𮅕
𮊿
𮍌
𮍏
𮓗
𮥼
𮧮
廾
𰀁
𰀄
𰀈
𰀉
𰀕
𰀠
𰀡
𰀢
𰀪
𰁜
𰃮
𰆊
𰆘
𰋙
𰕎
𰢴
𰧭
𰯲
00--
000--
01--
02--
03--
04--
05--
06--
07--
08--
09--
119--
120--
56--
57--
58--
59--
60--
63--
64--
66--
67--
68--
69--
70--
71--
72--
73--
74--
75--
76--
77--
78--
79--
80--
81--
82--
83--
84--
85--
86--
87--
88--
89--
90--
91--
92--
93--
94--
95--
96--
97--
978--
98--
99--
a--
aa--
ab--
abkha--
ac--
acce--
achi--
acqu--
ad--
add--
adven--
advo--
ae--
aero--
af--
affi--
ag--
aggr--
ah--
ai--
air--
aj--
ak--
al--
ali--
all--
alph--
am--
ambi--
amo--
an--
ana--
ang--
ans--
anta--
anth--
anthropolog--
any--
ap--
app--
aq--
ar--
arch--
art--
as--
ash--
assass--
assi--
asso--
astr--
at--
athe--
athl--
attr--
au--
av--
avo--
awa--
ax--
ay--
az--
b--
ba--
back--
bad--
bakh--
bal--
balt--
ban--
bar--
bas--
bat--
bb--
bc--
bd--
be--
bec--
beha--
ben--
ber--
berg--
bha--
bho--
bhu--
bi--
biblio--
bin--
bio--
bis--
bit--
bl--
blo--
bo--
bon--
bor--
bow--
br--
bri--
bro--
broad--
bru--
bu--
bul--
bur--
by--
c--
ca--
cal--
calcu--
can--
cap--
car--
cat--
cbs--
cc--
ce--
cele--
cen--
cert--
certif--
ch--
chakra--
cham--
char--
chat--
chaud--
cher--
cho--
ci--
cine--
circ--
circu--
city--
cl--
clo--
cn--
co--
col--
com--
commemo--
compl--
con--
confi--
conser--
contr--
coor--
cor--
cr--
crea--
cro--
cru--
cry--
cs--
ct--
cu--
cur--
cy--
d--
da--
daily--
dan--
dar--
das--
data--
de--
defe--
defi--
demo--
depen--
des--
desti--
det--
dev--
df--
dha--
di--
dia--
diff--
dig--
dil--
dis--
disa--
disc--
disp--
diss--
dist--
distri--
do--
domi--
dr--
dra--
dro--
ds--
du--
dul--
dur--
dw--
dy--
e--
ea--
ear--
eb--
ec--
eco--
ed--
edu--
ee--
ef--
ei--
ek--
el--
elec--
eli--
em--
emo--
en--
encycl--
eng--
entrep--
ep--
epid--
eq--
equa--
er--
es--
espe--
est--
et--
ethno--
eu--
euro--
ev--
ex--
exam--
exce--
excl--
expe--
expl--
explo--
expul--
extr--
extrem--
f--
fa--
far--
fav--
fe--
fer--
fi--
file--
film--
fin--
fire--
first--
fix--
fl--
flo--
fo--
foo--
for--
fox--
fr--
fre--
fried--
fu--
full--
g--
ga--
gal--
gali--
gar--
gau--
gaz--
ge--
gen--
genea--
geo--
ger--
get--
gha--
gi--
gibr--
gil--
gla--
gli--
glo--
go--
god--
good--
gor--
gov--
gr--
grad--
gram--
gro--
gu--
gul--
gun--
gur--
h--
ha--
hac--
ham--
happ--
har--
has--
haw--
hay--
he--
head--
hein--
hel--
hen--
her--
hey--
hi--
high--
hiz--
ho--
holl--
home--
homi--
homo--
hor--
hr--
hu--
hy--
i--
ic--
ice--
id--
iden--
ie--
if--
ig--
ii--
il--
illust--
im--
imag--
immi--
implem--
in--
inaugu--
inc--
ind--
indian--
infe--
infl--
info--
infra--
inha--
insp--
inst--
instru--
integ--
inter--
inve--
inven--
invi--
ir--
is--
iso--
it--
j--
ja--
jan--
je--
jen--
ji--
jo--
jp--
js--
ju--
jyo--
k--
ka--
kal--
kan--
kar--
kari--
kath--
kaz--
ke--
ken--
key--
kh--
kha--
khal--
khi--
kho--
khu--
ki--
kit--
kle--
kne--
ko--
kr--
ks--
ku--
kul--
ky--
l--
la--
lan--
land--
laur--
law--
le--
legit--
leo--
li--
lib--
lin--
lingu--
lite--
live--
ll--
lo--
lock--
log--
lok--
low--
lrc--
lst--
lu--
ly--
m--
ma--
mad--
mag--
mah--
maha--
mai--
main--
maj--
mak--
mal--
mala--
man--
manu--
mar--
mary--
mat--
match--
maur--
mc--
me--
meas--
meh--
mehr--
mel--
memo--
men--
mer--
merc--
met--
mexi--
mi--
mich--
mid--
mil--
mini--
mir--
mix--
mo--
moh--
mon--
mona--
mono--
mont--
monu--
mor--
mort--
mu--
multi--
mur--
mw--
my--
myst--
n--
na--
nar--
narasi--
nat--
nav--
nb--
nd--
ne--
neigh--
neighbo--
net--
neu--
new--
news--
ng--
ni--
nik--
nin--
nk--
no--
nomi--
nor--
ns--
nu--
ny--
nz--
o--
obser--
occ--
od--
off--
og--
oh--
ok--
ol--
om--
on--
one--
op--
open--
oppo--
opport--
or--
org--
ori--
os--
ou--
out--
over--
p--
pa--
pac--
page--
pak--
pal--
pan--
par--
pat--
patr--
patt--
pay--
pe--
pen--
per--
pew--
ph--
phen--
phi--
photo--
phy--
physi--
pi--
pic--
pl--
play--
plu--
po--
post--
pr--
pre--
press--
pri--
prim--
princ--
pro--
proto--
provi--
ps--
psy--
psycholog--
pu--
pul--
pur--
pya--
q--
qa--
qu--
qua--
quali--
r--
ra--
rad--
rai--
raj--
ram--
ran--
rand--
rc--
re--
rece--
reci--
recog--
red--
ref--
refer--
reg--
regist--
reje--
rela--
rele--
requ--
res--
reti--
rev--
rho--
ri--
rk--
ro--
rou--
rs--
ru--
s--
sa--
sak--
sal--
sala--
sam--
san--
sar--
sat--
sc--
sch--
se--
search--
sel--
sep--
ser--
sey--
sh--
sha--
she--
shi--
sho--
show--
si--
sil--
sin--
sk--
sl--
slo--
smith--
so--
soli--
some--
son--
sp--
spec--
spokes--
sr--
sri--
st--
ster--
stra--
stu--
su--
sub--
sud--
suff--
sug--
sugge--
sun--
super--
supp--
supple--
sur--
susp--
sv--
swa--
swe--
swi--
swit--
sy--
syna--
t--
ta--
tan--
tas--
te--
temp--
tempera--
ter--
th--
the--
theolog--
thir--
thri--
ti--
tik--
to--
tou--
tr--
trans--
trea--
tri--
tro--
trop--
trou--
tru--
try--
tt--
tu--
tur--
tv--
tw--
ty--
u--
ud--
uk--
ul--
un--
under--
uni--
up--
ur--
urdu--
us--
user--
ush--
uz--
v--
va--
valen--
van--
var--
ve--
ven--
ver--
vi--
view--
vill--
viol--
vo--
voya--
w--
wa--
war--
we--
web--
wel--
west--
wg--
whe--
wi--
wic--
wiki--
wil--
wo--
wol--
won--
wor--
work--
world--
wp--
wri--
x--
xi--
xx--
y--
ya--
yas--
yayı--
yaz--
ye--
yog--
yu--
z--
za--
ze--
zh--
zu--
ı--
α--
ν--
π--
σ--
τ--
а--
б--
ба--
в--
г--
д--
и--
к--
ка--
м--
н--
о--
пер--
р--
респу--
рус--
с--
св--
ск--
со--
ст--
т--
ء--
ا--
اا--
اب--
ابا--
ابر--
ابو--
ابھ--
ابی--
ات--
اتر--
اتی--
اث--
اثر--
اج--
اح--
اخ--
اخت--
اد--
ادا--
ادھ--
ادی--
اذ--
ار--
ارت--
ارد--
ارل--
اری--
از--
اس--
است--
استعا--
اسر--
اسم--
اسٹر--
اسک--
اش--
اشک--
اص--
اصط--
اصف--
اض--
اط--
اع--
اعت--
اغ--
اف--
اق--
اقت--
اك--
ال--
الا--
الان--
الب--
الت--
الث--
الج--
الح--
الخ--
الد--
الر--
الز--
الس--
الش--
الص--
الض--
الط--
الع--
الغ--
الف--
الق--
الك--
الل--
الم--
المست--
الن--
اله--
الو--
الٹ--
الک--
الہ--
الی--
ام--
اما--
امب--
امر--
امی--
امیر--
ان--
انا--
انت--
انتر--
انج--
اند--
انس--
انو--
انور--
انٹا--
انٹر--
انڈی--
انک--
انگ--
انی--
اه--
او--
اوب--
اور--
اوز--
اوس--
اون--
اوٹ--
اوڑ--
اوک--
اوہ--
اي--
اٹ--
اپ--
اپر--
اچ--
اچی--
اڈ--
اڑ--
اک--
اکا--
اکو--
اکھ--
اگ--
اگر--
اہ--
ای--
ایر--
ایس--
ایل--
ایلوم--
ایلی--
ایم--
این--
ایو--
ایچ--
ایڈ--
ایک--
ایکس--
ایکو--
ایگری--
ایگز--
ایھ--
اے--
ب--
با--
باا--
بابا--
بات--
باد--
بار--
باز--
باس--
باش--
باغ--
بال--
بالا--
بام--
بان--
باگ--
باہ--
بت--
بتا--
بج--
بجا--
بح--
بد--
بر--
برا--
برج--
برد--
برسر--
برف--
برن--
برو--
برٹ--
برک--
برگ--
بری--
بزد--
بزن--
بس--
بش--
بص--
بصا--
بط--
بع--
بعد--
بغ--
بق--
بل--
بلا--
بلو--
بلی--
بم--
بن--
بنا--
بنو--
بنگ--
به--
بو--
بود--
بور--
بوس--
بول--
بوگن--
بي--
بٹ--
بچ--
بچھ--
بڑ--
بک--
بگ--
بھ--
بھا--
بھاگ--
بھر--
بھن--
بھو--
بھٹ--
بھڑ--
بہ--
بہا--
بہو--
بی--
بیس--
بیش--
بیل--
بین--
بیٹ--
بیچ--
بیڈ--
بیک--
بیگ--
بے--
بݨ--
ت--
تا--
تاب--
تاج--
تار--
تاش--
تال--
تام--
تان--
تب--
تت--
تجر--
تح--
تحریر--
تخ--
تد--
تذ--
تر--
ترا--
ترک--
تری--
تز--
تس--
تش--
تص--
تض--
تع--
تعا--
تغ--
تق--
تل--
تم--
تن--
تند--
تنگ--
ته--
تو--
توا--
تور--
توپ--
تي--
تپ--
تک--
تھ--
تھا--
تھر--
تھو--
تھی--
تہ--
تی--
تیر--
تیل--
تین--
تے--
ث--
ثم--
ج--
جا--
جال--
جام--
جان--
جاو--
جاگ--
جب--
جت--
جج--
جد--
جر--
جز--
جس--
جع--
جغرا--
جل--
جلا--
جلن--
جم--
جما--
جن--
جنگ--
جو--
جوا--
جور--
جي--
جٹ--
جڑ--
جگ--
جھ--
جھون--
جھٹ--
جہ--
جی--
جیا--
جیح--
جیس--
جین--
جیو--
جیک--
ح--
حب--
حج--
حد--
حدث--
حر--
حس--
حص--
حض--
حق--
حل--
حم--
حو--
حی--
خ--
خا--
خار--
خان--
خاک--
خبر--
خد--
خدا--
خذ--
خر--
خرم--
خض--
خط--
خلا--
خم--
خن--
خو--
خوا--
خود--
خوش--
خون--
خیر--
خیز--
د--
دا--
دار--
دارا--
دارال--
دارالت--
دال--
دب--
دد--
در--
درا--
درخ--
درش--
دس--
دست--
دل--
دلا--
دلی--
دم--
دن--
ده--
دو--
دوا--
دور--
دون--
دي--
دکھ--
دھ--
دھن--
دھو--
دہ--
دی--
دیا--
دید--
دیش--
دیو--
دیپ--
دیکھ--
دے--
ذ--
ذا--
ذمی--
ذو--
ذک--
ذکر--
ذی--
ر--
را--
راج--
راز--
راس--
رام--
رامی--
راک--
راہ--
رب--
رت--
رج--
رح--
رخ--
رد--
ردو--
رز--
رس--
رش--
رف--
رق--
رل--
رم--
رن--
رنج--
رنگ--
ره--
رو--
روا--
روز--
روس--
روض--
رون--
روپ--
روڈ--
روک--
روگ--
روی--
ري--
رٹ--
رچ--
رڈ--
رک--
رکی--
رگ--
رہ--
رہا--
رہی--
ری--
ریز--
ریس--
ریش--
ریف--
ریم--
رین--
ریو--
ریپ--
ز--
زا--
زاد--
زد--
زر--
زعفر--
زم--
زن--
زو--
زور--
زک--
زہ--
زی--
زیر--
س--
سا--
سار--
ساس--
سال--
سام--
سان--
ساو--
ساہ--
سب--
سبھ--
ست--
ستر--
ستی--
سج--
سح--
سد--
سدا--
سر--
سرا--
سرب--
سرد--
سرو--
سرگ--
سرہ--
سری--
سس--
سفر--
سل--
سلا--
سلو--
سلی--
سم--
سما--
سمر--
سمن--
سمی--
سن--
سنت--
سنج--
سندر--
سنس--
سنو--
سنگ--
سنی--
سو--
سوا--
سور--
سوز--
سول--
سوم--
سون--
سوپ--
سوچ--
سوک--
سوگ--
سوی--
سي--
سٹ--
سٹر--
سٹھ--
سٹی--
سپ--
سپر--
سچ--
سڑ--
سک--
سکر--
سکو--
سکڑ--
سکھ--
سکی--
سہ--
سی--
سیب--
سید--
سیر--
سیل--
سیم--
سین--
سیو--
سیک--
سے--
ش--
شا--
شاد--
شان--
شاہ--
شب--
شد--
شر--
شرم--
شری--
شش--
شع--
شق--
شل--
شم--
شن--
شنگ--
شهر--
شو--
شور--
شي--
شپ--
شک--
شکر--
شکن--
شہ--
شہر--
شی--
شیر--
شیم--
شین--
شیو--
ص--
صا--
صحت--
صد--
صع--
صف--
صل--
صو--
ض--
ضم--
ضیاء--
ط--
طا--
طاغ--
طاہر--
طب--
طر--
طغ--
طه--
طو--
طيا--
طہ--
طی--
ظ--
ظفر--
ع--
عا--
عام--
عبدال--
عج--
عد--
عر--
عز--
عزیز--
عس--
عص--
عطا--
عل--
علی--
عم--
عماد--
عمر--
عن--
عي--
عہد--
عید--
غ--
غا--
غز--
غزل--
غل--
غم--
غن--
غیر--
ـ--
ف--
فا--
فار--
فاس--
فاط--
فال--
فت--
فتح--
فخر--
فر--
فرمان--
فرو--
فری--
فس--
فصل--
فق--
فل--
فلس--
فلم--
فلو--
فن--
فو--
فور--
فوک--
في--
فٹ--
فک--
فکر--
فہ--
فی--
فیر--
فیم--
ق--
قا--
قد--
قدر--
قر--
قرا--
قرم--
قس--
قش--
قص--
قط--
قل--
قلع--
قلم--
قم--
قند--
قو--
قہ--
قی--
قید--
ك--
كر--
كو--
ل--
لا--
لاد--
لاش--
لال--
لام--
لان--
لب--
لت--
لتھو--
لح--
لد--
لر--
لز--
لس--
لف--
لق--
لل--
لم--
لمح--
لن--
لنک--
لو--
لوم--
لوڑ--
لوک--
لي--
لٹ--
لچھ--
لڑ--
لک--
لگ--
لگا--
لھ--
لہ--
لہر--
لی--
لیا--
لیتھو--
لیس--
لیف--
لیو--
لیٹ--
لیپ--
لیہ--
م--
ما--
مار--
مال--
مان--
ماہ--
مت--
متھ--
مث--
مح--
محت--
محمد--
مخ--
مد--
مدھ--
مذ--
مر--
مرا--
مرغ--
مرو--
مز--
مس--
مسا--
مست--
مش--
مشا--
مشر--
مص--
مصا--
مض--
مط--
مظ--
مع--
معز--
معص--
مغ--
مفا--
مفع--
مق--
مقا--
مقد--
مك--
مل--
ملا--
ملک--
ملی--
مم--
من--
منا--
منح--
مند--
منق--
منو--
منہ--
منی--
مه--
مو--
مور--
موس--
مول--
مون--
مونٹ--
موہ--
مي--
مٹ--
مڈ--
مڑ--
مک--
مکا--
مکی--
مگ--
مگر--
مہ--
مہا--
مہان--
مہر--
می--
میا--
مید--
میر--
میز--
میل--
میم--
مین--
میو--
میٹ--
میڈ--
میک--
میگھ--
میں--
ن--
نا--
نات--
ناد--
نار--
ناش--
ناص--
نال--
نام--
نان--
ناو--
ناگ--
نت--
نج--
نخ--
ند--
نر--
نردیش--
نری--
نز--
نس--
نش--
نص--
نصر--
نع--
نغم--
نف--
نق--
نل--
نم--
نمو--
نن--
نند--
نه--
نو--
نوا--
نور--
نوشی--
نوم--
نوو--
نوٹ--
نوی--
ني--
نٹ--
نٹی--
نچ--
نڈ--
نک--
نگ--
نھ--
نہ--
نی--
نیا--
نیل--
نیو--
نیٹ--
نیڑ--
نیژ--
نیک--
نے--
ه--
ها--
هم--
هو--
و--
وا--
وار--
واس--
وال--
والا--
وان--
واک--
واہ--
وب--
وت--
وث--
وج--
وجی--
وح--
ود--
ور--
ورت--
ورس--
وس--
وسٹ--
وش--
وشو--
وف--
وق--
وك--
ول--
ولا--
ولو--
ولی--
وم--
ون--
ونڈ--
وو--
وٹ--
وپ--
وچ--
وچار--
وڈ--
وڑ--
وک--
وکٹ--
وکھ--
وکی--
وگ--
وہ--
وی--
ویا--
ویرا--
ویز--
ویسٹ--
ویل--
وین--
ویو--
ویونت--
ویک--
ي--
يح--
ين--
١--
١٤--
٢--
٣--
٤--
٥--
٦--
٧--
٨--
٩--
ٹ--
ٹا--
ٹال--
ٹان--
ٹر--
ٹرانس--
ٹراپ--
ٹری--
ٹس--
ٹل--
ٹم--
ٹن--
ٹو--
ٹور--
ٹٹ--
ٹپ--
ٹڈ--
ٹک--
ٹھ--
ٹھا--
ٹھیک--
ٹہ--
ٹی--
ٹیلی--
ٹین--
ٹیڑ--
ٹیک--
ټ--
پ--
پا--
پات--
پار--
پاس--
پال--
پان--
پاپ--
پاک--
پت--
پتر--
پج--
پد--
پر--
پرا--
پرت--
پرتی--
پرس--
پرم--
پرو--
پرگ--
پری--
پس--
پش--
پشی--
پل--
پلا--
پلی--
پم--
پن--
پنج--
پنچ--
پنگ--
په--
پو--
پوت--
پور--
پورت--
پول--
پوم--
پون--
پي--
پٹ--
پٹی--
پچ--
پچھ--
پڑ--
پژ--
پژوہ--
پښ--
پک--
پگ--
پھ--
پھر--
پھل--
پھٹ--
پھی--
پہ--
پی--
پیا--
پیر--
پیرا--
پیس--
پیش--
پین--
پیو--
چ--
چا--
چار--
چاپ--
چت--
چتر--
چر--
چرا--
چل--
چلو--
چم--
چن--
چند--
چندر--
چنگ--
چو--
چوا--
چون--
چي--
چٹ--
چپ--
چک--
چھ--
چھت--
چھن--
چھو--
چھپ--
چھڑ--
چہ--
چی--
چیر--
چین--
چیکو--
ڈ--
ڈا--
ڈار--
ڈاک--
ڈب--
ڈر--
ڈس--
ڈل--
ڈم--
ڈن--
ڈو--
ڈول--
ڈون--
ڈٹ--
ڈک--
ڈگ--
ڈھ--
ڈی--
ڈیم--
ڈین--
ڈیٹ--
ڈیگن--
ڑ--
ڑا--
ژ--
ژو--
ک--
کا--
کاا--
کار--
کارج--
کاز--
کاس--
کال--
کالا--
کام--
کان--
کاو--
کاک--
کب--
کت--
کتاب--
کج--
کد--
کر--
کرا--
کرد--
کرس--
کرم--
کرن--
کرنا--
کرو--
کری--
کس--
کش--
کع--
کعا--
کف--
کل--
کلا--
کلو--
کلی--
کم--
کمر--
کمی--
کن--
کنز--
کنٹ--
کنک--
کنگ--
کنی--
که--
کو--
کوا--
کوب--
کور--
کوس--
کوش--
کول--
کوم--
کون--
کوٹ--
کوڈ--
کوک--
کوہ--
کوی--
کي--
کيتا--
کٹ--
کٹا--
کٹھ--
کٹی--
کپ--
کچ--
کچھ--
کڈ--
کڑ--
کک--
کھ--
کھا--
کھر--
کھل--
کھم--
کھن--
کھو--
کھٹ--
کہ--
کہا--
کی--
کیا--
کیس--
کیل--
کیم--
کین--
کیو--
کیٹ--
کیپ--
کے--
ڪ--
گ--
گا--
گار--
گال--
گان--
گت--
گد--
گر--
گرا--
گرو--
گری--
گز--
گزر--
گل--
گلا--
گلو--
گلی--
گم--
گن--
گنگ--
گنہ--
گنیا--
گو--
گوا--
گود--
گور--
گوش--
گول--
گون--
گوڑ--
گڈ--
گڑ--
گھ--
گھر--
گھن--
گھوٹ--
گی--
گیا--
گیل--
ں--
ھ--
ھا--
ھر--
ھل--
ھم--
ھن--
ھو--
ھی--
ہ--
ہا--
ہار--
ہاس--
ہال--
ہت--
ہتھ--
ہدا--
ہر--
ہرش--
ہری--
ہس--
ہل--
ہم--
ہما--
ہن--
ہند--
ہندو--
ہنر--
ہنی--
ہو--
ہوا--
ہور--
ہوس--
ہوف--
ہول--
ہون--
ہوک--
ہٹ--
ہٹا--
ہچک--
ہڈ--
ہڑ--
ہی--
ہیر--
ہیری--
ہیل--
ہیم--
ہین--
ہیو--
ہیڈ--
ی--
یا--
یاد--
یار--
یاما--
یب--
یت--
ید--
یر--
یز--
یس--
یش--
یع--
یف--
یق--
یل--
یم--
ین--
یو--
یون--
یونی--
یوگ--
یوگی--
یٹ--
یپ--
یڈ--
یک--
یکس--
یگ--
یہ--
یی--
ے--
۰--
۱۲--
۱۳--
۱۵--
۱۶--
۱۷--
۱۸--
ݨ--
अ--
आ--
इ--
उ--
ए--
ऑ--
क--
ख--
ग--
च--
ज--
ट--
ड--
त--
द--
ध--
न--
प--
ब--
म--
य--
र--
ल--
व--
श--
स--
ह--
१--
२--
র--
ਰ--
--0
--00
--01
--02
--03
--04
--05
--06
--07
--08
--09
--1
--10
--11
--12
--13
--14
--15
--16
--17
--18
--19
--2
--20
--21
--22
--23
--25
--27
--28
--29
--3
--30
--31
--32
--33
--39
--4
--40
--42
--44
--45
--49
--5
--50
--51
--52
--55
--56
--59
--6
--60
--61
--63
--64
--65
--68
--7
--72
--74
--77
--78
--79
--8
--81
--82
--86
--89
--9
--90
--91
--92
--93
--94
--97
--99
--a
--aa
--ab
--abad
--able
--ac
--achal
--acharya
--acio
--ack
--acy
--ad
--ada
--ade
--adi
--ado
--ae
--afi
--ag
--age
--ah
--ai
--aire
--aj
--ak
--al
--ala
--ald
--ali
--all
--ally
--als
--am
--ama
--an
--ance
--ang
--angana
--ani
--ans
--ant
--ants
--ao
--ap
--aphy
--aq
--ar
--ard
--ari
--aries
--ario
--ars
--ary
--arı
--as
--ash
--asi
--at
--ata
--ate
--ated
--ates
--ati
--atic
--ating
--ation
--ational
--ations
--ative
--atoes
--ator
--atory
--au
--av
--avi
--aw
--awi
--ax
--ay
--az
--b
--ba
--bad
--bd
--be
--ber
--berg
--bi
--ble
--burg
--bus
--by
--c
--ca
--cal
--cat
--ce
--ced
--cent
--ces
--ch
--che
--cher
--cht
--cing
--ck
--cky
--co
--code
--cs
--ct
--ction
--cy
--d
--da
--dad
--day
--de
--ded
--dh
--di
--dic
--dit
--do
--dor
--dra
--ds
--du
--duced
--duct
--dy
--e
--ea
--eal
--eau
--eb
--ec
--ect
--ed
--eda
--edic
--ee
--eed
--een
--eep
--ees
--eh
--ei
--ein
--ek
--ekh
--el
--ela
--eli
--ell
--ely
--em
--ement
--en
--ena
--ence
--ens
--ent
--ention
--ento
--ents
--eo
--er
--erg
--ern
--erry
--ers
--ert
--ery
--es
--ese
--esh
--ess
--est
--et
--ete
--ets
--ett
--eum
--eus
--ev
--ew
--ews
--ex
--ey
--ez
--f
--fa
--fer
--fers
--ff
--fi
--fic
--fied
--fs
--ful
--fy
--g
--ga
--gal
--gam
--gan
--gar
--garh
--gate
--ge
--ged
--ges
--gh
--gi
--gin
--ging
--gir
--gn
--go
--gs
--gton
--gue
--h
--ha
--hal
--ham
--har
--he
--hed
--hen
--hes
--hi
--hian
--hic
--hik
--hip
--hips
--hmi
--hn
--ho
--hood
--hop
--hs
--ht
--hts
--hu
--hury
--hy
--i
--ia
--ial
--ian
--iation
--iations
--ib
--ible
--ic
--ical
--icia
--icle
--ics
--id
--ide
--ids
--ie
--ied
--ien
--ier
--ies
--ig
--iges
--ight
--ik
--ika
--il
--ila
--ile
--im
--in
--ina
--india
--ine
--info
--ing
--ings
--ini
--ino
--ins
--io
--ion
--ional
--ions
--ior
--ios
--iot
--ious
--ip
--ir
--ira
--ire
--is
--isation
--ise
--ised
--ish
--ished
--ision
--ism
--ist
--istic
--ists
--it
--ita
--ite
--ities
--ity
--ium
--ius
--iv
--ive
--ix
--iya
--iz
--ization
--ize
--ized
--j
--ja
--je
--ji
--jit
--k
--ka
--kan
--kar
--ke
--ker
--kh
--kha
--ki
--ko
--kot
--ks
--ku
--ky
--l
--la
--lah
--lan
--land
--lar
--ld
--le
--lect
--lects
--led
--ler
--les
--less
--ley
--li
--lia
--lie
--lin
--ling
--lis
--lism
--list
--lity
--ll
--lla
--lle
--lling
--lly
--lm
--lo
--lon
--lry
--ls
--lter
--lu
--ly
--lyn
--m
--ma
--mal
--man
--me
--med
--men
--ment
--ments
--mer
--mi
--min
--mo
--mond
--ms
--my
--n
--na
--nagar
--nah
--nal
--name
--nan
--nar
--nard
--nary
--nce
--nd
--nda
--nds
--ne
--ned
--ner
--nes
--ness
--net
--news
--ney
--ng
--nga
--ngs
--ni
--nia
--nie
--ning
--nis
--nity
--nk
--nn
--nne
--no
--ns
--nt
--ntly
--nts
--ntz
--nu
--num
--ny
--nya
--o
--oa
--oba
--oc
--ock
--od
--oe
--of
--og
--ogy
--oi
--oj
--ol
--ology
--om
--on
--ona
--one
--ong
--ons
--oo
--oon
--op
--or
--ora
--ore
--ors
--ory
--os
--ot
--ou
--ous
--out
--ov
--ova
--ovic
--ow
--ows
--oy
--oyd
--p
--pa
--page
--pe
--ped
--pes
--pf
--ping
--posed
--post
--prise
--pt
--pu
--pur
--q
--qi
--r
--ra
--rah
--ral
--ran
--rat
--rb
--rch
--rd
--re
--red
--ree
--ref
--rg
--ri
--ric
--rie
--ries
--rin
--ring
--rl
--rm
--rn
--rno
--ro
--ros
--rry
--rs
--rt
--ru
--ry
--s
--sa
--sation
--sburg
--se
--sed
--ser
--ses
--sf
--sh
--si
--sia
--side
--sing
--sion
--sis
--sity
--sive
--sk
--ske
--ski
--skij
--sm
--son
--sor
--sory
--ss
--st
--star
--stein
--sts
--sty
--t
--ta
--tak
--tal
--tan
--tants
--tar
--tat
--tation
--te
--ted
--ter
--tes
--th
--tha
--thi
--thy
--ti
--tia
--tic
--times
--tine
--ting
--tion
--tions
--tive
--tle
--tley
--tm
--to
--ton
--tor
--tors
--tory
--tos
--town
--tra
--tre
--ts
--tt
--tte
--tv
--ty
--type
--tz
--u
--ua
--ual
--ually
--ub
--ud
--uddin
--ue
--uel
--uf
--ug
--ugh
--ught
--uk
--ul
--ula
--ult
--um
--ume
--un
--ung
--up
--ur
--ura
--ure
--ures
--uri
--uring
--url
--urs
--ury
--us
--ush
--uss
--ut
--ution
--ux
--v
--va
--val
--ve
--vent
--ver
--ves
--vez
--vi
--vic
--view
--ving
--vity
--vo
--voy
--w
--wa
--wal
--war
--way
--web
--west
--wire
--wise
--world
--ws
--x
--xy
--y
--ya
--yan
--ye
--yed
--yi
--ying
--ykh
--yn
--ys
--z
--za
--zar
--ze
--zed
--zi
--zing
--zo
--zz
--ı
--ıs
--α
--ι
--ν
--ο
--ς
--υ
--а
--д
--е
--еи
--и
--ии
--ия
--к
--л
--м
--н
--них
--о
--ов
--р
--рии
--с
--т
--та
--у
--ы
--я
--ء
--ا
--اء
--اب
--اة
--ات
--اتمک
--اتھ
--اتی
--اج
--اح
--اد
--ار
--ارا
--اراي
--اراں
--ارس
--ارق
--ارو
--ارٹ
--ارڈ
--ارک
--ارہ
--اری
--از
--ازی
--اس
--اسطہ
--اش
--اشی
--اط
--اعی
--اغ
--اف
--افی
--اق
--ال
--الا
--الس
--الہ
--الی
--الے
--ام
--ان
--انا
--اندی
--انزم
--انو
--انى
--اني
--انک
--انہ
--انی
--انے
--او
--اوا
--اواں
--اور
--اوی
--اي
--اٹ
--اٹک
--اپ
--اپور
--اچ
--اڈ
--اڈو
--اڑ
--اڑی
--اک
--اکس
--اکی
--اگ
--اگو
--اں
--اہ
--اہا
--اہی
--اہے
--اۃ
--ای
--ایا
--ایت
--ایی
--اے
--اݨا
--ب
--با
--باز
--بازی
--باي
--بة
--بدھ
--بر
--برا
--برگ
--بز
--بس
--بصار
--بطین
--بع
--بل
--بن
--بو
--بي
--بک
--بھ
--بہ
--بۃ
--بی
--بیب
--بیوٹری
--بیي
--بے
--ة
--ت
--تا
--تان
--تاواں
--تاں
--تاہے
--تتو
--تر
--تری
--تس
--تل
--تم
--تمک
--تن
--تو
--توس
--توف
--توو
--تى
--تپور
--تک
--تھ
--تھا
--تھاي
--تھی
--تہ
--تی
--تیا
--تے
--ث
--ثال
--ثق
--ثم
--ثی
--ج
--جا
--جاي
--جب
--جد
--جر
--جرز
--جس
--جم
--جن
--جنگ
--جو
--جي
--جپور
--جک
--جھ
--جہ
--جی
--جیت
--جے
--ح
--حا
--حاسن
--حت
--حد
--حسن
--حل
--حو
--حہ
--حی
--خ
--خان
--خانہ
--خت
--خر
--خص
--خہ
--خی
--خے
--د
--دا
--داد
--دار
--داس
--دان
--داں
--دة
--دت
--دتا
--دتس
--در
--دز
--دل
--دلی
--دن
--ده
--دو
--دي
--دڑ
--دک
--دگی
--دھ
--دھر
--دہ
--دی
--دیاں
--دیتہ
--دیم
--دین
--دے
--ذ
--ذب
--ذہ
--ذہب
--ر
--را
--راج
--راق
--رام
--راو
--راڈ
--راں
--رب
--رت
--رث
--رج
--رجی
--رح
--رد
--ردی
--رز
--رس
--رسن
--رسٹ
--رع
--رف
--رق
--رقاوی
--رم
--رن
--رنی
--ره
--رو
--روز
--روف
--روپ
--رى
--ري
--رٹ
--رپ
--رڈ
--رک
--رگ
--رہ
--رۃ
--ری
--ریا
--ریدی
--ریس
--ریشن
--ریم
--رین
--ریي
--رے
--ز
--زا
--زان
--زانی
--زبرگ
--زخ
--زر
--زل
--زم
--زمی
--زن
--زه
--زو
--زي
--زگ
--زہ
--زی
--زے
--س
--سا
--ساب
--ساي
--سب
--سبرگ
--ست
--ستان
--سخ
--سر
--سس
--سط
--سف
--سل
--سلہ
--سلے
--سم
--سن
--سنک
--سو
--سوف
--سٹ
--سٹس
--سٹن
--سٹک
--سڈ
--سک
--سکی
--سہ
--سۃ
--سی
--سیا
--سیح
--سین
--سے
--ش
--شا
--شات
--شاي
--شاہ
--شت
--شر
--شس
--شل
--شم
--شن
--شو
--شور
--شي
--شٹ
--شپ
--شک
--شکا
--شہ
--شی
--شیا
--شیم
--شے
--ص
--صار
--صب
--صح
--صر
--صلی
--صہ
--صی
--ض
--ضت
--ضحی
--ضر
--ضہ
--ضی
--ضے
--ط
--طانیہ
--طح
--طس
--طع
--طف
--طن
--طی
--طین
--ظ
--ظر
--ع
--عات
--عاں
--عة
--عت
--عد
--عدہ
--علی
--عوة
--عہ
--عۃ
--عی
--غ
--غات
--غان
--غر
--غہ
--غۃ
--غی
--ـ
--ف
--فا
--فاي
--فة
--فت
--فتہ
--فر
--فس
--فع
--فق
--فل
--فن
--فه
--فورڈ
--فوس
--فٹ
--فک
--فہ
--فی
--ق
--قات
--قار
--قاع
--قب
--قت
--قدر
--قر
--قش
--قل
--قى
--قہ
--قی
--ك
--ل
--لا
--لاح
--لاف
--لال
--لاي
--لب
--لة
--لت
--لد
--لر
--لز
--لس
--لسلام
--لع
--لك
--لل
--للہ
--لم
--لن
--له
--لو
--لوا
--لوجی
--لوی
--لي
--لٹ
--لڈ
--لک
--لہ
--لۃ
--لی
--لیا
--لیم
--لین
--لیي
--لے
--م
--ما
--ماء
--ماعت
--مال
--مام
--مان
--ماں
--مب
--مت
--مر
--مس
--مش
--مع
--مق
--مل
--من
--مند
--منٹ
--مو
--مون
--مي
--مپ
--مک
--مہ
--می
--میس
--میشن
--مین
--میٹر
--مے
--ن
--نا
--نام
--نامہ
--ناو
--ناي
--ناک
--ناں
--نب
--نبرگ
--نة
--نت
--نج
--نجر
--ند
--ندا
--ندر
--ندھ
--ندہ
--ندی
--ندے
--نر
--نز
--نس
--نسن
--نش
--نشل
--نف
--نل
--نم
--نن
--نند
--نه
--نو
--نوالہ
--نوس
--نوف
--نى
--ني
--نٹ
--نٹن
--نپ
--نچ
--نڈ
--نڈا
--نڈن
--نڈی
--نک
--نکرخن
--نکو
--نگ
--نگا
--نگر
--نگزی
--نگو
--نگٹن
--نگی
--نہ
--نی
--نیا
--نیس
--نیم
--نیو
--نیہ
--نے
--ه
--ها
--هب
--هد
--هر
--هم
--هی
--و
--وا
--واب
--واد
--وادی
--وار
--وال
--والا
--وان
--واں
--وایا
--وب
--وبل
--وة
--وت
--وتا
--وتری
--وتی
--وجی
--وخ
--ود
--ودا
--ودر
--ور
--ورا
--ورو
--ورٹ
--ورپ
--وری
--وز
--وزا
--وزی
--وس
--وسا
--وسٹی
--وسکی
--وسی
--وش
--وشن
--وشیما
--وض
--وط
--وع
--وعہ
--وغ
--وف
--وق
--ول
--ولس
--ولہ
--وم
--ومی
--ون
--ونا
--ونت
--ونس
--ونٹ
--ونی
--وو
--ووا
--ووال
--وور
--ووچ
--ووی
--وى
--وي
--وٹ
--وٹا
--وٹو
--وٹی
--وپ
--وچ
--وچی
--وڈ
--وڑ
--وک
--وکا
--وکو
--وکے
--وگ
--وگرافی
--وں
--وہ
--وۃ
--وی
--ویج
--ویں
--ویہ
--وے
--ى
--ي
--يا
--ياں
--يب
--ية
--يت
--يث
--يز
--يس
--يع
--يف
--يقت
--يل
--يم
--ين
--يو
--يں
--يہ
--٠
--١
--٢
--٣
--٤
--٥
--٦
--٧
--٨
--٩
--ٴ
--ٸی
--ٹ
--ٹا
--ٹاي
--ٹر
--ٹرل
--ٹری
--ٹز
--ٹس
--ٹل
--ٹم
--ٹن
--ٹنگ
--ٹنے
--ٹو
--ٹوں
--ٹک
--ٹکس
--ٹھ
--ٹھن
--ٹہ
--ٹی
--ٹیز
--ٹیشن
--ٹیو
--ٹیي
--ٹیہ
--ٹے
--پ
--پا
--پال
--پت
--پتی
--پر
--پس
--پل
--پن
--پو
--پور
--پوری
--پول
--پي
--پٹ
--پی
--پے
--چ
--چا
--چاي
--چر
--چل
--چن
--چو
--چک
--چھ
--چہ
--چی
--چے
--ڈ
--ڈا
--ڈاي
--ڈاں
--ڈر
--ڈرز
--ڈز
--ڈس
--ڈل
--ڈم
--ڈن
--ڈنس
--ڈنٹ
--ڈو
--ڈونیا
--ڈووا
--ڈي
--ڈکٹ
--ڈہ
--ڈی
--ڈیا
--ڈینٹ
--ڈے
--ڑ
--ڑا
--ڑاں
--ڑو
--ڑک
--ڑھ
--ڑہ
--ڑی
--ڑے
--ژہ
--ک
--کا
--کار
--کاری
--کان
--کاں
--کبر
--کت
--کر
--کرن
--کز
--کس
--کش
--کشی
--کل
--کم
--کن
--کو
--کوف
--کوٹ
--کوے
--کٹ
--کچر
--کڑ
--کھ
--کھا
--کہ
--کی
--کیا
--کے
--گ
--گا
--گار
--گان
--گاه
--گاو
--گاہ
--گت
--گر
--گرو
--گری
--گس
--گل
--گم
--گن
--گنج
--گو
--گوي
--گوے
--گي
--گٹ
--گٹن
--گپت
--گڑ
--گڑھ
--گھ
--گہ
--گی
--گیا
--گیشن
--گین
--گے
--ں
--ھ
--ھا
--ھالی
--ھان
--ھاي
--ھاں
--ھت
--ھر
--ھرا
--ھری
--ھل
--ھلی
--ھم
--ھن
--ھنگ
--ھو
--ھوں
--ھویں
--ھٹ
--ھڑ
--ھڑی
--ھک
--ھہ
--ھی
--ھیا
--ھیاں
--ھیر
--ھیم
--ھے
--ہ
--ہا
--ہار
--ہاں
--ہت
--ہد
--ہر
--ہش
--ہل
--ہم
--ہن
--ہو
--ہوي
--ہٹ
--ہہ
--ہی
--ہیا
--ہیاں
--ہیم
--ہے
--ۃ
--ی
--یا
--یات
--یال
--یام
--یان
--یاي
--یاں
--یب
--یة
--یت
--یتا
--یث
--یج
--یجی
--یخ
--ید
--یر
--یرا
--یرز
--یرو
--یرہ
--یری
--یریا
--یرے
--یز
--یس
--یسی
--یش
--یشن
--یشور
--یشی
--یص
--یض
--یع
--یف
--یق
--یل
--یلا
--یلو
--یلی
--یلے
--یم
--یما
--ین
--ینا
--یندا
--یندر
--ینس
--ینو
--ینٹ
--ینڈ
--یه
--یو
--یوس
--یوو
--یوی
--یي
--یٹ
--یٹا
--یٹر
--یٹک
--یپ
--یچ
--یڈ
--یڈا
--یڑ
--یک
--یکا
--یکرن
--یکشن
--یکل
--یکی
--یگ
--یں
--یہ
--یۃ
--یی
--یے
--ې
--ے
--ےا
--۰
--۱
--۲
--۳
--۴
--۵
--۶
--۷
--۸
--۹
--ݨ
--ݨا
--ݨی
--ݨے
--ݪ
--न
--र
--ल
