!
"
#
##0
##1
##10
##11
##12
##13
##14
##15
##16
##17
##18
##19
##2
##20
##21
##22
##23
##24
##25
##26
##27
##28
##29
##3
##30
##31
##32
##33
##34
##35
##36
##37
##38
##39
##4
##40
##41
##42
##43
##44
##45
##46
##47
##48
##49
##5
##50
##51
##52
##53
##54
##55
##56
##57
##58
##59
##6
##60
##61
##62
##63
##64
##65
##66
##67
##68
##69
##7
##70
##71
##72
##73
##74
##75
##76
##77
##78
##79
##8
##80
##81
##82
##83
##84
##85
##86
##87
##88
##89
##9
##90
##91
##92
##93
##94
##95
##96
##97
##98
##99
$
%
&
'
(
)
*
+
,
-
.
/
0
00
000
001
01
02
03
04
05
06
07
08
09
1
10
100
1000
10000
1001
101
1010
1016
102
1029
103
1038
104
105
1050
106
107
108
1080
109
11
110
1100
111
112
1126
113
114
115
116
117
118
1186
1187
119
1192
1193
12
120
1200
1204
1206
121
1210
122
1220
123
1236
124
1240
1242
125
1250
1258
126
1260
1266
127
128
1286
129
1290
1296
1299
13
130
1300
1302
1303
1304
1305
1306
1308
131
1310
1316
132
1320
1321
1322
1323
1324
1325
1326
1327
1328
133
1335
1336
1337
1339
134
1340
1341
1342
1344
1346
1347
1348
1349
135
1350
1351
1352
1353
1354
1357
1358
136
1360
1362
1363
1364
1365
1366
1367
1368
1369
137
1370
1371
1372
1373
1374
1375
1376
1377
1378
1379
138
1380
1381
1382
1383
1384
1385
1386
1387
1388
1389
139
1390
1391
1392
1393
1394
1395
1396
1397
1398
1399
14
140
1400
1401
1402
1403
1404
1405
1406
1407
1408
1409
141
1410
1411
1412
1413
1414
1415
1416
1417
1418
1419
142
1420
1421
1422
1423
1424
143
1430
1433
144
145
1450
1451
1453
146
1469
147
148
149
1490
1492
1494
15
150
1500
1501
151
1510
1512
1515
1516
1517
1519
152
1520
1521
1524
1525
1526
1527
1528
1529
153
1530
1532
1534
1535
1538
1539
154
1540
1542
1545
155
1550
1554
1555
1556
156
1560
1562
1563
1565
1566
1568
1569
157
1570
1571
1572
1574
158
1580
1581
1589
159
1595
1598
1599
16
160
1600
1603
1605
1606
161
1610
1611
1612
1618
162
1620
1621
1622
1627
1628
163
1630
1631
1632
1635
164
1640
1642
1644
1645
1648
165
1650
1658
1659
166
1660
1664
1666
167
1672
168
1680
1683
1686
1687
1689
169
1690
1696
1699
17
170
1700
1702
1703
1704
1707
1708
1709
171
1710
1711
1712
1713
1715
1717
1718
1719
172
1720
1721
1722
1723
1729
173
1730
1735
1737
1738
1739
174
1740
1744
1745
1746
1747
1748
1749
175
1750
1751
1752
1753
1754
1755
1756
1757
1758
1759
176
1760
1761
1762
1763
1764
1765
1766
1767
1768
1769
177
1770
1771
1772
1773
1774
1775
1776
1777
1778
1779
178
1780
1781
1782
1783
1784
1785
1786
1787
1788
1789
179
1790
1791
1792
1793
1794
1795
1796
1797
1798
1799
18
180
1800
1801
1802
1803
1804
1805
1806
1807
1808
1809
181
1810
1811
1812
1813
1814
1815
1816
1817
1818
1819
182
1820
1821
1822
1823
1824
1825
1826
1827
1828
1829
183
1830
1831
1832
1833
1834
1835
1836
1837
1838
1839
184
1840
1841
1842
1843
1844
1845
1846
1847
1848
1849
185
1850
1851
1852
1853
1854
1855
1856
1857
1858
1859
186
1860
1861
1862
1863
1864
1865
1866
1867
1868
1869
187
1870
1871
1872
1873
1874
1875
1876
1877
1878
1879
188
1880
1881
1882
1883
1884
1885
1886
1887
1888
1889
189
1890
1891
1892
1893
1894
1895
1896
1897
1898
1899
19
190
1900
1901
1902
1903
1904
1905
1906
1907
1908
1909
191
1910
1911
1912
1913
1914
1915
1916
1917
1918
1919
192
1920
1921
1922
1923
1924
1925
1926
1927
1928
1929
193
1930
1931
1932
1933
1934
1935
1936
1937
1938
1939
194
1940
1941
1942
1943
1944
1945
1946
1947
1948
1949
195
1950
1951
1952
1953
1954
1955
1956
1957
1958
1959
196
1960
1961
1962
1963
1964
1965
1966
1967
1968
1969
197
1970
1971
1972
1973
1974
1975
1976
1977
1978
1979
198
1980
1981
1982
1983
1984
1985
1986
1987
1988
1989
199
1990
1991
1992
1993
1994
1995
1996
1997
1998
1999
2
20
200
2000
2001
2002
2003
2004
2005
2006
2007
2008
2009
201
2010
2011
2012
2013
2014
2015
2016
2017
2018
2019
202
2020
2021
2022
203
204
205
206
207
208
209
21
210
211
212
213
214
215
216
217
218
219
22
220
221
222
223
224
225
226
227
228
229
23
230
231
232
233
234
235
236
237
238
239
24
240
241
242
243
244
245
246
247
248
249
25
250
2500
251
252
253
254
255
256
257
258
259
26
260
261
262
263
264
265
266
267
268
269
27
270
271
272
273
274
275
276
277
278
279
28
280
281
282
283
284
285
286
287
288
289
29
290
291
292
293
294
295
296
297
298
299
3
30
300
3000
301
302
303
304
305
306
307
308
309
31
310
311
312
313
314
315
316
317
318
319
32
320
321
322
323
324
325
326
327
328
329
33
330
331
332
333
334
335
336
337
338
339
34
340
341
342
343
344
345
346
347
348
349
35
350
3500
351
352
353
354
355
356
357
358
359
36
360
361
362
363
364
365
366
367
368
369
37
370
371
372
373
374
375
376
377
378
379
38
380
381
382
383
384
385
386
387
388
389
39
390
391
392
393
394
395
396
397
398
399
4
40
400
4000
401
402
403
404
405
406
407
408
409
41
410
411
412
413
414
415
416
417
418
419
42
420
421
422
423
424
425
426
427
428
429
43
430
431
432
433
434
435
436
437
438
439
44
440
441
442
443
444
445
446
447
448
449
45
450
451
452
453
454
455
456
457
458
459
46
460
461
462
463
464
465
466
467
468
469
47
470
471
472
473
474
475
476
477
478
479
48
480
481
482
483
484
485
486
487
488
489
49
490
491
492
493
495
496
497
498
499
5
50
500
5000
501
505
506
507
508
509
51
510
512
514
516
517
518
519
52
520
521
524
525
526
527
528
529
53
530
531
532
534
535
537
538
539
54
540
541
542
543
544
545
549
55
550
551
552
554
555
557
558
56
560
562
563
564
565
567
569
57
570
571
572
573
575
577
58
580
581
582
583
584
585
586
587
588
589
59
590
591
592
595
596
597
599
6
60
600
6000
602
603
609
61
610
612
617
618
62
620
622
623
624
625
626
627
628
629
63
630
631
632
634
635
636
637
639
64
640
641
642
644
647
648
65
650
651
652
655
656
657
658
659
66
660
661
662
664
667
668
67
670
672
674
678
68
680
683
684
685
69
7
70
700
7000
705
707
71
710
711
712
714
715
717
718
72
720
724
728
73
730
736
737
74
740
744
747
75
750
756
76
77
771
777
78
780
786
787
788
79
790
8
80
800
8000
802
81
815
819
82
820
828
83
830
84
840
85
850
855
86
860
861
87
870
88
880
89
9
90
900
9000
907
91
911
912
92
923
93
930
94
940
95
950
96
960
964
969
97
970
975
978
98
980
99
990
997
999
:
;
<
=
>
?
@
\
^
_
`
a
aa
ab
abbas
abbr
abc
abd
abdul
able
about
above
abu
ac
academic
academy
access
accessdate
accessed
according
account
accounts
acre
across
act
action
active
actor
actress
actual
ad
adam
add
addclass
added
adding
additional
adds
administration
administrative
advanced
ae
af
affairs
affricate
afghan
afghanistan
africa
african
after
again
against
age
agency
ah
ahmad
ahmed
aid
ain
air
aircraft
airport
al
alan
alert
alexander
alfred
ali
alias
aliases
align
all
allah
allen
alliance
allow
allowed
almost
along
alpha
already
also
alt
alternative
although
alveolar
always
am
amazon
america
american
americana
amersfoort
among
an
analysis
anchor
ancient
and
andrew
anglo
anniversary
annual
another
anthony
anti
any
anything
api
appear
appears
append
appendchild
apple
apply
approach
appropriate
apr
april
ar
arab
arabia
arabic
arabs
architecture
archive
archived
archives
are
area
areas
arg
args
argument
arguments
armed
armenia
armenian
arms
army
around
array
art
arthur
article
articles
articleshow
artist
arts
arxiv
as
asia
asian
asiatic
asin
ask
asp
aspx
assembly
assert
assess
assessment
associated
association
astronomy
at
atlas
attack
attacks
attempt
attr
au
aug
august
aur
aus
australia
australian
austria
author
authority
authors
auto
automatically
autonomous
available
avoid
award
awards
away
az
azerbaijan
b
ba
baba
back
background
bad
bagh
bahrain
bangladesh
bank
banks
bar
barbara
base
based
basic
battle
bbc
bc
bce
be
beach
became
because
become
been
before
begin
beginning
behind
beijing
being
below
ben
bengal
bengali
benjamin
berkeley
berlin
bernard
best
beta
better
between
bevo
beyond
bf
bg
bhavan
bibcode
bible
bibliography
big
bill
bin
bio
biography
birth
black
blackwell
blainey
blank
block
blog
blogspot
blue
blurb
board
body
bolagh
bold
bombay
book
books
boolean
border
born
boston
bosworth
bot
both
bottom
box
br
branch
brazil
break
bridge
brief
brill
britain
britannica
british
brown
buddha
buddhism
buddhist
build
builder
building
built
bulgaria
bulletin
bundle
bureau
business
but
button
by
c
ca
cal
calcutta
calendar
california
call
called
cambridge
came
campaign
can
canada
canadian
canal
candidates
cap
capital
caption
capture
car
case
cases
cast
cat
categories
category
catherine
cats
caucasus
cause
cc
cdot
cdots
ce
cell
cells
census
centenary
center
central
centre
centuries
century
cf
cfg
ch
chandigarh
chandra
change
changed
changes
channel
chapter
char
character
characters
charles
check
checked
chemical
chicago
chief
child
children
china
chinese
chipman
christian
christianity
christopher
chronicle
chronology
church
churches
cia
cinema
circassian
circle
citation
citations
cite
cited
citeq
cities
city
civil
civilians
civilization
claim
claims
clark
class
classes
classical
classname
clear
click
clio
close
club
cm
cms
cnn
co
coast
coat
code
codes
coins
col
cold
collapse
collapsed
collapsible
collection
college
colombia
colonial
color
colored
colors
colspan
columbia
column
columns
com
combat
combination
come
coming
comma
command
comment
comments
commission
committee
common
commons
communist
communities
community
companion
company
comparative
complete
complex
computer
concat
conf
conference
config
configuration
conflict
congress
conjunction
conquest
consonant
constitution
construction
contact
contain
container
containing
contains
contemporary
content
contentcat
context
continue
contribution
contributor
control
conversion
convert
coord
coordinate
coordinates
copy
corp
corporation
cos
could
council
count
countries
country
county
court
covid
create
created
createelement
creation
credit
cricinfo
cricket
cricketarchive
crime
crisis
critical
cross
cs
css
csstext
ct
ctx
cultural
culture
cup
cur
currency
current
currently
cyprus
d
da
daily
dam
damascus
dance
daniel
dans
dar
dark
das
dash
data
database
datatype
datavalue
date
dates
david
dawn
day
days
db
dc
dd
de
dead
deal
death
dec
december
decimal
declared
def
default
defaults
defined
degree
degrees
del
delete
delhi
delivery
delta
democracy
democratic
den
department
deprecated
depression
depth
der
des
description
descriptions
design
designation
detail
details
deutsche
deutschen
development
develpment
dhaka
di
dialog
diaz
dictionary
dictionnaire
did
die
died
dies
diff
different
digit
digital
digits
dil
din
dinar
dipalpur
diplomacy
diplomatic
dir
direct
directed
direction
directly
disabled
discovery
discussion
disease
display
displayed
district
districts
div
division
divisions
do
doc
document
documentation
documents
does
doesn
doi
dollar
domain
dome
don
donald
done
dot
dots
double
douglas
down
download
dq
dr
draft
dsh
du
due
duplicate
duration
during
dutch
dx
dynasties
dynasty
e
each
early
earth
earthquake
east
eastern
ebooks
economic
economics
economy
ed
edit
edited
editing
edition
editor
editors
eds
edu
education
educational
edward
ee
effect
egypt
egyptian
either
el
election
elections
electric
electricity
element
elements
elizabeth
else
elseif
em
embassy
emirate
emperor
empire
empty
en
encode
encodeuricomponent
encyclopaedia
encyclopedia
encyclopædia
end
energy
engineering
england
english
entertainment
entete
entire
entity
entityid
entry
env
environment
equal
er
era
erickson
err
error
errors
es
espncricinfo
essays
est
estimated
et
eta
etal
etc
ethnic
eu
europe
european
even
event
events
every
everything
evidence
evolution
evt
ex
example
examples
except
exchange
execution
exist
existing
exists
exodus
expanded
experience
express
external
extra
extract
eye
f
fa
face
facebook
fact
factbook
facts
failure
faith
fall
falls
false
family
far
father
fe
feature
featured
features
feb
february
federal
federation
feedback
female
feminist
festival
few
ff
fff
fi
field
fields
fight
figure
figures
file
files
fill
film
filter
final
finance
financial
find
finland
finnish
fire
first
firstchild
five
fix
flag
flight
float
floor
fmt
focus
folk
folklore
followed
following
font
food
foot
footer
for
force
forces
foreign
forgotten
form
format
formats
formatted
formatting
former
forms
fort
forum
forward
found
foundation
founder
four
fourth
fox
fr
frac
frame
franc
france
francis
francisco
frank
frederick
free
freedom
french
fricative
from
front
fruits
ft
fu
full
function
functions
further
future
g
ga
gadget
gal
gallery
game
games
gamma
gandhi
garden
gate
gauge
gay
gazetteer
ge
gender
general
genocide
geo
geoffrey
geographical
geography
george
georgia
german
germany
geschichte
get
getargs
getattribute
getcurrentframe
getelementbyid
getelementsbytagname
getparent
gets
getting
gi
gif
girl
give
given
gives
gje
global
go
god
goes
gogera
gold
golden
good
google
gordon
gospel
gov
government
gradient
grand
great
greater
greece
greek
green
greenwood
ground
group
groups
growth
gs
gsub
gu
guardian
gugara
guide
guinea
gujarati
gulf
gurdwara
guru
h
ha
had
haftar
hai
hajj
hajji
half
hall
hand
handbook
handler
harvard
has
hasan
hat
have
having
hbar
he
head
header
headers
heading
health
heart
hebrew
height
held
hello
help
henry
her
here
heritage
hezbollah
hi
hidden
hide
high
hill
him
himself
hindi
hindu
hinduism
his
histoire
historian
historic
historical
history
hl
hlist
ho
hold
holocaust
holy
home
hong
hope
horizontal
hospital
host
house
hover
how
however
href
htm
html
http
https
hu
hum
human
hundred
hungary
hussain
hyderabad
i
iaea
ian
ibid
ibn
ic
icc
icon
id
ideas
identity
ie
if
ii
iii
il
im
image
images
imam
imdb
img
imp
imperial
imperialism
impgal
important
in
inc
include
included
includes
including
independence
independent
index
indexof
india
indian
indiatimes
individual
indo
indonesia
indus
industrial
influence
info
infobox
information
initial
initials
inline
inner
innerhtml
innings
input
insert
inside
instead
institute
institutions
int
integer
intelligence
interest
internal
international
internet
interview
into
introduction
invalid
invoke
ipairs
ir
iran
iranian
iranica
iraq
ireland
iron
is
isbn
islam
islamabad
islamic
island
islands
isnotempty
iso
israel
israeli
issn
issue
issues
istanbul
it
italian
italic
italy
item
items
its
itself
iv
ix
j
ja
james
jan
january
japan
japanese
javascript
jazeera
je
jean
jeddah
jerusalem
jesus
jewish
jews
jhang
ji
jihad
john
johnson
join
joint
jonathan
jones
jong
joseph
journal
journey
jpeg
jpg
jr
js
jstor
july
jun
june
just
justice
k
ka
kand
kandi
karachi
karl
kashmir
kazakhstan
ke
keep
kenneth
kerala
key
kg
khalid
khan
khwaja
ki
killed
king
kingdom
kings
km
know
knowledge
known
ko
kolkata
kong
korea
korean
ku
kumar
kurdish
l
la
label
labels
labour
lahore
lake
lambda
land
lang
langcode
language
languages
lanka
large
largest
last
lat
late
later
lateral
latin
latitude
law
lawrence
laws
lb
lccn
le
lead
leader
leaders
leading
league
learning
least
leave
lebanon
lee
left
legacy
legal
legend
leiden
len
length
les
less
let
letter
letters
level
lewis
li
library
libya
libyan
license
life
light
like
limit
limited
line
linear
lines
link
linked
links
list
listed
lists
literary
literature
little
live
liverc
lives
living
ll
load
local
localdata
location
log
logo
london
long
longer
longitude
look
looking
loop
lord
los
losses
lost
lot
louis
love
low
lower
lp
lrcescapestr
lrchasstate
lrcicon
lrcparams
lt
ltd
lu
lua
m
ma
machine
macmillan
made
magazine
magnitude
main
mainsnak
maint
maintenance
major
majority
make
makes
making
mal
malaysia
male
malik
man
management
manageparams
manual
many
map
maps
mar
march
margin
maria
mark
market
marks
markup
marriage
martin
mary
mask
mass
massacre
master
match
matches
math
mathbf
matrix
matter
matthew
maver
max
may
me
meaning
means
media
mediawiki
medical
medicine
medieval
meeting
member
members
memorial
memory
men
menu
message
messages
met
meta
method
mexico
mi
michael
mid
middle
might
military
million
min
minister
ministry
minor
minority
minutes
mir
mirza
missing
mission
ml
mm
mobile
mod
mode
model
modern
module
modules
mohammad
mohammed
money
mongol
month
months
more
morebits
morris
moscow
mosque
most
mother
mount
mountain
mountains
move
movement
movements
movie
movies
mp
mr
ms
msg
mt
mtdna
mtv
mu
much
mughal
muhammad
multiple
mumbai
museum
music
muslim
muslims
must
mw
my
myrtaceae
n
na
nabla
name
named
names
namespace
namespaces
napoleon
nasa
nasal
nation
national
nationalism
nations
native
natural
nature
naval
navbar
navbox
navy
nd
ne
near
necessary
need
needed
needs
negative
nepal
net
netherlands
network
never
new
newinput
news
newspaper
next
ng
nh
ni
nic
nicholas
nicosia
night
nil
nineteenth
nkvd
nl
no
nobel
nocat
node
non
none
nor
normal
norman
north
northern
not
note
notes
nothing
notice
nov
november
now
nowrap
ns
nu
nuclear
null
num
number
numbers
numeric
o
oargs
obj
object
objects
oblast
occupation
oclc
oct
october
odi
of
off
office
official
offset
often
ogg
oil
ok
ol
old
oldid
olya
olympic
omega
on
once
onclick
one
online
only
onsuccess
op
open
opening
operation
operations
opposition
opt
option
optional
options
or
order
org
organization
oriental
origin
original
origins
os
other
others
otherwise
ottoman
our
out
output
outside
over
overview
own
oxford
p
pa
pacific
padding
page
pagename
pages
pagetype
pairs
pak
pakistan
pakistani
palace
palatal
palestine
palestinian
paper
papers
par
para
param
parameter
parameters
params
parent
parentnode
pargs
paris
park
parliament
parms
part
partial
parts
party
pas
pass
passed
passes
past
path
patrick
pattern
patterns
paul
pdf
pe
peace
penguin
people
peoples
per
percent
performance
period
persia
persian
person
personal
perspective
perspectives
peter
pframe
pg
ph
phase
phi
philip
philippines
philosophy
photo
photos
php
physical
physics
pi
picto
picture
pierre
pk
pkt
pl
place
places
plain
plan
planet
planning
play
player
please
plus
pm
pmc
pmid
png
poems
poet
poetry
point
points
poland
police
policy
polish
political
politics
poly
popular
population
port
portal
portrait
portuguese
pos
position
positive
possible
post
pound
pour
power
powers
pows
pp
pr
practice
pradesh
pre
precision
prefecture
preferred
prefix
prefixes
preload
present
presentation
president
press
pressure
preview
previewwindow
previous
price
primary
prime
prince
princeton
print
private
prize
pro
problem
problems
proceedings
process
produc
production
prof
professor
profile
program
progress
project
projects
pronunciation
prop
properties
property
prophet
props
protect
protection
protest
provide
provided
province
provinces
ps
psi
pt
public
publication
publications
published
publisher
publishers
publishing
punjab
punjabi
push
put
px
q
qaleh
qarah
qeshlaq
qid
quad
qualifier
qualifiers
quarterly
queen
query
question
questions
quote
quoted
quran
r
ra
race
radio
radius
railway
railways
raj
raja
rakh
ram
random
range
rank
rao
rape
rappaport
rate
rather
ravi
raw
rc
rd
re
read
readers
reading
ready
real
reason
reasons
received
recent
recognized
record
records
rect
red
redirect
ref
reference
references
reform
refugees
regex
regexp
region
regional
related
relations
relative
release
relief
religion
religions
religious
remove
renommagecategorie
repeat
replace
report
reported
reports
reprint
republic
request
require
required
requires
res
research
reserve
resolution
resources
response
rest
result
results
ret
retrieved
return
returned
returns
reuters
rev
review
revised
revision
revolution
rfc
ri
richard
right
rights
rise
river
rk
ro
road
robert
rock
role
roma
roman
romania
rome
root
rose
round
routledge
row
rows
rowspan
roy
royal
rtl
ru
rule
ruled
run
runs
russia
russian
s
sa
safe
safra
sahib
said
saint
same
samuel
san
sandbox
sanskrit
santa
sarah
sarmant
saudi
save
say
says
sc
scale
scheme
scholar
scholars
school
schools
science
sciences
scientific
scorecard
scored
scott
script
scripts
se
sea
seal
search
season
second
secret
secretary
section
security
see
seen
select
selected
selection
self
sent
sep
separate
separator
sepc
september
serbia
series
service
services
set
setattribute
sets
setting
settings
seven
several
sex
sexual
shah
share
sharma
she
sheikh
shi
shia
shift
ship
short
shortcut
should
show
showing
shown
shows
si
side
sidi
sigma
sign
significant
sikh
silver
similar
simon
simple
sin
since
sindh
sindhi
singh
single
sir
sister
site
sitelink
sites
situation
six
sixth
size
skin
sky
sl
sld
small
smith
snak
snaktype
so
social
socialist
societies
society
sofla
software
soldiers
solid
some
something
son
song
songs
sons
sort
soundfile
source
sources
south
southeast
southern
soviet
sp
space
spaces
spain
span
spanish
speaking
special
species
specific
specified
speech
spirit
split
sport
sports
spp
spring
springer
sqrt
square
sr
src
sri
ss
st
staff
standard
stanford
star
starring
start
state
statement
statements
states
static
station
statistical
statistics
status
step
stephen
steven
still
stone
stop
stories
story
str
strategic
strategy
street
string
strings
strip
strong
struck
structure
struggle
studies
study
style
styles
su
sub
subject
subjectspace
submit
subpage
substitute
success
such
sudan
suffix
sufi
sultan
sultanate
sum
summary
summer
sun
super
support
supported
sur
sure
surname
survey
svg
swami
sweden
swedish
switch
syed
symbol
symbols
syria
syrian
system
systems
t
ta
tab
table
tables
tag
tags
tail
take
taken
takes
talk
tamil
target
targs
tauris
taylor
tbl
td
tda
te
team
teams
technical
technology
tehran
telegraph
television
telugu
temp
temperature
template
templates
temple
ten
term
terms
territory
terror
terrorism
terrorist
test
testcases
testing
tests
texas
text
texts
th
thailand
thal
than
that
the
their
them
then
theory
there
these
thesis
theta
they
thierry
things
third
this
thomas
those
though
thought
thousand
thousands
three
through
thumb
thumbnail
thus
ti
tibet
ties
tilak
till
time
times
timesofindia
timestamp
tip
title
titles
tmp
to
toc
today
together
tom
tomb
tonumber
too
took
tool
tools
tooltip
tooltips
top
topic
toronto
tostring
total
towards
tower
town
tr
track
tracking
trade
tradition
traditional
train
training
trans
translate
translated
translation
translations
translator
transparent
travel
tre
treaty
tree
tribune
trim
troops
true
trust
try
ts
tt
tu
turkey
turkic
turkish
turks
tv
twentieth
twenty
two
type
typeof
types
u
ui
uk
ukraine
ukrainian
ul
un
und
undefined
under
une
unesco
unicode
union
unit
united
units
unity
universal
university
unknown
unless
unnamed
until
up
update
updated
upload
upon
upper
upright
ur
urdu
uri
url
us
usa
usage
use
used
user
users
uses
usgal
using
ussr
ustring
usually
utc
util
utilities
utype
uzbekistan
v
va
val
valid
valley
value
values
van
vanc
var
variable
various
ve
ved
verlag
version
vertical
vertreibung
very
vi
via
victims
video
view
vii
viii
village
villages
violence
visit
visual
voiced
voiceless
vol
volume
volumes
von
vote
vowel
vs
w
wa
wall
walter
want
war
warfare
warning
wars
was
washington
watch
water
way
wd
we
web
website
week
weekly
weight
welcome
well
were
west
western
wgserver
what
when
where
whether
which
while
white
who
whole
why
wickets
wide
width
wiki
wikibase
wikidata
wikilink
wikimedia
wikipage
wikipedia
wikis
wikitext
wiley
will
william
williams
wilson
win
window
winter
with
within
without
wmf
woman
women
won
word
words
work
working
works
world
would
wp
wpajax
wrap
writer
writing
written
www
x
xi
xii
xiv
xml
xmlhttp
xmlreq
xv
xvi
xx
y
ya
yale
ye
year
years
yemen
yes
yesno
yet
york
you
young
your
youtube
z
za
zealand
zero
zh
zionism
zyyy
{
|
}
~
£
§
©
«
¬
­
°
±
²
³
´
µ
¶
·
º
»
½
¾
¿
×
æ
ø
ı
ŋ
ƒ
ǃ
ɔ
ə
ɛ
ɪ
ʊ
ʰ
ʱ
ʲ
ʷ
ʻ
ʼ
ʾ
ʿ
ˀ
ˈ
ː
̀
́
̂
̃
̄
̆
̇
̈
̉
̊
̋
̌
̏
̑
̓
̔
̛
̝
̞
̠
̣
̥
̦
̧
̨
̪
̱
͂
͜
͡
α
β
γ
δ
ε
ελληνικου
η
θ
ι
ιστορι
και
κυ
λ
μ
ν
ο
π
ς
σ
σελ
τ
της
τομ
του
φ
ψ
ω
а
б
в
вои
г
д
е
з
и
история
к
л
м
н
на
о
п
р
россии
с
т
у
ф
х
шаблон
ю
я
і
ְ
ֲ
ִ
ֵ
ֶ
ַ
ָ
ֹ
ֺ
ּ
ׁ
א
ב
ד
ה
ו
ח
י
כ
ל
מ
נ
ע
ר
ש
ת
؁
؂
؉
،
؍
؎
ؐ
ؑ
ؒ
ؓ
ؔ
ؕ
؛
؟
ء
ءتک
ءسے
ءماں
ءکو
ءکے
ا
اء
اا
ااں
اایہی
اب
ابا
ابابیل
ابان
ابتدا
ابتداء
ابتداي
ابتر
ابجد
ابحاث
ابخازیہ
ابدال
ابدالی
ابدی
ابر
ابرار
ابراهیم
ابراھیم
ابراہیم
ابراہیمی
ابرہہ
ابلاغ
ابلیس
ابن
ابو
ابواب
ابوالحسن
ابوالخیر
ابوالسرایا
ابوالعباس
ابوالفتح
ابوالفرج
ابوالفضل
ابوالقاسم
ابوالکلام
ابوبک
ابوبکر
ابوجعفر
ابوحنیفہ
ابوداو
ابوذر
ابوسعید
ابوسفیان
ابوسلمہ
ابوطالب
ابوعبداللہ
ابوعبیدہ
ابوعلی
ابومسلم
ابوموسی
ابوہریرہ
ابھار
ابھر
ابھرتی
ابھردے
ابھرنے
ابھری
ابھریا
ابھرے
ابھنی
ابھی
ابہام
ابی
ابیب
ابیطالب
ات
اتابک
اتابکان
اتاترک
اتار
اتارا
اتارنے
اتارے
اتالیق
اتباع
اتحاد
اتحادی
اتحادیاں
اتر
اترا
اتراکھنڈ
اتردا
اتردے
اترنے
اترپردیش
اتری
اترے
اتسز
اتفاق
اتفاقا
اتفاقی
اتلا
اتلی
اتلے
اتم
اتنا
اتنی
اتنے
اتوار
اتوں
اتپتی
اتپن
اتھارتی
اتھارٹی
اتھرو
اتھوا
اتھوں
اتھے
اتہ
اتہاس
اتہاسک
اتہاسکار
اتہاسکاراں
اتہاسکاری
اتی
اتیلا
اتے
اثاثہ
اثاثے
اثاثےا
اثبات
اثر
اثرات
اثرانداز
اثرورسوخ
اثنا
اثناء
اثناعشری
اثیر
اج
اجارہ
اجازت
اجازہ
اجالا
اجاي
اجاگ
اجاگر
اجتماع
اجتماعات
اجتماعى
اجتماعی
اجتناب
اجتہاد
اجداد
اجر
اجرا
اجراء
اجرام
اجرت
اجزا
اجزاء
اجسام
اجل
اجلاس
اجلاساں
اجماع
اجمالی
اجمعین
اجمل
اجمیر
اجمیری
اجناس
اجنبی
اجوکی
اجوکے
اجڑ
اجکل
اجہیاں
اجیاے
اجیت
اجین
اجیہا
اجیہی
اجیہے
اجے
اح
احادیث
احاطہ
احاطے
احباب
احبار
احتجاج
احتجاجات
احتجاجی
احترام
احتساب
احتشام
احتمال
احتیاط
احد
احرار
احرام
احزاب
احساس
احساست
احسان
احسن
احمد
احمدا
احمدبن
احمدشاہ
احمدی
احمدیہ
احمر
احناف
احنف
احوال
احکا
احکام
احکامات
احکم
احیا
احیاء
اخ
اخبار
اخبارات
اخباراں
اخباری
اخباریاں
اختتام
اختتامی
اختر
اختراع
اختصار
اختلاط
اختلاف
اختلافات
اختلافی
اختیار
اختیارات
اختیاری
اخذ
اخراج
اخراجات
اخلاص
اخلاق
اخلاقی
اخلاقیات
اخوان
اخوت
اخوند
اخیر
اد
ادا
ادارت
ادارتی
ادارہ
اداریاں
ادارے
ادارےا
اداس
اداسی
اداي
اداکار
اداکاراواں
اداکاراں
اداکارہ
اداکاری
اداہرن
اداہرناں
ادب
ادبا
ادبی
ادبیات
ادراک
ادرنہ
ادریس
ادعا
ادل
ادلیب
ادن
ادنی
ادنیہ
ادوار
ادور
ادوں
ادویات
ادویہ
ادھ
ادھا
ادھار
ادھر
ادھم
ادھورا
ادھوری
ادھي
ادھی
ادھین
ادھیکار
ادھیکاری
ادھے
ادہم
ادی
ادیان
ادیب
ادیباں
ادیش
ادے
اذان
اذن
اذکار
اذیت
اذیتاں
ار
ارادت
ارادہ
ارادی
ارادیت
ارادے
ارادےا
اراضی
ارال
اراي
اراک
اراکان
اراکین
ارب
ارباب
ارباں
اربعہ
اربعین
اربلی
اربن
ارتباط
ارتداد
ارتقا
ارتقاء
ارتقاي
ارتکاب
ارتکاز
ارتھ
ارتھی
ارجمند
ارجن
ارجنٹاي
ارد
ارداس
اردبیل
اردبیلی
اردشیر
اردن
اردنی
اردو
اردوي
اردگرد
اردھ
اردیبہشت
ارسال
ارسطو
ارسلان
ارشاد
ارشد
ارض
ارضی
ارضیات
ارطبون
ارطغرل
ارغون
ارقم
ارل
ارم
ارمان
ارمنی
ارمیا
ارمینی
ارمینیا
ارنسٹ
ارو
ارون
اروناچل
اروند
ارکان
اری
اریٹیریا
ارے
از
ازاد
ازادی
ازالہ
ازاں
ازبک
ازبکاں
ازبکستان
ازد
ازدواج
ازدواجی
ازدی
ازسر
ازسرنو
ازل
ازلی
ازم
ازمیر
ازواج
ازٹیک
ازہر
اس
اساتذہ
اساتید
اساری
اساریا
اساس
اساسی
اساطیر
اساطیری
اسامہ
اسان
اسانی
اساں
اسباب
اسباق
است
استاد
استاداں
استادی
استاذ
استانبول
استبداد
استثنا
استثناء
استثنی
استجابت
استحصال
استحقاق
استحکا
استحکام
استدلال
استدلالی
استر
استرا
استراخان
استطاعت
استعارہ
استعارے
استعداد
استعف
استعفا
استعفی
استعمار
استعماری
استعماریت
استعمال
استغاثہ
استغفار
استفادہ
استقامت
استقبال
استقلال
استمبول
استناد
استنباط
استنبول
استو
استوا
استوار
استواي
استوں
استھان
استیصال
استیعاب
اسحاق
اسحق
اسد
اسدا
اسدی
اسدیاں
اسدے
اسراء
اسرار
اسراي
اسسٹنٹ
اسطراں
اسطرح
اسعد
اسفار
اسفند
اسقاط
اسلاف
اسلام
اسلاماي
اسلامى
اسلامک
اسلامی
اسلامیات
اسلامیہ
اسلحہ
اسلحے
اسلم
اسلوب
اسلي
اسم
اسما
اسماء
اسماعیل
اسماعیلی
اسماعیلیان
اسماعیلیاں
اسماعیلیہ
اسمان
اسماي
اسمبلی
اسمبلیاں
اسمتھ
اسمعیل
اسمعیلی
اسمگلنگ
اسناد
اسنو
اسنوں
اسنے
اسود
اسور
اسوقت
اسوچ
اسوہ
اسى
اسيں
اسٹار
اسٹاف
اسٹالن
اسٹاي
اسٹاپ
اسٹاک
اسٹراي
اسٹریلیا
اسٹریٹ
اسٹریٹجک
اسٹور
اسٹوری
اسٹون
اسٹونیا
اسٹونین
اسٹوپا
اسٹوڈیو
اسٹوڈیوز
اسٹڈی
اسٹڈیز
اسٹیبلشمنٹ
اسٹیج
اسٹیشن
اسٹیشناں
اسٹیفن
اسٹیل
اسٹین
اسٹینلے
اسٹینڈ
اسٹینڈرڈ
اسٹیو
اسٹیون
اسٹیٹ
اسٹیٹس
اسٹیڈیم
اسپاي
اسپتال
اسپتالاں
اسپرانتو
اسپن
اسپورٹس
اسپیس
اسپیشل
اسپین
اسپیي
اسپیکر
اسک
اسکالر
اسکالراں
اسکالرز
اسکالرشپ
اسکاو
اسکاي
اسکاٹ
اسکرپٹ
اسکرین
اسکندر
اسکندریہ
اسکو
اسکواي
اسکواڈ
اسکواڈرن
اسکور
اسکول
اسکولاں
اسکی
اسکیم
اسکینڈل
اسی
اسید
اسیر
اسیران
اسیراں
اسیری
اسیں
اسے
اش
اشارات
اشاراں
اشارہ
اشاریہ
اشارے
اشاعت
اشاعتاں
اشاعتی
اشاعرہ
اشبیلیہ
اشتباہ
اشتر
اشتراک
اشتراکی
اشتراکیت
اشتعال
اشتہار
اشتہارات
اشتہاری
اشتیاق
اشد
اشراف
اشرافیہ
اشرف
اشرفی
اشرفیاں
اشرفیہ
اشعار
اشعث
اشعری
اشفاق
اشلوک
اشنان
اشناک
اشوریہ
اشوک
اشوکا
اشک
اشکال
اشکنازی
اشیا
اشیاء
اشیاي
اصابہ
اصحاب
اصرار
اصطبل
اصطلاح
اصطلاحات
اصطلاحی
اصغر
اصفهانی
اصفہان
اصفہانی
اصل
اصلا
اصلاح
اصلاحات
اصلاحی
اصلی
اصلیت
اصناف
اصول
اصولاں
اصولی
اضافہ
اضافی
اضافیت
اضافے
اضطراب
اط
اطاعت
اطالوی
اطالویاں
اطالیہ
اطراف
اطروش
اطفال
اطلاع
اطلاعات
اطلاق
اطلس
اطمینان
اطوار
اطہار
اطہر
اظہار
اظہر
اع
اعادہ
اعانت
اعتبار
اعتدال
اعتراض
اعتراضات
اعتراف
اعتقاد
اعتقادات
اعتقادی
اعتماد
اعتمادی
اعتکاف
اعثم
اعجاز
اعداد
اعدادوشمار
اعراب
اعراف
اعزاز
اعزازات
اعزازی
اعشاریہ
اعضا
اعضاء
اعظم
اعظمی
اعل
اعلا
اعلام
اعلامیہ
اعلامیے
اعلان
اعلانات
اعلانیہ
اعلم
اعلی
اعمال
اعوان
اعیان
اعین
اغراض
اغوا
اف
افادیت
افتادہ
افتتاح
افتتاحی
افتخار
افراتفری
افراد
افرادی
افراسیاب
افراط
افروز
افریقا
افریقہ
افریقی
افریقیاں
افزا
افزاي
افزودگی
افسانوی
افسانہ
افسانے
افسانےا
افست
افسر
افسران
افسراں
افسردگی
افسردہ
افسوس
افسوسناک
افشار
افشین
افضل
افطار
افعال
افغان
افغاناں
افغانستان
افغانی
افغانیاں
افق
افقی
افلاطون
افندی
افواج
افواہ
افواہاں
افکار
افیون
افیي
اق
اقارب
اقامت
اقبال
اقبالیات
اقتباس
اقتباست
اقتدار
اقتصادی
اقتصادیات
اقدار
اقدام
اقدامات
اقدس
اقرار
اقساط
اقسام
اقصی
اقليتی
اقلیت
اقلیتاں
اقلیتی
اقلیم
اقوال
اقوام
اك
ال
الا
الاباما
الابرار
الاتحاد
الاثر
الاحادیث
الاحتجاج
الاحکا
الاحکم
الاخبار
الاخلاق
الاخوان
الادب
الاربعین
الارشاد
الارض
الازہر
الاستیعاب
الاسد
الاسرار
الاسلام
الاسلامی
الاسلامیہ
الاسلامیۃ
الاسماء
الاسود
الاسک
الاسکا
الاشراف
الاشرف
الاصابہ
الاصل
الاصول
الاعتدال
الاعتقاد
الاعظم
الاعلام
الاعلمی
الاعلی
الاعمال
الاعیان
الاقوال
الاقوامی
الامالی
الامام
الامامہ
الامامۃ
الامر
الامراء
الامم
الامین
الانبیاء
الاندلس
الانساب
الانصاری
الانوار
الاو
الاول
الاولی
الاولیاء
الاي
الاٹ
الاکبر
الایمان
الب
الباب
الباری
البانوی
البانی
البانیا
البانیاي
البانیہ
البتہ
البحار
البحر
البحرین
البخاری
البدایہ
البدایۃ
البر
البرز
البرٹ
البرٹا
البرکات
البرہان
البشر
البغدادی
البقرہ
البقیع
البلاغه
البلاغہ
البلاغۃ
البلد
البلدان
البم
البمز
البیان
البیت
البیرونی
الت
التاریخ
التاي
التبیان
التتمش
التجا
التحصیل
التراث
التریخ
التعارف
التفسیر
التمش
التنزیل
التواریخ
التوحید
التہذيب
التہذیب
الثانی
الثقلین
الجامع
الجامعۃ
الجبرا
الجبرے
الجراح
الجزاي
الجزیرہ
الجمل
الجنات
الجنان
الجھ
الجھن
الجیریا
الجیش
الح
الحاج
الحاد
الحارث
الحافظ
الحاق
الحال
الحان
الحاکم
الحج
الحجاج
الحجة
الحجہ
الحديث
الحدیث
الحدید
الحرام
الحرمین
الحسن
الحسنی
الحسين
الحسین
الحسینی
الحفاظ
الحق
الحقیقت
الحمد
الحمید
الحنفیہ
الحي
الحکم
الحکومت
الحکیم
الخ
الخالق
الخصال
الخط
الخطاب
الخلافہ
الخلفاء
الخواص
الخیر
الد
الدر
الدرجات
الدرر
الدمشقی
الدنیا
الدولة
الدولہ
الدين
الدین
الذریعہ
الذکر
الذھب
الذہب
الذہبی
الذی
الر
الرازی
الراي
الرجال
الرحم
الرحمان
الرحمن
الرحمہ
الرحیم
الرد
الرزاق
الرسالہ
الرسالۃ
الرسول
الرشید
الرضا
الرضی
الرقم
الرو
الرہتل
الریاض
الز
الزام
الزامات
الزبتھ
الزمان
الزماں
الزواي
الزہراء
الزیارات
الس
الساي
السلام
السلطان
السلطنت
السنة
السنن
السنہ
السنۃ
السيرة
السید
السیر
السیرة
السیرۃ
الش
الشاعر
الشافعی
الشام
الشان
الشراي
الشریعہ
الشریف
الشمس
الشيخ
الشہداء
الشیخ
الشیعة
الشیعه
الشیعہ
الشیعۃ
الص
الصادق
الصباح
الصحابہ
الصحابۃ
الصحیح
الصحیحین
الصدر
الصغیر
الصفا
الصلاۃ
الصمد
الصواعق
الط
الطاف
الطالب
الطالبین
الطالبیین
الطاي
الطبري
الطبری
الطبعة
الطبقات
الطوال
الطوسی
الع
العابدین
العارفین
العاص
العالم
العالمین
العاملی
العباد
العباس
العراقیہ
العرب
العربية
العربی
العربیہ
العرفان
العروۃ
العزت
العزیز
العصر
العظمی
العظیم
العقد
العقول
العقیدہ
العلم
العلما
العلماء
العلمیہ
العلمیۃ
العلوم
العلی
العمال
العمل
العنان
العین
العیون
الغ
الغابہ
الغدیر
الغرض
الغطا
الغطاء
الغفار
الغمہ
الغنی
الغیب
الغیبة
الغیبہ
الغیبۃ
الف
الفا
الفاظ
الفاي
الفت
الفتاوی
الفتح
الفتن
الفتوح
الفداء
الفرج
الفرق
الفرقان
الفرید
الفریڈ
الفضل
الفطر
الفطرت
الفقار
الفقہ
الفقہاء
الفقیہ
الفواي
الفکر
الفہرست
الفیل
الق
القاب
القابات
القادر
القادری
القاسم
القاعدہ
القاي
القدر
القدس
القدیر
القرا
القران
القرن
القسام
القضاۃ
القلوب
القوامی
القیس
الكبرى
الكتب
الل
اللسٹ
اللطیف
الله
اللو
اللہ
الم
الما
المال
المامون
الماي
الماگرو
المبارک
المتوفی
المتوکل
المثل
المجید
المحاسن
المحجوب
المحدثین
المختار
المختصر
المدارس
المدرستین
المدینہ
المذاہب
المراد
المرام
المرتضی
المزار
المساي
المستدرک
المسلمون
المسلمین
المشاي
المصابیح
المصری
المصطف
المصطفی
المصنف
المطلب
المظفر
المعارف
المعانی
المعتصم
المعجم
المعروف
المعظم
المغازي
المغازی
المفید
المقاصد
المقال
المقالات
المقدس
الملل
المللی
الملوک
الملوکی
الملک
المناقب
المناک
المنتصر
المنتظر
المنتظم
المنثور
المنذر
المنصور
المنکر
المهدي
المو
المواقف
الموت
المودۃ
الموسوی
المومنین
المکتبۃ
المہدی
المیزان
المیہ
الن
الناس
الناصر
النبلا
النبلاء
النبوية
النبوۃ
النبویہ
النبویۃ
النبی
النجاشی
النجف
النجوم
النحل
النسا
النساء
النسل
النشر
النصرہ
النعمان
النفس
النور
النکار
النہایہ
النہایۃ
النہر
النہرین
الهدی
الو
الواحد
الوارڈو
الواعظین
الوافی
الواقدي
الواقدی
الوثقی
الوجود
الوداع
الور
الوری
الوساي
الوطنی
الوفاء
الوقت
الولید
الوپ
الوہاب
الٹ
الٹا
الٹرا
الٹنے
الٹی
الٹے
الپ
الپتگین
الپس
الکافی
الکامل
الکاہل
الکبری
الکبیر
الکتاب
الکتب
الکرام
الکریم
الکلام
الکلینی
الکمال
الکندی
الگ
الہ
الہادی
الہام
الہامی
الہدی
الہند
الہى
الہی
الہیات
الہیثم
الی
الیاس
الیانا
الیعقوبی
الیقین
الینواي
الینوے
الیون
الیکسی
الیکشن
الیکٹران
الیکٹرانک
الیکٹرانکس
الیکٹرو
الیکٹرون
الیکٹرک
الیکٹریکل
الیگزنڈر
الیگزینڈر
الیہ
الے
ام
اما
امارات
امارت
امارتاں
امالی
امام
اماماں
امامت
امامہ
امامی
امامیہ
امان
امانت
اماں
امب
امبر
امبرسر
امبیڈکر
امبیکاپور
امت
امتحان
امتحانات
امتزاج
امتیاز
امتیازات
امتیازی
امجد
امداد
امدادی
امر
امرا
امراء
امراض
امراو
امراي
امرت
امرتا
امرتسر
امرتسری
امرجیت
امرداس
امروز
امروہوی
امروہہ
امریدیاں
امریندر
امریک
امریکا
امریکن
امریکہ
امریکی
امریکین
امریکیو
امل
املا
املاک
املہ
امن
امنگاں
امنی
اموات
امواج
اموال
امور
امونیا
اموی
امویاں
امویہ
امپاي
امپیریل
امکان
امکانات
امکانی
امی
امیتابھ
امید
امیداں
امیدوار
امیدواراں
امیر
امیرالمو
امیرالمومنین
امیراں
امیری
امین
امینی
امیگریشن
امیہ
ان
انا
اناج
اناجیل
انار
انارکلی
اناطولی
اناطولیہ
انال
اناں
انبار
انبالہ
انبوہ
انبیا
انبیاء
انت
انتباہ
انتخاب
انتخابات
انتخابی
انتخاگل
انتر
انتساب
انتشار
انتشارات
انتظار
انتظام
انتظامات
انتظامی
انتظامیہ
انتفاضہ
انتقال
انتقام
انتقامی
انتم
انتونیو
انتھونی
انتھک
انتہا
انتہاي
انج
انجام
انجان
انجم
انجمن
انجمناں
انجن
انجناں
انجنہاں
انجنیي
انجھ
انجیر
انجیل
انجیني
انجینیي
انحراف
انحصار
انحطاط
انخلا
انخلاء
اند
اندا
انداز
اندازا
اندازہ
اندازی
اندازے
اندازےا
اندر
اندرا
اندراج
اندراجات
اندرلے
اندرون
اندرونی
اندروں
اندلس
اندلسی
اندور
اندوز
اندولن
اندھیرا
اندھیرے
اندھے
اندیجان
اندیش
اندیشہ
اندیشی
اندے
انرجی
انس
انساب
انسان
انساناں
انسانی
انسانیت
انساي
انسداد
انسٹی
انسٹیٹیوٹ
انسٹیچیوٹ
انسپکٹر
انسپیکٹر
انش
انشا
انشاء
انشاي
انشورنس
انشک
انصار
انصاری
انصاف
انصافی
انضمام
انطاکیہ
انعام
انعامات
انعقاد
انفارمیشن
انفال
انفرادی
انفرادیت
انفراسٹرکچر
انفنٹری
انفو
انفیکشن
انقرہ
انقلاب
انقلابات
انقلابی
انقلابیاں
انمول
انناس
اننت
انند
انندپور
اننگ
اننگز
اننے
انهاں
انو
انوار
انواع
انوبھو
انور
انوسار
انومان
انوکھا
انوکھی
انوکی
انویاہیا
انٹارکٹکا
انٹر
انٹرفیس
انٹرمیڈیٹ
انٹرنیشنل
انٹرنیٹ
انٹرویو
انٹرویوز
انٹرٹینمنٹ
انٹرپراي
انٹلیجنس
انٹیلی
انٹیلیجنس
انچ
انچارج
انچیف
انڈر
انڈرگریجویٹ
انڈس
انڈسٹری
انڈسٹریز
انڈسٹریل
انڈمان
انڈو
انڈونیشی
انڈونیشیا
انڈیا
انڈیانا
انڈیز
انڈیمان
انڈین
انڈیکس
انڈے
انک
انکا
انکار
انکسار
انکشاف
انکشافات
انکم
انکو
انکواي
انکی
انگ
انگاں
انگد
انگریز
انگریزاں
انگریزوں
انگریزی
انگلستان
انگلش
انگلی
انگلیاں
انگلینڈ
انگور
انگورہ
انگوش
انگوشیٹیا
انگولا
انگوٹھی
انگیز
انگیزی
انھا
انھاننوں
انھاننے
انھاں
انھوں
انھی
انھیں
انھے
انہ
انہاں
انہدام
انہوں
انہوںنے
انہيں
انہی
انہیں
انی
انیتا
انیس
انیل
انیمیشن
انیک
انیکاں
انیہويں
انے
اه
اهل
او
اوا
اواخر
اوارڈ
اواز
اواي
اوباما
اوبامہ
اوبراي
اوبلاست
اوتار
اوتھ
اوتھوں
اوتھے
اوج
اوجھل
اودا
اوداں
اودو
اودوں
اودھ
اودھم
اودھی
اودھے
اودی
اودے
اور
اورا
اوراس
اوراق
اورال
اوران
اورانہاں
اوراپنے
اوراک
اورجا
اورحضرت
اوردا
اورفیر
اورنج
اورنگ
اورنگزیب
اوروہ
اورینٹل
اوریي
اوریگون
اوریہ
اوز
اوزار
اوزاراں
اوزبیک
اوزون
اوس
اوستا
اوستھا
اوستھاواں
اوسط
اوسطا
اوسلو
اوسی
اوسیتیا
اوسیٹیا
اوسے
اوشیانا
اوصاف
اوغلو
اوغوز
اوفا
اوقات
اوقاف
اوقیانوس
اوقیانوسیہ
اول
اولا
اولاد
اولاداں
اولمپک
اولمپکس
اولو
اولڈ
اولی
اولیا
اولیاء
اولیاي
اولین
اوم
اومان
اون
اونا
اوناں
اونس
اونوں
اونٹاریو
اونٹنی
اونٹھ
اونٹھاں
اونچاي
اونہاں
اونہوں
اونی
اونیں
اونے
اوور
اوورز
اوول
اوون
اوي
اوٹ
اوٹاوا
اوٹو
اوٹھ
اوپر
اوپری
اوپریٹر
اوپن
اوپننگ
اوپیرا
اوچ
اوڈر
اوڈیشا
اوڈیشہ
اوڑیسہ
اوک
اوکاڑا
اوکاڑہ
اوکروگ
اوکسفرڈ
اوکلاہوما
اوکلینڈ
اوکھا
اوکھے
اوکیناوا
اوہ
اوہاي
اوہدا
اوہدی
اوہدیاں
اوہدے
اوہناں
اوہنوں
اوہنے
اوہو
اوہی
اویس
اویغور
اویلر
اویں
اي
ايس
ايم
اين
ايک
اٹ
اٹارنی
اٹاری
اٹاریوالا
اٹاں
اٹل
اٹلانٹا
اٹلانٹک
اٹلس
اٹلی
اٹک
اٹھ
اٹھا
اٹھارواں
اٹھارويں
اٹھارویں
اٹھارہ
اٹھارہويں
اٹھانا
اٹھاندا
اٹھاندے
اٹھانے
اٹھاو
اٹھاواں
اٹھاي
اٹھایا
اٹھدا
اٹھدے
اٹھنے
اٹھواں
اٹھويں
اٹھویں
اٹھی
اٹھیا
اٹھے
اٹیک
اپ
اپارٹمنٹ
اپج
اپر
اپرلے
اپرنت
اپروکت
اپریل
اپسرا
اپلاي
اپنا
اپنانا
اپنانے
اپناو
اپناي
اپنایا
اپنشد
اپنى
اپنی
اپنیاں
اپنے
اپواک
اپوزیشن
اپڑ
اپڑیا
اپیل
اپݨی
اپݨے
اچ
اچا
اچار
اچارن
اچاریہ
اچانک
اچاي
اچھا
اچھاي
اچھوت
اچھوتاں
اچھی
اچھے
اچی
اچیاں
اچے
اڈ
اڈا
اڈاری
اڈان
اڈاں
اڈاہو
اڈدی
اڈن
اڈنا
اڈوانی
اڈہ
اڈیشن
اڈیٹر
اڈیٹنگ
اڈیک
اڈیہ
اڈے
اڈےا
اڑ
اڑا
اڑان
اڑانے
اڑاي
اڑایا
اڑنے
اڑھاي
اڑیسہ
اک
اکا
اکابر
اکابرین
اکادمک
اکادمی
اکار
اکال
اکالی
اکانومی
اکانگی
اکاو
اکاي
اکبر
اکبرا
اکبری
اکتر
اکتساب
اکتفا
اکتوبر
اکثر
اکثریت
اکرام
اکرم
اکسانے
اکسایا
اکشے
اکلا
اکلے
اکمل
اکنامک
اکنامکس
اکو
اکي
اکٹھ
اکٹھا
اکٹھی
اکٹھیاں
اکٹھے
اکھ
اکھان
اکھاناں
اکھاڑ
اکھاں
اکھر
اکھراں
اکھواو
اکھواي
اکھٹا
اکھڑ
اکھیاں
اکھیں
اکیس
اکیلا
اکیلے
اکیوي
اکیڈمک
اکیڈمی
اکیڈیمی
اکیہويں
اگ
اگامہ
اگانھ
اگاي
اگایا
اگر
اگرا
اگرتم
اگروال
اگرچہ
اگست
اگستیہ
اگلا
اگلی
اگلے
اگمان
اگن
اگنی
اگواي
اگوں
اگھے
اگے
اں
اںو
اھل
اہ
اہتمام
اہداف
اہرام
اہل
اہلبیت
اہلسنت
اہلکار
اہلکاراں
اہلیا
اہلیت
اہلیہ
اہم
اہمیت
اہنا
اہناں
اہواز
ای
ایا
ایاز
ایام
ایاماں
ایامی
ایان
ایبسری
ایبٹ
ایبک
ایبیریا
ایتھ
ایتھلیٹکس
ایتھنز
ایتھنول
ایتھوپیا
ایتھوں
ایتھے
ایثار
ایج
ایجاد
ایجادات
ایجنسی
ایجنسیاں
ایجنٹ
ایجنٹاں
ایجنڈے
ایجوکیشن
ایجوکیشنل
ایجی
ایجیي
ایدا
ایداں
ایدھی
ایدھے
ایدی
ایدیاں
ایدے
ایذا
ایر
ایران
ایرانی
ایرانیاں
ایرو
ایرک
ایریا
ایریزونا
ایزدی
ایس
ایسا
ایسوسی
ایسٹ
ایسٹر
ایسٹرن
ایسٹونیا
ایسڈ
ایسی
ایسے
ایشاي
ایشز
ایشن
ایشور
ایشیا
ایشیاء
ایشیاي
ایشین
ایشیي
ایضا
ایغور
ایغوراں
ایف
ایل
ایلام
ایلبرٹا
ایلبم
ایلس
ایلن
ایلومینیم
ایلچی
ایلک
ایلی
ایلیا
ایلیٹ
ایم
ایما
ایمان
ایمانداری
ایمانوي
ایمانی
ایمبولینس
ایمرجنسی
ایمسٹرڈیم
ایملی
ایمن
ایمنسٹی
ایمي
ایمپاي
ایمی
ایمیزن
ایمیزون
این
اینا
ایناں
اینج
اینجلس
ایندھن
اینرجی
اینرون
اینوں
اینٹاں
اینٹی
اینٹینٹ
اینٹینٹی
اینڈ
اینڈرسن
اینڈریو
اینڈریوز
اینڈی
اینکر
اینگل
اینگلز
اینگلو
اینہاں
اینی
اینیلیا
اینیمیٹڈ
اینے
ایو
ایوا
ایوارڈ
ایوارڈز
ایوان
ایواناں
ایوب
ایوبی
ایودھیا
ایورسٹ
ایون
ایونٹ
ایونیو
ایويں
ایوں
ایوی
ایویں
ایي
ایٹ
ایٹم
ایٹماں
ایٹمی
ایپ
ایپل
ایپلی
ایپی
ایچ
ایڈ
ایڈاہو
ایڈجسٹ
ایڈریاٹک
ایڈز
ایڈم
ایڈمرل
ایڈمز
ایڈمنسٹریشن
ایڈمنسٹریٹر
ایڈمنڈ
ایڈن
ایڈوانس
ایڈوانسڈ
ایڈواي
ایڈورڈ
ایڈولف
ایڈون
ایڈووکیٹ
ایڈگر
ایڈی
ایڈیسن
ایڈیشن
ایڈیلیڈ
ایڈیٹر
ایک
ایکتا
ایکس
ایکسپریس
ایکسپلورر
ایکسپورٹ
ایکسچینج
ایکشن
ایکو
ایکواڈور
ایکومینیکل
ایکٹ
ایکٹر
ایکڑ
ایگزیکٹو
ایگزیکٹیو
ایگوانے
ایں
ایہ
ایہدا
ایہدی
ایہدیاں
ایہدے
ایہناں
ایہنوں
ایہو
ایہہ
ایہی
اے
اےایل
اےکڑ
ب
با
باء
باا
بااثر
بااختیار
بااں
باب
بابا
باباي
بابت
بابر
بابری
بابل
بابلی
بابو
بابویه
بابویہ
بابک
بابی
بابے
بات
باتاں
باتو
باتوں
باتیں
باج
باجوں
باجگزار
باجی
باخبر
باختر
باد
بادام
بادشاہ
بادشاہاں
بادشاہت
بادشاہتاں
بادشاہی
بادل
بادلاں
بادنورتمبرگ
بادکاراں
بادکاری
بادی
بادیات
بادیاں
بار
بارات
باراک
باراں
باربرا
باربروسا
باربٹ
بارزانی
بارسلونا
بارسیلونا
بارش
بارشاں
بارلے
بارود
بارودی
بارڈر
بارک
بارکزي
بارگاہ
بارہ
بارہويں
بارہویں
بارہیا
باری
باریک
بارے
باز
بازار
بازاراں
بازاری
بازاں
بازدید
بازنطیم
بازنطینی
بازنطینیاں
بازو
بازوواں
بازگشت
بازی
بازیاب
بازیابی
بازیافت
باس
باسفورس
باسو
باسکٹ
باسکی
باسی
باسیاں
باش
باشد
باشعور
باشندگان
باشندہ
باشندے
باشندےا
باشکیر
باشی
باصلاحیت
باضابطہ
باطل
باطن
باطنی
باطنیہ
باعث
باعزت
باغ
باغات
باغاں
باغبانی
باغی
باغیاں
باقاعدگی
باقاعدہ
باقر
باقی
باقیات
بال
بالا
بالاتر
بالاجی
بالاخر
بالادستی
بالاي
بالاکوٹ
بالاں
بالترتیب
بالخصوص
بالر
بالشویک
بالشویکاں
بالعموم
بالغ
بالغاں
باللہ
بالمعروف
بالمقابل
بالن
بالواسطہ
بالٹک
بالکل
بالی
بالینی
بالیوڈ
بام
بامر
بامیان
بان
بانجھ
باندر
باندراں
باندھے
باندی
بانس
بانو
بانڈ
بانگ
بانی
بانیان
بانیاں
بانے
باو
باوا
باواں
باوجود
باور
باورچی
باویریا
باي
باپ
باپو
باڈی
باڑ
باڑہ
باڑی
باک
باکس
باکسر
باکسنگ
باکمال
باکو
باگ
باں
باہ
باہجوں
باہر
باہرلے
باہرلےجوڑ
باہروں
باہری
باہلک
باہلی
باہمی
باہو
باہیا
بایاں
بایزید
ببر
بت
بتا
بتاندے
بتاو
بتاواں
بتاي
بتاں
بتایا
بتدریج
بتریخ
بتی
بتیاں
بتیت
بج
بجا
بجانب
بجاندے
بجانے
بجاي
بجاے
بجبج
بجز
بجلي
بجلی
بجنور
بجنوری
بجٹ
بجھ
بجھا
بجھارتاں
بجھانے
بجیکٹ
بجے
بحار
بحارالانوار
بحال
بحالی
بحث
بحثاں
بحر
بحرالعلوم
بحرالکاہل
بحران
بحراناں
بحرانی
بحری
بحرین
بحرینی
بحریہ
بحفاظت
بحق
بحوالہ
بحیثیت
بحیرہ
بخار
بخارا
بخارات
بخارسٹ
بخاری
بخت
بختیار
بختیاری
بخش
بخشا
بخشش
بخشنے
بخشی
بخوبی
بخود
بخوشی
بد
بداء
بدامنی
بداي
بدایاں
بدایونی
بدبو
بدتر
بدترین
بدحالی
بدخشان
بدخشاں
بدر
بدرالدین
بدرجہ
بدری
بدست
بدستور
بدسلوکی
بدعات
بدعت
بدعنوان
بدعنوانی
بدقسمتی
بدل
بدلا
بدلاو
بدلاں
بدلدا
بدلدی
بدلدے
بدلن
بدلنا
بدلنے
بدلو
بدلہ
بدلی
بدلیا
بدلے
بدن
بدنام
بدنامی
بدو
بدوز
بدوزاں
بدوش
بدوشاں
بدولت
بدون
بدوی
بدکاری
بدگمانی
بدھ
بدھا
بدھسٹ
بدھو
بدھی
بدی
بدیسی
بدیع
بدیل
بدین
بذات
بذریعہ
بر
برا
برابر
برابری
برات
براجمان
برادر
برادران
برادرز
برادری
برادریاں
برار
برازیل
براستہ
براعظم
براعظماں
براعظمی
برامکہ
برانچ
برانچاں
برانڈ
براو
براي
براڈ
براڈکاسٹ
براڈکاسٹنگ
براڑ
براں
براہ
براہمن
براہمی
براہیم
برای
برباد
بربادی
بربر
بربری
بربریت
برتانت
برتاو
برتر
برتری
برتن
برتناں
برتی
برج
برجاں
برجستہ
برجی
برحق
برخاست
برخاستگی
برخلاف
برد
بردا
بردار
برداری
برداشت
بردہ
بررسی
برزخ
برس
برسا
برسات
برساتی
برساں
برسر
برسلز
برسی
برش
برصغیر
برطانوی
برطانویاں
برطانیا
برطانیہ
برطرف
برطرفی
برعکس
برف
برفانی
برفیلے
برق
برقرار
برقی
برلن
برما
برمن
برمنگھم
برمک
برمکی
برمی
برن
برنارڈ
برنالہ
برنی
برو
بروجردی
بروز
بروس
بروصہ
بروقت
بروناي
بروي
بروک
برٹش
برٹین
برپا
برڈ
برک
برکات
برکت
برکلے
برکینا
برگ
برگر
برگزیدہ
برگیڈ
برگیڈیي
برہان
برہم
برہما
برہمن
برہمناں
برہمنی
برہمو
برہنہ
بری
بریانی
برید
بریدہ
بریری
بریریاں
بریسٹ
بریلوی
بریلی
برین
بریٹن
بریٹیش
بریڈ
بریک
بریگیڈ
بریگیڈیي
برے
بزدلی
بزرور
بزرویٹری
بزرگ
بزرگان
بزرگاں
بزرگوار
بزرگی
بزم
بزنس
بزور
بس
بسا
بساي
بساں
بسایا
بسبب
بست
بستان
بستر
بستہ
بستی
بستیاں
بستیوادی
بسر
بسم
بسمارک
بسمل
بسنت
بسنتی
بسنے
بسی
بسے
بش
بشار
بشاراں
بشارت
بشانہ
بشر
بشرطیکہ
بشری
بشریات
بشمول
بشپ
بشیر
بصارت
بصاي
بصرہ
بصری
بصورت
بصیر
بصیرت
بطخ
بطخاں
بطریق
بطلیموس
بطن
بطور
بطوطہ
بظاہر
بعث
بعثت
بعد
بعدا
بعدازاں
بعض
بعنوان
بعید
بعینہ
بغاوت
بغاوتاں
بغاوتیاں
بغداد
بغدادی
بغرا
بغض
بغل
بغیر
بفر
بقا
بقاء
بقاي
بقایا
بقرہ
بقلم
بقول
بقیع
بقیہ
بكر
بل
بلا
بلاد
بلاذری
بلاشبہ
بلاغت
بلاغی
بلال
بلانے
بلاو
بلاواسطہ
بلاول
بلاي
بلايا
بلاک
بلاکس
بلاگ
بلاں
بلایا
بلب
بلبل
بلبن
بلتستان
بلحاظ
بلخ
بلخی
بلد
بلدیات
بلدیو
بلدیہ
بلرام
بلز
بلغار
بلغاری
بلغاریاي
بلغاریاں
بلغاریہ
بلغراد
بلقان
بلقیس
بلند
بلندی
بلندیاں
بلو
بلوا
بلواي
بلوایا
بلور
بلوغ
بلوغت
بلوم
بلومبرگ
بلونت
بلوچ
بلوچاں
بلوچستان
بلوچی
بلچ
بلڈ
بلڈنگ
بلکل
بلکہ
بلگرامی
بلھے
بلی
بلیا
بلیاں
بلیایا
بلیغ
بلین
بلیو
بلیي
بلیڈ
بلیک
بلے
بم
بماں
بمب
بمبار
بمباراں
بمباری
بمبي
بمبے
بمشکل
بمطابق
بمعنی
بمقابلہ
بمقام
بمن
بموجب
بن
بنا
بناء
بنات
بنادتا
بنارس
بنارسی
بنالیا
بنام
بنان
بنانا
بناندا
بناندی
بناندے
بنانے
بناو
بناواں
بناون
بناوٹ
بناي
بناپر
بناکر
بناکے
بناں
بنایا
بنایاں
بناے
بنت
بنتر
بنتی
بنجر
بند
بندا
بندر
بندرگاہ
بندرگاہاں
بندش
بندو
بندوبست
بندوق
بندوقاں
بندگان
بندگی
بندھ
بندھن
بندھے
بندہ
بندی
بندیاں
بندے
بندےا
بنرجی
بنسی
بنن
بننا
بننے
بنو
بنوا
بنوامیہ
بنواي
بنوایا
بنوری
بنوعباس
بنوں
بني
بنک
بنکاک
بنکر
بنگ
بنگال
بنگالہ
بنگالی
بنگالیاں
بنگالے
بنگلا
بنگلور
بنگلہ
بنگلے
بنھ
بنھاں
بنھن
بنھی
بنھیا
بنی
بنیا
بنیاد
بنیاداں
بنیادی
بنیامین
بنیاں
بنے
به
بهی
بو
بوا
بواي
بوبی
بوت
بوتا
بوتل
بوتے
بوجا
بوجھ
بود
بودریار
بودھ
بودھی
بور
بورا
بورالا
بوربن
بورس
بورن
بورنیو
بورو
بورڈ
بورڈن
بورڈنگ
بورژوا
بورژوازی
بوری
بوریوالہ
بوس
بوستان
بوسنیا
بوسنیاي
بوسون
بوسٹن
بوسہ
بوسیدہ
بوشہر
بوقت
بول
بولا
بولان
بولاں
بولدا
بولدی
بولدے
بولر
بولن
بولنا
بولنگ
بولنے
بولو
بولڈ
بولی
بولیا
بولیاں
بولیویا
بولے
بوم
بون
بونا
بوناپارٹ
بونڈ
بونگو
بونے
بوي
بوٹ
بوٹا
بوٹسوانا
بوٹی
بوٹیاں
بوٹے
بوڈا
بوڑھا
بوڑھاں
بوڑھی
بوک
بوہاری
بوہت
بوہتا
بوہتی
بوہتے
بوہرہ
بوہیمیا
بویراحمد
بویہ
بي
بيان
بيانات
بيروت
بين
بٹ
بٹالین
بٹالیناں
بٹلر
بٹن
بٹھا
بٹھایا
بٹھنڈہ
بٹی
بپا
بپار
بپاش
بپاشی
بپتسمہ
بچ
بچا
بچاء
بچان
بچانا
بچانے
بچاو
بچاي
بچایا
بچت
بچن
بچنا
بچنے
بچوں
بچپن
بچھا
بچھاي
بچہ
بچی
بچیا
بچیاں
بچے
بچےا
بڈھا
بڈھے
بڑ
بڑا
بڑھ
بڑھا
بڑھانا
بڑھاندے
بڑھاوا
بڑھاي
بڑھاپے
بڑھاں
بڑھدا
بڑھدے
بڑھی
بڑی
بڑے
بک
بکتر
بکثرت
بکر
بکرم
بکرمی
بکری
بکریاں
بکرے
بکس
بکسر
بکھر
بکھری
بکھرے
بکھیر
بگ
بگاڑ
بگلا
بگڑ
بگڑی
بگھیل
بھ
بھا
بھاجپا
بھار
بھارت
بھارتی
بھارتیاں
بھارتیہ
بھاری
بھاشا
بھاشاي
بھاشن
بھاف
بھال
بھانت
بھانجے
بھانويں
بھاو
بھاونا
بھاوناواں
بھاویں
بھاي
بھاٹی
بھاٹیا
بھاپ
بھاکھڑا
بھاگ
بھاگنا
بھاگنے
بھاگو
بھاگوت
بھت
بھتیجا
بھتیجے
بھج
بھجدے
بھجن
بھجوا
بھجواي
بھجوایا
بھجیا
بھجے
بھر
بھرا
بھراواں
بھرت
بھرتی
بھرجاي
بھردے
بھرفتار
بھرم
بھرن
بھرنا
بھرنے
بھروسا
بھروسہ
بھروسے
بھرپور
بھری
بھریا
بھرے
بھل
بھلا
بھلاي
بھلی
بھلیکھا
بھلے
بھن
بھنڈار
بھنگ
بھنگڑا
بھنگی
بھو
بھوانی
بھوت
بھوتک
بھوتکی
بھوج
بھوجپوری
بھورا
بھوری
بھورے
بھوسلے
بھوشن
بھول
بھولا
بھولے
بھومکا
بھومی
بھون
بھوي
بھوٹان
بھوپال
بھوکے
بھى
بھي
بھٹ
بھٹاي
بھٹو
بھٹہ
بھٹی
بھٹیاں
بھپندر
بھڑک
بھڑکا
بھڑکانے
بھکتی
بھکر
بھکشو
بھکشوواں
بھکھ
بھگ
بھگا
بھگت
بھگتاں
بھگتی
بھگوان
بھگوت
بھی
بھیانک
بھیج
بھیجا
بھیجاں
بھیجن
بھیجنا
بھیجنے
بھیجی
بھیجیا
بھیجے
بھید
بھیرہ
بھیس
بھیل
بھیم
بھین
بھیناں
بھینس
بھینٹ
بھیٹ
بھیڑ
بھیڑاں
بھیڑیا
بھیک
بھے
بہ
بہا
بہاء
بہادر
بہادراں
بہادرشاہ
بہادری
بہار
بہاری
بہاماس
بہانہ
بہانے
بہاو
بہاول
بہاولنگر
بہاولپور
بہاي
بہبود
بہبہانی
بہت
بہتا
بہتات
بہتر
بہتری
بہترین
بہتی
بہتے
بہجت
بہر
بہرام
بہراي
بہرحال
بہرہ
بہزاد
بہشت
بہشتی
بہلول
بہم
بہمن
بہمنی
بہن
بہناں
بہندی
بہندے
بہنوي
بہنے
بہو
بہوں
بہہ
بی
بیا
بیابان
بیاس
بیان
بیانات
بیانی
بیانیہ
بیاں
بیاہ
بیبرس
بیبی
بیت
بیتی
بیج
بیجا
بیجاپور
بیجنگ
بیجی
بید
بیدار
بیداری
بیدر
بیدی
بیر
بیراج
بیراگی
بیرسٹر
بیرل
بیرم
بیرن
بیرنگ
بیروت
بیرون
بیرونی
بیرکاں
بیری
بیریا
بیرین
بیزار
بیزاری
بیزانس
بیس
بیسارابیا
بیسارابیہ
بیسس
بیسن
بیسٹ
بیسڈ
بیسک
بیش
بیشتر
بیشک
بیشی
بیضاوی
بیضوی
بیع
بیعت
بیف
بیل
بیلا
بیلاروس
بیلاروسی
بیلاں
بیلجي
بیلجیم
بیلجیي
بیلسٹک
بیلنس
بیلٹ
بیلی
بیلے
بیم
بیمار
بیماری
بیماریاں
بین
بینا
بیناي
بینتی
بینر
بینزین
بینظیر
بینٹروپ
بینڈ
بینک
بینکاری
بینکاک
بینکاں
بینکر
بینکنگ
بینگ
بینی
بیواہ
بیورو
بیوروکریسی
بیوقوف
بیونس
بیوٹی
بیوہ
بیوی
بیویاں
بیي
بیٹ
بیٹا
بیٹری
بیٹریاں
بیٹن
بیٹنگ
بیٹھ
بیٹھا
بیٹھدا
بیٹھدے
بیٹھن
بیٹھنا
بیٹھنے
بیٹھک
بیٹھی
بیٹھیا
بیٹھے
بیٹی
بیٹیاں
بیٹے
بیٹےا
بیچ
بیچلر
بیچنے
بیڈ
بیڈمنٹن
بیڑا
بیڑہ
بیڑیاں
بیڑے
بیک
بیکار
بیکانیر
بیکر
بیکن
بیکٹیریا
بیکہم
بیگ
بیگم
بیگمات
بیگی
بیہقی
بییں
بے
بݨ
بݨاي
ة
ت
تا
تاب
تابع
تابعی
تابعین
تابوت
تابکار
تابکاری
تاتار
تاتاراں
تاتارستان
تاتاری
تاتاریاں
تاثر
تاثرات
تاثیر
تاج
تاجدار
تاجر
تاجراں
تاجپوشی
تاجک
تاجکستان
تاحال
تاحیات
تاخت
تاخیر
تار
تارا
تاراج
تاراں
تارم
تاريخ
تارڑ
تارک
تارکین
تارہ
تاریاں
تاریخ
تاریخاں
تاریخچہ
تاریخی
تاریدی
تاریک
تاریکی
تارے
تازگی
تازہ
تاسیس
تاسیساں
تاش
تاشقند
تال
تالاب
تاليف
تالپور
تالیف
تالیفات
تامل
تاملناڈو
تان
تانبا
تانبے
تاندلیانوالہ
تانگ
تانے
تاو
تاوان
تاویل
تاي
تاپ
تاپمان
تاک
تاکہ
تاکید
تاگہ
تاں
تاہم
تایا
تب
تبادلاں
تبادلہ
تبادلے
تباہ
تباہی
تبت
تبتی
تبدیل
تبدیلی
تبدیلیاں
تبرک
تبریز
تبریزی
تبسم
تبصرہ
تبصرے
تبصرےا
تبع
تبلیسی
تبلیغ
تبلیغات
تبلیغی
تبوک
تبھی
تت
تتاں
تتر
تتھ
تثلیث
تجاذب
تجاذبی
تجارت
تجارتی
تجاوز
تجاویز
تجدید
تجربا
تجربات
تجربہ
تجربے
تجرید
تجزایہ
تجزیا
تجزیہ
تجزیے
تجسس
تجوید
تجویز
تجھ
تجھے
تجہیز
تحاي
تحت
تحرک
تحریر
تحریراں
تحریری
تحریف
تحریم
تحریک
تحریکاں
تحسین
تحصیل
تحصیلاں
تحف
تحفظ
تحفظات
تحفہ
تحفۃ
تحفے
تحقيق
تحقیر
تحقیق
تحقیقا
تحقیقات
تحقیقی
تحلیل
تحلیلات
تحلیلی
تحمل
تحویل
تخت
تختہ
تختی
تختیاں
تختے
تخریب
تخریج
تخصصی
تخفیف
تخلص
تخلیق
تخلیقات
تخلیقی
تخمینہ
تخمینے
تخیل
تد
تدابیر
تدارک
تدبر
تدبیر
تدبیراں
تدریس
تدریسی
تدفین
تدوین
تذلیل
تذکرة
تذکرہ
تذکرۃ
تذکرے
تر
ترا
تراب
تراجم
تراش
تراشی
ترامیم
ترانہ
ترانے
تراي
تراکیب
تربت
تربيت
تربیت
ترتیب
ترتیبی
ترجمان
ترجمانی
ترجمه
ترجمہ
ترجمے
ترجیح
ترجیحات
ترجیحی
ترخان
تردی
تردید
ترس
ترسیل
ترغیب
ترفان
ترقی
ترقیا
ترمذ
ترمذی
ترمیم
ترن
ترنا
ترنت
ترنم
ترنگ
ترنگاں
ترویج
ترک
ترکان
ترکاں
ترکستان
ترکمان
ترکماناں
ترکمانستان
ترکمن
ترکوں
ترکھان
ترکھاناں
ترکی
ترکیب
ترکیباں
ترکیہ
تری
تریا
تریخ
تریخی
تریموں
ترین
تریپورہ
ترے
تزویراندی
تزي
تزک
تزکیہ
تس
تساں
تسبیح
تسخیر
تسخیری
تسلسل
تسلط
تسلی
تسلیت
تسلیم
تسمانی
تسمانیہ
تسمیہ
تسنیم
تسيں
تسکین
تسی
تسیں
تش
تشاں
تشبیہ
تشبیہات
تشخص
تشخیص
تشدد
تشریح
تشریحات
تشریف
تشویش
تشکیل
تشہیر
تشی
تشیع
تصادم
تصانیف
تصاویر
تصحیح
تصدیق
تصرف
تصریح
تصفیہ
تصنيف
تصنیف
تصنیفات
تصو
تصور
تصورات
تصوف
تصویر
تصویراں
تصویری
تصیل
تضاد
تضادات
تطبیق
تطہیر
تعارض
تعارف
تعاقب
تعال
تعالی
تعامل
تعاون
تعبیر
تعجب
تعداد
تعدد
تعدیل
تعرض
تعریف
تعریفاں
تعزیت
تعزیرات
تعزیہ
تعصب
تعصبات
تعطل
تعطیل
تعطیلات
تعطیلاں
تعظیم
تعلق
تعلقات
تعلقاں
تعلقہ
تعلیق
تعلیقات
تعلیم
تعلیمات
تعلیمی
تعمیر
تعمیرا
تعمیرات
تعمیری
تعمیل
تعی
تعین
تعینا
تعینات
تعیناتی
تعیین
تغرل
تغلب
تغلبی
تغلق
تغیر
تغیرات
تغییر
تغییرات
تفاسیر
تفاوت
تفتازانی
تفتیش
تفتیشی
تفرقہ
تفریح
تفریحی
تفریق
تفسير
تفسیر
تفسیراں
تفسیری
تفصیل
تفصیلات
تفصیلی
تفویض
تفکر
تفہیم
تقابل
تقابلی
تقاریب
تقاریر
تقاضا
تقاضاں
تقاضے
تقدس
تقدیر
تقرر
تقرری
تقرریاں
تقریب
تقریبا
تقریبات
تقریبن
تقریر
تقریرات
تقریراں
تقسیم
تقسیمات
تقصیر
تقلید
تقوی
تقویت
تقویم
تقی
تقیہ
تل
تلا
تلاش
تلاشی
تلافی
تلامذہ
تلاوت
تلخ
تلخی
تلخیص
تلسی
تلف
تلفظ
تلقین
تلمذ
تلمود
تلنا
تلنگانہ
تلوار
تلواراں
تلونڈی
تلک
تلگو
تلی
تلے
تم
تما
تمارین
تماشا
تماشاي
تماشے
تمام
تمباکو
تمثیل
تمدن
تمدنی
تمر
تمسک
تمغا
تمغاي
تمغہ
تمغے
تمل
تمنا
تمہارا
تمہاری
تمہارے
تمہید
تمیز
تمیم
تمیمی
تن
تنا
تنازع
تنازعات
تنازعہ
تنازعے
تناسب
تناسخ
تناظر
تناو
تناول
تناں
تنبیہ
تنتر
تنخواہ
تنخواہاں
تند
تندرست
تنزانیہ
تنزلی
تنصیب
تنصیبات
تنظیم
تنظیمات
تنظیماں
تنظیمی
تنقیح
تنقید
تنقیدی
تنوع
تنویر
تنگ
تنگی
تنہا
تنہاي
تنے
تهران
تو
توا
توابین
تواتر
تواریخ
توازن
تواس
تواضع
توان
تواناي
تواناں
توانو
توانھاں
تواڈا
تواڈی
تواڈے
توبہ
توتسی
توثیق
توجہ
توجیہ
توحید
توحیدی
تودے
تور
تورات
توران
تورک
توریت
توسط
توسل
توسیع
توسیعی
توصیف
توضیح
توفیق
توقع
توقعات
توقف
توقیر
توقیع
تول
تولید
تولیدی
تومان
توماں
تومر
تون
تونس
تونسوی
تونے
تووہ
توپ
توپاں
توپخانے
توڑ
توڑدے
توڑن
توڑنا
توڑنے
توڑی
توڑیا
توڑے
توکل
توں
توہم
توہمات
توہین
تویہ
تي
تپ
تپسیا
تپش
تپہ
تڑپ
تک
تکالیف
تکامل
تکاں
تکبر
تکبیر
تکر
تکرار
تکریت
تکریم
تکش
تکفیر
تکفیری
تکفین
تکلف
تکلیف
تکلیفاں
تکملہ
تکمیل
تکنالوجی
تکنیک
تکنیکاں
تکنیکی
تکون
تکوینی
تکڑا
تکڑی
تکیہ
تگین
تھ
تھا
تھااور
تھال
تھام
تھامس
تھامسن
تھان
تھانواں
تھانوی
تھانہ
تھانے
تھاواں
تھاي
تھاکہ
تھاں
تھر
تھراپی
تھرلر
تھرمل
تھرموڈاي
تھرو
تھرڈ
تھری
تھریس
تھل
تھلواں
تھلویں
تھلگ
تھلے
تھم
تھند
تھور
تھوڑا
تھوڑھا
تھوڑھی
تھوڑھے
تھوڑی
تھوڑے
تھوک
تھى
تھي
تھک
تھکن
تھی
تھیریسا
تھیسالونیکی
تھیسس
تھیلی
تھیم
تھیوری
تھیوریاں
تھیوڈور
تھیٹر
تھیں
تھے
تہ
تہامہ
تہانوں
تہاي
تہاڈے
تہاں
تہجد
تہجی
تہذيب
تہذیب
تہذیباں
تہذیبی
تہران
تہرانی
تہمت
تہوار
تہواراں
تہہ
تی
تیا
تیار
تیاری
تیاریاں
تیان
تیاگ
تیاں
تیج
تیجا
تیجس
تیجی
تیجے
تیر
تیرا
تیرانا
تیراکی
تیراں
تیرتھ
تیرہ
تیرہويں
تیری
تیرے
تیز
تیزاب
تیزی
تیس
تیسرا
تیسری
تیسرے
تیغ
تیل
تیلگو
تیمر
تیمور
تیموری
تیمی
تیمیہ
تین
تینو
تینوں
تیونس
تیوہار
تیویں
تیي
تیک
تیکر
تیہہ
تے
ث
ثابت
ثار
ثاقب
ثالث
ثالثی
ثانوی
ثانی
ثانیہ
ثبات
ثبت
ثبوت
ثبوتاں
ثر
ثروت
ثریا
ثعلبہ
ثعلبی
ثقافت
ثقافتاں
ثقافتی
ثقفی
ثقل
ثقلین
ثقہ
ثقیف
ثلاثہ
ثلث
ثم
ثمر
ثنا
ثناء
ثناي
ثواب
ثور
ثوری
ج
جا
جاء
جابجا
جابر
جابرانہ
جات
جاتا
جاتاا
جاتاں
جاتاہے
جاتی
جاتے
جاحظ
جادا
جادو
جادوي
جادوگر
جادیاں
جادے
جاذب
جار
جارج
جارجی
جارجیا
جارجیاي
جارحانہ
جارحیت
جارود
جارہی
جارہیا
جارہے
جاری
جاز
جاسم
جاسوس
جاسوساں
جاسوسی
جاسک
جاسکتا
جاسکدا
جاسکدی
جاسکدے
جاسکن
جاسکے
جال
جالندھر
جالندھری
جالوت
جالی
جام
جامد
جامشورو
جامع
جامعہ
جامعۃ
جامعیت
جامنی
جامہ
جامی
جان
جانا
جاناں
جانب
جانبدار
جانبداری
جانتا
جانتے
جاندا
جاندار
جانداراں
جاندی
جاندیاں
جاندے
جانسن
جانشین
جانشیناں
جانشینی
جانفشانی
جانن
جاننا
جاننے
جانو
جانور
جانوراں
جانچ
جانکاری
جانگے
جانی
جانیا
جانے
جاو
جاوا
جاواں
جاون
جاوی
جاوید
جاویگا
جاوے
جاي
جاٹ
جاٹاں
جاپان
جاپانی
جاپانیاں
جاپدا
جاچکے
جاڑا
جاک
جاکر
جاکے
جاگ
جاگو
جاگیر
جاگیراں
جاگیردار
جاگیردارانہ
جاگیرداراں
جاگیرداری
جاں
جاہ
جاہل
جاہلی
جاہلیت
جایا
جاے
جاݨ
جب
جبار
جبر
جبرا
جبرالٹر
جبران
جبراي
جبري
جبری
جبریل
جبل
جبلہ
جبکہ
جبیر
جت
جتاں
جتن
جتنا
جتنی
جتوي
جتھ
جتھا
جتھو
جتھوں
جتھیبندی
جتھیدار
جتھے
جتی
جتیا
جتے
جج
ججاں
جد
جدا
جداي
جداگانہ
جداں
جدت
جدل
جدو
جدوجہد
جدول
جدونکھ
جدونکہ
جدوں
جدکہ
جدھر
جدہ
جدی
جدید
جدیدیت
جذب
جذبات
جذبہ
جذبے
جذگل
جر
جرا
جرات
جراثیم
جراح
جراحی
جرار
جراي
جرجان
جرجانی
جرح
جرد
جرسی
جرم
جرمانہ
جرمانے
جرمن
جرمناں
جرمنی
جرمین
جرنل
جرنیل
جرنیلاں
جرگہ
جری
جریان
جریدہ
جریدے
جریر
جز
جزء
جزا
جزاي
جزو
جزوی
جزي
جزیرا
جزیراں
جزیرة
جزیرہ
جزیریاں
جزیرے
جزیرےا
جزیہ
جس
جسا
جسامت
جست
جستجو
جسد
جسدا
جسدی
جسدے
جسم
جسمانی
جسماں
جسنال
جسنو
جسنوں
جسنے
جسونت
جسٹ
جسٹس
جسٹن
جسے
جشن
جعاز
جعفر
جعفرصادق
جعفری
جعفریان
جعفریہ
جعل
جعلی
جغرافیا
جغرافیاي
جغرافیہ
جل
جلا
جلال
جلالت
جلالی
جلانے
جلاوطن
جلاوطنی
جلاي
جلایا
جلد
جلدا
جلداں
جلدی
جلدے
جلساں
جلسہ
جلسے
جلن
جلنے
جلوس
جلوساں
جلوہ
جلی
جلیا
جلیل
جلے
جم
جما
جمادی
جماع
جماعت
جماعتاں
جماعتی
جمال
جمالی
جمالیا
جمانے
جماي
جماں
جمرود
جمشید
جمع
جمعرات
جمعہ
جمعی
جمعیة
جمعیت
جمل
جملہ
جملے
جملےا
جمن
جمنا
جمهوری
جمود
جموں
جمکران
جمہور
جمہوری
جمہوریت
جمہوریتاں
جمہوریہ
جمی
جمیا
جمیعت
جمیل
جمیکا
جمے
جن
جنا
جناب
جنات
جناح
جنادہ
جنازہ
جنازے
جناں
جنبش
جنت
جنتا
جنتی
جنج
جند
جنداں
جندب
جندی
جنرل
جنریٹر
جنس
جنساں
جنسی
جنسیت
جنم
جنوب
جنوبی
جنور
جنوراں
جنوری
جنون
جنونی
جنوں
جنڈ
جنک
جنکشن
جنگ
جنگاں
جنگجو
جنگجوواں
جنگل
جنگلات
جنگلاں
جنگلی
جنگننا
جنگی
جنگیاں
جنھاں
جنہاں
جنہوں
جنہیں
جنی
جنید
جنین
جنیوا
جنے
جهان
جو
جوا
جواب
جوابا
جوابات
جوابدہ
جوابی
جواد
جوادی
جوار
جواز
جواس
جوامع
جوان
جواناں
جوانی
جواي
جواک
جواں
جواہر
جواہرات
جوبلی
جوت
جوتی
جوجی
جود
جودھ
جودھا
جودھپور
جور
جورڈن
جوز
جوزجان
جوزف
جوزی
جوس
جوش
جوشخص
جوشی
جوق
جول
جولاي
جولو
جولی
جولیا
جولیس
جولین
جون
جونا
جوناتھن
جوناگڑھ
جوندے
جونز
جونس
جونپور
جونپوری
جونہی
جونی
جونیي
جوي
جوڈیشل
جوڑ
جوڑا
جوڑاں
جوڑدا
جوڑدی
جوڑدے
جوڑن
جوڑنا
جوڑنے
جوڑی
جوڑیا
جوڑے
جوکر
جوکچھ
جوکھ
جوکہ
جوگ
جوگندر
جوگی
جوں
جوہر
جوہری
جوہن
جوینی
جویں
جي
جٹ
جٹاں
جپان
جپانی
جڑ
جڑا
جڑانوالا
جڑانوالہ
جڑاں
جڑدا
جڑواں
جڑھاں
جڑی
جڑیا
جڑیاں
جڑے
جکارتہ
جگ
جگا
جگت
جگدیش
جگر
جگن
جگہ
جگہاں
جگی
جگیر
جھ
جھارکھنڈ
جھانسی
جھاڑ
جھاڑو
جھاڑکھنڈ
جھاڑی
جھاڑیاں
جھرمٹ
جھلک
جھلکیاں
جھلی
جھلیاں
جھمرہ
جھنڈ
جھنڈا
جھنڈے
جھنگ
جھولی
جھومر
جھوٹ
جھوٹھ
جھوٹھا
جھوٹھے
جھوٹی
جھوٹے
جھوک
جھٹ
جھٹکا
جھٹکے
جھڑپ
جھڑپاں
جھک
جھکا
جھکاو
جھگڑا
جھگڑے
جھگڑےا
جھیل
جھیلاں
جہ
جہا
جہاد
جہادی
جہاز
جہازاں
جہالت
جہان
جہاندار
جہانگیر
جہانگیری
جہانی
جہانیاں
جہاں
جہت
جہتاں
جہد
جہدے
جہل
جہلم
جہناں
جہنم
جہڑا
جہڑی
جہڑیاں
جہڑے
جہی
جہیز
جہے
جی
جیا
جیالوجی
جیب
جیت
جیتنے
جیتو
جید
جیدا
جیدی
جیدے
جیری
جیریا
جیس
جیسا
جیساکہ
جیسلمیر
جیسکیا
جیسی
جیسے
جیش
جیف
جیفرسن
جیفری
جیل
جیلانی
جیلاں
جیمز
جیمس
جین
جینا
جیناں
جیند
جیندی
جینز
جینس
جینوا
جینوم
جینوں
جینی
جینیات
جینے
جیو
جیوری
جیومیٹری
جیون
جیوندا
جیونی
جیوک
جیوں
جیویں
جیي
جیٹ
جیٹھ
جیڈ
جیڑا
جیڑی
جیڑے
جیک
جیکب
جیکر
جیکس
جیکسن
جیکی
جیہا
جیہدا
جیہدی
جیہدے
جیہناں
جیہنوں
جیہنے
جیہڑا
جیہڑی
جیہڑیاں
جیہڑے
جے
ح
حاتم
حاج
حاجب
حاجت
حاجی
حاجیاں
حاد
حادثات
حادثہ
حادثے
حارث
حارثہ
حازم
حاشیہ
حاشیے
حاصل
حاصلپور
حاضر
حاضری
حاضرین
حافظ
حافظہ
حال
حالات
حالانکہ
حالاں
حالت
حالتاں
حالی
حالیہ
حالے
حامد
حامل
حاملہ
حامی
حامیاں
حاوی
حاي
حاکم
حاکماں
حاکمیت
حب
حبان
حبش
حبشہ
حبشی
حبیب
حبیبہ
حت
حتمی
حتی
حثیت
حج
حجاب
حجاج
حجاز
حجازی
حجة
حجت
حجج
حجر
حجرہ
حجرے
حجم
حجۃ
حجیت
حد
حداد
حداں
حدثنا
حدود
حدیبیہ
حدیث
حدیثاں
حدیثی
حدیقہ
حذف
حذیفہ
حر
حرا
حرارت
حرارتی
حراست
حراستی
حرام
حران
حرب
حربہ
حربے
حرث
حرج
حرص
حرف
حرفت
حرفی
حرم
حرمت
حرمتی
حرمن
حرمین
حروف
حرکات
حرکت
حرکتاں
حرکی
حریت
حریث
حریف
حریفاں
حزب
حزم
حس
حساب
حساس
حساسیت
حسام
حسان
حسب
حسد
حسرت
حسن
حسنہ
حسنی
حسنین
حسين
حسی
حسین
حسینہ
حسینی
حسینیوالا
حسینیہ
حشر
حشمت
حص
حصا
حصار
حصص
حصول
حصوں
حصہ
حصیاں
حصین
حصے
حصےا
حضر
حضرات
حضرت
حضرتامام
حضرموت
حضرمی
حضور
حضوری
حفاظ
حفاظت
حفاظتی
حفص
حفصہ
حفظ
حفظان
حفیظ
حق
حقارت
حقانی
حقانیت
حقاي
حقاں
حقدار
حقوق
حقہ
حقیر
حقیقت
حقیقتا
حقیقی
حل
حلاج
حلال
حلب
حلبی
حلف
حلفےا
حلق
حلقہ
حلقے
حلوان
حلول
حلی
حلیف
حلیفاں
حلیم
حلیمہ
حلیہ
حلیۃ
حم
حماد
حماس
حمام
حمای
حمایت
حمد
حمدان
حمزہ
حمص
حمل
حملہ
حملیاں
حملے
حملےا
حموی
حمید
حمیدہ
حمیری
حنا
حنابلہ
حنبل
حنبلی
حنظلہ
حنفی
حنفیہ
حنیف
حنیفہ
حنین
حوا
حوادث
حواری
حواریاں
حواس
حواشی
حوال
حوالگی
حوالہ
حوالے
حوالےا
حوثی
حوثیاں
حوزه
حوزہ
حوصلہ
حوصلے
حوض
حویلی
حویلیاں
حکا
حکام
حکایات
حکایت
حکم
حکما
حکمت
حکمران
حکمراناں
حکمرانوں
حکمرانی
حکمراں
حکمی
حکمیت
حکمین
حکو
حکومت
حکومتاں
حکومتى
حکومتی
حکیم
حہ
حی
حیا
حیاء
حیات
حیاتيا
حیاتی
حیاتیات
حیاتیاندی
حیان
حیثیت
حیدر
حیدرا
حیدری
حیران
حیرانی
حیرت
حیرہ
حیلہ
حیوان
حیوانات
خ
خا
خاتم
خاتمہ
خاتمی
خاتمے
خاتون
خادم
خار
خارج
خارجہ
خارجی
خارجیاں
خاص
خاصا
خاصکر
خاصہ
خاصی
خاصیت
خاصیتاں
خاصے
خاطر
خاطرات
خاقان
خاقانیت
خال
خالد
خالص
خالصتا
خالصہ
خالصے
خالق
خالہ
خالی
خام
خامنہ
خاموش
خاموشی
خامی
خامیاں
خان
خانا
خانات
خانان
خاناں
خانخاناں
خاندان
خانداناں
خاندانی
خانقاہ
خانقاہاں
خانقاہی
خانم
خانوادہ
خانہ
خانی
خانیت
خانیوال
خانے
خاوند
خاي
خاک
خاکہ
خاکی
خاکے
خاں
خبار
خبر
خبراں
خبردار
خبرگزاری
خبری
ختم
ختن
ختنہ
ختیار
خد
خدا
خداداد
خدام
خداواں
خداوند
خداوندعالم
خداوندی
خداي
خداکی
خدایا
خدری
خدشہ
خدشےا
خدمات
خدمت
خدمتاں
خدمتگار
خدوخال
خدیجہ
خذ
خر
خراب
خرابی
خرابیاں
خراج
خراسان
خراسانی
خرافات
خرت
خرد
خرداد
خرقہ
خرم
خروج
خروش
خروشیف
خرچ
خرچہ
خرچے
خرکار
خرگوش
خری
خرید
خریدا
خریدار
خریداری
خریدتا
خریدن
خریدنا
خریدنے
خریدی
خریدیا
خریدے
خرین
خزاعہ
خزاعی
خزانچی
خزانہ
خزانے
خزانےا
خزاي
خزاں
خزر
خزرج
خزرجی
خزیمہ
خسارے
خستہ
خسرو
خشک
خشکی
خصاي
خصلتاں
خصوصا
خصوصی
خصوصیات
خصوصیت
خضر
خط
خطا
خطاب
خطابات
خطابت
خطاط
خطاطی
خطبات
خطبہ
خطبے
خطر
خطرات
خطرنا
خطرناک
خطرہ
خطرے
خطوط
خطہ
خطی
خطیب
خطے
خطےا
خفا
خفی
خفیہ
خلا
خلاء
خلاصہ
خلاصۃ
خلاف
خلافت
خلافتاں
خلاي
خلجی
خلدون
خلط
خلعت
خلف
خلفا
خلفاء
خلفاي
خلق
خلقت
خلل
خلوت
خلوص
خلي
خلکان
خلیات
خلیاں
خلیج
خلیجی
خلیفہ
خلیفۃ
خلیل
خلیہ
خم
خمس
خمسہ
خمیر
خمینی
خنجر
خندق
خندقاں
خو
خوا
خواب
خواباں
خواتین
خواجگان
خواجہ
خوار
خوارج
خوارزم
خوارزمی
خواص
خوان
خواندگی
خوانساری
خوانی
خواں
خواہ
خواہاں
خواہش
خواہشات
خواہشمند
خواہی
خوب
خوبصورت
خوبصورتی
خوبی
خوبیاں
خوجا
خوجہ
خود
خودمختار
خودمختاری
خودکار
خودکش
خودکشی
خودی
خور
خوراک
خوراں
خورد
خوردہ
خورس
خورشید
خوری
خوزستان
خوش
خوشاب
خوشامد
خوشبو
خوشحال
خوشحالی
خوشخبری
خوشنودی
خوشگوار
خوشی
خوشیاں
خوف
خوفزدہ
خوفناک
خول
خون
خونخوار
خوند
خونریز
خونریزی
خونی
خوي
خویی
خيابان
خٹک
خچر
خیاط
خیال
خیالات
خیالاں
خیالی
خیام
خیانت
خیبر
خیر
خیرا
خیرات
خیراندی
خیرمقدم
خیرپور
خیز
خیل
خیمہ
خیمے
خیمےا
خیوا
د
دا
داب
دات
داتا
داخل
داخلہ
داخلی
داخلے
داد
دادا
داداں
دادو
دادی
دار
دارا
داراشکوہ
دارالحکومت
دارالحکومتاں
دارالخلافہ
دارالسلطنت
دارالعلوم
دارالفکر
دارالکتب
دارانہ
داراں
دارد
داردی
دارفور
دارلحکومت
دارو
داری
داریاں
داس
داستان
داستاناں
داستووسکی
داشت
داعش
داعظم
داعی
داغ
داغستان
داغے
دال
دالان
دالہ
دام
داماد
دامن
دان
دانا
داناي
داناں
دانت
دانستہ
دانش
دانشمند
دانشنامه
دانشنامہ
دانشور
دانشورانہ
دانشوراں
دانشگاه
دانشگاہ
دانہ
دانی
دانیال
دانے
داو
داواں
داود
داوود
داي
داڑھی
داں
داہر
دایاں
دب
دبا
دباء
دبانے
دباو
دباي
دبایا
دبستان
دبي
دبیر
دبے
دت
دتا
دتہ
دتی
دتیاں
دتیہ
دتے
دجاجہ
دجال
دجلہ
دختر
دخل
دخول
دخیل
دد
ددپلانا
در
درا
دراز
دراصل
دراندازی
درانی
دراوڑ
دراوڑی
دراں
دربار
درباراں
درباره
دربارہ
درباری
درباریاں
دربان
دربند
درج
درجا
درجات
درجن
درجناں
درجہ
درجے
درحقیقت
درخت
درختاں
درخشاں
درخواست
درخواستاں
درد
دردناک
دردی
درس
درساو
درساي
درسایا
درست
درستگی
درستی
درسگاہ
درسی
درش
درشن
درشک
درعیہ
درمیان
درمیانی
درمیانے
دروازہ
دروازے
دروازےا
درود
دروز
دروس
درویش
درویشاں
درپیش
درپے
درک
درکار
درگا
درگاہ
درگذشت
درگزر
درہ
درہم
دری
دریا
دریافت
دریافتاں
دریاواں
دریاي
دریاے
دریغ
درے
دس
دساں
دست
دستار
دستاویز
دستاویزات
دستاویزاں
دستاویزی
دستبردار
دستبرداری
دستخط
دستر
دسترخوان
دسترس
دستور
دستوری
دستک
دستکاری
دستہ
دستی
دستیاب
دستیابی
دستے
دستےا
دسدا
دسدی
دسدیاں
دسدے
دسمبر
دسن
دسنا
دسنیا
دسنے
دسو
دسواں
دسويں
دسویں
دسٹریبیوٹری
دسی
دسیا
دسیاں
دسے
دشا
دشت
دشتی
دشمن
دشمنان
دشمناں
دشمنی
دشمنیاں
دشوار
دشواری
دشواریاں
دعا
دعاو
دعاواں
دعاي
دعو
دعوا
دعوت
دعوواں
دعوہ
دعوی
دعویدار
دعویداراں
دعوے
دعوےا
دغا
دفاتر
دفاع
دفاعی
دفتر
دفتراں
دفتری
دفع
دفعات
دفعہ
دفن
دفنایا
دق
دقت
دقیانوسی
دقیق
دقیقہ
دل
دلا
دلال
دلالت
دلاندا
دلاندے
دلانے
دلاور
دلاي
دلاں
دلایا
دلت
دلتاں
دلدادہ
دلدار
دلدل
دلمون
دلواي
دلوں
دلچسپ
دلچسپی
دلکش
دلہن
دلی
دلیا
دلیر
دلیری
دلیل
دلیلاں
دلیپ
دلے
دم
دماغ
دماغی
دمتری
دمدار
دمشق
دمشقی
دمن
دمودر
دمی
دمیاں
دن
دنا
دناں
دند
دندا
دندان
دنداں
دندی
دندیاں
دندے
دنوں
دنگ
دنیا
دنیاوی
دنیاي
دنیاپور
دنیاں
دنیوی
ده
دهستان
دو
دوا
دواب
دوار
دوارا
دوارکا
دوالے
دوام
دوانی
دوانیاں
دواواں
دواي
دواں
دوبارہ
دوجا
دوجی
دوجیاں
دوجے
دوحہ
دودھ
دور
دوران
دورانیہ
دورانیے
دوراں
دوربین
دوردرشن
دورہ
دوری
دورے
دوزخ
دوست
دوستانہ
دوستاں
دوستی
دوسرا
دوسروں
دوسری
دوسریاں
دوسرے
دوسرےا
دوش
دوشنبہ
دوشی
دوطرفہ
دولت
دولہا
دوم
دون
دوناں
دونو
دونوں
دونے
دوواں
دوویں
دوي
دوپہر
دوچار
دوڑ
دوڑا
دوڑاں
دوڑے
دوکان
دوکاناں
دوگنا
دوگنی
دوں
دوہاں
دوہرا
دوہری
دوہرے
دوہڑے
دى
دي
دينا
دڑو
دکان
دکاناں
دکتر
دکن
دکنی
دکھ
دکھا
دکھادی
دکھانا
دکھاندا
دکھاندے
دکھانے
دکھاو
دکھاي
دکھاں
دکھایا
دکھن
دکھنی
دکھی
دگنا
دگنی
دھ
دھا
دھات
دھاتاں
دھار
دھارا
دھاراں
دھارت
دھارمک
دھارن
دھارنا
دھارناواں
دھارنی
دھاری
دھارے
دھالیوال
دھام
دھان
دھاندلی
دھاوا
دھاک
دھاگے
دھبے
دھر
دھراں
دھرتی
دھرم
دھرماں
دھرمی
دھرو
دھرے
دھمادے
دھماکا
دھماکہ
دھماکے
دھماکےا
دھمکی
دھمکیاں
دھمکیو
دھن
دھناں
دھند
دھنی
دھو
دھواں
دھول
دھوم
دھون
دھونا
دھونک
دھونی
دھونے
دھوي
دھوپ
دھوکھا
دھوکہ
دھوکے
دھوہندے
دھپ
دھچکيا
دھڑ
دھڑا
دھڑاں
دھڑکن
دھڑے
دھک
دھکیل
دھی
دھیان
دھیاں
دھیرے
دھے
دہ
دہانی
دہانے
دہاي
دہاکیاں
دہاکے
دہراو
دہراي
دہرایا
دہستان
دہشت
دہلوی
دہلی
دہلیز
دہم
دہن
دہندگان
دہندہ
دہی
دی
دیا
دیار
دیال
دیان
دیانت
دیانتداری
دیانند
دیاکہ
دیاگیا
دیاں
دیباچہ
دیبل
دیتا
دیتی
دیتے
دیجي
دید
دیدار
دیدتا
دیده
دیدگاہ
دیدہ
دیدی
دیدے
دیر
دیرپا
دیرینہ
دیس
دیساي
دیساں
دیسی
دیش
دیشی
دیلم
دیلمی
دین
دینا
دینار
دیندا
دیندار
دیندی
دیندے
دینوری
دینى
دینگے
دینی
دینیات
دینیہ
دینے
دیو
دیوا
دیوار
دیواراں
دیواری
دیوالی
دیوالیہ
دیوان
دیوانہ
دیوانی
دیوانے
دیوبند
دیوبندی
دیوت
دیوتا
دیوتاو
دیوتاواں
دیوتیاں
دیوداس
دیور
دیول
دیومالاي
دیوناگری
دیوی
دیویاں
دیویگا
دیوے
دیي
دیپ
دیپالپور
دیپک
دیکھ
دیکھا
دیکھاں
دیکھتے
دیکھدا
دیکھدی
دیکھدے
دیکھن
دیکھنا
دیکھنے
دیکھو
دیکھي
دیکھی
دیکھیا
دیکھیں
دیکھے
دیکے
دیگر
دیگران
دیں
دیہات
دیہاتاں
دیہاتیاں
دیہاندی
دیہاڑ
دیہی
دیے
دے
دےا
ذ
ذا
ذات
ذاتاں
ذاتی
ذاتیاں
ذاي
ذاکر
ذبح
ذبیح
ذخاي
ذخیرہ
ذخیرے
ذر
ذرا
ذرات
ذراي
ذرباي
ذربایجان
ذرہ
ذری
ذریعہ
ذریعے
ذرے
ذلت
ذلیل
ذمہ
ذمی
ذمے
ذو
ذوالحجہ
ذوالفقار
ذوالقرنین
ذوق
ذک
ذکر
ذکی
ذہانت
ذہبی
ذہن
ذہناں
ذہنی
ذہنیت
ذہین
ذی
ذیقعدہ
ذیل
ذیلی
ر
را
راء
رابرٹ
رابرٹس
رابطہ
رابطے
رابطےا
رابع
رابعہ
رابن
رابندر
رابنسن
رات
راتاں
راتو
راج
راجا
راجاواں
راجاں
راجدھانی
راجر
راجستھان
راجستھانی
راجشاہی
راجن
راجندر
راجنیتک
راجو
راجوری
راجٹبر
راجپوت
راجپوتانہ
راجپوتاں
راجکمار
راجگڑھ
راجگھر
راجگہڑ
راجہ
راجی
راجیاں
راجیش
راجیو
راجیہ
راجے
راحت
راحیل
راد
رادھا
راز
رازداری
رازی
راس
راست
راستہ
راستی
راستے
راسخ
راشد
راشدہ
راشدی
راشدین
راشن
راشٹر
راشٹریہ
راشی
راضی
راغب
رافضی
رافع
رافیل
راقم
رالف
رام
راما
رامانجن
رامانند
راماي
راماین
رامفوٹاي
رامن
رامپور
رامی
ران
رانا
رانجھا
رانجھے
رانو
رانچی
رانی
رانیاں
راهنما
راو
راول
راولاکوٹ
راولپنڈی
راون
راوندی
راوی
راویان
راویاں
راویوں
راي
راٹھور
راڈار
راک
راکٹ
راکٹاں
راکھ
راکھی
راکی
راگ
راگاں
راں
راہ
راہاں
راہب
راہباں
راہداری
راہل
راہنما
راہنماي
راہول
راہی
راہیں
رای
رایا
راے
رب
ربا
رباب
رباح
رباط
رباعی
رباعیات
رباعیاں
ربانی
ربس
ربط
ربعی
ربن
ربنبروپ
ربڑ
ربی
ربیع
ربیعہ
رة
رت
رتبہ
رتبیل
رتبے
رتشدد
رتقاء
رتن
رتھ
رتھر
رتھوڈوکس
رتھک
رتی
رج
رجاء
رجال
رجالی
رجاي
رجب
رجحان
رجحانات
رجز
رجسٹر
رجسٹرار
رجسٹرڈ
رجسٹریشن
رجعت
رجم
رجمنٹ
رجوع
رجھان
رح
رحجان
رحلت
رحم
رحمان
رحمانی
رحمت
رحمتہ
رحمن
رحمہ
رحمۃ
رحمی
رحیم
رخ
رخصت
رخصتی
رخی
رخین
رد
ردا
ردعمل
رده
ردو
ردوبدل
ردی
ردیف
رر
رز
رزق
رزمیہ
رزو
رس
رسا
رسالة
رسالت
رساله
رسالو
رسالہ
رسالۃ
رسالیاں
رسالے
رسالےا
رسانی
رساي
رساں
رستم
رستہ
رستے
رستےا
رسد
رسرچ
رسل
رسم
رسماں
رسمی
رسوا
رسواي
رسوخ
رسول
رسولاں
رسولی
رسوم
رسومات
رسوي
رسی
رسیاں
رسید
رسیدہ
رش
رشاد
رشت
رشتاں
رشتہ
رشتی
رشتیاں
رشتے
رشد
رشدی
رشوت
رشک
رشی
رشید
رصد
رصدگاہ
رض
رضا
رضاعت
رضاعلیہ
رضاعی
رضامند
رضامندی
رضاي
رضاکار
رضاکارانہ
رضاکاراں
رضوان
رضوی
رضویہ
رضی
رضیہ
رعایا
رعایت
رعب
رعنا
رعیت
رغبت
رف
رفاقت
رفاہ
رفاہی
رفت
رفتار
رفتاری
رفتہ
رفسنجانی
رفع
رفعت
رفقا
رفیع
رفیق
رقابت
رقاصہ
رقبہ
رقبے
رقص
رقم
رقمطراز
رقوم
رقہ
رقیہ
رل
رلا
رلاي
رلدا
رلدے
رلیز
رلیس
رلینڈ
رلیٹیوٹی
رلے
رم
رمرڈ
رمز
رمضان
رملہ
رمن
رمنٹ
رموز
رمی
رمیش
رمین
رمینی
رمینیا
رمینیاي
رمینیاں
رن
رنبھ
رنبیر
رنج
رنجی
رنجیت
رند
رندھاوا
رنز
رنلڈ
رني
رنگ
رنگا
رنگاں
رنگت
رنگرتی
رنگلی
رنگون
رنگی
رنگیلا
رنگین
رنگے
ره
رو
روا
روابط
روات
رواج
روادار
رواداری
رواق
روانڈا
روانگی
روانہ
روانی
رواي
روايتی
رواں
روایات
روایت
روایتاں
روایتی
روبرو
روبرٹ
روبل
روبن
روبوٹ
روبی
روتھ
روج
روح
روحانی
روحانیت
روحاں
روحی
رود
روداد
رودبار
رودر
رور
روز
روزا
روزانہ
روزمرہ
روزن
روزنامہ
روزویلٹ
روزگار
روزگاری
روزہ
روزی
روزے
روس
روسو
روسی
روسیاں
روش
روشاں
روشن
روشناس
روشناي
روشنی
روضات
روضة
روضہ
روضۃ
روغن
روغنی
رول
رولا
روم
روما
رومال
رومان
رومانس
رومانوف
رومانوی
رومانٹک
رومانی
رومانیا
رومانیت
رومانیہ
رومن
رومی
رومیاں
رومیلیا
رومیوں
رون
رونا
رونالڈ
روندا
روندر
روندے
رونق
رونما
رونے
روي
روٹ
روٹی
روٹیاں
روٹیشن
روپ
روپانترن
روپاں
روپوش
روپي
روپڑ
روپیہ
روپیے
روپے
روڈ
روڈس
روک
روکاں
روکن
روکنا
روکنے
روکیا
روکے
روگ
روگاں
روگٹھ
روگی
روہ
روہت
روہنگیا
روہی
روہیل
روہیلہ
روی
رویا
رویاں
رویداس
رویہ
رویے
ري
رٹ
رٹاي
رٹس
رٹسٹ
رٹلری
رٹیکل
رپرسن
رپورٹ
رپورٹاں
رپورٹر
رپورٹس
رپورٹنگ
رپھڑ
رچ
رچت
رچرڈ
رچمنڈ
رچنا
رچناواں
رچھ
رچی
رچیا
رچیاں
رچے
رڈ
رڈر
رڈیننس
رک
رکا
رکاب
رکانساس
رکاوٹ
رکاوٹاں
رکاي
رکدا
رکدی
رکدے
رکعت
رکن
رکنا
رکنساس
رکنی
رکنیت
رکنے
رکوع
رکٹک
رکھ
رکھا
رکھاں
رکھتا
رکھتی
رکھتے
رکھدا
رکھدی
رکھدیاں
رکھدے
رکھن
رکھنا
رکھنی
رکھنے
رکھو
رکھی
رکھیا
رکھیاں
رکھے
رکی
رکیٹیکٹ
رکیٹیکچر
رکیٹیکچرل
رکے
رگ
رگاں
رگبی
رگناي
رگوید
رگڑ
رگھو
رگھوناتھ
رگینک
رھے
رہ
رہا
رہاي
رہاں
رہبر
رہبری
رہت
رہتا
رہتل
رہتلاں
رہتلی
رہتی
رہتے
رہدیاں
رہن
رہنا
رہندا
رہندی
رہندیاں
رہندے
رہنما
رہنماو
رہنماواں
رہنماي
رہنے
رہو
رہواں
رہوي
رہي
رہی
رہیا
رہیاں
رہینولوفس
رہیں
رہے
رۃ
ری
ریا
ریارت
ریاست
ریاستاں
ریاستوں
ریاستہاي
ریاستی
ریاض
ریاضت
ریاضی
ریاضیا
ریاضیات
ریال
ریان
ریاواں
ریاي
ریاں
ریت
ریتاں
ریتی
ریجن
ریجنل
ریجنٹ
ریحان
ریحانہ
ریخ
ریختہ
ریز
ریزرو
ریزہ
ریزی
ریزیڈینٹ
ریس
ریستوران
ریستوراں
ریسرچ
ریسلنگ
ریسکیو
ریش
ریشم
ریشمی
ریشہ
ریشے
ریفاي
ریفرنڈم
ریفری
ریل
ریلوے
ریلی
ریلیاں
ریلیز
ریلیف
ریلے
ریمارکس
ریمنڈ
رین
رینا
رینالہ
رینج
رینجرز
ریندا
ریندی
ریندے
رینک
رینکنگ
ریو
ریونیو
ریوڑ
ریویو
ریي
ریٹ
ریٹاي
ریپ
ریپبلک
ریپبلکن
ریپڈ
ریچھ
ریڈ
ریڈار
ریڈر
ریڈز
ریڈنگ
ریڈی
ریڈیاي
ریڈیو
ریڈیي
ریڑھ
ریک
ریکا
ریکارڈ
ریکارڈاں
ریکارڈز
ریکارڈنگ
ریکو
ریکٹ
ریکٹر
ریکٹرز
ریکٹوریٹ
ریکھ
ریکھا
ریکھک
ریکی
ریگا
ریگستان
ریگن
ریگولیشن
ریہ
رے
ز
زا
زابل
زاد
زادانہ
زاده
زادہ
زادی
زادیاں
زادے
زار
زارا
زاری
زازاکوف
زازیکوف
زانوي
زاویہ
زاویے
زاي
زاں
زاہد
زبان
زباناں
زبانوں
زبانی
زباں
زبر
زبردست
زبردستی
زبور
زبیدہ
زبیر
زحل
زحمت
زخم
زخماں
زخمی
زخمیاں
زد
زدہ
زر
زرارہ
زراعت
زرباي
زرتشت
زرتشتی
زرخیز
زرخیزی
زرد
زرداری
زرعی
زريں
زرکلی
زرہ
زری
زریاب
زریعہ
زریعے
زریلے
زرین
زعفران
زفر
زلزلہ
زلزلے
زلف
زلیخا
زم
زما
زمان
زمانہ
زمانی
زمانے
زمانےا
زماي
زماں
زمبابوے
زمخشری
زمراں
زمرد
زمرہ
زمرے
زمزم
زمين
زمین
زمیناں
زمیندار
زمینداراں
زمینداری
زمینی
زن
زنا
زنانہ
زنانی
زنانیاں
زنجان
زنجانی
زنجبار
زنجیر
زنجیراں
زند
زندان
زندگانی
زندگی
زندگیاں
زندہ
زنک
زنگ
زنگی
زنگیوں
زنی
زو
زوال
زوجہ
زور
زوردار
زوما
زون
زونگ
زوی
زي
زيادہ
زچگی
زڈ
زک
زکات
زکریا
زکو
زکوۃ
زکی
زکیہ
زہ
زہد
زہر
زہرا
زہرہ
زہری
زہریلی
زہریلے
زہیر
زی
زیا
زیاد
زیادتی
زیادتیاں
زیادہ
زیادہتر
زیارات
زیارت
زیارتی
زیانا
زیب
زیبا
زیباي
زیباکلام
زیتون
زید
زیدان
زیدی
زیدیاں
زیدیہ
زیر
زیراہتمام
زیرزمین
زیرقیادت
زیرو
زیريں
زیریں
زیشن
زیلنسکی
زین
زینب
زینت
زینوبیا
زینگ
زیور
زیورات
زیڈ
زے
س
سا
سابق
سابقہ
سات
ساتواں
ساتھ
ساتھی
ساتھیاں
ساجد
ساحر
ساحل
ساحلاں
ساحلی
ساخات
ساخت
ساختہ
ساختی
سادات
سادگی
سادھ
سادھارن
سادھو
سادہ
سادے
سار
سارا
سارجنٹ
سارنگ
سارنگی
سارک
سارہ
ساری
ساریاں
سارے
ساز
سازاں
سازش
سازشاں
سازشی
سازمان
سازو
سازوسامان
سازگار
سازی
ساس
ساسانی
ساسانیاں
ساعت
ساعدہ
ساغر
سافٹ
سافٹویي
ساقی
سال
سالا
سالار
سالاراں
سالاری
سالانہ
سالاں
سالم
سالمیت
سالٹ
سالک
سالگرہ
سالہ
سالہا
سالی
سام
سامان
سامانی
سامانیاں
سامانیہ
سامرا
سامراج
سامراجی
سامراجیت
سامرہ
سامری
سامعین
سامنا
سامنتھا
سامنے
سامی
سان
سانبھ
سانت
سانجھ
سانجھا
سانجھی
سانجھے
سانحہ
سانحے
ساندا
ساندل
سانس
سانو
سانوں
سانٹا
سانچہ
سانچے
سانگ
سانگا
سانی
ساو
ساواں
ساوتری
ساون
ساي
ساپیکھک
ساڈا
ساڈھے
ساڈی
ساڈیاں
ساڈے
ساڑ
ساک
ساکا
ساکن
ساکھ
ساکھی
ساگ
ساگر
ساں
ساہ
ساہت
ساہتک
ساہتکار
ساہتی
ساہتیہ
ساہمنا
ساہمنے
ساہنی
ساہو
ساہیوال
سایت
سایہ
سب
سبا
سباق
سباي
سبب
سبتوں
سبحان
سبحانی
سبز
سبزوار
سبزواری
سبزہ
سبزی
سبزیاں
سبسڈی
سبط
سبعہ
سبق
سبقت
سبل
سبندھ
سبندھت
سبي
سبک
سبکتگین
سبکدوش
سبھ
سبھا
سبھاء
سبھاش
سبھتوں
سبھی
سبھیاچار
سبھیاچارک
سبی
سبیل
ست
ستا
ستاد
ستار
ستارا
ستاراں
ستارہ
ستارہويں
ستارے
ستارےا
ستان
ستانہ
ستاي
ستاں
ستایا
ستر
سترا
ستعمال
ستلج
ستم
ستمبر
ستنتر
ستواں
ستون
ستوناں
ستويں
ستویں
ستکار
ستگرو
ستگھرا
ستگی
ستھان
ستھاناں
ستھانک
ستھاپت
ستھاپنا
ستھت
ستھتی
ستھر
ستھرا
ستہ
ستی
ستیش
ستیہ
ستے
سجا
سجاح
سجاد
سجادہ
سجادیہ
سجان
سجاوٹ
سجاي
سجایا
سجدہ
سجدے
سجستان
سجن
سجھاء
سجی
سجے
سحر
سخاوت
سخت
سختی
سختیاں
سخن
سخی
سد
سدا
سدرن
سدوزي
سدھ
سدھا
سدھار
سدھارتھ
سدھارن
سدھانت
سدھن
سدھناي
سدھنوتی
سدھو
سدھی
سدھے
سدی
سدے
سر
سرا
سراب
سراج
سراسر
سراغ
سرانجام
سراواں
سراي
سراپا
سراں
سراہا
سرب
سرباں
سربراہ
سربراہان
سربراہاں
سربراہی
سربلندی
سربیا
سربیاي
سرجری
سرجن
سرجنا
سرجیت
سرحد
سرحداں
سرحدی
سرخ
سرخس
سرخی
سرخیاں
سرخیل
سرد
سرداب
سردار
سرداران
سرداراں
سرداروں
سرداری
سردی
سردیاں
سرزد
سرزمین
سرزمیناں
سرزنش
سرسا
سرسبز
سرسوت
سرسوتی
سرسید
سرشار
سرطان
سرعام
سرعت
سرغنہ
سرفراز
سرقہ
سرل
سرلسٹ
سرلیکھ
سرما
سرماي
سرمایا
سرمایہ
سرمہ
سرن
سرنگ
سرنگاں
سرو
سروت
سروتاں
سرور
سرورق
سروس
سروسز
سروور
سروپ
سروکار
سروے
سرٹیفکیٹ
سرپرست
سرپرستاں
سرپرستی
سرچ
سرچشمہ
سرکار
سرکاراں
سرکاری
سرکاٹ
سرکردگی
سرکردہ
سرکس
سرکش
سرکشی
سرکل
سرکلر
سرکوبی
سرکٹ
سرکھات
سرکھیا
سرکہ
سرگرم
سرگرمی
سرگرمیاں
سرگزشت
سرگودھا
سرگي
سرہ
سرہند
سرہندی
سری
سریانی
سریر
سریش
سریلنکا
سریندر
سرینگر
سریہ
سرے
سز
سزا
سزاوار
سزاواں
سزاي
سس
سسة
سست
سستا
سستی
سستے
سسر
سسرال
سسلی
سسودیا
سسٹم
سسٹماں
سسٹمز
سسہ
سسۃ
سسی
سسیکس
سطح
سطحاں
سطحی
سطر
سطراں
سطور
سعادت
سعاي
سعد
سعدی
سعدیہ
سعود
سعودی
سعودیاں
سعی
سعید
سعیدی
سغد
سغدیاي
سغدیہ
سفاح
سفارت
سفارتخانے
سفارتکار
سفارتی
سفاردی
سفارش
سفارشات
سفاک
سفر
سفرنامہ
سفرنامے
سفری
سفل
سفلتا
سفیان
سفیانی
سفید
سفیر
سفیراں
سفینہ
سفینۃ
سقا
سقراط
سقوط
سقیفہ
سل
سلا
سلاجقہ
سلاخاں
سلاسل
سلاطین
سلام
سلامت
سلامتی
سلامی
سلانہ
سلاو
سلاوی
سلاي
سلب
سلجوق
سلجوقاں
سلجوقی
سلجوقیاں
سلسلہ
سلسلے
سلسلےا
سلطان
سلطاناں
سلطانہ
سلطانی
سلطنت
سلطنتاں
سلف
سلفی
سلم
سلمان
سلمہ
سلمی
سلنڈر
سلو
سلواڈور
سلواکیا
سلور
سلوواک
سلوواکیا
سلوواکیہ
سلووینیا
سلوک
سلک
سلہٹ
سلیس
سلیقہ
سلیم
سلیمان
سلیمانکی
سلیمانی
سلیمانیہ
سلیمہ
سلیچ
سم
سما
سماء
سماترا
سماج
سماجک
سماجی
سماجیات
سمادھ
سمادھی
سماع
سماعت
سمان
سمانا
سماناں
سمانی
سماوی
سماي
سماٹرا
سماں
سمبھالی
سمبھالیا
سمت
سمتاں
سمتھ
سمتی
سمتیہ
سمجھ
سمجھا
سمجھانے
سمجھاو
سمجھاں
سمجھایا
سمجھتے
سمجھدا
سمجھدار
سمجھدی
سمجھدے
سمجھن
سمجھنا
سمجھنے
سمجھو
سمجھوتہ
سمجھوتے
سمجھی
سمجھیا
سمجھے
سمر
سمراٹ
سمرتھا
سمرتی
سمرقند
سمرقندی
سمرپت
سمری
سمسیا
سمسیاواں
سمضموناں
سمعانی
سمن
سمنان
سمندر
سمندراں
سمندری
سمو
سمودرا
سموي
سموہ
سمٹ
سمپادت
سمپسن
سمچی
سمچے
سمہ
سمہودی
سمی
سمیاں
سمیت
سمیر
سمیرنا
سمیری
سمیع
سمیل
سمیلن
سمیٹ
سمیکرناں
سمیں
سمے
سن
سنا
سناتن
سنار
سنان
سنانے
سناو
سناي
سناں
سنایا
سنبندھ
سنبندھت
سنبندھی
سنبھال
سنبھالدے
سنبھالن
سنبھالنا
سنبھالنے
سنبھالی
سنبھالیا
سنبھالے
سنبھل
سنبھو
سنة
سنت
سنتاں
سنترین
سنجر
سنجیدگی
سنجیدہ
سنجے
سند
سندا
سنداں
سندر
سندری
سندھ
سندھاوالیا
سندھو
سندھی
سندھیا
سندھیاں
سندی
سندیش
سندے
سنز
سنس
سنسار
سنستھا
سنسر
سنسرشپ
سنسنی
سنسکار
سنسکرت
سنسکرتی
سنمان
سنن
سننا
سننے
سنو
سنواد
سنوں
سنٹر
سنٹرل
سنچاي
سنچت
سنچری
سنچریاں
سنکٹ
سنکھیا
سنکیانگ
سنکیت
سنگ
سنگا
سنگاپور
سنگت
سنگر
سنگرام
سنگرور
سنگریہہ
سنگل
سنگلز
سنگم
سنگٹھن
سنگھ
سنگھا
سنگھاں
سنگھرش
سنگی
سنگیاں
سنگیت
سنگیتک
سنگیتکار
سنگین
سنہ
سنہا
سنہرا
سنہری
سنہرے
سنۃ
سنی
سنیا
سنیاسی
سنیاں
سنیل
سنیما
سنیہا
سنے
سو
سوا
سوات
سواد
سوار
سواراں
سواری
سواریاں
سوال
سوالات
سوالےا
سوامی
سوانح
سوانحی
سوانگ
سوانی
سوانیاں
سواي
سواں
سواݨی
سواݨیاں
سوبھا
سوتر
سوتیلی
سوتیلے
سوجھ
سوخم
سود
سودا
سوداگ
سوداگراں
سودھ
سودہ
سودے
سور
سوراج
سوراخ
سورانی
سورة
سورت
سورتاں
سورج
سورجی
سورس
سورما
سورن
سوره
سورہ
سورۃ
سوری
سوریا
سوز
سوزش
سوس
سوساي
سوشل
سوشلزم
سوشلسٹ
سوشلسٹاں
سوفٹ
سوفی
سوق
سول
سولو
سولومن
سولہ
سولہويں
سولی
سوم
سوما
سومرو
سومنات
سومناتھ
سومے
سون
سونا
سونامی
سوندا
سوندی
سوندے
سونو
سونپ
سونپی
سونپیا
سونگ
سونی
سونیا
سونے
سوویت
سوویتاں
سوي
سوٹ
سوپ
سوپر
سوچ
سوچاں
سوچدا
سوچدے
سوچن
سوچنا
سوچنے
سوچک
سوچی
سوچیا
سوچے
سوڈا
سوڈان
سوڈانی
سوڈھی
سوکھا
سوکھی
سوگ
سوں
سوہن
سوہنا
سوہنی
سوہنے
سوی
سویا
سویت
سویر
سویرے
سویز
سویلین
سویٹزرلینڈ
سویڈش
سویڈن
سوے
سي
سيد
سيف
سٹ
سٹار
سٹاف
سٹالن
سٹاي
سٹاک
سٹراي
سٹرنگ
سٹرو
سٹریا
سٹریاي
سٹریلوی
سٹریلیا
سٹریلیاي
سٹریلین
سٹرین
سٹریٹ
سٹن
سٹور
سٹوری
سٹوپا
سٹوڈیو
سٹڈی
سٹڈیز
سٹھ
سٹھنیاں
سٹہ
سٹی
سٹیج
سٹیشن
سٹیفن
سٹیل
سٹیلا
سٹیم
سٹینڈرڈ
سٹیٹ
سٹیٹس
سٹیپ
سٹیڈیم
سٹے
سپ
سپارٹا
سپاس
سپاي
سپاں
سپاہ
سپاہی
سپاہیاں
سپر
سپرد
سپریم
سپشٹ
سپلاي
سپن
سپنا
سپنور
سپنے
سپورٹ
سپورٹس
سپہ
سپیر
سپیس
سپیساں
سپیسٹاي
سپیشل
سپین
سپینی
سپیڈ
سپیکر
سچ
سچا
سچاي
سچن
سچی
سچیت
سچے
سڈنی
سڑ
سڑک
سڑکاں
سک
سکا
سکالر
سکاي
سکاٹ
سکاٹش
سکاٹلینڈ
سکاں
سکتا
سکتی
سکتے
سکدا
سکدی
سکدیاں
سکدے
سکر
سکردو
سکرپٹ
سکرین
سکریٹری
سکلیگر
سکم
سکن
سکندر
سکنے
سکو
سکواڈرن
سکوت
سکور
سکول
سکولاں
سکولی
سکون
سکونت
سکوپي
سکي
سکيت
سکيتی
سکڑ
سکھ
سکھا
سکھانے
سکھاي
سکھاں
سکھایا
سکھدیو
سکھر
سکھلاي
سکھن
سکھی
سکھیا
سکہ
سکی
سکیا
سکیاں
سکیلوپورس
سکیم
سکینہ
سکیورٹی
سکیں
سکے
سکےا
سگالی
سگریٹ
سگنل
سگنیچر
سگوں
سہ
سہارا
سہارن
سہارنپور
سہارنپوری
سہارے
سہاي
سہاگ
سہج
سہرا
سہروردی
سہروردیہ
سہرے
سہل
سہم
سہمت
سہن
سہنپ
سہولت
سہولتاں
سہولیات
سہگل
سہی
سہیل
سہیلی
سی
سیا
سیاح
سیاحاں
سیاحت
سیاحتی
سیادت
سیار
سیاروی
سیارہ
سیارے
سیارےا
سیاست
سیاستدان
سیاستداناں
سیاسى
سیاسی
سیاسیات
سیاق
سیال
سیالوی
سیالکوٹ
سیام
سیان
سیانا
سیاہ
سیاہی
سیب
سیتا
سیتل
سیتھی
سید
سیداں
سیدنا
سیدھا
سیدھی
سیدہ
سیدی
سیر
سیرا
سیراب
سیرة
سیرت
سیره
سیرہ
سیرۃ
سیری
سیریز
سیریل
سیریلک
سیرین
سیریي
سیز
سیزر
سیزن
سیس
سیستان
سیستانی
سیسہ
سیشن
سیف
سیفی
سیل
سیلا
سیلاب
سیلانی
سیلز
سیلف
سیلون
سیلی
سیم
سیما
سیمت
سیمس
سیمنٹ
سیموي
سیمی
سیمینار
سین
سینا
سیناں
سیندا
سینس
سینسر
سینما
سیني
سینٹ
سینٹر
سینٹرل
سینٹی
سینٹیاگو
سینٹیمیٹر
سینچری
سینکڑاں
سینکڑے
سینگاں
سینہ
سینی
سینیٹ
سینیٹر
سینیگال
سینے
سیو
سیوا
سیواس
سیواواں
سیوطی
سیول
سیون
سیوک
سیي
سیٹ
سیٹاں
سیٹر
سیٹلاي
سیٹھ
سیٹھی
سیٹی
سیٹیلاي
سیڑھی
سیڑھیاں
سیک
سیکرٹ
سیکرٹری
سیکرٹریٹ
سیکری
سیکریٹری
سیکس
سیکسن
سیکسنی
سیکشن
سیکنڈ
سیکنڈری
سیکورٹی
سیکولر
سیکولرازم
سیکوي
سیکٹر
سیکٹری
سیکڑاں
سیکھ
سیکھنا
سیکھنے
سیکھوں
سیکھے
سیکیورٹی
سیہ
سیہون
سے
ش
شا
شاء
شابک
شاخ
شاخاں
شاد
شاداب
شادی
شادیاں
شاذان
شارجہ
شارح
شارع
شارٹ
شارک
شازیہ
شاستر
شاستری
شاطر
شاعر
شاعرانہ
شاعراں
شاعرہ
شاعری
شافعی
شال
شالامار
شالیمار
شام
شامل
شاملہ
شامی
شامیاں
شان
شانت
شانتی
شاندار
شانہ
شاه
شاي
شاٹ
شاپ
شاپنگ
شاپور
شاکر
شاگرد
شاگرداں
شاگردی
شاں
شاہ
شاہان
شاہانہ
شاہجہان
شاہد
شاہدین
شاہراہ
شاہراہاں
شاہرودی
شاہزادہ
شاہنامہ
شاہنواز
شاہو
شاہکار
شاہی
شاہیاں
شاہین
شاید
شایع
شب
شباب
شبانہ
شباہت
شبد
شبداں
شبر
شبلی
شبنم
شبھ
شبہ
شبہات
شبہہ
شبیب
شبیر
شبیری
شبیہ
شبیہہ
شتر
شترقی
شتو
شتی
شتیانی
شجاع
شجاعت
شجر
شجرہ
شخص
شخصاں
شخصی
شخصیات
شخصیت
شخصیتاں
شد
شداد
شدت
شدن
شده
شدھ
شدہ
شدید
شذرات
شر
شراب
شرابی
شرارت
شراف
شرافت
شراي
شراکت
شربت
شرجیل
شرح
شرحاں
شردھا
شرر
شرط
شرطاں
شرع
شرعى
شرعی
شرعیہ
شرف
شرق
شرقی
شرم
شرما
شرمناک
شرمندگی
شرمندہ
شرن
شروحات
شروع
شروعات
شروعاتی
شرومنی
شروڈنگر
شرک
شرکاء
شرکت
شری
شریح
شریر
شریعت
شریف
شریفین
شریمتی
شرینی
شریک
شش
ششاں
ششم
شطرنج
شعار
شعاری
شعاع
شعاعاں
شعب
شعبان
شعبہ
شعبے
شعبےا
شعر
شعرا
شعراء
شعراي
شعراں
شعری
شعلہ
شعلے
شعور
شعوری
شعیب
شغف
شغل
شفا
شفاء
شفاعت
شفاف
شفقت
شفٹ
شفیع
شفیق
شق
شقاں
شلالیھ
شلوک
شما
شمار
شمارندی
شماره
شمارہ
شماری
شماریا
شماریات
شمارے
شمال
شمالی
شماي
شمر
شمس
شمسی
شمشاد
شمشیر
شمع
شمعون
شمل
شملہ
شمن
شمولیت
شمیل
شمیم
شن
شنا
شناخت
شناختی
شناس
شناسی
شناي
شنایی
شنبہ
شنکر
شنگار
شنگھاي
شنید
شهر
شهید
شو
شوال
شوالک
شواہد
شوب
شود
شودر
شور
شوراي
شورای
شورش
شورشاں
شورکوٹ
شوری
شوز
شوش
شوشتری
شوشی
شوق
شوقین
شوقیہ
شوي
شوٹ
شوٹز
شوٹنگ
شوکت
شوگر
شوہر
شي
شيخ
شپ
شپنگ
شک
شکار
شکارا
شکاری
شکاگو
شکایات
شکایت
شکایتاں
شکتی
شکر
شکریہ
شکست
شکستاں
شکستہ
شکل
شکلا
شکلاں
شکم
شکن
شکنتلا
شکنی
شکوک
شکوہ
شکی
شکیل
شگاف
شگفتہ
شگن
شھر
شہ
شہاب
شہابی
شہادت
شہادتاں
شہباز
شہد
شہدا
شہداء
شہداي
شہر
شہرا
شہراں
شہرت
شہرستان
شہرستانی
شہروں
شہرہ
شہری
شہریار
شہریاں
شہریت
شہزاد
شہزادہ
شہزادی
شہزادیاں
شہزادے
شہزادےا
شہنشاہ
شہنشاہاں
شہنشاہی
شہوت
شہید
شہیداں
شہیدی
شی
شیا
شیام
شیاں
شیبان
شیبانی
شیبہ
شیث
شیخ
شیخاں
شیخوپورا
شیخوپورہ
شیخہ
شیداي
شیر
شیراز
شیرازہ
شیرازی
شیرانی
شیراں
شیرشاہ
شیرنی
شیروان
شیروانی
شیرون
شیريں
شیری
شیرین
شیش
شیشہ
شیشے
شیطان
شیطاناں
شیطانی
شیعان
شیعاں
شیعه
شیعوں
شیعہ
شیعی
شیعیان
شیعیت
شیف
شیل
شیلا
شیلڈ
شیلی
شین
شینا
شیو
شیوا
شیواجی
شیواں
شیوخ
شیي
شیٹ
شیٹی
شیڈول
شیک
شیکسپیي
شیکھر
شے
ص
صا
صابر
صابری
صابن
صاحب
صاحبان
صاحباں
صاحبزادہ
صاحبزادی
صاحبزادیاں
صاحبزادے
صاحبہ
صادر
صادق
صادقین
صادقیہ
صارف
صارفین
صاف
صافی
صالح
صالحہ
صالحین
صاي
صبا
صباح
صبح
صبر
صبیح
صحاب
صحابہ
صحابی
صحاح
صحارا
صحافت
صحافتی
صحافی
صحافیاں
صحبت
صحت
صحتیاب
صحرا
صحراواں
صحراي
صحن
صحيح
صحیح
صحیفاں
صحیفہ
صحیفے
صد
صدا
صدارت
صدارتی
صداقت
صدام
صداي
صدر
صدرا
صدرالدین
صدرمقام
صدف
صدق
صدقات
صدقہ
صدقے
صدمہ
صدمے
صدور
صدوق
صدی
صدیاں
صدیق
صدیقہ
صدیقی
صدیوں
صراحت
صراط
صرف
صریح
صص
صعوبتاں
صغری
صغیر
صف
صفا
صفات
صفار
صفاي
صفاں
صفایا
صفت
صفحات
صفحة
صفحه
صفحہ
صفحے
صفدر
صفر
صفرہ
صفوان
صفوی
صفویاں
صفویہ
صفہ
صفی
صفین
صفیہ
صفے
صقلیہ
صل
صلاح
صلاحیت
صلاحیتاں
صلح
صلوات
صلى
صلہ
صلی
صلیب
صلیبی
صلیبیاں
صلے
صمد
صمصام
صندوق
صنعا
صنعاء
صنعت
صنعتاں
صنعتی
صنف
صنفاں
صنفی
صنم
صنوبر
صو
صوابی
صواعق
صوبا
صوباي
صوبہ
صوبیاں
صوبیدار
صوبے
صوبےا
صوتیات
صور
صورت
صورتاں
صورتحال
صوفی
صوفیا
صوفیاء
صوفیانہ
صوفیاي
صوفیاں
صوفیہ
صول
صومالی
صومالیہ
صہیون
صہیونی
صہیونیت
صیغہ
صیہونی
صیہونیت
ض
ضابطہ
ضابطے
ضامن
ضاي
ضبط
ضحاک
ضخیم
ضد
ضدی
ضرار
ضرب
ضرر
ضرور
ضرورت
ضرورتاں
ضرورى
ضروری
ضروریات
ضریح
ضعف
ضعیف
ضلع
ضلعاں
ضلعی
ضلعیاں
ضلعے
ضلعےا
ضم
ضمانت
ضمن
ضمنی
ضمیر
ضمیمہ
ضوابط
ضیا
ضیاء
ضیافت
ط
طا
طارق
طاری
طاس
طاعون
طاق
طاقت
طاقتاں
طاقتور
طالب
طالبات
طالبان
طالبہ
طالوت
طاو
طاووس
طاي
طاہر
طاہرہ
طاہرین
طب
طبا
طباطباي
طباطبایی
طباعت
طبرانی
طبرستان
طبرسی
طبری
طبع
طبعی
طبقات
طبقاں
طبقہ
طبقے
طبقےا
طبی
طبیب
طبیعت
طبیعی
طبیعیات
طر
طرابلس
طراز
طرح
طرحاں
طرز
طرف
طرفدار
طرفوں
طرفہ
طرفین
طرق
طریحی
طریق
طریقت
طریقہ
طریقیاں
طریقے
طریقےا
طشت
طعام
طعن
طعنہ
طغرل
طفیل
طلاب
طلاق
طلال
طلاي
طلب
طلبا
طلباء
طلبہ
طلبی
طلحہ
طلعت
طلوع
طلیحہ
طمع
طنز
طنزیہ
طواف
طوالت
طواي
طور
طورپر
طوس
طوسی
طوطا
طوطی
طوفان
طوفاناں
طوفانی
طول
طولانی
طولون
طویل
طہ
طہارت
طہرانی
طہماسپ
طی
طیار
طیاراں
طیارہ
طیارے
طیارےا
طیب
طیبہ
طیف
طے
ظ
ظالم
ظالمانہ
ظالماں
ظاہر
ظاہرا
ظاہری
ظرافت
ظریف
ظریفی
ظفر
ظل
ظلم
ظن
ظہر
ظہور
ظہیر
ع
عا
عابد
عابدہ
عابدی
عاجز
عاجزی
عاد
عادات
عادت
عادتاں
عادل
عادی
عارضی
عارف
عارفوالا
عارفوالادے
عاری
عازم
عاشق
عاشور
عاشورا
عاشورہ
عاص
عاصم
عاطف
عافیت
عاقل
عالم
عالمانہ
عالماں
عالمگیر
عالمگیری
عالمگیریت
عالمی
عالی
عالیشان
عالیہ
عام
عامر
عامطور
عامل
عاملاں
عاملہ
عاملی
عامہ
عاي
عب
عباد
عبادات
عبادت
عبادہ
عبارات
عبارت
عبارتاں
عباس
عباسی
عباسیاں
عباسیوں
عباسیہ
عبد
عبدا
عبدالبر
عبدالجبار
عبدالحسین
عبدالحق
عبدالحمید
عبدالحکیم
عبدالرحم
عبدالرحمان
عبدالرحمن
عبدالرحیم
عبدالرزاق
عبدالرشید
عبدالسلام
عبدالصمد
عبدالعزیز
عبدالعظیم
عبدالغفار
عبدالقادر
عبدالقیوم
عبدالل
عبداللطیف
عبدالله
عبداللہ
عبدالمالک
عبدالمجید
عبدالمطلب
عبدالملک
عبدالواحد
عبدالوہاب
عبدالکریم
عبدل
عبدہ
عبدی
عبرانی
عبرت
عبقات
عبور
عبوری
عبید
عبیداللہ
عبیدہ
عتاب
عتبات
عتبہ
عترت
عتیق
عثمان
عثمانی
عثمانیاں
عثمانیوں
عثمانیہ
عج
عجاي
عجب
عجز
عجم
عجمی
عجیب
عد
عدالت
عدالتاں
عدالتی
عدالدی
عداوت
عدد
عددی
عدل
عدلیہ
عدم
عدن
عدنان
عدی
عذاب
عذر
عذرا
عر
عراق
عراقی
عراقیاں
عرب
عرباں
عربستان
عربوں
عربي
عربی
عربیہ
عرس
عرش
عرصہ
عرصے
عرض
عرضی
عرف
عرفات
عرفان
عرفانی
عرفہ
عرفی
عرق
عروج
عروض
عروہ
عروۃ
عریض
عز
عزاداری
عزالدین
عزاي
عزت
عزتی
عزرا
عزم
عزوجل
عزیر
عزیز
عزیزاں
عزیمت
عساکر
عسقلانی
عسکر
عسکری
عسکریت
عشاء
عشر
عشراں
عشرت
عشرہ
عشری
عشریہ
عشرے
عشق
عشقیہ
عصا
عصر
عصری
عصمت
عضد
عضو
عطا
عطاء
عطااللہ
عطار
عطارد
عطر
عطیات
عطیہ
عظام
عظم
عظمت
عظمی
عظیم
عفان
عفت
عفو
عقاب
عقاي
عقاید
عقب
عقبہ
عقبی
عقد
عقل
عقلمند
عقلی
عقلیت
عقلیہ
عقیدت
عقیدہ
عقیدے
عقیل
عل
علا
علاء
علاج
علاحدہ
علاقا
علاقاي
علاقاں
علاقوں
علاقہ
علاقیاں
علاقے
علاقےا
علالت
علام
علامات
علامت
علامتاں
علامتی
علامه
علامہ
علانیہ
علاو
علاوا
علاوہ
علاوی
علاي
علت
علقمہ
علل
علم
علما
علماء
علماي
علماں
علمبردار
علمی
علمیہ
علوم
علوی
علویاں
علویوں
علویہ
على
علي
عليه
عليہ
علی
علیا
علیحدگی
علیحدہ
علیل
علیم
علیه
علیهم
علیکم
علیگڑھ
علیھم
علیہ
علیہا
علیہم
علیہما
عم
عماد
عمار
عمارت
عمارتاں
عمارہ
عمال
عمامہ
عمان
عماي
عمدہ
عمدۃ
عمر
عمران
عمرانیات
عمراں
عمربن
عمرو
عمروبن
عمرہ
عمری
عمرے
عمل
عملا
عملداری
عملداریاں
عملدرا
عملہ
عملی
عملیاں
عملے
عمودی
عموم
عموما
عمومی
عمیر
عمیس
عمیق
عن
عناد
عناصر
عنان
عناوین
عنایت
عنبر
عند
عنصر
عنصراں
عنقریب
عنوان
عنوانات
عنہ
عنہا
عنہم
عنہما
عوام
عوامل
عوامی
عورت
عورتاں
عورتوں
عوض
عوف
عون
عکاس
عکاسی
عکرمہ
عکس
عہد
عہدنامہ
عہدہ
عہدی
عہدیدار
عہدیداراں
عہدے
عہدےا
عیادت
عیاش
عیاشی
عیاض
عیال
عیاں
عیب
عید
عیس
عیساي
عیسن
عیسوی
عیسی
عیش
عیل
عین
عینی
عینیہ
عیون
عیینہ
غ
غا
غاخان
غار
غاراں
غارت
غاز
غازی
غاصب
غافل
غالب
غالبا
غامد
غاي
غایت
غبار
غدار
غداراں
غداری
غدر
غدری
غدیر
غذا
غذاي
غرب
غربت
غربی
غرض
غرق
غرناطہ
غروب
غرور
غروی
غریب
غریباں
غریبی
غز
غزال
غزالہ
غزالی
غزل
غزلاں
غزنوی
غزنویاں
غزنویہ
غزنہ
غزنی
غزوات
غزوہ
غزہ
غسل
غصب
غصہ
غصے
غضاي
غضب
غضبناک
غضنفر
غطفان
غفاری
غفلت
غل
غلاف
غلام
غلاماں
غلامی
غلبہ
غلبے
غلط
غلطی
غلطیاں
غلو
غلہ
غم
غمگین
غن
غناي
غنم
غنی
غنیم
غنیمت
غوث
غور
غوری
غوریاں
غوش
غوطہ
غیاث
غیب
غیبت
غیبی
غیر
غیرت
غیرجانبداری
غیرمعمولی
غیرملکی
ـ
ــ
ف
فا
فات
فاتح
فاتحانہ
فاتحہ
فاتحین
فادر
فار
فارس
فارسی
فارسیاں
فارغ
فارم
فارماں
فارمولا
فارمولے
فارمیٹ
فارن
فارورڈ
فاروق
فاروقی
فاس
فاسد
فاسفورس
فاسق
فاسٹ
فاش
فاشزم
فاشسٹ
فاصلہ
فاصلے
فاضل
فاطمہ
فاطمی
فاطمیاں
فاطمیہ
فاعل
فاق
فاقہ
فاقی
فال
فالج
فام
فاماں
فان
فانی
فاو
فاونڈیشن
فاي
فاٹا
فاکس
فاں
فت
فتاب
فتاوی
فتاں
فتح
فتنہ
فتنے
فتنےا
فتوح
فتوحات
فتوی
فتوے
فجر
فجی
فحش
فخ
فخر
فخرالدین
فخری
فدا
فداي
فدک
فدیہ
فر
فرات
فرار
فراز
فراست
فراسٹ
فراغت
فراق
فراموش
فرامین
فرانز
فرانس
فرانسس
فرانسسکو
فرانسیساں
فرانسیسی
فرانسیسیاں
فرانک
فرانکو
فراوانی
فراي
فراڈے
فراہ
فراہم
فراہمی
فرج
فرجہ
فرح
فرحان
فرحت
فرخ
فرد
فردا
فردوس
فردوسی
فرزند
فرزندان
فرزنداں
فرسخ
فرسودہ
فرسٹ
فرش
فرشتہ
فرشتے
فرشتےا
فرصت
فرض
فرضی
فرعون
فرغانہ
فرق
فرقہ
فرقے
فرقےا
فرم
فرما
فرماتے
فرمان
فرماندا
فرماندیاں
فرماندے
فرمانروا
فرمانرواي
فرمانے
فرماواں
فرماي
فرماں
فرمایا
فرمایاکہ
فرنٹ
فرنٹیي
فرنچ
فرنچاي
فرنگ
فرنگی
فرنگیاں
فرنیچر
فرهنگ
فرهنگی
فرو
فروخت
فروردین
فروری
فروزپور
فروش
فروشی
فروع
فروغ
فروٹ
فرڈینینڈ
فرہاد
فرہنگ
فرہنگی
فری
فریاد
فریب
فرید
فریدکوٹ
فریدہ
فریدی
فریزر
فریضہ
فریق
فریقاں
فریقی
فریقین
فریم
فریماں
فرین
فرینچ
فرینڈ
فرینک
فرینکفرٹ
فرینکلن
فرینی
فریڈ
فریڈرک
فریڈم
فریکوي
فزکس
فزیالوجی
فزیکل
فس
فساد
فسادات
فسانہ
فسق
فسٹ
فش
فشانی
فشاں
فشر
فصاحت
فصل
فصلاں
فصوص
فصول
فصیح
فصیل
فضا
فضاء
فضاي
فضل
فضلا
فضلاء
فضلان
فضلہ
فضلی
فضول
فضیل
فضیلت
فطرت
فطری
فعال
فعالیت
فعل
فعلیات
فقدان
فقر
فقراء
فقرہ
فقرے
فقط
فقه
فقہ
فقہا
فقہاء
فقہاي
فقہی
فقیر
فقیراں
فقیہ
فل
فلاح
فلاحی
فلاسفہ
فلاسفی
فلاي
فلاڈیلفیا
فلاں
فلز
فلسروپ
فلسطین
فلسطینی
فلسطینیاں
فلسفہ
فلسفی
فلسفیانہ
فلسفیاں
فلسفے
فلم
فلماں
فلمایا
فلمز
فلمساز
فلمفیي
فلموگرافی
فلموں
فلمی
فلمیں
فلو
فلور
فلورنس
فلوریڈا
فلوپس
فلپ
فلپاي
فلپس
فلک
فلکی
فلکیا
فلکیات
فلیش
فلیٹ
فلیچر
فن
فنا
فنانس
فنانشل
فندی
فنلینڈ
فنون
فنڈ
فنڈز
فنڈنگ
فنکار
فنکارانہ
فنکاراں
فنکشن
فنی
فهرست
فو
فواد
فواي
فوت
فوج
فوجاں
فوجدار
فوجداری
فوجوں
فوجی
فوجیاں
فور
فورا
فوربس
فورس
فورسز
فورم
فورٹ
فورڈ
فورڈواہ
فوری
فوزیہ
فوق
فوقتا
فوقیت
فولاد
فون
فونٹ
فوٹ
فوٹو
فوٹون
فوٹوگرافر
فوٹوگرافی
فوٹیج
فوڈ
فوک
فوکس
فى
في
فٹ
فک
فکر
فکری
فکشن
فہ
فہارست
فہد
فہرست
فہرستاں
فہم
فہمی
فہمیاں
فہمیدہ
فی
فیاض
فیاضی
فیر
فیروز
فیروزپور
فیری
فیز
فیس
فیسر
فیسٹیول
فیشل
فیشن
فیصد
فیصدی
فیصل
فیصلہ
فیصلے
فیصلےا
فیض
فیضان
فیضی
فیضیہ
فیفا
فیل
فیلو
فیلوشپ
فیلڈ
فیلڈز
فیم
فیملی
فیمینسٹ
فین
فینکس
فینگ
فینیش
فیه
فیوض
فیول
فیوژن
فیي
فیچر
فیڈ
فیڈر
فیڈرل
فیڈریشن
فیڈل
فیکس
فیکلٹی
فیکٹری
فیکٹریاں
فیکٹو
فیہ
فے
ق
قا
قابزرگ
قابض
قابل
قابلیت
قابو
قابیل
قاتل
قاتلانہ
قاتلاں
قاتلین
قاجار
قادر
قادری
قادریار
قادریہ
قادسیہ
قادیانی
قاري
قاری
قازاق
قازان
قازق
قازقاں
قازقستان
قاسم
قاسمی
قاصد
قاصر
قاضی
قاضیاں
قاعدہ
قاعدے
قاف
قافلاں
قافلہ
قافلے
قافیہ
قال
قالب
قالین
قامت
قاموس
قانع
قانون
قانونی
قاواں
قاورد
قاي
قاہره
قاہرہ
قای
قایم
قبا
قباي
قبح
قبر
قبراں
قبرستان
قبرص
قبرصی
قبض
قبضہ
قبضے
قبطی
قبل
قبلاي
قبلہ
قبور
قبول
قبولیت
قبہ
قبیح
قبیلہ
قبیلیاں
قبیلے
قبیلےا
قتادہ
قتال
قتل
قتیبہ
قحافہ
قحط
قحطان
قحطبہ
قد
قدامت
قدامہ
قدر
قدراں
قدرت
قدرتی
قدرے
قدس
قدسی
قدسیہ
قدم
قدماں
قدمی
قدوسی
قدیم
قدیمہ
قدیمی
قذافی
قرا
قراء
قرابت
قرات
قرار
قرارداد
قرارداداں
قراقرم
قراقل
قرامطہ
قران
قراي
قرب
قربان
قربانی
قربانیاں
قربت
قرشی
قرص
قرض
قرضہ
قرضے
قرضےا
قرطبہ
قرطبی
قرقیسیا
قرن
قره
قرون
قرہ
قریب
قریبا
قریبی
قریش
قریشی
قریظہ
قریم
قریہ
قزاق
قزاقاں
قزاقی
قزل
قزلباش
قزوین
قزوینی
قس
قسط
قسطاں
قسطنطنیہ
قسطنطین
قسم
قسماں
قسمت
قسمتی
قص
قصاب
قصاص
قصاي
قصبا
قصبات
قصبہ
قصبے
قصبےا
قصد
قصر
قصص
قصور
قصوروار
قصہ
قصی
قصیدہ
قصیدے
قصے
قصےا
قضا
قضاء
قضاوت
قضاۃ
قضیہ
قطار
قطاراں
قطب
قطبی
قطبین
قطر
قطرہ
قطری
قطرے
قطز
قطع
قطعا
قطعات
قطعہ
قطعی
قطیف
قعقاع
قف
قفقاز
قفقازی
قل
قلات
قلب
قلبی
قلت
قلع
قلعہ
قلعے
قلعےا
قلم
قلمبند
قلمرو
قلمی
قلندر
قلوب
قلی
قلیل
قم
قمر
قمری
قمع
قمى
قمی
قمیض
قناعت
قند
قندوزی
قندھار
قندھاری
قندیل
قنسرین
قنوج
قنون
قنوناں
قنونی
قو
قواعد
قوال
قوالی
قوانین
قوت
قوتاں
قوس
قول
قولویہ
قوم
قومانتری
قوماں
قومی
قومیت
قومیتاں
قونصل
قونیہ
قوی
قویونلو
قپچاق
قہ
قہر
قی
قیادت
قیاس
قیام
قیامت
قید
قیدی
قیدیاں
قیروان
قیس
قیصر
قیم
قیمت
قیمتاں
قیمتی
قین
قیوم
قے
ك
كتاب
كر
كو
كى
كہ
كی
ل
لا
لاء
لابن
لابھ
لابی
لات
لاتعداد
لاتعلقی
لاج
لاجسٹک
لاجواب
لاجپت
لاحق
لاحقہ
لاد
لادن
لارا
لارنس
لارڈ
لارڈز
لاری
لازم
لازمی
لازوال
لاس
لاش
لاشاں
لاطینی
لاعب
لاعلمی
لافانی
لال
لالا
لالو
لالچ
لالہ
لالی
لام
لاما
لامت
لامتناہی
لامحدود
لامہ
لان
لانا
لاناو
لاندا
لاندی
لاندے
لانچ
لانچر
لانگ
لانے
لاو
لاوا
لاواں
لاي
لاٹ
لاٹھی
لاپتہ
لاڑکانہ
لاڑے
لاک
لاکھ
لاکھو
لاگ
لاگت
لاگو
لاگے
لاں
لاہ
لاہوت
لاہور
لاہوری
لایا
لب
لباب
لباس
لبرل
لبرلز
لبرٹی
لبریز
لبریشن
لبن
لبنان
لبنانی
لبھ
لبھدا
لبھن
لبھیا
لبھے
لبیا
لبیک
لبے
لت
لتا
لتاں
لتھوانیا
لتھوانیاي
لحاظ
لخت
لد
لدا
لداخ
لدھا
لدھیانوی
لدھیانہ
لدھیانے
لدی
لدین
لدے
لذت
لر
لز
لزبن
لس
لسان
لسانی
لسانیات
لسٹ
لسٹاں
لسی
لشک
لشکر
لشکراں
لشکری
لشکریاں
لطافت
لطان
لطاي
لطف
لطیف
لطیفہ
لعل
لعن
لعنت
لغات
لغاری
لغت
لغزش
لغو
لغوی
لف
لفظ
لفظاں
لفظی
لفٹ
لفین
لق
لقب
لقمان
لقمہ
لل
للا
للت
للمطبوعات
للہ
للی
لم
لما
لماں
لمبا
لمباي
لمبی
لمبے
لمحات
لمحاں
لمحہ
لمحے
لمٹڈ
لمپور
لمی
لمیاں
لمیٹڈ
لمے
لن
لندن
لنچ
لنڈن
لنڈو
لنک
لنکا
لنکس
لنکن
لنگ
لنگر
لنگھ
لنگھدا
لنگھدی
له
لو
لوا
لواحقین
لوازمات
لواي
لوتھر
لوح
لود
لودگی
لودھراں
لودھی
لودہ
لودی
لور
لورنٹز
لوری
لوریاں
لورین
لوزان
لوزیانا
لوس
لوسی
لوط
لوقا
لومڑ
لومڑی
لون
لونا
لونڈی
لونڈیاں
لونگ
لوو
لوور
لوي
لوٹ
لوٹتے
لوٹی
لوٹے
لوپ
لوپیز
لوچنا
لوچکاں
لوڈ
لوڑ
لوڑاں
لوک
لوکاي
لوکاں
لوکدھارا
لوکراج
لوکل
لوکی
لوگ
لوگاں
لوگو
لوگوں
لوہ
لوہا
لوہار
لوہانسک
لوہڑی
لوہے
لوے
لى
لي
ليا
ليکن
ليے
لٹ
لٹا
لٹاں
لٹریری
لٹریچر
لٹل
لٹویا
لٹکا
لٹی
لٹیا
لپور
لپی
لپیاں
لپیٹ
لچک
لچکدار
لچھن
لڈ
لڈو
لڈوگ
لڈی
لڑ
لڑا
لڑاي
لڑاکا
لڑاں
لڑدا
لڑدے
لڑن
لڑنا
لڑنے
لڑکا
لڑکپن
لڑکی
لڑکیاں
لڑکیو
لڑکے
لڑکےا
لڑی
لڑیا
لڑیاي
لڑیاں
لڑیوار
لڑے
لک
لکس
لکسمبرگ
لکشمن
لکشمی
لکشنا
لکچرار
لکڑ
لکڑی
لکڑیاں
لکھ
لکھا
لکھاری
لکھاریاں
لکھاي
لکھاں
لکھایاں
لکھت
لکھتاں
لکھتی
لکھتے
لکھدا
لکھدی
لکھدے
لکھن
لکھنا
لکھنو
لکھنوی
لکھنے
لکھو
لکھوایا
لکھياں
لکھپت
لکھی
لکھیا
لکھیاں
لکھے
لکی
لکیر
لکیراں
لکیری
لگ
لگا
لگاتار
لگادی
لگام
لگان
لگانا
لگاندا
لگاندے
لگانے
لگاو
لگاواں
لگاي
لگاں
لگایا
لگبھگ
لگتا
لگتی
لگدا
لگدی
لگدیاں
لگدے
لگن
لگنا
لگنے
لگواي
لگياں
لگپگ
لگی
لگیا
لگیانے
لگیاي
لگیاں
لگیایا
لگے
لہ
لہاسا
لہجہ
لہجے
لہذا
لہر
لہرا
لہراں
لہرایا
لہنا
لہندا
لہندی
لہندے
لہو
لہور
لی
لیا
لیاقت
لیانا
لیاندا
لیانے
لیاو
لیاي
لیاں
لیایا
لیب
لیبارٹری
لیبر
لیبل
لیبیا
لیتا
لیتھوانیا
لیتے
لیث
لیجنڈ
لیجي
لیز
لیزر
لیس
لیف
لیفٹ
لیفٹیننٹ
لیفٹینینٹ
لیل
لیلا
لیلہ
لیلی
لیماں
لیمر
لین
لینا
لیندا
لیندی
لیندیاں
لیندے
لینس
لینن
لینڈ
لینڈز
لینڈنگ
لینگ
لینگوي
لینگویج
لینی
لینیي
لینے
لیو
لیوا
لیور
لیوس
لیول
لیون
لیوناردو
لیونٹ
لیوپولڈ
لیوی
لیي
لیٹ
لیٹر
لیٹویا
لیپ
لیپٹوٹاي
لیڈ
لیڈر
لیڈراں
لیڈرشپ
لیڈی
لیڈیا
لیک
لیکر
لیکس
لیکن
لیکچر
لیکچرار
لیکچرر
لیکچرز
لیکھ
لیکھا
لیکھاں
لیکھک
لیکے
لیگ
لیگو
لیں
لیہ
لیے
لے
لےا
لےک
م
ما
مابعد
مابین
مات
ماتا
ماتحت
ماتحتی
ماتر
ماترا
ماترم
ماتریدی
ماتم
ماتھے
ماجد
ماجدہ
ماجرا
ماجوج
ماجھی
ماجھے
ماجہ
ماحول
ماحولیا
ماحولیات
ماخذ
ماخوذ
ماد
ماداں
مادر
مادری
مادورو
مادگی
مادھ
مادھو
مادہ
مادی
مادیت
مادے
مار
مارا
ماراں
ماربل
ماردا
ماردے
مارس
مارشل
مارن
مارنا
مارنے
مارو
مارواڑ
مارول
ماروی
مارٹر
مارٹل
مارٹن
مارچ
مارک
مارکر
مارکس
مارکسزم
مارکسسٹ
مارکسی
مارکو
مارکیٹ
مارکیٹاں
مارکیٹنگ
مارگ
مارگریٹ
مارہروی
ماری
ماریا
ماریو
ماریہ
مارے
مازندران
مازندرانی
ماس
ماساں
ماسنو
ماسواي
ماسٹر
ماسٹرز
ماسک
ماسکو
ماضی
مافوق
مال
مالا
مالابار
مالاي
مالاکنڈ
مالدار
مالدووا
مالدیپ
مالوا
مالوہ
مالوے
مالٹا
مالڈووا
مالک
مالکان
مالکاں
مالکی
مالی
مالیا
مالیات
مالیت
مالیکیول
مالیہ
مالے
مام
ماما
ماماں
مامقانی
مامور
مامون
مان
ماناں
مانتا
ماند
ماندا
ماندہ
مانس
مانسا
مانسہرہ
مانع
مانند
ماننے
مانو
مانوس
مانوی
مانویت
مانٹریال
مانچسٹر
مانچو
مانک
مانگ
مانگنے
مانی
مانیٹر
ماو
ماواں
ماوراء
ماوراي
ماي
ماپہلے
ماپیاں
ماچھی
ماڈرن
ماڈل
ماڈلاں
ماڈلنگ
ماڑا
ماڑی
ماڑے
ماژندران
ماکھیو
ماں
ماہ
ماہانہ
ماہر
ماہراں
ماہرین
ماہنامہ
ماہی
ماہیت
مایا
مایوس
مایوسی
مایہ
مباح
مباحث
مباحثاں
مباحثہ
مباحثے
مبادلہ
مبارک
مبارکباد
مبارکہ
مبالغہ
مبانی
مباہلہ
مبتلا
مبذول
مبر
مبرا
مبصر
مبصرین
مبعوث
مبلغ
مبلغین
مبنی
مبہم
مبین
مبینہ
مة
مت
متا
متاثر
متاثرہ
متاثرین
متاخرین
متاع
متبادل
متبرک
متحد
متحدہ
متحرک
متحمل
متر
مترا
مترادف
مترجم
مترجمین
متروک
متزلزل
متشدد
متصادم
متصرف
متصل
متضاد
متعارف
متعال
متعدد
متعدی
متعصب
متعصبانہ
متعلق
متعلقہ
متعہ
متعین
متغیر
متفرق
متفق
متفقہ
متقی
متلاشی
متمول
متمکن
متن
متنازع
متنازعہ
متناسب
متناسقات
متناہی
متنبہ
متنوع
متواتر
متوازن
متوازی
متوجہ
متوسط
متوف
متوفی
متوقع
متولد
متولی
متون
متوکل
متکلم
متکلمین
متھ
متھا
متھرا
متھے
متی
مثال
مثالاں
مثالی
مثالیں
مثبت
مثل
مثلا
مثلاں
مثلث
مثنوی
مثنویاں
مثنی
مجاز
مجازی
مجالس
مجاہد
مجاہدین
مجبور
مجبورا
مجبوری
مجتبی
مجتمع
مجتہد
مجتہدین
مجد
مجدد
مجددی
مجددیہ
مجذوب
مجرم
مجرمانہ
مجرماں
مجروح
مجسم
مجسماں
مجسمہ
مجسمے
مجسٹریٹ
مجلدات
مجلس
مجلساں
مجلسی
مجله
مجلہ
مجمع
مجموعه
مجموعہ
مجموعی
مجموعے
مجموعےا
مجناں
مجنوں
مجود
مجوزہ
مجوسی
مجھ
مجھے
مجہول
مجیب
مجید
محاذ
محاذاں
محاسن
محاصرہ
محاصرے
محافظ
محافظاں
محافظہ
محافل
محال
محاورات
محاورہ
محاورے
محب
محبت
محبوب
محبوبہ
محتاج
محتاط
محترم
محترمہ
محد
محدث
محدثین
محدود
محراب
محراباں
محرقہ
محرم
محروم
محرومی
محرک
محرکات
محسن
محسنی
محسود
محسوس
محصور
محصول
محصولات
محض
محفل
محفلاں
محفوظ
محقق
محققاں
محققین
محل
محلات
محلول
محلہ
محلے
محلےا
محم
محمد
محمدباقر
محمدبن
محمدتقی
محمدحسین
محمدرضا
محمدعلی
محمدمہدی
محمدی
محمدیہ
محمل
محمود
محمودی
محن
محنت
محو
محور
محوری
محول
محکم
محکمہ
محکمے
محکمےا
محکوم
محی
محیط
مخ
مخاطب
مخالف
مخالفاں
مخالفت
مخالفتاں
مخالفین
مخبر
مختار
مختاری
مختص
مختصر
مختصرا
مختلف
مخدوم
مخزن
مخزومی
مخصوص
مخطوطات
مخطوطہ
مخفف
مخفی
مخلص
مخلوط
مخلوق
مخلوقات
مخنف
مخواہ
مخولیا
مخیر
مد
مدات
مداح
مداحاں
مداخلت
مدار
مدارج
مدارس
مداری
مدافعت
مداي
مدبر
مدت
مدتاں
مدتی
مدح
مدخل
مدد
مددگار
مدر
مدرا
مدراس
مدرس
مدرسہ
مدرسۃ
مدرسی
مدرسین
مدرسے
مدرسےا
مدعا
مدعو
مدعی
مدعیاں
مدعے
مدفن
مدفون
مدلل
مدمقابل
مدن
مدنظر
مدنی
مدوراي
مدورفت
مدون
مدکی
مدھ
مدھم
مدھو
مدھیہ
مدہ
مدی
مدید
مدیر
مدین
مدینہ
مدینۃ
مدینے
مدے
مذاق
مذاکرات
مذاہب
مذمت
مذموم
مذکر
مذکور
مذکورہ
مذھب
مذہب
مذہباں
مذہبی
مر
مرا
مرات
مراتب
مراجع
مراجعہ
مراحل
مراد
مرادا
مرادی
مراسم
مراعات
مراقبہ
مرانہ
مراٹھا
مراٹھاں
مراٹھواڑہ
مراٹھی
مراٹھیاں
مراکز
مراکش
مراکشی
مربع
مربوط
مربی
مرتب
مرتبت
مرتبہ
مرتبے
مرتد
مرتدین
مرتضی
مرتفع
مرتکب
مرتکز
مرثیہ
مرثیے
مرج
مرجان
مرجع
مرجعیت
مرحلہ
مرحلے
مرحمت
مرحوم
مرد
مردا
مرداد
مردار
مردان
مردانگی
مردانہ
مرداں
مردم
مردود
مردہ
مردے
مرزا
مرزے
مرسل
مرشد
مرصع
مرض
مرضی
مرطوب
مرعشی
مرعوب
مرغ
مرغی
مرفوع
مرفی
مرقد
مرقس
مرقع
مرقوم
مرمت
مرمر
مرن
مرنا
مرنے
مرو
مروا
مروان
مروت
مروج
مروجہ
مروی
مرویات
مرچ
مرچنٹ
مرکب
مرکبات
مرکز
مرکزاں
مرکزہ
مرکزی
مرکزیت
مرکزے
مرکوز
مرگ
مرگیا
مرہ
مرہون
مرہٹاں
مرہٹہ
مرہٹے
مری
مریا
مریت
مریخ
مریخی
مرید
مریداں
مریدین
مریض
مریضاں
مریم
مریوان
مرے
مز
مزا
مزاج
مزاجی
مزاح
مزاحم
مزاحمت
مزاحمتی
مزاحیہ
مزار
مزارات
مزدور
مزدوراں
مزدوری
مزہ
مزہب
مزہبی
مزید
مزین
مزے
مس
مسابقت
مسابقتی
مساجد
مسافت
مسافر
مسافراں
مسالک
مسانو
مساوات
مساوی
مساي
مست
مستثنی
مستحب
مستحق
مستحکم
مستدرک
مسترد
مستشرق
مستشرقین
مستطیل
مستعار
مستعد
مستعفی
مستعمل
مستعین
مستفید
مستفیض
مستقب
مستقبل
مستقر
مستقل
مستقیم
مستند
مستنصر
مستور
مستونگ
مستی
مسجد
مسجداں
مسجدےا
مسخ
مسخر
مسدود
مسرت
مسرور
مسز
مسسسپی
مسعود
مسعودی
مسقط
مسل
مسلاں
مسلح
مسلسل
مسلط
مسلم
مسلما
مسلمان
مسلمانان
مسلماناں
مسلمانوں
مسلماں
مسلمہ
مسلمین
مسلک
مسمار
مسند
مسودات
مسودہ
مسودے
مسوری
مسولینی
مسي
مسٹر
مسکن
مسکین
مسیب
مسیت
مسیتاں
مسیح
مسیحا
مسیحی
مسیحیاں
مسیحیت
مسیسپی
مسیسیپی
مسیلمہ
مشابہ
مشابہت
مشار
مشارکت
مشاعراں
مشاعرے
مشاغل
مشاورت
مشاورتی
مشاي
مشاہدات
مشاہدہ
مشاہدے
مشاہیر
مشایخ
مشتاق
مشتبہ
مشترک
مشترکہ
مشتری
مشتعل
مشتق
مشتمل
مشرا
مشرت
مشرف
مشرق
مشرقی
مشروبات
مشروط
مشروطہ
مشرک
مشرکاں
مشرکین
مشعر
مشعل
مشعور
مشغلہ
مشغول
مشق
مشقاں
مشقت
مشن
مشناں
مشنری
مشنریاں
مشورہ
مشورے
مشک
مشکل
مشکلات
مشکلاں
مشکوک
مشہد
مشہدی
مشہور
مشہوری
مشی
مشیت
مشیر
مشیراں
مشیل
مشین
مشیناں
مشینری
مشینی
مشیگن
مصاحب
مصادر
مصادیق
مصارف
مصالح
مصالحت
مصالحہ
مصاي
مصباح
مصحح
مصحف
مصحفی
مصداق
مصدر
مصدقہ
مصر
مصرع
مصرعہ
مصرعے
مصروف
مصروفیات
مصروفیت
مصری
مصریاں
مصطف
مصطفوی
مصطفى
مصطفی
مصطفے
مصعب
مصلح
مصلحت
مصلحین
مصلی
مصلے
مصمم
مصن
مصنف
مصنفات
مصنفاں
مصنفہ
مصنفین
مصنوعات
مصنوعی
مصور
مصوری
مصیبت
مصیبتاں
مضافات
مضامین
مضبوط
مضبوطی
مضحکہ
مضر
مضطرب
مضمرات
مضمون
مطابق
مطابقت
مطالب
مطالبات
مطالبہ
مطالبے
مطالعات
مطالعہ
مطالعے
مطبع
مطبعہ
مطبوعات
مطبوعہ
مطلب
مطلع
مطلق
مطلقہ
مطلوب
مطلوبہ
مطمي
مطھر
مطہر
مطہرات
مطہری
مطیع
مظالم
مظاہر
مظاہرہ
مظاہری
مظاہرین
مظاہرے
مظاہرےا
مظفر
مظلوم
مظہر
مع
معاد
معاذ
معارج
معارف
معاش
معاشراں
معاشرت
معاشرتی
معاشرہ
معاشرے
معاشی
معاشیات
معاصر
معاصرین
معاف
معافی
معالج
معالجہ
معالم
معاملات
معاملہ
معاملیاں
معاملے
معاملےا
معاندانہ
معانی
معاوضہ
معاوضے
معاون
معاونت
معاونین
معاویہ
معاي
معاہداں
معاہدہ
معاہدے
معاہدےا
معبد
معبود
معتبر
معتدل
معترف
معتز
معتزلہ
معتزلی
معتصم
معتضد
معتقد
معتقدین
معتمد
معجزات
معجزہ
معجزے
معجم
معد
معدن
معدنی
معدنیات
معدوم
معذرت
معذور
معذوری
معراج
معردے
معرض
معرف
معرفة
معرفت
معرفہ
معرفۃ
معرفی
معروضی
معروف
معرکہ
معرکے
معرکےا
معز
معزز
معززین
معزول
معزولی
معصر
معصوم
معصومہ
معصومین
معصیت
معطل
معطلی
معظم
معظمہ
معقول
معلق
معلم
معلمین
معلوم
معلومات
معلی
معمار
معماراں
معماری
معمر
معمور
معمول
معمولات
معمولی
معن
معنا
معنوی
معنویت
معنی
معنے
معنےا
معہ
معیاد
معیار
معیارات
معیاری
معیت
معیشت
معیشتاں
معین
معینہ
مغازی
مغرب
مغربی
مغرور
مغز
مغفرت
مغل
مغلاں
مغلوب
مغلیہ
مغنیہ
مغیرہ
مفاتیح
مفاد
مفادات
مفاہمت
مفاہیم
مفت
مفتاح
مفتوح
مفتوحہ
مفتی
مفرور
مفروضہ
مفروضے
مفسر
مفسرین
مفصل
مفعول
مفقود
مفلوج
مفوضہ
مفکر
مفکرین
مفہوم
مفید
مقابل
مقابلاں
مقابلہ
مقابلے
مقابلےا
مقاتل
مقاصد
مقالات
مقاله
مقالہ
مقالے
مقام
مقامات
مقامہ
مقامی
مقبراں
مقبرہ
مقبرے
مقبوضات
مقبوضہ
مقبول
مقبولیت
مقتدر
مقتل
مقتول
مقتولین
مقد
مقداد
مقدار
مقدر
مقدس
مقدسہ
مقدسی
مقدسین
مقدم
مقدمات
مقدمه
مقدمہ
مقدمۃ
مقدمے
مقدونیاي
مقدونیہ
مقرب
مقرر
مقررہ
مقرن
مقروض
مقصد
مقصود
مقلد
مقلدین
مقلہ
مقناطیس
مقناطیسی
مقننہ
مقید
مقیم
مل
ملا
ملاح
ملاحاں
ملاحظات
ملاحظہ
ملازم
ملازماں
ملازمت
ملازمتاں
ملازمین
ملاقات
ملاقاتاں
ملال
ملالہ
ملامت
ملان
ملاندا
ملاندی
ملانکن
ملانے
ملاو
ملاوٹ
ملاوی
ملاي
ملاپ
ملاکا
ملاں
ملایا
ملبوس
ملبوست
ملبہ
ملبے
ملت
ملتا
ملتان
ملتانی
ملتوی
ملتی
ملتے
ملجم
ملحد
ملحدین
ملحق
ملحقہ
ملحوظ
ملد
ملدا
ملدی
ملدیاں
ملدے
ملر
ملز
ملزم
ملزمان
ملعون
ملف
ملفوظات
ملقب
ملل
ملن
ملنا
ملنی
ملنے
ملوث
ملوي
ملوک
ملوکیت
ملٹری
ملٹن
ملٹی
ملک
ملکاں
ملکر
ملکہ
ملکی
ملکیت
ملکیو
ملکے
ملہوترا
ملی
ملیا
ملیالم
ملیان
ملیاں
ملیح
ملیر
ملیریا
ملیشیا
ملیشیاواں
ملین
ملیہ
ملے
مم
مماثل
مماثلت
ممالک
ممانعت
ممبر
ممبران
ممبراں
ممبي
ممتا
ممتاز
مملوک
مملوکاں
مملکت
مملکتاں
ممنوع
ممنوعہ
ممکن
ممکنہ
من
منا
منابع
منات
مناجات
منادی
منازل
مناسب
مناسبت
مناسک
مناصب
مناط
مناظر
مناظرات
مناظرہ
مناظرے
مناف
منافع
منافق
منافقاں
منافقت
منافقین
منافی
مناقب
منانے
مناو
مناي
مناں
منایا
منبر
منبع
منت
منتج
منتخب
منتر
منتری
منتشر
منتظر
منتظری
منتظم
منتظمین
منتقل
منتقلی
منتہی
منجمد
منجملہ
منجی
منحرف
منحصر
منحنی
مند
مندا
مندانہ
منداں
مندر
مندراں
مندرج
مندرجات
مندرجہ
مندوب
مندوبین
مندی
مندے
منذر
منرو
منزل
منزلاں
منزلت
منزلہ
منسسوٹا
منسلک
منسوب
منسوخ
منسوخی
منسٹر
منسک
منشا
منشاء
منشور
منشورات
منشی
منشیات
منصب
منصباں
منصف
منصفانہ
منصفین
منصوب
منصوبہ
منصوبے
منصوبےا
منصور
منصورہ
منطق
منطقہ
منطقی
منظر
منظم
منظور
منظوری
منظوم
منع
منعقد
منعقدہ
منعم
منفرد
منفی
منقسم
منقطع
منقول
منقولہ
منموہن
منن
مننا
مننے
منو
منور
منورنجن
منورہ
منوہر
منٹ
منٹاں
منٹو
منٹگمری
منچ
منچوریا
منڈ
منڈا
منڈل
منڈی
منڈیاں
منڈے
منکر
منکرین
منکووسکی
منکھ
منکھی
منگ
منگدا
منگدے
منگل
منگن
منگنی
منگو
منگول
منگولاں
منگولیا
منگی
منگیا
منگیشکر
منگے
منھ
منہ
منہاج
منہاس
منہج
منہدم
منی
منیا
منیاں
منیجر
منیجنگ
منیر
منیلا
منین
منے
مهدی
مو
مواخذہ
مواد
موارد
موازنہ
مواصلا
مواصلات
موافق
موافقت
مواقع
موباي
موت
موتاں
موتہ
موتی
موتیاں
موثر
موثق
موج
موجاں
موجب
موجد
موجود
موجودات
موجودگی
موجودہ
موحدین
موخر
مود
مودت
مودود
مودودی
مودی
مور
مورت
مورتاں
مورتی
مورتیاں
مورث
مورخ
مورخاں
مورخہ
مورخین
مورد
مورس
مورو
موروثی
موروس
مورچہ
مورچے
مورگن
موری
موریا
موریہ
موز
موزاں
موزش
موزمبیق
موس
موساد
موسسہ
موسم
موسماں
موسمی
موسمیا
موسوعة
موسوعہ
موسوم
موسوی
موسى
موسی
موسیقار
موسیقاراں
موسیقی
موشن
موصل
موصوف
موصول
موضع
موضوع
موضوعات
موضوعاں
موضوعی
موطا
موعود
موفق
موقع
موقعاں
موقعہ
موقعے
موقف
موقوف
مول
مولا
مولانا
مولر
مولف
مولوتوف
مولوی
مولک
مولی
مولیانا
موم
مومل
مومن
مومنین
مومینٹم
مون
مونا
مونث
موندی
مونس
مونٹ
مونٹانا
مونٹگمری
مونٹی
مونٹینیگرو
مونگ
مونگوز
مونہہ
مونہی
موومنٹ
مووی
موي
موٹا
موٹاي
موٹر
موٹرساي
موٹروے
موٹی
موٹے
موچی
موڈ
موڈھی
موڈی
موڑ
موگا
موہ
موہالی
موہری
موہن
موہنجودڑو
مویشی
مویشیاں
مي
مير
ميٹر
ميں
مٹ
مٹا
مٹانے
مٹر
مٹھ
مٹھا
مٹھاي
مٹھن
مٹھی
مٹی
مچ
مچا
مچل
مچھر
مچھلی
مچھلیاں
مچھی
مچھیاں
مڈ
مڈغاسکر
مڈل
مڈھ
مڈھلا
مڈھلی
مڈھلے
مڑ
مڑجوڑ
مک
مکا
مکاتب
مکاتیب
مکارم
مکالمہ
مکالمے
مکان
مکانات
مکاناں
مکانی
مکاو
مکاں
مکت
مکتب
مکتبة
مکتبہ
مکتبۃ
مکتسر
مکتفی
مکتوب
مکتوبات
مکتی
مکر
مکران
مکرر
مکرم
مکرمہ
مکروہ
مکعب
مکمل
مکن
مکي
مکٹی
مکڑی
مکھ
مکھرجی
مکھن
مکھی
مکھیاں
مکہ
مکی
مکیش
مکینکس
مکینیکل
مکے
مگ
مگدھ
مگدھا
مگر
مگراس
مگرمچھ
مگروں
مہ
مہا
مہابت
مہابھارت
مہاتما
مہاجر
مہاجراں
مہاجرین
مہاجن
مہادیو
مہار
مہاراج
مہاراجا
مہاراجہ
مہاراجے
مہاراشٹر
مہاراشٹرا
مہارانا
مہارانی
مہارت
مہان
مہاویر
مہاکاوی
مہاں
مہایان
مہت
مہتاب
مہتمم
مہتوپورن
مہتہ
مہدوی
مہدویت
مہدی
مہذب
مہر
مہران
مہراں
مہربان
مہربانی
مہرہ
مہلب
مہلت
مہلک
مہم
مہمات
مہمان
مہماناں
مہماں
مہنت
مہندر
مہندرا
مہندی
مہنگا
مہنگاي
مہنگی
مہنگے
مہک
مہیا
مہیش
مہینا
مہیندر
مہینوال
مہینہ
مہینیاں
مہینے
مہینےا
مۃ
می
میا
میامی
میان
میانمار
میانوالی
میانچنوں
میانہ
میانی
میاں
میت
میتھمیٹکس
میتھین
میتھیو
میثاق
میثم
میجر
میخاي
مید
میدان
میداناں
میدانی
میر
میرا
میراث
میراں
میرج
میرزا
میرٹ
میرٹھ
میرٹھی
میرپور
میری
میرین
میرینز
میرے
میز
میزان
میزاي
میزبان
میزبانی
میزش
میساچوسٹس
میسر
میسرہ
میسن
میسور
میسوپوٹیمیا
میسی
میسیڈونیا
میعاد
میل
میلا
میلاد
میلادی
میلان
میلانی
میلبورن
میلسی
میلو
میلکم
میلہ
میلے
میلےا
میم
میمبر
میمبراں
میمن
میمنہ
میموری
میموریال
میموریل
میمون
مین
مینا
مینار
میناراں
میناں
مینجمنٹ
مینز
مینشن
مینن
مینو
مینوفیکچرنگ
مینوي
مینوں
مینڈاناو
مینڈیٹ
مینہ
مینہہ
مینہیٹن
مینی
مینیجر
مینیجمینٹ
مینیسوٹا
میو
میوات
میواڑ
میوزک
میوزیم
میوزیکل
میونخ
میونسپل
میونسپلٹی
میونسپلٹیاں
میوہ
میي
میٹ
میٹر
میٹرو
میٹروپولیٹن
میٹرک
میٹرکس
میٹری
میٹم
میٹنگ
میٹنگاں
میٹھی
میٹھے
میپ
میپل
میچ
میچاں
میچز
میڈ
میڈرڈ
میڈل
میڈم
میڈیا
میڈیسن
میڈیم
میڈیکل
میک
میکاع
میکاناي
میکانزم
میکاي
میکس
میکسم
میکسویل
میکسیکن
میکسیکو
میگا
میگاواٹ
میگزین
میں
میہ
مے
ن
نا
ناانصافی
نااہل
نااہلی
نابالغ
نابلس
نابود
نابھہ
نابینا
نات
ناتھ
ناجاي
ناجی
ناحق
ناحیہ
ناخن
ناخوش
ناخوشگوار
ناد
نادر
نادرشاہ
نادرہ
نادیہ
نار
نارا
ناراض
ناراضگی
ناراضی
ناراي
ناراین
نارتھ
ناردرن
نارمل
نارمن
ناروا
نارووال
ناروے
ناریل
ناز
نازل
نازک
نازی
نازیاں
نازیہ
ناسا
ناسخ
ناشر
ناصر
ناصرالدین
ناصری
ناطق
ناطے
ناظر
ناظرین
ناظم
نافذ
نافرمانی
نافع
ناقابل
ناقد
ناقدین
ناقص
ناقہ
نال
نالاي
نالاں
نالو
نالوں
نالہ
نالی
نالیاں
نالے
نام
نامزد
نامزدگی
نامزدگیاں
نامعلوم
ناممکن
نامناسب
نامه
نامور
ناموس
نامک
نامکس
نامکمل
نامہ
نامی
نامیاندی
نامے
نان
نانا
نانجنگ
نانو
نانوتوی
نانک
نانگ
نانہہ
نانی
ناو
ناواقف
ناواں
ناول
ناولاں
ناي
ناٹ
ناٹک
ناٹکاں
ناٹکی
ناپ
ناپاک
ناپسند
ناپسندیدگی
ناپسندیدہ
ناپن
ناپیا
ناپید
ناچ
ناچار
ناچاں
ناڈو
ناک
ناکا
ناکارہ
ناکافی
ناکام
ناکامی
ناکامیاں
ناکہ
ناگ
ناگا
ناگاساکی
ناگالینڈ
ناگزیر
ناگوار
ناگورنو
ناگپور
ناں
ناہر
ناہید
ناہیں
نایاب
نباتات
نباتہ
نبرد
نبوت
نبوی
نبویہ
نبھا
نبھاو
نبھاي
نبھایا
نبی
نبیاں
نبیل
نت
نتاي
نتقال
نتیجتا
نتیجہ
نتیجے
نثار
نثر
نثری
نج
نجات
نجار
نجاست
نجاشی
نجد
نجدی
نجران
نجس
نجف
نجفی
نجم
نجمی
نجن
نجوم
نجکاری
نجی
نجیب
نحضرت
نحل
نحو
نحوی
نخعی
نخلستان
نخچیوان
ند
ندا
ندامت
ندتی
ندر
ندرے
ندوۃ
ندوی
ندگان
ندگی
ندھرا
ندھی
ندہ
ندی
ندیاں
ندیم
ندے
ندےا
نذر
نذرانہ
نذرانے
نذیر
نر
نراي
نربھر
نرت
نرخاں
نردھارت
نردیش
نردیشانک
نرز
نرس
نرسمہا
نرسنگ
نرسی
نرم
نرمان
نرمدا
نرمی
نرندر
نروان
نرول
نرگس
نری
نریری
نریش
نریندر
نز
نزار
نزاع
نزاکت
نزد
نزدیک
نزدیکی
نزول
نس
نسا
نساء
نساب
نسان
نسانی
نساي
نسب
نسبت
نسبتا
نسبی
نستعلیق
نسخ
نسخہ
نسخے
نسخےا
نسدان
نسداناں
نسز
نسق
نسل
نسلا
نسلاں
نسلی
نسو
نسوانی
نسوانیت
نسواں
نسٹاي
نسی
نسیم
نش
نشا
نشاط
نشان
نشانات
نشاندہی
نشانچی
نشانہ
نشانی
نشانیاں
نشانے
نشاں
نشاۃ
نشتر
نشر
نشریات
نشست
نشستاں
نشو
نشوونما
نشپ
نشچت
نشہ
نشیب
نشیبی
نشین
نشینی
نشے
نص
نصاب
نصابی
نصاری
نصب
نصر
نصراللہ
نصرانی
نصرت
نصف
نصوص
نصیب
نصیحت
نصیحتاں
نصیر
نصیرالدین
نضیر
نطفہ
نظ
نظارت
نظارہ
نظارے
نظام
نظاماں
نظامت
نظامی
نظامیہ
نظر
نظرا
نظرانداز
نظراں
نظربند
نظربندی
نظرثانی
نظري
نظری
نظریا
نظریات
نظریي
نظریہ
نظریے
نظم
نظماں
نظمی
نظیر
نعت
نعتیہ
نعراں
نعرہ
نعرے
نعش
نعمان
نعمانی
نعمت
نعمتاں
نعیم
نعیمی
نغمہ
نغمے
نغمےا
نفاذ
نفاست
نفاق
نفر
نفرت
نفری
نفس
نفسانی
نفسی
نفسیا
نفسیات
نفسیاتی
نفع
نفوذ
نفوس
نفی
نفیس
نقاب
نقاد
نقاداں
نقارہ
نقاشی
نقاط
نقاي
نقد
نقدی
نقش
نقشاں
نقشبند
نقشبندی
نقشبندیہ
نقشہ
نقشے
نقص
نقصان
نقصانات
نقض
نقطہ
نقطے
نقل
نقلاں
نقلی
نقوش
نقوی
نقی
نقیب
نل
نلاي
نلوا
نم
نما
نماز
نمازاں
نمازی
نمازیاں
نماي
نمایاں
نمایش
نمبر
نمبراں
نمر
نمل
نمو
نمود
نمودار
نمونہ
نمونے
نمونےا
نمٹنے
نمک
نمکین
نمی
نمیر
نن
ننجا
نند
نندا
نندپور
نندہ
نندی
نني
ننکانہ
ننگ
ننگا
ننگرہار
ننگل
ننگی
ننگے
ننھے
ننیں
نه
نهج
نو
نوا
نواب
نواباں
نوابی
نواح
نواحی
نوادرات
نوار
نواز
نوازی
نوازیا
نواس
نواسہ
نواسی
نواي
نواں
نوبت
نوبختی
نوبل
نوجوان
نوجوانان
نوجواناں
نوجوانی
نوح
نوحہ
نور
نورا
نورالدین
نورانی
نورجہا
نورجہاں
نورزي
نورنگا
نوروز
نوری
نوزاي
نوش
نوشت
نوشته
نوشتہ
نوشہرہ
نوشی
نوع
نوعمر
نوعیت
نوغاي
نوفل
نول
نوم
نومبر
نون
نونہال
نووا
نووگورد
نووی
نوویں
نوي
نويں
نوٹ
نوٹاں
نوٹری
نوٹس
نوٹنکی
نوک
نوکر
نوکراں
نوکری
نوکریاں
نوگوروڈ
نوں
نوںاي
نوی
نویاں
نوید
نویرہ
نویس
نویساں
نویسی
نوین
نویں
نوے
ني
نيں
نٹ
نٹر
نٹس
نٹشکے
نٹنگ
نٹی
نٹیاں
نٹین
نپولین
نچ
نچلا
نچلی
نچلے
نچن
نچوڑ
نڈ
نڈا
نڈر
نڈری
نڈس
نڈیشن
نڈے
نژاد
نک
نکا
نکات
نکاح
نکاراگوا
نکاس
نکاسی
نکال
نکالا
نکالنے
نکاندی
نکتہ
نکتے
نکسن
نکل
نکلا
نکلاں
نکلدا
نکلدی
نکلدیاں
نکلدے
نکلن
نکلنا
نکلنے
نکلی
نکلیا
نکلے
نکوبار
نکوسیا
نکولاي
نکولس
نکھ
نکھاں
نکھوں
نکھیں
نکہ
نکی
نکیاں
نکے
نگ
نگار
نگاراں
نگاری
نگاہ
نگاہاں
نگر
نگران
نگرانی
نگراں
نگری
نگل
نگم
نگن
نگورنو
نگيں
نگہبان
نگہداشت
نگے
نں
نھ
نھاں
نھیں
نہ
نہا
نہاد
نہار
نہال
نہاوند
نہاں
نہایت
نہج
نہر
نہراں
نہرو
نہروان
نہری
نہم
نہنگ
نہيں
نہی
نہیں
نی
نیا
نیابت
نیاز
نیازی
نیام
نیانے
نیاں
نیبراسکا
نیبراسکیا
نیت
نیتا
نیتن
نیتک
نیتی
نیدرلینڈ
نیدرلینڈز
نیر
نیروبی
نیز
نیزہ
نیزے
نیزےا
نیس
نیست
نیشا
نیشابور
نیشابوری
نیشاپور
نیشاپوری
نیشن
نیشنز
نیشنل
نیشنلسٹ
نیل
نیلا
نیلامی
نیلسن
نیلم
نیلی
نیلے
نیم
نیمت
نین
نینا
نیند
نیندی
نینسی
نینو
نینوا
نیو
نیواڈا
نیواں
نیوز
نیوزی
نیوزیلینڈ
نیول
نیولا
نیوٹران
نیوٹرون
نیوٹرینو
نیوٹن
نیوکت
نیوکلیاي
نیوکلیي
نیوی
نیویارک
نیویں
نیي
نیٹ
نیٹو
نیٹورک
نیپال
نیپالی
نیپولین
نیپچون
نیچ
نیچا
نیچر
نیچرل
نیچے
نیڑلے
نیڑے
نیڑےی
نیک
نیکوسیا
نیکولاي
نیکی
نیگرو
نیں
نیہہ
نے
نےاس
ه
هء
ها
هاشمی
های
هجری
هذا
هشام
هـ
هل
هم
همان
هو
و
وا
وابستگی
وابستہ
واثق
واجاي
واجب
واجبات
واجد
واجپاي
واحد
واد
وادا
وادي
وادھا
وادھو
وادھے
وادی
وادیاں
وار
وارا
وارانسی
وارانہ
واراں
وارتک
وارث
وارثاں
وارثی
وارد
واردات
وارسا
وارن
وارنر
وارنٹ
وارڈ
وارہ
واری
واریت
واز
وازاں
واس
واسباب
واستوک
واسط
واسطہ
واسطے
واسطےا
واسی
واسیاں
واسیلی
واش
واشنگٹن
واصف
واصل
واضح
واضع
واعظ
وافر
واقدی
واقع
واقعات
واقعتا
واقعہ
واقعی
واقعے
واقف
واقفیت
وال
والا
والاں
والجماعت
والد
والدہ
والدین
والرشاد
والسلام
واللہ
والنہایہ
والو
والوں
والي
والٹ
والٹر
والہ
والہانہ
والی
والیا
والیاں
والیس
والے
والےا
وامان
وان
وانا
وانصاف
وانگ
وانگوں
وانی
واو
واي
واٹ
واٹر
واٹس
واٹسن
واپس
واپسی
واچ
واک
واکاں
واکر
واکنش
واں
واہ
واہن
واہی
وب
وبا
وباي
وبگاه
وبھاگ
وبھوشن
وت
وتدریس
وتربیت
وتھ
وتی
وثاقت
وثوق
وج
وجا
وجاو
وجاہت
وجد
وجدان
وجوب
وجود
وجوں
وجوہ
وجوہات
وجي
وجہ
وجہہ
وجہہکرم
وجی
وجیتا
وجے
وح
وحدانیت
وحدت
وحدیث
وحشت
وحشی
وحشیانہ
وحی
وحید
وخلافت
ود
وداع
ودروہ
ودوان
ودواناں
ودھ
ودھا
ودھان
ودھانے
ودھاو
ودھاي
ودھایا
ودھدا
ودھدتی
ودھدی
ودھدے
ودھن
ودھنا
ودھنے
ودھی
ودھیا
ودھیاں
ودھیرے
ودھے
ودیا
ودیساں
ودیش
ور
وراثت
وراثتی
ورانہ
وراں
ورت
ورتارے
ورتاو
ورتدا
ورتدے
ورتن
ورتو
ورتوں
ورتکنیک
ورتھ
ورتی
ورتیا
ورتیاں
ورتے
ورثہ
ورثے
ورجن
ورجینیا
ورد
وردہ
وردی
ورزش
ورزی
ورزیاں
ورساي
ورسٹی
ورق
ورلڈ
ورم
ورما
ورمونٹ
ورن
ورنر
ورنن
ورنہ
ورودھ
ورٹوف
ورچوي
ورڈ
ورژن
ورک
ورکر
ورکرز
ورکس
ورکشاپ
ورکشاپس
ورکنگ
ورگ
ورگا
ورگی
ورگیاں
ورگے
ورھیاں
ورھے
وری
وریاں
ورے
وزارت
وزارتاں
وزبیر
وزرا
وزراء
وزراي
وزن
وزنی
وزڈن
وزیر
وزیراعظم
وزیراعلی
وزیراں
وزیرستان
وس
وساطت
وساي
وساکھی
وسایا
وستار
وستاں
وستم
وستو
وستواں
وستھار
وسدا
وسدے
وسرے
وسط
وسطی
وسعت
وسلم
وسن
وسنت
وسنیک
وسوں
وسکونسن
وسی
وسیا
وسیب
وسیع
وسیلہ
وسیلے
وسیم
وسے
وش
وشا
وشاعر
وشال
وشنو
وشو
وشواس
وشوناتھ
وشوکوش
وشکار
وشکارلے
وشیش
وصال
وصف
وصل
وصول
وصولی
وصی
وصیت
وضاحت
وضاحتاں
وضع
وضو
وطن
وطناں
وطنی
وظاي
وظیفہ
وظیفے
وعدہ
وعدے
وعدےا
وعظ
وعیال
وغارت
وغیر
وغیرا
وغیرہ
وف
وفا
وفاء
وفات
وفادار
وفاداری
وفادارےا
وفاق
وفاقی
وفاي
وفد
وفضل
وفود
وفی
وفیات
وقار
وقاص
وقاي
وقت
وقتا
وقتاں
وقتی
وقعت
وقف
وقفہ
وقفے
وقوع
وقوف
وكاتب
ول
ولا
ولادت
ولادی
ولادیمیر
ولایت
ولبھ
ولد
ولسن
ولف
ولن
ولندیزی
ولندیزیاں
ولو
ولوں
ولى
ولکھن
ولگن
ولہیلم
ولہیلمینا
ولہیم
ولی
ولید
ولیم
ولیمز
ولیي
وم
وما
ومن
ون
ونجارا
وند
وندا
وندی
وندے
ونسب
ونسٹن
ونش
ونود
ونڈ
ونڈا
ونڈاں
ونڈن
ونڈو
ونڈوز
ونڈی
ونڈیا
ونڈے
ونگ
ونگی
ونگیاں
ونی
وه
وو
وورن
وولٹ
وولٹیج
وولگا
وومن
وومین
وون
ووي
ووٹ
ووٹاں
ووٹر
ووٹراں
ووٹرز
ووٹنگ
ووڈ
ووڈس
ووکیبولری
وي
ويں
وٹ
وٹامن
وٹاندرے
وپ
وپار
وپاری
وپر
وچ
وچار
وچاراں
وچاردھارا
وچالے
وچاں
وچلی
وچلے
وچو
وچوں
وچکار
وچکارلے
وڈ
وڈا
وڈھیاں
وڈی
وڈیاي
وڈیاں
وڈیو
وڈے
وڑ
وژن
وک
وکاس
وکالت
وکرم
وکری
وکشمیر
وکلا
وکلاء
وکمال
وکٹ
وکٹاں
وکٹر
وکٹوریا
وکٹوریہ
وکھ
وکھالہ
وکھالے
وکھاو
وکھاي
وکھایا
وکھرا
وکھری
وکھریاں
وکھرے
وکھو
وکھے
وکی
وکیع
وکیل
وکیپیڈیا
وگدا
وگدی
وگیان
وگیانی
وں
وھی
وہ
وہابی
وہابیاں
وہابیت
وہار
وہاي
وہاڑی
وہاں
وہب
وہم
وہی
وہیل
وہیں
وی
ویا
ویاس
ویانا
ویاکھیا
ویاں
ویاہ
ویاہیا
ویب
ویبر
ویبساي
ویبسٹر
ویت
ویتنام
ویتنامی
وید
ویدانت
ویداں
ویدک
ویدی
ویر
ویرا
ویران
ویرایش
ویروا
ویروے
ویری
ویز
ویزا
ویزاں
ویس
ویسا
ویسٹ
ویسٹرن
ویسی
ویسے
ویشنو
ویغور
ویغوراں
ویل
ویلا
ویلتھ
ویلز
ویلس
ویلفیي
ویلنٹاي
ویلنگٹن
ویلٹ
ویلہ
ویلی
ویلیاں
ویلے
ویمن
ویمنز
وین
وینا
وینزویلا
وینس
وینکوور
وینگ
وینیشین
ویو
ویونت
ویي
ویٹ
ویٹرنری
ویٹو
ویٹیکن
ویچ
ویچن
ویچیا
ویڈیو
ویڈیوز
ویژن
ویژیول
ویک
ویکتی
ویکتیاں
ویکسین
ویکٹر
ویکٹراں
ویکھ
ویکھدا
ویکھدیاں
ویکھدے
ویکھن
ویکھنا
ویکھو
ویکھکے
ویکھی
ویکھیا
ویکھے
ویکی
ویکیپیڈیا
ویگن
ویں
ویہويں
ویہویں
ویہڑے
ویہہ
وے
ى
ي
يا
ياں
يت
يتی
يد
ير
يل
يم
ين
يه
يوسف
يں
يہ
ً
ٌ
ٍ
َ
ُ
ِ
ّ
ْ
ٓ
ٔ
ٕ
ٖ
ٗ
٘
ٛ
٠
١
١٠
١٣
١٩
٢
٣
٤
٥
٦
٦٦
٧
٨
٩
٪
٫
٬
٭
ٰ
ٹ
ٹا
ٹارزن
ٹارپیڈو
ٹاس
ٹاسک
ٹال
ٹالسٹاي
ٹام
ٹانک
ٹانگ
ٹانگاں
ٹاو
ٹاور
ٹاورز
ٹاون
ٹاي
ٹاٹا
ٹاپ
ٹاپو
ٹاک
ٹاں
ٹاہلی
ٹبر
ٹبری
ٹتے
ٹر
ٹرافی
ٹرام
ٹرانزٹ
ٹرانس
ٹرانسجینڈر
ٹرانسفر
ٹرانسمیشن
ٹرانسمیٹر
ٹرانسپورٹ
ٹرانسکاکیشیا
ٹراي
ٹراٹسکی
ٹراپیکی
ٹرباي
ٹربیون
ٹردا
ٹرز
ٹرسٹ
ٹرسٹی
ٹرمپ
ٹرمینل
ٹرن
ٹرنر
ٹروجن
ٹروگن
ٹرپل
ٹرک
ٹرکاں
ٹری
ٹریا
ٹریبونل
ٹریبیون
ٹریفک
ٹرین
ٹریناں
ٹریننگ
ٹرینیڈاڈ
ٹریٹی
ٹریڈ
ٹریژری
ٹریک
ٹریکٹر
ٹریکٹراں
ٹزرلینڈ
ٹس
ٹشو
ٹفلوپس
ٹل
ٹلہ
ٹم
ٹماٹر
ٹن
ٹنا
ٹنل
ٹنڈو
ٹنڈولکر
ٹنگ
ٹو
ٹوانہ
ٹوبا
ٹوباگو
ٹوبہ
ٹور
ٹورانٹو
ٹورنامنٹ
ٹورنامینٹ
ٹورنٹو
ٹوری
ٹوریا
ٹول
ٹولی
ٹولیاں
ٹومب
ٹوموباي
ٹون
ٹونٹی
ٹونی
ٹونے
ٹوي
ٹوٹ
ٹوٹا
ٹوٹنے
ٹوٹی
ٹوٹے
ٹوپولوجی
ٹوپی
ٹوپیاں
ٹوڈرمل
ٹوڈے
ٹوک
ٹوکان
ٹوکری
ٹوکرے
ٹوکیو
ٹویٹ
ٹویٹر
ٹٹ
ٹٹن
ٹپ
ٹپنی
ٹپے
ٹڈ
ٹک
ٹکا
ٹکانہ
ٹکر
ٹکرا
ٹکراو
ٹکرایا
ٹکسال
ٹکسالی
ٹکنالوجی
ٹکو
ٹکٹ
ٹکٹاں
ٹکڑا
ٹکڑی
ٹکڑیاں
ٹکڑے
ٹکڑےا
ٹکے
ٹھ
ٹھا
ٹھاکر
ٹھایا
ٹھنڈ
ٹھنڈا
ٹھنڈی
ٹھنڈے
ٹھوس
ٹھونگا
ٹھوکر
ٹھٹوی
ٹھٹھہ
ٹھٹہ
ٹھکانہ
ٹھکانے
ٹھکانےا
ٹھکرا
ٹھگ
ٹھہر
ٹھہرا
ٹھہرایا
ٹھہرے
ٹھیٹھ
ٹھیک
ٹھیکیدار
ٹھے
ٹہ
ٹی
ٹیا
ٹیاں
ٹیبل
ٹیرول
ٹیسٹ
ٹیسٹاں
ٹیسٹنگ
ٹیل
ٹیلر
ٹیلنٹ
ٹیلی
ٹیلیسکوپ
ٹیلیفون
ٹیلیوژن
ٹیلیویژن
ٹیلیگرام
ٹیلے
ٹیم
ٹیماں
ٹیمپل
ٹین
ٹینس
ٹینسر
ٹینک
ٹینکاں
ٹینکر
ٹینیسی
ٹیوب
ٹیوشن
ٹیوٹ
ٹیوی
ٹیٹو
ٹیٹی
ٹیپ
ٹیپو
ٹیچر
ٹیچنگ
ٹیڈ
ٹیک
ٹیکا
ٹیکس
ٹیکساس
ٹیکساں
ٹیکسلا
ٹیکسٹ
ٹیکسٹاي
ٹیکسی
ٹیکنالوجی
ٹیکنالوجیز
ٹیکنیکل
ٹیگ
ٹیگور
ٹے
ٽ
پ
پا
پابند
پابندی
پابندیاں
پات
پاتر
پاتراں
پاتشاہ
پاتشاہی
پاتھ
پاداش
پادری
پادریاں
پادشاہ
پار
پارا
پارس
پارسی
پارسیاں
پارش
پارلیمان
پارلیمانی
پارلیمنٹ
پارلیمینٹ
پاروں
پارٹ
پارٹنر
پارٹی
پارٹیاں
پارٹیکل
پارٹیکلز
پارک
پارکاں
پارکر
پارکس
پارہ
پاری
پارے
پارےا
پاس
پاسداران
پاسداری
پاسوں
پاسپورٹ
پاسہ
پاسیاں
پاسیوں
پاسے
پاسےاوں
پاش
پاشا
پاشی
پال
پالتو
پالش
پالن
پالنا
پالنے
پالو
پالکی
پالی
پالیا
پالیسی
پالیسیاں
پالے
پام
پامال
پامالی
پامیر
پان
پانا
پاناما
پانامہ
پاندا
پاندھی
پاندی
پاندے
پانچ
پانڈو
پانڈیا
پانڈے
پانی
پانیاں
پانے
پاو
پاواں
پاور
پاورز
پاول
پاون
پاي
پاٹ
پاٹل
پاٹھ
پاٹھک
پاٹھکاں
پاپ
پاپاي
پاپوا
پاپوانیوگنی
پاپولر
پاپین
پاک
پاکر
پاکستان
پاکستانی
پاکستانیاں
پاکپتن
پاکیزگی
پاکیزہ
پاگل
پاگي
پاں
پایا
پایگاه
پایہ
پاییز
پاݨی
پبلشر
پبلشرز
پبلشنگ
پبلک
پبلی
پبلیشرز
پبلیکیشن
پبلیکیشنز
پت
پتا
پتر
پترا
پتراں
پتری
پتل
پتلا
پتلی
پتلے
پتن
پتنگ
پتنی
پتھر
پتھراو
پتھراں
پتہ
پتی
پتیاں
پتے
پتےا
پج
پجاری
پجاریاں
پجے
پختون
پختونخوا
پختونخواہ
پختگی
پختہ
پد
پدارتھ
پدر
پدم
پدما
پدھر
پدھری
پدی
پدے
پذیر
پذیراي
پذیری
پر
پرا
پراجیکٹ
پراس
پراسرار
پراسیکیوٹر
پرامن
پران
پرانا
پراناں
پرانی
پرانیاں
پرانے
پراي
پراپت
پراپرٹی
پراچین
پراک
پراکرت
پراکسی
پراگ
پراں
پربت
پربندھ
پربندھن
پربندھک
پربندھکی
پربھاشت
پربھاو
پربھاوت
پربھو
پربھی
پرت
پرتاب
پرتاپ
پرتاں
پرتشدد
پرتن
پرتو
پرتگال
پرتگالی
پرتگالیاں
پرتگیزی
پرتھ
پرتھا
پرتھوی
پرتی
پرتیت
پرتیک
پرجا
پرجاتیاں
پرجوش
پرحملہ
پردان
پردرشت
پردھان
پردہ
پردیس
پردیسی
پردیش
پردے
پرزور
پرس
پرساد
پرسار
پرست
پرستار
پرستانہ
پرستاں
پرستت
پرستتی
پرستش
پرستی
پرسدھ
پرسن
پرسنل
پرسپر
پرسکار
پرسکو
پرسی
پرشاد
پرشن
پرشیا
پرشین
پرط
پرعزم
پرفارم
پرفارمنس
پرقبضہ
پرل
پرم
پرماتما
پرمار
پرمانک
پرمشتمل
پرمپرا
پرمپراواں
پرمکھ
پرنالی
پرنالیاں
پرندہ
پرندے
پرندےا
پرنس
پرنسٹن
پرنسپل
پرنٹ
پرنٹنگ
پرو
پروا
پروار
پرواراں
پرواز
پروازاں
پرواس
پرواسی
پروان
پروانگی
پروانہ
پرواہ
پروجیکٹ
پرور
پرورتن
پرورتی
پروردگار
پرورش
پروری
پروسیا
پروسیسنگ
پروشیا
پروفاي
پروفیسر
پروفیسرز
پروفیشنل
پرولتاریہ
پروٹسٹنٹ
پروٹو
پروٹون
پروٹوکول
پروٹین
پروپیگنڈا
پروپیگنڈہ
پروپیگنڈے
پروڈکشن
پروڈکٹ
پروڈیو
پروڈیوس
پروڈیوسر
پروگرام
پروگراماں
پروگرامنگ
پروگریسو
پروہت
پرویز
پروین
پرپیکھ
پرچار
پرچلت
پرچم
پرچہ
پرچے
پرکار
پرکاش
پرکاشت
پرکاشن
پرکریا
پرکشش
پرکھ
پرگنہ
پرگٹ
پرگٹاوا
پرھو
پرہیز
پرہیزگار
پری
پریا
پریاگ
پریاں
پریت
پریتم
پریرنا
پریزیڈنسی
پریس
پریشان
پریشانی
پریشانیاں
پریشد
پریشر
پریشن
پریشنز
پریشنل
پریفیکچر
پریم
پریمی
پریمیي
پریوار
پریواراں
پریوگ
پریٹر
پریٹنگ
پریٹو
پریڈ
پریکٹس
پرے
پزیر
پزیراي
پس
پسار
پست
پستول
پستک
پستی
پسر
پسماندگی
پسماندہ
پسند
پسندانہ
پسنداں
پسندی
پسندیدہ
پسو
پسپا
پسپاي
پسی
پشاو
پشاور
پشت
پشتاں
پشتو
پشتون
پشتوناں
پشن
پشو
پشواں
پشین
پطرس
پعارت
پعاڑ
پعاڑاں
پعاڑی
پل
پلا
پلازہ
پلاسٹک
پلاسی
پلان
پلاننگ
پلانٹ
پلانک
پلانے
پلاو
پلاي
پلاٹ
پلاٹون
پلاں
پلس
پلندری
پلنگ
پلوٹو
پلٹ
پلٹا
پلٹنے
پلک
پلہ
پلی
پلیس
پلین
پلیي
پلیٹ
پلیٹاں
پلے
پمپ
پن
پنا
پناہ
پناہی
پنت
پنتھ
پنج
پنجاب
پنجابی
پنجابیاں
پنجابیت
پنجاں
پنجاہ
پنجرے
پنجم
پنجواں
پنجويں
پنجویں
پنجہ
پنجے
پندراں
پندرہ
پندرہويں
پنر
پنسلوانیا
پنشن
پنوں
پنچ
پنچاي
پنچایت
پنچم
پنچھی
پنچھیاں
پنڈ
پنڈا
پنڈاں
پنڈت
پنڈتاں
پنڈی
پنڈے
پنک
پنگ
پنہ
پنی
پنیاں
پنیر
پنے
په
پو
پوا
پوار
پواي
پوت
پوتا
پوتر
پوتن
پوتے
پوجا
پودا
پودیاں
پودے
پودےا
پور
پورا
پورب
پوربی
پورس
پورم
پورن
پورو
پورٹ
پورٹریٹ
پورٹل
پورٹو
پورہ
پوری
پوریاں
پورے
پوزیشن
پوزیشناں
پوسٹ
پوسٹر
پوسٹل
پوش
پوشاک
پوشن
پوشی
پوشیدہ
پول
پولس
پولش
پولنگ
پولو
پولی
پولیس
پولینڈ
پولیو
پولیٹیکل
پومپیو
پون
پونا
پونجی
پونزی
پونچھ
پونڈ
پونہ
پونی
پونے
پوي
پوٹر
پوٹھوہار
پوٹھوہاری
پوپ
پوچھ
پوچھا
پوچھل
پوچھلی
پوچھی
پوڑی
پوکیمون
پوے
پي
پيا
پٹ
پٹرول
پٹرولیم
پٹن
پٹنا
پٹنہ
پٹواری
پٹھ
پٹھار
پٹھان
پٹھاناں
پٹھاں
پٹھے
پٹی
پٹیالہ
پٹیالے
پٹیاں
پٹیل
پٹینشل
پٹے
پچ
پچھا
پچھان
پچھانیا
پچھلا
پچھلی
پچھلے
پچھم
پچھمی
پچھوکڑ
پچھوں
پچھیا
پچھے
پچیس
پڑ
پڑا
پڑاو
پڑاي
پڑاں
پڑتا
پڑتال
پڑدا
پڑدی
پڑدے
پڑنا
پڑنے
پڑوس
پڑوسی
پڑوسیاں
پڑگي
پڑھ
پڑھا
پڑھانا
پڑھاندے
پڑھانے
پڑھاو
پڑھاي
پڑھایا
پڑھت
پڑھدا
پڑھدے
پڑھن
پڑھنا
پڑھنے
پڑھو
پڑھی
پڑھیا
پڑھیاں
پڑھے
پڑی
پڑے
پک
پکا
پکار
پکاردے
پکاریا
پکارے
پکاسو
پکانے
پکاي
پکاچو
پکایا
پکسل
پکسلز
پکو
پکوان
پکواناں
پکچر
پکچرز
پکڑ
پکڑی
پکڑے
پکھ
پکھاں
پکھوں
پکھڑوں
پکھی
پکی
پکیاں
پکے
پگ
پگڑی
پگھل
پھ
پھانسی
پھانسیاں
پھاي
پھاٹک
پھاڑ
پھر
پھرا
پھردا
پھردی
پھردے
پھرن
پھرنے
پھرے
پھسے
پھل
پھلار
پھلاں
پھلواری
پھلوالے
پھلکاری
پھلی
پھلیاں
پھلے
پھنس
پھول
پھولا
پھونک
پھوٹ
پھوڑ
پھٹ
پھٹا
پھٹنے
پھٹے
پھڑ
پھڑن
پھڑنا
پھڑنے
پھڑیا
پھی
پھیر
پھیری
پھیل
پھیلا
پھیلاندے
پھیلانے
پھیلاو
پھیلاي
پھیلایا
پھیلدا
پھیلدی
پھیلدے
پھیلن
پھیلنا
پھیلنے
پھیلڈ
پھیلی
پھیلیا
پھیلیانا
پھیلے
پھینکا
پھینکنے
پھینکے
پہ
پہاڑ
پہاڑاں
پہاڑی
پہاڑیاں
پہر
پہرہ
پہرے
پہل
پہلا
پہلاں
پہلو
پہلوا
پہلوان
پہلوں
پہلوی
پہلی
پہلیاں
پہلے
پہن
پہنا
پہنانے
پہنایا
پہندی
پہندے
پہننا
پہننے
پہنچ
پہنچا
پہنچاندا
پہنچاندے
پہنچانے
پہنچاو
پہنچاواں
پہنچاي
پہنچاں
پہنچایا
پہنچدا
پہنچدی
پہنچدے
پہنچن
پہنچنا
پہنچنے
پہنچک
پہنچکيا
پہنچی
پہنچیا
پہنچیاں
پہنچے
پہنی
پہنے
پہونچ
پہونچا
پہونچے
پہچان
پہچانا
پہچاننے
پہچانی
پہچانیا
پہچانے
پہیلی
پہیے
پی
پیا
پیادہ
پیادے
پیار
پیارا
پیاری
پیارے
پیاز
پیاس
پیاسا
پیالہ
پیالے
پیام
پیامبر
پیانو
پیتا
پیتل
پیج
پیدا
پیداوا
پیداوار
پیداواراں
پیداواری
پیداي
پیداہوي
پیدل
پیر
پیرا
پیراشوٹ
پیرامیٹر
پیراں
پیرزادہ
پیرس
پیرش
پیرمحل
پیرو
پیروکار
پیروکاراں
پیروی
پیری
پیریز
پیزارو
پیس
پیسہ
پیسیفک
پیسے
پیسےا
پیش
پیشاب
پیشانی
پیشاور
پیشتر
پیشرفت
پیشرو
پیشن
پیشوا
پیشواي
پیشکاری
پیشکش
پیشگی
پیشہ
پیشین
پیشے
پیشےا
پیغام
پیغامات
پیغمبر
پیغمبراں
پیغمبری
پیل
پیلا
پیلس
پیلن
پیلو
پیلی
پیلیس
پیلے
پیما
پیمان
پیمانہ
پیمانے
پیماي
پیمبرٹن
پین
پینا
پینانگ
پیندا
پیندی
پیندیاں
پیندے
پینزر
پینشن
پینل
پینٹ
پینٹاگون
پینٹر
پینٹنگ
پینٹنگز
پینڈا
پینڈو
پینڈے
پینگ
پینگوي
پینی
پینے
پیو
پیوست
پیوند
پیي
پیٹ
پیٹا
پیٹر
پیٹرا
پیٹرز
پیٹرزبرگ
پیٹرسن
پیٹرن
پیٹرو
پیٹروگراڈ
پیٹرک
پیٹریاارک
پیٹریاچریٹ
پیٹنٹ
پیٹھ
پیٹی
پیپر
پیپسو
پیپل
پیپلز
پیچ
پیچھے
پیچیدگی
پیچیدگیاں
پیچیدہ
پیڈ
پیڈرو
پیڈیا
پیڑ
پیڑت
پیڑھی
پیڑی
پیک
پیکار
پیکج
پیکر
پیکنگ
پیکٹ
پیکیج
پے
چ
چا
چابی
چابیاں
چادر
چادراں
چار
چارا
چاراں
چارج
چارلس
چارلی
چاروں
چارٹ
چارٹر
چارپاي
چارہ
چاریہ
چارے
چاقو
چال
چالاک
چالاکی
چالاں
چالو
چالی
چالیس
چام
چاند
چاندنی
چاندی
چانسلر
چانن
چانگ
چاو
چاول
چاي
چاپ
چاچا
چاچے
چاڈ
چاک
چاکر
چاکلیٹ
چاں
چاہ
چاہا
چاہتا
چاہتے
چاہن
چاہندا
چاہندی
چاہندے
چاہنے
چاہو
چاہي
چاہی
چاہیا
چاہیدا
چاہیدی
چاہیدے
چاہیي
چاہیے
چاہے
چبوترے
چت
چتر
چترال
چترالی
چتراں
چترن
چترکار
چتوڑ
چر
چرا
چراغ
چراغاں
چراگاہ
چراگاہاں
چربی
چرمٹ
چرن
چرواہے
چرچ
چرچا
چرچل
چرچہ
چری
چست
چستی
چشت
چشتی
چشتیاں
چشتیہ
چشم
چشماں
چشمہ
چشمے
چغتاي
چل
چلا
چلان
چلانا
چلاندا
چلاندی
چلاندے
چلانے
چلاو
چلاواں
چلاي
چلاگیا
چلاں
چلایا
چلتا
چلدا
چلدی
چلدیاں
چلدے
چلن
چلنا
چلنے
چلو
چلياں
چلڈرن
چلی
چلیا
چلیاں
چلے
چمن
چمپا
چمڑی
چمڑے
چمک
چمکدار
چمگادڑ
چمگادڑاں
چن
چنا
چناب
چنار
چنانچہ
چناو
چناي
چناں
چنتا
چنج
چند
چندا
چندر
چندرا
چندن
چندہ
چندی
چندے
چنويں
چنوں
چنڈی
چنگ
چنگا
چنگاری
چنگی
چنگیز
چنگیزی
چنگے
چنہ
چنی
چنیا
چنیوٹ
چنے
چهارم
چو
چوا
چوبارہ
چوبیس
چوتھ
چوتھا
چوتھاي
چوتھی
چوتھے
چوداں
چودھری
چودھواں
چودہ
چودہويں
چور
چوراں
چوری
چول
چولا
چولستان
چون
چونا
چوناں
چونویاں
چونویں
چونکہ
چونیاں
چونے
چوٹ
چوٹی
چوٹیاں
چوپڑ
چوپڑہ
چوڑا
چوڑاي
چوڑی
چوڑیاں
چوڑے
چوک
چوکور
چوکھا
چوکھی
چوکھے
چوکی
چوکیاں
چوکیدار
چوکیو
چوکے
چوں
چوہان
چوہدری
چوہے
چوے
چي
چٹا
چٹان
چٹاناں
چٹانی
چٹاگانگ
چٹرجی
چٹھی
چٹھیاں
چٹی
چٹے
چپ
چپکے
چچا
چچازاد
چڑدے
چڑھ
چڑھا
چڑھانے
چڑھاو
چڑھاي
چڑھایا
چڑھت
چڑھدا
چڑھدی
چڑھدے
چڑھن
چڑھنا
چڑھنے
چڑھی
چڑھیا
چڑھے
چڑی
چڑیا
چڑیاں
چڑیل
چک
چکا
چکتسا
چکر
چکرورتی
چکری
چکن
چکوال
چکور
چکيا
چکيت
چکی
چکیا
چکیاں
چکے
چھ
چھا
چھات
چھاتی
چھال
چھان
چھاو
چھاونی
چھاي
چھاپ
چھاپا
چھاپہ
چھاپی
چھاپیا
چھاپے
چھاپےا
چھاڑ
چھاں
چھایا
چھت
چھتاں
چھترپتی
چھتری
چھتیس
چھتیسگڑھ
چھدے
چھرا
چھری
چھل
چھلانگ
چھلے
چھمبر
چھن
چھند
چھنے
چھو
چھولس
چھولسی
چھونے
چھوٹا
چھوٹی
چھوٹیاں
چھوٹے
چھوڑ
چھوڑدتا
چھوڑدے
چھویں
چھٹ
چھٹا
چھٹکارا
چھٹی
چھٹیاں
چھپ
چھپا
چھپانے
چھپاي
چھپایا
چھپدا
چھپدے
چھپن
چھپنے
چھپڑ
چھپی
چھپیا
چھپے
چھڈ
چھڈن
چھڈنا
چھڈنے
چھڈو
چھڈکے
چھڈی
چھڈیا
چھڈے
چھڑ
چھڑا
چھڑانے
چھڑی
چھکے
چھیا
چھیتی
چھین
چھیندی
چھیننے
چھیواں
چھیويں
چھیویں
چھیڑ
چھے
چہ
چہار
چہارم
چہارمحال
چہراں
چہرہ
چہرے
چہل
چی
چیا
چیانگ
چیت
چیتن
چیتنا
چیتنیا
چیتے
چیخ
چیدہ
چیر
چیرکسیاں
چیز
چیزاں
چیف
چیفس
چیلنج
چیلنجاں
چیلے
چیمبر
چیمبرلین
چیمپي
چیمپین
چیمپیي
چین
چیناي
چینل
چینلاں
چینلز
چیني
چینی
چینیاں
چیي
چیٹ
چیپل
چیچن
چیچنیا
چیچک
چیچہ
چیک
چیکا
چیکو
چیکوسلواک
چیکوسلواکیہ
چیکوسلوواکیا
چے
ڈ
ڈا
ڈار
ڈارون
ڈارک
ڈاریکٹ
ڈال
ڈالا
ڈالاں
ڈالدا
ڈالدی
ڈالدے
ڈالر
ڈالنا
ڈالنے
ڈالو
ڈالی
ڈالیا
ڈالے
ڈان
ڈانس
ڈانسر
ڈاو
ڈاي
ڈاٹ
ڈاک
ڈاکو
ڈاکوواں
ڈاکٹر
ڈاکٹراں
ڈاکٹری
ڈاکٹریٹ
ڈب
ڈبل
ڈبلز
ڈبلن
ڈبلیو
ڈبنگ
ڈبو
ڈبکنی
ڈبہ
ڈبے
ڈر
ڈرافٹ
ڈراما
ڈراماي
ڈرامہ
ڈرامے
ڈرامےا
ڈرانے
ڈراو
ڈراي
ڈراپ
ڈرایا
ڈردا
ڈردے
ڈرو
ڈرون
ڈریا
ڈریم
ڈریکشن
ڈریکٹ
ڈریکٹر
ڈریگن
ڈز
ڈزاي
ڈزنی
ڈس
ڈسٹرکٹ
ڈسٹریبیوٹری
ڈسپلے
ڈسچارج
ڈسک
ڈش
ڈفن
ڈل
ڈلہوزی
ڈن
ڈنمارک
ڈنڈا
ڈنڈی
ڈنڈے
ڈنگ
ڈنگر
ڈنگراں
ڈو
ڈواي
ڈوبنے
ڈور
ڈول
ڈولفن
ڈولی
ڈوم
ڈوما
ڈومیسٹک
ڈومین
ڈومینیکن
ڈون
ڈونلڈ
ڈونگ
ڈونگھا
ڈونگھی
ڈونگھے
ڈونیٹسک
ڈوي
ڈوگرا
ڈوگرہ
ڈویزن
ڈویلپمنٹ
ڈویژن
ڈویژناں
ڈویژنل
ڈٹ
ڈپارٹمنٹ
ڈپلوما
ڈپلومہ
ڈپلومیسی
ڈپو
ڈپٹی
ڈچ
ڈچاں
ڈچی
ڈڈو
ڈک
ڈکشنری
ڈکوٹا
ڈکيت
ڈکٹیٹر
ڈگ
ڈگدا
ڈگدی
ڈگری
ڈگریاں
ڈگلس
ڈگن
ڈھ
ڈھال
ڈھالنے
ڈھالیا
ڈھانپ
ڈھانچا
ڈھانچہ
ڈھانچے
ڈھاي
ڈھاکا
ڈھاکہ
ڈھل
ڈھلوان
ڈھلوں
ڈھنگ
ڈھول
ڈھولا
ڈھڈ
ڈھکا
ڈھکویں
ڈھکی
ڈھکے
ڈھیر
ڈھیلے
ڈھے
ڈی
ڈیاز
ڈیاگو
ڈیبیو
ڈیتھ
ڈیجیٹل
ڈیر
ڈیرا
ڈیرہ
ڈیری
ڈیرے
ڈیزاي
ڈیزرٹ
ڈیزل
ڈیس
ڈیسک
ڈیشن
ڈیفنس
ڈیل
ڈیلٹا
ڈیلی
ڈیم
ڈیموکریسی
ڈیموکریٹ
ڈیموکریٹس
ڈیموکریٹک
ڈیموگرافی
ڈین
ڈینس
ڈینش
ڈینوب
ڈینٹل
ڈینی
ڈینیل
ڈینیوب
ڈینیي
ڈیو
ڈیواي
ڈیورنڈ
ڈیوس
ڈیولپمنٹ
ڈیوٹی
ڈیوڈ
ڈیوک
ڈیوی
ڈیي
ڈیٹ
ڈیٹا
ڈیپارٹمنٹ
ڈیپارٹمنٹاں
ڈیڈ
ڈیڈھ
ڈیڑھ
ڈیک
ڈیکوٹا
ڈے
ڊ
ڏ
ڑ
ڑا
ڑی
ڑیاں
ڑے
ژ
ژانگ
ژنگ
ژو
ژوو
ژینگ
ڙ
ڡ
ک
کا
کاا
کااک
کابل
کابلی
کابیان
کابینہ
کاتب
کاتھولک
کاج
کاجل
کار
کارا
کاراباخ
کاراں
کاربن
کاربند
کارج
کارجاں
کارخانہ
کارخانے
کارخانےا
کاررواي
کارزار
کارس
کارفرما
کارل
کارلوس
کارن
کارنامہ
کارنامے
کارنامےا
کارناں
کارندےا
کارنر
کاروان
کارواي
کارواں
کاروبار
کاروباراں
کاروباری
کارٹر
کارٹون
کارپس
کارپوریشن
کارپوریشناں
کارپوریٹ
کارڈ
کارڈنل
کارکردگی
کارکن
کارکنان
کارکناں
کارگر
کارگزاری
کارگل
کارگو
کارہاي
کاری
کاریاں
کاریگر
کاریگراں
کاز
کازان
کازاک
کاس
کاسا
کاسترو
کاسٹ
کاسک
کاش
کاشان
کاشانی
کاشت
کاشتکار
کاشتکاراں
کاشتکاری
کاشغر
کاشف
کاشفی
کاشمیری
کاشی
کاظم
کاظمی
کاظمین
کاغان
کاغذ
کاغذات
کاغذی
کافر
کافراں
کافور
کافی
کافیاں
کال
کالا
کالاں
کالج
کالجاں
کالجز
کالر
کالعدم
کالم
کالماں
کالنجر
کالو
کالونی
کالونیاں
کالپی
کالی
کالیاں
کالیکٹ
کالے
کام
کاما
کامبیٹ
کامران
کامرس
کامریڈ
کامل
کامن
کامنز
کامک
کامکس
کامی
کامیاب
کامیابی
کامیابیاں
کامیڈی
کان
کانام
کاناں
کانت
کاندھلوی
کانسی
کانفرنس
کانفرنساں
کانٹے
کانپور
کانڈ
کانگ
کانگرس
کانگریس
کانگریسی
کانگو
کانگڑا
کانگڑہ
کانھ
کاو
کاوش
کاوشاں
کاوی
کاویری
کاي
کاٹ
کاپٹر
کاپٹراں
کاپی
کاپیاں
کاک
کاکا
کاکی
کاکیشین
کاں
کاہلی
کاہن
کایہ
کب
کباب
کبار
کبری
کبوتر
کبڈی
کبھی
کبھے
کبیر
کبیروالا
کبیرہ
کت
کتا
کتاب
کتاباں
کتابت
کتابخانہ
کتابوں
کتابچہ
کتابچے
کتابی
کتابیات
کتابیں
کتاں
کتب
کتبہ
کتبے
کتنا
کتنی
کتنے
کتھا
کتھاواں
کتھن
کتھک
کتھے
کتی
کتیاں
کتے
کثافت
کثرت
کثیر
کثیف
کج
کجھ
کد
کداي
کدرے
کدو
کدوں
کدھرے
کدہ
کدی
کدے
کذاب
کر
کرا
کرادتا
کراس
کراسنگ
کرافٹ
کرام
کرامات
کرامت
کران
کرانا
کراندا
کراندے
کرانی
کرانے
کراو
کراي
کراچی
کراکر
کراں
کرایا
کرایہ
کرب
کربلا
کربلاي
کرت
کرتا
کرتار
کرتارپور
کرتاہے
کرتی
کرتے
کرد
کردا
کردار
کرداراں
کرداں
کردتا
کردتی
کردتیاں
کردتے
کردستان
کردن
کردند
کردو
کردي
کردہ
کردی
کردیا
کردیاں
کردین
کردینا
کردیندا
کردیندی
کردیندے
کردینے
کردیے
کردے
کررکھیا
کررہی
کررہیا
کررہیاں
کررہے
کرزن
کرس
کرسمس
کرسٹل
کرسٹوفر
کرسٹینا
کرسچن
کرسک
کرسکا
کرسکدا
کرسکدی
کرسکدے
کرسکن
کرسکیا
کرسی
کرشمہ
کرشن
کرشنا
کرشنن
کرغزستان
کرغیز
کرغیزستان
کرفیو
کرلا
کرلاں
کرلو
کرلي
کرلی
کرلیا
کرلیاں
کرلینا
کرلیندا
کرلیندے
کرلینے
کرلے
کرم
کرما
کرمان
کرمانشاہ
کرمانی
کرن
کرنا
کرنال
کرناٹک
کرناں
کرندے
کرنسی
کرنسیاں
کرنل
کرنٹ
کرنگے
کرنی
کرنیل
کرنے
کرو
کروا
کروانا
کرواندے
کروانے
کرواو
کرواواں
کرواي
کروایا
کروبیالوجی
کروز
کروزر
کروشیا
کروشین
کرونا
کرونیکل
کروٹ
کروڑ
کروڑاں
کروکشیتر
کروگے
کروں
کريں
کرٹ
کرپا
کرپال
کرپشن
کرپٹ
کرچک
کرچکيا
کرچکے
کرڈالیا
کرک
کرکٹ
کرکٹر
کرکٹرز
کرکی
کرکے
کرگي
کرگیا
کرہ
کری
کریا
کریاواں
کریس
کریم
کریملن
کریمہ
کریمی
کریمیا
کریمیاي
کریمین
کرین
کریي
کریٹ
کریڈٹ
کریک
کریگ
کریگا
کریگی
کریں
کرے
کزن
کس
کساد
کسان
کساناں
کسانی
کساي
کسب
کسر
کسری
کسفورڈ
کسوٹی
کسى
کسٹم
کسی
کسیجن
کسے
کش
کشا
کشادہ
کشان
کشاي
کشاں
کشت
کشتہ
کشتی
کشتیاں
کشش
کشف
کشمکش
کشمیر
کشمیری
کشمیریاں
کشن
کشور
کشی
کشیدگی
کشیدہ
کعب
کعبہ
کعبے
کعر
کف
کفار
کفارہ
کفالت
کفایت
کفایہ
کفایۃ
کفر
کفن
کفیل
کل
کلا
کلاب
کلارا
کلارک
کلاز
کلاس
کلاساں
کلاسک
کلاسیکل
کلاسیکی
کلام
کلامی
کلانور
کلانگ
کلاو
کلاي
کلاکار
کلاکاراں
کلاں
کلب
کلباں
کلبی
کلثوم
کلدیپ
کلر
کلرک
کلمات
کلمہ
کلنٹن
کلنڈر
کلنگ
کلو
کلومیٹر
کلوگرام
کلپھورڈ
کلچر
کلچرل
کلک
کلکتہ
کلکتے
کلکی
کلہوڑا
کلی
کلیات
کلیان
کلیانی
کلیاں
کلیجہ
کلید
کلیدی
کلیر
کلیسا
کلیساي
کلیسیا
کلیسیاي
کلیم
کلین
کلینڈ
کلینک
کلینی
کلیي
کلیہ
کلے
کم
کما
کمار
کماری
کمال
کمالات
کمالیہ
کمان
کمانڈ
کمانڈر
کمانڈراں
کمانڈنگ
کمانڈو
کمانڈوز
کمانے
کماو
کماي
کماں
کمایا
کمبل
کمبوج
کمبوڈیا
کمبوہ
کمتر
کمر
کمرشل
کمرہ
کمرے
کمرےا
کمزور
کمزوری
کمزوریاں
کمسن
کمشنر
کمل
کملا
کمپاو
کمپلیکس
کمپنی
کمپنیاں
کمپوزر
کمپوچیا
کمپیوٹر
کمپیوٹنگ
کمک
کمی
کمیت
کمیشن
کمیشنر
کمیل
کمیون
کمیونزم
کمیونسٹ
کمیونسٹاں
کمیونٹی
کمیونٹیز
کمیونیکیشن
کمیٹی
کمیٹیاں
کن
کنا
کنار
کنارہ
کنارے
کنارےا
کنال
کنانہ
کناڈا
کناں
کنبہ
کنبے
کنت
کنجی
کند
کندن
کندھ
کندھاں
کندھے
کندھےا
کندہ
کندی
کنز
کنزرویٹو
کنساس
کنسرٹ
کنشک
کنعان
کنفیوشس
کنفیڈریشن
کنندگان
کنندہ
کننگھم
کنواری
کنواں
کنوج
کنور
کنول
کنونشن
کنويں
کنيز
کنٹرول
کنٹری
کنڈ
کنڈا
کنڈکٹر
کنڈھے
کنڈی
کنڈیاں
کنڈیلے
کنڈے
کنڑ
کنڑا
کنک
کنکریٹ
کنکشن
کنگ
کنگز
کنگڈم
کنہیا
کنی
کنیا
کنیت
کنید
کنیسہ
کنے
که
کو
کوا
کوارٹر
کوارک
کواس
کوالا
کوالالمپور
کوالٹی
کوالیفاي
کوان
کوانٹم
کواي
کوبان
کوبرا
کوبھی
کوبیسیک
کوتاہی
کوتوال
کوثر
کود
کور
کورا
کورس
کورسز
کورش
کورو
کورونا
کورٹ
کورٹس
کورٹیس
کوری
کوریا
کوریاي
کوریج
کورین
کورے
کوس
کوسوو
کوسٹ
کوسٹا
کوسٹاریکا
کوش
کوشاں
کوشش
کوششاں
کوفہ
کوفی
کوفیاں
کوفے
کول
کولا
کولمبس
کولمبو
کولمبیا
کولن
کولو
کولوراڈو
کولوں
کولکات
کولکاتہ
کولکتہ
کولی
کومل
کومنترن
کون
کونسا
کونسل
کونسلاں
کونسلر
کونے
کووڈ
کوي
کوٹ
کوٹا
کوٹلہ
کوٹلی
کوٹھی
کوٹھے
کوٹہ
کوٹی
کوپر
کوپن
کوچ
کوچنگ
کوچک
کوچہ
کوچی
کوچین
کوچےا
کوڈ
کوڈیکس
کوڑا
کوڑی
کوڑیاں
کوڑے
کوک
کوکا
کوکو
کوہ
کوہاٹ
کوہستان
کوہستانی
کوہلی
کوہن
کوہیما
کوی
کویاں
کویت
کویتا
کویتاواں
کویندی
کویں
کى
کي
کيا
کيت
کيتا
کيتاگیا
کيتاہے
کيتياں
کيتی
کيتیاں
کيتے
کٹ
کٹا
کٹاو
کٹاي
کٹر
کٹن
کٹنا
کٹنے
کٹک
کٹھ
کٹھن
کٹھیاں
کٹھے
کٹی
کٹیا
کٹے
کپ
کپاس
کپاہ
کپتان
کپتانی
کپل
کپور
کپورتھلہ
کپڑ
کپڑا
کپڑے
کپڑےا
کچ
کچا
کچل
کچلنے
کچھ
کچھی
کچہری
کچی
کچے
کڈ
کڈدے
کڈنا
کڈھ
کڈھن
کڈھی
کڈھیا
کڈی
کڈیا
کڈے
کڑا
کڑھاي
کڑی
کڑیاں
کڑے
کک
ککر
ککڑ
ککک
کگی
کگیاں
کھ
کھا
کھاتاں
کھاتہ
کھاتے
کھاد
کھادی
کھالاں
کھان
کھانا
کھاناں
کھاندا
کھاندی
کھاندے
کھانے
کھاو
کھاواں
کھاي
کھاڑی
کھاکر
کھاں
کھایا
کھبے
کھتری
کھجور
کھجوراں
کھدا
کھداي
کھدی
کھدے
کھر
کھرل
کھل
کھلا
کھلانے
کھلاڑی
کھلاڑیاں
کھلایا
کھلدا
کھلم
کھلنے
کھلو
کھلونا
کھلونے
کھلھے
کھلی
کھلے
کھن
کھنا
کھنڈ
کھنڈر
کھنڈرات
کھنہ
کھو
کھوار
کھوج
کھوجاں
کھوجی
کھود
کھودنے
کھول
کھولنا
کھولنے
کھولھ
کھولھیا
کھولی
کھولیا
کھولے
کھونے
کھوي
کھوپي
کھوکھر
کھوہ
کھویا
کھي
کھٹ
کھٹمنڈو
کھٹی
کھٹے
کھپت
کھچ
کھچوپڑا
کھچی
کھچیا
کھڈاری
کھڈاریاں
کھڑ
کھڑا
کھڑک
کھڑکی
کھڑکیاں
کھڑکیو
کھڑھا
کھڑی
کھڑے
کھی
کھیا
کھیت
کھیتاں
کھیتر
کھیتراں
کھیتری
کھیتی
کھیر
کھیل
کھیلا
کھیلاں
کھیلدا
کھیلدی
کھیلدے
کھیلنا
کھیلنے
کھیلی
کھیلے
کھیمر
کھینچنے
کھینچی
کھیپ
کھیڈ
کھیڈاری
کھیڈاں
کھیڈدے
کھیڈن
کھیڈی
کھیڈیا
کھیڈے
کھے
کہ
کہا
کہاجاندا
کہانی
کہانیاں
کہاوت
کہاکہ
کہاں
کہتا
کہتے
کہف
کہلا
کہلاتا
کہلاندا
کہلاندی
کہلاندے
کہلانے
کہلاي
کہن
کہنا
کہندا
کہندی
کہندے
کہنہ
کہنے
کہو
کہکشاواں
کہکشاں
کہگیلویہ
کہہ
کہی
کہیا
کہیں
کہے
کی
کیا
کیانی
کیاں
کیاہے
کیبل
کیت
کیتا
کیتھرین
کیتھولک
کیتھیڈرل
کیتی
کیتیاں
کیتے
کیجي
کیجیے
کیخلاف
کیدا
کیر
کیرالا
کیرالہ
کیرانوی
کیرتن
کیرل
کیرلا
کیرن
کیرول
کیرولاي
کیرولینا
کیري
کیری
کیریبین
کیریي
کیس
کیسانیہ
کیساں
کیسر
کیسری
کیسز
کیسل
کیسپین
کیسپیي
کیسے
کیش
کیشن
کیشنز
کیف
کیفر
کیفی
کیفیات
کیفیت
کیفے
کیقباد
کیل
کیلاش
کیلنڈر
کیلومیٹر
کیلون
کیلي
کیلگری
کیلی
کیلیفورنیا
کیلینڈر
کیلے
کیمبرج
کیمبل
کیمرا
کیمرون
کیمرہ
کیمرے
کیمسٹ
کیمسٹری
کیمپ
کیمپاں
کیمپس
کیمیا
کیمیاء
کیمیاي
کیمیکل
کین
کینال
کینتھ
کیندا
کیندر
کیندی
کیندے
کینز
کینسر
کینن
کینو
کینوس
کینٹ
کینٹربری
کینٹن
کینٹکی
کینگرو
کینہ
کینیا
کینیڈا
کینیڈی
کینیڈین
کینیڈیي
کیو
کیواں
کیوبا
کیوبک
کیوبیک
کیوری
کیوریوسٹی
کیوسکس
کیول
کیولری
کیون
کیونجے
کیونکہ
کیوں
کیي
کیٹ
کیٹیگری
کیپ
کیپر
کیپلر
کیپٹن
کیپیٹل
کیچ
کیچڑ
کیڈٹ
کیڑا
کیڑیاں
کیڑے
کیک
کیں
کیہ
کیہا
کیہڑا
کیہڑی
کییف
کیے
کے
کےلي
کݨ
ڪ
گ
گا
گااں
گاتھا
گاجر
گار
گارنٹی
گارڈ
گارڈز
گارڈن
گارڈنر
گارڈین
گارگی
گال
گالڑ
گالی
گالیاں
گاما
گامزن
گان
گانا
گاناں
گاندھی
گاندے
گانسو
گانواں
گانے
گانےا
گاو
گاواں
گاي
گاڈ
گاڑی
گاڑیاں
گاں
گاہ
گاہاں
گاہک
گاہکاں
گاہی
گاہے
گایا
گبن
گبول
گت
گتی
گجر
گجرا
گجرات
گجراتی
گجرانوالا
گجراں
گجیانی
گد
گدا
گداز
گدھ
گدھا
گدھے
گدی
گذار
گذاری
گذر
گذرا
گذرنے
گذری
گذرے
گذشتہ
گر
گرا
گراف
گرافر
گرافک
گرافی
گرام
گرامر
گرامی
گرانٹ
گرانڈ
گرانڈے
گرانے
گراو
گراوٹ
گراي
گراڈ
گراں
گراہ
گرایا
گربانی
گربخش
گرج
گرجا
گرجاگھر
گرجستان
گرجے
گرد
گردا
گرداس
گردان
گردانا
گرداندے
گردانہ
گرداں
گردش
گردن
گردناں
گردوارہ
گردوارے
گردی
گردیال
گردے
گرفت
گرفتار
گرفتاری
گرفتاریاں
گرل
گرلز
گرم
گرما
گرماي
گرمت
گرمکھ
گرمکھی
گرمی
گرمیاں
گرمیت
گرنتھ
گرنتھاں
گرنے
گرو
گرودوارہ
گروزنی
گروواں
گروپ
گروپاں
گروپس
گروہ
گروہاں
گرچرن
گرچہ
گرڈ
گرگٹ
گرہ
گرہن
گری
گریجوي
گریجویشن
گریجویٹ
گریز
گریزاں
گریس
گریمر
گرین
گریناي
گرینڈ
گریوال
گریوٹی
گریویٹیشنل
گریٹ
گریٹر
گریڈ
گریکو
گریگری
گریگوری
گریہ
گرے
گز
گزار
گزارا
گزاراں
گزاردے
گزارش
گزارنا
گزارنے
گزارہ
گزاری
گزاریا
گزارے
گزر
گزردا
گزردے
گزرنا
گزرنے
گزرگاہ
گزرگاہاں
گزری
گزریا
گزرے
گزشتہ
گزيں
گزٹ
گزین
گزیناں
گستاخ
گستاخانہ
گستاخی
گسٹس
گشت
گف
گفت
گفتار
گفتگو
گل
گلا
گلاب
گلابی
گلاس
گلاسگو
گلاي
گلاں
گلبرٹ
گلبرگ
گلبرگہ
گلدستہ
گلزار
گلستان
گلشن
گلف
گلو
گلوب
گلوبل
گلوکار
گلوکاراواں
گلوکاراں
گلوکارہ
گلوکاری
گلپایگانی
گلڈ
گلکرسٹ
گلگت
گلہ
گلی
گلیاں
گلیشیر
گلیشیي
گلیل
گلیلیو
گلین
گلے
گم
گمان
گمبھیر
گمراہ
گمراہی
گمشدہ
گمنام
گن
گنا
گناں
گناہ
گناہاں
گنبد
گنبداں
گنت
گنتک
گنتی
گنج
گنجا
گنجان
گنجانی
گنجاي
گنجھل
گنجی
گندم
گندگی
گندھارا
گندھک
گندے
گننپھل
گنوا
گنڈا
گنڈھ
گنگ
گنگا
گنگادھر
گنگاوہی
گنگولی
گنی
گنیا
گنیازیادہ
گنیش
گنے
گو
گوا
گوادر
گوار
گوارا
گوالیار
گوالیي
گوانڈھی
گوانگڈونگ
گواي
گواہ
گواہاں
گواہی
گوبند
گوت
گوتم
گوتھک
گوجر
گوجرانوالہ
گوجرہ
گود
گودام
گوداوری
گور
گورا
گوراں
گورباچوف
گوردواریاں
گورمکھی
گورنر
گورنراں
گورنرز
گورنری
گورنریٹ
گورنمنٹ
گورننس
گورننگ
گورو
گورڈن
گورکھ
گورکھا
گورکھپور
گورکی
گوری
گوریلا
گورین
گورے
گوسوامی
گوش
گوشت
گوشہ
گوشے
گوشےا
گوفر
گول
گولف
گولن
گولڈ
گولڈن
گولکنڈہ
گولہ
گولی
گولیاں
گولیکانڈ
گولے
گون
گونج
گوند
گووند
گوي
گوٹھ
گوپال
گوپی
گوڈسے
گوڑا
گوڑے
گوک
گوکہ
گوگل
گوگیرہ
گوہر
گویا
گویرا
گي
گيا
گٹار
گٹھ
گٹھجوڑ
گٹھن
گپت
گپتا
گچھ
گڈ
گڈی
گڈیاں
گڈیرین
گڑ
گڑبڑ
گڑھ
گڑھا
گڑھاں
گڑھوال
گڑھی
گڑھے
گکو
گکھڑ
گھ
گھات
گھانا
گھاٹ
گھاٹی
گھاٹیاں
گھاہ
گھبرا
گھبراي
گھبراہٹ
گھبلے
گھر
گھرا
گھرانا
گھراناں
گھرانہ
گھرانے
گھراں
گھروں
گھری
گھریلو
گھرے
گھس
گھل
گھلدا
گھلدے
گھماو
گھمدا
گھمدی
گھمدے
گھمسان
گھمن
گھن
گھنٹہ
گھنٹی
گھنٹیاں
گھنٹے
گھنٹےا
گھنے
گھوش
گھول
گھوم
گھومنے
گھونٹ
گھوڑ
گھوڑا
گھوڑسوار
گھوڑی
گھوڑیاں
گھوڑے
گھوڑےا
گھٹ
گھٹا
گھٹاو
گھٹن
گھٹنا
گھٹناواں
گھٹناں
گھٹنے
گھٹو
گھٹیا
گھڑ
گھڑا
گھڑت
گھڑسوار
گھڑی
گھڑیاں
گھڑے
گھگر
گھگھ
گھی
گھیر
گھیرا
گھیراو
گھیرے
گھینٹے
گہرا
گہراي
گہری
گہرے
گہنے
گہوارہ
گہی
گی
گیا
گیاراں
گیارہ
گیارہواں
گیارہويں
گیارہویں
گیان
گیانا
گیانی
گیاں
گیت
گیتا
گیتاں
گیج
گیر
گیراں
گیری
گیریژن
گیس
گیساں
گیسی
گیل
گیلان
گیلانی
گیلری
گیلریاں
گیلن
گیلی
گیلیلیو
گیم
گیمز
گیند
گیندا
گینداں
گینگ
گیي
گیٹ
گیٹس
گے
ں
ھ
ھء
ھا
ھاتھ
ھاں
ھجری
ھر
ھل
ھم
ھن
ھندستان
ھنگری
ھو
ھوا
ھونے
ھوي
ھوگي
ھپ
ھی
ھیں
ھے
ہ
ہا
ہاتھ
ہاتھوں
ہاتھی
ہاتھیاں
ہاجرہ
ہادی
ہار
ہارا
ہاربر
ہارس
ہارن
ہارنے
ہارورڈ
ہارون
ہارٹ
ہارڈ
ہارڈنگ
ہارڈی
ہاری
ہارے
ہاس
ہاسن
ہاسٹل
ہاشم
ہاشمی
ہاف
ہال
ہالہ
ہالی
ہالینڈ
ہالیوڈ
ہان
ہانسی
ہانگ
ہانی
ہاو
ہاور
ہاورڈ
ہاي
ہاٹ
ہاک
ہاکی
ہاں
ہای
ہبل
ہبیرہ
ہت
ہتک
ہتھ
ہتھاں
ہتھو
ہتھوں
ہتھکنڈاں
ہتھیار
ہتھیاراں
ہتھیاربند
ہتھیان
ہتھیں
ہجر
ہجرت
ہجری
ہجو
ہجوم
ہجومی
ہجویری
ہجے
ہخامنشی
ہدایات
ہدایت
ہدایتکار
ہدایتکاری
ہدف
ہدیہ
ہذا
ہر
ہرا
ہرات
ہراس
ہراسانی
ہراساں
ہراول
ہراک
ہرایا
ہربرٹ
ہربھجن
ہرثمہ
ہرزیگووینا
ہرزیگوینا
ہرش
ہرقل
ہرمز
ہرمزان
ہرمزگان
ہرمن
ہرمندر
ہرن
ہرنام
ہرناں
ہروی
ہرٹز
ہرچند
ہرگز
ہرگوبند
ہری
ہریانہ
ہریرہ
ہریش
ہریک
ہریکے
ہرے
ہزار
ہزارا
ہزاراں
ہزاروں
ہزارہ
ہزاری
ہزارے
ہزیمت
ہس
ہستہ
ہستی
ہستیاں
ہسٹری
ہسپانوی
ہسپانویاں
ہسپانیہ
ہسپتال
ہسپتالاں
ہسی
ہشام
ہشت
ہشتم
ہشیارپور
ہضم
ہفت
ہفتم
ہفتہ
ہفتیاں
ہفتے
ہفتےا
ہل
ہلا
ہلال
ہلالی
ہلاک
ہلاکت
ہلاکتاں
ہلاکتےا
ہلاکو
ہلدی
ہلز
ہلمند
ہلووالیا
ہلچل
ہلکا
ہلکی
ہلکے
ہلہ
ہلیا
ہلیری
ہلے
ہم
ہما
ہمارا
ہماری
ہماریا
ہمارے
ہمالیا
ہمالیہ
ہمام
ہماچل
ہمایو
ہمایوں
ہمت
ہمتی
ہمدان
ہمدانی
ہمدرد
ہمدردی
ہمراہ
ہمراہی
ہمراہیاں
ہمزہ
ہمساي
ہمسایہ
ہمشیرہ
ہمعصر
ہموار
ہمکنار
ہمہ
ہمیشاں
ہمیشہ
ہمیں
ہن
ہناں
ہند
ہندا
ہندستان
ہندستانی
ہندسہ
ہندو
ہندوا
ہندواں
ہندوستان
ہندوستانی
ہندوستانیاں
ہندومت
ہندوو
ہندوواں
ہندوي
ہندوکش
ہندوی
ہندکو
ہندی
ہندیاں
ہندین
ہندے
ہنر
ہنری
ہنزہ
ہنس
ہنسا
ہنسی
ہنومان
ہنٹر
ہنگ
ہنگامہ
ہنگامی
ہنگامے
ہنگامےا
ہنگری
ہنگی
ہنی
ہنے
ہو
ہوا
ہواباز
ہوابازی
ہوازن
ہوانا
ہوانگ
ہواواں
ہواي
ہوتا
ہوتاا
ہوتاہے
ہوتو
ہوتى
ہوتی
ہوتے
ہوجا
ہوجان
ہوجانا
ہوجاندا
ہوجاندی
ہوجاندیاں
ہوجاندے
ہوجانے
ہوجاو
ہوجاواں
ہوجاي
ہود
ہودبھاي
ہودیاں
ہور
ہوراں
ہورناں
ہورویکھو
ہورڈ
ہورہی
ہورہیا
ہورہے
ہوس
ہوسک
ہوسکا
ہوسکدا
ہوسکدی
ہوسکدیاں
ہوسکدے
ہوسکن
ہوسکی
ہوش
ہوشنگ
ہوشیار
ہوشیاری
ہول
ہولاں
ہولمز
ہولناک
ہولوکاسٹ
ہولکر
ہولی
ہوم
ہومز
ہومو
ہون
ہونا
ہوند
ہوندا
ہوندی
ہوندیاں
ہوندے
ہونگی
ہونگے
ہونہار
ہونی
ہونے
ہوون
ہوویگی
ہووے
ہووےگا
ہوي
ہويا
ہوٹل
ہوٹلاں
ہوپ
ہوچک
ہوچکيا
ہوچکيت
ہوچکے
ہوک
ہوکر
ہوکے
ہوگا
ہوگي
ہوگی
ہوگیا
ہوگے
ہوں
ہویا
ہویاں
ہوے
ہوݨ
ہى
ہي
ہيں
ہٹ
ہٹا
ہٹانا
ہٹانے
ہٹاو
ہٹاي
ہٹایا
ہٹلر
ہٹن
ہٹنا
ہٹنے
ہٹی
ہچکچاہٹ
ہڈسن
ہڈی
ہڈیاں
ہڑ
ہڑتال
ہڑتالاں
ہڑپا
ہڑپہ
ہک
ہی
ہیات
ہیبت
ہیبس
ہیبسبرگ
ہیت
ہیر
ہیرا
ہیرالڈ
ہیراں
ہیرس
ہیرو
ہیروز
ہیروشیما
ہیروي
ہیروڈوٹس
ہیری
ہیریٹیج
ہیرے
ہیس
ہیسٹنگز
ہیل
ہیلتھ
ہیلسنک
ہیلن
ہیلپ
ہیلی
ہیلیم
ہیلیکاپٹر
ہیم
ہیماں
ہیمبرگ
ہیملر
ہیملٹن
ہیمو
ہیمپشاي
ہین
ہینری
ہینڈ
ہیو
ہیوسٹن
ہیومن
ہیون
ہیوگو
ہیوی
ہیي
ہیٹ
ہیٹھ
ہیٹھاں
ہیٹھلے
ہیٹی
ہیپلو
ہیڈ
ہیڈلبرگ
ہیڈن
ہیڈورکس
ہیڈکوارٹر
ہیک
ہیکل
ہیکٹر
ہیکٹیي
ہیگ
ہیگا
ہیگل
ہیگن
ہیں
ہے
ۃ
ی
یا
یاب
یابی
یات
یاترا
یاتری
یاتریاں
یاجوج
یاد
یاداشت
یاداں
یادداشت
یادداشتاں
یادو
یادگار
یادگاراں
یادگاری
یار
یاراں
یارو
یارڈ
یارک
یارکشاي
یاری
یاس
یاسر
یاسمین
یاسین
یافتگان
یافتہ
یاقوت
یان
یانگ
یاو
یاي
یاں
یاہو
یبل
یبیریا
یبیس
یة
یت
یتاں
یتن
یتناں
یتی
یتیم
یتیماں
یثرب
یجان
یجانی
یجیریا
یحضرہ
یحی
یحیی
ید
یدا
یداد
یداداں
یدار
یداری
یدھ
یدہ
یدی
یدے
یر
یرغمال
یرغمالیاں
یرموک
یروشلم
یرپورٹ
یریوان
یز
یزد
یزدانی
یزدگرد
یزدی
یزید
یزیدی
یزیشن
یس
یسار
یساں
یسوع
یسي
یسی
یش
یشن
یشیا
یشیاي
یعقوب
یعقوبی
یعقین
یعلی
یعنى
یعنی
یف
یقین
یقینا
یقینی
یل
یلدرم
یلسن
یلغار
یلو
یلٹی
یلی
یلیاں
یلینڈ
یم
یمامہ
یمان
یمانی
یمز
یمن
یمنا
یمنی
یمین
ین
ینا
ینابیع
یناں
یندی
ینز
ینس
ینسٹاي
ینسی
ینل
ینگ
ینہ
ینی
ینے
یه
یو
یوا
یوان
یوانی
یوتھ
یوجنا
یوجین
یوحنا
یودینا
یور
یورال
یوراگوي
یورتی
یورش
یورو
یورووسکی
یوروپ
یوروپی
یورپ
یورپی
یورپیاں
یورپین
یورپیي
یوری
یوریشیا
یوریشیاي
یوریشین
یورینس
یورینیم
یوز
یوس
یوسف
یوسفزي
یوسفی
یول
یولوجی
یوم
یومیہ
یون
یونان
یونانی
یونانیاں
یوناي
یونس
یونٹ
یونٹاں
یونٹس
یونگ
یونہی
یونی
یونیسکو
یونین
یونیناں
یونیورس
یونیورسل
یونیورسٹی
یونیورسٹیاں
یوو
یووا
یوي
یوٹ
یوٹاہ
یوٹیوب
یوپی
یوکراي
یوکرین
یوکرینی
یوکون
یوکے
یوگ
یوگا
یوگدان
یوگنڈا
یوگوسلاو
یوگوسلاویہ
یوگی
یوں
یویٹ
یي
یٹ
یٹر
یٹروجن
یٹس
یٹڈ
یٹی
یپ
یپھ
یچارے
یڈ
یڈا
یڈر
یڈرو
یڈروجن
یڈل
یڈن
یڈیا
یڈیل
یک
یکا
یکاٹ
یکاک
یکای
یکتا
یکجا
یکجہت
یکرو
یکروسافٹ
یکساں
یکسر
یکطرفہ
یکل
یکلو
یکلوپیڈیا
یکم
یکو
یکہ
یکی
یکے
یگ
یگا
یگانہ
یگر
یگرز
یگی
یگیاں
یں
یھی
یہ
یہانتک
یہاں
یہود
یہودا
یہوداہ
یہودی
یہودیاں
یہودیت
یہودیہ
یہہ
یہی
یۃ
یی
ییل
یے
ې
ے
۔
ۖ
ۗ
ۙ
ۚ
ۡ
ۤ
۰
۰۰
۰۰۰
۰۲
۰۸
۰۹
۱
۱۰
۱۰۰
۱۰۰۰
۱۰۱
۱۰۲
۱۰۳
۱۰۵
۱۰۸
۱۰۹
۱۱
۱۱۰
۱۱۱
۱۱۲
۱۱۳
۱۱۵
۱۱۸
۱۱۹
۱۲
۱۲۰
۱۲۱
۱۲۲
۱۲۳
۱۲۵
۱۲۸
۱۲۹
۱۳
۱۳۰
۱۳۱
۱۳۲
۱۳۳
۱۳۴۸
۱۳۵
۱۳۵۹
۱۳۶۳
۱۳۷۴
۱۳۷۵
۱۳۷۷
۱۳۷۸
۱۳۷۹
۱۳۸
۱۳۸۰
۱۳۸۱
۱۳۸۲
۱۳۸۳
۱۳۸۵
۱۳۸۶
۱۳۸۷
۱۳۸۸
۱۳۸۹
۱۳۹
۱۳۹۰
۱۳۹۱
۱۳۹۲
۱۳۹۳
۱۳۹۵
۱۳۹۷
۱۳۹۸
۱۳۹۹
۱۴
۱۴۰
۱۴۰۳
۱۴۰۴
۱۴۰۷
۱۴۰۹
۱۴۱۰
۱۴۱۱
۱۴۱۲
۱۴۱۳
۱۴۱۴
۱۴۱۵
۱۴۱۷
۱۴۲۶
۱۵
۱۵۰
۱۵۰۰
۱۵۱
۱۵۲
۱۵۳
۱۵۵
۱۵۸
۱۵۹
۱۶
۱۶۰
۱۷
۱۸
۱۸۰
۱۸۱
۱۸۲
۱۸۳
۱۸۵
۱۸۵۷
۱۸۸
۱۸۹
۱۹
۱۹۰
۱۹۰۸
۱۹۱
۱۹۱۵
۱۹۱۷
۱۹۱۸
۱۹۱۹
۱۹۲
۱۹۲۰
۱۹۲۱
۱۹۲۲
۱۹۲۳
۱۹۲۴
۱۹۲۹
۱۹۳
۱۹۳۰
۱۹۳۶
۱۹۳۸
۱۹۳۹
۱۹۴۰
۱۹۴۱
۱۹۴۵
۱۹۴۶
۱۹۴۷
۱۹۴۸
۱۹۴۹
۱۹۵
۱۹۵۰
۱۹۵۱
۱۹۵۲
۱۹۵۳
۱۹۵۵
۱۹۵۶
۱۹۵۷
۱۹۵۸
۱۹۵۹
۱۹۶۰
۱۹۶۱
۱۹۶۲
۱۹۶۴
۱۹۶۵
۱۹۶۶
۱۹۶۷
۱۹۶۸
۱۹۷۰
۱۹۷۱
۱۹۷۲
۱۹۷۳
۱۹۷۴
۱۹۷۵
۱۹۷۶
۱۹۷۷
۱۹۷۸
۱۹۷۹
۱۹۸
۱۹۸۰
۱۹۸۱
۱۹۸۲
۱۹۸۳
۱۹۸۴
۱۹۸۵
۱۹۸۶
۱۹۸۷
۱۹۸۸
۱۹۸۹
۱۹۹
۱۹۹۰
۱۹۹۱
۱۹۹۲
۱۹۹۳
۱۹۹۴
۱۹۹۵
۱۹۹۶
۱۹۹۷
۱۹۹۸
۱۹۹۹
۲
۲۰
۲۰۰
۲۰۰۰
۲۰۰۱
۲۰۰۲
۲۰۰۳
۲۰۰۴
۲۰۰۵
۲۰۰۶
۲۰۰۷
۲۰۰۸
۲۰۰۹
۲۰۱
۲۰۱۰
۲۰۱۱
۲۰۱۲
۲۰۱۳
۲۰۱۴
۲۰۱۵
۲۰۱۶
۲۰۱۷
۲۰۱۸
۲۰۱۹
۲۰۲
۲۰۲۰
۲۰۲۱
۲۰۲۲
۲۰۳
۲۰۵
۲۰۸
۲۱
۲۱۰
۲۱۱
۲۱۲
۲۱۸
۲۲
۲۲۰
۲۲۱
۲۲۲
۲۲۳
۲۲۵
۲۲۸
۲۳
۲۳۰
۲۳۱
۲۳۲
۲۳۳
۲۳۸
۲۴
۲۵
۲۵۰
۲۵۱
۲۵۲
۲۵۳
۲۵۵
۲۵۸
۲۶
۲۷
۲۸
۲۸۰
۲۸۲
۲۸۳
۲۸۹
۲۹
۲۹۰
۲۹۲
۲۹۸
۳
۳۰
۳۰۰
۳۱
۳۱۰
۳۱۳
۳۲
۳۲۰
۳۲۳
۳۲۹
۳۳
۳۳۲
۳۳۳
۳۴
۳۵
۳۵۰
۳۶
۳۷
۳۸
۳۹
۴
۴۰
۴۰۰
۴۱
۴۲
۴۳
۴۴
۴۵
۴۶
۴۷
۴۸
۴۹
۵
۵۰
۵۰۰
۵۱
۵۲
۵۳
۵۴
۵۵
۵۶
۵۷
۵۸
۵۹
۶
۶۰
۶۰۰
۶۱
۶۲
۶۳
۶۴
۶۵
۶۶
۶۷
۶۸
۶۹
۷
۷۰
۷۱
۷۲
۷۳
۷۴
۷۵
۷۶
۷۷
۷۸
۷۹
۸
۸۰
۸۰۰
۸۱
۸۲
۸۳
۸۴
۸۵
۸۶
۸۷
۸۸
۸۹
۹
۹۰
۹۱
۹۲
۹۳
۹۴
۹۵
۹۶
۹۸
۹۹
۽
۾
܂
ݨ
ް
ँ
ं
ः
अ
अम
आ
आण
इ
इट
इन
ई
ऊ
ए
एक
ऐ
ऑफ
ऑस
ओ
और
क
कन
ख
ग
घ
च
छ
ज
झ
ञ
ट
ठ
ड
डव
डस
ण
त
थ
द
ध
न
प
पर
फ
ब
बर
भ
म
य
यन
यर
र
रक
रत
ल
ळ
व
वर
श
शन
ष
स
सन
समन
ह
़
ा
ि
ी
ु
ू
ृ
े
ै
ॉ
ो
ौ
्
।
॥
०
१
२
॰
ং
ক
খ
গ
চ
জ
ট
ণ
ত
দ
ধ
ন
প
ফ
ব
ম
য
র
ল
শ
ষ
স
হ
়
া
ি
ী
ু
ূ
ৃ
ে
্
ਂ
ਅ
ਆ
ਕ
ਖ
ਗ
ਚ
ਜ
ਟ
ਡ
ਣ
ਤ
ਦ
ਨ
ਪ
ਬ
ਭ
ਮ
ਰ
ਲ
ਵ
ਸ
ਹ
਼
ਾ
ਿ
ੀ
ੁ
ੂ
ੇ
ੈ
ੋ
ੌ
੍
ੰ
ੱ
ં
ગ
ત
ન
ય
ર
લ
સ
હ
ા
િ
ી
ુ
ે
ો
્
ପ
ର
ା
ି
ୀ
ୁ
େ
୍
க
ச
ட
த
ந
ன
ப
ம
ய
ர
ல
வ
ா
ி
ு
ே
ை
்
ం
ప
ల
ా
ి
ు
్
ಾ
ಿ
ು
ೆ
್
ം
ക
ച
ട
ത
ന
പ
മ
യ
ര
റ
ല
ള
വ
സ
ാ
ി
ു
ൂ
െ
േ
്
ක
ල
්
ි
ิ
่
་
င
ာ
ိ
ု
း
်
ᵑ
​
‌
‍
‎
‏
‐
‑
–
—
‘
’
“
”
„
†
•
․
…
′
″
›
※
‼
⁄
€
₹
ℓ
№
←
↑
→
↔
↷
⇦
⇽
−
∗
√
∞
≈
≤
≥
③
④
⑦
─
▄
■
◌
●
◼
☃
♥
⺀
⺄
⺆
⺈
⺊
⺌
⺕
⺝
⺸
⺼
⿰
⿱
⿲
⿳
⿴
⿵
⿶
⿷
⿸
⿹
⿺
⿻
《
》
〢
の
゙
゚
コ
ト
ハ
ユ
ン
ー
㇁
㇂
㇄
㇇
㇈
㇉
㇓
㐁
㐄
㐅
㐌
㐫
㐬
㐭
㐮
㐱
㑒
㒵
㒸
㒼
㓁
㓞
㔾
㕛
㕣
㖾
㘝
㚅
㚇
㚔
㚘
㝉
㝡
㝴
㝵
㞋
㞢
㞷
㠩
㠭
㠯
㡀
㡭
㡿
㢲
㢴
㣇
㣺
㥯
㪅
㫄
㫐
㫒
㫺
㬅
㬎
㬥
㬰
㲋
㳄
㷠
㸒
㸚
㸦
㼌
㼲
㽞
㿟
䀠
䂞
䍃
䏍
䒑
䖍
䖒
䖝
䖵
䙴
䚻
䜌
䝿
䡛
䧹
䪞
一
丁
丂
七
丄
丅
丆
万
丈
三
上
下
丌
不
与
丏
丐
丑
专
且
丕
世
丘
丙
业
东
丞
丢
丣
两
严
並
丨
丩
个
丫
丬
中
丮
丰
丱
串
丵
丶
丷
丸
丹
为
主
丽
丿
乀
乂
乃
久
乆
乇
么
义
之
乌
乍
乎
乏
乐
乑
乔
乖
乗
乘
乙
乚
乛
乜
九
乞
也
习
乡
乳
乾
亀
亅
了
亇
予
争
事
二
亍
于
亏
亐
云
互
亓
五
井
亘
亚
亜
亞
亟
亠
亡
亢
交
亥
亦
产
亨
亩
享
京
亭
亮
亯
亰
亲
亳
亶
亷
人
亻
亼
亾
仁
今
介
仌
从
仐
仑
仒
仓
仕
他
付
仝
代
令
以
任
企
伊
伏
伐
休
会
伯
但
位
何
佘
余
作
佥
使
來
侈
侌
侖
侯
侵
便
保
俞
信
修
倉
倍
候
倠
備
僉
僕
儿
兀
允
兂
元
兄
充
兆
兇
先
光
兊
克
兌
免
兑
兒
兓
兔
党
兜
兟
入
全
兩
兪
八
公
六
兮
兰
共
关
兵
其
具
典
兹
兼
冀
冂
冃
冄
内
冈
冉
冊
冋
册
再
冎
冏
冐
冒
冓
冖
冗
冘
军
农
冝
冡
冥
冫
冬
冷
几
凡
凢
凵
凶
凷
凸
凹
出
函
凾
刀
刁
刂
刃
刄
刅
分
切
刍
刑
刕
刖
列
刘
则
初
別
利
别
到
制
刺
則
削
剌
前
剡
剽
劉
力
功
加
劦
助
劫
劳
劵
勃
勇
勉
勒
動
務
勞
勤
勹
勺
勻
勾
勿
匀
匂
包
匆
匈
匊
匋
匍
匕
化
北
匚
匝
匡
匪
匱
匸
匹
区
医
匽
匿
區
十
卂
千
卄
卅
卆
升
午
卉
半
卌
华
卑
卒
卓
单
卖
南
卜
卝
卞
占
卡
卢
卣
卤
卦
卩
卪
卬
卯
印
危
即
却
卵
卷
卸
卻
厂
厃
厄
历
厈
厉
厌
厓
厘
厚
原
厤
厥
厨
厭
厲
厶
厷
厸
去
厼
厽
叀
参
參
叅
又
叉
及
友
双
反
叐
发
叒
叔
叕
取
受
叚
叜
叟
口
古
句
另
叩
只
召
可
台
叱
史
右
叵
号
司
叹
吂
各
吅
合
吉
吊
吋
同
名
后
吏
向
吕
君
吝
吞
否
含
启
吳
吴
吹
吾
呂
呆
呈
告
员
呙
周
命
咅
和
咎
咠
咢
咨
咸
咼
哀
品
哉
員
哥
哲
唐
商
啇
問
啚
啬
啻
善
喜
喬
單
喿
嗇
噩
嚴
囊
囗
囘
囙
囚
四
回
囟
因
囧
囬
困
囱
囷
固
国
圂
圅
國
圍
圓
土
圡
圣
圥
在
圭
地
圶
圼
坐
坒
坚
坴
垂
垔
垚
埀
埋
埶
執
基
堂
堅
堆
堇
堯
塞
墨
壘
士
壬
壯
声
壳
壴
壹
壺
壽
夂
处
夅
夆
备
夊
夋
夌
复
夏
夒
夕
外
夗
夘
多
夜
夢
大
夨
天
太
夫
夬
夭
央
失
夲
头
夷
夸
夹
夻
夾
奂
奄
奇
奈
奉
奎
奏
奐
契
奓
奔
奚
奞
奠
奢
奥
奭
女
奴
奻
好
如
妄
妙
妟
妥
妻
妾
姑
委
姜
威
娄
婁
婴
嬰
嬴
子
孑
孔
孕
孖
字
存
孚
孛
孝
孟
季
孤
学
孫
孱
學
宀
宁
宂
它
宅
宇
守
安
宋
完
宏
宓
宗
官
定
宛
宜
宝
客
宣
室
宮
宰
害
家
容
宾
宿
寄
寅
密
富
寒
察
寧
審
寫
寬
寮
寸
对
寺
寻
寽
対
寿
封
尃
射
将
將
專
尉
尊
尋
尌
對
小
少
尒
尓
尔
尖
尗
尚
尞
尢
尣
尤
尧
尨
尭
就
尸
尹
尺
尻
尼
尽
尾
尿
局
居
屈
屋
屎
屏
屑
展
屖
屚
属
屠
屡
屬
屮
屯
屰
山
屵
屾
岁
岂
岑
岡
岩
岳
岸
峯
島
崇
崑
崔
崖
崙
崩
嵬
嶲
巂
巛
川
州
巟
巠
巢
巤
工
左
巧
巨
巩
巫
差
己
已
巳
巴
巷
巸
巽
巾
巿
帀
市
布
希
帚
帛
帝
带
師
席
帶
常
干
平
年
幵
并
幷
幸
幺
幻
幼
幽
幾
广
広
庄
床
底
店
庚
府
度
庫
庭
庶
康
庸
廉
廌
廛
廣
廩
廴
延
廷
建
廾
廿
开
弁
弃
弄
弇
弋
式
弓
弔
引
弗
弘
弜
弟
弥
弦
弱
張
強
强
彊
彌
彎
彐
彑
当
彔
录
彖
彗
彡
形
彥
彦
彧
彭
彳
役
彼
往
待
律
徒
得
徙
從
復
微
徵
心
忄
必
忌
忍
志
忝
忠
忩
快
念
忽
忿
思
怠
急
怱
恆
恒
恩
恭
息
悉
患
悤
悲
悶
惠
惡
惢
愁
愈
意
愛
感
慈
慧
慮
憂
憲
應
戀
戈
戉
戊
戋
戌
戍
戎
成
我
戒
戔
或
战
戚
戠
戢
截
戲
戶
户
戹
戼
戾
房
所
扁
扇
手
扌
才
打
托
执
承
折
拉
拜
拿
掌
推
提
摩
支
攴
攵
收
攸
改
放
政
敄
敏
敕
敖
敗
敝
敞
敢
散
敦
敫
敬
数
敷
數
斂
文
斉
斊
斗
斤
斥
斩
斬
斯
新
方
於
施
斿
旁
旋
族
无
旡
既
旣
日
旦
旧
旨
早
旬
旱
旲
时
旾
昆
昇
昌
昍
明
昏
易
昔
昗
昜
星
春
昬
是
昱
昴
昷
時
晃
晋
晏
普
景
晶
智
暑
暴
曇
曩
曰
曲
曳
更
曷
書
曹
曼
曾
替
最
朁
會
月
有
朋
服
朔
朕
朗
望
朝
木
朩
未
末
本
札
朮
术
朱
朵
朶
朿
杀
杏
杜
束
条
来
東
杲
杳
松
析
林
枚
果
枝
枲
枼
某
柔
查
柬
柰
柴
栗
桀
桑
桼
梁
條
梟
梨
棘
棠
棥
森
楚
業
楽
榮
樂
樊
欠
次
欣
欮
欲
欶
欽
款
歆
歇
歛
止
正
此
步
武
歨
歪
歮
歯
歰
歲
歴
歷
歸
歹
歺
死
殳
段
殷
殸
殹
殺
殻
殿
毋
毌
母
每
毒
比
毕
毚
毛
毳
氏
氐
民
气
氣
水
氵
氶
氷
永
氺
氾
求
汝
汞
江
沃
沓
沙
沝
泉
法
波
泣
泥
泰
洛
洪
活
派
流
浦
浪
浮
海
淡
淮
清
渚
渠
湯
滿
漸
火
灬
灭
灰
灵
灷
炅
炎
炏
炗
炙
炭
為
烈
烏
烝
焉
無
焦
焱
然
煞
熊
熏
燕
營
燮
爪
爫
爭
爯
爰
爱
爲
爵
父
爻
爽
爾
爿
片
牙
牚
牛
牜
牟
牢
牧
牪
牽
犀
犬
犭
犮
狂
狄
狊
独
狺
猋
猒
猪
献
獻
玄
率
玉
王
玟
玨
珎
班
琴
瑟
瑩
瓜
瓦
甘
甚
生
産
用
甫
甬
田
由
甲
申
电
甶
男
甸
甹
画
甾
畀
界
畏
畐
留
畜
畟
畢
畧
畨
番
畫
異
畱
當
畺
畾
疊
疋
疌
疑
疒
疾
癶
癸
癹
登
發
白
百
皀
皃
的
皆
皇
皋
皐
皕
皮
皷
皿
盃
盆
盇
盈
益
盍
盎
监
盒
盖
盛
盡
監
盤
盧
目
直
相
盾
省
眇
眉
看
眔
眞
真
眷
眼
眾
着
睘
睪
睿
瞏
瞢
瞿
矍
矛
矞
矢
矣
知
矦
短
石
破
碎
磊
磨
示
礻
礼
祟
票
祭
禀
禁
禸
禹
禺
离
禽
禾
禿
秀
秃
秉
秋
科
秝
秦
移
稟
穀
穌
穴
究
穹
空
穿
突
窄
窒
立
竒
竜
竝
竟
章
童
竹
笑
笠
第
筆
等
答
箕
算
箴
節
篤
篭
米
粉
粛
粟
粤
粦
粲
糞
糸
糹
系
約
納
素
索
紫
累
細
絜
絫
絲
維
綿
縣
繇
纍
纟
缶
网
罒
罔
罕
罗
罙
罡
罢
罪
署
罷
羅
羊
羌
羍
美
羔
羕
羗
羞
羡
羣
群
義
羲
羸
羽
翁
翏
習
翕
翟
翠
翼
老
耂
考
者
耆
而
耎
耑
耒
耳
耴
耶
耷
聂
聊
聖
聚
聶
聿
肀
肃
肅
肉
肖
肙
肥
肩
肯
育
肴
胃
背
胡
胥
能
脊
脩
膚
臣
臤
臧
自
臬
臭
臯
臱
至
致
臺
臼
臽
臾
臿
舀
舂
舄
與
興
舉
舌
舍
舛
舜
舞
舟
般
艮
良
色
艸
艹
艾
芒
芔
芬
芮
花
芳
芺
芻
苔
苗
苟
若
苦
英
茶
茸
荅
草
荒
荣
荼
莆
莧
莫
莽
菆
菊
菐
華
萬
落
葉
著
葛
董
葵
蒙
蒦
蒼
蓋
蓬
蓺
蔑
蔡
蕉
蕭
薄
薛
薦
薰
藍
藏
藥
蘭
虍
虎
虐
虒
虔
處
虖
虗
虘
虚
虛
虜
虞
虫
虽
蚤
蚩
蜀
蜜
蟲
蠡
血
行
衍
衛
衣
衤
表
衮
衰
袁
袞
褭
褱
襄
襾
西
覀
要
覃
見
規
覓
覧
親
覽
见
角
解
言
訁
訇
計
詹
語
誩
諸
讠
谷
豆
豈
豊
豐
豕
豖
豙
象
豦
豩
豪
豸
貇
貝
貞
貟
負
貢
貧
貪
貫
責
貳
貴
買
費
賁
資
賈
賏
賓
賔
賛
賞
賢
賣
質
賴
贊
贝
贡
责
贯
贲
贵
赖
赞
赤
赦
走
越
足
路
蹇
身
躬
車
軍
軎
軟
輦
车
辛
辜
辟
辥
辰
辱
農
辵
辶
边
达
过
近
连
迷
追
退
送
逆
逐
通
速
造
逢
連
逮
進
遀
遂
過
道
達
遣
適
遷
遺
邊
邑
邕
那
邦
邪
郎
部
郭
都
鄉
酉
酋
配
酓
釆
采
里
重
野
量
金
釒
錢
钅
長
镸
长
門
閃
閉
開
閏
閑
閒
間
閔
閵
閻
闌
门
间
闷
阑
阜
阝
阿
降
陳
隆
隊
隋
隡
隨
隱
隶
隹
隺
隻
隼
隽
难
雀
雁
集
雈
雋
雍
雐
雔
雙
雚
雜
雝
離
難
雨
雩
雪
雲
零
雷
需
霍
霜
霝
霞
霸
靈
靑
青
非
靡
面
靣
革
韋
韦
韭
韯
韱
音
頁
頃
項
須
頗
頡
頻
顛
页
風
风
飛
飞
食
飠
養
饣
首
香
馬
馮
駦
马
骨
高
髟
鬥
鬯
鬲
鬼
魚
魯
鮮
鱼
鲁
鳥
鳳
鸟
鹵
鹿
麃
麗
麥
麦
麻
黃
黄
黍
黎
黑
黒
黨
黹
黽
黾
鼎
鼓
鼠
鼻
齊
齋
齐
齒
齿
龍
龙
龜
龟
龠
龰
龱
龴
龵
龶
龷
龸
龹










者
艹
ﭔ
ﭖ
ﭘ
ﭙ
ﭜ
ﭤ
ﭦ
ﭨ
ﭩ
ﭼ
ﭽ
ﮂ
ﮄ
ﮅ
ﮈ
ﮌ
ﮍ
ﮎ
ﮏ
ﮐ
ﮑ
ﮓ
ﮔ
ﮕ
ﮞ
ﮟ
ﮠ
ﮢ
ﮦ
ﮧ
ﮨ
ﮩ
ﮪ
ﮫ
ﮬ
ﮭ
ﮮ
ﮯ
ﯼ
ﯽ
ﯾ
ﯿ
﴾
﴿
﷤
﷫
ﷲ
ﷺ
️
ﹰ
ﺀ
ﺁ
ﺅ
ﺋ
ﺌ
ﺍ
ﺎ
ﺏ
ﺐ
ﺑ
ﺒ
ﺕ
ﺖ
ﺗ
ﺘ
ﺙ
ﺚ
ﺛ
ﺜ
ﺝ
ﺟ
ﺠ
ﺡ
ﺢ
ﺣ
ﺤ
ﺦ
ﺧ
ﺨ
ﺩ
ﺪ
ﺫ
ﺬ
ﺭ
ﺮ
ﺯ
ﺰ
ﺱ
ﺲ
ﺳ
ﺴ
ﺵ
ﺶ
ﺷ
ﺸ
ﺹ
ﺻ
ﺼ
ﺿ
ﻀ
ﻃ
ﻄ
ﻇ
ﻈ
ﻉ
ﻊ
ﻋ
ﻌ
ﻏ
ﻐ
ﻑ
ﻒ
ﻓ
ﻔ
ﻕ
ﻖ
ﻗ
ﻘ
ﻛ
ﻝ
ﻞ
ﻟ
ﻠ
ﻡ
ﻢ
ﻣ
ﻤ
ﻥ
ﻦ
ﻧ
ﻨ
ﻪ
ﻫ
ﻬ
ﻭ
ﻮ
ﻱ
ﻲ
ﻳ
ﻴ
ﻻ
ﻼ
﻿
，
？
￼
�
👈
👫
🔹
𠀁
𠀃
𠀆
𠀉
𠀎
𠀐
𠁁
𠁣
𠂆
𠂇
𠂈
𠂉
𠂊
𠂋
𠂎
𠂒
𠂔
𠂛
𠂡
𠂢
𠂤
𠂬
𠂭
𠂹
𠃊
𠃋
𠃌
𠃍
𠃎
𠃑
𠃓
𠃔
𠃜
𠄌
𠄎
𠄠
𠄢
𠆢
𠆥
𠇍
𠈌
𠌵
𠓜
𠔉
𠔥
𠔼
𠔽
𠔿
𠕀
𠕁
𠕋
𠘧
𠘨
𠙻
𠙼
𠚏
𠚒
𠚤
𠚪
𠣏
𠤎
𠤕
𠥓
𠦄
𠦑
𠦝
𠧒
𠧗
𠧪
𠩺
𠪚
𠫓
𠫔
𠫤
𠬛
𠬝
𠬞
𠬢
𠬤
𠬶
𠮛
𠮦
𠮷
𠯑
𠱠
𠳮
𠷎
𡈼
𡉀
𡉵
𡌥
𡍮
𡏳
𡕒
𡕩
𡕰
𡖅
𡗗
𡗜
𡘆
𡘤
𡧱
𡨄
𡩧
𡬠
𡭽
𡰣
𡰥
𡰪
𡰯
𡰱
𡷈
𡸁
𡿨
𡿩
𡿪
𡿺
𢀖
𢀛
𢀩
𢁙
𢆉
𢆰
𢆶
𢇁
𢇇
𢉖
𢌬
𢌿
𢏚
𢑑
𢑚
𢖻
𢙣
𢛳
𢦏
𢦒
𢧵
𢼄
𢾕
𣁋
𣄼
𣅀
𣅽
𣍘
𣎳
𣎵
𣏋
𣏼
𣗥
𣥂
𣥖
𣦵
𣦼
𣧄
𣪊
𣪠
𣬉
𣳾
𣶒
𤇾
𤊽
𤐫
𤓰
𤔔
𤕨
𤣩
𤰇
𤰔
𤰞
𤴓
𤴔
𤽄
𥁑
𥁕
𥃦
𥃩
𥃭
𥇡
𥑟
𥘅
𥘈
𥝢
𥫗
𥱡
𦈢
𦉪
𦉬
𦉼
𦍌
𦍒
𦎧
𦐇
𦓔
𦔮
𦘒
𦙃
𦚏
𦣝
𦣞
𦣻
𦥑
𦥔
𦥯
𦨉
𦭝
𦰩
𧆞
𧈧
𧘇
𧰨
𧴪
𧴮
𧵩
𧾷
𨸏
𨾴
𩙿
𩠐
𩫏
𩵋
𪉷
𪜀
𪟽
𪠲
𪩲
𫇦
𫔭
𫜸
𫝀
𫠣
𫠩
𫢉
𫥞
𫩏
𫩠
𫪡
𫲽
𫶧
𬀷
𬐘
𬗌
𬙙
𬛸
𬜯
𬟩
𬯁
𬴘
𬺻
𬼉
𬼖
𭀰
𭁈
𭁨
𭅰
𭑈
𭕄
𭗼
𭤨
𭥫
𭻾
𮅕
𮊿
𮍌
𮍏
𮓗
𮥼
𮧮
廾
𰀁
𰀄
𰀈
𰀉
𰀕
𰀠
𰀡
𰀢
𰀪
𰁜
𰃮
𰆊
𰆘
𰋙
𰕎
𰢴
𰧭
𰯲
00--
000--
01--
02--
03--
04--
05--
06--
07--
08--
09--
51--
61--
67--
69--
72--
73--
74--
75--
76--
80--
81--
82--
83--
84--
85--
86--
88--
90--
92--
93--
978--
98--
a--
aa--
ab--
ac--
acc--
acce--
ad--
add--
ae--
af--
affi--
ag--
agre--
agri--
ah--
air--
aj--
ak--
aka--
al--
alex--
all--
alt--
am--
amba--
amo--
an--
ange--
anno--
ans--
ap--
app--
appli--
appro--
approxi--
aq--
ar--
arch--
as--
ash--
astr--
at--
ato--
au--
auto--
ave--
ay--
az--
b--
ba--
bal--
ban--
bang--
bar--
bay--
be--
bel--
ber--
bha--
bhu--
bi--
bibli--
bil--
bio--
biogra--
bir--
bis--
bit--
bl--
bla--
bo--
body--
bol--
bon--
bor--
bos--
br--
bras--
bre--
bro--
broad--
brow--
bru--
bu--
build--
bul--
bur--
by--
c--
ca--
can--
car--
casu--
cat--
ce--
cele--
cell--
cen--
cer--
ch--
cha--
cham--
chan--
char--
che--
cho--
chri--
cit--
citiz--
cl--
cla--
cle--
cli--
co--
col--
com--
commu--
con--
conc--
cond--
conne--
conqu--
cons--
conser--
conti--
contr--
conven--
conver--
cor--
correspon--
cra--
cre--
cri--
cro--
cru--
cu--
cur--
cus--
cy--
cze--
d--
da--
dag--
dar--
data--
date--
de--
dec--
def--
depe--
desc--
devel--
dha--
di--
dis--
disam--
disc--
disp--
dist--
distri--
do--
doc--
doku--
dr--
dra--
dre--
du--
dur--
dyna--
e--
ear--
eas--
ed--
edit--
eff--
ei--
ein--
eje--
el--
ele--
elect--
electro--
em--
emb--
en--
end--
epi--
equi--
er--
es--
espe--
establi--
et--
ethno--
eu--
ex--
execu--
exp--
expa--
expand--
expe--
expl--
f--
fa--
fac--
fami--
fav--
fe--
fer--
fi--
file--
first--
fl--
fla--
flor--
fol--
font--
foot--
for--
format--
fr--
frag--
fu--
full--
g--
ga--
gar--
gau--
gaz--
ge--
gene--
geo--
geogra--
ger--
get--
gha--
ghu--
gi--
gla--
glo--
go--
god--
gor--
gover--
gra--
gran--
gre--
gri--
gro--
gu--
h--
ha--
han--
har--
has--
hat--
hay--
haz--
he--
hein--
hel--
hen--
her--
hi--
high--
hit--
ho--
hor--
html--
hu--
hy--
hyph--
i--
ibr--
ic--
icon--
id--
ide--
iden--
if--
ig--
il--
illu--
im--
image--
imp--
imple--
in--
indi--
inst--
int--
inter--
inva--
investi--
invi--
iq--
ir--
is--
iso--
it--
iv--
j--
ja--
je--
ji--
jin--
jo--
jor--
js--
ju--
juda--
jul--
k--
ka--
kab--
kal--
kan--
kar--
ke--
ken--
key--
kh--
kha--
kho--
khu--
ki--
kne--
ko--
kon--
ku--
l--
la--
lab--
lan--
lang--
last--
le--
legi--
li--
libe--
life--
lin--
ling--
link--
list--
live--
lke--
ll--
lo--
load--
lor--
lrc--
lst--
lu--
luc--
ly--
m--
ma--
mac--
mag--
mah--
maha--
main--
make--
mal--
man--
map--
mar--
mas--
mate--
max--
mb--
mc--
me--
meas--
mech--
meh--
memo--
mer--
merc--
met--
meta--
mi--
micro--
mid--
migra--
mili--
mill--
min--
mix--
mo--
moha--
mol--
mon--
monu--
mor--
moro--
mos--
moti--
mp--
mu--
mur--
my--
n--
na--
nan--
nar--
nav--
navi--
navp--
nd--
ne--
neighb--
neu--
new--
news--
next--
ng--
ni--
no--
nor--
ns--
nu--
nuc--
num--
o--
obser--
occ--
oce--
ok--
ol--
old--
on--
one--
op--
or--
ori--
os--
ou--
out--
p--
pa--
page--
pal--
pan--
par--
parse--
pay--
pe--
per--
ph--
phi--
pho--
pi--
pl--
po--
pol--
pop--
popup--
post--
pr--
pra--
pre--
pri--
prim--
pro--
psy--
pu--
pur--
q--
qa--
qat--
qu--
quan--
qui--
r--
ra--
radi--
rah--
ran--
raw--
rc--
re--
rece--
recog--
red--
ref--
rega--
regi--
rele--
rend--
res--
ret--
ri--
riz--
ro--
rou--
row--
ru--
s--
sa--
sac--
sal--
san--
sar--
sc--
sch--
sche--
se--
sequ--
ser--
set--
settle--
sh--
sha--
shan--
sho--
show--
shri--
shu--
si--
sib--
sl--
sla--
slo--
so--
sol--
solu--
some--
sort--
sp--
spe--
spec--
spo--
sq--
st--
start--
ste--
str--
stu--
su--
sub--
suff--
sugge--
sun--
supp--
sur--
sy--
syn--
t--
ta--
tab--
tag--
tai--
tan--
tax--
te--
teac--
techno--
ter--
terri--
text--
th--
the--
ther--
ti--
time--
title--
to--
tor--
tr--
tra--
trans--
tri--
tru--
ts--
tu--
tur--
turk--
twel--
ty--
u--
ul--
un--
unit--
univ--
up--
ur--
urdu--
url--
us--
use--
user--
v--
va--
val--
var--
ve--
ver--
vi--
vid--
vin--
vir--
vo--
w--
wa--
wal--
we--
weap--
web--
west--
wg--
wiki--
wil--
wis--
wo--
wor--
wp--
wro--
x--
xi--
xx--
y--
ya--
ye--
yu--
yy--
z--
za--
zh--
zo--
α--
αθ--
δ--
μ--
ν--
π--
πρ--
σ--
στ--
τ--
а--
б--
в--
г--
д--
з--
и--
к--
м--
н--
о--
п--
р--
с--
ск--
со--
т--
ء--
ا--
اا--
اب--
ابا--
ابخا--
ابر--
ابو--
ابھ--
ابی--
ات--
اتر--
اتم--
اتی--
اث--
اثر--
اج--
اح--
احمد--
اخ--
اخت--
اخذ--
اد--
ادا--
ادھ--
ادی--
اذ--
ار--
ارت--
ارد--
ارم--
ارو--
اری--
از--
اس--
است--
استعا--
اسم--
اسٹر--
اسٹو--
اسٹی--
اسک--
اسی--
اش--
اشت--
اشک--
اص--
اصط--
اصف--
اض--
اط--
اع--
اعت--
اغ--
اف--
اق--
اقت--
اك--
ال--
الا--
الاخ--
الان--
الب--
الت--
الث--
الح--
الخ--
الد--
الذ--
الر--
الز--
الس--
الش--
الص--
الض--
الط--
الظ--
الع--
الغ--
الف--
الق--
الك--
الل--
الم--
المست--
الن--
اله--
الو--
الک--
الگ--
الہ--
الی--
ام--
اما--
امب--
امت--
امر--
امی--
امیر--
ان--
انا--
انت--
انتر--
انج--
اند--
اندر--
انس--
انص--
انو--
انور--
انٹا--
انٹر--
انٹیک--
انٹیگ--
انڈر--
انک--
انگ--
انہ--
انی--
اه--
او--
اوا--
اور--
اورین--
اوز--
اوس--
اوم--
اون--
اوٹ--
اوڑ--
اوک--
اوہ--
اي--
اٹ--
اٹھ--
اپ--
اپر--
اچ--
اچی--
اڈ--
اڑ--
اژ--
اک--
اکا--
اکثر--
اکو--
اکھ--
اکیہ--
اگ--
اگر--
اہ--
ای--
ایا--
ایتھ--
ایج--
ایر--
ایز--
ایس--
ایسا--
ایش--
ایل--
ایم--
این--
ایو--
ایٹ--
ایپ--
ایڈ--
ایک--
ایکس--
ایکو--
ایگری--
ایگز--
ایھ--
اے--
ب--
با--
باا--
بابا--
بات--
باج--
باد--
بار--
باز--
باس--
باش--
باغ--
بال--
بالا--
بام--
بان--
بت--
بتا--
بج--
بجا--
بح--
بد--
بدر--
بدو--
بر--
برا--
برج--
برد--
برس--
برسر--
برف--
برن--
برو--
برچ--
برک--
برگ--
بری--
بزن--
بس--
بش--
بص--
بط--
بع--
بعد--
بعل--
بغ--
بل--
بلا--
بلو--
بلی--
بم--
بن--
بنا--
بند--
بنو--
به--
بو--
بور--
بوس--
بول--
بون--
بوک--
بي--
بٹ--
بچ--
بچا--
بچھ--
بڑ--
بڑا--
بک--
بگ--
بھ--
بھا--
بھاگ--
بھر--
بھن--
بھو--
بھٹ--
بھڑ--
بھگ--
بھی--
بہ--
بہا--
بہر--
بہو--
بی--
بیا--
بیر--
بیس--
بیش--
بیل--
بین--
بیٹ--
بیچ--
بیڈ--
بیک--
بیگ--
بے--
بݨ--
ت--
تا--
تاب--
تاج--
تار--
تاش--
تال--
تام--
تان--
تاو--
تب--
تت--
تجر--
تح--
تحریر--
تخ--
تخم--
تد--
تذ--
تر--
ترا--
ترک--
تری--
تس--
تش--
تص--
تض--
تع--
تعز--
تغ--
تق--
تل--
تم--
تما--
تن--
تنگ--
تنی--
ته--
تو--
توا--
توخ--
تور--
تون--
توپ--
تي--
تپ--
تڑ--
تک--
تھ--
تھا--
تھر--
تھک--
تھی--
تہ--
تی--
تیر--
تیز--
تین--
تے--
ث--
ثار--
ثم--
ج--
جا--
جار--
جال--
جام--
جان--
جاو--
جاگ--
جب--
جت--
جج--
جد--
جدا--
جر--
جرا--
جز--
جس--
جسٹ--
جع--
جغرا--
جل--
جلا--
جلد--
جم--
جما--
جن--
جنج--
جنگ--
جنی--
جو--
جوا--
جور--
جوس--
جي--
جٹ--
جڑ--
جگ--
جھ--
جھون--
جھٹ--
جہ--
جی--
جیا--
جیح--
جیل--
جین--
جیو--
جیک--
جے--
ح--
حاش--
حب--
حج--
حد--
حر--
حس--
حص--
حض--
حق--
حل--
حم--
حو--
حی--
خ--
خا--
خار--
خان--
خاک--
خبر--
خد--
خدا--
خذ--
خر--
خرم--
خض--
خط--
خطا--
خلا--
خم--
خو--
خوا--
خود--
خوش--
خیر--
خیز--
د--
دا--
داد--
دار--
دارا--
دارال--
دارالت--
دارالم--
دارو--
داس--
دال--
دانا--
دب--
دبا--
دت--
دتا--
دد--
در--
درا--
درخ--
درد--
درس--
درش--
دس--
دست--
دق--
دل--
دلا--
دم--
دمی--
دن--
ده--
دو--
دوا--
دور--
دوم--
دون--
دي--
دکھ--
دھ--
دھر--
دھن--
دھو--
دہ--
دی--
دیا--
دیش--
دیو--
دیپ--
دیگر--
دے--
ذ--
ذا--
ذر--
ذمی--
ذو--
ذوال--
ذک--
ذکر--
ذی--
ر--
را--
راج--
راز--
راس--
رام--
ران--
راہ--
رب--
رت--
رتن--
رتھ--
رج--
رح--
رخ--
رد--
رز--
رس--
رسا--
رش--
رضا--
رف--
رق--
رل--
رم--
رن--
رنج--
رنگ--
رو--
روا--
روز--
روس--
روض--
رون--
روپ--
روڈ--
روڑ--
روک--
روگ--
روی--
ري--
رٹ--
رچ--
رڈ--
رڑ--
رک--
رکی--
رگ--
رہ--
رہا--
رہی--
ری--
ریا--
ریجی--
ریز--
ریس--
ریل--
رین--
ریو--
ریٹ--
ریپ--
ز--
زا--
زاد--
زد--
زر--
زم--
زن--
زو--
زور--
زک--
زہ--
زی--
زیر--
زیم--
س--
سا--
سات--
سار--
ساس--
سال--
سام--
سان--
ساو--
سب--
سبھ--
ست--
ستر--
ستی--
سجھ--
سح--
سد--
سدا--
سدھ--
سر--
سرا--
سرب--
سرد--
سرو--
سرہ--
سری--
سس--
سط--
سع--
سعد--
سفر--
سل--
سلا--
سلو--
سلی--
سم--
سما--
سمر--
سمو--
سمپر--
سمی--
سن--
سنا--
سنت--
سند--
سنس--
سنو--
سنگ--
سنی--
سو--
سوا--
سور--
سوز--
سوس--
سول--
سوم--
سون--
سوگ--
سوہ--
سوی--
سي--
سٹ--
سٹی--
سپ--
سپر--
سچ--
سڑ--
سک--
سکا--
سکر--
سکو--
سکھ--
سکی--
سہ--
سی--
سیا--
سیب--
سید--
سیر--
سیرا--
سیس--
سیل--
سیم--
سین--
سیو--
سیک--
سے--
ش--
شا--
شاد--
شان--
شاہ--
شب--
شبد--
شد--
شر--
شرم--
شری--
شش--
شع--
شعر--
شفا--
شق--
شل--
شم--
شن--
شهر--
شو--
شور--
شي--
شپ--
شک--
شکر--
شہ--
شہر--
شی--
شیر--
شین--
شیو--
ص--
صا--
صح--
صد--
صدر--
صع--
صف--
صل--
صو--
صی--
ض--
ضم--
ضیاء--
ط--
طا--
طاہر--
طب--
طر--
طرز--
طغ--
طه--
طو--
طيا--
طہ--
طی--
ظ--
ظفر--
ع--
عا--
عاق--
عب--
عبدال--
عج--
عد--
عر--
عز--
عزیز--
عص--
عطا--
عل--
علم--
علی--
عم--
عماد--
عمر--
عن--
عي--
عہد--
عید--
غ--
غا--
غز--
غزل--
غل--
غم--
غن--
غیر--
ـ--
ف--
فا--
فار--
فاط--
فت--
فتح--
فخر--
فر--
فرمان--
فرو--
فری--
فس--
فش--
فصل--
فق--
فل--
فلم--
فلو--
فن--
فو--
فور--
فون--
في--
فٹ--
فک--
فکر--
فہ--
فی--
فیل--
فیم--
فین--
ق--
قا--
قاه--
قد--
قدر--
قر--
قرا--
قرم--
قس--
قش--
قص--
قط--
قل--
قلع--
قلم--
قم--
قن--
قند--
قو--
قہ--
قی--
قید--
ك--
كر--
كو--
ل--
لا--
لات--
لاد--
لاس--
لاش--
لال--
لام--
لان--
لاک--
لاہ--
لب--
لت--
لتھو--
لجھ--
لح--
لد--
لر--
لز--
لس--
لف--
لق--
لل--
لم--
لن--
لنک--
لو--
لور--
لوم--
لوٹ--
لوڑ--
لوک--
لي--
لٹ--
لچھ--
لڑ--
لک--
لگ--
لگا--
لہ--
لی--
لیا--
لیب--
لیس--
لیم--
لین--
لیو--
لیٹ--
لیپ--
لیہ--
م--
ما--
ماد--
مار--
ماس--
مال--
مان--
ماو--
ماہ--
مبت--
مت--
متح--
متھ--
مث--
مج--
مجا--
مجمو--
مح--
محاس--
محت--
محمد--
محمود--
مخ--
مد--
مدھ--
مذ--
مر--
مرا--
مرد--
مرغ--
مرو--
مرہ--
مری--
مز--
مس--
مست--
مسجد--
مش--
مشا--
مشر--
مشک--
مص--
مصا--
مض--
مط--
مطا--
مظ--
مع--
معز--
مغ--
مغل--
مفا--
مق--
مقا--
مك--
مل--
ملا--
ملن--
ملک--
ملی--
مم--
من--
منا--
منح--
مند--
منظر--
منق--
منو--
منگ--
منی--
مه--
مو--
مور--
موس--
مول--
مون--
مونو--
مونٹ--
موہ--
مي--
مٹ--
مٹا--
مٹی--
مچ--
مڈ--
مڑ--
مک--
مکا--
مکھ--
مکی--
مگ--
مگر--
مہ--
مہا--
مہان--
مہر--
می--
میت--
مید--
میر--
میز--
میل--
میم--
مین--
میو--
میٹ--
میڈ--
میک--
میگھ--
میں--
ن--
نا--
نات--
ناد--
نار--
ناش--
ناص--
نال--
نام--
نان--
ناگ--
نبات--
نت--
نتی--
نج--
نخ--
ند--
نر--
نری--
نز--
نس--
نسو--
نش--
نص--
نصر--
نظ--
نظر--
نع--
نغم--
نق--
نقا--
نل--
نم--
نما--
نمو--
نمی--
نن--
نند--
نه--
نو--
نوا--
نور--
نوشی--
نوم--
نوں--
نوی--
ني--
نيں--
نٹ--
نچ--
نڈ--
نک--
نکل--
نگ--
نگار--
نگر--
نھ--
نہ--
نہیں--
نی--
نیا--
نیر--
نیز--
نیس--
نیل--
نیم--
نین--
نیو--
نیڑ--
نیژ--
نیک--
نے--
ه--
ها--
هم--
هو--
و--
وا--
وار--
واس--
وال--
والا--
والد--
وان--
واک--
واہ--
وب--
وت--
وج--
وجی--
وح--
ود--
ور--
ورت--
ورث--
ورن--
وری--
وزیر--
وس--
وش--
وشو--
وف--
وق--
ول--
ولا--
ولو--
ولی--
وم--
وما--
ون--
وو--
وي--
وٹ--
وپ--
وچ--
وچار--
وڈ--
وڑ--
وک--
وکٹ--
وکھ--
وکی--
وہ--
وی--
ویا--
وید--
ویر--
ویز--
ویس--
ویل--
وین--
وینیز--
ویو--
ي--
١--
١٤--
٢--
٢٠--
٣--
٤--
٥--
٦--
٧--
٨--
٩--
ٹ--
ٹا--
ٹر--
ٹرانس--
ٹری--
ٹس--
ٹل--
ٹم--
ٹن--
ٹو--
ٹور--
ٹٹ--
ٹپ--
ٹڈ--
ٹک--
ٹھ--
ٹھا--
ٹہ--
ٹی--
ٹیل--
ٹیلی--
ٹیم--
ٹین--
ٹیڑ--
ٹیک--
ټ--
پ--
پا--
پار--
پارا--
پاس--
پال--
پام--
پان--
پاپ--
پاک--
پت--
پتر--
پج--
پد--
پدر--
پر--
پرا--
پرت--
پرتی--
پرس--
پرم--
پرو--
پری--
پس--
پش--
پشی--
پل--
پلا--
پلٹ--
پلی--
پم--
پن--
پنج--
پندر--
پنر--
پنچ--
پنگ--
په--
پو--
پوا--
پور--
پورت--
پول--
پون--
پي--
پٹ--
پٹی--
پچ--
پچھ--
پڑ--
پژ--
پژوہ--
پښ--
پک--
پکھ--
پگ--
پھ--
پھر--
پھل--
پھٹ--
پھی--
پہ--
پہر--
پی--
پیا--
پیدا--
پیر--
پیرا--
پیس--
پیش--
پین--
پیو--
پیڈ--
چ--
چا--
چار--
چال--
چاپ--
چت--
چتر--
چر--
چرا--
چرن--
چل--
چلا--
چلو--
چم--
چمک--
چن--
چند--
چندر--
چنگ--
چو--
چور--
چون--
چي--
چٹ--
چپ--
چڑ--
چک--
چکر--
چھ--
چھت--
چھل--
چھو--
چھپ--
چھڑ--
چہ--
چی--
چیر--
چین--
چیکو--
ڈ--
ڈا--
ڈار--
ڈان--
ڈاک--
ڈب--
ڈر--
ڈس--
ڈسک--
ڈل--
ڈن--
ڈو--
ڈور--
ڈوم--
ڈون--
ڈٹ--
ڈپل--
ڈک--
ڈگ--
ڈھ--
ڈھل--
ڈی--
ڈیل--
ڈیم--
ڈین--
ڈیو--
ڈیٹ--
ڈیک--
ڑ--
ڑا--
ژ--
ژو--
ک--
کا--
کاا--
کاتال--
کار--
کارا--
کارج--
کاز--
کاس--
کاش--
کال--
کالر--
کام--
کان--
کاو--
کاک--
کب--
کت--
کتاب--
کج--
کد--
کر--
کرا--
کرت--
کرد--
کرس--
کرم--
کرن--
کرنا--
کرو--
کرک--
کری--
کس--
کش--
کع--
کف--
کل--
کلا--
کلو--
کلی--
کم--
کمر--
کمی--
کن--
کنز--
کنک--
کنگ--
کنی--
کو--
کوا--
کور--
کوس--
کوش--
کول--
کون--
کوٹ--
کوڈ--
کوک--
کوہ--
کوی--
کي--
کيتا--
کٹ--
کٹا--
کٹھ--
کٹی--
کپ--
کچ--
کڈ--
کڑ--
کک--
کھ--
کھا--
کھر--
کھل--
کھم--
کھن--
کھو--
کھٹ--
کھی--
کہ--
کہا--
کی--
کیا--
کیر--
کیس--
کیل--
کین--
کیو--
کیٹ--
کیپ--
کیک--
کے--
ڪ--
گ--
گا--
گار--
گال--
گان--
گاو--
گت--
گد--
گذر--
گر--
گرا--
گرد--
گرم--
گرو--
گری--
گز--
گزر--
گل--
گلو--
گلی--
گم--
گن--
گنگ--
گنہ--
گنیا--
گو--
گوا--
گور--
گورنر--
گوش--
گول--
گون--
گوڑ--
گڈ--
گڑ--
گھ--
گھر--
گھن--
گھوٹ--
گی--
گیا--
گیر--
گیس--
گیل--
گیم--
ں--
ھ--
ھا--
ھر--
ھل--
ھم--
ھن--
ھو--
ھی--
ہ--
ہا--
ہار--
ہال--
ہان--
ہت--
ہتھ--
ہدا--
ہر--
ہرا--
ہرش--
ہری--
ہس--
ہل--
ہلا--
ہم--
ہما--
ہن--
ہند--
ہندو--
ہنر--
ہو--
ہوا--
ہور--
ہوس--
ہول--
ہوم--
ہون--
ہوکر--
ہٹ--
ہٹا--
ہچک--
ہڑ--
ہک--
ہی--
ہیل--
ہیم--
ہین--
ہیو--
ہیٹ--
ہیڈ--
ہیک--
ہے--
ی--
یا--
یاد--
یار--
یارو--
یان--
یت--
ید--
یر--
یز--
یس--
یش--
یع--
یف--
یق--
یل--
یم--
ین--
یو--
یوس--
یون--
یونی--
یوگ--
یٹ--
یپ--
یڈ--
یک--
یکا--
یگ--
یں--
یہ--
یی--
ے--
۰--
۱۰--
۱۱--
۱۲--
۱۳--
۱۴--
۱۵--
۱۶--
۱۷--
۱۸--
۱۹--
۹--
ݨ--
अ--
आ--
इ--
उ--
ए--
ऑ--
क--
ग--
च--
ज--
ट--
ड--
त--
द--
न--
प--
ब--
म--
य--
र--
ल--
व--
श--
स--
ह--
१--
२--
--0
--00
--01
--1
--10
--11
--2
--20
--21
--3
--30
--4
--40
--5
--50
--6
--60
--7
--8
--9
--a
--ab
--abad
--able
--ac
--aceae
--ad
--ade
--ado
--ador
--ae
--afa
--ag
--age
--ah
--ai
--aic
--aj
--ak
--al
--ala
--all
--als
--am
--ama
--aman
--an
--ana
--ance
--ang
--ani
--ans
--ant
--ao
--ap
--aq
--ar
--ard
--arg
--ari
--aries
--ary
--as
--at
--ate
--ated
--ates
--ating
--ation
--ations
--ative
--ats
--au
--aw
--ay
--az
--b
--ba
--ball
--bar
--bb
--be
--ber
--berg
--berry
--bi
--ble
--bo
--box
--bs
--bu
--burg
--by
--c
--ca
--cal
--case
--cat
--ce
--ced
--cell
--cent
--cer
--ces
--ch
--che
--chi
--cht
--chy
--cio
--ck
--cks
--class
--co
--condition
--cs
--ct
--cy
--d
--da
--dad
--dan
--data
--date
--day
--dcontrib
--de
--ded
--delete
--di
--div
--do
--ds
--du
--dy
--e
--ea
--eae
--ec
--ect
--ects
--ed
--ee
--een
--ees
--ef
--eh
--ei
--ein
--eira
--ek
--el
--ell
--em
--en
--ence
--eng
--ens
--ense
--ent
--ep
--er
--ered
--erior
--ers
--erse
--ert
--ery
--es
--ese
--esh
--ess
--est
--et
--ets
--eum
--eur
--ev
--ey
--ez
--f
--fa
--fer
--ff
--fied
--field
--form
--format
--fs
--ft
--ful
--g
--ga
--gan
--ge
--ged
--ger
--gery
--ges
--gh
--gi
--go
--gram
--graph
--gs
--h
--ha
--ham
--han
--har
--he
--hed
--hes
--hi
--hip
--hn
--hr
--ht
--i
--ia
--ial
--ian
--ib
--ic
--ica
--ical
--ice
--ich
--ics
--id
--ide
--ided
--ids
--ie
--ied
--ier
--ies
--if
--ification
--ified
--ify
--ig
--igan
--ign
--ii
--ik
--ike
--il
--ila
--ile
--im
--imum
--in
--ina
--ine
--ines
--ing
--ings
--ini
--ins
--io
--ion
--ional
--ions
--ip
--ipal
--ique
--ir
--ire
--is
--isation
--ise
--ish
--ism
--ist
--istan
--ists
--it
--ite
--ith
--ities
--ition
--ity
--ium
--ius
--ive
--ivity
--ix
--iya
--iz
--ization
--ize
--ized
--j
--ja
--ji
--k
--ka
--kar
--ke
--key
--kh
--ki
--kit
--ko
--ks
--ky
--l
--la
--lah
--lan
--lar
--ld
--le
--lected
--led
--ler
--less
--ley
--li
--lia
--lin
--line
--ling
--link
--lis
--list
--lk
--ll
--lla
--lle
--lly
--lm
--lo
--lock
--lon
--ls
--lt
--lu
--ly
--lywood
--m
--ma
--man
--me
--ment
--mi
--mn
--mo
--mond
--ms
--n
--na
--nam
--name
--nan
--nce
--ncy
--nd
--nda
--nds
--ne
--ned
--ner
--ners
--nes
--ness
--nfo
--ng
--ngs
--ni
--nia
--ning
--nis
--nj
--nk
--nn
--no
--ns
--nt
--nts
--num
--ny
--o
--obj
--oc
--ock
--od
--odox
--of
--ogy
--ol
--ology
--om
--omy
--on
--onal
--one
--ong
--ons
--or
--ora
--orate
--ore
--oria
--ors
--ort
--ory
--os
--ot
--ou
--ough
--ous
--out
--ov
--ova
--ow
--oy
--oz
--p
--pa
--page
--param
--pe
--ped
--phy
--ping
--ps
--pt
--pur
--q
--qi
--que
--r
--ra
--ral
--ran
--rat
--rd
--re
--ref
--reh
--ren
--rg
--ri
--ria
--ric
--rie
--ries
--ring
--rio
--rm
--rn
--ro
--ron
--row
--rry
--rs
--rt
--ru
--rum
--rus
--ry
--s
--sa
--sburg
--se
--sed
--selves
--ses
--sh
--shan
--si
--sia
--sion
--sions
--sis
--sk
--ski
--sm
--son
--ss
--st
--stan
--standing
--stic
--str
--sts
--sty
--sy
--t
--ta
--tal
--tan
--tant
--tary
--tatements
--tation
--te
--ted
--ter
--tes
--text
--tf
--th
--ti
--tia
--tial
--tic
--ting
--tion
--tions
--title
--tive
--tle
--to
--ton
--tor
--toria
--tr
--try
--ts
--tt
--ty
--tyle
--type
--tz
--u
--ua
--ual
--uation
--ub
--uct
--ud
--ue
--uf
--ught
--ul
--ula
--ult
--um
--un
--up
--ur
--ure
--url
--us
--ut
--ute
--ution
--v
--va
--val
--value
--ve
--ver
--ves
--vi
--vo
--w
--wa
--way
--west
--wide
--x
--y
--ya
--yan
--ye
--ys
--z
--za
--ze
--zeh
--zi
--zia
--α
--η
--ι
--ικη
--ν
--ο
--ς
--υ
--υς
--ω
--а
--ва
--д
--е
--и
--ии
--ия
--к
--л
--м
--н
--о
--ов
--р
--ская
--т
--та
--у
--я
--ء
--ا
--اء
--اب
--ابن
--اة
--ات
--اتا
--اتمک
--اتھ
--اتی
--اج
--اجی
--اح
--اخ
--اد
--ار
--ارا
--اراں
--ارس
--ارٹ
--ارڈ
--ارک
--ارہ
--اری
--از
--ازی
--اس
--اش
--اشم
--اضی
--اط
--اعی
--اغ
--اف
--افی
--اق
--اقی
--ال
--الا
--الوی
--الہ
--الی
--الے
--ام
--امہ
--امے
--ان
--انا
--اندی
--انہ
--انی
--انے
--او
--اواں
--اور
--اوی
--اوے
--اي
--اٹ
--اٹک
--اپ
--اپن
--اڈ
--اڑ
--اڑے
--اک
--اکس
--اکی
--اکیہ
--اگ
--اگو
--اگی
--اں
--اہ
--اہا
--اہر
--اہی
--اہے
--اۃ
--ای
--ایا
--ایت
--ایی
--اے
--اݨا
--ب
--با
--باز
--بازی
--بال
--باي
--بة
--بت
--بدھ
--بر
--برا
--برٹ
--برگ
--بز
--بس
--بصار
--بط
--بع
--بعۃ
--بق
--بل
--بن
--بندی
--بو
--بي
--بٹ
--بک
--بھ
--بھی
--بہ
--بۃ
--بی
--بیب
--بین
--بیي
--بے
--ة
--ت
--تا
--تان
--تاواں
--تاں
--تاہے
--تتو
--تر
--ترا
--تری
--تس
--تفاق
--تل
--تم
--تمک
--تن
--ته
--تو
--توس
--توف
--تى
--تک
--تھ
--تھا
--تھن
--تھی
--تھے
--تہ
--تی
--تیہ
--تے
--ث
--ثا
--ثی
--ج
--جا
--جاي
--جب
--جد
--جر
--جربہ
--جرز
--جز
--جس
--جم
--جن
--جنگ
--جو
--جي
--جک
--جہ
--جی
--جیت
--جیکل
--جے
--ح
--حا
--حت
--حد
--حق
--حل
--حن
--حو
--حہ
--حی
--خ
--خان
--خانه
--خت
--خر
--خص
--خل
--خہ
--خی
--د
--دا
--داد
--دار
--داس
--دان
--داں
--دة
--دت
--دتا
--دد
--در
--دس
--دل
--دم
--دن
--ده
--دو
--دور
--دوس
--دى
--دي
--دڑ
--دک
--دگی
--دھ
--دہ
--دی
--دیم
--دین
--دیہ
--دے
--ذ
--ذب
--ذہ
--ذہب
--ذی
--ر
--را
--راج
--رام
--راو
--راي
--راڈ
--راں
--رب
--رة
--رت
--رتا
--رتی
--رث
--رج
--رجی
--رد
--رز
--رس
--رسن
--رش
--رع
--رف
--رق
--رقاوی
--رل
--رم
--رن
--رنی
--ره
--رو
--روف
--روں
--رى
--ري
--رٹ
--رپ
--رچ
--رڈ
--رک
--رکر
--رگ
--رہ
--رہے
--رۃ
--ری
--ریا
--ریج
--ریس
--ریم
--رین
--رے
--ز
--زا
--زان
--زر
--زل
--زم
--زمی
--زن
--زه
--زو
--زون
--زوک
--زي
--زگ
--زہ
--زی
--زیم
--زے
--س
--سا
--ساي
--سب
--سبرگ
--سة
--ست
--ستان
--سر
--سس
--سط
--سف
--سل
--سلہ
--سلے
--سم
--سن
--سنو
--سو
--سوف
--سٹ
--سٹر
--سٹس
--سٹک
--سپور
--سڈ
--سک
--سکی
--سہ
--سۃ
--سی
--سیا
--سیح
--سیس
--سین
--سے
--ش
--شا
--شات
--شار
--شاي
--شاہ
--شت
--شد
--شر
--شس
--شع
--شل
--شم
--شن
--شنز
--شو
--شور
--شي
--شٹ
--شپ
--شک
--شکا
--شہ
--شہر
--شی
--شیا
--شیل
--شیم
--شیي
--شے
--ص
--صار
--صب
--صح
--صر
--صل
--صہ
--صی
--ض
--ضا
--ضت
--ضحی
--ضر
--ضى
--ضہ
--ضی
--ضے
--ط
--طانیہ
--طح
--طس
--طع
--طم
--طی
--طین
--ظ
--ظر
--ع
--عات
--عام
--عاں
--عة
--عت
--عد
--عدہ
--علی
--عه
--عي
--عہ
--عۃ
--عی
--غ
--غات
--غان
--غانی
--غر
--غہ
--غی
--ـ
--ف
--فا
--فاي
--فة
--فت
--فتہ
--فر
--فس
--فع
--فق
--فل
--فن
--فو
--فٹ
--فک
--فہ
--فی
--ق
--قات
--قار
--قاع
--قان
--قب
--قت
--قر
--قش
--قط
--قل
--قن
--قہ
--قی
--ك
--كر
--ل
--لا
--لاح
--لال
--لام
--لاي
--لاں
--لب
--لة
--لت
--لد
--لر
--لز
--لس
--لش
--لع
--لف
--لل
--للہ
--لم
--لن
--له
--لو
--لوجی
--لوف
--لوی
--لي
--لٹ
--لپ
--لڈ
--لک
--لہ
--لۃ
--لی
--لیا
--لیج
--لیم
--لین
--لیي
--لیٹ
--لے
--م
--ما
--مال
--مام
--مان
--ماچ
--ماں
--مب
--مت
--مر
--مس
--مش
--مع
--مق
--مل
--من
--مند
--منٹ
--منی
--مو
--مون
--موی
--مي
--مٹ
--مپ
--مک
--مہ
--می
--میس
--میشن
--مین
--مینٹ
--مے
--ن
--نا
--ناتھ
--ناس
--نام
--نامہ
--ناي
--ناک
--ناں
--نبرگ
--نت
--نتا
--نتر
--نج
--نجا
--نجر
--نجلی
--ند
--ندا
--ندر
--نده
--ندھ
--ندہ
--ندی
--ندے
--نر
--نز
--نس
--نسس
--نسن
--نسکی
--نش
--نف
--نل
--نم
--نن
--نند
--نه
--نو
--نوالہ
--نوس
--نوف
--نى
--ني
--نٹ
--نٹن
--نپ
--نچ
--نڈ
--نڈا
--نڈل
--نڈہ
--نڈی
--نک
--نکس
--نکو
--نگ
--نگا
--نگر
--نگز
--نگو
--نگٹن
--نگی
--نہ
--نی
--نیا
--نیف
--نیم
--نیو
--نیي
--نیہ
--نے
--ه
--ها
--های
--هد
--هر
--هم
--هی
--و
--وا
--واب
--واد
--وادی
--وار
--وال
--والا
--والے
--وان
--واي
--واں
--وایا
--وب
--وبی
--وة
--وت
--وتری
--وتھ
--وتی
--وج
--وجی
--ود
--ودا
--ودی
--ور
--ورا
--ورس
--ورو
--ورٹ
--ورڈ
--وری
--وز
--وزا
--وس
--وسا
--وسک
--وسکی
--وش
--وشن
--وشی
--وض
--وط
--وع
--وعہ
--وعۃ
--وغ
--وف
--وق
--ول
--ولا
--ولر
--ولس
--ولہ
--ولی
--ولے
--وم
--ومی
--ون
--ونا
--ونت
--ونس
--ونو
--ونٹ
--ونک
--ونگ
--ونی
--وو
--ووا
--ووال
--ووچ
--ووی
--وویچ
--وى
--وي
--وٹ
--وٹا
--وٹس
--وٹو
--وٹی
--وپ
--وچ
--وچی
--وڈ
--وڑ
--وک
--وکا
--وکت
--وکس
--وکو
--وگ
--وں
--وہ
--وۃ
--وی
--ویل
--ویي
--ویچ
--ویگ
--ویں
--ویہ
--وے
--ى
--ي
--يا
--يان
--يب
--ية
--يت
--يتی
--يث
--يخ
--يد
--ير
--يز
--يس
--يع
--يف
--يق
--يل
--يم
--ين
--يه
--يو
--يں
--يہ
--يۃ
--٠
--١
--٢
--٣
--٤
--٥
--٦
--٧
--٨
--٩
--ٴ
--ٸی
--ٹ
--ٹا
--ٹان
--ٹاي
--ٹاں
--ٹر
--ٹرا
--ٹرل
--ٹرم
--ٹرپ
--ٹری
--ٹز
--ٹس
--ٹف
--ٹل
--ٹم
--ٹن
--ٹنگ
--ٹنے
--ٹو
--ٹوں
--ٹڈ
--ٹک
--ٹکس
--ٹھ
--ٹہ
--ٹی
--ٹیز
--ٹیشن
--ٹینا
--ٹیو
--ٹیي
--ٹے
--پ
--پا
--پال
--پت
--پتی
--پد
--پر
--پس
--پل
--پن
--پو
--پور
--پوری
--پول
--پي
--پٹ
--پک
--پھ
--پی
--پے
--چ
--چا
--چاي
--چر
--چس
--چل
--چن
--چو
--چٹ
--چک
--چھ
--چہ
--چی
--چے
--ڈ
--ڈا
--ڈاي
--ڈاں
--ڈر
--ڈرز
--ڈرس
--ڈرل
--ڈز
--ڈس
--ڈل
--ڈم
--ڈن
--ڈنٹ
--ڈو
--ڈور
--ڈي
--ڈک
--ڈکٹ
--ڈہ
--ڈی
--ڈیا
--ڈیز
--ڈے
--ڑ
--ڑا
--ڑاں
--ڑن
--ڑو
--ڑک
--ڑھ
--ڑہ
--ڑی
--ڑے
--ژہ
--ڡ
--ک
--کا
--کار
--کاری
--کان
--کاں
--کت
--کر
--کرن
--کس
--کسس
--کش
--کشی
--کل
--کلف
--کم
--کن
--کو
--کوز
--کوف
--کوٹ
--کي
--کيتی
--کٹ
--کڑ
--کھ
--کہ
--کی
--کیا
--کیہ
--کے
--گ
--گا
--گان
--گاه
--گاہ
--گت
--گر
--گرو
--گری
--گس
--گل
--گم
--گن
--گو
--گوي
--گى
--گي
--گٹن
--گٹھ
--گپت
--گڑ
--گڑھ
--گہ
--گی
--گیا
--گیشن
--گین
--گے
--ں
--ھ
--ھا
--ھاری
--ھان
--ھاي
--ھاں
--ھت
--ھر
--ھرا
--ھری
--ھل
--ھلی
--ھم
--ھن
--ھنے
--ھو
--ھوں
--ھویں
--ھي
--ھٹ
--ھڑ
--ھڑی
--ھک
--ھہ
--ھی
--ھیا
--ھیاں
--ھیر
--ھے
--ہ
--ہا
--ہاجر
--ہار
--ہاں
--ہت
--ہد
--ہر
--ہش
--ہل
--ہم
--ہن
--ہو
--ہوي
--ہٹ
--ہہ
--ہی
--ہیا
--ہیاں
--ہے
--ۃ
--ی
--یا
--یات
--یار
--یال
--یام
--یان
--یاي
--یاں
--یاہ
--یب
--یة
--یت
--یتا
--یتی
--یث
--یج
--یجی
--یح
--ید
--یر
--یرا
--یران
--یرہ
--یری
--یریا
--یرین
--یریي
--یز
--یس
--یسا
--یسر
--یسن
--یسٹ
--یسی
--یش
--یشن
--یشور
--یشی
--یص
--یض
--یط
--یع
--یف
--یق
--یقی
--یل
--یلا
--یلس
--یلو
--یلڈ
--یلی
--یلے
--یم
--یما
--ین
--ینا
--یندا
--یندر
--یندے
--ینس
--ینو
--ینٹ
--ینڈ
--ینک
--ینکس
--ینی
--یه
--یو
--یوو
--یوں
--یي
--یٹ
--یٹا
--یٹر
--یٹک
--یٹی
--یپ
--یچ
--یڈ
--یڑ
--یک
--یکا
--یکرن
--یکس
--یکشن
--یکل
--یکن
--یکی
--یگ
--یں
--یہ
--یۃ
--یی
--یے
--ې
--ے
--ےا
--ە
--۰
--۱
--۲
--۳
--۴
--۵
--۶
--۷
--۸
--۹
--ݨ
--ݨا
--ݨی
--ݨے
--ݪ
--न
--र
--ल
--स
