!
"
#
##0
##1
##10
##11
##12
##13
##14
##15
##16
##17
##18
##19
##2
##20
##21
##22
##23
##24
##25
##26
##27
##28
##29
##3
##30
##31
##32
##33
##34
##35
##36
##37
##38
##39
##4
##40
##41
##42
##43
##44
##45
##46
##47
##48
##49
##5
##50
##51
##52
##53
##54
##55
##56
##57
##58
##59
##6
##60
##61
##62
##63
##64
##65
##66
##67
##68
##69
##7
##70
##71
##72
##73
##74
##75
##76
##77
##78
##79
##8
##80
##81
##82
##83
##84
##85
##86
##87
##88
##89
##9
##90
##91
##92
##93
##94
##95
##96
##97
##98
##99
$
%
&
'
(
)
*
+
,
-
.
/
0
00
000
0000
00052489
001
002
003
003263
0038
004
0044
005
006
007
008
009
01
010
011
012
013
014
015
016
017
0174
017473
018
019
02
020
021
03
030
032
04
040
04164
05
05506
06
07
08
09
094
09669
1
10
100
1000
1001
1002
1007
101
1010
1016
1017
102
1020
1021
1024
103
1030
1038
1039
104
1040
105
1050
1055
1056
106
1060
1066
107
1071
1073
108
1080
1086
109
1090
1093
1096
1097
1098
1099
11
110
1100
1101
1103
111
1111
112
1120
1125
1126
1128
113
1130
1136
1137
1139
114
1140
1147
115
1150
1152
1157
116
1160
117
1170
1177
118
1180
1185
1186
1189
119
1190
1191
1194
1198
12
120
1200
1202
1204
1205
1206
1209
121
1210
1212
1213
1214
1215
1216
1217
1218
1219
122
1220
1221
1223
1224
1225
1226
1227
1228
1229
123
1230
1231
1233
1234
1235
1237
1238
1239
124
1240
1241
1242
1243
1244
1245
1246
1247
1248
1249
125
1250
1251
1252
1253
1254
1255
1256
1257
1258
1259
126
1260
1261
1263
1264
1265
1266
1267
1268
1269
127
1270
1271
1272
1273
1274
1275
1276
1277
1278
1279
128
1280
1282
1284
1285
1286
1287
1288
1289
129
1290
1291
1292
1293
1294
1295
1296
1297
1298
1299
13
130
1300
1301
1302
1303
1304
1305
1306
1307
1308
1309
131
1310
1311
1312
1313
1314
1315
1316
1317
1318
1319
132
1320
1321
1322
1323
1324
1325
1326
1327
1328
1329
133
1330
1331
1332
1333
1334
1335
1336
1337
1338
1339
134
1340
1341
1342
1343
1344
1345
1346
1347
1348
1349
135
1350
1351
1352
1353
1354
1355
1356
1357
1358
1359
136
1360
1361
1362
1363
1364
1365
1366
1367
1368
1369
137
1370
1371
1372
1373
1374
1375
1376
1377
1378
1379
138
1380
1381
1382
1383
1384
1385
1386
1387
1388
1389
139
1390
1391
1392
1393
1394
1395
1396
1397
1398
1399
14
140
1400
1401
1402
1403
1404
1405
1406
1407
1408
1409
141
1410
1411
1412
1413
1414
1415
1416
1417
1418
1419
142
1420
1421
1422
1423
1424
1425
1426
1427
1428
1429
143
1430
1431
1432
1433
1434
1435
1436
1437
1438
1439
144
1440
1441
1442
1443
1444
1445
1446
1447
1448
1449
145
1450
1451
1452
1453
1454
1455
1456
1457
1458
1459
146
1460
1461
1462
1463
1464
1465
1466
1467
1468
1469
147
1470
1471
1472
1473
1474
1475
1476
1477
1478
1479
148
1480
1481
1482
1483
1484
1485
1486
1487
1488
1489
149
1490
1491
1492
1493
1494
1495
1496
1497
1498
1499
15
150
1500
1501
1502
1503
1504
1505
1506
1507
1508
1509
151
1510
1511
1512
1513
1514
1515
1516
1517
1518
1519
152
1520
1521
1522
1523
1524
1525
1526
1527
1528
1529
153
1530
1531
1532
1533
1534
1535
1536
1537
1538
1539
154
1540
1541
1542
1543
1544
1545
1546
1547
1548
1549
155
1550
1551
1552
1553
1554
1555
1556
1557
1558
1559
156
1560
1561
1562
1563
1564
1565
1566
1567
1568
1569
157
1570
1571
1572
1573
1574
1575
1576
1577
1578
1579
158
1580
1581
1582
1583
1584
1585
1586
1587
1588
1589
159
1590
1591
1592
1593
1594
1595
1596
1597
1598
1599
16
160
1600
1601
1602
1603
1604
1605
1606
1607
1608
1609
161
1610
1611
1612
1613
1614
1615
1616
1617
1618
1619
162
1620
1621
1622
1623
1624
1625
1626
1627
1628
1629
163
1630
1631
1632
1633
1634
1635
1636
1637
1638
1639
164
1640
1641
1642
1643
1644
1645
1646
1647
1648
1649
165
1650
1651
1652
1653
1654
1655
1656
1657
1658
1659
166
1660
1661
1662
1663
1664
1665
1666
1667
1668
1669
167
1670
1671
1672
1673
1674
1675
1676
1677
1678
1679
168
1680
1681
1682
1683
1684
1685
1686
1687
1688
1689
169
1690
1691
1692
1693
1694
1695
1696
1697
1698
1699
17
170
1700
1701
1702
1703
1704
1705
1706
1707
1708
1709
171
1710
1711
1712
1713
1714
1715
1716
1717
1718
1719
172
1720
1721
1722
1723
1724
1725
1726
1727
1728
1729
173
1730
1731
1732
1733
1734
1735
1736
1737
1738
1739
174
1740
1741
1742
1743
1744
1745
1746
1747
1748
1749
175
1750
1751
1752
1753
1754
1755
1756
1757
1758
1759
176
1760
1761
1762
1763
1764
1765
1766
1767
1768
1769
177
1770
1771
1772
1773
1774
1775
1776
1777
1778
1779
178
1780
1781
1782
1783
1784
1785
1786
1787
1788
1789
179
1790
1791
1792
1793
1794
1795
1796
1797
1798
1799
18
180
1800
1801
1802
1803
1804
1805
1806
1807
1808
1809
181
1810
1811
1812
1813
1814
1815
1816
1817
1818
1819
182
1820
1821
1822
1823
1824
1825
1826
1827
1828
1829
183
1830
1831
1832
1833
1834
1835
1836
1837
1838
1839
184
1840
1841
1842
1843
1844
1845
1846
1847
1848
1849
185
1850
1851
1852
1853
1854
1855
1856
1857
1858
1859
186
1860
1861
1862
1863
1864
1865
1866
1867
1868
1869
187
1870
1871
1872
1873
1874
1875
1876
1877
1878
1879
188
1880
1881
1882
1883
1884
1885
1886
1887
1888
1889
189
1890
1891
1892
1893
1894
1895
1896
1897
1898
1899
19
190
1900
1901
1902
1903
1904
1905
1906
1907
1908
1909
191
1910
1911
1912
1913
1914
1915
1916
1917
1918
1919
192
1920
1921
1922
1923
1924
1925
1926
1927
1928
1929
193
1930
1931
1932
1933
1934
1935
1936
1937
1938
1939
194
1940
1941
1942
1943
1944
1945
1946
1947
1948
1949
195
1950
1951
1952
1953
1954
1955
1956
1957
1958
1959
196
1960
1961
1962
1963
1964
1965
1966
1967
1968
1969
197
1970
1971
1972
1973
1974
1975
1976
1977
1978
1979
198
1980
1981
1982
1983
1984
1985
1986
1987
1988
1989
199
1990
1991
1992
1993
1994
1995
1996
1997
1998
1999
2
20
200
2000
2001
2002
2003
2004
2005
2006
2007
2008
2009
201
2010
2011
2012
2013
2014
2015
2016
2017
2018
2019
202
2020
2021
2022
2023
2024
2025
2026
203
2030
204
205
206
207
2070
208
209
21
210
2100
211
212
213
214
215
216
217
218
219
22
220
2200
221
222
223
224
225
226
227
228
229
23
230
2300
231
232
233
234
235
236
237
238
239
24
240
2400
241
242
243
244
245
246
247
248
249
25
250
2500
251
252
253
254
255
256
257
258
259
26
260
2600
261
262
263
264
265
266
267
268
269
27
270
271
272
273
274
275
276
277
278
279
28
280
2800
281
282
283
284
285
286
287
288
289
29
290
291
292
293
294
295
296
297
298
299
3
30
300
3000
301
302
303
304
305
306
307
308
309
31
310
311
312
313
314
315
316
317
318
319
32
320
321
322
323
324
325
326
327
328
329
33
330
331
332
333
334
335
336
337
338
339
34
340
341
342
343
344
345
346
347
348
349
35
350
3500
351
352
353
354
355
356
357
358
359
36
360
361
362
363
364
365
366
367
368
369
37
370
371
372
373
374
375
376
377
378
379
38
380
381
382
383
384
385
386
387
388
389
39
390
391
392
393
394
395
396
397
398
399
4
40
400
4000
401
402
403
404
405
406
407
408
409
41
410
411
412
413
414
415
416
417
418
419
42
420
421
422
423
424
425
426
427
428
429
43
430
431
432
433
434
435
436
437
438
439
44
440
441
442
443
444
445
446
447
448
449
45
450
4500
451
452
453
453660959
454
455
456
457
458
459
46
460
461
462
463
464
465
466
467
468
469
47
470
471
472
473
474
475
476
477
478
479
48
480
481
482
483
484
485
486
487
488
489
49
490
4909
491
4917
492
493
494
495
496
497
498
499
5
50
500
5000
501
502
503
504
505
506
507
508
509
51
510
511
512
513
514
515
516
5169
517
517608
518
519
52
520
521
522
523
524
525
526
527
528
529
53
530
531
532
533
534
535
536
537
538
539
54
540
541
542
543
544
545
546
547
548
549
55
550
551
552
553
554
555
556
557
558
559
56
560
561
562
563
564
565
566
567
568
569
57
570
571
572
573
574
575
576
577
578
579
57958
58
580
581
582
583
584
585
586
587
588
589
59
590
591
592
593
594
595
596
597
598
599
6
60
600
6000
601
602
603
604
605
606
607
608
609
61
610
611
612
613
614
615
616
617
618
619
62
620
621
622
623
624
625
626
627
628
629
63
630
631
632
633
634
635
636
637
638
639
64
640
641
642
643
644
645
646
647
648
649
65
650
651
652
653
654
655
656
657
658
659
66
660
661
662
663
664
665
666
667
668
669
67
670
671
672
673
674
675
676
677
678
679
68
680
681
682
683
684
685
686
687
688
689
69
690
691
692
693
694
695
696
697
698
699
7
70
700
7000
7001
701
702
703
7031
704
705
706
707
708
709
71
710
711
712
713
714
715
716
717
718
719
72
720
721
722
7227
723
724
725
726
727
728
729
73
730
731
732
733
734
735
736
737
738
739
74
740
741
742
743
744
745
7452
746
747
748
749
75
750
751
752
753
754
755
756
757
759
76
760
761
7618
762
763
764
7648
765
766
767
768
769
7696
77
770
7700
7701
7708
771
772
773
774
775
776
777
778
779
78
780
781
782
783
784
785
786
787
788
789
79
790
791
793
794
795
7954
796
798
7995
8
80
800
8000
8001
801
8018
802
803
8032
804
805
8053
806
8062
807
808
809
81
810
811
812
813
814
815
816
817
82
820
821
823
824
825
8252
8253
8258
8260
827
8274
828
83
830
833
835
8353
84
840
841
842
84234
843
845
84902
85
850
852
855
86
860
86153
864
865
87
870
87341
875
88
880
88309
88462
888
89
890
89533
89602
89784
9
90
900
9000
901
905
907
91
910
911
912
915
92
920
925
93
930
935
936
94
940
94240937
946
95
950
951
954
955
956
96
960
961
962
963
965
965096742
968
97
970
972
973
974
975
978
979
98
980
981
985
9876
99
990
992
995
999
:
;
<
=
>
?
@
[
\
]
^
_
`
a
aa
aachen
aachener
aalen
aan
aarau
aare
aargau
aargauer
aarhus
aaron
aas
ab
aba
abb
abba
abbas
abbau
abbe
abbey
abbild
abbildung
abbildungen
abbott
abbrechen
abbruch
abc
abd
abdruck
abdul
abdullah
abe
abel
abend
abendblatt
abende
abendessen
abendla
abendmahl
abends
abenteuer
abenteurer
aber
aberdeen
aberkannt
abermals
abfa
abfahrt
abfall
abfallenden
abfassung
abfluss
abfolge
abfrage
abfu
abgabe
abgaben
abgang
abgea
abgebaut
abgeben
abgebildet
abgebrochen
abgedeckt
abgedruckt
abgeflacht
abgefragt
abgefu
abgegangene
abgegeben
abgegebenen
abgegrenzt
abgehalten
abgeku
abgelegenen
abgelegt
abgelehnt
abgeleitet
abgeleitete
abgeliefert
abgelo
abgenommen
abgeordnete
abgeordneten
abgeordnetenhaus
abgeordnetenhauses
abgeordnetenkammer
abgeordneter
abgerissen
abgerufen
abgerundet
abgesagt
abgeschafft
abgeschaltet
abgeschlossen
abgeschlossene
abgeschlossenen
abgeschnitten
abgesehen
abgesetzt
abgestellt
abgestiegen
abgestimmt
abgetragen
abgetrennt
abgetreten
abgewickelt
abgewiesen
abgezogen
abgrenzung
abgrund
abha
abhalten
abhandlung
abhandlungen
abhang
abi
abitur
abkehr
abkommen
abkommens
abku
abla
ablagerungen
ablauf
ableben
ablegen
ableger
ablegte
ablehnte
ablehnung
ableiten
ableitung
ableitungen
ableitungsmorphem
ablo
abmessungen
abnahme
abnehmen
abneigung
abo
abonnement
abonnenten
aborigines
about
above
abraham
abrechnung
abreise
abriss
abru
abruf
abrufbar
abs
absage
absatz
abscha
abschaffung
abschied
abschließen
abschließend
abschließende
abschließenden
abschloss
abschlu
abschluss
abschlussbericht
abschlusstabelle
abschluß
abschneiden
abschnitt
abschnitte
abschnitten
abschnitts
abschrecken
abschrift
abseits
absetzen
absetzung
absicherung
absicht
absichten
absichtlich
absolut
absolute
absoluten
absolventen
absolvieren
absolviert
absolvierte
absolvierten
abspaltung
abspann
absta
abstammung
abstand
absteigen
absteiger
abstieg
abstimmung
abstract
abstrakte
abstrakten
abstu
absturz
abt
abtei
abteilung
abteilungen
abteilungsleiter
abtes
abtheilung
abtreten
abtretung
abu
abwa
abwechselnd
abwehr
abwehrspieler
abweichen
abweichend
abweichende
abweichenden
abweichendes
abweichung
abweichungen
abwertend
abwesenheit
abwicklung
abza
abzeichen
abzug
abzugeben
abzugrenzen
abzuhalten
abzweig
abzweigt
abzweigung
ac
acad
acade
academia
academic
academy
accademia
access
accident
account
ace
ach
achievement
achille
achilles
achim
achse
achsen
achslast
acht
achte
achtelfinale
achten
achter
achtung
achtzehn
acid
acker
ackerbau
ackerland
ackermann
across
act
acta
acten
actes
action
active
activity
actor
actors
actress
acts
ad
ada
adac
adalbert
adam
adams
adaptiert
adaption
adb
add
addiert
addison
addition
ade
adel
adelaide
adele
adelheid
adelige
adeligen
adeliger
adels
adelsfamilie
adelsgeschlecht
adelsgeschlechts
adelsstand
adelstitel
adenauer
adern
adi
adjektiv
adjektive
adjektivs
adjutant
adler
adlerorden
adlige
adligen
adliger
admin
administration
administrativ
administrative
administrativen
administrator
admiral
admiralita
adolf
adolph
adolphe
adorno
adressbuch
adresse
adressen
adreßbuch
adria
adrian
adriano
adrien
adult
advanced
advances
advent
adventure
adventures
adverbielle
advisory
advokat
ae
aeg
aeiou
aero
aerospace
aerzte
af
afc
afd
affa
affair
affairs
affen
afghanistan
afp
africa
african
afrika
afrikanische
afrikanischen
afrikanischer
afrikas
afrique
afro
afroamerikaner
afroamerikanern
after
ag
again
against
agatha
age
agency
agenda
agent
agenten
agentur
ages
aggressiv
agieren
agiert
agierte
agnes
agon
agostino
agreement
agricola
agricultural
agriculture
agusti
ah
ahead
ahl
ahmad
ahmed
ahmet
ahnen
ahnung
ahorn
ahrens
ahrweiler
ai
aid
aids
aime
ain
air
airbus
aircraft
aires
airline
airlines
airport
airways
ais
aisch
aise
aisne
aix
aj
ajax
ak
aka
akad
akademie
akademien
akademiens
akademische
akademischen
akademischer
akademiska
akira
akkord
akkordeon
akkusativ
akl
aks
akt
akte
akten
akteure
aktie
aktien
aktiengesellschaft
aktion
aktiona
aktionen
aktiv
aktive
aktiven
aktiver
aktives
aktiviert
aktivierung
aktivist
aktivisten
aktivistin
aktivita
aktualisiert
aktualisierte
aktualita
aktuell
aktuelle
aktuellen
aktueller
aktuelles
akustik
akustische
akute
akuten
akzent
akzeptanz
akzeptieren
akzeptiert
akzeptierte
al
ala
alabama
alain
alan
alarm
alaska
alb
alba
alban
albanien
albanisch
albanische
albanischen
albanischer
albany
alben
albers
albert
alberta
alberti
alberto
albertus
albin
albion
albrecht
albrechts
album
albumcharts
albums
aldeia
aldo
aldrich
ale
alec
alegre
alejandro
aleksander
alemannia
aleppo
alessandro
alex
alexander
alexanders
alexandra
alexandre
alexandria
alexandrowitsch
alexei
alexis
alf
alfa
alfons
alfonso
alfred
alfredo
algebra
algebraische
algen
algerien
algier
algorithmen
algorithmus
ali
alias
alice
alicia
alien
aligned
alison
alive
alkohol
all
alla
allan
alle
alledem
allee
allegro
allein
alleine
alleinige
alleiniger
allem
allen
allenfalls
allenstein
allenthalben
aller
allerdings
allerhand
allerho
allerlei
alles
allesamt
allg
allga
allgemein
allgemeine
allgemeinen
allgemeiner
allgemeines
allgemeinheit
alliance
allianz
allied
alliierte
alliierten
allison
allja
allma
allmusic
allrad
allradantrieb
allta
alltag
alltags
allzu
alm
alma
almanach
almeida
almost
aloe
alois
alone
along
alonso
aloys
alp
alpen
alpenverein
alpenvereins
alpes
alpha
alphabe
alphabet
alphabetisch
alphabetischem
alphabetischen
alphabetischer
alphabetisches
alphabets
alphonse
alpin
alpine
alpinen
als
alsace
alsbald
alsdann
alsfeld
also
alt
alta
altar
altarbild
altarraum
altars
altbayern
altdorf
alte
altem
alten
altena
altenberg
altenburg
altenburger
altenkirchen
alter
alternate
alternativ
alternative
alternativen
alters
altersklasse
alterthu
altertu
altertum
altertums
altertumskunde
altertumswissenschaft
altes
altgriechisch
altgriechischen
althistoriker
althochdeutsch
altmann
altmark
altmu
alto
altona
altonaer
altphilologe
altpreußischen
altsta
altstadt
aluminium
alumni
alves
alvin
always
alzey
am
ama
amadeus
amalia
amalie
amanda
amateur
amateure
amateurliga
amazing
amazon
amazonas
ambassador
amber
amberg
ambrosius
amd
ame
ameisen
amen
america
american
americans
amerika
amerikaner
amerikanerin
amerikanern
amerikanisch
amerikanische
amerikanischen
amerikanischer
amerikanisches
amerikas
ami
amiens
amiga
aminosa
amir
ammann
ammoniak
amnesty
amo
among
amor
amore
amos
amour
amphibien
amphoe
amplifie
ams
amsterdam
amsterdamer
amt
amte
amtes
amtierende
amtierenden
amtierender
amtierte
amtlich
amtliche
amtlichen
amtlicher
amtliches
amtmann
amts
amtsantritt
amtsbezirk
amtsblatt
amtseinfu
amtsgericht
amtsgerichts
amtshauptmannschaft
amtsinhaber
amtssitz
amtssprache
amtstra
amtszeit
amu
amy
an
ana
anagramme
analog
analoge
analogen
analogie
analogique
analyse
analysen
analysieren
analysiert
analysis
analytische
analytischen
anastasia
anatoli
anatom
anatomie
anatomischen
anatomy
anbau
anbauten
anbetung
anbieten
anbieter
anbietet
anbindung
anblick
anbot
anbringen
anc
ancien
ancient
and
andacht
andauernde
andauernden
anden
andenken
ander
andere
anderem
anderen
anderer
andererseits
anderes
andern
andernfalls
anders
andersen
anderson
andersson
anderswo
anderthalb
anderweitig
andorra
andra
andre
andrea
andreas
andrei
andrej
andres
andrew
andrews
android
andrzej
andy
ane
aneinander
anekdoten
anerkannt
anerkannte
anerkannten
anerkannter
anerkennen
anerkennung
anfa
anfang
anfange
anfangen
anfangs
anfangszeit
anfertigen
anfertigung
anflug
anforderungen
anfrage
anfragen
anfu
ang
angabe
angaben
ange
angebaut
angeben
angeblich
angebliche
angeblichen
angebot
angebote
angeboten
angebotenen
angebracht
angebrachte
angebrachten
angebunden
angedeutet
angefahren
angefangen
angefertigt
angeflogen
angefu
angegeben
angegebene
angegebenen
angegliedert
angegriffen
angeha
angehalten
angeho
angehoben
angekauft
angeklagt
angeklagte
angeklagten
angekommen
angeku
angel
angela
angelangt
angelegenheit
angelegenheiten
angelegt
angelegte
angelegten
angelehnt
angeles
angelika
angeln
angelo
angels
angelsa
angemeldet
angemessen
angemessene
angenehm
angenehme
angenommen
angeordnet
angeordnete
angeordneten
angepasst
anger
angeregt
angers
angeschafft
angeschlagen
angeschlossen
angeschlossenen
angesehen
angesehene
angesehenen
angesetzt
angesicht
angesichts
angesiedelt
angesprochen
angestellt
angestellte
angestellten
angestellter
angestiegen
angestrebt
angetreten
angetrieben
angetroffen
angewachsen
angewandt
angewandte
angewandten
angewendet
angewiesen
angezeigt
angezogen
angezu
angibt
anglistik
anglo
angola
angreifen
angreifer
angrenzende
angrenzenden
angriff
angriffe
angriffen
angriffs
angst
angus
anha
anhalt
anhaltende
anhaltenden
anhand
anhang
anhieb
anho
ani
animal
animals
animation
animationsfilm
anime
anita
anja
anjou
anka
ankam
ankara
ankauf
anke
anker
ankla
anklage
anklam
anklang
anknu
ankommen
ankommt
anku
ankunft
anla
anlage
anlagen
anlass
anlasser
anlauf
anlaß
anlegen
anleger
anlehnung
anleihen
anleitung
anliegen
anm
anmelden
anmelder
anmeldung
anmerkung
anmerkungen
ann
anna
annaberg
annahm
annahme
annahmen
annalen
annales
annals
anne
annehmen
anneliese
annemarie
annette
annexion
anni
annie
annika
annimmt
anniversary
anno
announced
announces
annuaire
annual
anon
anonym
anonyme
anonymen
anonymous
anonymus
anordnung
anordnungen
anorganische
anorganischen
another
anpassen
anpassung
anpassungen
anrede
anregung
anregungen
anreise
anru
anruf
ans
ansa
ansah
ansatz
ansbach
anschaulich
anschauung
anschauungen
anschein
anscheinend
anschla
anschlag
anschliessend
anschließen
anschließend
anschließende
anschließenden
anschließender
anschließt
anschloss
anschlu
anschluss
anschlussstelle
anschluß
ansehen
ansehnliche
anselm
ansgar
ansicht
ansichten
ansiedlung
ansiedlungen
ansonsten
anspielung
anspielungen
ansprache
ansprechen
anspru
anspruch
ansta
anstalt
anstalten
anstatt
anstehenden
anstelle
anstellung
anstieg
anstoß
anstrengung
anstrengungen
anstrich
ant
antarctic
antarctica
antarktika
antarktis
antarktischen
antarktisexpedition
ante
anteil
anteile
antenne
antennen
antheil
anthologie
anthologien
anthology
anthony
anthropologe
anthropologie
anthropology
anti
antike
antiken
antiker
antiko
antiochia
antiochos
antiquita
antisemitische
antisemitischen
antisemitismus
antje
antlitz
anto
antoine
antoinette
anton
antoni
antonia
antonio
antonius
antony
antra
antrag
antrat
antreten
antrieb
antritt
antwerpen
antwort
antworten
antwortet
antwortete
anvertraut
anwa
anwalt
anweisung
anweisungen
anwendbar
anwenden
anwender
anwendung
anwendungen
anwesen
anwesend
anwesenden
anwesenheit
anwohner
any
anzahl
anzeichen
anzeige
anzeigen
anzeiger
anzu
anzubieten
anzuerkennen
anzug
anzugeben
anzugreifen
anzulegen
anzunehmen
anzupassen
anzuschließen
anzusehen
anzutreffen
anzutreten
anzuwenden
ao
ap
apa
apache
apartheid
apertura
apfel
aphorismen
api
apokalypse
apolda
apollo
apollon
apostel
apostolische
apostolischen
apostolischer
apotheke
apotheken
apotheker
app
apparat
apparate
appel
appell
appenzell
appian
apple
application
applications
applied
approach
approx
apps
apr
apre
april
apsis
apt
aqua
aquarell
aquarelle
aquarium
aquitaine
aquitanien
ar
ara
arab
araber
arabia
arabic
arabien
arabisch
arabische
arabischen
arabischer
arago
aragon
arama
arbeit
arbeiten
arbeitenden
arbeiter
arbeiterbewegung
arbeitern
arbeiterpartei
arbeiterzeitung
arbeitet
arbeitete
arbeiteten
arbeitgeber
arbeitnehmer
arbeits
arbeitsbedingungen
arbeitsgemeinschaft
arbeitsgruppe
arbeitskra
arbeitskraft
arbeitskreis
arbeitskreises
arbeitslosigkeit
arbeitsmarkt
arbeitspla
arbeitsplatz
arbeitsstelle
arbeitsweise
arbeitszeit
arbor
arc
arcade
arch
archa
archaeological
archaeology
arche
archer
archibald
archipel
architects
architectural
architecture
architekt
architekten
architektin
architektonisch
architektonische
architektonischen
architektur
architekturbu
archiv
archivar
archive
archiven
archives
archiviert
archivierte
archivlink
archivs
arco
arctic
ard
are
area
areal
areals
areas
arena
arendt
arg
argentina
argentinien
argentiniens
argentinische
argentinischen
argentinischer
argument
argumentation
argumente
argumentiert
ari
aria
ariane
arie
ariel
aristoteles
arizona
arkaden
arkansas
arktis
arlington
arm
armand
armando
arme
armee
armeekorps
armeen
armen
armenien
armenier
armenisch
armenische
armenischen
armenischer
armer
armes
armin
arminia
arms
armstrong
armut
armutsgrenze
army
arn
arnaud
arnd
arndt
arne
arnim
arno
arnold
arnsberg
arnstadt
arnulf
aron
arosa
around
arp
arrangement
arrangements
arrangeur
arrangiert
arras
array
arrest
arrondissement
arrondissements
arrow
arroyo
ars
arsenal
art
arte
artefakte
artemis
arten
artepitheton
artes
arthur
arti
article
articles
artikel
artikelanfang
artikelgebrauch
artikeln
artikels
artillerie
artist
artistische
artists
artnet
arts
artur
arturo
arxiv
arzneimittel
arzt
arztes
as
asa
asch
aschaffenburg
asche
aschendorff
aschersleben
aserbaidschan
ash
ashley
asia
asian
asiaten
asiatische
asiatischen
asien
asienmeisterschaft
asienmeisterschaften
asiens
asienspielen
ask
asp
aspects
aspekt
aspekte
aspekten
asphalt
aspx
ass
assembly
assessment
assessor
assisi
assistant
assistent
assistenten
assistentin
assistenztrainer
assists
associate
associated
association
assoziation
assoziiert
ast
astdys
asteroid
asteroiden
asteroids
aston
astra
astrid
astronaut
astronom
astronomen
astronomical
astronomie
astronomische
astronomischen
astronomy
astrophysics
asv
asyl
at
ata
atari
atelier
ateliers
atem
athem
athen
athena
athener
athens
athlet
athleten
athletic
athletics
athletinnen
atlanta
atlantic
atlantik
atlantis
atlantischen
atlas
atle
atmospha
atoll
atom
atome
atomic
atp
att
attack
attenta
attentat
attila
attorney
attraktion
attraktiv
attribut
attribute
au
aube
auch
auckland
audi
audio
audiodateien
audrey
aue
auer
auerbach
auf
aufarbeitung
aufbau
aufbauen
aufbauten
aufbewahrt
aufbewahrung
aufbringen
aufbruch
aufeinander
aufeinandertreffen
aufenthalt
aufenthalte
aufenthaltes
aufenthalts
aufenthaltsort
auferstehung
auff
auffa
auffallend
auffassung
auffassungen
aufforderung
auffu
aufgab
aufgabe
aufgaben
aufgebaut
aufgeben
aufgebot
aufgebracht
aufgedeckt
aufgefasst
aufgefordert
aufgefu
aufgefunden
aufgegangen
aufgegeben
aufgegriffen
aufgeha
aufgehalten
aufgehoben
aufgekauft
aufgekla
aufgelegt
aufgelistet
aufgelo
aufgenommen
aufgenommene
aufgenommenen
aufgerichtet
aufgerufen
aufgesetzt
aufgestellt
aufgestellte
aufgestellten
aufgestiegen
aufgestockt
aufgesucht
aufgeteilt
aufgetragen
aufgetreten
aufgewachsen
aufgeza
aufgezeichnet
aufgezogen
aufging
aufgrund
aufha
aufhalten
aufhebung
aufhielt
aufho
aufkla
aufkommen
aufkommenden
aufl
auflage
auflagen
auflief
auflistung
auflo
aufmerksam
aufmerksamkeit
aufnahm
aufnahme
aufnahmen
aufnehmen
aufnimmt
aufrecht
aufrechterhalten
aufrechterhaltung
aufregung
aufru
aufruf
aufruhr
aufs
aufsa
aufsatz
aufschluss
aufschrift
aufschwung
aufsehen
aufsicht
aufsichtsrat
aufsta
aufstand
aufstandes
aufstands
aufsteigen
aufsteigend
aufsteigenden
aufsteiger
aufstellen
aufstellung
aufstieg
aufstiegsrunde
aufsuchen
auftakt
auftauchen
auftaucht
aufteilung
auftra
auftrag
auftrage
auftraggeber
auftrat
auftraten
auftreten
auftretende
auftretenden
auftritt
auftritte
auftritten
aufwa
aufwand
aufweisen
aufweist
aufwendig
aufwies
aufwuchs
aufza
aufzeichnung
aufzeichnungen
aufzu
aufzubauen
aufzug
aufzugeben
aufzuhalten
aufzulo
aufzunehmen
aufzustellen
aufzusuchen
aufzutreten
aug
auge
augen
augenblick
augenblicke
augenblicklich
augenmerk
augenscheinlich
auges
augsburg
augsburger
augsburgischen
august
augusta
auguste
augustin
augustiner
augustinus
augusto
augustus
auktion
aula
aura
aurel
aurelius
aurich
aurora
aus
ausarbeitung
ausbau
ausbauen
ausbeute
ausbeutung
ausbilden
ausbildung
ausblick
ausbrach
ausbreitung
ausbru
ausbruch
auschwitz
ausdauer
ausdauernde
ausdehnung
ausdru
ausdruck
ausdrucks
auseinander
auseinandersetzung
auseinandersetzungen
auserwa
ausfa
ausfahrt
ausfall
ausfallen
ausfiel
ausfindig
ausflu
ausflug
ausflugsziel
ausfu
ausg
ausgabe
ausgaben
ausgang
ausgangspunkt
ausgearbeitet
ausgebaut
ausgebaute
ausgebildet
ausgebildete
ausgebildeten
ausgebreitet
ausgebrochen
ausgedehnt
ausgedehnte
ausgedehnten
ausgedru
ausgefallen
ausgefu
ausgegangen
ausgegeben
ausgeglichen
ausgegliedert
ausgegraben
ausgehen
ausgehend
ausgehenden
ausgeht
ausgelegt
ausgeliefert
ausgeliehen
ausgelo
ausgemustert
ausgenommen
ausgepra
ausgerechnet
ausgerichtet
ausgerichtete
ausgerichteten
ausgeru
ausgerufen
ausgeschieden
ausgeschlossen
ausgeschrieben
ausgesetzt
ausgespielt
ausgesprochen
ausgestaltung
ausgestattet
ausgestattete
ausgestatteten
ausgestellt
ausgestellten
ausgestorben
ausgestrahlt
ausgetauscht
ausgetragen
ausgetragene
ausgetragenen
ausgeu
ausgewa
ausgewechselt
ausgeweitet
ausgewertet
ausgewiesen
ausgewiesenen
ausgezahlt
ausgezeichnet
ausgezeichnete
ausgezeichneten
ausgezeichneter
ausging
ausgleich
ausgrabung
ausgrabungen
ausha
auskommen
auskunft
ausla
ausland
auslande
auslandes
auslaufen
auslegung
auslieferung
auslo
auslosung
ausmachen
ausmacht
ausmaß
ausnahme
ausnahmen
ausnahmslos
ausnahmsweise
auspra
ausreichend
ausreichende
ausrichten
ausrichtung
ausru
aussage
aussagen
ausscheiden
ausschied
ausschlaggebend
ausschließlich
ausschluss
ausschmu
ausschnitt
ausschreibung
ausschreitungen
ausschu
ausschuss
ausschusses
aussehen
ausser
ausserdem
ausserhalb
aussicht
aussichten
aussichtsplattform
aussichtspunkt
aussichtsturm
aussieht
aussprach
aussprache
aussprechen
ausspruch
ausstattung
ausstellung
ausstellungen
ausstellungskatalog
aussterben
ausstieg
ausstrahlung
austausch
austin
austragung
austragungsort
australia
australian
australien
australiens
australier
australische
australischen
australischer
austria
austrian
austritt
ausu
auswa
auswahl
auswanderer
auswanderung
ausweg
ausweichen
ausweisung
ausweitung
auswertung
auswirkung
auswirkungen
auszeichnen
auszeichnet
auszeichnung
auszeichnungen
auszu
auszubauen
auszudru
auszufu
auszug
auszugehen
auszugleichen
auszuschließen
auszusprechen
auszuu
aut
authentizita
author
authority
auto
autobahn
autobahnen
autobiografie
autobiographie
automaten
automatisch
automatische
automatischen
automobil
automobile
automobilen
automobilhersteller
automobilindustrie
automobilrennfahrer
automotive
autonome
autonomen
autonomie
autor
autoren
autorennfahrer
autorin
autorinnen
autorita
autoroute
autors
autos
autounfall
auvergne
aux
auß
außen
außenlager
außenminister
außenministerium
außenministeriums
außenpolitik
außenseite
außenseiter
außenstelle
außenwelt
außer
außerdem
außergewo
außerhalb
außerordentlich
außerordentliche
außerordentlichen
außerordentlicher
außerplanma
av
ava
avancierte
avant
avantgarde
ave
avec
avenida
avenue
aviation
avignon
aviv
avn
aw
award
awards
away
ax
axel
axt
ay
az
aziz
azur
aɪ
aʊ
b
ba
baader
baar
bab
baba
babel
babelsberg
baby
babylon
bach
bachelor
bachem
baches
bachmann
bachs
back
backen
background
backhaus
backstein
bacon
bad
bade
baden
bader
badische
badischen
badischer
badminton
badmintonspieler
badmintonspielerin
baer
bafta
bag
bagdad
baha
bahamas
bahia
bahn
bahnen
bahngesellschaft
bahnho
bahnhof
bahnhofs
bahnhofsgeba
bahnhofstraße
bahnlinie
bahnstation
bahnsteig
bahnsteige
bahnstrecke
bahnstrecken
bahnu
bahr
bahrain
bai
baier
baiern
bailey
bains
bairischen
baker
bakterien
baku
bal
balance
bald
balduin
baldwin
bali
balingen
balkan
balken
balkon
ball
ballade
balladen
ballet
ballett
ballon
balthasar
baltic
baltikum
baltimore
baltische
baltischen
bamberg
bamberger
ban
bananen
banat
banco
band
bandbreite
bande
banden
bandes
bandleader
bandmitglieder
bands
bang
bangkok
bangladesch
bank
banken
bankhaus
bankier
bankiers
banking
banknoten
banks
bann
banner
bantamgewicht
baptist
baptiste
bar
barack
barbara
barbarossa
barber
barcelona
bari
bariton
barker
barmen
barmherzigkeit
barnes
barnim
barock
barocke
barocken
barocker
baron
barone
baroness
baronet
baronin
barons
barre
barrett
barrow
barry
bars
bart
bartels
barth
barthel
bartholdy
bartholoma
bartolomeo
barton
bartsch
bas
basalt
base
baseball
baseballspieler
based
basel
basen
basf
basic
basieren
basierend
basierende
basiert
basierte
basierten
basil
basilica
basilika
basin
basis
basket
basketball
basketballspieler
baskets
basler
bass
basse
bassist
bassisten
basso
bastei
bastian
bastien
bat
bataillon
bataillone
bataillons
baten
bates
bath
batman
batterie
batterien
battista
battle
bau
bauabschnitt
bauarbeiten
bauart
baubeginn
bauch
baudenkma
baudenkmal
baudenkmale
baudenkmales
bauen
bauer
bauern
bauernhaus
bauernho
bauernhof
bauernkrieg
baufa
bauform
baugeschichte
bauhaus
bauherr
bauingenieur
bauinventar
baujahr
bauko
baukosten
baukunst
baulich
bauliche
baulichen
baum
baumann
baumaterial
baumaßnahmen
baume
baumeister
baumes
baumga
baumgarten
baumgartner
baumwolle
bauphase
baur
baureihe
baureihen
baus
baustein
bausteine
baustelle
baustil
bausubstanz
baut
bauta
baute
bauteil
bauteile
bauten
bautz
bautzen
bauunternehmer
bauverwaltung
bauweise
bauwerk
bauwerke
bauwerken
bauwerks
bauwesen
bauzeit
bauzeitung
bavaria
bavarikon
baxter
bay
baydschg
bayer
bayerisch
bayerische
bayerischen
bayerischer
bayerisches
bayern
bayernatlas
bayernliga
bayerns
baylfd
bayreuth
bayreuther
bayrischen
baɪ
bb
bbc
bbe
bbecke
bben
bbkl
bbl
bc
bchen
bd
bda
bde
be
bea
beabsichtigt
beabsichtigte
beach
beachten
beachtet
beachtung
beamte
beamten
beamter
beanspruchen
beansprucht
beanspruchte
beantragen
beantragt
beantragte
beantworten
beantwortet
bear
bearb
bearbeite
bearbeiten
bearbeiter
bearbeitet
bearbeitete
bearbeitung
bearbeitungen
bears
beast
beat
beate
beatles
beatrice
beatrix
beats
beaufort
beauftragt
beauftragte
beauftragten
beauftragter
beaulieu
beaumont
beautiful
beauty
beaux
beaver
bebaut
bebauung
beben
bec
because
becher
beck
becken
beckens
becker
beckmann
become
bed
beda
bedacht
bedarf
bedauern
bedecken
bedeckt
bedeckte
bedeckten
bedenken
bedeuten
bedeutend
bedeutende
bedeutenden
bedeutender
bedeutendes
bedeutendste
bedeutendsten
bedeutet
bedeutete
bedeutsam
bedeutsame
bedeutsamen
bedeutung
bedeutungen
bedeutungserkla
bedford
bedienen
bedient
bediente
bedienten
bedienung
bedingt
bedingte
bedingten
bedingung
bedingungen
bedra
bedroht
bedrohte
bedrohten
bedrohung
bedru
bedu
bedurfte
bee
beeindruckt
beeinflussen
beeinflusst
beeinflusste
beeinflussten
beeinflussung
beeintra
been
beenden
beendet
beendete
beendeten
beendigung
beer
beerdigt
beerdigung
beeren
beethoven
beethovens
befa
befahl
befahrbar
befahren
befallen
befand
befanden
befassen
befasst
befasste
befehl
befehle
befehlen
befehligte
befehlshaber
befestigen
befestigt
befestigte
befestigten
befestigung
befestigungen
befestigungsanlagen
befinden
befindet
befindliche
befindlichen
befo
befohlen
before
befragt
befragten
befragung
befreien
befreit
befreite
befreiung
befreundet
befreundete
befreundeten
befriedigen
befriedigt
befriedigung
befu
befugnisse
befund
befunde
befunden
begab
begabung
begangen
begann
begannen
begeben
begebenheiten
begegnen
begegnet
begegnete
begegnung
begegnungen
begehen
begehren
begehrt
begeht
begeistert
begeisterte
begeisterung
begibt
begin
beging
beginn
beginnen
beginnend
beginnende
beginnenden
beginning
beginnt
begleiten
begleiter
begleitet
begleitete
begleiteten
begleitung
beglu
begnu
begonnen
begonnene
begonnenen
begra
begraben
begreifen
begreift
begrenzen
begrenzt
begrenzte
begrenzten
begrenzung
begriff
begriffe
begriffen
begriffs
begriffskla
begru
begu
beha
behaart
behalten
behandeln
behandelt
behandelte
behandelten
behandlung
behaupten
behauptet
behauptete
behaupteten
behauptung
behauptungen
behavior
beheimatet
beherbergen
beherbergt
beherbergte
beherrschen
beherrscht
beherrschte
beherrschten
behielt
behielten
behind
behindert
behinderte
behinderten
behinderung
behinderungen
beho
behr
behrens
behu
bei
beibehalten
beibehaltung
beide
beiden
beider
beiderseits
beides
beidseitig
beier
beifall
beifu
beigefu
beigelegt
beigesetzt
beigetragen
beigetreten
beiheft
beijing
beil
beilage
beim
bein
beinahe
beiname
beinamen
beine
beinen
being
beinhalten
beinhaltet
beinhaltete
beirat
beirats
beirut
beisammen
beisein
beisetzung
beisitzer
beispiel
beispiele
beispielen
beispielhaft
beispielsweise
beistand
beitra
beitrag
beitragen
beitritt
beitrug
beiwagen
beka
bekam
bekamen
bekannt
bekannte
bekannten
bekannter
bekanntes
bekannteste
bekanntesten
bekanntestes
bekanntgabe
bekanntgegeben
bekanntheit
bekanntlich
bekanntmachung
bekanntschaft
bekennen
bekenntnis
beklagen
beklagt
beklagte
bekleidet
bekleidete
bekleidung
bekommen
bekommt
bekra
bekro
bel
bela
beladen
belagert
belagerte
belagerten
belagerung
belange
belarus
belassen
belastet
belastung
belastungen
bele
belebt
beleg
belege
belegen
belegschaft
belegt
belegte
belegten
belehnt
belehrung
beleidigt
beleidigung
beleuchtet
beleuchtung
belfast
belfort
belgien
belgiens
belgier
belgische
belgischen
belgischer
belgrad
belieben
beliebig
beliebige
beliebigen
beliebt
beliebte
beliebten
beliebter
beliebtes
beliebtesten
beliebtheit
belief
beliefen
believe
belize
bell
bella
belle
belles
bellinzona
bello
beln
belohnt
belohnung
below
belt
beltz
belu
belvedere
bema
bemalt
bemerkbar
bemerken
bemerkenswert
bemerkenswerte
bemerkt
bemerkte
bemerkung
bemerkungen
bemu
ben
benachbarte
benachbarten
benannt
benannte
benannten
bend
bender
bene
benedetto
benedict
benedikt
benediktiner
benediktinerabtei
benehmen
benennen
benennt
benennung
beni
benin
benito
benjamin
bennett
benno
benny
beno
benoi
bensheim
benson
bentheim
bentley
benu
benutzen
benutzer
benutzt
benutzte
benutzten
benutzung
benz
benzin
beobachten
beobachter
beobachtet
beobachtete
beobachteten
beobachtung
beobachtungen
bequem
ber
bera
berall
berarb
berarbeitet
berarbeitete
berarbeitung
beraten
berater
beratung
beraubt
beraus
berbaut
berblick
berbru
berchtesgaden
berchtesgadener
berdeckt
berdies
berechnen
berechnet
berechnung
berechnungen
berechtigt
berechtigte
berechtigten
berechtigung
bereich
bereiche
bereichen
bereichs
bereifung
berein
bereinander
bereinkommen
bereinstimmen
bereinstimmung
bereiste
bereit
bereiten
bereitet
bereitete
bereitgestellt
bereits
bereitschaft
bereitstellung
berfa
berfahrt
berfall
berfallen
berfeld
berflu
berfu
berg
berga
bergab
bergabe
bergakademie
bergamo
bergang
bergangs
bergbau
berge
bergeben
bergegangen
bergehen
bergehend
bergehende
bergehenden
bergeht
bergen
bergeordneten
berger
berges
bergfried
berghaus
bergheim
bergibt
berging
bergisch
bergischen
bergland
bergleute
bergman
bergmann
bergreifend
bergreifende
bergreifenden
bergru
bergs
bergsteiger
bergstraße
bergwerk
bergwerke
bergwerks
berha
berhaupt
berho
berholt
bericht
berichte
berichten
berichterstattung
berichtet
berichtete
berichteten
berichtigung
berief
berkeley
berl
berla
berlassen
berleben
berlebende
berlebenden
berlebt
berlebte
berlebten
berlegen
berlegenen
berlegenheit
berlegt
berlegungen
berliefert
berlieferte
berlieferten
berlieferung
berlieferungen
berliegenden
berließ
berlin
berlinale
berliner
berlingen
berlins
berma
bermittelt
bermu
bermuda
bern
bernahm
bernahme
bernahmen
bernard
bernardino
bernardo
bernatu
bernau
bernburg
bernd
berndt
bernehmen
berner
bernhard
bernhardt
bernimmt
bernommen
bernstein
berpru
berqueren
berquert
berquerte
berquerung
berragt
berraschend
berraschenden
berrascht
berraschte
berraschung
berreden
berregional
berregionale
berregionalen
berreicht
berreichte
berreste
berry
bers
berscha
berschreiten
berschreitung
berschrift
berschritt
berschritten
berschu
berschuss
berschwemmungen
bersee
bersehen
bersetzen
bersetzer
bersetzerin
bersetzt
bersetzte
bersetzung
bersetzungen
bersicht
bersiedelte
berspannt
berstand
berstanden
berstehen
bersteigt
berstellt
bert
berta
bertelsmann
bertha
berthold
bertolt
bertra
bertraf
bertragbare
bertragen
bertragenen
bertragung
bertragungen
bertram
bertrand
bertrieben
bertritt
bertroffen
bertrug
beru
beruf
berufe
berufen
beruflich
berufliche
beruflichen
berufs
berufsausbildung
berufsschule
berufsta
beruft
berufung
beruhen
beruhigen
beruht
beruhte
berwa
berwachen
berwacht
berwachung
berwiegend
berwiegende
berwiegenden
berwinden
berwindung
berwunden
berzahltore
berzeugen
berzeugend
berzeugt
berzeugte
berzeugung
berzeugungen
berzogen
bes
besa
besagt
besanc
besass
besatzung
besatzungsmacht
besatzungsmitglieder
besatzungszone
besaß
besaßen
bescha
beschaffen
beschaffenheit
beschafft
beschaffung
bescheid
bescheiden
bescheidene
bescheidenen
beschieden
beschlagnahmt
beschleunigen
beschleunigt
beschleunigung
beschließen
beschließt
beschloss
beschlossen
beschloß
beschlu
beschluss
beschluß
beschossen
beschra
beschreiben
beschreibt
beschreibung
beschreibungen
beschrieb
beschrieben
beschriebene
beschriebenen
beschu
beschuldigt
beschuldigte
beschuldigten
beschuss
beschwerde
beschwerden
beschwo
beseitigen
beseitigt
beseitigung
besessen
besetzen
besetzt
besetzte
besetzten
besetzung
besichtigen
besichtigt
besichtigung
besiedelt
besiedelten
besiedelung
besiedlung
besiegen
besiegt
besiegte
besiegten
besitz
besitze
besitzen
besitzer
besitzern
besitzes
besitzt
besitztu
besitzungen
besondere
besonderem
besonderen
besonderer
besonderes
besonderheit
besonderheiten
besondern
besonders
besorgen
besorgt
besorgte
besprechung
besprechungen
besprochen
besser
bessere
besseren
besserer
besseres
bessern
besserung
best
besta
bestand
bestanden
bestandsaufnahme
bestandteil
bestandteile
bestattet
bestattung
beste
bestehe
bestehen
bestehend
bestehende
bestehenden
bestehender
bestehendes
bestehens
besteht
besteigen
besteigung
bestellen
bestellt
bestellte
bestellten
bestellung
besten
bester
bestes
besteuerung
bestieg
bestiegen
bestimme
bestimmen
bestimmt
bestimmte
bestimmten
bestimmter
bestimmtes
bestimmung
bestimmungen
bestleistung
bestplatzierten
bestraft
bestrafung
bestreben
bestrebt
bestrebungen
bestreiten
bestreitet
bestritt
bestritten
bestseller
bestu
bestzeit
besuch
besuche
besuchen
besucher
besuchern
besucht
besuchte
besuchten
bet
beta
beteiligen
beteiligt
beteiligte
beteiligten
beteiligung
beteiligungen
beten
beth
bethlehem
betitelt
beton
betonen
betont
betonte
betonung
betra
betracht
betrachten
betrachter
betrachtet
betrachtete
betrachteten
betrachtung
betrachtungen
betraf
betrafen
betrag
betragen
betrat
betraut
betreffen
betreffend
betreffende
betreffenden
betreiben
betreiber
betreibt
betreten
betreuer
betreut
betreute
betreuten
betreuung
betrieb
betriebe
betrieben
betriebene
betriebenen
betriebes
betriebliche
betrieblichen
betriebs
betriebssystem
betriebswirtschaft
betriebswirtschaftslehre
betrifft
betritt
betroffen
betroffene
betroffenen
betrogen
betru
betrug
betrugen
bett
bette
betten
better
bettina
bettler
betty
between
beurlaubt
beurteilen
beurteilt
beurteilung
beute
beutel
beuth
beuys
beverly
bevo
bevollma
bevor
bevorstehenden
bevorzugen
bevorzugt
bevorzugte
bevorzugten
bewa
bewachsen
bewacht
bewaffnet
bewaffnete
bewaffneten
bewaffnung
bewahren
bewahrt
bewahrte
bewahrung
bewaldet
bewaldete
bewaldeten
bewarb
bewegen
bewegliche
beweglichen
bewegt
bewegte
bewegten
bewegung
bewegungen
beweis
beweise
beweisen
beweist
bewerben
bewerber
bewerbung
bewerten
bewertet
bewertete
bewertung
bewertungen
bewies
bewiesen
bewilligt
bewilligung
bewirken
bewirkt
bewirkte
bewirtschaftet
bewirtschaftung
bewohnen
bewohner
bewohnern
bewohnt
bewohnte
bewohnten
beworben
bewundern
bewundert
bewunderung
bewusst
bewusstsein
bewußt
bewußtsein
bey
beyer
beyond
bez
bezahlen
bezahlt
bezahlte
bezahlung
bezeichnen
bezeichnet
bezeichnete
bezeichneten
bezeichnung
bezeichnungen
bezeugen
bezeugt
bezeugte
beziehen
bezieht
beziehung
beziehungen
beziehungsweise
bezirk
bezirke
bezirken
bezirkes
bezirks
bezirksamt
bezirksgericht
bezirksliga
bezirksregierung
bezog
bezogen
bezu
bezug
bezwang
bf
bfs
bg
bgb
bgbl
bgh
bh
bhp
bhutan
bi
bianca
bianchi
biathlet
biathletin
biathlon
bibcode
bibel
biber
biberach
bibl
bible
biblio
bibliografie
bibliografischen
bibliographie
bibliographischen
bibliographisches
bibliography
biblioteca
bibliothe
bibliotheca
bibliothek
bibliothekar
bibliotheken
biblische
biblischen
biden
bie
bieber
biedenkopf
biedermann
biegt
biel
bielefeld
bielefelder
bien
bienen
biennale
bier
biermann
biete
bieten
bietet
bietigheim
big
bigband
bike
bil
bilanz
bilbao
bild
bilde
bilden
bildende
bildenden
bildender
bilder
bilderbuch
bildergalerie
bildern
bildes
bildet
bildete
bildeten
bildhauer
bildhauerei
bildhauerin
bildhauers
bildnis
bildnisse
bildschirm
bildung
bildungs
bildungseinrichtungen
bill
billard
billboard
billiards
billie
billig
billigen
billiger
billy
bin
bina
binden
binder
bindet
bindung
bindungen
bing
bingen
binger
binnen
bio
biochemie
biochemiker
biodiversita
biodiversity
biodiversitylibrary
biografico
biografie
biografien
biografische
biografisches
biograph
biographical
biographie
biographien
biographisch
biographische
biographischen
biographischer
biographisches
biography
biologe
biological
biologie
biologisch
biologische
biologischen
biology
biospha
bip
bir
birch
bird
birdlife
birds
birgit
birgt
birken
birkenfeld
birkha
birmingham
birnbaum
birth
birthday
bis
bisch
bische
bischen
bischo
bischof
bischoff
bischofs
bischofskonferenz
bischofssitz
bischofsweihe
bisher
bisherige
bisherigen
bishop
bislang
bismarck
biss
bisschen
bist
bistu
bistum
bistums
bisweilen
bit
bitburg
bits
bitte
bitten
bitter
bittere
bitterfeld
bittet
biz
biß
bjo
bk
bka
bl
bla
black
blackburn
blackwell
blade
blair
blake
blanc
blanca
blanche
blanco
blank
blankenburg
blasen
blasius
blasonierung
blass
blast
blatt
blattes
blattspreite
blattstiel
blau
blaue
blauem
blauen
blauer
blaues
ble
blech
blei
bleibe
bleiben
bleibenden
bleibt
bleich
blender
bler
blfd
blica
blich
bliche
blichen
blicherweise
blick
blicke
blicken
blickpunkt
blickt
blickte
blieb
blieben
blin
blind
blinde
blinden
bling
blingen
blitz
blko
blo
bloch
block
blockade
blockiert
blocks
blog
blogs
blogspot
blonde
blood
bloom
bloomberg
bloomington
bloomsbury
blos
bloß
bloße
bloßen
blu
blue
blues
bluff
blum
blume
blumen
blumenthal
blut
blutes
blutige
blutigen
blv
bm
bmg
bmw
bn
bnd
bner
bnis
bnissta
bo
board
boat
bob
bobby
boca
bochum
bochumer
bock
bod
bode
boden
bodendenkma
bodendenkmal
bodendenkmale
bodenfreiheit
bodens
bodensee
bodo
body
boeing
bog
bogen
bogenschu
bogota
bohlen
bohnen
bohrung
bohuslav
bois
boldsymbol
boli
bolivia
bolivianischen
bolivien
boll
bologna
bolton
bomb
bombardier
bombay
bombe
bomben
bombenangriff
bomber
bon
bonaparte
bond
bone
bones
bonifatius
bonn
bonner
bonnie
bonus
boogie
book
booklet
books
boom
boot
boote
booten
bootes
booth
boppard
bor
bora
bord
bordeaux
border
borg
boris
borken
born
borna
borneo
borough
borussia
bos
bosch
bosco
bose
bosnien
bosnisch
boss
bosse
boston
bot
botanic
botanical
botanik
botaniker
botanische
botanischen
botanischer
botany
bote
boten
both
botschaft
botschaften
botschafter
botschafterin
botschafters
botswana
bottrop
boulder
boulevard
boulogne
bourbon
bourg
bourgogne
bowie
bowl
box
boxen
boxer
boxing
boy
boyd
boyle
boys
boz
bozen
bp
br
bra
brabant
brach
brachen
brachte
brachten
brad
bradford
bradley
brady
braga
brahms
brain
branch
branche
branchen
brand
brandenburg
brandenburger
brandenburgische
brandenburgischen
brandenburgisches
brandes
brandon
brandt
brannte
brannten
bras
brasil
brasilianische
brasilianischen
brasilianischer
brasilianisches
brasilien
brasiliens
brass
braten
bratislava
brauch
brauchbarer
brauche
brauchen
braucht
brauchte
brauer
brauerei
brauereien
braun
braunau
braune
braunen
brauner
braunkohle
braunschweig
braunschweiger
braunschweigischen
braut
brave
bravo
brazil
brd
bre
break
breaking
breaks
brechen
brecht
breda
bredow
bregenz
brehm
breisgau
breit
breite
breiten
breiter
breiteren
breites
breitete
breitkopf
bremen
bremer
bremerhaven
bremischen
bremse
bremsen
brendan
brennen
brennende
brennenden
brenner
brennerei
brennt
brent
brentano
brescia
breslau
breslauer
brest
bretagne
brett
breuer
brian
bricht
bridge
bridges
brief
briefe
briefen
briefes
briefmarke
briefmarken
briefwechsel
brien
brig
brigade
brigadegeneral
brigaden
brigadier
brige
brigen
brigens
bright
brighton
brigitte
brill
brille
brilon
bring
bringe
bringen
bringt
brinkmann
brisbane
bristol
brit
britain
britannia
britannica
britannien
brite
briten
britisch
britische
britischen
britischer
britisches
british
britta
britton
brixen
brno
bro
broadcasting
broadway
brock
brocken
brockhaus
brod
broken
bromberg
bronze
bronzemedaille
bronzemedaillen
bronzezeit
brook
brooke
brooklyn
brooks
bros
broschu
brot
brother
brothers
brown
browne
browns
browser
brt
bru
bruce
bruch
bruchsal
bruchstu
bruck
bruckmann
bruckner
bruder
bruders
bruderschaft
bruins
brun
brunei
brunn
brunnen
brunner
bruno
bruns
brunswick
brust
brut
brutal
brutzeit
bruxelles
bryan
bryant
bs
bsb
bsc
bsch
bsche
bschen
bsg
bsp
bspw
bt
bte
bten
btissin
bu
bub
buben
buch
buchanan
buchautor
buchdrucker
buchdruckerei
buche
buchen
buchenwald
bucher
buches
buchgesellschaft
buchha
buchhandel
buchhandlung
buchholz
buchmesse
buchner
buchreihe
buchs
buchstabe
buchstaben
buchsuche
bucht
buchverlag
buck
bud
budapest
buddha
buddhismus
buddhistische
buddhistischen
buddy
bude
budget
buenos
buffalo
bug
bugatti
build
building
buildings
bukarest
bukowina
bulgaren
bulgarien
bulgariens
bulgarisch
bulgarische
bulgarischen
bulgarischer
bull
bulle
bullet
bulletin
bulls
bun
bund
bunde
bundes
bundesamt
bundesamtes
bundesanstalt
bundesanzeiger
bundesarchiv
bundesautobahn
bundesbahn
bundesbank
bundesdenkmalamt
bundesebene
bundesgerichtshof
bundesgesetz
bundeskanzlei
bundeskanzler
bundesla
bundesland
bundeslandes
bundesliga
bundesligisten
bundesminister
bundesministerium
bundesministeriums
bundespra
bundesrat
bundesrates
bundesregierung
bundesrepublik
bundesstaat
bundesstaaten
bundesstaates
bundesstaats
bundesstraße
bundesstraßen
bundestag
bundestages
bundestagsfraktion
bundestagswahl
bundestagswahlkreis
bundestrainer
bundesverband
bundesverdienstkreuz
bundesverfassungsgericht
bundesversammlung
bundeswehr
bundesweit
bundeszentrale
bundschuh
bung
bungen
bungsplatz
bunker
bunt
bunte
bunten
burchard
burckhardt
bureau
buren
burg
burganlage
burgdorf
burgen
burgenla
burgenland
burger
burgess
burggraf
burggrafen
burghausen
burgos
burgruine
burgstall
burgtheater
burgund
burke
burkhard
burkhardt
burkina
burlington
burma
burn
burning
burns
bursche
burschen
burschenschaft
burt
burton
bus
busbahnhof
busch
bush
business
buslinie
buslinien
busse
bussen
but
butler
butter
butterfly
button
buy
buße
bv
bvb
bverfg
bverfge
bvr
bw
bwv
by
bye
byrd
byron
byte
byz
byzantinische
byzantinischen
byzantinischer
byzanz
bz
bzw
bɐ
bə
c
ca
cabinet
cable
cabriolet
cache
cactaceae
cadillac
caen
caesar
caesars
cafe
cage
cai
cairo
cal
calais
calcio
calcium
calder
calgary
california
call
calle
called
calvin
calw
cam
cambridge
came
camera
cameron
camilla
camille
camillo
camp
campaign
campbell
campe
camping
campingplatz
campo
campos
camps
campus
can
canada
canadian
canadiens
canal
canberra
cancer
canmore
cannes
cannon
cannstatt
canon
canterbury
canto
canton
cantor
canyon
cao
cap
cape
capelle
capita
capital
capitals
capitel
capitol
capo
cappella
captain
car
caracas
carbon
card
cardiff
cardinal
cardinals
care
career
carey
cargo
caribbean
caritas
carl
carla
carlisle
carlo
carlos
carlsen
carmen
carnegie
caro
carol
carola
carolin
carolina
caroline
carpenter
carr
carrera
carrie
carrier
carroll
carry
cars
carson
carsten
carte
carter
carus
carvalho
cas
casa
casablanca
casanova
case
cases
casey
cash
casimir
casino
caspar
cass
cassel
cassini
cassius
cast
castel
castell
castello
castillo
casting
castle
castro
cat
catalana
catalog
catalogue
catalogus
catania
catch
caterina
catharina
cathedral
catherine
catholic
cato
causa
cause
cav
cave
cb
cbc
cbs
cc
cd
cdot
cdots
cds
cdu
ce
cecil
cecilia
cedar
cell
celle
cellist
cello
cells
celsius
celtic
cembalo
cemetery
census
cent
center
centers
central
centrale
centre
centro
centrum
centuries
century
ceo
ceres
cerro
certain
ces
cesare
ceylon
cf
ch
cha
chad
chain
chair
chairman
chal
challenge
challenger
cham
chamber
chamberlain
chambers
champagne
champion
champions
championship
championships
champs
chan
chance
chancen
chandler
chang
change
changes
channel
chanson
chansons
chao
chaos
chapel
chapelle
chaplin
chapman
chapter
char
character
characteristics
charakter
charaktere
charakteren
charakterisiert
charakterisierung
charakteristik
charakteristisch
charakteristische
charakteristischen
charakters
charente
charge
charite
charkiw
charles
charleston
charlie
charlotte
charlottenburg
charly
charme
chart
charta
charter
chartquellen
chartres
charts
chase
chassis
chat
chaussee
che
check
checklist
chef
chefarzt
chefin
chefredakteur
chefs
cheftrainer
chel
cheln
chelnd
chelsea
chelte
chem
chemical
chemie
chemikalien
chemiker
chemin
chemins
chemisch
chemische
chemischen
chemischer
chemistry
chemnitz
chemnitzer
chen
cheng
chentlich
chentliche
chentlichen
cher
cherei
cherlich
chern
cherry
ches
chess
chester
chet
chevalier
chevrolet
chez
chi
chiang
chicago
chief
chiefs
chiemsee
chiesa
chig
chige
chigen
child
children
chile
chilenische
chilenischen
chilenischer
chin
china
chinas
chinese
chinesen
chinesisch
chinesische
chinesischen
chinesischer
chip
chips
chirurg
chirurgen
chirurgie
chirurgische
chirurgischen
chl
chlein
chler
chlich
chliche
chlichen
chloe
chlor
chner
cho
choice
cholera
chopin
chor
choral
chores
chorleiter
chorraum
chors
chorus
chow
chr
chre
chris
christ
christa
christel
christen
christensen
christentum
christentums
christi
christian
christiane
christians
christie
christina
christine
christlich
christliche
christlichen
christlicher
christmas
christo
christof
christoph
christophe
christopher
christophorus
christus
christuskirche
chromosom
chromosomenzahl
chron
chronicle
chronicles
chronik
chroniken
chronische
chronischen
chronist
chronisten
chronologie
chronologisch
chronologischer
chronology
chronos
chrysler
chs
chse
chsen
chsisch
chsische
chsischen
chsischer
chsisches
chst
chste
chsten
chstens
chster
chstes
chstgelegene
chstgelegenen
chstgeschwindigkeit
cht
chte
chten
chter
chtern
chtest
chtet
chtete
chteten
chtig
chtige
chtigen
chtiger
chtiges
chtigkeit
chtigsten
chtigt
chtigte
chtigten
chtigter
chtigung
chtigungen
chtlich
chtliche
chtlichen
chtling
chtlinge
chtlingen
chtnis
chtniß
chtung
chu
chuck
chun
chung
chur
church
churchill
churfu
ci
cia
cic
cicero
cie
cifras
cil
cile
cincinnati
cine
cinema
cio
circ
circa
circle
circuit
circus
cis
cit
cite
cities
citizen
citroe
citta
city
citypopulation
ciudad
civil
ck
ckblick
ckchen
cke
ckel
cken
ckend
ckende
ckenden
ckenflosse
ckenkopf
ckens
cker
ckerei
ckern
ckeroberung
ckert
ckes
ckfu
ckga
ckgabe
ckgang
ckgefu
ckgegangen
ckgegeben
ckgehen
ckgeht
ckgekehrt
ckgelassen
ckgelegt
ckgetreten
ckgewiesen
ckgezogen
ckgreifen
ckhaltung
ckig
ckige
ckigen
cking
ckingen
ckkehr
ckkehren
ckkehrt
ckkehrte
ckl
ckla
ckler
cklich
ckliche
cklichen
cklicher
cklicherweise
ckner
ckreise
ckrunde
cks
ckseite
cksicht
cksichtigen
cksichtigt
cksichtigung
ckspiel
ckspiele
cksta
ckstand
ckt
ckte
ckten
ckter
cktreten
cktritt
ckung
ckwa
ckweg
ckwirkend
ckzahlen
ckziehen
ckzog
ckzufu
ckzug
ckzukehren
ckzuziehen
cl
cla
claims
clair
claire
clan
clans
clapton
clara
clare
clarence
clarendon
clark
clarke
class
classe
classen
classic
classical
classics
classification
classischen
claude
claudia
claudio
claudius
claus
clausen
clausthal
clausura
clav
clavier
clay
clayton
cle
clean
clear
clemens
clement
clermont
cleve
cleveland
click
client
cliff
clifford
climate
clinical
clinton
clio
clive
clock
close
cloud
clown
club
clubs
cluj
cluster
clyde
cm
cms
cn
cnn
co
coach
coast
cobra
coburg
coburger
coca
cochabamba
cochem
cockpit
cod
code
codes
codex
coesfeld
cohen
cohn
cohors
col
cola
cold
cole
coleman
colin
coll
colle
collected
collection
collections
college
collegen
colleges
collegium
collins
colmar
colo
cologne
colombia
colombo
colon
colonel
colonia
colonial
colony
color
colorado
colt
columbia
columbus
com
combat
come
comeback
comedian
comedy
comes
comic
comics
comiczeichner
coming
comite
command
commander
commando
comme
commerce
commercial
commission
commissioner
committee
commodore
common
commons
commonwealth
communaute
commune
communes
communication
communications
communities
community
como
comp
compact
compagnie
companion
company
comparative
comparison
compendium
competition
compilation
compiler
complete
complex
composite
composition
compositionen
compounds
comprehensive
computer
computergenealogie
computern
computers
computerspiel
computing
comte
comune
con
conan
concacaf
concept
concern
concert
concerto
concordia
conde
condor
conference
conflict
congo
congress
connecticut
connection
connor
conrad
conseil
conservation
conservative
const
constant
constantin
constanze
constitution
construction
consul
consulting
contact
container
conte
contemporary
content
contest
context
conti
continental
contra
contract
contribution
contributions
control
controlled
controller
controlling
convent
convention
conversations
conway
cook
cooke
cool
cooper
cop
copa
cops
copyright
cor
cordillera
core
corinna
cork
cornelia
cornelis
cornelius
cornell
corner
cornwall
corona
coronavirus
corp
corporate
corporation
corps
corpslisten
corpus
correspondenz
corte
cos
costa
cotta
cottbus
cotton
could
council
count
counter
counties
countries
country
county
countys
coup
coupe
courage
courier
course
court
cousin
cousine
cousins
cov
cove
coventry
cover
coverversion
coverversionen
covid
cowboy
cowboys
cox
cp
cpu
cr
craig
crailsheim
cramer
crash
crawford
crazy
crc
cre
creation
creative
credit
creek
cremer
crew
cricinfo
cricket
crime
crimes
criminal
crisis
cristina
cristo
critical
critics
critique
cro
croix
crosby
cross
crossing
crosslauf
crossover
crow
crown
cruise
cruz
cry
crystal
cs
csi
css
csu
csv
ct
ctor
cu
cuba
cuetracker
cui
cult
cultur
cultura
cultural
culture
cum
cumberland
cunningham
cup
cups
curie
current
curriculum
curry
curt
curtis
curtius
cut
cuxhaven
cv
cvp
cw
cy
cyber
cycle
cycling
cynthia
cyril
cyrus
cz
cze
czech
d
da
dab
dabei
dach
dachau
dachreiter
dachte
dachverband
daddy
dadurch
dafrika
dafrikanische
dafrikanischen
dafrikanischer
dafrikas
dafu
dag
dagegen
dagmar
dagoge
dagogen
dagogik
dagogin
dagogische
dagogischen
daheim
daher
dahin
dahingehend
dahinter
dahl
dahlem
dahme
dai
daily
daimler
daisy
dakar
dakota
dal
dalberg
dale
dallas
dalmatien
dalton
dam
damalige
damaligen
damaliger
damals
damaskus
dame
damen
damerika
damerikanischen
damerikas
damian
damit
damm
dampf
dampfer
dampflokomotiven
dampfmaschine
dan
dana
danach
dance
dancing
daneben
danemark
danger
dangerous
daniel
daniela
daniele
daniels
dank
dankbar
dankbarkeit
danke
danken
dankte
dann
dannenberg
danny
dans
dansk
danske
dante
danzig
danziger
daphne
dar
daran
darauf
darauffolgenden
daraufhin
daraus
darbietung
darf
dargestellt
dargestellte
dargestellten
darin
darinnen
dario
dark
darkness
darlehen
darling
darm
darmsta
darmstadt
darnach
darren
darstellen
darstellende
darsteller
darstellerin
darstellt
darstellte
darstellten
darstellung
darstellungen
darts
daru
darum
darunter
darwin
darzustellen
das
dasein
daseins
daselbst
dasjenige
dass
dasselbe
dat
data
database
date
datei
dateien
daten
datenbank
datenbanken
datenbanklinks
datenblatt
datensatz
datenschutz
datenu
datenverarbeitung
dates
datieren
datiert
datierung
dativ
dato
datum
dauer
dauerausstellung
dauerhaft
dauerhafte
dauerhaften
dauern
dauernd
dauernde
dauernden
dauert
dauerte
dauerten
daughter
daumen
daun
dav
dave
david
davids
davidson
davies
davis
davon
davor
davos
dawn
dawson
day
days
daz
dazu
dazugeho
dazwischen
daß
db
dbi
dc
dchen
dchens
dchenschule
dd
ddeutsche
ddeutschen
ddeutschland
ddp
ddr
de
dea
dead
deadline
deal
dean
dear
dearborn
death
debatte
debatten
deborah
debove
debu
debut
dec
decca
december
decennial
decision
deck
decke
deckel
decken
decker
deckt
deckte
deckung
dee
deep
def
defa
defekt
defence
defense
defensive
define
definieren
definiert
definierte
definierten
definition
definitionen
definitiv
definitive
degen
degener
deggendorf
degli
dehio
dei
deich
dein
deine
deinem
deinen
deiner
deines
dek
dekan
dekanat
deklaration
deklariert
deklination
dekoration
dekoriert
dekret
del
delaware
delbru
delegation
delegierten
delegierter
delhi
delitzsch
delius
dell
della
delle
delmenhorst
deln
delphi
dels
delta
deluxe
dem
demand
dementsprechend
demetrios
demgegenu
demjenigen
demnach
demnig
demo
democracy
democratic
demografiche
demokraten
demokratie
demokratisch
demokratische
demokratischen
demokratischer
demonstranten
demonstration
demonstrationen
demonstrieren
demontiert
demos
demselben
demu
demzufolge
den
denen
denis
denise
denjenigen
denk
denkbar
denke
denken
denkens
denker
denkma
denkmal
denkmalatlas
denkmaldatenbank
denkmale
denkmaleigenschaft
denkmalgeschu
denkmalliste
denkmallisten
denkmalpflege
denkmals
denkmalschutz
denkmalschutzbeho
denkmalschutzgesetz
denkmalschutzgesetzes
denkmaltopographie
denkmalverzeichnis
denkschrift
denkt
denkwu
denmark
denn
dennis
dennoch
dens
denscheid
denselben
denver
deo
departamento
departamentos
departement
departements
department
deportation
deportiert
deportivo
depot
depression
depressionen
deputy
der
deralen
derart
derartige
derartigen
deration
derby
derek
deren
derer
dergleichen
derierten
derivatem
derivation
derjenige
derjenigen
dern
derrick
ders
derselbe
derselben
derstandard
derweil
derwesten
derzeit
derzeitige
derzeitigen
des
description
desert
desgleichen
deshalb
design
designer
designs
desire
desktop
desmond
dessau
desselben
dessen
desto
deswegen
det
detail
detailliert
detaillierte
details
detective
detektiv
determinativkompositum
detlef
detlev
detmold
detroit
deuropa
deus
deuten
deutet
deutete
deutlich
deutliche
deutlichen
deutlicher
deutsch
deutsche
deutschem
deutschen
deutscher
deutsches
deutschland
deutschlandfunk
deutschlandradio
deutschlands
deutschlandweit
deutschsprachige
deutschsprachigen
deutschsprachiger
deutung
deutz
deux
development
devil
devils
devon
dexter
dez
dezember
deß
df
dfb
dfg
dfrankreich
dg
dgb
dgl
dh
dha
dhabi
dhb
di
dia
diabetes
diagnose
diagnostik
diagnostiziert
diagramm
diakon
diakonie
dialekt
dialekte
dialekten
dialektik
dialog
dialoge
dialogregie
diamant
diamanten
diamond
diana
diane
diary
dias
diaspora
diccionari
diccionario
dich
dicht
dichte
dichten
dichter
dichterin
dichtern
dichters
dichtung
dichtungen
dick
dicke
dicken
dickens
dicker
dickinson
dict
dictionary
dictionnaire
dictionnaires
did
didaktik
didier
die
dieb
diebe
diebstahl
dieburg
diederichs
diedrich
diego
diehl
diejenige
diejenigen
dien
dienen
diener
dienst
dienstag
dienste
diensten
dienstes
dienstgrad
dienstleister
dienstleistung
dienstleistungen
dienstma
dienststelle
dienststellen
dienstzeit
dient
diente
dienten
diepholz
diepresse
dies
diesbezu
diese
diesel
dieselbe
dieselben
dieselmotor
dieselmotoren
diesem
diesen
dieser
dieses
diesmal
dieter
dieterich
dietmar
dietrich
dietz
dieu
diez
dieß
different
differential
differentialgleichungen
differenz
differenzen
differenziert
differenzierung
dig
dige
digen
diger
digital
digitale
digitalen
digitaler
digitales
digitalisat
digitalisathttp
digitalisiert
digitalisierte
digitalisierung
digt
digte
digten
digung
digungen
dijon
dikat
dikative
diktator
diktatur
dilemma
dili
dill
dillenburg
dillingen
dim
dimension
dimensionen
dimitri
din
dinamo
ding
dinge
dingen
dinger
dinkelsbu
dinner
dino
dinosaurier
dio
diod
diodor
diogenes
dion
dionysius
dionysos
dipl
diplom
diplomarbeit
diplomat
diplomaten
diplomatie
diplomatische
diplomatischen
dir
direct
direction
director
directors
directory
direkt
direkte
direkten
direkter
direktion
direktmandat
direktor
direktoren
direktorin
direktors
direktwahl
dirigent
dirigenten
dirigierte
dirk
dirty
dis
disaster
disc
disch
dische
dischen
discher
disches
disco
discography
discogs
discovery
disease
diseases
diskografie
diskriminierung
diskurs
diskussion
diskussionen
diskussionsseite
diskuswurf
diskutieren
diskutiert
disney
display
displaystyle
disposition
disqualifikation
disqualifiziert
diss
dissertation
distance
distanz
distanzen
distinguished
distribution
district
distrikt
distrikte
distrikts
disziplin
disziplinen
dit
dition
ditions
div
diverse
diversen
diverser
diversity
divisio
division
divisionen
divisions
dix
dixon
diz
dizionario
dj
django
dk
dkorea
dkoreanische
dkoreanischen
dkoreanischer
dku
dkurier
dl
dlich
dliche
dlichen
dlicher
dliches
dlichste
dling
dlr
dm
dma
dmg
dmitri
dn
dna
dnb
dnf
dns
dnvp
do
dobbertin
doc
doch
doctor
document
documenta
documentary
documentation
documents
dodge
does
dog
doge
dogen
dogmatik
dogs
doha
dohna
doi
doktor
doktorarbeit
doku
dokument
dokumentarfilm
dokumentarfilme
dokumentation
dokumentationen
dokumente
dokumenten
dokumentieren
dokumentiert
dokumentierte
doll
dollar
dollars
dolmen
dolmetscher
dolni
dolomiten
dolores
dom
doma
domain
dome
domenico
domes
domherr
dominante
dominanz
domingo
domini
dominic
dominieren
dominierende
dominierenden
dominiert
dominierte
dominierten
dominik
dominikaner
dominique
domino
domkapitel
domkapitels
dompropst
doms
don
donald
donau
donauwo
done
donezk
dong
donizetti
donna
donne
donner
donnerstag
doom
door
doping
doppel
doppelkonkurrenz
doppelseitig
doppelt
doppelte
doppelten
doppelter
doppelvierer
doppelzweier
dora
dordogne
dordrecht
dorf
dorfbewohner
dorfe
dorfes
dorfkirche
dorfs
dorfstraße
doris
dorn
dornbirn
dornen
dorothea
dorothee
dorothy
dorpat
dort
dorthin
dortige
dortigen
dortmund
dortmunder
dos
dose
dosen
dosis
dossier
dost
dostasien
dosten
dosteuropa
dot
dotiert
dots
douard
double
doubs
doug
douglas
dover
down
downarrow
download
downloads
downs
downtown
doyle
dozent
dozenten
dozentin
dp
dpa
dr
dra
drache
drachen
dracula
draft
drag
dragon
dragoner
dragons
draht
drake
drama
dramas
dramatiker
dramatisch
dramatische
dramatischen
dramaturg
dramaturgie
dramen
dran
drand
drang
drangen
drastisch
drauf
draußen
draw
dre
dream
dreams
dreh
dreharbeiten
drehbu
drehbuch
drehbuchautor
drehbuchautoren
drehbuchautorin
drehen
drehmoment
drehscheibe
dreht
drehte
drehung
drehzahl
drei
dreiband
dreieck
dreiecks
dreier
dreifach
dreifache
dreifaltigkeit
dreihundert
dreija
dreiko
dreila
dreimal
dreischiffige
dreisprung
dreizehn
dreißig
dreißigja
dresd
dresden
dresdener
dresdner
drew
drey
dreyer
dreyfus
drin
dringen
dringend
dringt
drinnen
dritte
drittel
dritten
dritter
drittes
drittgro
drittho
drittklassigen
drittligisten
drive
driver
dro
droben
droemer
droga
drogen
drohen
drohende
drohenden
droht
drohte
drohung
drohungen
droit
drop
droste
drs
dru
druck
drucke
drucken
drucker
druckerei
drucksache
druckschriften
drug
drugs
drum
dry
ds
dschungel
dsee
dseite
dstaaten
dsu
dt
dtchen
dte
dtebau
dteil
dten
dter
dtirol
dtiroler
dtische
dtischen
dtischer
dtisches
dts
dtv
du
dual
dubai
dublin
dubois
duc
duck
ducks
duden
dudenredaktion
dudenverlag
duderstadt
dudley
due
duell
duesseldorf
duett
dufer
duft
duisburg
duisburger
duke
dulden
dumas
dumm
dumont
dun
duncan
duncker
dundee
dung
dunkel
dunkelbraun
dunkelgru
dunkelheit
dunkeln
dunkle
dunklen
dunkler
dunn
duo
duos
dur
durch
durchaus
durchbrechen
durchbrochen
durchbruch
durcheinander
durchfahrt
durchfließt
durchflossen
durchfu
durchga
durchgang
durchgefu
durchgehend
durchgehende
durchgehenden
durchgesehene
durchgesetzt
durchla
durchlaufen
durchlief
durchmesser
durchquert
durchs
durchschnitt
durchschnittlich
durchschnittliche
durchschnittlichen
durchschnittsalter
durchschnittseinkommen
durchsetzen
durchsetzte
durchsetzung
durchweg
durchzogen
durchzufu
durchzusetzen
durfte
durften
durham
during
durlach
durst
dus
dust
dutch
duty
dutzend
dux
dv
dvb
dvd
dvds
dvorak
dvp
dw
dwa
dwand
dwdl
dwest
dwestafrika
dwesten
dwestlich
dwestliche
dwestlichen
dwestlicher
dwight
dx
dy
dylan
dynamic
dynamics
dynamik
dynamische
dynamischen
dynamo
dynastie
dynasty
dz
dzka
dɐ
də
dəm
dən
dəs
dʊʁc
e
ea
each
eagle
eagles
earl
earliest
early
earth
east
eastern
easy
eaton
eau
eb
ebd
ebel
eben
ebenbu
ebenda
ebendort
ebene
ebenen
ebenfalls
ebenso
eberhard
ebersberg
eberswalde
ebert
ebner
ec
ecclesiae
echa
echo
echt
echte
echten
echter
echtes
echtheit
echtzeit
eck
eckart
ecke
ecken
eckernfo
eckert
eckhard
eckhardt
eckhart
eckstein
eclipse
eco
ecology
economic
economics
economy
ecuador
ed
edda
eddie
eddy
edel
edelmann
eden
eder
edgar
edge
ediciones
edinburgh
edison
edit
edited
edith
edition
editionen
editions
editor
editore
editorial
edizioni
edle
edlen
edler
edmond
edmonton
edmund
edo
edouard
eds
edu
eduard
eduardo
education
educational
edv
edvard
edward
edwards
edwin
ee
een
eesti
ef
effect
effects
effekt
effekte
effektiv
effektive
effizienz
eg
egal
egbert
eger
egg
egger
egmont
ego
egon
egypt
egyptian
eh
ehc
ehe
ehefrau
eheleute
ehem
ehemalige
ehemaligen
ehemaliger
ehemaliges
ehemals
ehemann
ehen
ehepaar
eher
eheschließung
ehesten
ehf
ehingen
ehir
ehlers
ehr
ehre
ehren
ehrenamtlich
ehrenamtliche
ehrenamtlichen
ehrenamtlicher
ehrenberg
ehrenbu
ehrendoktor
ehrendoktorwu
ehrenlegion
ehrenmitglied
ehrenpra
ehrenpreis
ehrentitel
ehrenzeichen
ehrgeiz
ehrlich
ehrt
ehrte
ehrung
ehrungen
ehrwu
ei
eich
eiche
eichen
eichenlaub
eichhorn
eichler
eichsfeld
eichsta
eid
eidgeno
eidgenossenschaft
eier
eiern
eifel
eifer
eifersu
eifersucht
eifo
eifrig
eigen
eigenart
eigene
eigenem
eigenen
eigener
eigenes
eigenha
eigens
eigenschaft
eigenschaften
eigenschreibweise
eigensta
eigenthu
eigenthum
eigentlich
eigentliche
eigentlichen
eigentlicher
eigentu
eigentum
eigentums
eigenverlag
eight
eignen
eigner
eignet
eignung
eile
eilen
eilenburg
eilig
eilt
eilte
eimer
ein
einander
einbau
einberufen
einberufung
einbeziehung
einbezogen
einbindung
einblick
einblicke
einbrachte
einbringen
einbruch
einbu
eindeutig
eindeutige
eindhoven
eindringen
eindru
eindruck
eine
eineinhalb
einem
einen
einer
einerseits
eines
einfa
einfach
einfache
einfachen
einfacher
einfaches
einfachheit
einfachste
einfachsten
einfahrt
einfall
einflu
einfluss
einflusses
einflussreiche
einflussreichen
einflussreichsten
einfluß
einfu
einfuhr
einga
eingabe
eingang
eingangs
eingangsbereich
eingebaut
eingebettet
eingeborenen
eingebracht
eingebu
eingebunden
eingefasst
eingefu
eingegangen
eingegliedert
eingehalten
eingehen
eingehend
eingeholt
eingeladen
eingelagert
eingelassen
eingelegt
eingeleitet
eingeliefert
eingemeindet
eingemeindung
eingenommen
eingeordnet
eingepfarrt
eingera
eingereicht
eingerichtet
eingerichtete
eingerichteten
eingescha
eingeschlossen
eingeschra
eingeschrieben
eingesehen
eingesetzt
eingesetzte
eingesetzten
eingesperrt
eingespielt
eingestellt
eingestuft
eingeteilt
eingetragen
eingetragene
eingetragenen
eingetragenes
eingetreten
eingetroffen
eingewechselt
eingeweiht
eingezeichnet
eingezogen
eingezogenen
eingliederung
eingreifen
eingriff
eingriffe
einhaltung
einheimische
einheimischen
einheit
einheiten
einheitlich
einheitliche
einheitlichen
einheitliches
einher
einhorn
einhundert
einig
einige
einigem
einigen
einiger
einigermaßen
einiges
einigkeit
einigte
einigten
einigung
einja
einkaufszentrum
einklang
einkommen
einku
einla
einladung
einleitung
einmal
einmalig
einmalige
einmarsch
einmu
einnahm
einnahme
einnahmen
einnehmen
einnimmt
eino
einordnung
einra
einreise
einrichten
einrichtung
einrichtungen
eins
einsa
einsam
einsame
einsamen
einsamkeit
einsatz
einsatzes
einscha
einschla
einschließlich
einschra
einsehbar
einseitig
einsetzen
einsetzt
einsetzte
einsetzung
einsicht
einsiedeln
einsiedler
einsitzer
einspritzpumpe
einspruch
einst
einstein
einstellen
einstellung
einstellungen
einstieg
einstige
einstigen
einstimmig
einstu
einstufung
einsturz
einteilung
eintra
eintracht
eintraf
eintrag
eintragen
eintragung
eintrat
eintreffen
eintreten
eintritt
einvernehmen
einversta
einverstanden
einw
einwa
einwanderer
einwanderung
einweihung
einwilligung
einwirkung
einwohner
einwohnern
einwohnerzahl
einwohnerzahlen
einzel
einzelausstellung
einzelfall
einzelhandel
einzelheiten
einzelkonkurrenz
einzeln
einzelne
einzelnen
einzelner
einzelnes
einzelpersonen
einzelzeitfahren
einziehen
einzig
einzigartig
einzigartige
einzige
einzigen
einziger
einziges
einzufu
einzug
einzugehen
einzugsgebiet
einzunehmen
einzurichten
einzusetzen
einzustellen
einzutreten
eis
eisba
eisen
eisenach
eisenbahn
eisenbahnbru
eisenbahnen
eisenbahngesellschaft
eisenbahnlinie
eisenbahnnetz
eisenbahnstrecke
eisenberg
eisenerz
eisenhu
eisenstadt
eisenzeit
eiserne
eisernen
eisernes
eishockey
eishockeyspieler
eiskunstla
eisleben
eisler
eisschnellla
eiszeit
eitel
eitelkeit
ej
ek
ekd
ekkehard
ekliptik
el
elbe
elberfeld
elbing
elder
ele
eleanor
election
elections
electric
electro
electronic
electronics
elefant
elefanten
elegant
elegante
eleganten
elektra
elektricita
elektrifiziert
elektrifizierung
elektrisch
elektrische
elektrischen
elektrischer
elektrizita
elektro
elektron
elektronen
elektronik
elektronisch
elektronische
elektronischen
elektronischer
elektrotechnik
element
elementary
elemente
elementen
elements
elena
elend
eleonora
eleonore
elephant
elexiko
elf
elfenbein
elfenbeinku
elfmeterschießen
elfriede
elfte
elften
eli
elias
eliot
elisa
elisabeth
elise
elite
eliten
eliteprospects
elizabeth
elke
ell
ella
elle
ellen
eller
ellington
elliot
elliott
elliptisch
elliptische
elliptischen
ellis
ellwangen
elm
elmar
elo
elsa
elsass
elsaß
else
elsevier
elster
elterlichen
eltern
elternhaus
elton
elvira
elvis
elwert
em
emanuel
emanzipation
emden
emergency
emeritiert
emeritierter
emeritierung
emerson
emi
emigranten
emigration
emigrierte
emil
emile
emilia
emilie
emilio
emily
emir
emirate
emission
emissionen
emma
emmanuel
emmerich
emmy
emotional
emotionale
emotionen
empfa
empfahl
empfand
empfang
empfangen
empfangsgeba
empfehlen
empfehlung
empfehlungen
empfiehlt
empfinden
empfindet
empfindlich
empfindung
empfindungen
empfing
empfohlen
empfohlene
empfunden
empire
empirische
empirischen
empo
empor
empore
emporen
ems
emsland
en
enciclope
enciclopedia
encyclopaedia
encyclope
encyclopedia
encyclopædia
encyklopa
end
endangered
ende
endemisch
endemit
enden
endergebnis
enders
endes
endet
endete
endeten
endgu
endlich
endliche
endlichen
endpunkt
endrunde
ends
endspiel
endstand
endstation
endung
enemy
energie
energien
energieversorgung
energiewende
energisch
energy
enero
eng
engagement
engagements
engagieren
engagiert
engagierte
engagierten
enge
engel
engelbert
engelhardt
engelmann
engeln
engels
engen
enger
engere
engeren
engine
engineering
engineers
engl
engla
england
englands
englisch
englische
englischen
englischer
englisches
englischsprachige
englischsprachigen
english
engsten
eni
enigma
enke
enkel
enkelin
enns
enorm
enorme
enormen
enough
enrico
enrique
ens
ensemble
ensemblemitglied
ensembles
ent
entblo
entdecken
entdecker
entdeckt
entdeckte
entdeckten
entdeckung
entdeckungen
ente
enteignet
enteignung
enten
enterprise
entertainment
entfa
entfallen
entfalten
entfaltet
entfaltete
entfaltung
entferne
entfernen
entfernt
entfernte
entfernten
entfernung
entfernungen
entfernungsangaben
entfiel
entfielen
entfu
entgegen
entgegengesetzten
entgegnete
entgehen
entgelt
entging
entha
enthalten
enthaltend
enthaltene
enthaltenen
enthielt
enthielten
enthoben
enthu
entkommen
entlang
entlassen
entlassung
entlastung
entlehnt
entlehnung
entließ
entnehmen
entnommen
entomologe
entre
entrichten
entru
entry
entsandt
entsandte
entscha
entscheiden
entscheidend
entscheidende
entscheidenden
entscheidet
entscheidung
entscheidungen
entscheidungsspiel
entschied
entschieden
entschloss
entschlossen
entschlu
entschluss
entschluß
entschuldigen
entschuldigung
entsetzen
entsetzt
entsprach
entsprachen
entsprechen
entsprechend
entsprechende
entsprechenden
entsprechender
entsprechendes
entsprechung
entspricht
entspringen
entspringt
entstammen
entstammt
entstammte
entstand
entstanden
entstandene
entstandenen
entstehen
entstehende
entstehenden
entsteht
entstehung
entstehungsgeschichte
entstehungszeit
entta
entwa
entwarf
entweder
entwerfen
entwickeln
entwickelt
entwickelte
entwickelten
entwickelung
entwickler
entwicklung
entwicklungen
entwicklungsgeschichte
entwicklungsla
entworfen
entworfene
entworfenen
entwu
entwurf
entwurfsphase
entziehen
entzog
entzogen
entzu
environment
environmental
enz
enzo
enzyklopa
enzym
enzyme
eo
eos
ep
ephraim
epic
epidemie
episode
episoden
episodenliste
epitaph
epoche
epochen
epos
epp
eps
epsilon
epstein
equipment
equiv
er
era
erachtet
erarbeiten
erarbeitet
erarbeitete
erasmus
erb
erba
erbach
erbauen
erbauer
erbaut
erbaute
erbauten
erbauung
erbe
erben
erbes
erbfolgekrieg
erbin
erblichen
erblicken
erblickt
erblickte
erbracht
erbrachte
erbringen
erbschaft
erbte
erc
erd
erdbeben
erdboden
erde
erden
erdgas
erdgeschoss
erding
erdmann
erdo
erdoberfla
erdog
ereignete
ereignis
ereignisse
ereignissen
erfa
erfahren
erfahrene
erfahrenen
erfahrung
erfahrungen
erfand
erfassen
erfasst
erfassung
erfinder
erfindung
erfindungen
erfolg
erfolge
erfolgen
erfolges
erfolglos
erfolglosen
erfolgreich
erfolgreiche
erfolgreichen
erfolgreicher
erfolgreichste
erfolgreichsten
erfolgs
erfolgt
erfolgte
erfolgten
erfolgter
erforderlich
erforderliche
erforderlichen
erfordern
erfordert
erforderte
erforschen
erforscht
erforschte
erforschung
erfreuen
erfreut
erfreute
erfu
erfuhr
erfuhren
erfunden
erfurt
erfurter
erga
ergab
ergaben
ergeben
ergebnis
ergebnisse
ergebnissen
ergibt
erging
ergo
ergreifen
ergriff
ergriffen
erha
erhalt
erhalten
erhaltene
erhaltenen
erhaltung
erhard
erheben
erheblich
erhebliche
erheblichen
erheblicher
erhebt
erhebung
erhebungen
erhielt
erhielten
erhitzen
erhitzt
erho
erhob
erhoben
erhobenen
erhoffte
erholen
erholte
erholung
eric
erica
erich
erik
erika
erin
erinnere
erinnern
erinnert
erinnerte
erinnerung
erinnerungen
eritrea
erka
erkannt
erkannte
erkannten
erkennbar
erkennen
erkennt
erkenntnis
erkenntnisse
erkenntnissen
erkenntniß
erker
erkla
erkrankt
erkrankte
erkrankten
erkrankung
erkrankungen
erkunden
erkundung
erla
erlag
erlangen
erlanger
erlangt
erlangte
erlangten
erlangung
erlass
erlassen
erlauben
erlaubnis
erlaubniß
erlaubt
erlaubte
erlaubten
erleben
erlebnis
erlebnisse
erlebt
erlebte
erlebten
erledigen
erledigt
erleichtern
erleichtert
erleichterung
erleiden
erleidet
erler
erlernen
erlernte
erliegen
erließ
erlitt
erlitten
erlo
erlosch
erloschen
erma
ermessen
ermitteln
ermittelt
ermittelte
ermittelten
ermittler
ermittlung
ermittlungen
ermland
ermo
ermorden
ermordet
ermordeten
ermordung
ermu
ern
erna
ernannt
ernannte
ernannten
ernennung
ernest
ernestine
ernesto
erneuerbare
erneuern
erneuert
erneuerte
erneuerung
erneut
erneute
erneuten
erneuter
ernst
ernste
ernsten
ernster
ernsthaft
ernsthafte
ernstlich
ernte
ero
eroberer
erobern
erobert
eroberte
eroberten
eroberung
eros
erosion
erprobt
erprobung
errang
errechnet
erregen
erreger
erregt
erregte
erregten
erregung
erreichbar
erreichen
erreicht
erreichte
erreichten
erreichung
errichten
errichtet
errichtete
errichteten
errichtung
erringen
erro
error
errungen
errungenschaften
ers
ersatz
erschaffen
erscheinen
erscheinende
erscheinenden
erscheint
erscheinung
erscheinungen
erscheinungsbild
erschien
erschienen
erschienene
erschienenen
erschießen
erschießt
erschlagen
erschließen
erschließt
erschließung
erschlossen
erscho
erschossen
erschrocken
erschu
erschwert
ersetzen
ersetzt
ersetzte
ersetzten
ersichtlich
erst
erstauffu
erstauflage
erstaunen
erstaunlich
erstaunt
erstausgabe
erstausstrahlung
erstbeschreibung
erstbeschrieben
erste
erstellen
erstellt
erstellte
erstellten
erstellung
erstem
ersten
erstens
erster
erstere
ersteren
ersterer
ersterwa
erstes
erstflug
erstligisten
erstmals
erstrecken
erstreckt
erstreckte
erstsendung
erstu
erstvero
erteilen
erteilt
erteilte
erteilung
erto
ertra
ertrag
ertragen
erw
erwa
erwachen
erwachsen
erwachsene
erwachsenen
erwachsenenbildung
erwachsener
erwacht
erwachte
erwarb
erwarben
erwarten
erwartet
erwartete
erwarteten
erwartung
erwartungen
erwecken
erweckt
erweisen
erweist
erweitere
erweitern
erweitert
erweiterte
erweiterten
erweiterter
erweiterung
erweiterungen
erweiterungsbau
erwerb
erwerben
erwerbsta
erwiderte
erwies
erwiesen
erwin
erwirbt
erwogen
erworben
erworbene
erworbenen
erwu
erz
erza
erzbischo
erzbischof
erzbischofs
erzbistum
erzbistums
erzdio
erzengel
erzeugen
erzeugnisse
erzeugt
erzeugte
erzeugten
erzeugung
erzgebirge
erzherzog
erzherzogin
erziehen
erzieher
erziehung
erzielen
erzielt
erzielte
erzielten
erzogen
erzstift
es
esa
esc
escape
esch
eschenbach
escher
eschwege
eschweiler
esel
eska
eske
esky
espan
espe
esperanto
espn
esprit
essai
essay
essayist
essays
esse
essen
essener
essential
esser
essex
essig
esslingen
est
esta
estadi
estadio
estado
estate
estati
este
ester
esther
estland
estnisch
estnische
estnischen
estnischer
et
eta
etablieren
etabliert
etablierte
etablierten
etablierung
etage
etagen
etappe
etappen
etat
etc
etcs
eth
ethan
ethanol
ethics
ethik
ethische
ethischen
ethnie
ethnien
ethnisch
ethnische
ethnischen
ethnologe
ethnologie
etienne
etliche
etlichen
etwa
etwas
etymologie
etymologisches
eu
euch
euer
euge
eugen
eugene
eugenie
eugenio
eule
euler
eupen
eur
eure
euren
eurer
euro
eurohockey
europa
europacup
europaea
europameister
europameisterin
europameisterschaft
europameisterschaften
europapokal
europas
europastraße
europawahl
europaweit
europe
european
eurostat
eurovision
eusebius
euskirchen
euthanasie
eutin
ev
eva
evakuiert
evakuierung
evaluation
evan
evang
evangelien
evangelisch
evangelische
evangelischen
evangelischer
evangelisches
evangelist
evangelisten
evangelium
evans
eve
evelyn
even
evening
event
events
eventuell
eventuelle
ever
everest
everett
evers
every
everything
evic
evidence
evil
evo
evolution
evolutiona
evolutionary
evtl
ew
ewald
ewg
ewig
ewige
ewigen
ewigkeit
ex
exakt
exakte
examen
example
excel
excellence
exchange
exclusive
exe
executive
exekutive
exemplar
exemplare
exemplaren
exempt
exeter
exhibition
exil
existenz
existieren
existierende
existierenden
existiert
existierte
existierten
exit
exklave
exklusiv
exkursionsflora
exodus
exp
expansion
expedition
expeditionen
experience
experiment
experimental
experimente
experimentelle
experimentellen
experimenten
experiments
expert
experte
experten
explizit
exploration
explorer
explosion
expo
exponate
export
exportiert
exposition
express
expression
expressionismus
extended
extension
externe
externen
externer
extra
extragalactic
extraliga
extrem
extreme
extremen
eye
eyes
eyn
ez
f
fa
fabel
faber
fabian
fabio
fabricius
fabrik
fabrikant
fabrikanten
fabriken
fabrizio
fac
face
facebook
faces
fach
fachbereich
fache
fachgebiet
fachhochschule
fachkra
fachliteratur
fachschule
fachwerk
fachwerkha
fachwerkhaus
fachzeitschrift
fachzeitschriften
fackel
fact
factfinder
facto
factor
factory
facts
faculta
faculty
faden
fagott
fahne
fahnen
fahnentra
fahr
fahrbahn
fahren
fahrenden
fahrer
fahrern
fahrga
fahrgestell
fahrla
fahrplan
fahrplanwechsel
fahrra
fahrrad
fahrt
fahrten
fahrtrichtung
fahrwerk
fahrzeit
fahrzeug
fahrzeuge
fahrzeugen
fahrzeugs
fair
faire
faith
fake
faksimile
fakt
fakten
faktisch
faktor
faktoren
fakulta
falco
falcon
falk
falke
falken
falkenberg
falkenstein
falko
fall
falle
fallen
falls
fallschirmja
falsch
falsche
falschen
falscher
false
falten
falter
falun
fame
familia
familie
familien
familienangeho
familienbesitz
familiengeschichte
familienmitglieder
familienname
familiennamen
familienunternehmen
families
family
famous
fan
fand
fanden
fang
fangen
fanny
fans
fantasie
fantastic
fantasy
fao
faq
far
farbe
farben
farbgebung
farbig
farbige
farbigen
farm
farmer
farmteam
faschismus
faschistischen
fasern
fashion
faso
fass
fassade
fassaden
fassen
fasst
fasste
fassung
fassungen
fassungsvermo
fast
faszination
fasziniert
fat
fate
father
fauna
faust
favorit
favorite
favoriten
fax
faz
fazit
faßte
fb
fbi
fc
fd
fdgb
fdj
fdp
fe
fear
feat
feature
features
featuring
feb
febr
februar
february
fechten
fechter
fed
feder
federal
federation
federfu
federgewicht
federico
federn
fee
feel
feeling
feet
fehde
fehl
fehlen
fehlend
fehlende
fehlenden
fehlender
fehler
fehlern
fehlt
fehlte
fehlten
fei
feier
feierlich
feierliche
feierlichen
feierlichkeiten
feiern
feiert
feiertag
feiertage
feiertagen
feierte
feierten
fein
feind
feinde
feinden
feindes
feindliche
feindlichen
feindschaft
feine
feinen
feiner
fekt
fektur
fel
feld
feldartillerie
felde
felder
feldern
feldes
feldherr
feldherrn
feldkirch
feldmann
feldmarschall
feldzu
feldzug
felice
felicitas
felipe
felix
fell
felle
fellow
fellows
fellowship
fels
felsen
felsigen
female
femininum
femininums
feministische
femme
femmes
fen
fenerbahc
feng
fenster
fenstern
fer
ferdinand
ferdinando
ferdinands
ferenc
ferguson
ferien
fern
ferna
fernand
fernando
ferne
fernen
ferner
fernseh
fernsehen
fernsehens
fernsehfilm
fernsehmoderator
fernsehmoderatorin
fernsehpreis
fernsehproduktionen
fernsehreihe
fernsehsender
fernsehsendung
fernsehserie
fernsehserien
fernstraße
fernverkehr
ferrand
ferrara
ferrari
ferreira
ferry
fers
fertig
fertige
fertigen
fertiggestellt
fertiggestellte
fertiggestellten
fertigkeiten
fertigstellung
fertigte
fertigung
fes
fesseln
fest
feste
festen
fester
festes
festgehalten
festgelegt
festgelegte
festgelegten
festgenommen
festgesetzt
festgestellt
festhalten
festigkeit
festival
festivals
festko
festland
festlegen
festlegung
festnahme
festplatte
festschrift
festspiele
festspielen
feststellen
feststellung
festung
festungen
festzuhalten
festzustellen
fett
fette
fettsa
feucht
feuchte
feuchten
feuchtigkeit
feuer
feuerbach
feuers
feuerstein
feuerstellen
feuerwehr
feuerwehren
feuilleton
fever
few
ff
ffel
ffen
ffentlich
ffentliche
ffentlichen
ffentlicher
ffentliches
ffentlichkeit
ffentlichkeitsarbeit
ffentlicht
ffentlichte
ffentlichten
ffentlichtes
ffentlichung
ffentlichungen
ffer
ffh
ffler
ffnen
ffnet
ffnete
ffneten
ffnung
ffnungen
ffnungsfeier
ffnungszeiten
fg
fh
fi
fia
fiat
fiba
fichte
fichtelgebirge
fichten
fico
fiction
fide
fidel
fidschi
fieber
fiedler
fiel
field
fields
fielen
fifa
fifth
fifty
fig
figaro
fight
fighter
fighting
figu
figur
figure
figuren
figures
fiktion
fiktive
fiktiven
fil
file
files
filiale
filialen
filialkirche
filip
filippo
film
filmdatenbank
filmdienst
filmdrama
filme
filmeditor
filmemacher
filmen
filmes
filmfest
filmfestival
filmfestivals
filmfestspiele
filmfestspielen
filmkomo
filmkritik
filmmusik
filmportal
filmpreis
filmproduktion
filmproduzent
filmproduzentin
filmregisseur
filmreihe
films
filmschauspieler
filmschauspielerin
filmstarts
filmwirtschaft
fils
filter
fin
final
finale
finaleinzug
finalen
finalist
finalisten
finalrunde
finals
finalsieg
finance
financial
finanz
finanzamt
finanzen
finanziell
finanzielle
finanziellen
finanzieller
finanzieren
finanziert
finanzierte
finanzierung
finanzkrise
finanzminister
finanzministerium
find
findagrave
finde
finden
findet
fine
fing
fingen
finger
fingern
finish
fink
finland
finn
finnen
finnisch
finnische
finnischen
finnischer
finnland
finnlands
finster
finsternis
fire
firenze
firma
firmen
firmengru
firmensitz
firmierte
first
fis
fisch
fischbach
fische
fischen
fischer
fischerei
fischfang
fish
fishbase
fisher
fishes
fit
fitness
fitz
fitzgerald
fitzroy
fivb
five
fix
fixiert
fjodor
fjord
fk
fl
fla
flach
flache
flachen
flacher
flag
flagge
flaggen
flaggschiff
flak
flamenco
flames
flamme
flammen
flandern
flanke
flanken
flankiert
flasche
flaschen
flash
flat
flavius
fle
flechten
fleck
flecken
flederma
fledermaus
fleet
fleisch
fleischer
fleischmann
fleiß
fleißig
fleming
flemming
flensburg
flensburger
fler
flerland
fletcher
flexibilita
flexion
flich
fliche
flichen
fliches
fliege
fliegen
fliegende
fliegenden
flieger
fliegt
fliehen
flieht
fließen
fließend
fließenden
fließgewa
fließt
flight
fling
flo
flog
flogen
floh
flohen
flohic
floor
flor
flora
floraweb
florax
florence
florenz
flores
florett
florian
florida
floss
flossen
flotte
flottille
flow
flower
flowers
floyd
floß
flu
fluch
flucht
flug
fluggesellschaft
fluggesellschaften
flugha
flughafen
flughafens
flugplatz
flugunfalldaten
flugzeug
flugzeuge
flugzeugen
flugzeugtra
flugzeugtypen
flur
fluren
flurnamen
fluss
flussabwa
flussaufwa
flusses
flusslauf
flusssystem
flussufer
flut
fluth
fluß
fly
flyer
flyers
flying
flynn
fm
fn
fo
focus
foerster
fokus
fol
folge
folgejahr
folgejahren
folgen
folgend
folgende
folgendem
folgenden
folgender
folgendermaßen
folgendes
folgesaison
folgezeit
folglich
folgt
folgte
folgten
folie
folio
folk
folklore
folkwang
follow
following
folter
fondation
fonds
fontaine
fontana
fontane
food
foot
football
footballspieler
for
forall
forbes
force
forces
forchheim
ford
fordern
fordert
forderte
forderten
forderung
forderungen
fore
foreign
forest
forever
forgotten
fork
form
formal
formale
formalen
format
formate
formation
formationen
formel
formell
formeln
formen
former
formierte
forms
formula
formuliert
formulierte
formulierung
forscher
forschern
forscht
forschte
forschung
forschungen
forschungs
forschungsergebnisse
forschungsgemeinschaft
forschungsgruppe
forschungsinstitut
forschungsprojekt
forschungsschwerpunkte
forschungsstelle
forschungszentrum
forst
forsten
forster
forsthaus
forstwirtschaft
fort
fortan
fortbildung
forte
fortfu
fortgefu
fortgeschrittene
fortgesetzt
fortpflanzung
forts
fortschreibung
fortschritt
fortschritte
fortsetzen
fortsetzte
fortsetzung
fortuna
fortune
fortwa
fortzusetzen
forum
forums
forward
fossil
fossile
fossilen
fossilien
foster
foto
fotograf
fotografen
fotografie
fotografien
fotografiert
fotografin
fotos
found
foundation
four
fourth
fowler
fox
foyer
fpo
fr
fra
frac
fracht
frage
fragen
fragestellungen
fraglich
fragment
fragmente
fragt
fragte
fragwu
fraktion
fraktionen
fraktionsvorsitzender
frame
framework
franc
france
frances
francesca
francesco
franche
franchise
francis
francisco
franck
francke
franckh
franco
francs
frank
franke
franken
frankenberg
frankenstein
frankenthal
frankfurt
frankfurter
frankie
franklin
frankreich
frankreichs
frans
frantis
franz
franziska
franziskaner
franziskus
franzo
franzose
franzosen
fraser
frau
frauen
frauenbewegung
frauenfeld
frauenkirche
frauenrechtlerin
fraunhofer
fre
fred
freddie
freddy
frederic
frederick
frederik
fredrik
free
freedom
freeman
freestyle
fregatte
freguesia
freguesias
frei
freibad
freiberg
freiberger
freiburg
freiburger
freie
freiem
freien
freier
freies
freigabe
freigabebescheinigung
freigegeben
freigelassen
freigelegt
freigesprochen
freigestellt
freiheit
freiheiten
freiheitska
freiheitsstrafe
freiherr
freiherren
freiherrn
freiin
freikorps
freilassung
freilich
freilichtmuseum
freimaurer
freischaffender
freising
freistaat
freistaates
freistil
freitag
freitags
freital
freiwillig
freiwillige
freiwilligen
freiwilliger
freizeit
freizu
fremd
fremde
fremden
fremder
fremdsprache
fremdwo
french
frequenz
frequenzen
fresh
fresken
fresko
fressen
freud
freude
freuden
freudenberg
freudig
freuen
freund
freunde
freunden
freundes
freundeskreis
freundin
freundinnen
freundlich
freundliche
freundlichen
freundschaft
freundschaftsspiel
freut
frey
freytag
frg
fribourg
frick
fricke
frida
friday
fridolin
fried
frieda
friedberg
friede
friedel
friedemann
frieden
friedens
friedensvertrag
friederike
friedhelm
friedho
friedhof
friedhofs
friedhofskapelle
friedl
friedla
friedland
friedlich
friedliche
friedlichen
friedman
friedr
friedrich
friedrichs
friedrichshafen
friedrichshain
friend
friends
fries
friese
friesen
friesland
frisch
frische
frischen
frischer
frist
fritsch
fritz
fro
froh
from
fromm
fromme
frommen
front
fronten
frontier
frosch
frost
fru
frucht
fruchtbar
fruchtbare
fruchtbaren
fruchtbarkeit
fruchtknoten
fruchtko
fry
frz
fs
fsk
fsv
ft
fte
ften
fter
fteren
fters
ftet
ftig
ftige
ftigen
ftiger
ftigt
ftigte
ftigten
ftigung
ftling
ftlinge
ftlingen
fts
ftsbereich
ftsbericht
ftsfu
ftshaus
ftsjahr
ftsleitung
ftsmann
ftsstelle
ftung
fu
fuchs
fuer
fuge
fugen
fugenelement
fugger
fuhr
fuhren
fuhrmann
fukushima
fulda
full
fuller
fun
function
functional
functions
fund
fundament
fundamente
funde
funden
fundort
fundorte
fundsta
fundstelle
fundstu
fundus
funeral
fung
fungen
fungieren
fungiert
fungierte
funk
funke
funken
funktion
funktiona
funktionalita
funktionen
funktionieren
funktioniert
funktionsfa
fur
furcht
furchtbar
furchtbare
furchtbaren
further
furtwa
fury
fusion
fusioniert
fusionierte
fusionierten
fuss
fussball
fussballdaten
fussballzz
futbol
futter
futur
future
fuß
fußball
fußballer
fußballliga
fußballmannschaft
fußballmeisterschaft
fußballnationalmannschaft
fußballs
fußballschiedsrichter
fußballspielen
fußballspieler
fußballspielerin
fußballstadion
fußballtorhu
fußballtorwart
fußballtrainer
fußballverband
fußballverbandes
fußballverein
fußboden
fuße
fußga
fußnote
fußweg
fv
fw
fy
fɛɐ
g
ga
gab
gabe
gabel
gaben
gabler
gabriel
gabriela
gabriele
gabrielle
gaetano
gaia
gaius
gal
gala
galatasaray
galaxie
galaxien
galaxy
gale
galen
galerie
galerien
galgen
galileo
galizien
gall
gallen
galler
gallery
gallica
gallien
gallimard
gallo
gallus
galt
galten
gambia
game
games
gamestar
gaming
gamma
gan
gandhi
gang
gange
gangster
gans
gantz
ganz
ganze
ganzen
ganzer
ganzes
ganzja
gao
gap
gar
garage
garantie
garantiert
garci
garcia
garde
garden
gardens
gardiner
gardner
gare
garibaldi
garland
garmisch
garnison
garonne
garrett
garten
gartenbau
gartenlaube
gartens
gary
gas
gase
gasse
gassen
gast
gastauftritt
gastgeber
gasthaus
gasthof
gastierte
gaston
gastprofessor
gastronomie
gastspiel
gaststa
gastwirt
gate
gates
gateway
gatte
gatten
gattin
gattung
gattungen
gattungsname
gau
gauleiter
gauliga
gaulle
gauß
gavin
gay
gaza
gazette
gazetteer
gb
gbar
gbare
gbaren
gbarkeit
gc
gcatholic
gd
gdan
gdz
ge
gea
geachtet
gearbeitet
geb
geba
gebar
gebaut
gebaute
gebauten
gebe
gebeine
geben
gebet
gebete
gebeten
gebhard
gebhardt
gebiet
gebiete
gebieten
gebietes
gebiets
gebietsa
gebietsreform
gebietsstand
gebilde
gebildet
gebildete
gebildeten
gebirge
gebirges
geblieben
gebliebenen
gebogen
geboren
geborene
geborenen
geborener
geborgen
gebot
gebote
geboten
gebr
gebra
gebracht
gebrauch
gebrauche
gebrauchen
gebraucht
gebrauchte
gebrochen
gebru
gebu
gebunden
gebundene
gebundenen
geburt
geburten
geburts
geburtsdatum
geburtshaus
geburtshilfe
geburtsjahr
geburtsort
geburtsstadt
geburtstag
geburtstages
geburtstags
geda
gedacht
gedachte
gedachten
gedanke
gedanken
gedeckt
gedeihen
gedeiht
gedenkbuch
gedenken
gedenkmu
gedenksta
gedenkstein
gedenkt
gedenktafel
gedenktag
gedeutet
gedicht
gedichtband
gedichte
gedichten
gedient
gedra
gedreht
gedrehten
gedru
gedruckt
gedruckte
gedruckten
geduld
geehrt
geeignet
geeignete
geeigneten
geeigneter
geerbt
geest
gefa
gefahr
gefahren
gefallen
gefallene
gefallenen
gefangen
gefangene
gefangenen
gefangener
gefangennahme
gefangenschaft
gefasst
gefaßt
gefecht
gefechte
gefechten
gefeiert
gefertigt
gefertigte
gefertigten
gefesselt
gefieder
gefiel
geflogen
geflohen
geflu
gefo
gefolge
gefolgt
gefoltert
gefordert
geforderte
geforderten
geformt
gefragt
gefu
gefunden
gefundene
gefundenen
gegangen
gegeben
gegebene
gegebenen
gegebenenfalls
gegebenheiten
gegen
gegend
gegenden
gegeneinander
gegenleistung
gegenreformation
gegensa
gegensatz
gegenseitig
gegenseitige
gegenseitigen
gegenspieler
gegensta
gegenstand
gegenstu
gegenteil
gegentheil
gegentore
gegenu
gegenwa
gegenwart
gegenwo
gegenzug
gegessen
geglaubt
gegliedert
gegner
gegnerische
gegnerischen
gegnern
gegners
gegossen
gegru
geh
geha
gehabt
gehalt
gehalten
gehaltene
gehaltenen
gehandelt
gehe
geheilt
geheim
geheimdienst
geheime
geheimen
geheimer
geheimnis
geheimnisse
geheimnisvolle
geheimniß
geheimrat
geheiratet
gehen
gehindert
gehirn
gehirns
gehn
geho
gehoben
gehobenen
geholfen
geholt
gehorsam
geht
gehu
gehzeit
geige
geiger
geisel
geiseln
geislingen
geist
geiste
geister
geistes
geisteswissenschaften
geistig
geistige
geistigen
geistiger
geistliche
geistlichen
geistlicher
geistlichkeit
gejagt
geka
gekannt
gekauft
gekennzeichnet
gekla
gekleidet
geknu
gekocht
gekommen
gekommenen
gekoppelt
gekostet
gekra
gekro
gekru
geku
gel
gela
geladen
gelagert
gelagerte
gelang
gelangen
gelangt
gelangte
gelangten
gelassen
gelaufen
gelb
gelbe
gelben
gelber
gelblich
geld
geldecken
gelder
geldern
geldes
geldstrafe
gele
gelebt
gelege
gelegen
gelegene
gelegenen
gelegenheit
gelegenheiten
gelegentlich
gelegt
gelehrsamkeit
gelehrt
gelehrte
gelehrten
gelehrter
geleistet
geleitet
geleitete
geleiteten
gelenkt
gelernt
gelesen
geliebt
geliebte
geliebten
geliefert
gelige
gelingen
gelingt
gelistet
gelitten
gelland
geln
gelnhausen
gelo
gelobt
gels
gelsenkirchen
gelt
gelte
gelten
geltend
geltende
geltenden
geltung
gelu
gelungen
gem
gema
gemach
gemacht
gemachten
gemahl
gemahlin
gemalt
gemalte
gemarkung
gemarkungen
gemein
gemeinde
gemeindebezirk
gemeindeedikt
gemeindefusionen
gemeindegebiet
gemeindegebiets
gemeindegrenze
gemeindehaus
gemeindelexikon
gemeinden
gemeindeordnung
gemeindera
gemeinderat
gemeinderates
gemeinderats
gemeinderatswahl
gemeinderatswahlen
gemeindeteil
gemeindeteile
gemeindeteilen
gemeindeverband
gemeindevertretung
gemeindeverwaltung
gemeindeverzeichnis
gemeindewappen
gemeindezentrum
gemeine
gemeinen
gemeinfrei
gemeinnu
gemeinsam
gemeinsame
gemeinsamen
gemeinsamer
gemeinsames
gemeinsamkeiten
gemeinschaft
gemeinschaften
gemeinschaftlich
gemeinschaftlichen
gemeint
gemeldet
gemeldeten
gemessen
gemisch
gemischt
gemischte
gemischten
gemmingen
gemu
gen
gena
genannt
genannte
genannten
genannter
genau
genaue
genauen
genauer
genauere
genauigkeit
genauso
gend
gende
genden
gender
gene
genealogie
genealogische
genealogisches
genealogy
genehmigt
genehmigte
genehmigung
geneigt
genera
general
generaldirektion
generaldirektor
generale
generalfeldmarschall
generalgouverneur
generalisierte
generalleutnant
generalmajor
generaloberst
generals
generalsekreta
generalstab
generalversammlung
generalvikar
generation
generationen
generator
generell
genesis
genesung
genetic
genetics
genetik
genetisch
genetische
genetischen
genf
genfer
genie
genießen
genießt
genitiv
genius
geno
genom
genome
genommen
genoss
genossen
genossenschaft
genossenschaften
genoß
genre
genres
gens
gent
gentleman
genu
genua
genug
genus
genuss
genutzt
genutzte
genutzten
genuß
geo
geoda
geoff
geoffrey
geogr
geografie
geografikum
geografische
geografischen
geograph
geographic
geographical
geographie
geographisch
geographische
geographischen
geographischer
geographisches
geologe
geologen
geological
geologie
geologisch
geologische
geologischen
geology
geometrie
geometrische
geometrischen
geometry
geonames
geopfert
geoportal
geordnet
geordneten
georg
georgano
george
georgen
georges
georgetown
georgi
georgia
georgien
georgios
georgisch
georgische
georgischen
georgs
geowissenschaften
gepa
gepfarrt
gepflanzt
gepflegt
geplant
geplante
geplanten
geplu
gepra
gepru
geq
ger
gera
gerade
geraden
geradezu
geral
gerald
gerard
geraten
gerathen
gerber
gerd
gerda
gerechnet
gerecht
gerechte
gerechten
gerechtfertigt
gerechtigkeit
geregelt
gereicht
gereinigt
gerettet
gerhard
gerhardt
gerhart
gericht
gerichte
gerichten
gerichtet
gerichtete
gerichteten
gerichtlich
gerichtliche
gerichtlichen
gerichts
gerichtsbarkeit
gerichtsbezirk
gerichtshof
gerichtsverfahren
geriet
gerieten
gerieth
gerin
gering
geringe
geringem
geringen
geringer
geringere
geringerem
geringeren
geringerer
geringfu
geringste
geringsten
gerissen
gerlach
germ
germain
german
germanen
germania
germaniae
germanische
germanischen
germanist
germanistik
germany
germplasm
gern
gerne
gernot
gero
gerold
gerrit
gerry
gers
gerschaft
gersdorf
gerste
gert
gerte
gertrud
gertrude
geru
geruch
gerufen
gerundet
gerundivums
gerung
gerungen
ges
gesa
gesagt
gesammelt
gesammelte
gesammelten
gesammte
gesammten
gesamt
gesamtausgabe
gesamtbevo
gesamte
gesamten
gesamtes
gesamtfla
gesamtgewicht
gesamtheit
gesamtla
gesamtrang
gesamtreihe
gesamtschule
gesamtweltcup
gesamtwerk
gesamtwertung
gesamtzahl
gesandt
gesandte
gesandten
gesandter
gesandtschaft
gesang
gesangbuch
gesch
gescha
geschaffen
geschaffene
geschaffenen
geschafft
geschah
geschehen
geschehnisse
gescheitert
gescheiterten
geschenk
geschenke
geschenkt
geschichte
geschichten
geschichtlich
geschichtliche
geschichtlichen
geschichtlicher
geschichts
geschichtsbla
geschichtsforschung
geschichtsschreiber
geschichtsschreibung
geschichtsverein
geschichtsvereins
geschichtswissenschaft
geschick
geschicklichkeit
geschickt
geschickte
geschieden
geschieht
geschildert
geschlagen
geschlecht
geschlechter
geschlechtern
geschlechtes
geschlechts
geschlossen
geschlossene
geschlossenen
geschlossener
geschmack
geschmu
geschnitten
gescho
geschoben
geschoss
geschosse
geschossen
geschossene
geschrei
geschrieben
geschriebene
geschriebenen
geschu
geschwa
geschwader
geschwindigkeit
geschwindigkeiten
geschwister
geschwistern
gesegnet
gesehen
gesellen
gesellschaft
gesellschaften
gesellschafter
gesellschaftlich
gesellschaftliche
gesellschaftlichen
gesellschaftlicher
gesendet
gesenkt
gesessen
gesetz
gesetze
gesetzen
gesetzes
gesetzgeber
gesetzgebung
gesetzlich
gesetzliche
gesetzlichen
gesetzma
gesetzt
gesetzte
gesetzten
gesichert
gesicherte
gesicherten
gesicht
gesichte
gesichter
gesichtet
gesichtspunkten
gesims
gesinnung
gesondert
gesorgt
gespalten
gespannt
gespeichert
gespeist
gespenst
gesperrt
gespielt
gespielten
gespra
gesprengt
gesprochen
gesprochenen
gespu
gest
gesta
gestalt
gestalten
gestaltet
gestaltete
gestalteten
gestaltung
gestand
gestanden
gestapo
gestartet
gestatten
gestattet
gestattete
geste
gesteckt
gestehen
gesteht
gesteigert
gestein
gesteine
gestellt
gestellte
gestellten
gestern
gesteuert
gestiegen
gestiftet
gestimmt
gestis
gesto
gestochen
gestohlen
gestoppt
gestorben
gestoßen
gestrichen
gestu
gesu
gesucht
gesuchte
gesund
gesunde
gesunden
gesundheit
gesundheitliche
gesundheitlichen
gesundheits
gesundheitswesen
gesundheitszustand
gesungen
gesunken
get
geta
getan
getauft
geteilt
geteilten
getestet
gethan
geto
getra
getragen
getreide
getrennt
getrennte
getrennten
getreten
getriebe
getrieben
getroffen
getroffenen
getrunken
gets
getting
geu
gewa
gewachsen
gewagt
gewalt
gewaltherrschaft
gewaltig
gewaltige
gewaltigen
gewaltsam
gewaltsamen
gewaltta
gewand
gewandelt
gewandt
gewann
gewannen
gewarnt
gewartet
gewebe
gewechselt
geweckt
gewehr
gewehre
geweiht
geweihte
gewerbe
gewerbegebiet
gewerbliche
gewerblichen
gewerk
gewerkschaft
gewerkschaften
gewerkschafter
gewertet
gewesen
gewicht
gewichte
gewichtheber
gewichtsklasse
gewidmet
gewinn
gewinne
gewinnen
gewinner
gewinnt
gewinnung
gewirkt
gewiss
gewisse
gewissen
gewisser
gewissermaßen
gewisses
gewitter
gewiß
gewo
gewohnheit
gewohnt
gewohnten
gewollt
gewonnen
gewonnene
gewonnenen
geworden
gewordene
gewordenen
geworfen
gewu
gewußt
geyer
gez
geza
gezahlt
gezeichnet
gezeigt
gezeigten
gezielt
gezielte
gezogen
gezogenen
gezu
gezwungen
gf
gfk
gg
gge
ggf
ggmbh
gh
ghana
ghetto
ghost
ghz
gi
giacomo
gian
gianni
giant
giants
gib
gibbs
gibraltar
gibson
gibt
gideon
gie
giebel
giebt
gieng
gier
giessen
gießen
gießener
gifhorn
gift
gig
gige
gigen
giger
gil
gilbert
gilde
giles
gill
gilles
gillespie
gilt
giment
gin
gina
ging
gingen
gion
giordano
giorgio
giovanni
gipfel
gipfels
gips
girl
girls
giro
girolamo
gironde
gis
gisela
gitarre
gitarren
gitarrist
gitarristen
gitter
giulia
giulio
giuseppe
give
gl
gla
glacier
gladbach
glan
glanz
glarus
glas
glaser
glasfenster
glasgow
glashu
glasmalerei
glass
glatt
glatte
glatten
glatz
glaube
glauben
glaubens
glaubt
glaubte
glaubten
glaubwu
glauchau
gleich
gleichbedeutend
gleichberechtigung
gleiche
gleichem
gleichen
gleicher
gleichermaßen
gleiches
gleichfalls
gleichfo
gleichgesetzt
gleichgewicht
gleichgu
gleichheit
gleichma
gleichnamige
gleichnamigen
gleichnamiger
gleichsam
gleichstellung
gleicht
gleichung
gleichungen
gleichwohl
gleichzeitig
gleichzeitige
gleichzeitigen
gleichzeitiger
gleis
gleisanlagen
gleise
gleisen
glen
glenn
gler
gletscher
gletschers
gli
glich
gliche
glichen
glicher
glicherweise
gliches
glichkeit
glichkeiten
glichst
glicht
glichte
glichten
glied
glieder
gliedern
gliedert
gliederte
gliederung
gliedmaßen
glinge
glise
glo
global
globale
globalen
globalisierung
globe
globo
globus
glocke
glocken
glockenturm
glogau
gloria
glory
glossar
gloucester
glu
glucose
gm
gmbh
gmina
gmu
gmunden
gna
gnade
gnaden
gnd
gne
gnu
go
goal
gob
god
godesberg
gods
goebbels
goes
goethe
goethes
goetz
gogh
going
gold
goldberg
golden
goldene
goldenem
goldenen
goldener
goldenes
goldman
goldmann
goldmedaille
goldmedaillen
goldschmidt
goldschmied
goldstein
golem
golf
gomes
gomez
gon
gone
gong
gonza
gonzaga
gonzalo
good
goodbye
goodman
google
gordon
gore
gorki
goslar
gospel
got
gotha
gothaisches
gothic
gotik
gotische
gotischen
gott
gottes
gottesdienst
gottesdienste
gotteshaus
gottfried
gotthard
gottheit
gottheiten
gotthold
gottlieb
gottlob
gottschalk
gould
gouv
gouvernement
gouverneur
gouverneurs
gov
governance
government
governor
governors
gp
gps
gr
gra
grab
grabe
graben
grabes
grabhu
grabkammer
grabmal
grabplatte
grabsta
grabstein
grabsteine
grabungen
grace
grad
grade
grades
graduate
graduierte
graecorum
graefe
graf
grafen
graff
graffiti
grafik
grafiken
grafiker
grafikerin
grafische
grafschaft
grafschaften
graham
gram
gramm
grammar
grammatik
grammatische
grammy
gran
granada
granaten
grand
grande
granit
grant
graph
graphen
graphic
graphik
graphiker
graphische
gras
grass
grat
gratis
gratz
grau
graubu
graue
grauen
grauer
grausam
grausamkeit
grave
graves
gray
graz
grazer
grc
gre
great
greater
greatest
greece
greek
green
greene
greenpeace
greenwich
greenwood
greg
gregor
gregorianischen
gregorio
gregory
greif
greifen
greifswald
greifswalder
greift
greiner
greis
greiz
gremien
gremium
grenadier
grenoble
grenz
grenze
grenzen
grenzgebiet
grenzt
grenzte
grenzu
grenzwert
greta
gretchen
grete
grey
griech
griechen
griechenland
griechenlands
griechisch
griechische
griechischen
griechischer
griff
griffel
griffen
griffin
griffith
grill
grimm
grimma
grimme
grin
gro
grob
grobe
groben
gronau
groningen
groove
gros
groschen
gross
grosse
grossen
grosser
grosses
grote
groth
grotte
ground
group
groupe
groups
grove
growth
groß
großartige
großartigen
großbritannien
großbritanniens
große
großeltern
großem
großen
großer
großes
großfla
großfu
großgemeinde
großherzog
großherzoglich
großherzogtum
großherzogtums
großkreuz
großma
großmann
großmeister
großmu
großmutter
großpolen
großra
großraum
großschanze
großsta
großstadt
großsteingrab
großteil
großteils
großvater
großvaters
großzu
gru
grub
grube
gruben
gruber
gruft
grund
grundbesitz
grundbuch
grunde
grundfarbe
grundfla
grundgesetz
grundgesetzes
grundherren
grundherrschaft
grundlage
grundlagen
grundlegend
grundlegende
grundlegenden
grundmauern
grundrechte
grundriss
grundriß
grundsa
grundsatz
grundschule
grundschulen
grundstein
grundsteinlegung
grundstu
grundwasser
grundzu
gruner
grunewald
gruppe
gruppen
gruppenbezeichnung
gruppenphase
gruppensieger
gruppenspiel
gruppierung
gruppierungen
gruyter
gruß
gs
gst
gt
gtd
gte
gten
gter
gtes
gu
gua
guadalajara
guangzhou
guard
guardian
guatemala
gudrun
gue
guerra
guerre
guerrero
guest
guez
guggenheim
gui
guide
guides
guido
guild
guillaume
guillermo
guinea
guinness
guitar
gulden
gulf
gumbinnen
gummersbach
gummi
gun
gundolf
gung
gungen
gunnar
guns
gunst
gunsten
gunter
gunther
gunzenhausen
guo
gurlitt
gus
gustaf
gustav
gustave
gustavo
gut
gutachten
gutachter
gute
gutem
guten
gutenberg
guter
gutes
gutie
gutmu
guts
gutsbesitzer
gutsbezirk
gutsbezirke
gutshaus
gutshof
guttenberg
guy
guyana
gv
gvbl
gw
gymnasiallehrer
gymnasien
gymnasium
gymnasiums
gyna
gyo
gypten
gyptens
gypter
gyptische
gyptischen
gyptischer
gło
h
ha
haag
haager
haan
haar
haare
haaren
haarlem
haas
haase
hab
habe
habel
haben
haber
habilitation
habilitationsschrift
habilitierte
habitat
habsburg
habsburger
habsburgischen
habt
hack
hacker
had
hadrian
hafen
hafens
hafenstadt
hafer
haft
haften
haftstrafe
haftung
hagen
hager
hahn
hai
haider
haie
haifa
hain
hair
haiti
haken
hakenkreuz
hal
halb
halbbruder
halbe
halben
halber
halberstadt
halbes
halbfinale
halbinsel
halbjahr
halbkreisfo
halbmarathon
halbschwergewicht
halbstu
halbzeit
hale
half
halfen
halifax
hall
halle
hallen
halleneuropameisterschaften
hallenkirche
haller
hallo
halm
hals
halt
halte
halten
haltepunkt
haltestelle
haltestellen
haltung
halwart
ham
hamann
hamburg
hamburger
hamburgische
hamburgischen
hamburgs
hameln
hamilton
hamlet
hamm
hammer
hammond
hampshire
hampton
han
hanau
hanauer
hancock
hand
handball
handballspieler
handballspielerin
handbook
handbu
handbuch
handel
handele
handeln
handelns
handels
handelsblatt
handelskammer
handelsregister
handelsschule
handelt
handelte
handhabung
handhebel
handle
handlung
handlungen
hands
handschrift
handschriften
handwerk
handwerker
handwerks
handwo
handy
hang
hank
hann
hanna
hannah
hanne
hannelore
hannes
hannibal
hanno
hannover
hannovers
hannoversche
hannoverschen
hanns
hans
hansa
hanse
hanseatische
hansen
hanser
hansestadt
hansjo
happy
har
hara
harald
harbor
harbour
harburg
hard
hardcore
hardenberg
harder
harding
hardt
hardware
hardy
hare
harfe
harlem
harley
harmonie
harmonisch
harms
harold
harper
harrassowitz
harriet
harris
harrison
harry
hart
harte
harten
harter
hartford
hartmann
hartmut
hartna
hartplatz
hartung
hartwig
harvard
harvey
harz
has
hasan
hase
hasen
hass
hassan
hasse
hast
hastig
hastings
hat
hate
hathitrust
hatte
hatten
hau
haube
hauch
haufen
haug
haupt
hauptaltar
hauptartikel
hauptaufgabe
hauptbahnhof
hauptdarsteller
hauptdarstellerin
haupteingang
hauptfeld
hauptfigur
hauptfiguren
hauptgeba
hauptgu
hauptinsel
hauptkirche
hauptlinie
hauptmann
hauptmanns
hauptort
hauptportal
hauptquartier
hauptrolle
hauptrollen
hauptrunde
hauptsa
hauptsache
hauptsatzkonjugation
hauptsatzung
hauptschule
hauptseite
hauptsitz
hauptsta
hauptstaatsarchiv
hauptstadt
hauptstraße
hauptteil
hauptverwaltung
hauptwerk
haus
hause
hausen
hauser
hauses
hausfrau
haushalt
haushalte
haushalten
haushalts
haushaltungen
hauslehrer
hausmann
hausnummer
haustu
haut
haute
hautes
hauts
havanna
have
havel
haven
havra
havre
hawaii
hawk
hawkins
hawks
hay
haydn
hayes
haynes
haß
haɪ
hb
hbf
hbo
hc
hd
he
head
health
heart
hearts
heat
heath
heather
heaven
heavy
hebel
heben
hebra
hebt
hebung
hechingen
hecht
heck
hecken
hecker
hector
hedwig
heer
heere
heeres
heeresgruppe
heerfu
heerstraße
heft
hefte
heften
heftig
heftige
heftigen
heftiger
hegel
hei
heide
heidegger
heidelberg
heidelberger
heiden
heidenheim
heidi
heidnischen
heights
heike
heiko
heil
heiland
heilbronn
heilbronner
heilen
heilig
heilige
heiligen
heiligenkreuz
heiligenstadt
heiliger
heiliges
heiligkeit
heiligtum
heilkunde
heilmittel
heilsbronn
heilung
heim
heimat
heimatbla
heimatbuch
heimatforscher
heimath
heimatkunde
heimatland
heimatmuseum
heimatort
heimatstadt
heimatverein
heimgesucht
heimisch
heimische
heimischen
heimkehr
heimlich
heimliche
heimmannschaft
heimsieg
heimspiel
heimspiele
heimsta
heimsuchung
hein
heine
heinemann
heiner
heino
heinrich
heinrichs
heinsberg
heinz
heinze
heirat
heiraten
heiratet
heiratete
heirateten
heise
heisst
heiter
heitere
heiterkeit
heizung
heiß
heiße
heißen
heißer
heißt
hektar
hel
held
helden
helen
helena
helene
helfen
helfer
helga
helge
helgoland
helios
hell
hellblau
helle
hellen
heller
hellgru
helligkeit
hellmut
hellmuth
hello
helm
helme
helmholtz
helms
helmstedt
helmut
helmuth
help
helsinki
hem
hemd
hempel
hen
henburg
hend
hende
henden
henderson
hendon
hendrik
hengst
henkel
henker
henlage
henlagen
henmeter
henne
henneberg
hennig
henning
henri
henrich
henriette
henrik
henru
henry
henryk
henschel
hensel
hentrich
henunterschied
henze
henzug
heppenheim
hepunkt
hepunkte
her
herab
herakles
herald
heraldik
heran
herangezogen
herauf
heraus
herausforderung
herausforderungen
herausgab
herausgabe
herausgeber
herausgeberin
herausgebracht
herausgegeben
herausgegebene
herausgegebenen
herausragende
herausragenden
herb
herbei
herbeifu
herbeigefu
herberge
herbert
herbst
hercules
herd
herde
herder
here
herein
herem
heren
herer
heres
herford
hergestellt
hergestellte
hergestellten
heribert
hering
heritage
herko
herkules
herkunft
herm
herman
hermann
hermannstadt
hermes
hermine
hern
herna
hernach
hernd
herne
hero
herodes
herodot
heroes
herold
herr
herren
herrenhaus
herrenhauses
herrenmannschaft
herrera
herrin
herrlich
herrliche
herrlichen
herrlichkeit
herrmann
herrn
herrschaft
herrschaften
herrschaftlichen
herrschen
herrschende
herrschenden
herrscher
herrschers
herrscht
herrschte
herrschten
herru
herschel
hersfeld
herstellen
hersteller
herstellern
herstellers
herstellt
herstellte
herstellung
hert
herta
herte
herten
hertha
hertz
hertzog
heru
herum
herung
herunter
herve
hervor
hervorgebracht
hervorgegangen
hervorgehoben
hervorgeht
hervorgerufen
hervorging
hervorragend
hervorragende
hervorragenden
hervorragender
hervorrufen
hervorzuheben
herwig
herz
herzberg
herzegowina
herzen
herzens
herzinfarkt
herzlich
herzo
herzog
herzoge
herzogin
herzoglich
herzoglichen
herzogs
herzogthum
herzogthums
herzogtu
herzogtum
herzogtums
herzustellen
hes
hess
hesse
hessen
hessische
hessischen
hessischer
hessisches
heste
hesten
hestens
het
heu
heuss
heut
heute
heutige
heutigen
heutiger
heutiges
heutzutage
hexe
hexen
hey
heyden
heymann
heyne
heß
hf
hg
hgb
hgeschichte
hhp
hi
hidden
hie
hielt
hielten
hier
hierarchie
hierarchy
hierauf
hieraus
hierbei
hierdurch
hierfu
hierher
hierin
hiermit
hiernach
hieronymus
hieru
hiervon
hierzu
hiesige
hiesigen
hieß
hießen
hig
hige
higen
higer
higes
higgins
high
higher
highland
highlands
highlights
highschool
highway
highways
higkeit
higkeiten
higung
hilaire
hilbert
hildburghausen
hilde
hildebrand
hildebrandt
hildegard
hilden
hildesheim
hildesheimer
hilf
hilfe
hilfen
hilfreich
hilfsmittel
hilft
hill
hiller
hills
hilton
him
himalaya
himmel
himmelfahrt
himmels
himmelsareal
himmelsko
himmler
himmlische
himmlischen
hin
hinab
hinauf
hinaus
hinblick
hindenburg
hindern
hindernis
hindernisse
hindi
hindu
hindurch
hindus
hinein
hing
hingegen
hingen
hingerichtet
hingewiesen
hinnehmen
hinreichend
hinrich
hinrichs
hinrichtung
hinrunde
hinsicht
hinsichtlich
hinspiel
hinten
hinter
hinterachse
hintere
hintereinander
hinteren
hinterflu
hintergru
hintergrund
hinterher
hinterla
hinterland
hinterlassen
hinterließ
hinterpommern
hinterra
hinu
hinunter
hinweg
hinweis
hinweise
hinweisen
hinweist
hinz
hinzu
hinzufu
hinzugefu
hip
hirn
hiroshima
hirsch
hirschberg
hirschfeld
hirt
hirte
hirten
hirzel
his
hist
histo
histoire
historia
historiae
historic
historica
historical
historie
historien
historiker
historikerin
historikern
historikers
historique
historiques
historisch
historische
historischen
historischer
historisches
historismus
history
hit
hitchcock
hitler
hitlers
hitparade
hits
hitze
hiv
hj
hjahr
hk
hl
hlau
hlbach
hlbar
hlberg
hldorf
hle
hlen
hlend
hlende
hlenden
hler
hlergemeinschaft
hlern
hlers
hlhausen
hlich
hliche
hlichen
hlig
hlige
hligen
hling
hlings
hlmann
hls
hlt
hlte
hlten
hlter
hlung
hlungen
hlungsdaten
hm
hme
hmen
hmens
hmer
hmisch
hmische
hmischen
hmischer
hms
hmso
hmt
hmte
hmten
hmter
hmtesten
hmtheit
hmung
hn
hnchen
hne
hneln
hnelt
hnen
hnenbildner
hnenstu
hnenswert
hner
hnlich
hnliche
hnlichem
hnlichen
hnlicher
hnliches
hnlichkeit
hnlichkeiten
hnrich
hnt
hnte
hnten
hnung
hnungen
ho
hob
hobby
hoc
hoch
hochaltar
hochburg
hochdeutsch
hochebene
hochfla
hochha
hochhaus
hochland
hochmittelalter
hochsauerlandkreis
hochschule
hochschulen
hochschullehrer
hochschullehrerin
hochsprung
hochstift
hochstifts
hochwasser
hochwertige
hochzeit
hochzeiten
hockey
hockeydb
hof
hofe
hofer
hofes
hoff
hoffe
hoffen
hoffman
hoffmann
hoffnung
hoffnungen
hofft
hoffte
hofkapelle
hofmann
hofmark
hofmeister
hofrat
hofrath
hoftheater
hohe
hoheit
hohem
hohen
hohenberg
hohenheim
hohenlohe
hohenstein
hohenzollern
hoher
hohes
hohl
hohn
hokkaido
hold
holden
holder
holding
holdings
hole
holen
holger
holiday
holla
holland
holly
hollywood
holm
holmes
holocaust
holstein
holsteinische
holsteinischen
holsteins
holt
holte
holten
holtz
holy
holz
holzhausen
holzminden
holzschnitt
holzschnitte
hom
homberg
homburg
home
homepage
homer
hommage
homme
homo
homosexualita
homosexuelle
homosexuellen
hon
honda
honduras
honey
hong
hongkong
honig
honnef
honolulu
honor
honorarprofessor
honorary
honore
honour
hood
hook
hoover
hop
hope
hopkins
hoppe
hor
hora
horace
horb
horizon
horizont
horizontal
horizontale
horizontalen
horizonte
horn
horni
horror
horrorfilm
horse
horst
hort
hose
hosen
hospital
hospitals
host
hot
hotel
hotels
hour
hours
house
houses
housing
houston
how
howard
howe
hoya
hp
hr
hrbar
hrbein
hrchen
hrden
hrdet
hrdete
hrdeten
hrdeter
hrdung
hre
hren
hrend
hrenddessen
hrende
hrenden
hrender
hrendes
hrer
hrerin
hrern
hrers
hret
hrig
hrige
hrigem
hrigen
hriger
hriges
hring
hringen
hringer
hrisch
hrischen
hrleisten
hrleistet
hrlich
hrliche
hrlichen
hrlicher
hrliches
hrlichkeit
hrn
hrsg
hrt
hrte
hrten
hrter
hrtes
hrtin
hrung
hrungen
hrungs
hrungskra
hs
hsam
hsg
hstu
hsv
ht
hte
hten
hter
htm
html
http
https
hu
hua
huang
hub
hubble
huber
hubert
hubertus
hubkraft
hubraum
hubschrauber
hudson
hufen
hug
hugenotten
hugh
hughes
hugo
huhn
hui
hujer
huldigung
hull
human
humanismus
humanist
humanistische
humanistischen
humanita
humanities
humblot
humboldt
hummel
humor
humphrey
hun
hund
hunde
hunden
hundert
hunderte
hunderten
hundertja
hundred
hung
hungen
hunger
hungersnot
hunsru
hunt
hunter
hurricane
hurrikan
hus
husaren
hussein
husum
hut
hutchinson
hv
hy
hybrid
hyde
hydraulik
hydraulisch
hydraulische
hydraulischer
hygiene
hymne
hypothese
hypothesen
hyundai
hz
hzeit
hzeitig
hzeitige
hɛ
hɪ
i
ia
iaaf
iabot
ian
ias
iata
iau
ib
iba
iberischen
ibge
ibm
ibn
ibrahim
ibu
ic
icao
icc
ice
ich
ichi
icon
id
ida
idaho
ide
idea
ideal
ideale
idealen
idealismus
ideas
idee
ideen
identification
identifikation
identifizieren
identifiziert
identifizierung
identisch
identita
identity
ideologie
ideologischen
ido
idol
ie
iec
ieee
if
ifa
ifk
ig
igel
iglesia
ign
ignacio
ignatius
ignaz
ignoriert
igor
ihk
ihm
ihn
ihnen
ihr
ihre
ihrem
ihren
ihrer
ihrerseits
ihres
ii
iihf
iii
ij
ik
ikone
il
ilias
ilja
ill
ille
illegal
illegale
illegalen
illinois
illusion
illustrated
illustration
illustrationen
illustrator
illustratorin
illustre
illustriert
illustrierte
illustrirte
ilm
ilmenau
ilona
ilse
im
ima
image
images
imagina
imam
imdb
imhof
immanuel
immer
immergru
immerhin
immobilien
immunita
imp
impact
imperativ
imperfekt
imperial
imperii
imperium
impfstoff
impfung
implementiert
implementierung
implications
import
important
importiert
impossible
impressionismus
impressum
improvisation
impuls
impulse
in
ina
inbetriebnahme
inc
inch
incl
including
ind
inde
indem
independence
independent
indes
indessen
index
indeß
india
indian
indiana
indianapolis
indianer
indianern
indians
indie
indien
indiens
indienststellung
indies
indigene
indigenen
indikativ
indikator
indirekt
indirekte
indische
indischen
indischer
individual
individualita
individuell
individuelle
individuellen
individuen
individuum
individuums
indo
indonesia
indonesien
indonesisch
indonesische
indonesischen
indoor
industrial
industrialisierung
industrie
industriegebiet
industriekultur
industriell
industrielle
industriellen
industrieller
industries
industry
ine
ineinander
inen
ines
inf
infanterie
infanteriedivision
infanterieregiment
infantry
infektion
infektionen
inferior
inferno
infinitiv
inflation
influence
info
infobox
infolge
infolgedessen
informatik
informatiker
information
informationen
informations
informationssystem
informationstechnik
informationszentrum
informieren
informiert
informierte
infos
infrastruktur
infty
ing
inga
inge
ingeborg
ingelheim
ingenieur
ingenieure
ingo
ingolstadt
ingrid
inhaber
inhaftiert
inhalt
inhalte
inhalten
inhaltlich
inhaltliche
inhaltlichen
inhalts
inhaltsverzeichnis
initialen
initiative
initiativen
initiator
initiiert
initiierte
inka
inkl
inklusive
inkrafttreten
inla
inland
inmitten
inn
inne
innehatte
innen
innenausstattung
inneneinrichtung
innenhof
innenminister
innenministerium
innenministeriums
innenra
innenraum
innenseite
innenstadt
inner
innere
inneren
innerer
inneres
innerhalb
innerlich
innern
innersta
innovation
innovationen
innovative
innozenz
innsbruck
innsbrucker
inoffizielle
input
inquisition
ins
insassen
insbesondere
inschrift
inschriften
inscriptions
insee
insekten
insel
inselgruppe
inseln
insgesamt
inside
insider
insofern
insolvenz
insoweit
inspector
inspektion
inspektor
inspiration
inspiriert
inspirierte
inst
instagram
installation
installationen
installieren
installiert
installierte
instand
instandhaltung
instandsetzung
instanz
institut
institute
instituten
institutes
institution
institutionen
instituto
instituts
instrument
instrumental
instrumente
instrumenten
instruments
inszeniert
inszenierte
inszenierung
inszenierungen
int
inte
integer
integral
integrated
integration
integrieren
integriert
integrierte
integrierten
integrita
intel
intellektuelle
intellektuellen
intelligence
intelligent
intelligenz
intendant
intensita
intensiv
intensive
intensiven
intensiver
intention
inter
interactive
interaktion
interaktive
intercity
interdisziplina
interessant
interessante
interessanten
interesse
interessen
interesses
interessieren
interessiert
interessierte
interessierten
interest
interface
interim
interior
interkulturelle
intern
internacional
internal
internat
international
internationale
internationalen
internationaler
internationales
interne
internen
internet
internetauftritt
internetova
internetpra
internetseite
internetseiten
interniert
interpret
interpretation
interpretationen
interpreten
interpretieren
interpretiert
interpretierte
interstate
intervall
intervention
interview
interviews
into
intransitiv
intro
introduction
inv
invasion
inventar
inventory
investieren
investiert
investierte
investigation
investitionen
investment
investor
investoren
involviert
inwieweit
inzwischen
io
ioc
iola
ion
ionen
ionischen
ios
iowa
ip
ipa
ipac
iphone
ir
ira
irak
irakischen
iran
iranische
iranischen
iranischer
iraq
irdischen
ire
ireland
iren
irene
irgend
irgendwann
irgendwie
irgendwo
irina
iris
irisch
irische
irischen
irischer
irish
irland
irlands
irma
irmgard
iron
ironie
ironisch
ironman
irre
irrefu
irren
irrtu
irrtum
irving
irwin
is
isa
isaac
isaak
isabel
isabella
isabelle
isar
isbn
isch
ische
ischen
ischer
isches
ise
isenburg
iserlohn
isidor
isis
isla
islam
islamic
islamische
islamischen
islamischer
island
islands
isle
ismail
iso
isolation
isolde
isoliert
isolierte
isolierten
israel
israeli
israelische
israelischen
israelischer
israelitischen
israels
iss
issn
issue
issues
ist
istanbul
istat
istituto
istva
it
ita
ital
italia
italian
italiana
italiani
italiano
italien
italiener
italienisch
italienische
italienischen
italienischer
italienisches
italiens
italo
italy
item
itf
ithaca
ito
its
ittf
itu
itunes
itzehoe
iu
iucn
iud
iulius
iur
iuris
ius
iv
iva
ivan
ivo
iwan
iwanowitsch
iwf
ix
iz
izmir
iſt
j
ja
jack
jacke
jackie
jackson
jacob
jacobi
jacobs
jacobsen
jacobus
jacoby
jacqueline
jacques
jade
jae
jaeger
jag
jagd
jagdschloss
jagen
jagst
jagt
jaguar
jahn
jahr
jahrb
jahrbu
jahrbuch
jahre
jahrelang
jahren
jahres
jahresbericht
jahresende
jahresergebnisse
jahrestag
jahreswechsel
jahreszahl
jahreszeit
jahreszeiten
jahrg
jahrga
jahrgang
jahrgangs
jahrh
jahrhundert
jahrhunderte
jahrhundertelang
jahrhunderten
jahrhunderts
jahrhundertwende
jahrtausend
jahrtausends
jahrtausendwende
jahrzehnt
jahrzehnte
jahrzehntelang
jahrzehnten
jaime
jak
jakarta
jake
jakob
jakobs
jakobsweg
jakobus
jakub
jam
jamaica
jamaika
james
jamie
jan
jana
jane
janeiro
janet
jansen
janssen
januar
january
janusz
jap
japan
japaner
japanese
japanisch
japanische
japanischen
japanischer
japanisches
japans
jar
jaroslav
jasmin
jason
jasper
java
javascript
javier
jay
jazyk
jazyka
jazykova
jazz
jazzmusiker
je
jean
jeanne
jede
jedem
jeden
jedenfalls
jeder
jedermann
jederzeit
jedes
jedesmal
jedoch
jeff
jefferson
jeffrey
jegliche
jeglicher
jeher
jehke
jehle
jehovas
jelena
jemals
jemand
jemandem
jemanden
jemen
jena
jenaer
jene
jenem
jenen
jener
jenes
jenkins
jennifer
jennings
jenny
jens
jenseits
jensen
jeremias
jeremy
jerome
jerry
jersey
jerusalem
jerzy
jes
jesse
jessen
jessica
jesu
jesuit
jesuiten
jesus
jet
jets
jetzige
jetzigen
jetzt
jeweilige
jeweiligen
jeweils
jewgeni
jewish
jews
jg
jh
jhdt
jhdts
ji
jia
jiang
jill
jim
jime
jimmy
jin
jir
jo
joa
joachim
joan
joanna
joaqui
job
jobs
jobst
joch
jochen
joe
joel
joey
joh
johan
johann
johanna
johannes
johannesburg
johannis
johanniter
johanniterordens
johanns
johansson
john
johnny
johns
johnson
johnston
join
joins
joint
joker
jon
jona
jonas
jonathan
jones
jong
jordan
jordanien
jorge
jos
jose
josef
josefstadt
josep
joseph
josephine
josephs
josephus
josette
josh
joshua
jost
jour
journal
journalismus
journalist
journalisten
journalistin
journalistische
journals
journey
jours
joy
joyce
jozef
jp
jpg
jr
js
jstor
ju
juan
jubel
jubila
juda
judaica
judas
jude
juden
judentum
judentums
judge
judith
judo
judoka
judy
jugend
jugendabteilung
jugendarbeit
jugendliche
jugendlichen
jugendlicher
jugendmannschaft
jugendmannschaften
jugendstil
jugendzeit
jugoslawien
jugoslawiens
jugoslawische
jugoslawischen
jugoslawischer
jul
jules
juli
julia
julian
juliana
juliane
julie
julien
juliette
julio
julius
july
jump
jun
junction
june
jung
junge
jungen
junger
junges
jungfrau
jungfrauen
jungle
jungs
jungsteinzeit
jungtiere
jungvo
juni
junior
junioren
juniorenweltmeisterschaften
juniorinnen
juniors
junker
junkers
juno
jupiter
jur
jura
jurastudium
jure
juri
juris
jurist
juristen
juristin
juristische
juristischen
juristischer
jury
jus
just
justice
justin
justiz
justizminister
justizministerium
justus
jutta
juventus
k
ka
kabarett
kabarettist
kabel
kabine
kabinett
kabinetts
kabul
kac
kader
kaffee
kafka
kahl
kahle
kahlen
kahn
kai
kairo
kais
kaiser
kaiserin
kaiserlich
kaiserliche
kaiserlichen
kaiserlicher
kaiserreich
kaiserreichs
kaisers
kaiserslautern
kaiserthums
kaiserzeit
kaj
kajak
kakteen
kalb
kalender
kali
kaliber
kalif
kalifen
kalifornien
kalifornischen
kaliningrad
kalk
kalkstein
kallmu
kalt
kalte
kalten
kalter
kam
kambodscha
kamen
kamenz
kamera
kameraden
kameramann
kameras
kamerun
kamin
kamm
kammer
kammerherr
kammermusik
kammern
kammerorchester
kammerspiele
kamp
kampagne
kampagnen
kampf
kampfe
kampfes
kampfhandlungen
kampflos
kan
kana
kanada
kanadas
kanadier
kanadische
kanadischen
kanadischer
kanal
kanals
kanarischen
kandidat
kandidaten
kandidatin
kandidatur
kandidierte
kane
kang
kaninchen
kann
kannst
kannte
kannten
kanon
kanone
kanonen
kanoniker
kansas
kant
kantate
kantaten
kante
kanten
kanton
kantonalen
kantone
kantonen
kantons
kantonsschule
kantor
kanu
kanute
kanzel
kanzlei
kanzler
kap
kapazita
kapelle
kapellen
kapellmeister
kapita
kapital
kapitalismus
kapitel
kapiteln
kapitels
kapitulation
kaplan
kapp
kappa
kapstadt
kar
kara
karate
kardina
kardinal
karel
karen
karibik
karikaturen
karikaturist
karin
karl
karlheinz
karls
karlsbad
karlsruhe
karlsruher
karneval
karol
karoline
karosserie
karpaten
karriere
karriereende
karsten
karta
karte
karten
kartenansicht
kartenobjekt
karthago
kartierung
kartoffeln
kartographisch
kas
kasachischen
kasachstan
kasan
kaserne
kasernen
kasimir
kaspar
kasper
kasse
kassel
kasseler
kastell
kastells
kasten
kastilien
kasus
kat
katalanisch
katalanischen
katalanischer
katalog
kataloge
katalonien
katalysator
katar
katastralgemeinde
katastrophe
katastrophen
kate
katechismus
kategorie
kategorien
kater
kath
katharina
kathedrale
katherine
kathleen
katholiken
katholisch
katholische
katholischen
katholischer
katholisches
katholizismus
kathrin
katie
katja
katowice
katrin
kattowitz
katz
katze
katzen
kauf
kaufbeuren
kaufen
kaufhaus
kaufleute
kaufma
kaufmann
kaufmanns
kaufpreis
kauft
kaufte
kauften
kaukasus
kaum
kaunas
kavallerie
kawasaki
kay
kayser
kazimierz
kb
kc
kd
ke
keep
kegel
kehl
kehle
kehren
kehrt
kehrte
kehrten
kei
keil
keim
kein
keine
keinem
keinen
keiner
keinerlei
keines
keinesfalls
keineswegs
keith
kel
kelch
kelchbla
keller
kellner
kelly
kelten
keltische
keltischen
kemp
kempen
kempten
ken
kenia
kenne
kennedy
kennen
kennengelernt
kennenlernte
kenner
kenneth
kennt
kenntnis
kenntnisse
kenntniß
kenny
kennzeichen
kennzeichnen
kennzeichnet
kennzeichnung
kent
kentucky
kenya
kepler
ker
keramik
kerker
kerl
kern
kerne
kernel
kernkraftwerk
kernstadt
kerr
kerry
kerstin
kerzen
kessel
kessler
ket
kette
ketten
kevin
kew
key
keyboard
keyboarder
keys
kf
kfz
kg
kgl
kh
khan
khl
khmer
khz
ki
kick
kicker
kickers
kid
kids
kiefer
kiefern
kiel
kieler
kiepenheuer
kies
kiew
kiewer
kilian
kill
killed
killer
killing
kilogramm
kilometer
kilometern
kim
kimes
kin
kind
kinde
kinder
kinderbu
kinderbuch
kinderga
kindergarten
kinderlos
kindern
kindertagessta
kindes
kindesalter
kindheit
king
kingdom
kings
kingston
kinn
kino
kinofilm
kinos
kinostart
kinzig
kirby
kirch
kirchberg
kirchdorf
kirche
kirchen
kirchenbau
kirchenfu
kirchengeba
kirchengemeinde
kirchengemeinden
kirchengeschichte
kirchenhistoriker
kirchenkreis
kirchenkreises
kirchenlexikon
kirchenmusik
kirchenmusiker
kirchenprovinz
kirchenraum
kirchenrecht
kirchenschiff
kirchenschiffs
kirchgemeinde
kirchheim
kirchhof
kirchhoff
kirchlich
kirchliche
kirchlichen
kirchlicher
kirchner
kirchspiel
kirchturm
kirgisistan
kirk
kirke
kirsch
kirsten
kis
kiss
kissen
kissingen
kiste
kisten
kit
kita
kitty
kitzbu
kitzingen
kk
kl
kla
klage
klagen
klagenfurt
klagt
klagte
klammer
klammern
klang
klar
klara
klare
klaren
klarer
klarheit
klarinette
klartext
klasse
klassen
klassenerhalt
klassifikation
klassifiziert
klassifizierung
klassik
klassiker
klassisch
klassische
klassischen
klassischer
klassisches
klassizismus
klassizistische
klassizistischen
klaus
klavier
klavierkonzert
klee
kleid
kleider
kleidung
kleidungsstu
klein
kleinasien
kleinbahn
kleine
kleinem
kleinen
kleiner
kleinere
kleineren
kleinerer
kleines
kleinstadt
kleinste
kleinsten
kleist
klemens
klemm
kleopatra
kleriker
klerus
klett
klettern
kleve
klicken
klima
klimaanlage
klimas
klimaschutz
klimatischen
klimawandel
klinge
klingen
klingenberg
klingt
klinik
kliniken
klinikum
klinische
klinischen
klippen
klo
klose
kloster
klostergeba
klosterkirche
klostermann
klosterneuburg
klosters
klotz
klu
klub
klubs
klug
kluge
km
kn
kna
knabe
knaben
knapp
knappe
knappen
knaur
knecht
knechte
kneipe
knesset
knie
knight
knights
kno
knoblauch
knochen
knoll
knopf
knorr
knoten
knotenpunkt
know
knowledge
known
knox
knu
knut
ko
koalition
koblenz
koch
kochbuch
kochen
kocher
koda
kodansha
koeffizienten
koehler
koeln
koenig
koffer
koha
kohl
kohle
kohlen
kohlensa
kohlenstoff
kohler
kohlhammer
kohn
kolb
kolbe
kolben
kolberg
kollaboration
kolleg
kollege
kollegen
kollegin
kollegium
kollektiv
kollektive
koller
kollidierte
kollision
kologe
kologie
kologisch
kologische
kologischen
kologischer
kolonialzeit
kolonie
kolonien
kolonisten
kolumbianischen
kolumbianischer
kolumbien
kolumbus
kolumne
kom
koma
kombi
kombination
kombinationen
kombiniert
kombinierte
kombinierten
komet
kometen
komiker
komische
komischen
komitat
komitee
komitees
komm
komma
kommandant
kommandanten
kommandeur
kommandiert
kommandierte
kommando
kommandos
komme
kommen
kommend
kommende
kommenden
kommentar
kommentare
kommentator
kommentiert
kommentierte
kommerziell
kommerzielle
kommerziellen
kommissar
kommissarin
kommissarisch
kommissarischer
kommission
kommissionen
kommst
kommt
kommunale
kommunalen
kommunaler
kommunalpolitiker
kommunalwahl
kommunalwahlen
kommune
kommunen
kommunikation
kommunismus
kommunist
kommunisten
kommunistische
kommunistischen
kommunistischer
kommunizieren
komo
kompakt
kompakte
kompanie
kompanien
komparativ
komparativs
kompatibel
kompendium
kompetenz
kompetenzen
kompilation
komplementa
komplett
komplette
kompletten
komplex
komplexe
komplexen
komplexer
komplexes
komplexita
komplikationen
komponente
komponenten
komponiert
komponierte
komponist
komponisten
komponistin
komposition
kompositionen
kompromiss
komtur
kon
konferenz
konferenzen
konfession
konfessionen
konfiguration
konflikt
konflikte
konflikten
konflikts
konfo
konfrontation
konfrontiert
kong
kongo
kongregation
kongress
kongresses
kongresswahlen
konigreich
konjunktiv
konkret
konkrete
konkreten
konkurrenten
konkurrenz
konkurs
konnte
konnten
konom
konomen
konomie
konomisch
konomische
konomischen
konrad
konsens
konsequent
konsequenz
konsequenzen
konservativ
konservative
konservativen
konservativer
konservatorium
konsistorium
konsole
konsolen
konsonanten
konsortium
konstant
konstante
konstanten
konstantin
konstantinopel
konstanz
konstanzer
konstitution
konstruiert
konstruierte
konstrukteur
konstruktion
konstruktionen
konsul
konsulat
konsum
konsumenten
kontakt
kontakte
konteradmiral
kontext
kontinent
kontinentalen
kontinents
kontinuierlich
kontinuierliche
kontinuita
konto
kontrabass
kontrahenten
kontrast
kontrolle
kontrollieren
kontrolliert
kontrollierte
kontrollierten
kontrovers
kontroverse
kontroversen
konvent
konvention
konventionelle
konventionellen
konventionen
konvergenz
konvergiert
konversations
konversationslexikon
konversion
konvoi
konzentration
konzentrationen
konzentrationslager
konzentrieren
konzentriert
konzentrierte
konzentrierten
konzept
konzepte
konzeption
konzern
konzerns
konzert
konzerte
konzerten
konzession
konzil
konzils
konzipiert
konzipierte
kooperation
kooperationen
koordinaten
koordination
koordiniert
kopenhagen
kopf
kopfe
kopfes
kopie
kopien
kopieren
kopiert
kopp
koppeln
koproduktion
kor
koran
korb
korea
korean
koreanisch
koreanische
koreanischen
korn
korps
korpus
korpusbelege
korrekt
korrekte
korrektur
korrespondent
korrespondenz
korrespondierendes
korridor
korrigiert
korrigierte
korruption
korsika
kos
kosaken
kosmos
kosovo
kost
kostbare
kostbaren
kosten
kostengru
kostengu
kostenlos
kostenlose
kostenpflichtig
kostet
kostete
kostu
kotflu
kov
kova
kp
kpd
kpdsu
kr
kra
krafft
kraft
kraftfahrzeuge
kraftstoff
kraftstoffverbrauch
kraftwerk
kraftwerke
kraftwerks
kragen
krain
kraj
krakau
krakauer
krako
kramer
krank
kranke
kranken
krankenha
krankenhaus
krankenhauses
krankenkassen
krankenpflege
krankenschwester
krankenversicherung
krankheit
krankheiten
kranz
krater
kraus
krause
krauss
kraut
krautige
krauß
kreative
kreativita
krebs
kredit
kredite
krefeld
kreide
kreis
kreise
kreisen
kreises
kreisfo
kreisfreie
kreisfreien
kreislauf
kreisliga
kreisreform
kreisstadt
kreisstraße
kreistag
kremer
krems
kreta
kreuz
kreuzberg
kreuze
kreuzen
kreuzer
kreuzes
kreuzgang
kreuzigung
kreuzkirche
kreuznach
kreuzrippengewo
kreuzt
kreuzung
kreuzweg
kreuzzug
krieg
kriege
kriegen
krieger
kriegerdenkmal
kriegerischen
krieges
kriegfu
kriegs
kriegsbeginn
kriegsdienst
kriegsende
kriegsfu
kriegsgefangene
kriegsgefangenen
kriegsgefangenschaft
kriegsgra
kriegsmarine
kriegsminister
kriegsministerium
kriegsschauplatz
kriegsschiffe
kriegsverbrechen
kriegsverbrecher
krim
krimi
kriminalita
kriminalroman
kriminelle
kriminellen
krimiserie
kris
krise
krisen
kristalle
kristallisiert
kristian
kristin
kristina
kriterien
kriterium
kritik
kritiken
kritiker
kritikern
kritisch
kritische
kritischen
kritischer
kritisches
kritisiert
kritisierte
kritisierten
kro
kroaten
kroatien
kroatisch
kroatische
kroatischen
kroatischer
kroll
kronach
kronbla
krone
kronen
kronprinz
kronprinzen
kru
krug
krupp
kruse
kruzifix
krypta
krzysztof
ks
kt
ku
kuala
kuba
kubanischen
kubanischer
kubikmeter
kuchen
kufstein
kugel
kugelfo
kugeln
kugelstoßen
kuh
kuhn
kularisation
kulisse
kulissen
kulm
kulmbach
kult
kultiviert
kultur
kulturbesitz
kulturdenkma
kulturdenkmal
kulturdenkmale
kulturdenkmals
kulturell
kulturelle
kulturellen
kultureller
kulturelles
kulturen
kulturerbe
kulturgeschichte
kulturgu
kulturgut
kulturlandschaft
kulturministeriums
kulturpreis
kulturstiftung
kulturzentrum
kultus
kultusministerium
kultusministeriums
kumar
kumenischen
kummer
kun
kund
kunde
kunden
kung
kunigunde
kuno
kunst
kunstakademie
kunstausstellung
kunstausstellungen
kunstdenkma
kunstdenkmale
kunstfu
kunstgeschichte
kunstgewerbeschule
kunstha
kunsthalle
kunsthandwerk
kunsthaus
kunsthistoriker
kunsthistorikerin
kunsthistorischen
kunsthochschule
kunstkataster
kunstmaler
kunstmuseum
kunstpreis
kunstsammler
kunstsammlung
kunstsammlungen
kunstschule
kunststoff
kunstverein
kunstvereins
kunstverlag
kunstwerk
kunstwerke
kunstwerken
kunz
kunze
kupfer
kupferstecher
kupferstich
kuppe
kuppel
kupplung
kur
kurator
kuratorium
kuratoriums
kurbelwelle
kurden
kurfu
kurhessen
kurie
kurier
kurko
kurland
kurort
kurpfa
kurpfalz
kurs
kursa
kurse
kursiv
kursk
kurt
kurve
kurven
kurz
kurzbiografie
kurzbiographie
kurze
kurzem
kurzen
kurzer
kurzerhand
kurzes
kurzfilm
kurzfilme
kurzform
kurzfristig
kurzgeschichte
kurzgeschichten
kurzzeitig
kuss
kutscher
kuwait
kuß
kv
kw
kwh
ky
kyffha
kyle
kyo
kyoto
kyrillisch
kyu
kz
l
la
lab
label
labels
labor
laboratorium
laboratory
labour
labyrinth
lac
lachen
lachend
lacht
lachte
lack
lade
laden
ladies
ladislaus
ladung
lady
lag
laga
lage
lagen
lager
lagern
lagers
lagersta
lagerung
lagis
lago
lagos
laguna
lagune
lahn
lahr
lahti
lai
laibach
laien
lake
lakes
lam
lama
lamb
lambda
lambert
lamellen
lamm
lampe
lampen
lan
lana
lancaster
lance
lancia
land
landau
landbuch
lande
landebahn
landen
landes
landesamt
landesamtes
landesanstalt
landesarchiv
landesaufnahme
landesbibliographie
landesbibliothek
landesdenkmalliste
landesfu
landesgeschichte
landesgeschichtliches
landesgrenze
landeshauptmann
landeshauptstadt
landesherren
landesherrn
landeskirche
landeskunde
landesliga
landesliste
landesmeister
landesmuseum
landesmuseums
landesregierung
landesstraße
landestheater
landesverba
landesverband
landesverbandes
landeswahlleiter
landesweit
landesweiten
landeszentrale
landet
landete
landeten
landgemeinde
landgemeinden
landgericht
landgerichts
landgra
landgraf
landgrafen
landgrafschaft
landgut
landhaus
landkarte
landkreis
landkreise
landkreisen
landkreises
landmark
landmarks
landra
landrat
landratsamt
lands
landsberg
landscape
landschaft
landschaften
landschaftlich
landschafts
landschaftsmaler
landschaftsplan
landschaftsschutzgebiet
landschaftsschutzgebiete
landshut
landsitz
landsleute
landsmann
landsmannschaft
landspitze
landsta
landstraße
landtag
landtage
landtages
landtags
landtagsabgeordneter
landtagswahl
landtagswahlen
landtagswahlkreis
landung
landvogt
landwehr
landwirt
landwirte
landwirthschaft
landwirtschaft
landwirtschaftlich
landwirtschaftliche
landwirtschaftlichen
landwirtschaftlicher
lane
lang
lange
langem
langen
langensalza
langenscheidt
langer
langes
langfristig
langfristige
langhaus
langhauses
langja
langle
langsam
langsame
langsamen
langsamer
langstreckenla
language
languages
langue
langweilig
lanham
lanka
lanz
lanze
lanzettlich
laos
lappen
lara
large
larousse
larry
lars
larsen
larsson
larven
las
laser
lasker
lass
lasse
lassen
last
lasten
laster
lastwagen
lat
late
latein
lateinamerika
lateinamerikanischer
lateinisch
lateinische
lateinischen
lateinischer
lateinschule
laten
later
laterne
latex
latin
latina
lau
laub
laubbla
laube
lauda
laudatio
laude
lauenburg
lauer
lauf
laufbahn
laufe
laufen
laufend
laufende
laufenden
laufendes
laufzeit
launch
laune
laura
laurel
lauren
laurence
laurent
laurentius
laurie
lausanne
lausitz
lausitzer
laut
laute
lauten
lauter
lauterbach
lautet
lautete
lautsprecher
lava
laval
law
lawrence
laws
lawson
lay
layer
lazarett
lazarus
laß
laßt
laɪ
laʊ
lb
lbad
lbe
lben
lbt
lbte
lbten
lbung
lc
lccn
lchen
ld
ldchen
lde
ldegalerie
lden
lder
lderlin
ldern
ldes
ldner
ldots
ldp
le
lea
lead
leader
leaders
leadership
leading
league
leander
learning
least
leave
lebe
leben
lebend
lebende
lebenden
lebender
lebendig
lebendige
lebendigen
lebens
lebensalter
lebensbedingungen
lebensbild
lebensbilder
lebensdaten
lebensdauer
lebensende
lebenserwartung
lebensgefa
lebensgeschichte
lebensjahr
lebensjahre
lebensjahren
lebensla
lebenslange
lebenslauf
lebensmittel
lebensmitteln
lebensra
lebensraum
lebensstil
lebensunterhalt
lebensweise
lebenswerk
lebenszeit
leber
lebewesen
lebhaft
lebhafte
lebhaften
lebt
lebte
lebten
lebus
lebzeiten
lech
lechner
lecture
lecturer
lectures
led
leder
ledig
lediglich
lee
leeds
leer
leere
leeren
leergewicht
left
leg
legacy
legal
legat
lege
legen
legend
legenda
legende
legenden
legends
legge
legio
legion
legiona
legionen
legislative
legislaturperiode
legislaturperioden
legitimation
legt
legte
legten
lehen
lehm
lehmann
lehnen
lehnt
lehnte
lehnten
lehr
lehramt
lehranstalt
lehrauftrag
lehrbeauftragter
lehrbu
lehrbuch
lehre
lehren
lehrer
lehrerin
lehrern
lehrers
lehrgang
lehrkra
lehrstu
lehrstuhl
lehrstuhls
lehrt
lehrta
lehrte
lei
leib
leibarzt
leibe
leibniz
leicester
leiche
leichen
leichnam
leicht
leichtathlet
leichtathletik
leichtathletin
leichte
leichten
leichter
leichtes
leichtgewicht
leichtgewichts
leichtigkeit
leid
leiden
leidenschaft
leidenschaften
leidenschaftlich
leider
leidet
leif
leigh
leihbasis
leihe
leine
leinen
leiningen
leinwand
leipz
leipzig
leipziger
leise
leiser
leisten
leistet
leistete
leisteten
leistung
leistungen
leistungsdaten
leistungsfa
leistungstra
leiten
leitende
leitenden
leitender
leiter
leiterin
leiters
leitet
leitete
leitfa
leitfaden
leitlinien
leitner
leitung
leitungen
leksikon
lektion
lektor
lektu
lemberg
lemgo
lemma
len
lena
lengemann
lenin
leningrad
lenken
lenkrad
lenkte
lenkung
lennon
lens
lenz
leo
leoben
leon
leonard
leonardo
leone
leonhard
leonhardt
leonid
leopard
leopold
leopoldina
leq
ler
lerin
lerinnen
lern
lernen
lernt
lernte
lernten
leroy
lers
les
lese
lesebuch
lesen
leser
lesern
leske
leslie
less
lessing
leste
lester
lesung
lesungen
let
letter
letters
lettisch
lettische
lettischen
lettischer
lettland
lettres
letzte
letzten
letztendlich
letzter
letztere
letzterem
letzteren
letzterer
letzteres
letztern
letztes
letztgenannten
letztlich
letztmals
leuchten
leuchtend
leuchtenden
leuchtet
leuchtturm
leute
leuten
leutershausen
leutnant
leuven
levante
level
levels
leverkusen
levi
levin
levy
lew
lewin
lewis
lex
lexicales
lexicon
lexikon
lexington
ley
lez
lf
lfe
lfen
lfja
lfte
lften
lg
lgema
lheim
lhota
li
lia
liam
liang
lib
libanon
libe
liber
liberal
liberale
liberalen
liberaler
liberalismus
liberec
liberia
libertadores
liberty
library
libre
libretto
libri
libro
libyen
lica
license
lich
lichs
licht
lichte
lichten
lichtenau
lichtenberg
lichtenfels
lichtenstein
lichter
lichterfelde
lichtes
lichtjahre
lichtjahren
lichtmaschine
lichts
lie
lieb
liebe
lieben
liebenden
liebenswu
lieber
liebermann
liebes
liebesgeschichte
liebevoll
liebhaber
liebig
liebknecht
liebling
liebsten
liebt
liebte
liechtenstein
lied
lieder
liederbuch
liedermacher
liedern
liedes
lief
liefen
lieferanten
liefern
liefert
lieferte
lieferten
lieferung
lieferungen
liege
liegen
liegend
liegende
liegenden
liegnitz
liegt
lieh
lienz
lier
lies
liess
liest
lietuvos
lieutenant
ließ
ließe
ließen
life
lifetime
lift
lig
liga
ligaeinsa
ligafußballs
ligakonkurrenten
ligaspiele
ligaspielen
ligen
light
lightning
lights
ligne
ligue
liiert
like
lil
lila
lili
lilie
lilien
lille
lillehammer
lilli
lilly
lily
lim
lima
limbach
limburg
limes
limit
limited
limits
limousine
lin
lina
lincoln
lind
linda
lindau
linde
lindemann
linden
lindenberg
lindgren
lindner
lindsay
line
linear
lineare
linearen
lines
ling
lingen
lingua
linguist
linguistics
linguistik
linie
linien
link
linke
linken
linker
links
linnaeus
linne
linsen
linus
linux
linz
linzer
lio
lion
lionel
lions
lipp
lippe
lippen
lippert
lippstadt
liquid
lis
lisa
lisch
lische
lischen
lischer
lisches
lise
lissabon
list
lista
liste
listed
listen
listet
liszt
lit
litauen
litauens
litauisch
litauische
litauischen
litauischer
lite
liter
literarisch
literarische
literarischen
literarischer
literarisches
literary
literatur
literature
literaturgeschichte
literaturkritiker
literaturpreis
literaturwissenschaft
literaturwissenschaftler
litern
lithium
litt
litte
litten
litterarischen
litteratur
little
liturgie
liturgischen
liu
liv
live
liverpool
lives
living
livingston
livius
livland
livre
lix
liz
lizenz
lizenzausgabe
lizenzen
lj
ljubljana
lk
lker
lkerkunde
lkermord
lkern
lkerrecht
lkerung
lkerungsdichte
lkerungsentwicklung
lkerungsfortschreibung
lkerungsstand
lkerungsstandes
lkerungsstatistiken
lkerungswachstum
lkerungszahl
lkischen
lkw
ll
llc
lle
llen
llengua
ller
llers
llig
llige
lligen
lliger
lligkeit
lling
lln
llner
lloyd
llt
llte
llten
llung
llungen
lm
lmu
ln
lner
lnische
lnischen
lo
lob
loben
lobt
lobte
local
locarno
location
loch
lock
locke
locken
locker
lockheed
lodge
loewe
log
logan
loge
logic
logik
logische
logischen
logistik
logo
logos
lohmann
lohn
lohnt
lohse
loi
loire
lois
lok
lokal
lokalbahn
lokale
lokalen
lokaler
lokales
lokativ
lokomotive
lokomotiven
loks
lola
lombardei
lon
london
londoner
lonely
long
longmapsto
longrightarrow
look
looking
loop
loos
loose
lopes
lopez
lorch
lord
lords
lore
lorentz
lorenz
lorenzo
lorraine
lorsch
los
lose
loser
loss
lost
lot
loth
lothar
lothringen
lotte
lotto
lotus
lou
louis
louisa
louise
louisiana
louisville
lounge
louvre
love
low
lowe
lowell
lower
loyalita
lp
lpg
lr
ls
lscher
lschlich
lschlicherweise
lscht
lschung
lschungen
lse
lsen
lsg
lt
ltd
lte
lten
lter
ltere
lteren
lterer
ltern
lteste
ltesten
ltester
ltestes
ltig
ltige
ltigen
ltiger
ltiges
ltigkeit
ltigt
ltigung
ltin
ltlich
ltnis
ltnisma
ltnisse
ltnissen
ltnisses
ltniß
ltnißma
lu
lublin
lubw
luc
luca
lucas
lucca
luchterhand
lucia
luciano
lucie
lucien
lucius
lucky
lucy
lud
ludger
ludolf
ludwig
ludwigs
ludwigsburg
ludwigshafen
ludwigslust
luft
luftangriff
luftangriffe
luftangriffen
luftaufnahmen
luftfahrt
luftgeku
lufthansa
luftlinie
luftstreitkra
luftwaffe
lugano
lui
luigi
luis
luisa
luise
luka
lukas
luke
lulu
lumpur
luna
lunar
lund
lung
lunge
lungen
lungenentzu
lust
lustig
lustige
lustigen
lustspiel
lut
luth
luther
lutherisch
lutherische
lutherischen
lutherischer
luthers
lutz
lux
luxembourg
luxemburg
luxemburger
luxemburgischen
luxemburgischer
luxurio
luxus
luz
luzern
luzerner
lv
lvarez
lwiw
lwl
lxv
ly
lyce
lyck
lydia
lynch
lynn
lynx
lyon
lyrik
lyriker
lyrische
lyrischen
lz
lze
lzen
lzer
lzern
lzerne
lzernen
lzische
lzischen
lə
lən
lɪc
m
ma
maas
maastricht
mac
macau
macbeth
macdonald
mach
mache
machen
machine
macht
machte
machten
machtergreifung
machthaber
machtu
mack
mackenzie
mackolik
macmillan
mad
madagascar
madagaskar
madame
made
madeira
madeleine
mader
madison
madonna
madrid
mae
maestro
mafia
mag
magazin
magazine
magazins
magd
magda
magdalena
magdalene
magdeburg
magdeburger
magen
maggie
maggiore
magic
magie
magier
magische
magischen
magister
magistrat
magna
magnetische
magnetischen
magnum
magnus
magyar
mahl
mahler
mahlzeit
mahmud
mahnmal
mahnung
mai
maier
maigret
maik
mail
maila
mailand
mails
main
maine
mains
mainstream
mainz
mainzer
maire
mairie
mais
maison
maja
majesta
major
majors
mak
make
makedonien
makes
making
mal
mala
malaria
malawi
malaysia
malcolm
male
malen
maler
malerei
malereien
malerin
malerische
malerischen
malern
malers
mali
malik
mall
mallorca
malmo
malt
malta
malte
mama
mammal
mammals
man
management
manager
manche
manchem
manchen
mancher
mancherlei
manches
manchester
manchmal
mandat
mandate
manesse
manet
manfred
manga
mangel
mangelnde
mangelnder
mangels
manhattan
manier
manifest
manila
manipulation
manitoba
mann
manne
mannes
mannheim
mannheimer
mannigfaltigkeit
manning
manns
mannschaft
mannschaften
mannschaftskapita
mannschaftsverfolgung
mannschaftswettbewerb
mannschaftszeitfahren
mano
manor
mans
mansfeld
mantel
mantua
manual
manuale
manualen
manuel
manuela
manuell
manufacturing
manufaktur
manuscript
manuskript
manuskripte
many
manz
mao
map
maple
mapping
maps
mapsto
mar
mara
marathon
marathonla
marbach
marburg
marburger
marc
marcel
marcello
marcelo
march
marche
marco
marcos
marcus
mare
marek
maren
margaret
margareta
margarete
margaretha
margarethe
margarita
margit
margot
margret
marguerite
mari
maria
mariae
marian
marianne
mariano
marias
marie
marien
marienberg
marienburg
marienkapelle
marienkirche
mariens
marija
marilyn
marin
marina
marine
marineoffizier
marines
marino
mario
marion
maritime
marius
mark
markant
markante
markanten
marke
marken
markenname
markennamen
markenzeichen
marker
market
marketing
markgra
markgraf
markgrafen
markgrafschaft
markieren
markiert
markierte
markierten
markierung
marko
marks
markt
marktanteil
marktes
marktfu
marktgemeinde
marktplatz
marktwirtschaft
markung
markus
marlene
marmor
marne
marokko
marquardt
marquess
marquis
marriage
mars
marsch
marschall
marschierte
marseille
marsh
marshal
marshall
mart
marta
martens
martha
marti
martial
martin
martina
martinez
martini
martino
martins
martinus
marty
marvel
marvin
marx
marxismus
mary
maryland
mas
maschine
maschinen
maschinenbau
maschinenfabrik
maserati
maske
masken
maskulinum
mason
mass
massa
massachusetts
massacre
massaker
masse
massen
massimo
massiv
massive
massiven
massiver
mast
masten
master
masters
masuren
mat
mata
match
matches
mate
mater
material
materialien
materials
materie
materielle
materiellen
math
mathbb
mathbf
mathcal
mathe
mathematical
mathematics
mathematik
mathematiker
mathematikerin
mathematisch
mathematische
mathematischen
mathfrak
mathias
mathieu
mathilde
mathrm
matrikel
matrix
matrizen
matrosen
matt
matten
matteo
matter
mattha
matthes
matthew
matthews
matthias
matti
matura
mau
maud
mauer
mauern
mauerreste
mauerwerk
maul
mauren
maurer
maurice
mauritius
maurizio
mauro
maus
mausoleum
mauthausen
max
maxi
maxim
maximal
maximale
maximalen
maxime
maximilian
maximilians
maximum
maximus
maxwell
may
maya
mayen
mayer
mayo
mayor
mayr
maz
mazedonien
maß
maße
maßen
maßgabe
maßgebend
maßgeblich
maßgeblichen
maßnahme
maßnahmen
maßregeln
maßsta
maßstab
mb
mbh
mbildner
mc
mccarthy
mccartney
mcdonald
mcfarland
mclaren
md
mdb
mdl
mdr
mdz
me
mean
meaning
means
mechanics
mechanik
mechaniker
mechanisch
mechanische
mechanischen
mechanischer
mechanismen
mechanismus
mechthild
mecklenburg
mecklenburgische
mecklenburgischen
med
medaille
medaillen
medal
media
mediathek
medical
medici
medicin
medicine
medien
medieval
medikamente
medikamenten
medina
meditation
mediterranean
medium
medizin
mediziner
medizingeschichte
medizinisch
medizinische
medizinischen
medizinischer
medizinstudium
meer
meere
meeres
meeresho
meeresspiegel
meet
meeting
meets
meg
mega
mehl
mehmet
mehr
mehrere
mehreren
mehrerer
mehrfach
mehrfache
mehrfachen
mehrfacher
mehrheit
mehrheitlich
mehrja
mehrkampf
mehrmals
mehrzahl
mei
meier
meiji
meile
meilen
meilenstein
mein
meine
meinem
meinen
meiner
meines
meinhard
meiningen
meint
meinte
meinung
meinungen
meist
meiste
meisten
meistens
meister
meisterin
meistern
meisters
meisterschaft
meisterschaften
meistertitel
meisterwerk
meisterwerke
meißen
meißner
mekka
mel
melanchthon
melanie
melbourne
melchior
melden
meldet
meldete
meldeten
meldung
meldungen
melissa
melk
melle
melodie
melodien
melville
member
members
membran
memel
memento
memmingen
memoiren
memoirs
memoria
memorial
memoriam
memories
memory
memphis
men
mende
mendelssohn
menden
mendes
mendoza
menge
mengen
menhir
mensa
mensch
menschen
menschenleben
menschenrechte
menschenwu
menschheit
menschliche
menschlichen
menschlicher
menschliches
menschlichkeit
ment
mental
mentor
menu
menzel
meppen
mer
meran
mercator
mercedes
merck
mercury
mercy
meredith
mergentheim
merian
merin
merit
merkel
merken
merklich
merkmal
merkmale
merkmalen
merkt
merkte
merkur
merkwu
merlin
mern
merriam
mers
merseburg
merstraße
mertens
merz
merzeit
mes
mesa
meschede
mess
message
messe
messen
messer
messgera
messias
messina
messing
messung
messungen
met
meta
metacritic
metal
metall
metalle
metallen
metapher
metaphysik
meteorologie
meter
metern
method
methode
methoden
methodik
methods
metrik
metro
metropol
metropole
metropolis
metropolitan
metropolregion
metternich
metz
metzger
metzler
meuse
meusel
mexico
mexikanische
mexikanischen
mexikanischer
mexiko
mexikos
meyer
meyers
mez
mezzosopran
mf
mfs
mg
mgm
mh
mhild
mhz
mi
mia
miami
mich
michael
michaela
michaelis
michaels
michail
michailowitsch
michal
michel
michelangelo
michele
michelin
michelle
michigan
mick
mickey
micro
microbiology
microsoft
mid
middle
midi
midnight
mie
mien
miene
miert
mies
mieten
mieter
mig
mighty
migranten
migration
migros
miguel
mike
mikrobiologie
mikroorganismen
mil
milan
milano
milch
milchstraße
mild
milde
milden
mile
miles
milieu
milita
military
miliz
milizen
mill
mille
millennium
miller
milliarde
milliarden
millimeter
millimetern
million
milliona
millionen
mills
milos
milton
milwaukee
min
mina
minas
mind
mindat
minden
mindener
minder
minderheit
minderheiten
minderja
mindestens
minds
mine
minen
mineral
minerale
mineralien
mineralienatlas
mineralo
mineralogical
mineralogie
mineralogy
minerals
minerva
mines
ming
minh
mini
miniaturen
minimal
minimale
minimum
mining
miniserie
ministe
minister
ministerien
ministerin
ministerium
ministeriums
ministerpra
ministers
ministry
minna
minne
minneapolis
minnesota
minor
minsk
mint
minu
minus
minute
minuten
mio
mioza
mir
mira
miranda
miriam
mirko
miroslav
mirror
mis
misch
mische
mischen
mischer
misches
mischt
mischung
miss
missa
missbrauch
missbraucht
missing
mission
missionar
missionare
missionen
mississippi
missouri
misst
misstrauen
missversta
mister
mit
mitarbeit
mitarbeiter
mitarbeiterin
mitarbeitern
mitbegru
mitbu
mitchell
miteinander
mitgebracht
mitgefu
mitgenommen
mitgeteilt
mitgetheilt
mitgewirkt
mitgift
mitglied
mitglieder
mitgliedern
mitgliederversammlung
mitgliedschaft
mitgliedseintrag
mitgliedsnummer
mitgliedsstaaten
mitgliedstaaten
mitgru
mitherausgeber
mithilfe
mithin
mitkonsekratoren
mitleid
mitleidenschaft
mitnehmen
mitsamt
mitschu
mitspieler
mitsubishi
mitt
mittag
mittags
mitte
mitteilung
mitteilungen
mitteilungsblatt
mittel
mittelalter
mittelalterliche
mittelalterlichen
mittelalterlicher
mittelalters
mittelamerika
mitteldeutsche
mitteldeutschen
mitteldeutscher
mitteldeutschland
mitteleuropa
mitteleuropas
mittelfeld
mittelfeldspieler
mittelfranken
mittelgewicht
mittelhochdeutsch
mittelma
mittelmeer
mittelmeerraum
mitteln
mittelpunkt
mittelrhein
mittels
mittelschiff
mittelschule
mittelst
mittelsta
mittelstreckenla
mittelstu
mittelteil
mitten
mitternacht
mittheilung
mittheilungen
mittig
mittler
mittlere
mittleren
mittlerer
mittleres
mittlerweile
mittwoch
mitunter
mitwirken
mitwirkte
mitwirkung
mix
mixed
miß
mk
ml
mlb
mlich
mliche
mlichen
mlicher
mls
mly
mlynek
mm
mme
mmel
mmen
mmer
mmerer
mmern
mmert
mmerte
mmerung
mmige
mmigen
mmigkeit
mmler
mmliche
mmlichen
mmt
mmtlich
mmtliche
mmtlichen
mmtlicher
mmung
mn
mo
mob
mobil
mobile
mobilen
mobilita
mobygames
mochte
mochten
mod
mode
model
modell
modelle
modellen
modellierung
modelljahr
modells
models
modena
moderation
moderator
moderatoren
moderatorin
moderiert
moderierte
modern
moderne
modernen
moderner
modernes
modernisiert
modernisierung
modi
modifikationen
modifiziert
modifizierte
modul
module
modus
moers
mohamed
mohammad
mohammed
mohn
mohr
moi
moire
moires
mol
moldau
mole
molecular
moleku
molekulare
molie
molina
moll
molly
moltke
moment
momentan
momente
mommsen
mon
mona
monaco
monarch
monarchen
monarchie
monat
monate
monaten
monatlich
monatliche
monats
monatshefte
monatsschrift
mond
monde
mondes
mondo
monen
money
mongolei
mongolen
mongolischen
monica
monika
monitor
monitoring
monk
mono
monogramm
monographie
monographien
monopol
monroe
mons
monsieur
monster
mont
montag
montage
montagne
montags
montana
monte
montenegro
montevideo
montfort
montgomery
month
monthly
monti
montiert
montpellier
montre
montreal
montreux
monument
monumenta
monumentale
monumente
monuments
monza
moon
moor
moore
moos
moose
mor
mora
moral
morales
moralisch
moralische
moralischen
morbus
mord
morde
morden
mordes
more
moreau
moreno
morgan
morgen
morgenpost
morgens
morgenstern
mori
moritz
moriz
morning
morphologie
morris
morrison
mort
morte
mortimer
morton
mos
mosaik
mosambik
mosbach
moschee
moscheen
moscow
mose
mosel
moselle
moser
moses
moskau
moskauer
moss
most
mot
mother
motion
motiv
motivation
motive
motiven
motiviert
moto
motor
motorbuch
motordrehzahl
motoren
motorleistung
motoro
motorra
motorrad
motorradrennfahrer
motors
motorsport
motte
motto
moulin
mount
mountain
mountainbike
mountains
mouse
move
movement
movie
movierung
movies
moving
mozart
mozarts
mp
mpel
mpfe
mpfen
mpfer
mpferin
mpfern
mpft
mpfte
mpften
mpfung
mpp
mr
mrd
mrs
ms
msc
msv
mt
mte
mten
mter
mtern
mtlich
mtliche
mtlichen
mtlicher
mtv
mu
much
mueller
muenchen
muh
muhammad
mulde
muller
multi
multimedia
multiple
multiplikation
mumbai
mun
mund
mundart
mundarten
munde
mundi
mundo
mung
mungen
munich
municipal
municipio
municipios
munition
munro
munzinger
mur
mura
murat
murder
murmelte
murnau
murphy
murr
murray
mus
musa
muschelkalk
muscheln
musculus
muse
museen
museo
museum
museums
music
musica
musical
musicals
musicbrainz
musicians
musik
musikakademie
musikalisch
musikalische
musikalischen
musikalischer
musikalisches
musikdirektor
musiker
musikerin
musikern
musikers
musikgeschichte
musikhochschule
musikinstrumente
musikkritiker
musiklehrer
musiklexikon
musikpa
musikproduzent
musikschule
musikstu
musiktheater
musiktheorie
musikverka
musikverlag
musikvideo
musikvideos
musikwissenschaft
musikwissenschaftler
musique
muskeln
muslim
muslime
muslimen
muslimische
muslimischen
muss
mussolini
musste
mussten
must
mustafa
muster
mustern
mut
mutation
mutationen
muth
mutig
mutmaßlich
mutter
muttergottes
muttersprache
muß
mußt
mußte
mußten
mv
mvp
mw
mx
my
myanmar
myers
myspace
mysterio
mystery
mystik
myth
mythen
mythologie
mythos
mz
n
na
nabla
nabu
nach
nachahmung
nachbar
nachbargemeinde
nachbargemeinden
nachbarn
nachbarort
nachbarorte
nachbarschaft
nachbau
nachbildung
nachdem
nachdenken
nachdru
nachdruck
nacheinander
nachempfunden
nachfahren
nachfolge
nachfolgend
nachfolgende
nachfolgenden
nachfolger
nachfolgerin
nachfolgern
nachforschungen
nachfrage
nachgehen
nachgewiesen
nachhaltig
nachhaltige
nachhaltigen
nachhaltigkeit
nachher
nachhinein
nachkomme
nachkommen
nachkriegszeit
nachla
nachlass
nachlaß
nachmittag
nachmittags
nachname
nachnamen
nachricht
nachrichten
nachrichtenagentur
nachrichtliches
nachru
nachruf
nachschlagewerk
nacht
nachteil
nachteile
nachtigall
nachtra
nachtrag
nachts
nachwahl
nachweis
nachweisbar
nachweise
nachweisen
nachweislich
nachwelt
nachwort
nachwuchs
nachzuweisen
nacional
nacken
nackt
nackte
nackten
nad
nadel
nadeln
nadine
nadja
nagano
nagasaki
nagel
nagler
nagoya
nagy
nah
nahe
nahegelegenen
nahen
nahezu
nahm
nahmen
nahrung
nahrungsmittel
naht
nahverkehr
nai
nairobi
naked
nakhon
nam
name
named
namen
namens
namensa
namenseintrag
namensform
namensgebend
namensgebende
namensgebenden
namensgeber
namensgebung
namenstra
namenszusatz
namentlich
names
namhafte
namhaften
namibia
namur
nan
nana
nancy
nanjing
nannte
nannten
nantes
naomi
napole
napoleon
napoleonischen
napoleons
napoli
narbe
narr
narrative
narren
nas
nasa
nase
naselenija
nasen
nash
nashville
nassau
nassauische
nasse
nassen
nat
natal
natalia
natalie
nathalie
nathan
nathaniel
nation
national
nationalbank
nationalbibliothek
nationale
nationalen
nationaler
nationales
nationalgalerie
nationalhymne
nationalismus
nationalisten
nationalita
nationalliga
nationalmannschaft
nationalmannschaften
nationalmuseum
nationalo
nationalpark
nationalparks
nationalrat
nationalsozialismus
nationalsozialisten
nationalsozialistische
nationalsozialistischen
nationalsozialistischer
nationalspieler
nationalstraße
nationalteam
nationaltheater
nationaltrainer
nationalversammlung
nationen
nations
native
nato
natrium
natu
natur
natura
natural
naturalis
naturdenkma
naturdenkmal
naturdenkmale
nature
naturelle
naturforscher
naturgema
naturgeschichte
naturkunde
naturpark
naturparks
naturra
naturraum
naturschutz
naturschutzgebiet
naturschutzgebiete
naturschutzgebietes
naturwissenschaft
naturwissenschaften
naturwissenschaftler
naturwissenschaftliche
naturwissenschaftlichen
nau
naukowe
naumann
naumburg
naval
navarra
navarro
navigation
navy
naxos
nazareth
nazi
nazionale
nazis
nb
nba
nbc
nberg
nbn
nborn
nbrunn
nburg
nc
ncaa
nch
nche
nchen
nchener
nchengladbach
nchez
nchhausen
nchner
ncia
nd
ndb
ndchen
nde
ndel
ndeln
ndels
nden
nder
ndereien
nderin
nderinnen
ndern
nders
nderspiel
nderspiele
nderspielen
ndert
nderte
nderten
nderter
nderung
nderungen
ndes
ndet
ndete
ndeten
ndeter
ndetes
ndez
ndig
ndige
ndigem
ndigen
ndiger
ndiges
ndigkeit
ndigt
ndigte
ndigten
ndigung
ndisch
ndische
ndischen
ndischer
ndisches
ndl
ndler
ndlern
ndlers
ndlich
ndliche
ndlichen
ndlicher
ndliches
ndlichkeit
ndner
ndnis
ndnisse
ndnisses
ndniß
ndor
ndr
ndung
ndungen
ndungsmitglied
ndungsmitglieder
ndungsmitgliedern
ne
nea
neal
neapel
near
nebeck
nebel
neben
nebenan
nebenbei
nebendarsteller
nebendarstellerin
nebeneinander
nebenflu
nebenfluss
nebenformen
nebengeba
nebenher
nebenrolle
nebenrollen
nebensatzkonjugation
nebenstraße
nebenwirkungen
neberg
nebraska
nebst
neburg
neburger
nec
neck
neckar
ned
nederland
nederlandse
need
neffe
neffen
negativ
negative
negativen
neger
negro
nehme
nehmen
neid
neigen
neigt
neigte
neigung
neigungen
neil
neill
nein
neiße
nek
nekrolog
nekropole
nel
nell
nella
nelly
nelson
nem
nemann
nemark
nemarks
nen
nenndrehzahl
nennen
nennenswerte
nennenswerten
nenner
nennt
nennung
neo
nepal
nepomuk
neptun
neq
ner
nero
ners
nerven
nervo
nes
nest
nester
nestroy
net
netflix
netherlands
nett
nette
netto
network
networks
netz
netze
netzes
netzwerk
netzwerke
netzwerken
netzwerks
neu
neuauflage
neuausgabe
neubau
neubauer
neubaus
neubaustrecke
neubauten
neubearbeitete
neubearbeitung
neubrandenburg
neuburg
neucha
neudorf
neudruck
neue
neuem
neuen
neuenburg
neuendorf
neuer
neuerdings
neuere
neueren
neuerer
neuerung
neuerungen
neues
neueste
neuesten
neufassung
neugeborenen
neugegru
neugestaltung
neugierig
neugliederung
neugotische
neugotischen
neugru
neuguinea
neuhaus
neuhausen
neuhof
neukirchen
neuko
neuling
neumann
neumark
neumarkt
neumu
neun
neunkirchen
neunte
neunten
neunter
neunzehnten
neuordnung
neurologie
neuseela
neuseeland
neuseelands
neuss
neusta
neustadt
neustrelitz
neutral
neutrale
neutralen
neutralita
neutrum
neuwahlen
neuwied
neuzeit
nevada
never
neville
new
newald
newark
newcastle
newcomer
newman
newport
news
newsletter
newspaper
newspapers
newton
next
nez
nf
nfeld
nfja
nfl
nfla
nfmal
nfte
nftel
nften
nfter
nftig
nftige
nftigen
nftiger
nfzehn
nfzig
nfziger
ng
nga
ngc
nge
ngel
ngeln
ngelt
ngen
ngend
ngende
ngenden
nger
ngerbau
ngere
ngerem
ngeren
ngerer
ngerin
ngerinnen
ngern
ngers
ngert
ngerte
ngerten
ngerung
ngerzone
ngig
ngige
ngigen
ngiger
ngiges
ngigkeit
ngigkeitskrieg
ngler
nglich
ngliche
nglichen
nglicher
ngliches
nglichkeit
ngling
ngnis
ngnisse
ngniß
ngo
ngr
ngs
ngst
ngste
ngsten
ngster
ngstlich
ngt
ngte
ngten
ngung
nh
nhausen
nheit
nhl
nhn
ni
nia
niamey
nibelungen
nic
nica
nicaragua
niccolo
nice
nich
nicholas
nichols
nicholson
nicht
nichte
nichts
nick
nickel
nickte
nico
nicola
nicolai
nicolas
nicolaus
nicole
nidda
nie
nieder
niederbayerischen
niederbayern
niederdeutsch
niederdeutsche
niederdeutschen
niedere
niederen
niedergang
niedergebrannt
niedergelassen
niedergelegt
niedergeschlagen
niederla
niederlage
niederlagen
niederlande
niederlanden
niederlassung
niederlassungen
niederlausitz
niederließ
niedero
niederrhein
niedersa
niedersachsen
niedersachsens
niederschla
niederschlag
niederschlagung
niederschlesien
niederung
niedrig
niedrige
niedrigen
niedriger
niedrigere
niedrigeren
niedrigste
niedrigsten
niels
nielsen
niemals
niemand
niemanden
niemann
niemeyer
nien
nienburg
niens
nieren
nietzsche
nig
nige
nigel
nigen
niger
nigeria
niggra
night
nights
nigin
nigl
niglich
nigliche
niglichen
niglicher
nigliches
nigreich
nigreiche
nigreiches
nigreichs
nigs
nigsberg
nigsberger
nigshausen
nigshof
nigstein
nigswinter
nihon
niht
nijmegen
nik
nike
nikita
niklas
niklaus
nikol
nikola
nikolai
nikolaikirche
nikolajewitsch
nikolaus
nil
nils
nilsson
nimm
nimmer
nimmt
nin
nina
nine
ning
ningen
ningh
ninja
nino
nintendo
nio
nippon
nirgends
nis
nisch
nische
nischen
nischer
nischni
nissan
nit
nita
nitz
niveau
nix
nixon
nizza
nj
njw
nk
nke
nkel
nken
nkisch
nkische
nkischen
nkischer
nkt
nkte
nkten
nkter
nkung
nkungen
nl
nla
nland
nlich
nliche
nlichen
nlicher
nliches
nlichkeit
nlichkeiten
nm
nn
nnchen
nne
nnen
nner
nnerchor
nnern
nnische
nnischen
nnischer
nnlich
nnliche
nnlichen
nnlicher
nnt
nnte
nnten
no
noack
noah
nobel
nobelpreis
nobelpreistra
noble
noch
nochmal
nochmals
nockenwelle
node
noe
noel
noir
noise
nokia
nolan
nolte
nom
noma
nomen
nomenclature
nomene
nomenklatur
nomina
nominatform
nominations
nominativ
nominees
nominiert
nominierte
nominierten
nominierung
nominierungen
nomos
non
nonne
nonnen
nor
nora
norbert
nord
nordafrika
nordamerika
nordamerikanischen
nordamerikas
norddeutsche
norddeutschen
norddeutscher
norddeutschland
norden
nordens
norderstedt
nordeuropa
nordhausen
nordhorn
nordic
nordirland
nordische
nordischen
nordischer
nordisk
nordkorea
nordku
nordmazedonien
nordnordo
nordnordwestlich
nordo
nordost
nordosten
nordrand
nordrhein
nordsee
nordseite
nordteil
nordufer
nordwa
nordwand
nordwest
nordwesten
nordwestlich
nordwestliche
nordwestlichen
nordwestlicher
norfolk
norm
norma
normal
normale
normalen
normaler
normalerweise
normalschanze
norman
normandie
normdaten
normen
norris
norsk
norske
norstedt
norstedts
norte
north
northeim
northern
northwest
northwestern
norton
norway
norwegen
norwegens
norweger
norwegisch
norwegische
norwegischen
norwegischer
norwich
nos
nostra
not
notable
notar
notation
note
noten
notes
notfall
noth
nothing
nothwendig
nothwendigkeit
notice
notiert
notiz
notizen
notlagen
notre
notruf
nottingham
notwendig
notwendige
notwendigen
notwendigkeit
nous
nouveau
nouvelle
nouvelles
nov
nova
nove
novel
novelle
novellen
november
novi
novo
novum
novy
now
nowak
nowgorod
nowy
np
npd
nr
nrhp
nrw
ns
nsa
nsch
nsche
nschen
nscht
nschte
nschten
nsdap
nse
nsel
nsg
nste
nsten
nster
nsterland
nsters
nstig
nstige
nstigen
nstiger
nstigt
nstigte
nstler
nstlergruppe
nstlerhaus
nstlerin
nstlerinnen
nstlerisch
nstlerische
nstlerischen
nstlerischer
nstlerisches
nstlerlexikon
nstlern
nstlername
nstlernamen
nstlers
nstlich
nstliche
nstlichen
nstlicher
nsu
nt
nte
nten
nter
nther
nu
nuclear
nueva
nuevo
null
num
number
numbers
nummer
nummerierung
nummern
nun
nunatak
nung
nunmehr
nuntius
nuova
nur
nutzbar
nutze
nutzen
nutzer
nutzern
nutzfla
nutzlast
nutzt
nutzte
nutzten
nutzung
nv
nva
nw
nwa
nwald
ny
nya
nyi
nytimes
nz
nzburg
nze
nzen
nzenberg
nzend
nzende
nzenden
nzer
nzerin
nzlich
nzt
nzte
nzten
nzung
nzungen
nzz
nə
nən
o
oa
oak
oakland
oara
oase
ob
obama
obec
oben
ober
obera
oberamt
oberamtmann
oberamts
oberbayerischen
oberbayern
oberbefehl
oberbefehlshaber
oberbegriffe
oberbu
obere
oberen
oberer
oberes
oberfla
oberfo
oberfra
oberfranken
obergeschoss
oberhalb
oberhaupt
oberhaus
oberhausen
oberhessen
oberhof
oberhoheit
oberko
oberkommando
oberla
oberland
oberlandesgericht
oberlauf
oberlausitz
oberleitung
oberleutnant
oberliga
obern
oberndorf
obero
oberpfa
oberpfalz
oberpra
oberrealschule
oberrhein
oberschicht
oberschlesien
oberschule
oberseite
oberst
oberstdorf
oberste
obersten
oberster
oberstleutnant
oberstufe
obgleich
obhut
obige
obigen
obituary
object
objects
objekt
objekte
objekten
objektes
objektiv
objektive
objektiven
objekts
oblag
oblast
obliegt
obmann
oboe
obrigkeit
obschon
observations
observatorium
observatory
observer
obst
obstba
obstbau
obwohl
oc
ocean
och
ochsen
oclc
oct
october
od
ode
odenwald
oder
odessa
odi
odyssee
odysseus
oe
oecd
oel
oesterreich
oesterreichische
oesterreichs
oettingen
of
ofen
off
offen
offenbach
offenbar
offenbart
offenbarung
offenburg
offene
offenem
offenen
offener
offenes
offenheit
offensichtlich
offensive
office
officer
official
officier
officiere
offiziell
offizielle
offiziellen
offizieller
offizielles
offizier
offiziere
offizieren
offiziers
offs
offshore
oficiales
oft
oftmals
og
ognd
oh
oheim
ohio
ohm
ohne
ohnehin
ohnma
ohnmacht
ohr
ohren
oil
ois
oise
ok
okinawa
oklahoma
okres
okt
oktober
oktoberrevolution
okzitanien
okzitanisch
ol
ola
olaf
olav
old
oldenbourg
oldenburg
oldenburger
oldenburgischen
oldid
oldr
oldtimer
ole
oleg
olg
olga
olimpbase
oliveira
oliver
olivia
olivier
olms
olmu
olof
ologe
ologen
ologie
ologisch
ologische
ologischen
ologischer
ologisches
olpe
olsen
olsztyn
olten
olympedia
olympia
olympiamannschaft
olympiasieger
olympiasiegerin
olympiastadion
olympic
olympics
olympique
olympische
olympischen
om
oma
omaha
oman
omar
omega
omnibus
omnium
on
once
one
onkel
onkels
online
only
ono
ons
ontario
ontologe
ontologie
oo
op
opac
ope
opel
open
opening
oper
opera
operation
operationen
operations
operative
operativen
operator
operatoren
operatorname
operette
operiert
opern
opernhaus
opernsa
opfer
opfern
opfers
opinion
opitz
opladen
oppeln
oppenheim
oppenheimer
opposition
optik
optimal
optimale
optimalen
optimierung
option
optional
optionen
optisch
optische
optischen
opus
or
ora
oracle
orakel
oral
orange
orangen
orangerie
oranien
oratorium
orbis
orbit
orchester
orchesters
orchestra
orchideen
ord
ordbok
orden
ordens
ordensgeistlicher
ordensgemeinschaft
ordentlich
ordentliche
ordentlichen
ordentlicher
ordentliches
order
orders
ordinarius
ordnen
ordnet
ordnete
ordnung
ordnungen
ordnungsgema
ordre
ore
oregon
orell
orf
org
organ
organe
organen
organic
organisation
organisationen
organisator
organisatorisch
organisatorische
organisatorischen
organische
organischen
organisieren
organisiert
organisierte
organisierten
organismen
organismus
organist
organisten
organization
orgel
orgelbau
orgelbauer
orgeln
ori
orient
oriental
orientalische
orientalischen
orientalist
orientieren
orientiert
orientierte
orientierten
orientierung
orients
orig
origin
original
originalausgabe
originale
originalen
originals
originaltitel
origine
origins
orion
orla
orlando
orle
orleans
ornithologe
oro
orpheus
ort
orte
ortega
orten
ortenburg
ortes
orth
orthodox
orthodoxe
orthodoxen
orthopa
ortiz
ortograficzny
orts
ortsansa
ortsbeirat
ortsbu
ortschaft
ortschaften
ortsdatenbank
ortsgemeinde
ortsgeschichte
ortsgruppe
ortskern
ortslage
ortslexikon
ortsmitte
ortsname
ortsnamen
ortsrand
ortsregister
ortsteil
ortsteile
ortsteilen
ortsteils
ortsverzeichnis
ortsvorsteher
ortszeit
ortszentrum
os
osaka
osb
osborne
oscar
oscars
oscarverleihung
oskar
oslo
osm
osman
osmanen
osmanische
osmanischen
osmanischer
osnabru
ost
ostafrika
ostantarktischen
ostasien
ostdeutsche
ostdeutschen
ostdeutschland
osten
ostende
ostens
ostern
osterode
osterreich
osteuropa
ostfildern
ostfriesischen
ostfriesland
ostfront
ostindien
ostku
ostnordo
ostpreußen
ostpreußens
ostrand
ostro
ostsee
ostseite
ostsu
ostteil
osttimor
osttimors
ostufer
ostwa
ostwand
oswald
ot
other
others
othmar
otimes
otmar
ots
ott
ottawa
ottilie
otto
ottokar
ottomotor
ottos
ou
ouest
our
out
outdoor
outer
output
outstanding
ouvertu
ov
ova
oval
ovale
ovalen
over
overbeck
overline
overtime
overview
ovice
ovid
owen
owens
own
ox
oxford
oxid
oxidation
oz
ozean
p
pa
paar
paare
paaren
paares
paarung
paarweise
pablo
pabst
pac
pace
pacific
pack
paderborn
paderborner
padro
padua
pag
page
pages
pai
pain
painting
paintings
pair
pak
paket
pakete
pakistan
pakt
pal
pala
palace
palais
palast
palastes
palazzo
palermo
palestine
palette
palgrave
palissy
pallas
palm
palma
palme
palmen
palmer
pamela
pan
panama
panamerikanischen
pandemie
panel
panik
pankow
panorama
pantheon
panther
panthers
panzer
panzerdivision
paola
paolo
papa
pape
paper
papers
papier
papiere
papiermu
pappenheim
papst
papstes
papua
papyrus
par
para
parade
paradies
paradise
paraguay
parallel
parallele
parallelen
paralympics
parameter
paramount
parana
parasiten
parate
parc
parchim
parey
parfu
paris
pariser
parish
parita
park
parkanlage
parkanlagen
parker
parkinson
parkpla
parkplatz
parks
parlament
parlamentarier
parlamentarische
parlamentarischen
parlamentarischer
parlamentarismus
parlaments
parlamentswahl
parlamentswahlen
parliament
parma
parodie
parque
parroquia
pars
parsons
part
parte
partei
parteien
parteifu
parteilos
parteitag
partement
partements
partenkirchen
parti
partial
participle
partido
partie
partien
parties
partikel
partisanen
partitur
partizip
partizipien
partner
partnerin
partnern
partners
partnerschaft
partnerschaften
parts
party
parzellen
pas
pasadena
pascal
pascha
paso
pass
passage
passagen
passagier
passagiere
passagieren
passau
passauer
passe
passen
passend
passende
passenden
passes
passieren
passiert
passierte
passion
passiv
passive
passt
past
pastor
pat
pate
patent
patente
pater
path
pathologie
patient
patienten
patients
patriarch
patriarchen
patrice
patricia
patrick
patrimoine
patrimonialherrschaften
patriot
patrioten
patriotischen
patrizier
patron
patronat
patrone
patrozinium
patterns
patterson
pau
paul
paula
pauli
pauline
paulo
pauls
paulus
pauly
paulys
paus
pausanias
pause
pavel
pavia
pavillon
pavillons
pawel
pax
pay
payne
pays
paz
pazifik
pazifischen
pb
pc
pcs
pd
pdc
pdf
pds
pe
peace
peak
pearl
pearson
pech
pedal
pedersen
pedro
peer
peerage
pegasus
pegel
peggy
pegnitz
peine
peking
pel
pelz
pen
pendant
penguin
penguins
penick
peninsula
penis
penn
pennsylvania
penny
pension
pensionierung
people
per
percussion
percy
pereira
perez
perfect
perfekt
perfekte
performance
perg
pergamon
period
periode
perioden
periodica
peripherie
perkins
perkussion
perl
perle
perlen
perlentaucher
perm
permanent
permanente
perry
pers
perser
persien
persisch
persische
persischen
perso
person
personal
personalunion
personen
personendatensatz
personenlexikon
personennahverkehr
personennamen
personensuche
personenverkehr
personenwagen
personenzu
perspective
perspectives
perspektive
perspektiven
perth
perthes
peru
peruanischen
perugia
pes
pest
pestalozzi
pesth
pet
pete
peter
peters
petersberg
petersburg
petersburger
petersen
peterson
petit
petite
petition
petr
petra
petri
petroleum
petrus
peugeot
pez
pf
pfa
pfad
pfade
pfaff
pfaffenhofen
pfalz
pfalzgraf
pfalzgrafen
pfand
pfarr
pfarramt
pfarrdorf
pfarre
pfarrei
pfarreien
pfarrer
pfarrers
pfarrgemeinde
pfarrhaus
pfarrhof
pfarrkirche
pfarrstelle
pfchen
pfe
pfeffer
pfeife
pfeifen
pfeifer
pfeiffer
pfeil
pfeile
pfeiler
pfeilern
pfel
pfen
pfennig
pfer
pferd
pferde
pferden
pferdes
pfige
pfigen
pfingsten
pfister
pflanze
pflanzen
pflanzenart
pflanzenarten
pflanzengattung
pflanzennamen
pflege
pflegen
pfleger
pflegt
pflegte
pflicht
pflichten
pflu
pflug
pfo
pforte
pforzheim
pfosten
pfru
pft
pfte
pften
pfu
pfund
pfung
pfungen
pfungsho
pg
ph
pha
phane
phantasie
phantastische
phantom
pharao
pharmakologie
pharmazeutische
pharmazie
phase
phasen
phi
phil
philadelphia
philharmonic
philharmonie
philharmoniker
philip
philipp
philippe
philippi
philippine
philippinen
philippinischen
philipps
philips
phillip
phillips
philologe
philologie
philosoph
philosophen
philosophical
philosophie
philosophisch
philosophische
philosophischen
philosophy
pho
phoenix
photo
photographie
photographien
photography
photos
php
phylogenetic
phylogeny
phys
physical
physics
physik
physikalisch
physikalische
physikalischen
physiker
physiologie
physiologische
physiologischen
physische
physischen
pi
pia
piacenza
pianist
pianisten
pianistin
piano
pianoforte
piazza
pic
picard
picasso
pichler
pick
picture
pictures
pie
piece
piemont
pieper
pier
pierce
piero
pierre
piet
pieta
pieter
pietismus
pietro
pike
pilaster
pilatus
pilger
pilot
piloten
pilsen
pilz
pilze
pim
pin
pine
ping
pink
pinneberg
pinto
pinus
pinyin
pio
pioneer
pionier
pioniere
piotr
pipeline
piper
pira
piraten
pirates
pirmasens
pirna
pisa
piste
pistole
pit
pitt
pittsburgh
piu
pius
pixel
piz
pizza
pjotr
pk
pke
pkt
pkw
pl
pla
place
places
plain
plains
plakat
plakate
plakette
plan
planck
plane
planen
planet
planetary
planeten
planma
planning
plans
plant
plantarum
plante
plants
planung
planungen
plasma
plastik
plastiken
plastische
plata
plate
plateau
platform
platin
plato
platon
platons
platt
platte
platten
plattenfirma
plattenlabel
plattenvertrag
plattform
plattformen
platz
platze
platzes
platzieren
platziert
platzierte
platzierung
platzierungen
platzierungskriterien
plauen
play
playboy
player
players
playing
playoff
playoffs
plays
playstation
plaza
plc
please
pleistoza
plin
plinius
plo
plos
plot
plu
plug
plural
plus
plut
plutarch
plymouth
plz
pm
pmatrix
pmc
pmid
pnas
pnv
po
poblacio
pocket
pod
podcast
podest
podestpla
podium
poe
poems
poesie
poet
poeten
poetik
poetische
poetischen
poetry
pohl
point
pointe
points
poitiers
pokal
pokals
pokalsieger
pokalwettbewerb
poke
poker
pokerspieler
pol
poland
polar
pole
polen
polens
poli
police
policy
polis
polish
polit
politbu
political
politics
politik
politiker
politikerin
politikern
politikers
politikwissenschaft
politikwissenschaftler
politique
politisch
politische
politischen
politischer
politisches
polizei
polizeipra
polizeiruf
polizist
polizisten
polka
poll
pollen
poln
polnisch
polnische
polnischen
polnischer
polnisches
polo
polska
polski
polskiego
polydor
polynom
polytechnischen
pommern
pommersche
pommerschen
pompeius
pond
pons
pont
ponte
pool
poor
pop
pope
popmusik
popp
popsa
popula
popular
popularita
population
populationen
por
pornodarstellerin
porsche
port
porta
portal
portale
porte
porter
portfolio
portland
porto
portra
portrait
portraits
portsmouth
portugal
portugals
portugiesen
portugiesisch
portugiesische
portugiesischen
portugiesischer
portuguesa
porzellan
pos
posaune
poseidon
posen
position
positionen
positioniert
positiv
positive
positiven
positiver
positives
positivs
posse
possible
post
postamt
posten
posthum
postum
postzugeho
pot
potential
potentielle
potenz
potenzial
potok
potosi
potsdam
potsdamer
potter
pour
powell
power
powers
powiat
poz
poznan
pp
ppchen
ppel
ppen
pper
ppingen
pr
pra
pracht
practice
pradesh
prag
prager
praha
prairie
praktiken
praktikum
praktisch
praktische
praktischen
praktischer
praktizieren
praktiziert
praktizierte
pratt
praxis
pre
predigen
prediger
predigt
predigten
preis
preise
preisen
preises
preisgekro
preisgeld
preistra
preisverleihung
preliminary
premie
premier
premiere
premierminister
premierministers
premio
premium
prenzlauer
pres
present
presents
president
presidential
presley
press
presse
presseamt
pressearchiven
pressekonferenz
pressemeldung
pressemitteilung
presseportal
pressure
prestel
prestige
preston
pretoria
pretty
preussen
preussischen
preuß
preußen
preußens
preußisch
preußische
preußischen
preußischer
preußisches
preßburg
pri
price
pride
priester
priestern
priesters
priesterseminar
priesterweihe
prignitz
prima
primary
prime
primera
primetime
primo
primus
primzahl
primzahlen
prince
princess
princeton
principal
principles
print
printing
prinz
prinzen
prinzessin
prinzip
prinzipiell
prinzipien
prior
priorita
prisma
prison
privat
privatbesitz
privatdozent
private
privaten
privater
privates
privatisierung
privatleben
privatpersonen
privatrecht
privatschule
privileg
privilegien
prix
prize
pro
probe
proben
problem
problematik
problematisch
probleme
problemen
problemlos
problems
probst
proc
proceedings
process
processes
processing
procyclingstats
prod
producer
product
production
productions
products
produkt
produkte
produkten
produktion
produktionen
produktionsfirma
produktionssta
produktivita
produzent
produzenten
produzentin
produzieren
produziert
produzierte
produzierten
prof
professional
professionell
professionelle
professionellen
professioneller
professor
professoren
professorin
professors
professur
profi
profikarriere
profil
profile
profimannschaft
profis
profit
profitieren
profitierte
profivertrag
prognose
program
programm
programme
programmen
programmierer
programmiersprache
programmierung
programming
programms
progress
progression
progressive
project
projects
projekt
projekte
projekten
projektes
projektion
projekts
prokop
prolog
promenade
prometheus
prominente
prominenten
promotion
promoviert
promovierte
proof
propaganda
propeller
properties
property
prophet
propheten
proportional
propst
propstei
propulsion
propyla
prosa
prosieben
prospekt
prostituierte
prostitution
protagonist
protagonisten
protected
protection
protein
proteine
proteinen
protektorat
protest
protestanten
protestantisch
protestantische
protestantischen
protestantismus
proteste
protesten
protocol
protokoll
protokolle
prototyp
prototypen
provence
providence
province
provincia
provincial
provinz
provinzen
provinzhauptstadt
provinzial
provisorisch
provisorische
provisorischen
prozent
prozess
prozesse
prozessen
prozesses
prozession
prozessor
prozessoren
prozeß
pru
ps
psa
psalm
psalmen
pseudo
pseudonym
psi
pste
pstliche
pstlichen
pstlicher
psv
psyche
psychiater
psychiatrie
psychiatrische
psychiatrischen
psychisch
psychische
psychischen
psycho
psychoanalyse
psychologe
psychologen
psychological
psychologie
psychologische
psychologischen
psychology
psychotherapie
pt
ptolema
ptolemaios
pts
pu
pub
publ
public
publication
publications
publicum
publikation
publikationen
publikum
publikums
publikumspreis
publique
published
publisher
publishers
publishing
publius
publiziert
publizierte
publizierten
publizist
publizistik
pueblo
puerto
pulitzer
puls
pulver
pumpe
pumpen
punk
punkt
punkte
punkten
punktera
punta
puppe
puppen
pur
pure
purple
pustet
put
putin
putsch
putz
puy
pwn
py
pyeongchang
pyramide
pyramiden
pyre
pyrena
pyrmont
python
q
qa
qi
qing
qquad
qu
qua
quad
quadrat
quadratische
quadratischen
quadratkilometer
quadratkilometern
quadratmeter
quadratmetern
quae
qual
qualifikant
qualifikation
qualifikationsrunde
qualifikationsspiel
qualifizieren
qualifiziert
qualifizierte
qualifizierten
qualifying
qualita
qualitativ
quality
quam
quantitative
quantum
quaranta
quarta
quartal
quarterback
quarterly
quartet
quartett
quartier
quarz
quasi
que
quebec
quechua
quecksilber
quedlinburg
queen
queens
queensland
queer
quell
quelle
quellen
quellgebiet
quelltext
quentin
quer
querschiff
querschnitt
quert
quest
question
questions
qui
quick
quincy
quinn
quintett
quintus
quipe
quito
quivalent
quo
quod
quote
quotenmeter
r
ra
raab
raabe
rabbi
rabbiner
rabe
raben
rac
race
rache
rachel
racing
rad
rada
radar
radebeul
rademacher
radfahren
radfahrer
radiation
radical
radierer
radierungen
radikal
radikale
radikalen
radio
radiosender
radius
radrennfahrer
radsport
radsportler
radsportseiten
radstand
radweg
rae
raf
rafael
rage
ragen
ragt
rahel
rahman
rahmen
rahmenbedingungen
rai
raiders
raiffeisenbank
rail
railroad
railway
railways
raimund
rain
rainbow
rainer
rajon
rajons
rakademie
rakete
raketen
ral
rale
ralf
rallye
ralph
ram
rama
rami
ramo
ramon
ramos
rampe
ramsay
ran
ranch
rand
randall
rande
randolph
random
randy
rang
range
ranger
rangers
ranges
rangle
rangliste
ranke
ranking
rankings
ranlage
raoul
rap
raphael
rapid
rapide
rapids
rapp
rapper
rapperswil
rar
rard
rare
ras
rasch
rasche
raschen
rascher
rasen
rasmussen
rasse
rassen
rassismus
rast
rastatt
rat
rate
rates
ratgeber
rath
rathaus
rathauses
rathe
rating
ratings
ratio
ration
rational
rationale
rationalen
rats
ratsherr
ratten
ratzeburg
rau
raub
rauch
rauchen
rauh
rauhen
raum
raumes
raumfahrt
raumgruppe
raums
raumschiff
raumstation
raupen
raus
rausch
rauschen
raven
ravenna
ravensburg
raw
ray
raymond
rb
rbar
rbb
rbe
rbeispiele
rbel
rben
rber
rbt
rbte
rbten
rbuch
rbung
rburgring
rc
rca
rchen
rcher
rchte
rchten
rchtet
rchtete
rchteten
rd
rde
rden
rdenla
rdenlauf
rdentra
rder
rderer
rdern
rderpreis
rdert
rderte
rderten
rderung
rderverein
rdienst
rdig
rdige
rdigen
rdiger
rdiges
rdigkeit
rdigkeiten
rdigsten
rdigt
rdigte
rdigung
rdlich
rdliche
rdlichen
rdlicher
rdlichste
rdlingen
rdoba
re
rea
reaction
read
reader
reading
ready
reagan
reagieren
reagiert
reagierte
reaktion
reaktionen
reaktor
real
reale
realen
realencyclopa
realgymnasium
realisieren
realisiert
realisierte
realisierung
realismus
realita
reality
reallexikon
really
realschule
reason
rebecca
rebel
rebell
rebellen
rebellion
reben
rebounds
rebsorte
rebsorten
rec
recent
rech
rechberg
recherche
recherchen
recherches
rechnen
rechner
rechnet
rechnete
rechnung
rechnungen
recht
rechte
rechteckige
rechteckigen
rechten
rechter
rechtes
rechtfertigen
rechtfertigung
rechtlich
rechtliche
rechtlichen
rechtma
rechts
rechtsanwa
rechtsanwalt
rechtschreibung
rechtsextreme
rechtsextremen
rechtsextremismus
rechtsform
rechtsgeschichte
rechtskra
rechtsprechung
rechtssammlung
rechtsstreit
rechtsverbindliche
rechtswissenschaft
rechtswissenschaften
rechtswissenschaftler
rechtzeitig
reck
recklinghausen
reclam
reclams
record
recording
recordings
records
rector
recycling
red
redaction
redakteur
redakteurin
redaktion
rede
reden
redensarten
redet
redete
redewendungen
redlich
redner
reduktion
reduzieren
reduziert
reduzierte
reduzierten
reduzierung
reed
reeder
reederei
reelle
reellen
rees
reeves
ref
referat
reference
referendum
referent
referenz
referenzen
reflektiert
reflexion
reflexionen
reform
reformation
reformator
reformen
reformiert
reformierte
reformierten
reformierter
refrain
reg
regal
rege
regel
regelfall
regelma
regeln
regelt
regelte
regelung
regelungen
regelwerk
regen
regenbogen
regenfa
regensburg
regensburger
regent
regenten
regentschaft
regenwald
regenzeit
reger
regesta
regesten
reggae
reggio
regia
regie
regieren
regierende
regierenden
regiert
regierte
regierung
regierungen
regierungs
regierungsbezirk
regierungsbezirke
regierungsbezirken
regierungsbezirks
regierungsblatt
regierungschef
regierungspra
regierungsrat
regierungszeit
regime
regiment
regimente
regimenter
regiments
regimes
regina
reginald
regine
regio
region
regional
regionale
regionalen
regionaler
regionalgeschichte
regionalliga
regionalligisten
regionalverkehr
regionen
regis
regisseur
regisseure
regisseuren
regisseurin
regisseurs
register
registern
registriert
registrierte
registrierung
reglement
regte
regula
regular
regulation
regulierung
rehabilitation
rei
reich
reichardt
reiche
reichel
reichen
reichenau
reichenbach
reichenberg
reichenhall
reicher
reichert
reiches
reichlich
reichs
reichsbahn
reichsfu
reichskanzler
reichsmark
reichspra
reichssta
reichsstadt
reichsstraße
reichstag
reichstage
reichstages
reichstags
reichstagsabgeordneten
reichstagswahlen
reichsten
reichswehr
reicht
reichte
reichten
reichthum
reichtum
reichweite
reid
reif
reife
reifen
reifepru
reign
reihe
reihen
reihenfolge
reilly
reimann
reime
reimer
reims
rein
reinbek
reine
reinen
reiner
reines
reinhard
reinhardt
reinhart
reinheit
reinhold
reinigen
reinigung
reis
reise
reisefu
reisen
reisende
reisenden
reist
reiste
reisten
reit
reiten
reiter
reitern
reiz
reize
reißen
reißt
rekonstruieren
rekonstruiert
rekonstruktion
rekord
rekorde
rektor
related
relation
relations
relationship
relationships
relativ
relative
relativen
relativita
release
released
releases
relegation
relevant
relevante
relevanten
relevanz
relief
reliefs
religio
religion
religionen
religions
religionsunterricht
religious
reliquien
rem
remake
remanie
rembrandt
remember
remis
remix
remscheid
ren
renaissance
renate
renato
renault
rend
rende
renden
rendsburg
rene
rener
rennen
rennens
renner
rennes
rennfahrer
rennserie
rennstrecke
rennwagen
renommierte
renommierten
renoviert
renovierung
renreiter
rente
renten
renz
reorganisation
rep
reparatur
reparaturen
repariert
repertoire
repertorium
report
reportage
reportagen
reporter
reports
repra
reprint
reptilien
repu
repubblica
republic
republican
republik
republikaner
republikanische
republikanischen
requiem
rer
rern
rers
rerum
res
rescue
research
researchgate
reservat
reservation
reserve
reserviert
reservoir
residence
resident
residenz
residenzstadt
residierte
resistance
resolution
resonanz
resort
resource
resources
resp
respekt
respektive
response
ressort
ressource
ressourcen
ressources
rest
restaurant
restaurants
restauration
restauriert
restaurierte
restaurierung
reste
resten
restliche
restlichen
resu
result
resultantes
resultat
resultate
resultierende
resultierenden
resultiert
results
ret
retired
retrospektive
retten
retter
rettet
rettete
rettung
return
returns
reue
reunion
reuter
reuters
reutlingen
reuß
rev
reval
revealed
reveals
revenge
revier
review
reviews
revised
revisio
revision
revisited
revista
revival
revolte
revolution
revolutiona
revolver
revue
rex
rey
reyes
reykjavi
reynolds
rez
reza
rezension
rezensionen
rezept
rezepte
rezeption
rezeptor
rezeptoren
rf
rfc
rfe
rfel
rfen
rfer
rfern
rfnis
rfnisse
rfnissen
rfniß
rft
rfte
rften
rftig
rftige
rftigen
rfung
rfunk
rg
rge
rgen
rgens
rger
rgerhaus
rgerinitiative
rgerkrieg
rgerkrieges
rgerkriegs
rgerlich
rgerliche
rgerlichen
rgerlicher
rgerliches
rgermeister
rgermeisterei
rgermeisterin
rgermeisters
rgermeisterwahl
rgermeisterwahlen
rgern
rgerrecht
rgers
rgerschaft
rgerschule
rgert
rgertum
rgerung
rgeschichte
rgt
rgy
rh
rhein
rheine
rheinfelden
rheingau
rheinhessen
rheinisch
rheinische
rheinischen
rheinisches
rheinland
rheinlande
rheinpfalz
rheinprovinz
rheins
rhetorik
rhin
rho
rhode
rhodes
rhodos
rhythm
rhythmus
ri
ria
rias
ric
rica
ricardo
riccardo
rice
rich
richard
richards
richardson
richie
richmond
richten
richter
richterin
richtern
richters
richtet
richtete
richteten
richtig
richtige
richtigen
richtiger
richtigkeit
richtlinie
richtlinien
richtung
richtungen
rick
ricky
rico
ride
rider
ridge
rie
ried
riedel
rief
riefen
riegel
rieger
riemann
rien
ries
riesa
riese
riesen
riesenslalom
riesige
riesigen
riet
rieure
riff
rig
riga
rige
rigen
riger
right
rightarrow
rights
rigkeit
rigkeitskategorie
riley
rilke
rime
rin
rind
rinde
rinder
ring
ringe
ringen
ringens
ringer
ringfo
ringische
ringischen
ringmauer
ringo
rings
ringsum
rinne
rinteln
rio
riot
rippen
ris
risch
rische
rischen
rischer
risches
rise
risiken
risiko
rising
risk
riss
risse
rissen
rita
rite
ritt
ritter
rittergu
rittergut
rittergutsbesitzer
ritterkreuz
rittern
ritters
ritterschaft
rittmeister
ritual
rituale
ritus
ritz
riva
rivalen
rivalita
river
rivera
rivers
rivie
riviera
riß
rk
rke
rkei
rken
rker
rkere
rkeren
rkheim
rki
rkisch
rkische
rkischen
rkischer
rkisches
rkiye
rkste
rksten
rkt
rkte
rkten
rkung
rl
rlag
rlich
rliche
rlichen
rlicher
rliches
rlitz
rlitzer
rm
rmann
rmchen
rme
rmen
rmer
rmeren
rmern
rmig
rmige
rmigen
rmiger
rmiges
rmlich
rmlichen
rmsten
rmt
rmte
rmten
rmung
rn
rna
rnberg
rnberger
rnchen
rne
rner
rnern
rnten
rntner
ro
road
roadster
rob
robbie
robert
roberto
roberts
robertson
robin
robinson
roboter
rocca
rocco
roche
rochester
rochus
rock
rockband
rockefeller
rocket
rockmusik
rocks
rocky
rod
roda
rode
rodney
rodolfo
rodri
rodrigo
rodrigues
rodriguez
rogeba
roger
rogers
roggen
roh
rohan
rohde
rohe
rohen
rohr
rohrbach
rohre
rohstoffe
roi
rokoko
roland
role
rolf
roll
rolle
rollen
rollenspiel
roller
rolling
rolls
rollstuhl
rom
roma
romagna
romain
roman
romana
romance
romane
romanen
romani
romanik
romanische
romanischen
romanist
romanistik
romano
romanorum
romans
romantik
romantische
romantischen
romanze
rome
romeo
romero
rommel
roms
romy
ron
ronald
ronnie
ronny
rookie
room
roosevelt
root
roots
ros
rosa
rosario
roscher
rose
rosemarie
rosen
rosenberg
rosengarten
rosenheim
rosenkranz
rosenthal
roses
ross
rossi
rossini
rost
rostock
rostocker
rostow
rot
rotation
rotbraun
rote
rotem
roten
rotenburg
roter
rotes
roth
rothe
rothen
rothenburg
rother
rothschild
rott
rotten
rottenburg
rotterdam
rottweil
rouen
rouge
rough
round
rousseau
route
routen
routledge
rover
rovers
row
rowohlt
roy
royal
royale
royce
roß
rp
rper
rpergewicht
rpergro
rperla
rperlich
rperliche
rperlichen
rperlicher
rpern
rpers
rperschaft
rperschaften
rpert
rperte
rr
rrach
rre
rregierung
rrez
rruff
rs
rsche
rschner
rschners
rse
rsen
rsorge
rspiel
rspiele
rsssf
rst
rstbischo
rstbischof
rste
rsten
rstenberg
rstenfeldbruck
rstenthum
rstentu
rstentum
rstentums
rster
rsterei
rstin
rstl
rstlich
rstliche
rstlichen
rt
rtchen
rte
rtel
rtels
rten
rter
rterbu
rterbuch
rterlexikon
rtern
rtert
rth
rther
rtig
rtige
rtigen
rtiger
rtiges
rtl
rtlich
rtliche
rtlichen
rtlicher
rtlichkeit
rtner
rtnerei
rts
rtsga
rtsgang
rtsspiel
rttemberg
rttembergische
rttembergischen
rttembergischer
rttembergs
rtyrer
ru
ruanda
rubel
ruben
rubens
rubin
rubrik
ruby
ruc
ruder
ruderer
ruderin
rudern
rudi
rudolf
rudolph
rudolstadt
rue
ruf
rufe
rufen
ruft
rufus
rugby
ruh
ruhe
ruhen
ruhesta
ruhestand
ruhig
ruhige
ruhigen
ruhiger
ruhm
ruhr
ruhrgebiet
ruht
ruhte
ruine
ruinen
ruisseau
ruiz
rule
rulers
rules
rum
ruma
rumpf
run
rund
rundbogenfenster
runde
runden
runder
rundfahrt
rundfunk
rundfunks
rundgang
rundschau
rundweg
runeberg
rung
runge
rungen
rungs
runner
running
runs
rupert
ruppin
ruprecht
rural
ruralgemeinde
rus
rush
russ
russe
russell
russen
russia
russian
russisch
russische
russischen
russischer
russisches
russland
russlands
rust
ruta
ruth
rutherford
rußland
rv
rverlag
rvi
rwe
rworter
rwortete
rwth
ry
ryan
ryo
ryu
rz
rzburg
rzburger
rze
rzel
rzen
rzer
rzere
rzeren
rzeste
rzester
rzlich
rzt
rzte
rzteblatt
rztekammer
rzten
rztin
rztliche
rztlichen
rztlicher
rzung
rzungen
s
sa
saal
saalbau
saale
saalfeld
saalkirche
saar
saarbru
saarla
saarland
saarlandes
saarlouis
saat
saba
sabah
sabina
sabine
sabrina
sac
sach
sachbegriff
sachbu
sachbuch
sachbuchautor
sache
sachen
sachs
sachsen
sachsenhausen
sachsens
sachverhalt
sachversta
sack
sacra
sacramento
sacred
sad
sae
safe
safety
saft
sag
saga
sagan
sage
sagen
sagt
sagte
sagten
sah
sahara
sahen
sai
said
sailer
saint
sainte
saints
saison
saisonbeginn
saisonende
saisons
saite
saiten
sakralbauten
sakrament
sakristei
sal
sala
salamanca
sale
salem
salerno
sales
saline
salisbury
salle
sally
salm
salome
salomo
salomon
salon
salons
salt
salvador
salvator
salvatore
salz
salzburg
salzburger
salze
salzgitter
salzwedel
sam
samantha
sambia
same
samen
sammelband
sammeln
sammelt
sammelte
sammelten
sammler
sammlung
sammlungen
sammt
sammy
samoa
sampler
samson
samstag
samstags
samsung
samt
samtgemeinde
samuel
samurai
san
sanatorium
sancti
sand
sande
sander
sanders
sandigen
sandra
sandro
sands
sandstein
sandte
sandy
sanft
sanfte
sanften
sang
sangen
saniert
sanierung
sanita
sank
sankt
sanktionen
sans
sanskrit
sant
santa
santana
sante
santi
santiago
santo
santos
sao
saol
sap
sapporo
sar
sara
saragossa
sarah
sarajevo
sardinien
sarg
sars
sas
sascha
saskatchewan
sat
satan
satellit
satellite
satelliten
satire
sato
satt
sattel
satteldach
sattler
saturday
saturn
satz
satzes
satzung
sau
sauber
sauce
saudi
sauer
sauerla
sauerland
sauerstoff
saul
saunders
saur
sauren
sauter
savage
save
savigny
savoie
savoy
savoyen
saw
sax
saxon
saxonia
saxophon
saxophonist
say
sayn
says
saß
saßen
saɪ
sb
sbb
sbz
sc
scala
scale
scan
scar
scarecrow
scene
scenen
sch
scha
schaar
schach
schachspieler
schacht
schade
schaden
schaefer
schaf
schafe
schafen
schaffen
schaffens
schaffhausen
schafft
schaffte
schafften
schaffung
schaft
schah
schale
schalen
schalke
schall
schaller
schallplatte
schallplatten
schalter
schaltung
scham
schande
schanze
schar
scharf
scharfe
scharfen
scharfer
scharfschu
schatten
schatz
schatzmeister
schau
schauen
schauer
schaumburg
schauplatz
schauspiel
schauspielausbildung
schauspieler
schauspielerei
schauspielerin
schauspielern
schauspielers
schauspielhaus
schauspielschule
schaut
schaute
sche
scheel
scheer
scheffel
scheibe
scheiben
scheich
scheiden
scheidet
scheidung
schein
scheinbar
scheinbare
scheine
scheinen
scheint
scheinwerfer
scheitel
scheitern
scheitert
scheiterte
scheiterten
schel
schellenberg
schema
schen
schenk
schenke
schenkel
schenken
schenkt
schenkte
schenkung
schenkungen
scher
scherben
scherer
scherz
sches
scheu
scheune
schicht
schichten
schick
schicken
schicksal
schicksale
schicksals
schickt
schickte
schickten
schieben
schied
schieden
schiedsrichter
schief
schiefer
schien
schiene
schienen
schier
schießen
schießt
schiff
schiffbau
schiffbru
schiffe
schiffen
schiffer
schiffes
schifffahrt
schiffs
schild
schilddru
schilde
schilder
schildern
schildert
schilderte
schilderung
schilderungen
schildkro
schiller
schillers
schilling
schimmel
schimmer
schindler
schinkel
schirm
schirmer
schirmherrschaft
schla
schlacht
schlachten
schlachtfeld
schlaf
schlafen
schlafzimmer
schlag
schlaganfall
schlage
schlagen
schlager
schlagersa
schlagzeilen
schlagzeug
schlagzeuger
schlamm
schlange
schlangen
schlank
schlanke
schlanken
schlecht
schlechte
schlechtem
schlechten
schlechter
schlechtes
schlechteste
schlechtesten
schlegel
schleicher
schleier
schleife
schleifen
schlepper
schlesien
schlesiens
schlesinger
schlesische
schlesischen
schleswig
schleuse
schleusen
schlicht
schlichte
schlichten
schlichter
schlief
schliesslich
schließen
schließlich
schließt
schließung
schlimm
schlimmer
schlimmsten
schlitten
schlo
schloss
schlosse
schlossen
schlosser
schlosses
schlosskapelle
schlosskirche
schlosspark
schloß
schlu
schlucht
schluchten
schlug
schlugen
schluss
schlusse
schlussendlich
schluß
schma
schmal
schmale
schmalen
schmaler
schmalkalden
schmalspurbahn
schmeckt
schmerz
schmerzen
schmetterling
schmetterlinge
schmid
schmidt
schmied
schmiede
schmitt
schmitz
schmo
schmu
schmuck
schmutz
schna
schnabel
schnauze
schnecken
schnee
schneeberg
schneide
schneiden
schneider
schneidet
schnell
schnelle
schnellen
schneller
schnelles
schnelligkeit
schnellste
schnellsten
schnellstraße
schnitt
schnittpunkt
schnittstelle
schnittstellen
schnitzler
schno
schnu
schnur
scho
schob
schock
schokolade
schol
scholar
scholl
scholz
schon
schonen
school
schools
schorndorf
schornstein
schoss
schott
schotten
schottische
schottischen
schottischer
schottland
schoß
schra
schrader
schramm
schrank
schranke
schranken
schrauben
schreck
schrecken
schrecklich
schreckliche
schrecklichen
schrei
schreibe
schreiben
schreiber
schreibt
schreibtisch
schreibung
schreibweise
schreibweisen
schreien
schrein
schreiner
schrie
schrieb
schrieben
schrift
schriften
schriftenreihe
schriftfu
schriftlich
schriftliche
schriftlichen
schriftsteller
schriftstellerin
schriftstellern
schriftstellers
schriftstu
schriftzeichen
schriftzug
schritt
schritte
schritten
schrittweise
schro
schroeder
schroll
scht
schu
schub
schubert
schuf
schufen
schuh
schuhe
schuhmacher
schul
schulabschluss
schulausbildung
schulbesuch
schulbildung
schuld
schulden
schuldig
schuldner
schule
schulen
schulenburg
schuler
schulgeba
schulhaus
schulische
schulischen
schuljahr
schulleiter
schulmeister
schulte
schulter
schultern
schultheiß
schultz
schultze
schulung
schulwesen
schulz
schulze
schulzeit
schumacher
schumann
schung
schuppen
schuss
schuster
schutt
schutz
schutze
schutzgebiet
schutzgebiete
schutzhu
schutzpatron
schuß
schwa
schwab
schwabach
schwabe
schwaben
schwach
schwache
schwachen
schwager
schwalm
schwamm
schwan
schwandorf
schwanger
schwangerschaft
schwanken
schwankt
schwankungen
schwann
schwanz
schwartz
schwarz
schwarzach
schwarzburg
schwarze
schwarzem
schwarzen
schwarzenberg
schwarzer
schwarzes
schwarzkopf
schwarzwa
schwarzwald
schwebt
schweden
schwedens
schwedisch
schwedische
schwedischen
schwedischer
schwefel
schwefelsa
schweidnitz
schweigen
schweigend
schwein
schweine
schweinfurt
schweitzer
schweiz
schweizer
schweizerisch
schweizerische
schweizerischen
schweizerischer
schweizerisches
schweiß
schwelle
schwenningen
schwer
schwere
schwerem
schweren
schwerer
schweres
schwergewicht
schwerin
schweriner
schwerlich
schwerpunkt
schwerpunkte
schwerpunkten
schwerste
schwersten
schwert
schwerte
schwerter
schwertern
schwester
schwestern
schwieg
schwiegermutter
schwiegersohn
schwiegervater
schwierig
schwierige
schwierigen
schwieriger
schwierigkeit
schwierigkeiten
schwimmbad
schwimmen
schwimmer
schwimmerin
schwindel
schwingen
schwingungen
schwo
schwu
schwung
schwyz
sci
science
sciences
scientific
scientist
score
scorerpunkte
scotia
scotland
scott
scottish
scout
screen
script
scriptorum
sculpture
sd
se
sea
seal
seals
sean
search
season
seat
seattle
sebastia
sebastian
sec
secession
sechs
sechsja
sechsmal
sechste
sechsten
sechster
sechszylinder
sechzehn
sechzig
sechziger
second
secret
secreta
secretary
secrets
section
security
sed
sedan
sedimente
seds
see
seebach
seebold
seefahrer
seefahrt
seefeld
seeland
seele
seelen
seeleute
seelsorge
seelsorger
seemann
seemeilen
seen
seenplatte
sees
seeschlacht
sega
segeberg
segel
segeln
segen
segler
segment
segmente
segunda
seh
sehe
sehen
sehenswert
sehenswu
sehnsucht
sehr
seht
sei
seid
seide
seidel
seidl
seien
seifert
seigneur
seil
seilbahn
seiler
sein
seine
seinem
seinen
seiner
seinerseits
seinerzeit
seines
seinigen
seins
seit
seitdem
seite
seiten
seitenalta
seitenaltar
seitenflu
seitens
seitenschiff
seitenschiffe
seitenwa
seither
seitlich
seitliche
seitlichen
seitwa
seitz
sejm
sek
sekreta
sekretariat
sekte
sektion
sektionen
sektor
sekunda
sekundarstufe
sekunde
sekunden
sel
selben
selber
selbst
selbsta
selbstbestimmung
selbstkontrolle
selbstmord
selbststa
selbstverlag
selbstversta
selbstverwaltung
select
selected
selection
self
selig
seligen
seligkeit
seligman
sell
selma
selten
seltene
seltenen
seltener
seltenheit
seltsam
seltsame
seltsamen
sem
semester
semi
seminar
seminare
seminars
sen
senat
senate
senator
senatoren
senators
senats
senatsverwaltung
send
sende
senden
sender
sendereihe
senders
sendet
sendete
sendung
sendungen
seneca
senegal
sener
senftenberg
senior
senioren
senke
senken
senkrecht
senkrechten
senkung
sens
sensation
sense
sensor
sensoren
sent
sentant
sentanten
sentantenhaus
sentantenhauses
sentation
sentative
sentativen
sentieren
sentiert
sentierte
sentierten
senz
seoul
sep
separat
separate
separaten
sepp
sept
september
sequence
sequenz
sequenzen
ser
sera
serben
serbien
serbisch
serbische
serbischen
serbischer
serge
sergeant
sergei
sergej
sergejewitsch
sergio
serie
serien
serienma
serienmo
series
sern
serra
server
service
services
serviert
ses
sessel
session
sessions
set
seth
setminus
sets
settlement
setze
setzen
setzt
setzte
setzten
seu
seuche
seven
severin
severus
sevilla
sex
sexual
sexualita
sexuell
sexuelle
sexuellen
sexueller
sey
seymour
seyn
sezession
sf
sfb
sg
sgb
sh
sha
shadow
shadows
shah
shakespeare
shakespeares
shall
shan
shane
shanghai
shannon
shape
share
sharks
sharon
sharp
shaw
she
sheet
sheffield
sheila
shell
shelley
shepherd
sheriff
sherlock
sherman
shi
shield
shift
shin
ship
shipping
ships
shire
shirley
sho
shooting
shop
shopping
shore
short
shot
should
show
shows
shu
shuttle
si
sia
siam
sibirien
sibylle
sic
sica
sich
sicher
sichere
sicheren
sicherer
sichergestellt
sicherheit
sicherheitsgru
sicherheitskra
sicherheitspolitik
sicherlich
sichern
sicherstellen
sichert
sicherte
sicherten
sicherung
sicherzustellen
sicht
sichtbar
sichtbare
sichtbaren
sichtlich
sichtweise
sichuan
sick
sid
side
sident
sidenten
sidentin
sidentschaft
sidentschaftswahl
sidentschaftswahlen
sidium
sidiums
sidney
sie
siebeck
sieben
siebenbu
siebenja
siebenmal
siebenten
sieber
siebert
siebte
siebten
siebter
siebzehn
siebziger
siedelte
siedelten
siedler
siedlern
siedlung
siedlungen
siedlungsgebiet
sieg
siegbert
siegburg
siege
siegel
siegen
sieger
siegerin
sieges
siegfried
siegmund
siegreich
siegreichen
siegt
siegte
siegten
siegtore
sieh
siehe
siehst
sieht
siemens
siena
sier
sierra
sievers
sig
sigismund
sigma
sigmaringen
sigmund
sign
signal
signale
signatur
signifikant
signifikante
signs
sigrid
sigurd
sil
silbe
silben
silber
silbermedaille
silberne
silbernen
silberner
silbernes
silence
silent
silke
silva
silver
silvester
silvia
silvio
sim
sima
simbabwe
simbad
simmons
simo
simon
simone
simons
simple
simplicissimus
simpson
simpsons
sims
simulation
sin
sina
sinai
since
sinclair
sind
sine
sinfonie
sinfonien
sinfonieorchester
sing
singapore
singapur
singen
singer
singh
single
singlecharts
singles
singstimme
singt
singular
sinken
sinkt
sinn
sinne
sinnen
sinngema
sinnverwandte
sinnvoll
sint
sinti
sinus
sio
sion
sioux
sir
sire
sis
sisch
sische
sischen
sischer
sisches
sistance
sister
sisters
sit
sitcom
site
sites
sitte
sitten
sittlichen
situation
situationen
sitz
sitze
sitzen
sitzend
sitzende
sitzenden
sitzpla
sitzt
sitzung
sitzungen
sitzungsberichte
sitzverteilung
sive
six
sixtus
size
sizilien
sj
sjo
sk
ska
skala
skandal
skandinavien
skandinavischen
ske
skeleton
skelett
skeptisch
sketch
ski
skie
skigebiet
skilangla
skilanglauf
skin
skirennla
skispringen
skispringer
skiverbands
skiweltmeisterschaften
skizze
skizzen
sklaven
sklaverei
sko
skopje
skript
skulptur
skulpturen
sky
sl
sla
slalom
slam
slave
slawen
slawische
slawischen
sleep
sler
slich
slin
sloan
slogan
slovni
slow
slowakei
slowaken
slowakisch
slowakische
slowakischen
slowakischer
slowenien
slowenisch
slowenische
slowenischen
slowenischer
slub
sm
sma
small
smart
smartphone
smartphones
smith
smithsonian
sms
sn
snake
snooker
snow
snowboard
so
soap
sobald
sobre
soc
soccer
soccerway
social
sociale
socie
societa
society
sockel
sodann
sodass
sodaß
soeben
soest
sofern
sofia
sofort
sofortige
sofortigen
soft
software
sog
sogar
sogen
sogenannte
sogenannten
sogenannter
sogenanntes
sogleich
sogn
sohle
sohn
sohne
sohnes
sojus
soko
sokrates
sol
solange
solar
solch
solche
solchem
solchen
solcher
solches
sold
soldat
soldaten
soldier
sole
soli
solid
solidarita
solide
solingen
solist
solisten
soll
solle
sollen
sollst
sollt
sollte
sollten
solms
solo
soloalbum
solomon
solothurn
soltau
solution
solutions
som
somalia
some
somerset
something
somit
somme
sommer
sommermonaten
sommers
sommersemester
sommerspiele
sommerspielen
son
sonata
sonate
sonaten
sonde
sonder
sonderausgabe
sonderausstellung
sonderburg
sonderheft
sonderlich
sondern
sonderpreis
sondershausen
song
songs
songwriter
songwriterin
sonic
sonja
sonn
sonne
sonneberg
sonnen
sonnenlicht
sonnenschein
sonnenuntergang
sonntag
sonntags
sonny
sons
sonst
sonstige
sonstigen
sonstiges
sony
sophia
sophie
sopran
sopranistin
sorbonne
sorge
sorgen
sorgfa
sorgfalt
sorgt
sorgte
sorgten
sorte
sorten
sortiert
sortiment
sos
sotschi
soul
sound
sounds
soundtrack
source
sources
sous
sousa
south
southampton
southeast
southern
southwest
souvera
souza
soviel
soviet
soweit
sowie
sowjetisch
sowjetische
sowjetischen
sowjetischer
sowjets
sowjetunion
sowohl
sozial
sozialdaten
sozialdemokraten
sozialdemokratie
sozialdemokratische
sozialdemokratischen
soziale
sozialen
sozialer
soziales
sozialforschung
sozialgeschichte
sozialismus
sozialisten
sozialistische
sozialistischen
sozialpa
sozialpolitik
sozialwissenschaften
soziologe
soziologie
soziologische
sozusagen
sp
spa
space
spaces
spain
spalt
spalte
spalten
spaltete
spaltung
span
spandau
spanien
spaniens
spanier
spanisch
spanische
spanischen
spanischer
spanish
spannung
spannungen
spannungsfeld
spannweite
spar
sparen
sparkasse
sparkassen
sparta
spartak
sparte
spatenstich
spazierga
spaziergang
spaß
spd
spe
speaker
specht
special
species
speck
spectrum
speech
speed
speedway
speer
speicher
[...]
