!
"
#
##a
##aa
##ab
##ac
##ad
##ae
##af
##ag
##ah
##ai
##aj
##ak
##al
##am
##an
##ao
##ap
##aq
##ar
##as
##at
##au
##av
##aw
##ax
##ay
##az
##b
##ba
##bb
##bc
##bd
##be
##bf
##bg
##bh
##bi
##bj
##bk
##bl
##bm
##bn
##bo
##bp
##bq
##br
##bs
##bt
##bu
##bv
##bw
##bx
##by
##bz
##c
##ca
##cb
##cc
##cd
##ce
##cf
##cg
##ch
##ci
##cj
##ck
##cl
##cm
##cn
##co
##cp
##cq
##cr
##cs
##ct
##cu
##cv
##cw
##cx
##cy
##cz
##d
##da
##db
##dc
##dd
##de
##df
##dg
##dh
##di
##dj
##dk
##dl
##dm
##dn
##do
##dp
##dq
##dr
##ds
##dt
##du
##dv
##dw
##dx
##dy
##dz
##e
##ea
##eb
##ec
##ed
##ee
##ef
##eg
##eh
##ei
##ej
##ek
##el
##em
##en
##eo
##ep
##eq
##er
##es
##et
##eu
##ev
##ew
##ex
##ey
##ez
##f
##fa
##fb
##fc
##fd
##fe
##ff
##fg
##fh
##fi
##fj
##fk
##fl
##fm
##fn
##fo
##fp
##fq
##fr
##fs
##ft
##fu
##fv
##fw
##fx
##fy
##fz
##g
##ga
##gb
##gc
##gd
##ge
##gf
##gg
##gh
##gi
##gj
##gk
##gl
##gm
##gn
##go
##gp
##gq
##gr
##gs
##gt
##gu
##gv
##gw
##gx
##gy
##gz
##h
##ha
##hb
##hc
##hd
##he
##hf
##hg
##hh
##hi
##hj
##hk
##hl
##hm
##hn
##ho
##hp
##hq
##hr
##hs
##ht
##hu
##hv
##hw
##hx
##hy
##hz
##i
##ia
##ib
##ic
##id
##ie
##if
##ig
##ih
##ii
##ij
##ik
##il
##im
##in
##io
##ip
##iq
##ir
##is
##it
##iu
##iv
##iw
##ix
##iy
##iz
##j
##ja
##jb
##jc
##jd
##je
##jf
##jg
##jh
##ji
##jj
##jk
##jl
##jm
##jn
##jo
##jp
##jq
##jr
##js
##jt
##ju
##jv
##jw
##jx
##jy
##jz
##k
##ka
##kb
##kc
##kd
##ke
##kf
##kg
##kh
##ki
##kj
##kk
##kl
##km
##kn
##ko
##kp
##kq
##kr
##ks
##kt
##ku
##kv
##kw
##kx
##ky
##kz
##l
##la
##lb
##lc
##ld
##le
##lf
##lg
##lh
##li
##lj
##lk
##ll
##lm
##ln
##lo
##lp
##lq
##lr
##ls
##lt
##lu
##lv
##lw
##lx
##ly
##lz
##m
##ma
##mb
##mc
##md
##me
##mf
##mg
##mh
##mi
##mj
##mk
##ml
##mm
##mn
##mo
##mp
##mq
##mr
##ms
##mt
##mu
##mv
##mw
##mx
##my
##mz
##n
##na
##nb
##nc
##nd
##ne
##nf
##ng
##nh
##ni
##nj
##nk
##nl
##nm
##nn
##no
##np
##nq
##nr
##ns
##nt
##nu
##nv
##nw
##nx
##ny
##nz
##o
##oa
##ob
##oc
##od
##oe
##of
##og
##oh
##oi
##oj
##ok
##ol
##om
##on
##oo
##op
##oq
##or
##os
##ot
##ou
##ov
##ow
##ox
##oy
##oz
##p
##pa
##pb
##pc
##pd
##pe
##pf
##pg
##ph
##pi
##pj
##pk
##pl
##pm
##pn
##po
##pp
##pq
##pr
##ps
##pt
##pu
##pv
##pw
##px
##py
##pz
##q
##qa
##qb
##qc
##qd
##qe
##qf
##qg
##qh
##qi
##qj
##qk
##ql
##qm
##qn
##qo
##qp
##qq
##qr
##qs
##qt
##qu
##qv
##qw
##qx
##qy
##qz
##r
##ra
##rb
##rc
##rd
##re
##rf
##rg
##rh
##ri
##rj
##rk
##rl
##rm
##rn
##ro
##rp
##rq
##rr
##rs
##rt
##ru
##rv
##rw
##rx
##ry
##rz
##s
##sa
##sb
##sc
##sd
##se
##sf
##sg
##sh
##si
##sj
##sk
##sl
##sm
##sn
##so
##sp
##sq
##sr
##ss
##st
##su
##sv
##sw
##sx
##sy
##sz
##t
##ta
##tb
##tc
##td
##te
##tf
##tg
##th
##ti
##tj
##tk
##tl
##tm
##tn
##to
##tp
##tq
##tr
##ts
##tt
##tu
##tv
##tw
##tx
##ty
##tz
##u
##ua
##ub
##uc
##ud
##ue
##uf
##ug
##uh
##ui
##uj
##uk
##ul
##um
##un
##uo
##up
##uq
##ur
##us
##ut
##uu
##uv
##uw
##ux
##uy
##uz
##v
##va
##vb
##vc
##vd
##ve
##vf
##vg
##vh
##vi
##vj
##vk
##vl
##vm
##vn
##vo
##vp
##vq
##vr
##vs
##vt
##vu
##vv
##vw
##vx
##vy
##vz
##w
##wa
##wb
##wc
##wd
##we
##wf
##wg
##wh
##wi
##wj
##wk
##wl
##wm
##wn
##wo
##wp
##wq
##wr
##ws
##wt
##wu
##wv
##ww
##wx
##wy
##wz
##x
##xa
##xb
##xc
##xd
##xe
##xf
##xg
##xh
##xi
##xj
##xk
##xl
##xm
##xn
##xo
##xp
##xq
##xr
##xs
##xt
##xu
##xv
##xw
##xx
##xy
##xz
##y
##ya
##yb
##yc
##yd
##ye
##yf
##yg
##yh
##yi
##yj
##yk
##yl
##ym
##yn
##yo
##yp
##yq
##yr
##ys
##yt
##yu
##yv
##yw
##yx
##yy
##yz
##z
##za
##zb
##zc
##zd
##ze
##zf
##zg
##zh
##zi
##zj
##zk
##zl
##zm
##zn
##zo
##zp
##zq
##zr
##zs
##zt
##zu
##zv
##zw
##zx
##zy
##zz
$
%
&
'
(
)
*
+
,
-
.
/
0
00
000
0000
001
002
003
003263
0038
004
0044
005
006
007
009
01
010
011
013
017
0174
02
020
03
04
04164
05
05506
06
07
08
09
0a
0b
0c
0d
0e
0f
0g
0h
0i
0j
0k
0l
0m
0n
0o
0p
0q
0r
0s
0t
0u
0v
0w
0x
0y
0z
1
10
100
1000
1001
1002
1007
101
1016
1017
102
1021
1024
103
1038
104
1040
105
1050
1055
106
107
1071
1073
108
1080
1086
109
1093
1098
11
110
1100
1103
111
1111
112
1120
1126
113
1130
114
1140
115
1150
116
1160
117
1170
1177
118
1180
1186
119
1190
1198
12
120
1200
1204
121
1210
1214
1215
1218
122
1220
1225
1227
1228
123
1230
1231
1234
1235
1237
124
1240
1241
1247
1248
1249
125
1250
1253
1254
1256
126
1260
1265
1266
127
1270
1272
1273
1274
1275
1278
1279
128
1280
1282
1285
1286
1288
129
1290
1291
1294
1295
1296
1297
1298
13
130
1300
1301
1302
1303
1304
1305
1306
1307
1308
1309
131
1310
1311
1312
1313
1314
1315
1316
1317
1318
132
1320
1322
1323
1324
1325
1326
1327
1328
133
1330
1333
1335
1336
1337
134
1340
1342
1343
1344
1346
1347
1348
1349
135
1350
1351
1353
1355
1356
1357
1359
136
1360
1361
1363
1364
1365
1368
137
1370
1371
1375
1377
1378
138
1380
1381
1382
1385
1386
1388
1389
139
1390
1392
1395
1396
1397
1398
1399
14
140
1400
1402
1404
1405
1406
1408
1409
141
1410
1412
1414
1415
1417
1418
1419
142
1420
1421
1422
1423
1424
1425
1427
1428
1429
143
1430
1431
1433
1434
1435
1436
1437
1438
1439
144
1440
1442
1443
1444
1445
1447
1448
1449
145
1450
1451
1452
1453
1454
1455
1456
1457
1458
1459
146
1460
1461
1462
1463
1464
1465
1466
1467
1468
1469
147
1470
1471
1472
1473
1474
1475
1476
1477
1478
1479
148
1480
1481
1482
1483
1484
1485
1486
1487
1488
1489
149
1490
1491
1492
1493
1494
1495
1496
1497
1498
1499
15
150
1500
1501
1502
1503
1504
1505
1506
1507
1508
1509
151
1510
1511
1512
1513
1514
1515
1516
1517
1518
1519
152
1520
1521
1522
1523
1524
1525
1526
1527
1528
1529
153
1530
1531
1532
1533
1534
1535
1536
1537
1538
1539
154
1540
1541
1542
1543
1544
1545
1546
1547
1548
1549
155
1550
1551
1552
1553
1554
1555
1556
1557
1558
1559
156
1560
1561
1562
1563
1564
1565
1566
1567
1568
1569
157
1570
1571
1572
1573
1574
1575
1576
1577
1578
1579
158
1580
1581
1582
1583
1584
1585
1586
1587
1588
1589
159
1590
1591
1592
1593
1594
1595
1596
1597
1598
1599
16
160
1600
1601
1602
1603
1604
1605
1606
1607
1608
1609
161
1610
1611
1612
1613
1614
1615
1616
1617
1618
1619
162
1620
1621
1622
1623
1624
1625
1626
1627
1628
1629
163
1630
1631
1632
1633
1634
1635
1636
1637
1638
1639
164
1640
1641
1642
1643
1644
1645
1646
1647
1648
1649
165
1650
1651
1652
1653
1654
1655
1656
1657
1658
1659
166
1660
1661
1662
1663
1664
1665
1666
1667
1668
1669
167
1670
1671
1672
1673
1674
1675
1676
1677
1678
1679
168
1680
1681
1682
1683
1684
1685
1686
1687
1688
1689
169
1690
1691
1692
1693
1694
1695
1696
1697
1698
1699
17
170
1700
1701
1702
1703
1704
1705
1706
1707
1708
1709
171
1710
1711
1712
1713
1714
1715
1716
1717
1718
1719
172
1720
1721
1722
1723
1724
1725
1726
1727
1728
1729
173
1730
1731
1732
1733
1734
1735
1736
1737
1738
1739
174
1740
1741
1742
1743
1744
1745
1746
1747
1748
1749
175
1750
1751
1752
1753
1754
1755
1756
1757
1758
1759
176
1760
1761
1762
1763
1764
1765
1766
1767
1768
1769
177
1770
1771
1772
1773
1774
1775
1776
1777
1778
1779
178
1780
1781
1782
1783
1784
1785
1786
1787
1788
1789
179
1790
1791
1792
1793
1794
1795
1796
1797
1798
1799
18
180
1800
1801
1802
1803
1804
1805
1806
1807
1808
1809
181
1810
1811
1812
1813
1814
1815
1816
1817
1818
1819
182
1820
1821
1822
1823
1824
1825
1826
1827
1828
1829
183
1830
1831
1832
1833
1834
1835
1836
1837
1838
1839
184
1840
1841
1842
1843
1844
1845
1846
1847
1848
1849
185
1850
1851
1852
1853
1854
1855
1856
1857
1858
1859
186
1860
1861
1862
1863
1864
1865
1866
1867
1868
1869
187
1870
1871
1872
1873
1874
1875
1876
1877
1878
1879
188
1880
1881
1882
1883
1884
1885
1886
1887
1888
1889
189
1890
1891
1892
1893
1894
1895
1896
1897
1898
1899
19
190
1900
1901
1902
1903
1904
1905
1906
1907
1908
1909
191
1910
1911
1912
1913
1914
1915
1916
1917
1918
1919
192
1920
1921
1922
1923
1924
1925
1926
1927
1928
1929
193
1930
1931
1932
1933
1934
1935
1936
1937
1938
1939
194
1940
1941
1942
1943
1944
1945
1946
1947
1948
1949
195
1950
1951
1952
1953
1954
1955
1956
1957
1958
1959
196
1960
1961
1962
1963
1964
1965
1966
1967
1968
1969
197
1970
1971
1972
1973
1974
1975
1976
1977
1978
1979
198
1980
1981
1982
1983
1984
1985
1986
1987
1988
1989
199
1990
1991
1992
1993
1994
1995
1996
1997
1998
1999
1a
1b
1c
1d
1e
1f
1g
1h
1i
1j
1k
1l
1m
1n
1o
1p
1q
1r
1s
1t
1u
1v
1w
1x
1y
1z
2
20
200
2000
2001
2002
2003
2004
2005
2006
2007
2008
2009
201
2010
2011
2012
2013
2014
2015
2016
2017
2018
2019
202
2020
2021
2022
2023
2024
2025
203
2030
204
205
206
207
2070
208
209
21
210
2100
211
212
213
214
215
216
217
218
219
22
220
2200
221
222
223
224
225
226
227
228
229
23
230
2300
231
232
233
234
235
236
237
238
239
24
240
2400
241
242
243
244
245
246
247
248
249
25
250
2500
251
252
253
254
255
256
257
258
259
26
260
2600
261
262
263
264
265
266
267
268
269
27
270
271
272
273
274
275
276
277
278
279
28
280
2800
281
282
283
284
285
286
287
288
289
29
290
291
292
293
294
295
296
297
298
299
2a
2b
2c
2d
2e
2f
2g
2h
2i
2j
2k
2l
2m
2n
2o
2p
2q
2r
2s
2t
2u
2v
2w
2x
2y
2z
3
30
300
3000
301
302
303
304
305
306
307
308
309
31
310
311
312
313
314
315
316
317
318
319
32
320
321
322
323
324
325
326
327
328
329
33
330
331
332
333
334
335
336
337
338
339
34
340
341
342
343
344
345
346
347
348
349
35
350
3500
351
352
353
354
355
356
357
358
359
36
360
361
362
363
364
365
366
367
368
369
37
370
371
372
373
374
375
376
377
378
379
38
380
381
382
383
384
385
386
387
388
389
39
390
391
392
393
394
395
396
397
398
399
3a
3b
3c
3d
3e
3f
3g
3h
3i
3j
3k
3l
3m
3n
3o
3p
3q
3r
3s
3t
3u
3v
3w
3x
3y
3z
4
40
400
4000
401
402
403
404
405
406
407
408
409
41
410
411
412
413
414
415
416
417
418
419
42
420
421
422
423
424
425
426
427
428
429
43
430
431
432
433
434
435
436
437
438
439
44
440
441
442
443
444
445
446
447
448
449
45
450
4500
451
452
453
454
455
456
457
458
459
46
460
461
462
463
464
465
466
467
468
469
47
470
471
472
473
474
475
476
477
478
479
48
480
481
482
483
484
485
486
487
488
489
49
490
4909
491
4917
492
493
494
495
496
497
498
499
4a
4b
4c
4d
4e
4f
4g
4h
4i
4j
4k
4l
4m
4n
4o
4p
4q
4r
4s
4t
4u
4v
4w
4x
4y
4z
5
50
500
5000
501
502
503
504
505
506
507
508
509
51
510
511
512
513
514
515
516
517
517608
518
519
52
520
521
522
523
524
525
526
527
528
529
53
530
531
532
533
534
535
536
537
538
539
54
540
541
542
543
544
545
546
547
548
549
55
550
551
552
553
554
555
556
557
558
559
56
560
561
562
563
564
565
566
567
568
569
57
570
571
572
573
574
575
576
577
578
579
57958
58
580
581
582
583
584
585
586
587
588
589
59
590
591
592
593
594
595
596
597
598
599
5a
5b
5c
5d
5e
5f
5g
5h
5i
5j
5k
5l
5m
5n
5o
5p
5q
5r
5s
5t
5u
5v
5w
5x
5y
5z
6
60
600
6000
601
602
603
604
605
606
607
608
609
61
610
611
612
613
614
615
616
617
618
619
62
620
621
622
623
624
625
626
627
628
629
63
630
631
632
633
634
635
636
637
638
639
64
640
641
642
643
644
645
646
647
648
649
65
650
651
652
653
654
655
656
657
658
659
66
660
661
662
663
664
665
666
667
668
669
67
670
671
672
673
674
675
676
677
678
679
68
680
681
682
683
684
685
686
687
688
689
69
690
691
692
693
695
697
698
6a
6b
6c
6d
6e
6f
6g
6h
6i
6j
6k
6l
6m
6n
6o
6p
6q
6r
6s
6t
6u
6v
6w
6x
6y
6z
7
70
700
7000
7001
701
702
703
704
705
706
707
709
71
710
711
712
713
714
715
716
717
718
72
720
721
722
7227
725
727
73
730
731
735
737
74
740
741
745
7452
747
748
749
75
750
751
753
754
755
757
76
760
762
765
767
768
7696
77
770
7700
7701
775
777
78
780
785
787
79
790
795
7995
7a
7b
7c
7d
7e
7f
7g
7h
7i
7j
7k
7l
7m
7n
7o
7p
7q
7r
7s
7t
7u
7v
7w
7x
7y
7z
8
80
800
8000
8001
801
802
8032
805
8053
8062
81
810
82
820
825
8252
8253
8258
8274
83
830
8353
84
840
84234
84902
85
850
855
86
860
86153
87
870
87341
875
88
880
88309
89
890
89533
89602
89784
8a
8b
8c
8d
8e
8f
8g
8h
8i
8j
8k
8l
8m
8n
8o
8p
8q
8r
8s
8t
8u
8v
8w
8x
8y
8z
9
90
900
9000
91
910
911
92
920
93
930
94
940
94240937
95
950
951
96
960
963
965
97
970
972
973
975
978
979
98
980
9876
99
990
999
9a
9b
9c
9d
9e
9f
9g
9h
9i
9j
9k
9l
9m
9n
9o
9p
9q
9r
9s
9t
9u
9v
9w
9x
9y
9z
:
;
<
=
>
?
@
[
[CLS]
[MASK]
[PAD]
[SEP]
[UNK]
\
]
^
_
`
a
a0
a1
a2
a3
a4
a5
a6
a7
a8
a9
aa
aachen
aachener
aalen
aan
aarau
aargau
aarhus
aaron
aas
ab
abb
abbas
abbau
abbe
abbey
abbild
abbildung
abbildungen
abbott
abbrechen
abbruch
abc
abd
abdruck
abdul
abdullah
abe
abel
abend
abendblatt
abendmahl
abends
abenteuer
abenteurer
aber
aberdeen
aberkannt
abermals
abfahrt
abfall
abfluss
abfolge
abfrage
abgabe
abgaben
abgang
abgebaut
abgeben
abgebildet
abgebrochen
abgedeckt
abgedruckt
abgefragt
abgegangene
abgegeben
abgegebenen
abgegrenzt
abgehalten
abgekurzt
abgelegenen
abgelegt
abgelehnt
abgeleitet
abgeliefert
abgelost
abgenommen
abgeordnete
abgeordneten
abgeordnetenhaus
abgeordnetenhauses
abgeordneter
abgerissen
abgerufen
abgerundet
abgesagt
abgeschafft
abgeschlossen
abgeschlossene
abgeschlossenen
abgeschnitten
abgesehen
abgesetzt
abgestellt
abgestimmt
abgetragen
abgetrennt
abgetreten
abgewickelt
abgewiesen
abgezogen
abgrenzung
abgrund
abhalten
abhandlung
abhandlungen
abhangen
abhangig
abhangigkeit
abhangt
abitur
abkommen
abkommens
abkurzung
abkurzungen
ablagerungen
ablauf
ableben
ablegen
ableger
ablegte
ablehnte
ablehnung
ableiten
ableitung
ableitungsmorphem
ablosung
abmessungen
abnahme
abnehmen
abneigung
abo
abonnement
aborigines
about
above
abraham
abrechnung
abreise
abriss
abruf
abrufbar
abs
absage
absatz
abschaffung
abschied
abschließen
abschließend
abschließenden
abschloss
abschluss
abschluß
abschneiden
abschnitt
abschnitte
abschnitten
abschnitts
abschrecken
abschrift
abseits
absetzen
absetzung
absicht
absichten
absichtlich
absolut
absolute
absoluten
absolventen
absolvieren
absolviert
absolvierte
absolvierten
abspaltung
abspann
abstammung
abstand
abstanden
absteigen
absteiger
abstieg
abstimmung
abstract
abstrakte
abstrakten
absturz
abt
abte
abtei
abteilung
abteilungen
abteilungsleiter
abtes
abtheilung
abtissin
abtreten
abu
abwarts
abwasser
abwechselnd
abwehr
abwehrspieler
abweichen
abweichend
abweichende
abweichendes
abweichung
abweichungen
abwesenheit
abzeichen
abzug
abzugeben
abzuhalten
abzweig
abzweigt
ac
academia
academic
academie
academy
accademia
access
account
ace
ach
achievement
achim
achse
achsen
achslast
acht
achte
achtelfinale
achten
achter
achtung
achtzehn
acid
acker
ackerbau
ackerland
ackermann
across
act
acta
acten
action
active
activity
actor
actress
acts
ad
ada
adac
adalbert
adam
adams
adaption
adb
add
addition
adel
adelaide
adele
adelheid
adelige
adeligen
adeliger
adels
adelsfamilie
adelsgeschlecht
adelsgeschlechts
adelsstand
adelstitel
adenauer
adjektiv
adjektivs
adjutant
adler
adlerorden
adlige
adligen
adliger
admin
administration
administrativ
administrative
administrativen
administrator
admiral
adolf
adolph
adolphe
adorno
adressbuch
adresse
adressen
adreßbuch
adria
adrian
adrien
adult
advanced
advent
adventure
adventures
adverbielle
advisory
ae
aeg
aero
aerzte
af
afc
afd
affairs
affare
affen
afghanistan
afp
africa
african
afrika
afrikanische
afrikanischen
afrikas
afrique
afroamerikaner
afroamerikanern
after
ag
again
against
agatha
age
agency
agenda
agent
agenten
agentur
ages
agglomeration
agieren
agierte
agnes
agon
agostino
agreement
agricola
agriculture
agypten
agyptens
agyptische
agyptischen
agyptischer
ah
ahl
ahmad
ahmed
ahneln
ahnelt
ahnen
ahnlich
ahnliche
ahnlichem
ahnlichen
ahnlicher
ahnliches
ahnlichkeit
ahnlichkeiten
ahnung
ahrens
ahrweiler
ai
aid
aids
ain
air
airbus
aircraft
aires
airlines
airport
airways
aisch
aix
aj
ajax
ak
aka
akad
akademie
akademien
akademiens
akademische
akademischen
akademischer
akademiska
akkordeon
akkusativ
aks
akt
akte
akten
akteure
aktien
aktiengesellschaft
aktion
aktionen
aktiv
aktive
aktiven
aktiver
aktives
aktiviert
aktivierung
aktivist
aktivisten
aktivitat
aktivitaten
aktualisiert
aktualisierte
aktuell
aktuelle
aktuellen
aktueller
aktuelles
akustik
akustische
akzeptanz
akzeptieren
akzeptiert
akzeptierte
al
ala
alabama
alain
alan
alarm
alaska
alb
alba
alban
albanien
albanisch
albanischen
albany
alben
albers
albert
alberta
alberti
alberto
albertus
albin
albrecht
albrechts
album
albumcharts
albums
aldo
aldrich
alejandro
alemannia
aleppo
alessandro
alex
alexander
alexanders
alexandra
alexandre
alexandria
alexandrowitsch
alexei
alexis
alf
alfa
alfons
alfonso
alfred
alfredo
algebra
algen
algerien
algier
algorithmen
algorithmus
ali
alias
alice
alien
aligned
alison
alive
alkohol
all
alla
allah
allan
alle
allee
allegro
allein
alleine
alleinige
alleiniger
allem
allen
allenfalls
allenstein
aller
allerdings
allerhand
allerlei
alles
allesamt
allgau
allgauer
allgemein
allgemeine
allgemeinen
allgemeiner
allgemeines
allgemeinheit
alliance
allianz
alliierte
alliierten
allison
alljahrlich
allmahlich
allmusic
allrad
allrussischen
alltag
alltaglichen
allzu
alm
alma
almanach
almeida
aloe
alois
alone
alonso
aloys
alp
alpen
alpenverein
alpes
alpha
alphabet
alphabetique
alphabetisch
alphabetischem
alphabetischen
alphonse
alpine
alpinen
als
alsbald
alsdann
also
alt
alta
altar
altarbild
altare
altarraum
altars
altbayern
altdorf
alte
altem
alten
altenberg
altenburg
altenkirchen
alter
altere
alteren
alterer
altern
alternate
alternativ
alternative
alternativen
alters
altersklasse
altertum
altertumskunde
altertumswissenschaft
altes
alteste
altesten
altester
altgriechisch
althochdeutsch
altmann
altmark
alto
altona
altphilologe
altpreußischen
altstadt
aluminium
alvarez
alvaro
always
am
amadeus
amalia
amalie
amanda
amateur
amateure
amateurliga
amazon
amazonas
amberg
ambrosius
amd
ameisen
amelie
amen
america
american
americans
amerika
amerikaner
amerikanern
amerikanisch
amerikanische
amerikanischen
amerikanischer
amerikanisches
amerikas
amiens
amiga
aminosauren
ammann
ammoniak
amnesty
among
amor
amore
amos
amour
amphibien
amphoe
amplifie
amsterdam
amt
amte
amter
amtern
amtes
amtierende
amtierenden
amtierte
amtlich
amtliche
amtlichen
amtlicher
amtliches
amtmann
amts
amtsantritt
amtsbezirk
amtsblatt
amtsgericht
amtsgerichts
amtshauptmannschaft
amtsinhaber
amtszeit
amy
an
ana
anagramme
analog
analoge
analogen
analogie
analogique
analyse
analysen
analysiert
analysis
analytische
analytischen
anatoli
anatomie
anatomy
anbau
anbetung
anbieten
anbieter
anbietet
anbindung
anblick
anbot
ancien
ancient
and
andacht
andauernden
anden
andenken
ander
andere
anderem
anderen
anderer
andererseits
anderes
andern
andernfalls
anders
andersen
anderson
andersson
anderswo
andert
anderte
anderten
anderthalb
anderung
anderungen
anderweitig
andorra
andre
andrea
andreas
andrei
andrej
andres
andrew
andrews
android
andrzej
andy
aneinander
anekdoten
anerkannt
anerkannte
anerkannten
anerkannter
anerkennen
anerkennung
anfang
anfange
anfangen
anfanger
anfanglich
anfanglichen
anfangs
anfangszeit
anforderungen
anfrage
anfragen
anfuhrer
angabe
angaben
angebaut
angeben
angeblich
angebliche
angeblichen
angebot
angebote
angeboten
angebotenen
angebracht
angebrachten
angebunden
angedeutet
angefahren
angefangen
angefertigt
angefugt
angefuhrt
angefuhrten
angegeben
angegebene
angegebenen
angegliedert
angegriffen
angehoben
angehoren
angehorige
angehorigen
angehoriger
angehort
angehorte
angehorten
angeklagt
angeklagte
angeklagten
angekommen
angekundigt
angel
angela
angelangt
angelegenheit
angelegenheiten
angelegt
angelegte
angelegten
angelehnt
angeles
angelika
angeln
angelo
angels
angemeldet
angemessen
angemessene
angenehm
angenommen
angeordnet
angeordnete
angeordneten
angepasst
anger
angeregt
angeschafft
angeschlossen
angeschlossenen
angesehen
angesehenen
angesetzt
angesicht
angesichts
angesiedelt
angesprochen
angestellt
angestellte
angestellten
angestellter
angestiegen
angestrebt
angetreten
angetrieben
angewachsen
angewandt
angewandte
angewandten
angewendet
angewiesen
angezeigt
angezogen
angibt
anglo
angola
angreifen
angreifer
angrenzende
angrenzenden
angriff
angriffe
angriffen
angriffs
angst
angstlich
angus
anhalt
anhaltenden
anhand
anhang
anhanger
anhangern
anhieb
anhohe
anhoren
animal
animals
animation
anime
anita
anja
anjou
ankara
ankauf
anke
anker
anklage
anknupfen
ankundigung
ankunft
anlage
anlagen
anlass
anlassen
anlasslich
anlauf
anlaß
anlegen
anlehnung
anleihen
anleitung
anliegen
anm
anmelden
anmeldung
anmerkung
anmerkungen
ann
anna
annaberg
annahernd
annaherung
annahm
annahme
annahmen
annalen
annales
annals
anne
annehmen
annemarie
annette
annexion
anni
annie
annimmt
anniversary
anno
announced
announces
annuaire
annual
anon
anonym
anonyme
anonymen
anonymus
anordnung
anordnungen
anorganische
another
anpassen
anpassung
anrede
anregung
anregungen
anreise
anruf
ans
ansah
ansassig
ansassige
ansassigen
ansatz
ansatze
ansbach
anschaulich
anschauung
anschauungen
anschein
anscheinend
anschlag
anschlage
anschlagen
anschliessend
anschließen
anschließend
anschließende
anschließenden
anschließt
anschloss
anschluss
anschlusse
anschlussstelle
ansehen
anselm
ansgar
ansicht
ansichten
ansiedlung
ansonsten
anspielung
ansprache
anspruch
anspruche
anspruchen
anstalt
anstalten
anstatt
anstelle
anstellung
anstieg
anstoß
anstrengung
anstrengungen
ant
antarctic
antarctica
antarktika
antarktis
antarktischen
ante
anteil
anteile
antenne
antennen
antheil
anthologie
anthology
anthony
anthropologie
anti
antike
antiken
antiker
antikorper
antiochia
antisemitische
antisemitismus
antje
antlitz
antoine
antoinette
anton
antoni
antonia
antonin
antonio
antonius
antrag
antrage
antrat
antreten
antrieb
antritt
antwerpen
antwort
antworten
antwortet
antwortete
anvertraut
anwalt
anwalte
anweisung
anweisungen
anwendbar
anwenden
anwender
anwendung
anwendungen
anwesen
anwesend
anwesenden
anwesenheit
any
anzahl
anzeichen
anzeige
anzeigen
anzeiger
anzubieten
anzug
anzugeben
anzugreifen
anzulegen
anzunehmen
anzupassen
anzuschließen
anzusehen
anzutreffen
anzutreten
anzuwenden
ao
ap
apa
apache
apfel
apolda
apollo
apollon
apostel
apostolische
apostolischen
apostolischer
apotheke
apotheken
apotheker
app
apparat
appel
appenzell
apple
application
applications
applied
approach
approx
apps
apr
apres
april
apsis
aq
aquarell
aquarelle
aquarium
aquitaine
aquitanien
aquivalent
ar
ara
arab
araber
arabic
arabien
arabisch
arabische
arabischen
arabischer
aragon
arbeit
arbeiten
arbeitenden
arbeiter
arbeiterbewegung
arbeitern
arbeiterpartei
arbeiterzeitung
arbeitet
arbeitete
arbeiteten
arbeitgeber
arbeitnehmer
arbeits
arbeitsgemeinschaft
arbeitsgruppe
arbeitskrafte
arbeitskreis
arbeitskreises
arbeitslosigkeit
arbeitsmarkt
arbeitsplatz
arbeitsplatze
arbeitszeit
arbor
arc
arch
archaeological
archaeology
archaologe
archaologen
archaologie
archaologisch
archaologische
archaologischen
archaologischer
archaologisches
arche
archibald
archipel
architecture
architekt
architekten
architektonische
architektonischen
architektur
architekturburo
archiv
archivar
archive
archiven
archives
archiviert
archivierte
archivlink
archivs
arctic
ard
are
area
areal
areas
arena
arendt
arg
argentina
argentinien
argentiniens
argentinische
argentinischen
argentinischer
arger
argument
argumentation
argumente
ari
aria
ariane
arie
ariel
aristoteles
arizona
arkaden
arkansas
arm
armand
armando
arme
armee
armeekorps
armeen
armen
armenien
armenier
armenisch
armenische
armenischen
armenischer
armer
armes
armin
arminia
arms
armstrong
armut
armutsgrenze
army
arndt
arne
arnim
arno
arnold
arnsberg
arnstadt
arnulf
around
arp
arrangement
arrangements
arrangeur
array
arrondissement
arrondissements
arroyo
ars
arsenal
art
arte
artefakte
artemis
arten
artepitheton
artes
arthur
article
articles
artikel
artikelanfang
artikelgebrauch
artikeln
artikels
artillerie
artist
artists
arts
artur
arturo
arxiv
arzneimittel
arzt
arzte
arzteblatt
arzten
arztes
arztin
arztliche
arztlichen
as
asa
asch
aschaffenburg
asche
aschendorff
aserbaidschan
ashley
asia
asian
asiaten
asiatische
asiatischen
asien
asienmeisterschaft
asiens
asienspielen
ask
asp
aspects
aspekt
aspekte
aspekten
aspx
ass
assembly
assessment
assessor
assisi
assistant
assistent
assistenten
assistentin
assistenztrainer
assists
associate
associated
association
assoziiert
ast
astdys
aste
asten
asteroid
asteroiden
asthetik
asthetische
asthetischen
aston
astra
astrid
astronom
astronomen
astronomical
astronomie
astronomische
astronomischen
astronomy
astrophysics
asyl
at
atari
atelier
ateliers
atem
athen
athener
athens
athiopien
athleten
athletic
athletics
athletinnen
atlanta
atlantic
atlantik
atlantis
atlantischen
atlas
atletico
atmosphare
atoll
atom
atome
atomic
atp
att
attack
attentat
attentater
attila
attorney
attribut
attribute
au
auch
auckland
audi
audio
audiodateien
aue
auer
auerbach
auf
aufarbeitung
aufbau
aufbauen
aufbauten
aufbewahrt
aufbruch
aufeinander
aufenthalt
aufenthalte
aufenthaltes
aufenthalts
aufenthaltsort
auferstehung
auff
auffallend
auffallig
auffallige
auffassung
aufforderung
auffuhrung
auffuhrungen
aufgabe
aufgaben
aufgebaut
aufgeben
aufgebot
aufgebracht
aufgefasst
aufgefordert
aufgefuhrt
aufgefuhrten
aufgefunden
aufgegangen
aufgegeben
aufgegriffen
aufgehalten
aufgehangt
aufgehoben
aufgekauft
aufgelegt
aufgelistet
aufgelost
aufgelosten
aufgenommen
aufgenommenen
aufgerufen
aufgesetzt
aufgestellt
aufgestellte
aufgestellten
aufgestiegen
aufgestockt
aufgesucht
aufgeteilt
aufgetragen
aufgetreten
aufgewachsen
aufgezeichnet
aufging
aufgrund
aufhalten
aufhebung
aufhielt
aufhoren
aufklarung
aufkommen
aufl
auflage
auflagen
auflistung
auflosen
auflosung
aufmerksam
aufmerksamkeit
aufnahm
aufnahme
aufnahmen
aufnehmen
aufnimmt
aufrecht
aufrechterhalten
aufrechterhaltung
aufregung
aufruf
aufruhr
aufs
aufsatz
aufsatze
aufsatzen
aufschrift
aufschwung
aufsehen
aufsicht
aufsichtsrat
aufstand
aufstandes
aufstandischen
aufsteigen
aufsteiger
aufstellen
aufstellung
aufstieg
aufstiegsrunde
auftakt
auftauchen
auftaucht
aufteilung
auftrag
auftrage
auftragen
auftraggeber
auftrat
auftraten
auftreten
auftretende
auftretenden
auftritt
auftritte
auftritten
aufwand
aufwandig
aufwarts
aufweisen
aufweist
aufwendig
aufwies
aufwuchs
aufzahlung
aufzeichnung
aufzeichnungen
aufzubauen
aufzug
aufzugeben
aufzugen
aufzuhalten
aufzulosen
aufzunehmen
aufzustellen
aufzutreten
aug
auge
augen
augenblick
augenblicke
augenblicklich
augenmerk
auges
augsburg
augsburger
august
augusta
auguste
augustin
augustiner
augustinus
augusto
augustus
aula
aurel
aurich
aurora
aus
ausarbeitung
ausbau
ausbauen
ausbeutung
ausbilden
ausbildung
ausblick
ausbrach
ausbreitung
ausbruch
auschwitz
ausdauer
ausdauernde
ausdehnung
ausdruck
ausdrucke
ausdrucken
ausdrucklich
auseinander
auseinandersetzung
auseinandersetzungen
ausfahrt
ausfall
ausfallen
ausfindig
ausflug
ausfluge
ausfuhren
ausfuhrlich
ausfuhrliche
ausfuhrlichen
ausfuhrlicher
ausfuhrliches
ausfuhrung
ausfuhrungen
ausg
ausgabe
ausgaben
ausgang
ausgangspunkt
ausgearbeitet
ausgebaut
ausgebaute
ausgebildet
ausgebildete
ausgebildeten
ausgebreitet
ausgedehnt
ausgedehnte
ausgedehnten
ausgedruckt
ausgefuhrt
ausgefuhrte
ausgefuhrten
ausgegangen
ausgegeben
ausgeglichen
ausgegliedert
ausgegraben
ausgehen
ausgehend
ausgehenden
ausgeht
ausgelegt
ausgeliefert
ausgeliehen
ausgelost
ausgemustert
ausgenommen
ausgepragt
ausgepragte
ausgepragten
ausgerechnet
ausgerichtet
ausgerichtete
ausgerichteten
ausgerufen
ausgerustet
ausgeschieden
ausgeschlossen
ausgeschrieben
ausgesetzt
ausgespielt
ausgesprochen
ausgestaltung
ausgestattet
ausgestattete
ausgestatteten
ausgestellt
ausgestorben
ausgestrahlt
ausgetauscht
ausgetragen
ausgetragenen
ausgeubt
ausgewahlt
ausgewahlte
ausgewahlten
ausgeweitet
ausgewertet
ausgewiesen
ausgewiesenen
ausgezahlt
ausgezeichnet
ausgezeichnete
ausgezeichneten
ausgezeichneter
ausging
ausgleich
ausgrabung
ausgrabungen
auskunft
ausland
auslander
auslandische
auslandischen
auslandischer
auslaufen
auslaufer
auslaufern
auslegung
auslieferung
auslosen
ausloser
auslosung
ausmachen
ausmaß
ausnahme
ausnahmen
ausnahmslos
ausnahmsweise
auspragung
ausreichend
ausreichende
ausrichtung
ausrustung
aussage
aussagen
ausscheiden
ausschied
ausschlaggebend
ausschließlich
ausschluss
ausschnitt
ausschreibung
ausschreitungen
ausschuss
ausschusses
aussehen
ausser
ausserdem
aussicht
aussichten
aussichtsturm
aussieht
aussprach
aussprache
aussprechen
ausspruch
ausstattung
ausstellung
ausstellungen
ausstellungskatalog
aussterben
ausstieg
ausstrahlung
austausch
austin
austragung
austragungsort
australia
australian
australien
australiens
australier
australische
australischen
australischer
austria
austrian
austritt
ausuben
ausubte
ausubung
auswahl
auswahlen
auswanderung
auswartige
auswartigen
auswartiges
auswarts
auswartsspiel
ausweg
ausweichen
ausweisung
ausweitung
auswertung
auswirkungen
auszeichnen
auszeichnung
auszeichnungen
auszubauen
auszufuhren
auszug
auszuge
auszugehen
auszuschließen
auszuuben
aut
author
authority
auto
autobahn
autobahnen
autobiografie
autobiographie
automatisch
automatische
automatischen
automobil
automobile
automobilen
automobilhersteller
automobilrennfahrer
automotive
autonome
autonomen
autonomie
autor
autoren
autorennfahrer
autorin
autorinnen
autoritat
autoroute
autors
autos
autounfall
auvergne
aux
auß
außen
außenlager
außenminister
außenministerium
außenministeriums
außenpolitik
außenseite
außenstelle
außenwelt
außer
außerdem
außere
außeren
außergewohnlich
außergewohnliche
außerhalb
außerlich
außern
außerordentlich
außerordentliche
außerordentlichen
außerordentlicher
außerst
außersten
außert
außerte
außerung
außerungen
av
avancierte
avant
avantgarde
ave
avec
avenue
aviation
avignon
aviv
avn
aw
award
awards
away
ax
axel
axt
ay
az
aziz
azur
aɪ
aʊ
b
b0
b1
b2
b3
b4
b5
b6
b7
b8
b9
ba
baar
bab
baba
babelsberg
baby
babylon
bach
bache
bachelor
baches
bachmann
bachs
back
backen
backer
backerei
background
backstein
bacon
bad
bade
baden
bader
badische
badischen
badischer
badminton
badmintonspieler
badmintonspielerin
baer
bafta
bag
bagdad
bahamas
bahia
bahn
bahnen
bahnhof
bahnhofe
bahnhofen
bahnhofs
bahnhofsgebaude
bahnhofstraße
bahnlinie
bahnstation
bahnsteig
bahnsteige
bahnstrecke
bahnstrecken
bahr
bahrain
baier
baiern
bailey
bains
baker
bakterien
baku
bal
balance
bald
balduin
baldwin
balkan
balken
balkon
ball
ballade
balladen
balle
ballet
ballett
ballon
balthasar
baltic
baltikum
baltimore
baltische
baltischen
bamberg
bamberger
ban
banat
band
bandbreite
bande
banden
bander
bandes
bandleader
bandmitglieder
bands
bang
bangkok
bangladesch
bank
banken
bankier
banknoten
banks
bann
banner
baptist
baptiste
bar
barack
barbara
barbarossa
barbel
barcelona
baren
barenreiter
bari
bariton
barker
barmen
barmherzigkeit
barnes
barnim
barock
barocke
barocken
baron
baronet
baronin
barre
barrett
barry
bars
bart
bartels
barth
barthel
bartholdy
bartholomaus
bartolomeo
barton
bartsch
bas
base
baseball
baseballspieler
based
basel
basen
basic
basieren
basierend
basiert
basierte
basierten
basil
basilica
basilika
basin
basis
basket
basketball
basketballspieler
basler
bass
basse
bassist
bassisten
basso
bastei
bastian
bat
bataillon
bataillone
bataillons
bates
bath
batman
batterie
batterien
battista
battle
bau
bauarbeiten
bauart
baubeginn
bauch
baudenkmal
baudenkmale
baudenkmaler
bauen
bauer
bauerlichen
bauern
bauernhaus
bauernhof
bauform
baugeschichte
bauhaus
bauherr
bauingenieur
bauinventar
baujahr
baukosten
baukunst
baulich
bauliche
baulichen
baum
baumann
baumaterial
baumaßnahmen
baume
baumeister
baumen
baumes
baumgarten
baumgartner
baumwolle
baur
baureihe
baureihen
baus
baustein
bausteine
baustelle
baustil
bausubstanz
baut
baute
bauteile
bauten
bautz
bautzen
bauweise
bauwerk
bauwerke
bauwerken
bauwerks
bauwesen
bauzeit
bavaria
bavarikon
bay
baydschg
bayer
bayerische
bayerischen
bayerischer
bayerisches
bayern
bayernatlas
bayerns
baylfd
bayreuth
bayreuther
bayrischen
baɪ
bb
bbc
bbkl
bbl
bc
bd
bda
bde
be
beabsichtigt
beabsichtigte
beach
beachten
beachtet
beachtung
beamte
beamten
beamter
beansprucht
beanspruchte
beantragen
beantragt
beantragte
beantworten
beantwortet
bear
bearb
bearbeite
bearbeiten
bearbeiter
bearbeitet
bearbeitete
bearbeitung
bears
beat
beate
beatles
beatrice
beatrix
beats
beauftragt
beauftragte
beauftragten
beaulieu
beaumont
beautiful
beauty
beaux
bebaut
bebauung
because
becher
beck
becken
beckens
becker
beckmann
become
bedacht
bedarf
bedauern
bedecken
bedeckt
bedeckte
bedenken
bedeuten
bedeutend
bedeutende
bedeutenden
bedeutender
bedeutendes
bedeutendste
bedeutendsten
bedeutet
bedeutete
bedeutsam
bedeutsame
bedeutung
bedeutungen
bedeutungserklarungen
bedford
bedienen
bedient
bediente
bedienten
bedienung
bedingt
bedingte
bedingten
bedingung
bedingungen
bedroht
bedrohte
bedrohten
bedrohung
bedurfen
bedurfnis
bedurfnisse
bedurfnissen
bedurfniß
bedurfte
bee
beeindruckt
beeinflussen
beeinflusst
beeinflusste
beeinflussten
beeinflussung
beeintrachtigt
been
beenden
beendet
beendete
beendeten
beendigung
beer
beerdigt
beerdigung
beeren
beethoven
beethovens
befahl
befahren
befallen
befand
befanden
befassen
befasst
befasste
befehl
befehle
befehlen
befehligte
befehlshaber
befestigt
befestigte
befestigten
befestigung
befestigungen
befinden
befindet
befindliche
befindlichen
befohlen
befordern
befordert
beforderte
beforderung
before
befragt
befragung
befreien
befreit
befreite
befreiung
befreundet
befreundeten
befriedigung
befugnisse
befunde
befunden
befurchten
befurchtet
befurchtete
befurworter
begab
begabung
begangen
begann
begannen
begeben
begebenheiten
begegnen
begegnet
begegnete
begegnung
begegnungen
begehen
begehren
begehrt
begeistert
begeisterte
begeisterung
begibt
begin
beging
beginn
beginnen
beginnend
beginnenden
beginnt
begleiten
begleiter
begleitet
begleitete
begleiteten
begleitung
begnugen
begonnen
begonnene
begonnenen
begraben
begrabnis
begreifen
begrenzt
begrenzte
begrenzten
begrenzung
begriff
begriffe
begriffen
begriffs
begriffsklarung
begrunden
begrunder
begrundet
begrundete
begrundeten
begrundung
begrußt
begrußte
begunstigt
behaart
behalt
behalten
behalter
behandeln
behandelt
behandelte
behandelten
behandlung
behaupten
behauptet
behauptete
behauptung
behauptungen
behavior
beheimatet
beherbergt
beherbergte
beherrschen
beherrscht
beherrschte
beherrschten
behielt
behielten
behind
behindert
behinderte
behinderten
behinderung
behorde
behorden
behr
behrens
bei
beibehalten
beibehaltung
beide
beiden
beider
beiderseits
beides
beidseitig
beier
beifall
beifugung
beigelegt
beigesetzt
beigetragen
beiheft
beijing
beil
beilage
beim
bein
beinahe
beinamen
beine
beinen
being
beinhalten
beinhaltet
beinhaltete
beirat
beirut
beisein
beisitzer
beispiel
beispiele
beispielen
beispielhaft
beispielsweise
beistand
beitrag
beitrage
beitragen
beitritt
beitrug
beiwagen
bekam
bekamen
bekampfen
bekampft
bekampfung
bekannt
bekannte
bekannten
bekannter
bekanntes
bekannteste
bekanntesten
bekanntgabe
bekanntgegeben
bekanntheit
bekanntlich
bekanntmachung
bekanntschaft
bekennen
bekenntnis
beklagen
beklagte
bekleidet
bekleidete
bekleidung
bekommen
bekommt
bekront
bel
bela
beladen
belagert
belagerung
belange
belarus
belastet
belastung
belastungen
belebt
beleg
belege
belegen
belegt
belegte
belegten
belehnt
beleidigung
beleuchtet
beleuchtung
belfast
belgien
belgiens
belgier
belgische
belgischen
belgischer
belgrad
beliebig
beliebige
beliebigen
beliebt
beliebte
beliebten
beliebter
beliebtes
beliebtesten
beliebtheit
belief
beliefen
believe
bell
bella
belle
bellinzona
belohnt
belohnung
below
belt
beltz
belvedere
bemalt
bemerkbar
bemerken
bemerkenswert
bemerkenswerte
bemerkt
bemerkte
bemerkung
bemerkungen
bemuhen
bemuht
bemuhte
bemuhungen
ben
benachbarte
benachbarten
benannt
benannte
benannten
bender
benedict
benedikt
benediktiner
benehmen
benennen
benennung
benin
benito
benjamin
bennett
benno
benny
benoit
benotigen
benotigt
benotigte
benotigten
bensheim
benson
bentheim
bentley
benutzen
benutzer
benutzt
benutzte
benutzten
benutzung
benz
benzin
beobachten
beobachter
beobachtet
beobachtete
beobachteten
beobachtung
beobachtungen
bequem
ber
berat
beraten
berater
beratung
beraubt
berchtesgaden
berchtesgadener
berechnen
berechnet
berechnung
berechnungen
berechtigt
berechtigten
berechtigung
bereich
bereiche
bereichen
bereifung
bereiste
bereit
bereiten
bereitet
bereitete
bereitgestellt
bereits
bereitschaft
bereitstellung
berg
bergamo
bergbau
berge
bergen
berger
berges
bergfried
bergheim
bergisch
bergischen
bergland
bergleute
bergman
bergmann
bergsteiger
bergstraße
bergwerk
bericht
berichte
berichten
berichterstattung
berichtet
berichtete
berichteten
berief
berkeley
berl
berlin
berlinale
berliner
berlins
bern
bernard
bernardino
bernardo
bernburg
bernd
berndt
berner
bernhard
bernstein
berry
bert
berta
bertelsmann
bertha
berthold
bertolt
bertram
bertrand
berucksichtigen
berucksichtigt
berucksichtigung
beruf
berufe
berufen
beruflich
berufliche
beruflichen
berufs
berufsausbildung
berufsschule
beruft
berufung
beruhen
beruhigen
beruhmt
beruhmte
beruhmten
beruhmter
beruhmtesten
beruhmtheit
beruhren
beruhrt
beruhrung
beruht
beruhte
bes
besagt
besancon
besatzung
besatzungsmacht
besatzungsmitglieder
besatzungszone
besaß
besaßen
beschadigt
beschadigte
beschadigten
beschaffen
beschaffenheit
beschafft
beschaffung
beschaftigen
beschaftigt
beschaftigte
beschaftigten
beschaftigung
bescheid
bescheiden
bescheidenen
beschieden
beschlagnahmt
beschleunigen
beschleunigt
beschleunigung
beschließen
beschließt
beschloss
beschlossen
beschloß
beschluss
beschlusse
beschluß
beschranken
beschrankt
beschrankte
beschrankten
beschrankung
beschrankungen
beschreiben
beschreibt
beschreibung
beschreibungen
beschrieb
beschrieben
beschriebene
beschriebenen
beschuldigt
beschuldigte
beschuss
beschwerde
beschwerden
beseitigen
beseitigt
beseitigung
besessen
besetzen
besetzt
besetzte
besetzten
besetzung
besichtigen
besichtigt
besichtigung
besiedelt
besiedelten
besiedelung
besiedlung
besiegen
besiegt
besiegte
besiegten
besitz
besitze
besitzen
besitzer
besitzes
besitzt
besitzungen
besondere
besonderem
besonderen
besonderer
besonderes
besonderheit
besonderheiten
besondern
besonders
besorgen
besorgt
besorgte
besprechung
besprochen
besser
bessere
besseren
besserer
besseres
besserung
best
bestand
bestande
bestanden
bestandig
bestandsaufnahme
bestandteil
bestandteile
bestatigen
bestatigt
bestatigte
bestatigten
bestatigung
bestattet
bestattung
beste
bestehe
bestehen
bestehend
bestehende
bestehenden
bestehender
bestehens
besteht
bestellen
bestellt
bestellte
bestellung
besten
bester
bestes
bestieg
bestiegen
bestimmen
bestimmt
bestimmte
bestimmten
bestimmter
bestimmtes
bestimmung
bestimmungen
bestleistung
bestraft
bestrafung
bestreben
bestrebt
bestrebungen
bestreiten
bestritt
bestritten
bestseller
bestzeit
besuch
besuche
besuchen
besucher
besuchern
besucht
besuchte
besuchten
bet
beta
betatigt
betatigte
betatigung
beteiligen
beteiligt
beteiligte
beteiligten
beteiligung
beten
beth
bethlehem
beton
betonen
betont
betonte
betonung
betracht
betrachten
betrachter
betrachtet
betrachtete
betrachteten
betrachtlich
betrachtliche
betrachtlichen
betrachtung
betrachtungen
betraf
betrafen
betrag
betrage
betragen
betragt
betrat
betraut
betreffen
betreffend
betreffende
betreffenden
betreiben
betreiber
betreibt
betreten
betreut
betreute
betreuung
betrieb
betriebe
betrieben
betriebene
betriebenen
betriebes
betriebs
betriebssystem
betriebswirtschaftslehre
betrifft
betritt
betroffen
betroffene
betroffenen
betrogen
betrug
betrugen
bett
bette
betten
better
bettina
bettler
betty
between
beurteilen
beurteilt
beurteilung
beute
beutel
beuys
beverly
bevolkerung
bevolkerungsdichte
bevolkerungsentwicklung
bevolkerungsstatistiken
bevolkerungswachstum
bevolkerungszahl
bevor
bevorstehenden
bevorzugen
bevorzugt
bevorzugte
bevorzugten
bewaffnet
bewaffnete
bewaffneten
bewaffnung
bewahren
bewahrt
bewahrte
bewahrten
bewahrung
bewaldet
bewaldeten
bewaltigen
bewarb
bewegen
bewegliche
beweglichen
bewegt
bewegte
bewegten
bewegung
bewegungen
beweis
beweise
beweisen
beweist
bewerben
bewerber
bewerbung
bewerten
bewertet
bewertete
bewertung
bewertungen
bewies
bewiesen
bewilligt
bewilligung
bewirken
bewirkt
bewirkte
bewirtschaftet
bewirtschaftung
bewohner
bewohnern
bewohnt
bewohnte
bewohnten
beworben
bewundern
bewunderung
bewusst
bewusstsein
bewußt
bewußtsein
bey
beyer
beyond
bez
bezahlen
bezahlt
bezahlte
bezahlung
bezeichnen
bezeichnet
bezeichnete
bezeichneten
bezeichnung
bezeichnungen
bezeugen
bezeugt
bezeugte
beziehen
bezieht
beziehung
beziehungen
beziehungsweise
bezirk
bezirke
bezirken
bezirkes
bezirks
bezirksamt
bezirksgericht
bezirksliga
bezirksregierung
bezog
bezogen
bezug
bezuge
bezuglich
bezwang
bf
bg
bgb
bgbl
bgh
bh
bhutan
bi
bianca
bianchi
biathlet
biathletin
biathlon
bibcode
bibel
biber
biberach
bible
biblio
bibliografie
bibliografischen
bibliographie
bibliographisches
biblioteca
bibliotheca
bibliothek
bibliothekar
bibliotheken
bibliotheque
biblische
biblischen
biedenkopf
biedermann
biel
bielefeld
bien
bienen
biennale
bier
biermann
bieten
bietet
big
bike
bilanz
bild
bilde
bilden
bildende
bildenden
bildender
bilder
bildern
bildes
bildet
bildete
bildeten
bildhauer
bildhauerei
bildhauerin
bildhauers
bildnis
bildnisse
bildschirm
bildung
bildungs
bill
billard
billboard
billiards
billie
billig
billiger
billy
bin
binden
binder
bindet
bindung
bindungen
bing
bingen
binnen
bio
biochemie
biodiversity
biodiversitylibrary
biografico
biografie
biografien
biografische
biografisches
biographical
biographie
biographien
biographisch
biographische
biographischen
biographischer
biographisches
biography
biologe
biological
biologie
biologisch
biologische
biologischen
biology
bip
bird
birdlife
birds
birgit
birgt
birken
birkenfeld
birkhauser
birmingham
birth
birthday
bis
bischof
bischofe
bischofen
bischoff
bischoflichen
bischofs
bischofskonferenz
bischofssitz
bischofsweihe
bisher
bisherige
bisherigen
bishop
bislang
bismarck
bisschen
bist
bistum
bistumer
bistums
bisweilen
bit
bitburg
bitte
bitten
bitter
bitterfeld
bittet
biß
bj
bjorn
bk
bl
black
blackwell
blade
blair
blake
blanc
blanche
blanco
blank
blankenburg
blasius
blasonierung
blass
blast
blatt
blatter
blattern
blattes
blattspreite
blattstiel
blau
blaue
blauem
blauen
blauer
blech
blei
bleibe
bleiben
bleibt
blfd
blick
blicke
blicken
blickt
blickte
blieb
blieben
blind
blinde
blinden
blitz
blko
bloch
block
blockade
blocke
blockiert
blocks
blog
blogspot
blonde
blood
bloomberg
blos
bloß
bloße
bloßen
blu
blucher
blue
blues
bluhenden
bluht
blum
blume
blumen
blumenthal
blut
blute
bluten
blutenstand
blutes
blutezeit
bluthe
bluthen
blutige
blutigen
blv
bm
bmw
bn
bo
board
boat
bob
bobby
boblingen
boca
bochum
bochumer
bock
bod
bode
boden
bodendenkmale
bodendenkmaler
bodenfreiheit
bodens
bodensee
bodo
body
boeing
bog
bogen
bogota
bohlau
bohlen
bohm
bohme
bohmen
bohmer
bohmisch
bohmische
bohmischen
bohmischer
bohnen
bohrung
bohuslav
bois
boldsymbol
bolivia
bolivien
boll
bologna
bombay
bombe
bomben
bomber
bon
bonaparte
bond
bone
bones
bonifatius
bonn
bonner
bonus
book
booklet
books
boom
boot
boote
booten
bootes
boppard
bor
bord
borde
bordeaux
border
borg
boris
borken
born
borneo
borough
borse
borussia
bos
bosch
bosco
bose
bosen
boses
bosnien
boss
bosse
boston
bot
botanic
botanical
botanik
botaniker
botanische
botanischen
botanischer
botany
bote
boten
both
botschaft
botschaften
botschafter
bottcher
bottrop
boulder
boulevard
boulogne
bourbon
bourgogne
bowie
bowl
box
boxen
boxer
boxing
boy
boyd
boyle
boys
bozen
bp
bq
br
bra
brabant
brach
brachen
brachte
brachten
brad
bradford
bradley
brahms
brain
branch
branche
branchen
brand
brande
brandenburg
brandenburger
brandenburgische
brandenburgischen
brandenburgisches
brandes
brandon
brandt
brannte
brannten
brasil
brasilianische
brasilianischen
brasilianischer
brasilianisches
brasilien
brasiliens
brass
bratislava
brauch
brauche
brauchen
braucht
brauchte
brauer
brauerei
brauereien
braun
braune
braunen
brauner
braunkohle
braunlich
braunschweig
braunschweiger
braunschweigischen
braut
brautigam
brave
bravo
brazil
brd
break
breaking
brechen
brecht
bregenz
breisgau
breit
breite
breiten
breiter
breiteren
breites
breitkopf
bremen
bremer
bremerhaven
bremischen
bremse
bremsen
brennen
brennende
brennenden
brenner
brennt
brentano
brescia
breslau
breslauer
brest
bretagne
brett
breuer
brian
bricht
bridge
bridges
brief
briefe
briefen
briefmarke
briefmarken
briefwechsel
brien
brigade
brigadegeneral
bright
brighton
brigitte
brill
brille
brilon
bring
bringe
bringen
bringt
brinkmann
brisbane
bristol
britain
britannica
briten
britisch
britische
britischen
britischer
britisches
british
britta
brixen
brno
broadcasting
broadway
brock
brockhaus
brod
broken
bronze
bronzemedaille
bronzezeit
brook
brooke
brooklyn
brooks
bros
broschure
brot
brother
brothers
brown
browser
brt
bruce
bruch
bruche
bruchsal
bruchstucke
bruck
brucke
brucken
bruckmann
bruckner
bruder
brudern
bruders
bruderschaft
brugge
bruhl
brun
brunn
brunnen
brunner
bruno
bruns
brunswick
brussel
brust
brut
brutal
bruten
bryan
bryant
bs
bsb
bsc
bsg
bspw
bt
bu
buch
buchanan
buchautor
buchdrucker
buchdruckerei
buche
buchen
buchenwald
bucher
bucherei
buchern
buches
buchgesellschaft
buchhandler
buchhandlung
buchholz
buchner
buchreihe
buchs
buchse
buchstabe
buchstaben
buchsuche
bucht
buchverlag
buck
bud
budapest
buddha
buddhismus
buddhistischen
buddy
budget
budingen
buenos
buffalo
bug
buhl
buhler
buhne
buhnen
buhnenbildner
building
buildings
bukarest
bulgarien
bulgarisch
bulgarische
bulgarischen
bulgarischer
bull
bulle
bulletin
bulow
bund
bunde
bundes
bundesamt
bundesamtes
bundesanstalt
bundesanzeiger
bundesarchiv
bundesautobahn
bundesbahn
bundesbank
bundesdenkmalamt
bundesebene
bundesgerichtshof
bundesgesetz
bundeskanzlei
bundeskanzler
bundesland
bundeslander
bundeslandern
bundeslandes
bundesliga
bundesligisten
bundesminister
bundesministerium
bundesministeriums
bundesprasident
bundesprasidenten
bundesrat
bundesrates
bundesregierung
bundesrepublik
bundesstaat
bundesstaaten
bundesstaates
bundesstaats
bundesstraße
bundesstraßen
bundestag
bundestages
bundestagswahl
bundesverband
bundesverdienstkreuz
bundesverfassungsgericht
bundesversammlung
bundeswehr
bundesweit
bundeszentrale
bundner
bundnis
bundschuh
bunker
bunt
bunte
bunten
burchard
burckhardt
bureau
buren
burg
burganlage
burgdorf
burgen
burgenland
burger
burgerkrieg
burgerkrieges
burgerkriegs
burgerlich
burgerliche
burgerlichen
burgerlicher
burgerliches
burgermeister
burgermeisterei
burgermeisterin
burgermeisters
burgermeisterwahl
burgern
burgerrecht
burgers
burgerschaft
burgess
burggraf
burggrafen
burghausen
burgos
burgruine
burgstall
burgtheater
burgund
burke
burkhard
burkhardt
burkina
burlington
burma
burn
burning
burns
buro
buros
bursche
burschen
burschenschaft
burton
bus
busbahnhof
busch
bush
business
buslinie
buslinien
busse
bussen
buste
but
butler
butter
buttner
button
buy
buße
bv
bvb
bverfg
bverfge
bvr
bw
bwv
bx
by
byrd
byron
byte
byzantinische
byzantinischen
byzanz
bz
bzw
bɐ
bə
c
c0
c1
c2
c3
c4
c5
c6
c7
c8
c9
ca
cabinet
cable
cache
caen
caesar
cafe
cafes
cage
cairo
calais
calcio
calcium
calgary
california
call
calle
called
calvin
calw
cam
camara
cambridge
came
camera
cameron
camille
camillo
camp
campaign
campbell
campe
campingplatz
campo
campos
campus
can
canada
canadian
canal
canberra
cancer
canmore
cannes
cannstatt
canon
canterbury
canto
canton
canyon
cao
cap
cape
capelle
capital
capitel
capitol
cappella
captain
car
caracas
carbon
card
cardiff
cardinal
cardinals
care
career
carey
cargo
caribbean
caritas
carl
carla
carlo
carlos
carlsen
carmen
carnegie
carol
carola
carolina
caroline
carpenter
carr
carroll
cars
carson
carsten
carter
cas
casa
casanova
casar
case
cases
casey
cash
casimir
casino
caspar
cass
cassel
cassius
cast
castell
castello
castillo
casting
castle
castro
cat
catalana
catalog
catalogue
catalogus
caterina
catharina
cathedral
catherine
catholic
cato
causa
cause
cave
cb
cbs
cc
cd
cdot
cdots
cds
cdu
ce
cecil
cecilia
cell
celle
cellist
cello
cells
celsius
celtic
cembalo
cemetery
census
cent
center
centers
central
centre
centro
centrum
century
ceo
cerro
cesar
cesare
ceske
ceskeho
cesky
cf
cg
ch
cha
chain
chairman
challenge
challenger
cham
chamber
chamberlain
chambers
champagne
champion
champions
championship
championships
chan
chance
chancen
chandler
chang
change
changes
channel
chanson
chaos
chapel
chapelle
chapman
chapter
char
character
charakter
charaktere
charakterisiert
charakterisierung
charakteristik
charakteristisch
charakteristische
charakteristischen
charakters
charente
charge
charite
charles
charleston
charlie
charlotte
charlottenburg
charme
chart
charta
chartquellen
charts
chase
chassis
chateau
chaussee
che
check
checklist
chef
chefredakteur
chefs
cheftrainer
chelsea
chem
chemical
chemie
chemiker
chemin
chemisch
chemische
chemischen
chemischer
chemistry
chemnitz
chemnitzer
chen
cheng
cher
cherry
chess
chester
chevalier
chevrolet
chez
chi
chiang
chicago
chief
chiefs
chiesa
child
children
chile
chilenischen
chilenischer
chin
china
chinas
chinese
chinesen
chinesisch
chinesische
chinesischen
chinesischer
chip
chips
chirurg
chirurgen
chirurgie
chirurgischen
cho
choice
cholera
chopin
chor
choral
chore
chores
chorleiter
chorraum
chors
chr
chris
christ
christa
christel
christen
christensen
christentum
christentums
christi
christian
christiane
christians
christie
christina
christine
christlich
christliche
christlichen
christlicher
christmas
christo
christof
christoph
christophe
christopher
christophorus
christus
christuskirche
chromosomenzahl
chronicle
chronik
chroniken
chronist
chronologie
chronologisch
chrysler
chu
chuck
chur
church
churchill
ci
cia
cic
cicero
cie
cil
cincinnati
cinema
circ
circa
circle
circuit
circus
cis
cities
citroen
citta
city
citypopulation
ciudad
civil
cj
ck
cken
cl
claire
clan
clans
clapton
clara
clare
clarence
clarendon
clark
clarke
class
classe
classen
classic
classical
classics
classification
classischen
claude
claudia
claudio
claudius
claus
clausthal
clay
clayton
clear
clemens
clement
clermont
cleveland
client
cliff
clifford
climate
clinical
clinton
clive
close
cloud
club
clubs
cluj
cluster
clyde
cm
cn
cnn
co
coach
coast
cobra
coburg
cockpit
cod
code
codes
codex
cohen
cohn
cohors
col
cola
cold
cole
coleman
colin
coll
collection
collections
college
collegen
colleges
collegium
collins
colmar
coln
cologne
colombia
colombo
colon
colonel
colonia
colonial
color
colorado
colt
columbia
columbus
com
combat
come
comeback
comedian
comedy
comes
comic
comics
comiczeichner
coming
comite
command
commander
commando
commerce
commercial
commission
commissioner
committee
commodore
common
commons
commonwealth
communaute
commune
communes
communication
communications
community
como
comp
compact
compagnie
companion
company
comparative
competition
compilation
compiler
complete
complex
composite
composition
compositionen
computer
computergenealogie
computerspiel
computing
comte
comune
con
conan
concacaf
concept
concern
concert
concerto
concordia
conde
conference
conflict
congress
connecticut
connection
connor
conrad
conseil
conservation
conservative
const
constant
constantin
constitution
construction
consul
contact
container
conte
contemporary
content
contest
context
conti
continental
contra
contract
contribution
control
controller
convention
conversations
conway
cook
cool
cooper
cop
copa
cops
copyright
cor
cordillera
cordoba
core
corinna
cork
cornelia
cornelis
cornelius
cornell
corner
cornwall
corona
coronavirus
corp
corporate
corporation
corps
corpus
cortes
cos
costa
cote
cotta
cottbus
cotton
could
council
count
counties
countries
country
county
countys
coup
coupe
courage
course
court
cousin
cousine
cov
cove
cover
coverversion
covid
cowboy
cowboys
cox
cp
cpu
cq
cr
craig
crailsheim
cramer
crash
crawford
crazy
crc
creation
creative
credit
creek
cremer
crew
cricinfo
cricket
crime
criminal
crisis
cristina
critical
critics
critique
croix
cross
crossing
crown
cruise
cruz
cry
crystal
cs
csd
csi
csu
csv
ct
cu
cuba
cuetracker
cultur
cultura
cultural
culture
cum
cumberland
cunningham
cup
cups
curie
current
curriculum
curt
curtis
curtius
cut
cuxhaven
cv
cvp
cw
cx
cy
cycle
cycling
cyril
cyrus
cz
czech
d
d0
d1
d2
d3
d4
d5
d6
d7
d8
d9
da
dab
dabei
dach
dachau
dacher
dachreiter
dachte
dachverband
dadurch
dafur
dag
dagegen
dagmar
daheim
daher
dahin
dahingehend
dahinter
dahl
dahlem
dahme
dai
daily
daimler
dakar
dakota
dal
dale
dallas
dalmatien
dalton
dam
damalige
damaligen
damaliger
damals
damaskus
dame
damen
damian
damit
damm
damme
dammerung
damon
damonen
dampf
dampfer
dampflokomotiven
dampfmaschine
dan
dana
danach
dance
dancing
dane
daneben
danemark
danemarks
danen
daniel
daniela
daniele
daniels
danisch
danische
danischen
danischer
dank
dankbar
dankbarkeit
danke
danken
dann
dannenberg
danny
dans
dansk
danske
dante
danzig
danziger
dar
daran
darauf
darauffolgenden
daraufhin
daraus
darf
dargestellt
dargestellten
darin
dario
dark
darkness
darm
darmstadt
darmstadter
darnach
darren
darstellen
darstellende
darsteller
darstellerin
darstellt
darstellte
darstellung
darstellungen
darts
daruber
darum
darunter
darwin
darzustellen
das
dasein
daseins
daselbst
dasjenige
dass
dasselbe
dat
data
database
date
datei
dateien
daten
datenbank
datenbanken
datenbanklinks
datenblatt
datensatz
datenschutz
datenverarbeitung
dates
datieren
datiert
datierung
dativ
dato
datum
dauer
dauerausstellung
dauerhaft
dauerhafte
dauerhaften
dauern
dauernd
dauernde
dauernden
dauert
dauerte
dauerten
daughter
daumen
dave
david
davids
davidson
davies
davis
davon
davor
davos
dawn
dawson
day
days
daz
dazu
dazugehorige
dazugehorigen
dazwischen
daß
db
dbi
dc
dd
ddp
ddr
de
dead
deadline
deal
dean
dearborn
death
debatte
debatten
deborah
debove
debut
debutalbum
debutierte
dec
december
decennial
decision
deck
decke
deckel
decken
decker
deckt
deckte
deckung
dee
deep
def
defa
defekt
defence
defense
defensive
definieren
definiert
definierte
definierten
definition
definitionen
definitiv
definitive
degen
deggendorf
degli
dehio
dei
dein
deine
deinem
deinen
deiner
deines
dekan
dekanat
deklination
dekoration
dekret
del
delaware
delegation
delegierten
delegierter
delhi
delitzsch
delius
dell
della
delle
delmenhorst
delta
deluxe
dem
demand
dementsprechend
demgegenuber
demjenigen
demnach
demo
democracy
democratic
demografiche
demokraten
demokratie
demokratisch
demokratische
demokratischen
demokratischer
demonstranten
demonstration
demonstrationen
demontiert
demos
demselben
demzufolge
den
denen
denis
denise
denjenigen
denk
denkbar
denke
denken
denkens
denker
denkmal
denkmalatlas
denkmaldatenbank
denkmale
denkmaleigenschaft
denkmaler
denkmalern
denkmalgeschutzte
denkmalgeschutzten
denkmalgeschutztes
denkmalliste
denkmallisten
denkmalpflege
denkmals
denkmalschutz
denkmalschutzbehorde
denkmalschutzgesetz
denkmalschutzgesetzes
denkmaltopographie
denkmalverzeichnis
denkschrift
denkt
denn
dennis
dennoch
denselben
denver
departamento
departement
departements
department
deportation
deportiert
deportivo
depot
depression
deputy
der
derart
derartige
derartigen
derby
derek
deren
derer
dergleichen
derivatem
derivation
derjenige
derjenigen
ders
derselbe
derselben
derstandard
derweil
derzeit
derzeitigen
des
description
desert
deshalb
design
designer
designs
desire
desktop
dessau
desselben
dessen
desto
deswegen
det
detail
detailliert
detaillierte
details
detective
detektiv
determinativkompositum
detlef
detlev
detmold
detroit
deuten
deutet
deutete
deutlich
deutliche
deutlichen
deutlicher
deutsch
deutsche
deutschem
deutschen
deutscher
deutsches
deutschland
deutschlandfunk
deutschlandradio
deutschlands
deutschsprachige
deutschsprachigen
deutschsprachiger
deutung
deutz
deux
development
devil
devils
devon
dez
dezember
deß
df
dfb
dfg
dg
dgl
dh
dhb
di
dia
diabetes
diagnose
diagnostik
diagramm
diakon
diakonie
dialekt
dialekte
dialog
dialoge
diamant
diamanten
diamond
diana
diane
diario
diary
diaspora
diaz
diccionari
diccionario
dich
dicht
dichte
dichten
dichter
dichterin
dichtern
dichters
dichtung
dichtungen
dick
dicke
dicken
dicker
dict
dictionary
dictionnaire
dictionnaires
did
didaktik
didier
die
dieb
diebstahl
dieburg
diederichs
diego
diehl
diejenige
diejenigen
dienen
diener
dienst
dienstag
dienste
diensten
dienstes
dienstgrad
dienstleister
dienstleistung
dienstleistungen
dienststelle
dienstzeit
dient
diente
dienten
diepresse
dies
diese
diesel
dieselbe
dieselben
dieselmotor
dieselmotoren
diesem
diesen
dieser
dieses
diesmal
dieter
dietmar
dietrich
dietz
diez
dieß
different
differential
differentialgleichungen
differenz
differenzen
differenzierung
dig
digital
digitale
digitalen
digitaler
digitales
digitalisat
digitalisathttp
digitalisiert
digitalisierte
digitalisierung
dijon
diktator
diktatur
dili
dill
dillenburg
dillingen
dim
dimension
dimensionen
din
dinamo
ding
dinge
dingen
dinkelsbuhl
dinner
dino
dinosaurier
dio
diocese
diod
diogenes
dion
diozese
diozesen
dipl
diplom
diplomarbeit
diplomat
diplomaten
diplomatie
diplomatische
diplomatischen
dir
direct
direction
director
directors
directory
direkt
direkte
direkten
direkter
direktion
direktor
direktorin
direktors
dirigent
dirigenten
dirigierte
dirk
dirty
dis
disc
disco
discography
discogs
discovery
disease
diseases
diskografie
diskriminierung
diskurs
diskussion
diskussionen
diskussionsseite
diskutiert
disney
display
displaystyle
disposition
disqualifikation
disqualifiziert
diss
dissertation
distanz
distinguished
distribution
district
distrikt
distrikte
distrikts
disziplin
disziplinen
div
diverse
diversen
diverser
diversity
division
divisionen
divisions
dix
dixon
dizionario
dj
dk
dl
dm
dmg
dmitri
dn
dna
dnb
dnf
dnvp
do
dobbertin
doc
doch
doctor
document
documenta
documentary
documents
dodge
does
dog
doge
dogen
dogmatik
dogs
doha
doi
doktor
doktorarbeit
doku
dokument
dokumentarfilm
dokumentation
dokumentationen
dokumente
dokumenten
dokumentieren
dokumentiert
dokumentierte
doll
dollar
dolmen
dolni
dom
domain
domane
dome
domenico
domes
domherr
dominante
dominanz
domingo
domini
dominic
dominieren
dominiert
dominierte
dominierten
dominik
dominikaner
dominique
domkapitel
doms
don
donald
donau
donezk
dong
donna
donner
donnerstag
doom
door
doping
doppel
doppelkonkurrenz
doppelseitig
doppelt
doppelte
doppelten
doppelter
dora
dordrecht
dorf
dorfbewohner
dorfe
dorfer
dorfern
dorfes
dorfkirche
dorfs
doring
doris
dorn
dornbirn
dornen
dorothea
dorothee
dorothy
dorpat
dort
dorthin
dortige
dortigen
dortmund
dortmunder
dos
dosen
dossier
dot
dotiert
dots
double
doug
douglas
dover
down
download
downs
doyle
dozent
dozenten
dozentin
dp
dpa
dq
dr
drache
drachen
dracula
draft
dragon
dragoner
dragons
draht
drake
drama
dramatiker
dramatische
dramatischen
dramaturg
dramen
dran
drang
drangen
drangt
drangte
drastisch
drauf
draußen
draw
dream
dreams
dreh
dreharbeiten
drehbuch
drehbuchautor
drehbuchautoren
drehbuchautorin
drehbucher
drehen
drehmoment
dreht
drehte
drehung
drehzahl
drei
dreieck
dreier
dreifach
dreifaltigkeit
dreimal
dreischiffige
dreizehn
dreißig
dreißigjahrigen
dresden
dresdener
dresdner
drew
drey
dreyer
drin
dringen
dringend
dringt
dritte
drittel
dritten
dritter
drittes
drittklassigen
drittligisten
drive
driver
droemer
droga
drogen
drohenden
droht
drohte
drop
droste
drs
druben
druck
drucke
drucken
drucker
druckerei
drucksache
druckt
druckte
drug
drum
drusen
ds
dschungel
dt
dts
dtv
du
dual
dubai
dublin
duc
duck
duden
dudenredaktion
dudenverlag
dudley
due
duell
duett
duft
duisburg
duisburger
duke
dumm
dumont
dun
duncan
duncker
dundee
dunen
dunkel
dunkelbraun
dunkelheit
dunkeln
dunkle
dunklen
dunkler
dunn
dunne
dunnen
dunner
duo
duos
dur
durch
durchaus
durchbrochen
durchbruch
durcheinander
durchfließt
durchflossen
durchfuhren
durchfuhrte
durchfuhrung
durchgang
durchgangig
durchgefuhrt
durchgefuhrte
durchgefuhrten
durchgehend
durchgehende
durchgehenden
durchgesehene
durchgesetzt
durchlaufen
durchlief
durchmesser
durchquert
durchs
durchschnitt
durchschnittlich
durchschnittliche
durchschnittlichen
durchschnittsalter
durchschnittseinkommen
durchsetzen
durchsetzte
durchsetzung
durchweg
durchzogen
durchzufuhren
durchzusetzen
duren
durer
durfe
durfen
durfte
durften
durham
during
durkheim
durlach
durr
durst
dusseldorf
dusseldorfer
dutch
dutzend
dux
dv
dvb
dvd
dvds
dvorak
dvp
dw
dwdl
dx
dy
dylan
dynamic
dynamics
dynamik
dynamische
dynamischen
dynamo
dynastie
dz
dɐ
də
dəm
dən
dəs
dʊʁc
e
e0
e1
e2
e3
e4
e5
e6
e7
e8
e9
ea
each
eagle
eagles
earl
earliest
early
earth
east
eastern
easy
eau
eb
ebd
eben
ebenda
ebene
ebenen
ebenfalls
ebenso
eberhard
eberswalde
ebert
ebner
ec
echo
echt
echte
echten
echter
echtzeit
eck
eckart
ecke
ecken
eckernforde
eckert
eckhard
eco
ecole
ecology
economic
economics
economy
ecuador
ed
edda
eddie
eddy
edel
edelmann
eden
eder
edgar
edge
edinburgh
edison
edit
edith
edition
editions
editor
editorial
edizioni
edle
edlen
edler
edmond
edmonton
edmund
edo
edouard
eds
edu
eduard
eduardo
education
educational
edv
edward
edwards
edwin
ee
een
eesti
ef
effect
effects
effekt
effekte
effektiv
effektive
effizienz
eg
egal
eger
egg
egger
eglise
ego
egon
egypt
egyptian
eh
ehc
ehe
ehefrau
eheleute
ehem
ehemalige
ehemaligen
ehemaliger
ehemaliges
ehemals
ehemann
ehen
ehepaar
eher
eheschließung
ehf
ehlers
ehr
ehre
ehren
ehrenamtlich
ehrenamtliche
ehrenamtlichen
ehrenamtlicher
ehrenburger
ehrendoktor
ehrendoktorwurde
ehrenlegion
ehrenmitglied
ehrenpreis
ehrentitel
ehrenzeichen
ehrlich
ehrt
ehrte
ehrung
ehrungen
ei
eich
eiche
eichen
eichenlaub
eichhorn
eichsfeld
eichstatt
eid
eidgenossenschaft
eidgenossische
eidgenossischen
eier
eiern
eifel
eifer
eifersucht
eiformig
eifrig
eigen
eigenart
eigene
eigenem
eigenen
eigener
eigenes
eigens
eigenschaft
eigenschaften
eigenstandig
eigenstandige
eigenstandigen
eigenstandiger
eigenstandiges
eigenstandigkeit
eigenthum
eigentlich
eigentliche
eigentlichen
eigentlicher
eigentum
eigentumer
eigenverlag
eight
eignen
eigner
eignet
eile
eilig
eilt
eilte
ein
einander
einbau
einberufen
einbeziehung
einbezogen
einbindung
einblick
einblicke
einbrachte
einbruch
eindeutig
eindeutige
eindhoven
eindringen
eindruck
eindrucke
eine
eineinhalb
einem
einen
einer
einerseits
eines
einfach
einfache
einfachen
einfacher
einfaches
einfachheit
einfachste
einfachsten
einfahrt
einfall
einfluss
einflusse
einflussen
einflussreiche
einflussreichen
einflussreichsten
einfluß
einfuhren
einfuhrte
einfuhrung
eingabe
eingang
eingange
eingangs
eingangsbereich
eingebaut
eingebettet
eingebracht
eingebunden
eingefugt
eingefuhrt
eingefuhrte
eingefuhrten
eingegangen
eingegliedert
eingehalten
eingehen
eingeladen
eingelassen
eingelegt
eingeleitet
eingemeindet
eingemeindung
eingenommen
eingeordnet
eingepfarrt
eingeraumt
eingereicht
eingerichtet
eingerichtete
eingerichteten
eingeschlossen
eingeschrankt
eingeschrankte
eingesehen
eingesetzt
eingesetzte
eingesetzten
eingespielt
eingestellt
eingestuft
eingeteilt
eingetragen
eingetragenes
eingetreten
eingewechselt
eingeweiht
eingezogen
eingliederung
eingreifen
eingriff
eingriffe
einhaltung
einheimische
einheimischen
einheit
einheiten
einheitlich
einheitliche
einheitlichen
einher
einig
einige
einigen
einiger
einigermaßen
einiges
einigkeit
einigte
einigten
einigung
einjahrigen
einkaufszentrum
einklang
einkommen
einkunfte
einladung
einleitung
einmal
einmalig
einmalige
einmarsch
einmundung
einnahm
einnahme
einnahmen
einnehmen
einnimmt
einode
einordnung
einreise
einrichten
einrichtung
einrichtungen
eins
einsam
einsame
einsamen
einsamkeit
einsatz
einsatze
einsatzen
einsatzes
einschatzung
einschlagigen
einschließlich
einschrankung
einschrankungen
einsehbar
einseitig
einsetzen
einsetzt
einsetzte
einsetzung
einsicht
einsiedeln
einspritzpumpe
einspruch
einst
einstein
einstellen
einstellung
einstellungen
einstieg
einstige
einstigen
einstimmig
einstufung
einteilung
eintracht
eintraf
eintrag
eintrage
eintragen
eintragung
eintrat
eintreffen
eintreten
eintritt
einvernehmen
einverstanden
einw
einwanderer
einwanderung
einweihung
einwilligung
einwirkung
einwohner
einwohnern
einwohnerzahl
einwohnerzahlen
einzel
einzelausstellung
einzelfall
einzelheiten
einzelkonkurrenz
einzeln
einzelne
einzelnen
einzelner
einzelnes
einzelpersonen
einzelzeitfahren
einziehen
einzig
einzigartig
einzigartige
einzige
einzigen
einziger
einziges
einzufuhren
einzug
einzugehen
einzugsgebiet
einzunehmen
einzurichten
einzusetzen
einzustellen
einzutreten
eis
eisen
eisenach
eisenbahn
eisenbahnbrucke
eisenbahnen
eisenbahngesellschaft
eisenbahnlinie
eisenbahnnetz
eisenbahnstrecke
eisenberg
eisenstadt
eisenzeit
eiserne
eisernen
eishockey
eishockeyspieler
eisleben
eiszeit
ej
ek
ekd
ekkehard
ekliptik
el
elbe
elberfeld
ele
eleanor
election
elections
electric
electronic
electronics
elefanten
elektrifiziert
elektrifizierung
elektrisch
elektrische
elektrischen
elektrischer
elektrizitat
elektro
elektronen
elektronik
elektronisch
elektronische
elektronischen
elektronischer
elektrotechnik
element
elementary
elemente
elementen
elements
elena
elend
eleonore
elephant
elexiko
elf
elfenbein
elfenbeinkuste
elfmeterschießen
elfriede
elfte
elften
eli
elias
elisa
elisabeth
elise
elite
eliteprospects
elizabeth
elke
ell
ella
elle
ellen
elliot
elliott
elliptisch
elliptische
ellis
ellwangen
elmar
elo
elsa
elsass
elsaß
else
elsevier
elster
elterlichen
eltern
elternhaus
elvis
elwert
em
emanuel
emden
emergency
emeritiert
emeritierter
emeritierung
emerson
emi
emigranten
emigration
emigrierte
emil
emile
emilia
emilie
emilio
emily
emir
emirate
emissionen
emma
emmanuel
emmerich
emmy
emotional
emotionale
emotionen
empfahl
empfand
empfang
empfangen
empfanger
empfangsgebaude
empfangt
empfehlen
empfehlung
empfehlungen
empfiehlt
empfinden
empfindlich
empfindung
empfindungen
empfing
empfohlen
empfohlene
empfunden
empire
empirische
empirischen
empor
empore
emporen
emporung
ems
en
enciclopedia
encyclopaedia
encyclopedia
encyclopedie
encyclopædia
encyklopadie
end
ende
endemisch
endemit
enden
endergebnis
enders
endes
endet
endete
endeten
endgultig
endgultige
endgultigen
endlich
endliche
endlichen
endpunkt
endrunde
endspiel
endstand
endstation
endung
enemy
energie
energien
energieversorgung
energiewende
energisch
energy
eng
engagement
engagements
engagieren
engagiert
engagierte
enge
engel
engelbert
engelhardt
engelmann
engeln
engels
engen
enger
engeren
engine
engineering
engineers
engl
england
englander
englands
englisch
englische
englischen
englischer
englisches
englischsprachige
englischsprachigen
english
engsten
enigma
enke
enkel
enkelin
enns
enorm
enorme
enormen
enrico
enrique
ensemble
ensembles
ent
entdecken
entdecker
entdeckt
entdeckte
entdeckten
entdeckung
entdeckungen
enteignet
enteignung
enterprise
entertainment
entfallen
entfallt
entfalten
entfaltet
entfaltete
entfaltung
entferne
entfernen
entfernt
entfernte
entfernten
entfernung
entfernungen
entfiel
entfielen
entfuhrt
entfuhrung
entgegen
entgegnete
entgehen
entgelt
enthalt
enthalten
enthaltend
enthaltene
enthaltenen
enthielt
enthielten
enthoben
enthullt
entkommen
entlang
entlassen
entlassung
entlehnt
entlehnung
entnehmen
entnommen
entre
entrichten
entry
entsandt
entsandte
entschadigung
entscheiden
entscheidend
entscheidende
entscheidenden
entscheidet
entscheidung
entscheidungen
entschied
entschieden
entschloss
entschlossen
entschluss
entschluß
entschuldigung
entsetzen
entsetzt
entsprach
entsprachen
entsprechen
entsprechend
entsprechende
entsprechenden
entsprechender
entsprechendes
entsprechung
entspricht
entspringen
entspringt
entstammen
entstammt
entstammte
entstand
entstanden
entstandene
entstandenen
entstehen
entstehende
entstehenden
entsteht
entstehung
entstehungsgeschichte
entstehungszeit
enttauscht
enttauschung
entwarf
entwassert
entweder
entwerfen
entwickeln
entwickelt
entwickelte
entwickelten
entwickelung
entwickler
entwicklung
entwicklungen
entwicklungsgeschichte
entworfen
entworfene
entwurf
entwurfe
entwurfen
entwurfsphase
entziehen
entzog
entzogen
entzundung
environment
environmental
enzyklopadie
enzym
enzyme
eo
eos
ep
ephraim
epic
epidemie
episode
episoden
epitaph
epoche
epochen
epos
epp
eps
epsilon
epstein
eq
equipe
equiv
er
era
erarbeitet
erarbeitete
erasmus
erb
erbach
erbauen
erbauer
erbaut
erbaute
erbauten
erbauung
erbe
erben
erbfolgekrieg
erbin
erblichen
erblickt
erblickte
erbracht
erbschaft
erbte
erd
erdbeben
erdboden
erde
erden
erdgas
erdgeschoss
erdmann
erdoberflache
erdogan
erdol
ereignete
ereignis
ereignisse
ereignissen
erfahren
erfahrenen
erfahrt
erfahrung
erfahrungen
erfand
erfassen
erfasst
erfassung
erfinder
erfindung
erfindungen
erfolg
erfolge
erfolgen
erfolges
erfolglos
erfolglosen
erfolgreich
erfolgreiche
erfolgreichen
erfolgreicher
erfolgreichste
erfolgreichsten
erfolgt
erfolgte
erfolgten
erforderlich
erforderliche
erforderlichen
erfordern
erfordert
erforderte
erforschen
erforscht
erforschte
erforschung
erfreuen
erfreut
erfreute
erfuhr
erfuhren
erfullen
erfullt
erfullte
erfullung
erfunden
erfurt
erfurter
ergab
ergaben
erganze
erganzen
erganzend
erganzt
erganzte
erganzung
erganzungen
ergeben
ergebnis
ergebnisse
ergebnissen
ergibt
erging
ergreifen
ergriff
ergriffen
erhalt
erhalten
erhaltene
erhaltenen
erhaltlich
erhaltung
erhard
erheben
erheblich
erhebliche
erheblichen
erheblicher
erhebt
erhebung
erhebungen
erhielt
erhielten
erhob
erhoben
erhobenen
erhoffte
erhohen
erhoht
erhohte
erhohten
erhohter
erhohung
erholen
erholung
eric
erich
erik
erika
erinnere
erinnern
erinnert
erinnerte
erinnerung
erinnerungen
erkannt
erkannte
erkannten
erkennbar
erkennen
erkennt
erkenntnis
erkenntnisse
erkenntnissen
erker
erklaren
erklart
erklarte
erklarten
erklarung
erklarungen
erkrankt
erkrankte
erkrankten
erkrankung
erkrankungen
erkunden
erlag
erlangen
erlanger
erlangt
erlangte
erlangten
erlangung
erlass
erlassen
erlauben
erlaubnis
erlaubniß
erlaubt
erlaubte
erlaubten
erlautert
erlauterung
erlauterungen
erleben
erlebnis
erlebnisse
erlebt
erlebte
erlebten
erledigt
erleichtern
erleichtert
erleichterung
erlernen
erlernte
erliegen
erließ
erlitt
erlitten
erlosch
erloschen
erlosung
ermitteln
ermittelt
ermittelte
ermittelten
ermittler
ermittlung
ermittlungen
ermland
ermoglichen
ermoglicht
ermoglichte
ermoglichten
ermorden
ermordet
ermordeten
ermordung
ern
erna
ernahren
ernahrt
ernahrung
ernannt
ernannte
ernannten
ernennung
ernest
ernesto
erneuerbare
erneuert
erneuerte
erneuerung
erneut
erneute
erneuten
ernst
ernste
ernsten
ernsthaft
ernte
erobern
erobert
eroberte
eroberten
eroberung
eroffnen
eroffnet
eroffnete
eroffneten
eroffnung
eroffnungsfeier
eros
erosion
erprobt
erprobung
errang
erreger
erregt
erregte
erregten
erregung
erreichbar
erreichen
erreicht
erreichte
erreichten
errichten
errichtet
errichtete
errichteten
errichtung
erringen
errungen
ers
ersatz
erschaffen
erscheinen
erscheinende
erscheinenden
erscheint
erscheinung
erscheinungen
erscheinungsbild
erschien
erschienen
erschienene
erschienenen
erschießen
erschlagen
erschließen
erschließung
erschlossen
erschopft
erschossen
erschrocken
erschuttert
erschwert
ersetzen
ersetzt
ersetzte
ersichtlich
erst
erstauffuhrung
erstauflage
erstaunen
erstaunt
erstausgabe
erstausstrahlung
erstbeschreibung
erstbeschrieben
erste
erstellen
erstellt
erstellte
erstellten
erstellung
erstem
ersten
erstens
erster
erstere
ersteren
ersterwahnung
erstes
erstflug
erstligisten
erstmals
erstrecken
erstreckt
erstreckte
erstveroffentlichung
erteilen
erteilt
erteilte
ertrag
ertrage
ertragen
erw
erwachen
erwachsen
erwachsene
erwachsenen
erwachsenenbildung
erwacht
erwachte
erwahlt
erwahnen
erwahnenswert
erwahnt
erwahnte
erwahnten
erwahnung
erwarb
erwarben
erwarmung
erwarten
erwartet
erwartete
erwarteten
erwartung
erwartungen
erwecken
erweckt
erweisen
erweist
erweitere
erweitern
erweitert
erweiterte
erweiterten
erweiterter
erweiterung
erweiterungen
erwerb
erwerben
erwiderte
erwies
erwiesen
erwin
erworben
erworbenen
erwunscht
erz
erzahlen
erzahler
erzahlt
erzahlte
erzahlung
erzahlungen
erzbischof
erzbischofe
erzbischofs
erzbistum
erzbistums
erzdiozese
erzengel
erzeugen
erzeugnisse
erzeugt
erzeugte
erzeugten
erzeugung
erzgebirge
erzherzog
erzieher
erziehung
erzielen
erzielt
erzielte
erzielten
erzogen
erzstift
es
esa
esc
escape
esch
eschenbach
escher
eschweiler
esel
espana
espanola
esperanto
espn
essay
essays
esse
essen
essener
esser
essex
esslingen
est
estadio
estadistica
estado
estate
estatistica
este
esther
estland
estnisch
estnische
estnischen
estnischer
et
eta
etablieren
etabliert
etablierte
etablierten
etablierung
etage
etagen
etappe
etappen
etat
etc
etcs
eth
ethik
ethische
ethnie
ethnien
ethnisch
ethnische
ethnischen
ethnologie
etienne
etliche
etlichen
etude
etudes
etwa
etwas
etymologie
etymologisches
eu
euch
euer
eugen
eugene
eugenie
eule
euler
eur
eure
euro
europa
europacup
europaea
europaer
europaische
europaischen
europaischer
europaisches
europameister
europameisterin
europameisterschaft
europameisterschaften
europapokal
europas
europastraße
europawahl
europaweit
europe
european
eurostat
eurovision
euskirchen
ev
eva
evakuiert
evakuierung
evaluation
evan
evang
evangelisch
evangelische
evangelischen
evangelischer
evangelisches
evangelisten
evangelium
evans
eve
evelyn
even
evening
event
events
eventuell
ever
evers
every
everything
evidence
evil
evolution
evolutionary
evtl
ew
ewald
ewg
ewig
ewige
ewigen
ewigkeit
ex
exakt
exakte
examen
excel
excellence
exchange
exclusive
executive
exekutive
exemplar
exemplare
exemplaren
exempt
exeter
exhibition
exil
existenz
existieren
existierende
existierenden
existiert
existierte
existierten
exit
exklave
exklusiv
exkursionsflora
exp
expansion
expedition
expeditionen
experience
experiment
experimental
experimente
experimentelle
experimentellen
experimenten
experte
experten
explizit
exploration
explorer
explosion
expo
exponate
export
exportiert
exposition
express
expression
expressionismus
extended
externe
externen
extra
extragalactic
extrem
extreme
extremen
ey
eye
eyes
ez
f
f0
f1
f2
f3
f4
f5
f6
f7
f8
f9
fa
faber
fabian
fabio
fabricius
fabrik
fabrikant
fabrikanten
fabriken
face
facebook
faces
fach
fachbereich
fache
facher
fachern
fachgebiet
fachhochschule
fachliteratur
fachschule
fachwerk
fachwerkhaus
fachzeitschrift
fachzeitschriften
fact
facto
factor
factory
facts
facultat
faden
fagott
fahig
fahigkeit
fahigkeiten
fahne
fahnen
fahnrich
fahr
fahrbahn
fahre
fahren
fahrenden
fahrer
fahrern
fahrgaste
fahrgestell
fahrplan
fahrrad
fahrrader
fahrt
fahrten
fahrtrichtung
fahrwerk
fahrzeit
fahrzeug
fahrzeuge
fahrzeugen
fahrzeugs
fair
faith
faksimile
fakt
fakten
faktisch
faktor
faktoren
fakultat
fakultaten
falcon
falk
falke
falken
falkenberg
falkenstein
fall
falle
fallen
falls
fallt
falsch
falsche
falschen
falscher
falschlich
falschlicherweise
falschung
false
falten
falter
falun
fame
familiaren
familie
familien
familienbesitz
familiengeschichte
familienmitglieder
familienname
familiennamen
familienunternehmen
families
family
famous
fan
fand
fanden
fang
fangen
fangt
fanny
fans
fantasie
fantastic
fantasy
fao
far
farbe
farben
farbgebung
farbig
farbige
farbigen
farbung
farm
farmer
farmteam
faroer
faschismus
faschistischen
fasern
fashion
faso
fassade
fassaden
fassen
fasst
fasste
fassung
fassungen
fast
faszination
fat
father
fauna
faust
favoriten
fax
faz
fazit
faßte
fb
fbi
fc
fd
fdgb
fdj
fdp
fe
fear
feat
feature
features
featuring
feb
febr
februar
february
fechten
fechter
feder
federal
federation
federgewicht
federico
federn
fee
feel
fehde
fehl
fehlen
fehlende
fehlenden
fehlender
fehler
fehlern
fehlt
fehlte
fehlten
fei
feier
feierlich
feierliche
feierlichen
feierlichkeiten
feiern
feiert
feiertag
feiertage
feiertagen
feierte
feierten
fein
feind
feinde
feinden
feindes
feindliche
feindlichen
feine
feinen
feiner
feld
feldartillerie
felde
felder
feldern
feldes
feldherr
feldherrn
feldkirch
feldmann
feldmarschall
feldzug
feldzuge
felice
felicitas
felipe
felix
fell
felle
fellow
fellows
fellowship
fels
felsen
female
femininum
femme
fen
fenerbahce
fenster
fenstern
fer
ferdinand
ferenc
ferguson
ferien
fern
fernand
fernandez
fernando
ferne
fernen
ferner
fernseh
fernsehen
fernsehens
fernsehfilm
fernsehmoderator
fernsehmoderatorin
fernsehpreis
fernsehproduktionen
fernsehreihe
fernsehsender
fernsehsendung
fernsehserie
fernsehserien
fernstraße
fernverkehr
ferrara
ferrari
ferreira
ferry
fertig
fertige
fertigen
fertiggestellt
fertiggestellte
fertigstellung
fertigte
fertigung
fes
fesseln
fest
feste
festen
fester
festes
festgehalten
festgelegt
festgelegten
festgenommen
festgesetzt
festgestellt
festhalten
festigkeit
festival
festivals
festland
festlegung
festnahme
festplatte
festschrift
festspiele
festspielen
feststellen
feststellung
festung
festungen
festzustellen
fett
feucht
feuchte
feuchten
feuchtigkeit
feuer
feuerbach
feuerstellen
feuerwehr
feuerwehren
feuilleton
ff
ffh
fg
fh
fi
fia
fiat
fiba
fichte
fichten
fiction
fide
fieber
fiedler
fiel
field
fields
fielen
fifa
fifth
fig
figaro
fight
fighter
fighting
figur
figure
figuren
figures
fiktion
fiktive
fiktiven
file
files
filiale
filialen
filialkirche
filip
filippo
film
filmdatenbank
filmdienst
filmdrama
filme
filmeditor
filmemacher
filmen
filmes
filmfest
filmfestival
filmfestivals
filmfestspiele
filmfestspielen
filmkomodie
filmkritik
filmmusik
filmportal
filmpreis
filmproduktion
filmproduzent
filmregisseur
filmreihe
films
filmschauspieler
filmschauspielerin
filmstarts
filmwirtschaft
filter
fin
final
finale
finalist
finalrunde
finals
finance
financial
finanz
finanzamt
finanzen
finanziell
finanzielle
finanziellen
finanzieller
finanzieren
finanziert
finanzierte
finanzierung
finanzminister
finanzministerium
find
findagrave
finde
finden
findet
fine
fing
finger
fingern
fink
finn
finnisch
finnische
finnischen
finnischer
finnland
finnlands
finsternis
fire
firma
firmen
firmensitz
firmierte
first
fis
fisch
fischbach
fische
fischen
fischer
fischerei
fischfang
fish
fishbase
fisher
fishes
fit
fitness
fitz
fitzgerald
fitzroy
fivb
five
fix
fixiert
fj
fjord
fk
fl
flach
flache
flachen
flacher
flag
flagge
flaggen
flak
flamenco
flames
flaming
flamme
flammen
flandern
flanke
flanken
flankiert
flasche
flaschen
flash
flavius
fleck
flecken
fleet
fleisch
fleischer
fleischmann
fleiß
fleißig
fleming
flemming
flensburg
flensburger
fletcher
flexion
fliegen
fliegende
fliegenden
flieger
fliegt
fliehen
flieht
fließen
fließend
fließenden
fließgewasser
fließt
flight
flog
flogen
floh
flohen
flohic
flor
flora
florax
florence
florenz
flores
florian
florida
floss
flossen
flote
floten
flotte
flottille
flow
floyd
floß
fluch
flucht
fluchten
fluchtete
fluchtig
fluchtigen
fluchtlinge
fluchtlingen
flug
fluge
flugel
flugeln
flugels
fluggesellschaft
fluggesellschaften
flughafen
flughafens
flugplatz
flugunfalldaten
flugzeug
flugzeuge
flugzeugen
flugzeugtrager
flur
flurnamen
fluss
flussabwarts
flusse
flussen
flusses
flussigkeit
flussigkeiten
flusslauf
flusterte
flut
fluß
fly
flying
fm
fn
fo
focus
foderalen
foderation
fokus
fol
folge
folgejahr
folgejahren
folgen
folgend
folgende
folgendem
folgenden
folgender
folgendermaßen
folgendes
folgesaison
folgezeit
folglich
folgt
folgte
folgten
folio
folk
folklore
following
folter
fonds
fontaine
fontana
fontane
food
foot
football
footballspieler
for
forall
forbes
force
forces
forchheim
ford
forderer
fordern
forderpreis
fordert
forderte
forderten
forderung
forderungen
forderverein
foreign
forest
forever
fork
forlag
form
formal
formale
formalen
format
formate
formation
formationen
formel
formell
formeln
formen
former
formlich
forms
formula
formuliert
formulierte
formulierung
forscher
forschern
forscht
forschte
forschung
forschungen
forschungs
forschungsergebnisse
forschungsgemeinschaft
forschungsinstitut
forschungsprojekt
forschungsschwerpunkte
forschungsstelle
forschungszentrum
forst
forster
forsthaus
forstwirtschaft
fort
fortan
fortbildung
forte
fortfuhrung
fortgefuhrt
fortgesetzt
fortpflanzung
forts
fortschreibung
fortschritt
fortschritte
fortsetzen
fortsetzte
fortsetzung
fortuna
fortune
fortwahrend
fortzusetzen
forum
forward
fossil
fossilien
foster
foto
fotograf
fotografen
fotografie
fotografien
fotografin
fotos
found
foundation
four
fourth
fowler
fox
foyer
fp
fpo
fq
fr
fra
frac
fracht
frage
fragen
fragestellungen
fraglich
fragment
fragmente
fragt
fragte
fraktion
fraktionen
frame
framework
fran
franc
francais
francaise
france
frances
francesca
francesco
franche
franchise
francis
francisco
franck
francke
franckh
franco
francois
francoise
frank
franke
franken
frankenberg
frankenstein
frankenthal
frankfurt
frankfurter
frankische
frankischen
frankischer
franklin
frankreich
frankreichs
frans
frantisek
franz
franziska
franziskaner
franziskus
franzose
franzosen
franzosisch
franzosische
franzosischen
franzosischer
franzosisches
fraser
frau
frauen
frauenbewegung
frauenfeld
frauenrechtlerin
fraulein
fraunhofer
fred
freddie
freddy
frederic
frederick
frederik
fredrik
free
freedom
freeman
freestyle
fregatte
freguesia
freguesias
frei
freibad
freiberg
freiberger
freiburg
freiburger
freie
freiem
freien
freier
freies
freigabe
freigabebescheinigung
freigegeben
freigelassen
freigelegt
freigesprochen
freiheit
freiheiten
freiheitsstrafe
freiherr
freiherren
freiherrn
freiin
freilassung
freilich
freilichtmuseum
freimaurer
freischaffender
freising
freistaat
freistaates
freistil
freitag
freitags
freiwillig
freiwillige
freiwilligen
freiwilliger
freizeit
fremd
fremde
fremden
fremder
fremdsprache
fremdworter
fremdworterbuch
fremdworterlexikon
french
frequenz
frequenzen
fresh
fresken
fresko
fressen
freud
freude
freuden
freudenberg
freudig
freuen
freund
freunde
freunden
freundes
freundeskreis
freundin
freundinnen
freundlich
freundliche
freundlichen
freundschaft
freundschaftsspiel
freut
frey
freytag
frg
fribourg
frick
fricke
friday
fried
frieda
friedberg
friede
friedel
friedemann
frieden
friedens
friedensvertrag
friederike
friedhelm
friedhof
friedhofe
friedhofs
friedland
friedlander
friedlich
friedliche
friedlichen
friedman
friedr
friedrich
friedrichs
friedrichshafen
friedrichshain
friend
friends
fries
friesen
friesland
frisch
frische
frischen
frischer
frist
fritsch
fritz
fro
froh
frohlich
frohliche
from
fromm
fromme
frommen
frommigkeit
front
frontier
frosch
frost
frucht
fruchtbaren
fruchtbarkeit
fruchte
fruchten
fruchtknoten
fruh
fruhe
fruhen
fruher
fruhere
fruheren
fruherer
fruhes
fruheste
fruhesten
fruhgeschichte
fruhjahr
fruhling
fruhlings
fruhstuck
fruhzeit
fruhzeitig
fruhzeitige
frz
fs
fsk
fsv
ft
fu
fuchs
fuchse
fuer
fuge
fugen
fugenelement
fugger
fugt
fugte
fuhle
fuhlen
fuhlt
fuhlte
fuhlten
fuhr
fuhre
fuhren
fuhrende
fuhrenden
fuhrender
fuhrer
fuhrmann
fuhrt
fuhrte
fuhrten
fuhrung
fuhrungen
fukushima
fulda
full
fulle
fullen
fuller
fullt
fullte
fun
function
functions
fund
fundament
fundamente
funde
funden
fundort
fundstelle
funf
funfmal
funfte
funften
funfter
funfzehn
funfzig
fungieren
fungiert
fungierte
funk
funke
funken
funktion
funktionalitat
funktionar
funktionare
funktionen
funktionieren
funktioniert
fur
furcht
furchtbaren
furchte
furchten
furchtet
furchtete
furs
fursorge
furst
furstbischof
fursten
furstenberg
furstentum
furstentums
furstin
furstlich
furstliche
furstlichen
furth
further
fury
fusion
fusionierte
fusionierten
fuss
fussball
fussballdaten
fussen
futbol
futter
futur
future
fuß
fußball
fußballer
fußballliga
fußballmeisterschaft
fußballnationalmannschaft
fußballs
fußballspielen
fußballspieler
fußballspielerin
fußballtorhuter
fußballtrainer
fußballverband
fußballverein
fußboden
fuße
fußen
fußganger
fußgangerzone
fußnote
fv
fw
fx
fy
fz
fɛɐ
g
g0
g1
g2
g3
g4
g5
g6
g7
g8
g9
ga
gab
gabe
gaben
gabler
gabor
gabriel
gabriela
gabriele
gaetano
gaius
gal
gala
galatasaray
galaxie
galaxien
galaxy
gale
galen
galerie
galerien
galizien
gall
gallen
galler
gallery
gallica
gallien
gallo
gallus
galt
galten
gambia
game
games
gaming
gamma
gan
gandhi
gang
gange
gangen
gangige
gangigen
gangster
gans
ganz
ganze
ganzen
ganzer
ganzes
ganzjahrig
ganzlich
gap
gar
garage
garantiert
garcia
garde
garden
gardens
gardner
garmisch
garnison
garonne
garrett
garten
gartenbau
gartenlaube
gartens
gartner
gary
gas
gase
gasse
gassen
gast
gaste
gasten
gastgeber
gasthaus
gasthof
gastierte
gaston
gastprofessor
gastronomie
gaststatte
gate
gates
gatte
gatten
gattin
gattung
gattungen
gau
gauliga
gaulle
gauß
gavin
gay
gaza
gazette
gazetteer
gb
gc
gd
gdz
ge
geachtet
geandert
gearbeitet
geaußert
geb
gebar
gebaude
gebaudekomplex
gebauden
gebaudes
gebaut
gebaute
gebauten
gebe
gebeine
geben
gebet
gebete
gebeten
gebhard
gebhardt
gebiet
gebiete
gebieten
gebietes
gebiets
gebietsreform
gebietsstand
gebilde
gebildet
gebildete
gebildeten
gebirge
gebirges
geblieben
gebliebenen
gebogen
geboren
geborene
geborenen
geborgen
gebot
gebote
geboten
gebr
gebracht
gebrauch
gebrauche
gebrauchen
gebrauchlich
gebrauchliche
gebrauchlichen
gebraucht
gebrauchte
gebrochen
gebruder
gebuhr
gebuhren
gebunden
gebundenen
geburt
geburtige
geburts
geburtsdatum
geburtshaus
geburtshilfe
geburtsjahr
geburtsort
geburtsstadt
geburtstag
geburtstages
gedacht
gedachte
gedachten
gedachtnis
gedachtniß
gedanke
gedanken
gedeckt
gedeihen
gedeiht
gedenkbuch
gedenken
gedenkstatte
gedenkstein
gedenktafel
gedenktag
gedeutet
gedicht
gedichte
gedichten
gedient
gedrangt
gedreht
gedruckt
gedruckte
gedruckten
geduld
geehrt
geeignet
geeignete
geeigneten
geeigneter
geerbt
gefahr
gefahrden
gefahrdet
gefahrdeten
gefahrdeter
gefahrdung
gefahren
gefahrlich
gefahrliche
gefahrlichen
gefahrlicher
gefahrten
gefalle
gefallen
gefallene
gefallenen
gefallt
gefangen
gefangene
gefangenen
gefangenschaft
gefangnis
gefarbt
gefasst
gefaß
gefaße
gefaßt
gefecht
gefechte
gefechten
gefeiert
gefertigt
gefertigte
gefertigten
gefesselt
gefieder
gefiel
geflogen
geflohen
gefolge
gefolgt
gefordert
geforderte
geforderten
geformt
gefragt
gefuhl
gefuhle
gefuhlen
gefuhrt
gefuhrte
gefuhrten
gefullt
gefunden
gefundene
gefundenen
gegangen
gegeben
gegebene
gegebenen
gegebenenfalls
gegebenheiten
gegen
gegend
gegenden
gegeneinander
gegensatz
gegensatze
gegenseitig
gegenseitige
gegenseitigen
gegenspieler
gegenstand
gegenstande
gegenstanden
gegenstuck
gegenteil
gegentheil
gegenuber
gegenuberliegenden
gegenwart
gegenwartig
gegenwartige
gegenwartigen
gegenworter
gegenzug
gegessen
geglaubt
gegliedert
gegner
gegnerische
gegnerischen
gegnern
gegners
gegossen
gegrundet
gegrundete
gegrundeten
geh
gehabt
gehalt
gehalten
gehaltene
gehaltenen
gehandelt
gehause
gehe
geheim
geheimdienst
geheime
geheimen
geheimer
geheimnis
geheimnisse
geheimnisvolle
geheimniß
geheiratet
gehen
gehirn
gehirns
gehoben
gehobenen
geholfen
geholt
gehor
gehore
gehoren
gehorende
gehorenden
gehorig
gehorige
gehorigen
gehorsam
gehort
gehorte
gehorten
geht
geige
geiger
geiseln
geist
geiste
geister
geistes
geisteswissenschaften
geistig
geistige
geistigen
geistiger
geistliche
geistlichen
geistlicher
geistlichkeit
gejagt
gekampft
gekannt
gekauft
gekennzeichnet
geklart
gekleidet
gekocht
gekommen
gekront
gekurt
gekurzt
gel
geladen
gelagert
gelagerte
gelande
gelandes
gelang
gelangen
gelangt
gelangte
gelangten
gelassen
gelaufen
gelaut
gelb
gelbe
gelben
gelber
gelblich
geld
gelder
geldern
geldes
geldstrafe
gelebt
gelegen
gelegene
gelegenen
gelegenheit
gelegenheiten
gelegentlich
gelegt
gelehrsamkeit
gelehrt
gelehrte
gelehrten
gelehrter
geleistet
geleitet
geleitete
geleiteten
gelernt
gelesen
geliebt
geliebte
geliebten
geliefert
gelingen
gelingt
gelistet
gelitten
gelobt
geloscht
gelost
gelsenkirchen
gelten
geltend
geltende
geltenden
geltung
gelubde
gelungen
gem
gemacht
gemachten
gemahl
gemahlin
gemalde
gemalden
gemalt
gemarkung
gemass
gemaß
gemaßigt
gemaßigten
gemein
gemeinde
gemeindebezirk
gemeindeedikt
gemeindefusionen
gemeindegebiet
gemeindegebiets
gemeindegrenze
gemeindehaus
gemeindelexikon
gemeinden
gemeindeordnung
gemeinderat
gemeinderats
gemeinderatswahl
gemeinderatswahlen
gemeindeteil
gemeindeteile
gemeindeteilen
gemeindeverband
gemeindeverwaltung
gemeindeverzeichnis
gemeindezentrum
gemeine
gemeinen
gemeinfrei
gemeinnutzige
gemeinnutzigen
gemeinsam
gemeinsame
gemeinsamen
gemeinsamer
gemeinsames
gemeinsamkeiten
gemeinschaft
gemeinschaften
gemeinschaftlich
gemeinschaftlichen
gemeint
gemeldet
gemessen
gemisch
gemischt
gemischte
gemischten
gemmingen
gemuse
gemuth
gen
genannt
genannte
genannten
genau
genaue
genauen
genauer
genauere
genauigkeit
genauso
gender
gene
genealogie
genealogische
genealogisches
genealogy
genehmigt
genehmigte
genehmigung
geneigt
genera
general
generaldirektion
generaldirektor
generale
generalfeldmarschall
generalgouverneur
generalisierte
generalleutnant
generalmajor
generals
generalsekretar
generalstab
generalversammlung
generalvikar
generation
generationen
generator
generell
genesis
genesung
genetic
genetics
genetik
genetische
genetischen
geneve
genf
genfer
genie
genießen
genießt
genitiv
genius
genommen
genoss
genossen
genossenschaft
genothigt
genre
genres
gens
gent
gentleman
genua
genug
genugen
genugend
genugt
genugte
genus
genuss
genutzt
genutzte
genutzten
genuß
geo
geoffnet
geoffrey
geogr
geografie
geografikum
geografische
geografischen
geograph
geographic
geographical
geographie
geographisch
geographische
geographischen
geographischer
geographisches
geologe
geologen
geological
geologie
geologisch
geologische
geologischen
geology
geometrie
geometrische
geometrischen
geometry
geonames
geoportal
geordnet
georg
georgano
george
georgen
georges
georgi
georgia
georgien
georgischen
georgs
gepack
gepflanzt
gepflegt
geplant
geplante
geplanten
geplundert
gepragt
gepragte
gepragten
gepruft
geq
ger
gera
gerade
geraden
geradezu
gerald
gerard
gerat
gerate
geraten
gerathen
geraumt
gerausch
gerber
gerd
gerda
gerechnet
gerecht
gerechte
gerechten
gerechtfertigt
gerechtigkeit
geregelt
gereicht
gereinigt
gerettet
gerhard
gerhardt
gerhart
gericht
gerichte
gerichten
gerichtet
gerichtete
gerichteten
gerichtlich
gerichtliche
gerichtlichen
gerichts
gerichtsbarkeit
gerichtsbezirk
gerichtshof
geriet
gerieten
gerieth
gering
geringe
geringem
geringen
geringer
geringere
geringeren
geringerer
geringfugig
geringste
geringsten
gerissen
gerlach
germ
germain
german
germanen
germania
germaniae
germanische
germanischen
germanist
germanistik
germany
germplasm
gern
gerne
gernot
gero
gerold
gerrit
gerry
gerste
gert
gertrud
gertrude
geruch
gerucht
geruchte
gerufen
gerundet
gerundivums
ges
gesagt
gesammelt
gesammelte
gesammelten
gesammte
gesammten
gesamt
gesamtausgabe
gesamtbevolkerung
gesamte
gesamten
gesamtflache
gesamtgewicht
gesamtheit
gesamtlange
gesamtrang
gesamtschule
gesamtweltcup
gesamtwerk
gesamtwertung
gesamtzahl
gesandt
gesandte
gesandten
gesandter
gesandtschaft
gesang
gesangbuch
gesange
gesch
geschaffen
geschaffene
geschaffenen
geschafft
geschaft
geschafte
geschaften
geschafts
geschaftsbereich
geschaftsbericht
geschaftsfuhrender
geschaftsfuhrer
geschaftsfuhrerin
geschaftsfuhrung
geschaftshaus
geschaftsjahr
geschaftsmann
geschaftsstelle
geschah
geschatzt
geschatzten
geschehen
geschehnisse
gescheitert
gescheiterten
geschenk
geschenke
geschenkt
geschichte
geschichten
geschichtliche
geschichtlichen
geschichtlicher
geschichts
geschichtsblatter
geschichtsschreiber
geschichtsschreibung
geschichtsverein
geschichtsvereins
geschichtswissenschaft
geschick
geschickt
geschieden
geschieht
geschildert
geschlagen
geschlecht
geschlechter
geschlechtern
geschlechtes
geschlechts
geschlossen
geschlossene
geschlossenen
geschlossener
geschmack
geschmuckt
geschnitten
geschoben
geschoss
geschosse
geschossen
geschossene
geschrieben
geschriebene
geschriebenen
geschutz
geschutze
geschutzen
geschutzt
geschutzte
geschutzten
geschutztes
geschwacht
geschwader
geschwindigkeit
geschwindigkeiten
geschwister
geschwistern
gesehen
gesellen
gesellschaft
gesellschaften
gesellschafter
gesellschaftlich
gesellschaftliche
gesellschaftlichen
gesellschaftlicher
gesendet
gesenkt
gesessen
gesetz
gesetze
gesetzen
gesetzes
gesetzgeber
gesetzgebung
gesetzlich
gesetzliche
gesetzlichen
gesetzt
gesetzten
gesichert
gesicherte
gesicht
gesichte
gesichter
gesichtet
gesichtspunkten
gesinnung
gesorgt
gespalten
gespannt
gespeichert
gespeist
gesperrt
gespielt
gespielten
gesprach
gesprache
gesprachen
gesprengt
gesprochen
gest
gestalt
gestalten
gestaltet
gestaltete
gestalteten
gestaltung
gestand
gestanden
gestandnis
gestapo
gestarkt
gestartet
gestatten
gestattet
gestattete
gesteckt
gestehen
gesteht
gesteigert
gestein
gesteine
gestellt
gestellte
gestellten
gestern
gesteuert
gestiegen
gestiftet
gestimmt
gestis
gestochen
gestohlen
gestoppt
gestorben
gestort
gestoßen
gestrichen
gesturzt
gestutzt
gesucht
gesuchte
gesund
gesunde
gesunden
gesundheit
gesundheitlichen
gesundheits
gesundheitswesen
gesungen
gesunken
get
getan
getauft
getauscht
geteilt
geteilten
getestet
gethan
getotet
getoteten
getragen
getrank
getranke
getreide
getrennt
getrennte
getrennten
getreten
getriebe
getrieben
getroffen
getrunken
gets
geubt
gewachsen
gewahlt
gewahlte
gewahlten
gewahlter
gewahren
gewahrleisten
gewahrleistet
gewahrt
gewahrte
gewalt
gewaltherrschaft
gewaltig
gewaltige
gewaltigen
gewaltsam
gewaltsamen
gewand
gewandt
gewann
gewannen
gewarnt
gewartet
gewasser
gewassern
gewebe
gewechselt
geweckt
gewehr
geweiht
geweihte
gewerbe
gewerbegebiet
gewerbliche
gewerblichen
gewerkschaft
gewerkschaften
gewerkschafter
gewertet
gewesen
gewicht
gewichte
gewichtheber
gewichtsklasse
gewidmet
gewinn
gewinne
gewinnen
gewinner
gewinnt
gewinnung
gewirkt
gewisse
gewissen
gewisser
gewissermaßen
gewitter
gewiß
gewohnheit
gewohnlich
gewohnliche
gewohnlichen
gewohnlicher
gewohnt
gewohnten
gewolbe
gewonnen
gewonnene
gewonnenen
geworden
gewordene
gewordenen
geworfen
gewunscht
gewunschte
gewunschten
gewurdigt
gewußt
geyer
gezahlt
gezeichnet
gezeigt
gezielt
gezielte
gezogen
gezwungen
gf
gg
ggf
gh
ghana
ghetto
ghost
ghz
gi
giacomo
gian
gianni
giant
giants
gib
gibbs
gibraltar
gibson
gibt
giebel
giebt
gieng
gier
gießen
gießener
gift
gil
gilbert
gill
gilles
gilt
gina
ging
gingen
giorgio
giovanni
gipfel
gipfels
gips
girl
girls
giro
girolamo
gironde
gis
gisela
gitarre
gitarren
gitarrist
gitarristen
gitter
giulio
giuseppe
give
gj
gk
gl
glacier
gladbach
glan
glanz
glanzend
glanzende
glanzenden
glarus
glas
glaser
glasfenster
glasgow
glashutte
glass
glatt
glatte
glatten
glatz
glaube
glauben
glaubens
glaubige
glaubigen
glaubiger
glaubt
glaubte
glaubten
glauchau
gleich
gleichbedeutend
gleichberechtigung
gleiche
gleichem
gleichen
gleicher
gleichermaßen
gleiches
gleichfalls
gleichgesetzt
gleichgewicht
gleichgultig
gleichheit
gleichmaßig
gleichnamige
gleichnamigen
gleichsam
gleichstellung
gleicht
gleichung
gleichungen
gleichwohl
gleichzeitig
gleichzeitige
gleichzeitigen
gleichzeitiger
gleis
gleise
gleisen
glen
glenn
gletscher
gletschers
gli
glich
glied
glieder
gliedern
gliedert
gliederte
gliederung
global
globale
globalen
globalisierung
globe
globus
glocke
glocken
glockenturm
glogau
gloria
glory
glossar
gloucester
gluck
glucklich
gluckliche
glucklichen
glucklicher
glucks
gm
gmbh
gmina
gmund
gn
gnade
gnaden
gnadige
gnd
gnu
go
goal
gob
god
goda
godesberg
gods
goebbels
goes
goethe
goethes
goetz
going
gold
goldberg
golden
goldene
goldenem
goldenen
goldener
goldenes
goldmann
goldmedaille
goldmedaillen
goldschmidt
goldstein
golem
golf
gomez
gone
gong
gonner
gonzaga
gonzalez
good
goodbye
goodman
google
goppingen
gora
gordon
gore
goring
gorki
gorlitz
goslar
gospel
got
goteborg
gotha
gothaisches
gothic
gotik
gotische
gotischen
gott
gotter
gottern
gottes
gottesdienst
gottesdienste
gotteshaus
gottfried
gotthard
gottheit
gottheiten
gotthold
gottin
gottingen
gottinger
gottliche
gottlichen
gottlieb
gottlob
gottschalk
gotz
gould
gouv
gouvernement
gouverneur
gouverneurs
gov
governance
government
governor
governors
gp
gps
gq
gr
gra
grab
grabe
graben
graber
graberfeld
grabern
grabhugel
grabmal
grabstatte
grabstein
grabsteine
grabungen
grace
grad
grade
grades
graduate
graduierte
graefe
graf
grafe
grafen
graff
graffiti
grafik
grafiken
grafiker
grafin
grafische
graflichen
grafschaft
grafschaften
graham
gram
gramm
grammar
grammatik
grammatische
grammy
gran
granada
granaten
grand
grande
granit
grant
graph
graphen
graphik
graphische
gras
grass
grat
gratz
grau
graubunden
graue
grauen
grauer
grave
graves
gray
graz
grazer
grc
great
greater
greatest
greece
greek
green
greene
greenwich
greenwood
greg
gregor
gregory
greif
greifen
greifswald
greifswalder
greift
greiner
greis
greiz
gremien
gremium
grenadier
grenoble
grenz
grenze
grenzen
grenzgebiet
grenzt
grenzte
grenzubergang
grenzwert
greta
grete
grey
griech
griechen
griechenland
griechenlands
griechisch
griechische
griechischen
griechischer
griff
griffel
griffen
griffin
griffith
grimm
grimma
grimme
grin
grob
grobe
groben
gronau
groningen
gronland
gros
groschen
gross
grosse
grossen
grosser
grosses
grosste
grossten
grote
grotte
ground
group
groups
grove
growth
groß
großartige
großartigen
großbritannien
großbritanniens
große
großeltern
großem
großen
großer
großere
großerem
großeren
großerer
großeres
großes
großgemeinde
großherzog
großherzoglich
großherzogtum
großherzogtums
großkreuz
großmeister
großmutter
großraum
großstadt
großte
großteil
großteils
großten
großtenteils
großtentheils
großter
großtes
großvater
großvaters
grub
grube
gruben
gruber
gruft
grun
grunberg
grund
grundbesitz
grundbuch
grunde
grunden
grunder
grunderin
grunders
grundet
grundete
grundeten
grundflache
grundgesetz
grundherrschaft
grundlage
grundlagen
grundlegend
grundlegende
grundlegenden
grundlich
grundliche
grundmauern
grundrechte
grundriss
grundriß
grundsatz
grundsatze
grundsatzen
grundsatzlich
grundsatzliche
grundschule
grundschulen
grundstein
grundsteinlegung
grundstuck
grundstucke
grundstucks
grundung
grundungsmitglied
grundungsmitglieder
grundungsmitgliedern
grundwasser
grundzuge
grune
grunem
grunen
gruner
grunes
grunewald
grunland
grunlich
grunwald
gruppe
gruppen
gruppenbezeichnung
gruppenphase
gruppensieger
gruppenspiel
gruppierung
gruppierungen
gruyter
gruß
gs
gt
gtd
gu
guadalajara
guangzhou
guard
guardian
guatemala
gudrun
guerra
guerre
guggenheim
guide
guido
guild
guillaume
guillermo
guinea
guinness
guitar
gulden
gulf
gultig
gultige
gultigen
gultigkeit
gummersbach
gun
gundolf
gunnar
guns
gunst
gunsten
gunstig
gunstige
gunstigen
gunstiger
gunter
gunther
gunzenhausen
gurlitt
gurtel
gus
gustaf
gustav
gustave
gustavo
gustrow
gut
gutachten
gutachter
gute
gutem
guten
gutenberg
guter
gutern
gutersloh
guterverkehr
guterwagen
gutes
gutierrez
gutsbesitzer
gutsbezirk
gutsbezirke
gutshaus
gutshof
guttenberg
guy
gv
gvbl
gw
gx
gy
gymnasiallehrer
gymnasien
gymnasium
gymnasiums
gyorgy
gz
h
h0
h1
h2
h3
h4
h5
h6
h7
h8
h9
ha
haag
haager
haar
haare
haaren
haarlem
haas
haase
hab
habe
habel
haben
haber
habilitation
habilitationsschrift
habilitierte
habitat
habsburg
habsburger
habt
hacker
had
hadrian
hafen
hafens
hafenstadt
hafer
hafner
haft
haftlinge
haftlingen
haftstrafe
haftung
hagen
hager
hahn
hai
haifa
hain
haiti
haken
hal
halb
halbbruder
halbe
halben
halber
halberstadt
halbes
halbfinale
halbinsel
halbmarathon
halbschwergewicht
halbzeit
hale
half
halfen
halfte
halifax
hall
halle
hallen
haller
hallo
hals
halt
halte
halten
haltepunkt
haltestelle
haltestellen
haltung
halwart
ham
hamann
hamburg
hamburger
hamburgische
hamburgischen
hamburgs
hameln
hamilton
hamlet
hamm
hammer
hammond
hampshire
hampton
han
hanau
hanauer
hancock
hand
handball
handballspieler
handballspielerin
handbook
handbuch
handbucher
hande
handel
handele
handeln
handelns
handels
handelsblatt
handelskammer
handelsregister
handelt
handelte
handen
handhabung
handle
handler
handlung
handlungen
hands
handschrift
handschriften
handwerk
handwerker
handwerks
handworterbuch
handy
hang
hange
hangen
hangenden
hangt
hank
hann
hanna
hannah
hannelore
hannes
hannibal
hanno
hannover
hannovers
hannoversche
hannoverschen
hanns
hans
hansa
hanse
hanseatische
hansel
hansen
hanser
hansestadt
hansjorg
happy
har
harald
harbor
harbour
harburg
hard
hardcore
hardenberg
harding
hardt
hardware
hardy
harfe
harlem
harmonie
harms
harold
harper
harrassowitz
harriet
harris
harrison
harry
hart
harte
hartel
harten
harter
hartford
hartmann
hartmut
hartung
hartwig
harvard
harvey
harz
has
hasan
hase
hasen
hass
hassan
hasse
hast
hastig
hastings
hat
hate
hatt
hatte
hatten
hau
haube
hauch
haufen
haufig
haufige
haufigen
haufiger
haufigkeit
haufigste
haufigsten
haug
haupt
hauptartikel
hauptaufgabe
hauptbahnhof
hauptdarsteller
hauptdarstellerin
haupteingang
hauptfeld
hauptfigur
hauptgebaude
hauptgurtels
hauptling
hauptmann
hauptort
hauptquartier
hauptrolle
hauptrollen
hauptrunde
hauptsache
hauptsachlich
hauptsatzkonjugation
hauptsatzung
hauptschule
hauptsitz
hauptstadt
hauptstraße
hauptteil
hauptwerk
haus
hauschen
hause
hausen
hauser
hausern
hauses
hausfrau
haushalt
haushalte
haushalten
haushalts
hauslehrer
hauslichen
hausmann
hausnummer
haut
haute
hautes
hauts
havanna
have
havel
haven
havranek
hawaii
hawk
hawkins
hawks
hay
haydn
hayes
haynes
haß
haɪ
hb
hbf
hc
hd
he
head
health
heart
hearts
heat
heath
heather
heaven
heavy
hebel
heben
hebraisch
hebraische
hebraischen
hebt
hebung
hecht
heck
hecken
hecker
hector
hedwig
heer
heere
heeres
heeresgruppe
heerfuhrer
heft
hefte
heften
heftig
heftige
heftigen
heftiger
hegel
hei
heide
heidegger
heidelberg
heidelberger
heiden
heidenheim
heidi
heidnischen
heights
heike
heiko
heil
heilbronn
heilbronner
heilen
heilig
heilige
heiligen
heiligenstadt
heiliger
heiliges
heiligtum
heilkunde
heilsbronn
heilung
heim
heimat
heimatblatter
heimatbuch
heimatforscher
heimath
heimatkunde
heimatland
heimatmuseum
heimatort
heimatstadt
heimatverein
heimgesucht
heimisch
heimische
heimischen
heimkehr
heimlich
heimliche
heimsieg
heimspiel
heimspiele
hein
heine
heinemann
heiner
heinrich
heinrichs
heinsberg
heinz
heirat
heiraten
heiratet
heiratete
heirateten
heise
heisst
heiter
heitere
heizung
heiß
heiße
heißen
heißer
heißt
hektar
held
helden
helen
helena
helene
helfen
helfer
helga
helge
helgoland
hell
hellblau
helle
hellen
heller
helligkeit
hellmut
hellmuth
hello
helm
helmholtz
helmstedt
helmut
helmuth
help
helsinki
hen
henderson
hendon
hendrik
henkel
henneberg
hennig
henning
henri
henrich
henriette
henrik
henry
henryk
henschel
heppenheim
her
herab
herakles
herald
heraldik
heran
herangezogen
herauf
heraus
herausforderung
herausforderungen
herausgab
herausgabe
herausgeber
herausgeberin
herausgebracht
herausgegeben
herausgegebene
herausgegebenen
herausragende
herausragenden
herb
herbei
herbert
herbst
hercules
herd
herde
herder
here
herein
herford
hergestellt
hergestellte
hergestellten
heribert
hering
heritage
herkommlichen
herkules
herkunft
herm
herman
hermann
hermes
hermine
hernach
hernandez
herne
hero
herodes
herodot
heroes
herold
herr
herren
herrenhaus
herrenhauses
herrenmannschaft
herrin
herrlich
herrliche
herrlichen
herrlichkeit
herrmann
herrn
herrschaft
herrschaften
herrschen
herrschende
herrschenden
herrscher
herrschers
herrscht
herrschte
herschel
hersfeld
herstellen
hersteller
herstellern
herstellers
herstellt
herstellte
herstellung
hertha
hertz
hertzog
heruber
herum
herunter
hervor
hervorgebracht
hervorgegangen
hervorgehoben
hervorgeht
hervorgerufen
hervorging
hervorragend
hervorragende
hervorragenden
hervorragender
hervorzuheben
herwig
herz
herzberg
herzegowina
herzen
herzens
herzinfarkt
herzlich
herzog
herzoge
herzogin
herzoglichen
herzogs
herzogthums
herzogtum
herzogtums
herzustellen
hess
hesse
hessen
hessische
hessischen
hessischer
hessisches
het
heu
heuss
heut
heute
heutige
heutigen
heutiger
heutiges
heutzutage
hexe
hexen
hey
heymann
heyne
heß
hf
hg
hgb
hh
hi
hidden
hie
hielt
hielten
hier
hierarchie
hierarchy
hierauf
hieraus
hierbei
hierdurch
hierfur
hierher
hierin
hiermit
hiernach
hieronymus
hieruber
hiervon
hierzu
hiesigen
hieß
hießen
higgins
high
higher
highland
highlights
highschool
highway
highways
hildburghausen
hilde
hildebrand
hildebrandt
hildegard
hildesheim
hildesheimer
hilf
hilfe
hilfreich
hilfsmittel
hilft
hill
hiller
hills
hilton
him
himalaya
himmel
himmelfahrt
himmels
himmelsareal
himmler
himmlische
himmlischen
hin
hinab
hinauf
hinaus
hinblick
hindenburg
hindern
hindernis
hindernisse
hindi
hindu
hindurch
hinein
hing
hingegen
hingen
hingerichtet
hingewiesen
hinnehmen
hinreichend
hinrich
hinrichtung
hinrunde
hinsicht
hinsichtlich
hinspiel
hinten
hinter
hinterachse
hintere
hintereinander
hinteren
hintergrund
hintergrunde
hinterher
hinterland
hinterlassen
hinterließ
hinterpommern
hinuber
hinunter
hinweg
hinweis
hinweise
hinweisen
hinweist
hinzu
hinzufugen
hinzugefugt
hip
hirn
hiroshima
hirsch
hirschberg
hirschfeld
hirten
hirzel
his
hist
histoire
historia
historic
historica
historical
historie
historien
historiker
historikerin
historikern
historikers
historique
historiques
historisch
historische
historischen
historischer
historisches
historismus
history
hit
hitchcock
hitler
hitlers
hitparade
hits
hitze
hiv
hj
hk
hl
hm
hms
hmso
hn
ho
hob
hobby
hoc
hoch
hochaltar
hochdeutsch
hochebene
hochflache
hochhaus
hochland
hochmittelalter
hochsauerlandkreis
hochschule
hochschulen
hochschullehrer
hochschullehrerin
hochsprung
hochst
hochstadt
hochste
hochsten
hochstens
hochster
hochstgeschwindigkeit
hochstift
hochwasser
hochwertige
hochzeit
hockey
hockeydb
hof
hofe
hofen
hofer
hofes
hoff
hoffe
hoffen
hoffman
hoffmann
hoffnung
hoffnungen
hofft
hoffte
hofmann
hofmeister
hofrat
hoftheater
hohe
hoheit
hohem
hohen
hohenberg
hohenburg
hohenheim
hohenlagen
hohenlohe
hohenmeter
hohenstein
hohenunterschied
hohenzollern
hohenzug
hohepunkt
hoher
hohere
hoheren
hoherer
hoheres
hohes
hohl
hohle
hohlen
hohn
hokkaido
hold
holden
holder
holderlin
holding
hole
holen
holger
holiday
holl
holland
hollander
hollandische
hollandischen
holle
holly
hollywood
holm
holmes
holocaust
holstein
holsteinische
holsteinischen
holt
holte
holten
holtz
holy
holz
holzer
holzerne
holzernen
holzhausen
holzschnitt
hom
homberg
homburg
home
homepage
homer
hommage
homme
homo
homosexualitat
homosexuelle
homosexuellen
hon
honda
honduras
honey
hong
hongkong
honig
honolulu
honor
honorarprofessor
honore
honour
hood
hook
hop
hope
hopkins
hoppe
hor
hora
horace
horbeispiele
horbuch
horde
hore
horen
horer
horfunk
horizon
horizont
horizontal
horizontale
horizontalen
horn
horner
horni
horror
horrorfilm
horse
horspiel
horspiele
horst
hort
horte
horten
horvath
hose
hosen
hospital
host
hot
hotel
hotels
hour
house
housing
houston
how
howard
howe
hoxter
hoya
hp
hq
hr
hrsg
hs
hsg
hsv
ht
htm
html
http
https
hu
huang
hub
hubble
huber
hubert
hubertus
hubkraft
hubner
hubraum
hubsch
hubsche
hubschen
hubschrauber
hudson
hufen
hugel
hugelland
hugeln
hugels
hugh
hughes
hugo
huhn
huhner
hui
hujer
hulfe
hull
hulle
human
humanismus
humanist
humanistische
humanistischen
humblot
humboldt
hummel
humor
hun
hund
hunde
hunden
hundert
hunderte
hundertjahrigen
hung
hunger
hunsruck
hunt
hunter
hurden
hurricane
hurrikan
hus
husaren
hussein
husum
hut
hute
hutte
hutten
hv
hw
hx
hy
hybrid
hyde
hydraulik
hydraulisch
hydraulische
hygiene
hymne
hypothese
hyundai
hz
hɛ
hɪ
i
i0
i1
i2
i3
i4
i5
i6
i7
i8
i9
ia
iaaf
iabot
ian
iata
iau
ib
iberischen
ibge
ibm
ibn
ibrahim
ibu
ic
icao
icc
ice
ich
icon
id
ida
idaho
ide
idea
ideal
ideale
idealen
idee
ideen
identification
identifikation
identifizieren
identifiziert
identifizierung
identisch
identitat
identity
ideologie
idol
ie
iec
ieee
if
ifa
ig
igel
ign
ignacio
ignatius
ignaz
ignoriert
igor
ih
ihk
ihm
ihn
ihnen
ihr
ihre
ihrem
ihren
ihrer
ihrerseits
ihres
ii
iihf
iii
ij
ik
il
ile
ilias
ilja
ill
illegal
illegale
illegalen
illinois
illusion
illustrated
illustration
illustrationen
illustrator
illustre
illustriert
illustrierte
ilm
ilmenau
ilse
im
ima
image
images
imam
imdb
imhof
immanuel
immer
immerhin
immobilien
impact
imperativ
imperfekt
imperial
imperii
imperium
impfung
implementiert
implementierung
implications
import
important
importiert
impressum
improvisation
impuls
impulse
in
ina
inbetriebnahme
inc
incl
including
ind
indem
independence
independent
indes
indessen
index
indeß
india
indian
indiana
indianapolis
indianer
indianern
indians
indie
indien
indiens
indienststellung
indies
indigenen
indikativ
indikator
indirekt
indirekte
indische
indischen
indischer
individual
individuell
individuelle
individuellen
individuen
individuum
indo
indonesia
indonesien
indonesischen
industrial
industrialisierung
industrie
industriegebiet
industrielle
industriellen
industrieller
industries
industry
ine
ineinander
ines
inf
infanterie
infanterieregiment
infantry
infektion
infektionen
infinitiv
inflation
influence
info
infobox
infolge
infolgedessen
informatik
informatiker
information
informationen
informations
informationssystem
informationstechnik
informationszentrum
informieren
informiert
infos
infrastruktur
infty
ing
inga
inge
ingeborg
ingenieur
ingenieure
ingo
ingolstadt
ingrid
inhaber
inhaftiert
inhalt
inhalte
inhalten
inhaltlich
inhaltliche
inhaltlichen
inhalts
inhaltsverzeichnis
initialen
initiative
initiativen
initiator
initiiert
initiierte
inka
inkl
inklusive
inkrafttreten
inland
inmitten
inn
inne
innehatte
innen
innenausstattung
innenhof
innenminister
innenministerium
innenministeriums
innenraum
innenseite
innenstadt
inner
innere
inneren
innerer
inneres
innerhalb
innerlich
innern
innovation
innovationen
innovative
innozenz
innsbruck
innsbrucker
inoffizielle
inquisition
ins
insassen
insbesondere
inschrift
inschriften
inscriptions
insee
insekten
insel
inselgruppe
inseln
insgesamt
inside
insofern
insolvenz
insoweit
inspector
inspektion
inspektor
inspiration
inspiriert
inspirierte
inst
instagram
installation
installationen
installiert
installierte
instand
instandsetzung
instanz
institut
institute
institutes
institution
institutionen
instituto
instituts
instrument
instrumental
instrumente
instrumenten
instruments
inszeniert
inszenierte
inszenierung
inszenierungen
int
integer
integral
integrated
integration
integrieren
integriert
integrierte
integrierten
intel
intellektuelle
intellektuellen
intelligence
intelligent
intelligenz
intendant
intensitat
intensiv
intensive
intensiven
intensiver
inter
interactive
interaktion
interaktive
interdisziplinare
interessant
interessante
interessanten
interesse
interessen
interessieren
interessiert
interessierte
interessierten
interest
interface
intern
internacional
internat
international
internationale
internationalen
internationaler
internationales
interne
internen
internet
internetauftritt
internetova
internetprasenz
internetseite
interniert
interpretation
interpretationen
interpreten
interpretieren
interpretiert
interstate
intervall
intervention
interview
interviews
into
intro
introduction
inv
invasion
inventar
inventory
investiert
investigation
investitionen
investment
investor
investoren
involviert
inwieweit
inzwischen
io
ioc
iola
ion
ionen
ios
iowa
ip
ipa
ipac
iphone
iq
ir
ira
irak
iran
iranische
iranischen
iranischer
irdischen
ireland
iren
irene
irgend
irgendwann
irgendwie
irgendwo
irina
iris
irisch
irische
irischen
irischer
irish
irland
irma
irmgard
iron
ironie
ironman
irre
irrtum
irrtumlich
irving
is
isa
isaac
isaak
isabel
isabella
isabelle
isar
isbn
isch
isenburg
iserlohn
isidor
isis
isla
islam
islamic
islamische
islamischen
islamischer
island
islandische
islandischen
islandischer
islands
isle
ismail
iso
isolation
isolde
isoliert
isolierte
israel
israelische
israelischen
israelischer
israelitischen
israels
iss
issn
issue
issues
ist
istanbul
istat
istituto
istvan
it
ita
ital
italia
italian
italiana
italiani
italiano
italien
italiener
italienisch
italienische
italienischen
italienischer
italiens
italy
item
itf
its
ittf
itu
itunes
iu
iucn
iulius
iur
iv
ivan
ivo
iw
iwan
iwanowitsch
ix
iy
iz
j
j0
j1
j2
j3
j4
j5
j6
j7
j8
j9
ja
jack
jackie
jackson
jacob
jacobi
jacobs
jacobsen
jacobus
jacqueline
jacques
jade
jaeger
jag
jagd
jagdschloss
jagen
jager
jagt
jaguar
jah
jahn
jahr
jahrb
jahrbuch
jahrbucher
jahre
jahrelang
jahren
jahres
jahresbericht
jahresende
jahrestag
jahreswechsel
jahreszahl
jahreszeit
jahreszeiten
jahrg
jahrgang
jahrgange
jahrh
jahrhundert
jahrhunderte
jahrhunderten
jahrhunderts
jahrhundertwende
jahrig
jahrige
jahrigen
jahriger
jahriges
jahrlich
jahrliche
jahrlichen
jahrtausend
jahrtausendwende
jahrzehnt
jahrzehnte
jahrzehntelang
jahrzehnten
jaime
jak
jakarta
jake
jakob
jakobus
jam
jamaika
james
jamie
jan
jana
jane
janeiro
janet
janner
janos
jansen
janssen
januar
january
jap
japan
japaner
japanese
japanisch
japanische
japanischen
japanischer
japans
jar
jaroslav
jason
jasper
java
javascript
javier
jay
jazyk
jazyka
jazykova
jazz
jazzmusiker
jb
jc
jd
je
jean
jeanne
jede
jedem
jeden
jedenfalls
jeder
jedermann
jederzeit
jedes
jedesmal
jedoch
jeff
jefferson
jeffrey
jegliche
jeglicher
jeher
jehke
jehle
jelena
jemals
jemand
jemandem
jemanden
jemen
jena
jenaer
jene
jenem
jenen
jener
jenes
jenkins
jennifer
jenny
jens
jenseits
jensen
jeremy
jerome
jerry
jersey
jerusalem
jerzy
jesse
jessen
jessica
jesu
jesuit
jesuiten
jesus
jet
jets
jetzige
jetzigen
jetzt
jeweilige
jeweiligen
jeweils
jewgeni
jewish
jews
jezyka
jf
jg
jh
jhdt
jhdts
ji
jiang
jill
jim
jimenez
jimmy
jin
jiri
jj
jk
jl
jm
jn
jo
joachim
joan
joanna
joao
joaquin
job
jobs
jobst
joch
jochen
joe
joel
joey
joh
johan
johann
johanna
johannes
johannesburg
johannis
johanniter
johanns
johansson
john
johnny
johns
johnson
johnston
join
joins
joint
jon
jonas
jonathan
jones
jong
jordan
jordanien
jorg
jorge
jorn
jos
jose
josef
joseph
josephine
josephus
josette
josh
joshua
jost
journal
journalismus
journalist
journalisten
journalistin
journals
journey
jours
joy
joyce
jozef
jozsef
jp
jpg
jq
jr
js
jstor
jt
ju
juan
jubel
jubilaum
jubilaums
judaica
judas
jude
juden
judentum
judentums
judge
judisch
judische
judischen
judischer
judisches
judith
judo
judoka
judy
jugend
jugendabteilung
jugendarbeit
jugendliche
jugendlichen
jugendlicher
jugendstil
jugoslawien
jugoslawischen
jugoslawischer
jul
jules
juli
julia
julian
juliane
julich
julie
julien
julio
julius
july
jump
jun
junction
june
jung
junge
jungen
junger
jungere
jungeren
jungerer
junges
jungfrau
jungfrauen
jungle
jungling
jungs
jungste
jungsteinzeit
jungsten
jungster
jungtiere
jungvogel
juni
junior
junioren
juniorenweltmeisterschaften
juniors
junker
junkers
juno
jupiter
jur
jura
jurastudium
jurg
jurgen
jurgens
juri
juris
jurist
juristen
juristin
juristische
juristischen
jury
jus
just
justice
justin
justiz
justizminister
justizministerium
justus
jutta
juventus
jv
jw
jx
jy
jz
k
k0
k1
k2
k3
k4
k5
k6
k7
k8
k9
ka
kabarett
kabarettist
kabel
kabine
kabinett
kabul
kader
kafer
kaffee
kafka
kahl
kahle
kahlen
kahn
kai
kairo
kaiser
kaiserin
kaiserlich
kaiserliche
kaiserlichen
kaiserlicher
kaiserreich
kaiserreichs
kaisers
kaiserslautern
kaiserthums
kaiserzeit
kajak
kalb
kalender
kali
kaliber
kalifornien
kalifornischen
kaliningrad
kalk
kalkstein
kalt
kalte
kalten
kalter
kam
kambodscha
kame
kamen
kamera
kameraden
kameramann
kameras
kamerun
kamin
kamm
kammer
kammerer
kammerherr
kammermusik
kammern
kammerorchester
kamp
kampagne
kampagnen
kampf
kampfe
kampfen
kampfer
kampfes
kampfhandlungen
kampft
kampfte
kampften
kan
kanada
kanadas
kanadier
kanadische
kanadischen
kanadischer
kanal
kanale
kanals
kandidat
kandidaten
kandidatin
kandidatur
kandidierte
kane
kaninchen
kann
kannst
kannte
kannten
kanon
kanone
kanonen
kanoniker
kansas
kant
kantate
kante
kanten
kanton
kantone
kantonen
kantons
kantor
kanu
kanzel
kanzlei
kanzler
kap
kapazitat
kapelle
kapellen
kapellmeister
kapital
kapitalismus
kapitan
kapitel
kapiteln
kapitels
kapitulation
kaplan
kappa
kapstadt
kar
kara
karate
kardinal
karel
karen
karibik
karin
karl
karlheinz
karls
karlsbad
karlsruhe
karlsruher
karneval
karnten
karntner
karoline
karosserie
karriere
karriereende
karsten
karte
karten
kartenansicht
kartierung
kartoffeln
kartographisch
kas
kasachstan
kasan
kase
kaserne
kasimir
kaspar
kasper
kasse
kassel
kasseler
kastell
kasten
kastilien
kastner
kasus
kat
katalanisch
katalanischen
katalanischer
katalog
kataloge
katalonien
katar
katastralgemeinde
katastrophe
katastrophen
kate
katechismus
kategorie
kategorien
kater
kath
katharina
kathe
kathedrale
katherine
kathleen
katholiken
katholisch
katholische
katholischen
katholischer
katholisches
katholizismus
kathrin
katie
katja
katrin
katz
katze
katzen
kauf
kaufen
kaufer
kaufhaus
kaufleute
kaufmann
kaufmannische
kaufmannischen
kaufmanns
kauft
kaufte
kauften
kaukasus
kaum
kaunas
kavallerie
kay
kayser
kazimierz
kb
kc
kd
ke
keep
kegel
kehle
kehren
kehrt
kehrte
kehrten
keil
kein
keine
keinem
keinen
keiner
keinerlei
keines
keinesfalls
keineswegs
keith
kelch
kelchblatter
keller
kellner
kelly
kelten
keltische
keltischen
kempten
ken
kenia
kenne
kennedy
kennen
kennengelernt
kennenlernte
kenner
kenneth
kennt
kenntnis
kenntnisse
kenntniß
kenny
kennzeichen
kennzeichnen
kennzeichnet
kennzeichnung
kent
kentucky
kepler
ker
keramik
kerker
kerl
kern
kernkraftwerk
kernstadt
kerr
kerry
kerstin
kessel
kessler
kette
ketten
kevin
kew
key
keyboard
keyboarder
keys
kf
kfz
kg
kgl
kh
khan
khl
khmer
khz
ki
kick
kicker
kickers
kid
kids
kiefer
kiefern
kiel
kieler
kiepenheuer
kies
kiew
kilian
kill
killed
killer
killing
kilogramm
kilometer
kilometern
kim
kimes
kind
kinde
kinder
kinderbuch
kindergarten
kinderlos
kindern
kindes
kindesalter
kindheit
king
kingdom
kings
kingston
kinn
kino
kinofilm
kinos
kinostart
kinzig
kirch
kirchberg
kirchdorf
kirche
kirchen
kirchenbau
kirchengebaude
kirchengemeinde
kirchengemeinden
kirchengeschichte
kirchenhistoriker
kirchenkreis
kirchenlexikon
kirchenmusik
kirchenmusiker
kirchenprovinz
kirchenschiff
kirchgemeinde
kirchheim
kirchhof
kirchlich
kirchliche
kirchlichen
kirchlicher
kirchner
kirchspiel
kirchturm
kirk
kirsch
kirsten
kiss
kissingen
kiste
kit
kitzbuhel
kitzingen
kj
kk
kl
klage
klagen
klagenfurt
klager
klagte
klammer
klammern
klang
klange
klangen
klar
klara
klare
klaren
klarer
klarheit
klarinette
klartext
klarung
klasse
klassen
klassenerhalt
klassifikation
klassifiziert
klassifizierung
klassik
klassiker
klassisch
klassische
klassischen
klassischer
klassisches
klassizismus
klassizistischen
klaus
klavier
klee
kleid
kleider
kleidung
klein
kleinasien
kleinbahn
kleine
kleinem
kleinen
kleiner
kleinere
kleineren
kleinerer
kleines
kleinstadt
kleinste
kleinsten
kleist
klemm
klerus
klett
klettern
kleve
klicken
klima
klimaanlage
klimaschutz
klimawandel
klinge
klingen
klingt
klinik
kliniken
klinikum
klinische
klinischen
klippen
kloster
klosterkirche
klostern
klosters
klotz
klub
klubs
klug
kluge
km
kn
knabe
knaben
knapp
knappe
knappen
knaur
knecht
knechte
knie
knight
knights
knochen
knoll
knopf
knorr
knoten
know
knowledge
known
knox
knupfte
knut
ko
koalition
kobe
koblenz
koch
kochen
kocher
koeffizienten
koenig
koffer
kohl
kohle
kohlen
kohlenstoff
kohler
kohlhammer
kohn
kolb
kolbe
kolben
kolberg
kolleg
kollege
kollegen
kollegium
kollektiv
koller
kollision
koln
kolner
kolonialzeit
kolonie
kolonien
kolonisten
kolumbianischer
kolumbien
kolumne
kom
kombination
kombinationen
kombiniert
kombinierte
komet
kometen
komiker
komische
komischen
komitat
komitee
komitees
komm
kommandant
kommandanten
kommandeur
kommandiert
kommandierte
kommando
kommandos
komme
kommen
kommend
kommende
kommenden
kommentar
kommentare
kommentiert
kommentierte
kommerziell
kommerzielle
kommerziellen
kommissar
kommissarisch
kommission
kommt
kommunale
kommunalen
kommunaler
kommunalpolitiker
kommunalwahl
kommunalwahlen
kommune
kommunen
kommunikation
kommunismus
kommunisten
kommunistische
kommunistischen
kommunizieren
komodie
komodien
kompakt
kompanie
kompanien
komparativ
komparativs
kompendium
kompetenz
kompetenzen
kompilation
komplett
komplette
kompletten
komplex
komplexe
komplexen
komplexer
komplexes
komplexitat
komponente
komponenten
komponiert
komponierte
komponist
komponisten
komponistin
komposition
kompositionen
kompromiss
komtur
kon
konferenz
konferenzen
konfession
konfessionen
konfiguration
konflikt
konflikte
konflikten
konflikts
konfoderation
konfoderierten
konfrontation
konfrontiert
kong
kongo
kongregation
kongress
kongresses
kongresswahlen
konig
konige
konigen
konigin
konigl
koniglich
konigliche
koniglichen
koniglicher
konigliches
konigreich
konigreiche
konigreiches
konigreichs
konigs
konigsberg
konigsberger
konigshausen
konigstein
konigswinter
konjunktiv
konkret
konkrete
konkreten
konkurrenten
konkurrenz
konkurs
konne
konnen
konnt
konnte
konnten
konrad
konsens
konsequent
konsequenz
konsequenzen
konservativ
konservative
konservativen
konservatorium
konsolen
konsonanten
konsortium
konstant
konstante
konstanten
konstantin
konstantinopel
konstanz
konstanzer
konstitution
konstruiert
konstruierte
konstrukteur
konstruktion
konstruktionen
konsul
konsum
kontakt
kontakte
konteradmiral
kontext
kontinent
kontinentalen
kontinuierlich
kontinuierliche
kontinuitat
konto
kontrabass
kontrast
kontrolle
kontrollieren
kontrolliert
kontrollierte
kontrollierten
kontrovers
kontroverse
kontroversen
konvent
konvention
konventionellen
konversations
konversationslexikon
konversion
konzentration
konzentrationslager
konzentrieren
konzentriert
konzentrierte
konzept
konzepte
konzeption
konzern
konzerns
konzert
konzerte
konzerten
konzession
konzil
konzils
konzipiert
konzipierte
kooperation
kooperationen
koordinaten
koordination
koordiniert
kopenhagen
kopenick
kopf
kopfe
kopfen
kopfes
kopie
kopien
kopieren
kopp
koppeln
koppen
kor
koran
korb
korea
korean
koreanisch
koreanischen
korn
korner
korper
korpergewicht
korpergroße
korperlange
korperlich
korperliche
korperlichen
korpern
korpers
korperschaft
korps
korpus
korrekt
korrekte
korrektur
korrespondent
korrespondenz
korrespondierendes
korrigiert
korrigierte
korruption
korsika
kos
kosaken
kosener
kosmos
kosovo
kost
kostbaren
kosten
kostenlos
kostenlose
kostenpflichtig
koster
kostet
kostete
kostume
kothen
kp
kpd
kq
kr
krafft
kraft
krafte
kraften
kraftig
kraftige
kraftigen
kraftiger
kraftwerk
kraftwerke
kragen
krain
kraj
krakau
krakow
kramer
krank
kranke
kranken
krankenhaus
krankenhauser
krankenhausern
krankenhauses
krankenschwester
krankenversicherung
krankheit
krankheiten
kranz
krater
kraus
krause
krauss
kraut
krauter
krautige
kreativitat
krebs
kredit
kredite
krefeld
kreide
kreis
kreise
kreisen
kreises
kreisfreie
kreisfreien
kreislauf
kreisliga
kreisreform
kreisstadt
kreisstraße
kreistag
krems
kreta
kreuz
kreuzberg
kreuze
kreuzen
kreuzer
kreuzes
kreuzgang
kreuzigung
kreuznach
kreuzt
kreuzung
kreuzweg
kreuzzug
krieg
kriege
kriegen
krieger
kriegerdenkmal
kriegerischen
krieges
kriegs
kriegsbeginn
kriegsdienst
kriegsende
kriegsgefangene
kriegsgefangenen
kriegsgefangenschaft
kriegsmarine
kriegsminister
kriegsschiffe
kriegsverbrechen
krim
krimi
kriminalitat
kriminalroman
kriminellen
krise
krisen
kristalle
kristallisiert
kristian
kristin
kristina
kriterien
kriterium
kritik
kritiken
kritiker
kritikern
kritisch
kritische
kritischen
kritischer
kritisiert
kritisierte
kritisierten
kroaten
kroatien
kroatisch
kroatische
kroatischen
kroatischer
kroll
kronach
kronblatter
krone
kronen
kroner
kronprinz
kronprinzen
kronung
krug
kruger
krupp
kruse
kruzifix
krypta
krzysztof
ks
kt
ku
kuba
kubanischen
kubanischer
kubikmeter
kuche
kuchen
kugel
kugeln
kugelstoßen
kuh
kuhe
kuhl
kuhle
kuhlen
kuhler
kuhn
kuhne
kuhnen
kulisse
kulissen
kulmbach
kult
kultur
kulturbesitz
kulturdenkmal
kulturdenkmale
kulturdenkmaler
kulturdenkmals
kulturell
kulturelle
kulturellen
kultureller
kulturelles
kulturen
kulturgeschichte
kulturgut
kulturguter
kulturlandschaft
kulturministeriums
kulturpreis
kulturstiftung
kulturzentrum
kultusministerium
kultusministeriums
kummer
kummern
kummert
kummerte
kun
kunde
kunden
kundigt
kundigte
kundigung
kunftig
kunftige
kunftigen
kung
kuno
kunst
kunstakademie
kunstausstellung
kunstdenkmale
kunstdenkmaler
kunste
kunsten
kunstfuhrer
kunstgeschichte
kunstgewerbeschule
kunsthalle
kunsthaus
kunsthistoriker
kunsthistorikerin
kunsthochschule
kunstler
kunstlerhaus
kunstlerin
kunstlerinnen
kunstlerisch
kunstlerische
kunstlerischen
kunstlerischer
kunstlerisches
kunstlerlexikon
kunstlern
kunstlernamen
kunstlers
kunstlich
kunstliche
kunstlichen
kunstmaler
kunstmuseum
kunstpreis
kunstsammler
kunstsammlung
kunstsammlungen
kunstschule
kunststoff
kunstverein
kunstvereins
kunstverlag
kunstwerk
kunstwerke
kunstwerken
kunz
kunze
kupfer
kupferstecher
kuppel
kupplung
kur
kurator
kuratorium
kurbelwelle
kurfurst
kurfursten
kurfurstentum
kurfurstlichen
kurie
kurier
kurland
kurort
kurpfalz
kurs
kurschner
kurschners
kurse
kursiv
kursk
kurt
kurve
kurven
kurz
kurzbiografie
kurzbiographie
kurze
kurzel
kurzem
kurzen
kurzer
kurzere
kurzeren
kurzes
kurzester
kurzfilm
kurzform
kurzfristig
kurzgeschichte
kurzgeschichten
kurzlich
kurzzeitig
kuss
kussen
kuste
kusten
kuster
kutscher
kuwait
kv
kw
kwh
kx
ky
kyle
kyoto
kz
l
l0
l1
l2
l3
l4
l5
l6
l7
l8
l9
la
lab
label
labels
labor
laboratorium
laboratory
labour
labyrinth
lac
lacheln
lachelnd
lachelte
lachen
lachend
lacht
lachte
laden
ladies
ladislaus
ladt
ladung
lady
lag
lage
lagen
lager
lagern
lagers
lagerung
lagis
lago
laguna
lagune
lahn
lahr
lahti
laien
lake
lakes
lam
lama
lambda
lambert
lamellen
lamm
lampe
lampen
lan
lancaster
lance
land
landau
lande
landebahn
landen
lander
landereien
landern
landerspiel
landerspiele
landerspielen
landes
landesamt
landesamtes
landesanstalt
landesarchiv
landesaufnahme
landesbibliographie
landesbibliothek
landesgeschichte
landesgeschichtliches
landesgrenze
landeshauptmann
landeshauptstadt
landesherrn
landeskirche
landeskunde
landesliga
landesliste
landesmeister
landesmuseum
landesmuseums
landesregierung
landesstraße
landestheater
landesverband
landeswahlleiter
landesweit
landesweiten
landet
landete
landeten
landgemeinde
landgemeinden
landgericht
landgerichts
landgraf
landgrafen
landgrafschaft
landgut
landhaus
landkarte
landkreis
landkreise
landkreisen
landkreises
landliche
landlichen
landmarks
landrat
landratsamt
lands
landsberg
landscape
landschaft
landschaften
landschaftlich
landschafts
landschaftsmaler
landschaftsplan
landschaftsschutzgebiet
landschaftsschutzgebiete
landshut
landsleute
landsmann
landsmannschaft
landstande
landstraße
landtag
landtages
landtags
landtagsabgeordneter
landtagswahl
landtagswahlen
landtagswahlkreis
landung
landwehr
landwirt
landwirte
landwirthschaft
landwirtschaft
landwirtschaftlich
landwirtschaftliche
landwirtschaftlichen
landwirtschaftlicher
lane
lang
lange
langem
langen
langensalza
langenscheidt
langer
langere
langerem
langeren
langerer
langes
langfristig
langfristige
langhaus
langhauses
langjahrige
langjahrigen
langjahriger
langle
langlich
langs
langsam
langsame
langsamen
langsamer
langst
langste
langsten
langstreckenlaufer
language
languages
langue
lanka
lanz
lanzettlich
laos
lara
large
larm
larousse
larry
lars
larsen
larven
las
laser
lass
lasse
lassen
lasst
last
lasten
lastwagen
laszlo
lat
late
latein
lateinamerika
lateinamerikanischer
lateinisch
lateinische
lateinischen
lateinischer
lateinschule
later
laterne
latex
latin
latina
lau
laub
laubblatter
laube
laudatio
lauenburg
lauf
laufbahn
laufe
laufen
laufend
laufende
laufenden
laufendes
laufer
lauft
laufzeit
launch
laune
laura
laurel
lauren
laurence
laurent
laurentius
lausanne
lausitz
lausitzer
laut
laute
lauten
lauter
lauterbach
lautet
lautete
laval
law
lawrence
laws
layer
lazarett
lazarus
laß
laßt
laɪ
lb
lc
lccn
ld
ldif
ldots
ldp
le
lea
lead
leader
leaders
leadership
league
learning
least
leave
lebe
leben
lebend
lebende
lebenden
lebender
lebendig
lebendige
lebendigen
lebens
lebensbedingungen
lebensbild
lebensbilder
lebensdaten
lebensdauer
lebensende
lebensgeschichte
lebensjahr
lebensjahre
lebensjahren
lebenslange
lebenslauf
lebensmittel
lebensmitteln
lebensraum
lebensraume
lebensunterhalt
lebensweise
lebenswerk
lebenszeit
leber
lebewesen
lebhaft
lebhaften
lebt
lebte
lebten
lebzeiten
lech
lechner
lecture
led
leder
lediglich
lee
leeds
leer
leere
leeren
left
leg
legacy
legal
legat
lege
legen
legend
legendare
legendaren
legende
legenden
legends
legio
legion
legionen
legislative
legislaturperiode
legt
legte
legten
lehen
lehm
lehmann
lehnt
lehnte
lehnten
lehr
lehramt
lehranstalt
lehrauftrag
lehrbeauftragter
lehrbuch
lehre
lehren
lehrer
lehrerin
lehrern
lehrers
lehrstuhl
lehrstuhls
lehrt
lehrtatigkeit
lehrte
lei
leib
leibarzt
leibe
leibniz
leicester
leiche
leichen
leichnam
leicht
leichtathlet
leichtathletik
leichtathletin
leichte
leichten
leichter
leichtes
leichtgewicht
leichtigkeit
leid
leiden
leidenschaft
leider
leidet
leigh
leihbasis
leine
leinen
leiningen
leinwand
leipzig
leipziger
leise
leisten
leistet
leistete
leisteten
leistung
leistungen
leistungsdaten
leistungsfahigkeit
leiten
leitende
leitenden
leitender
leiter
leiterin
leiters
leitet
leitete
leitfaden
leitner
leitung
leitungen
leksikon
lektion
lektor
lekture
lemberg
lemgo
lemma
len
lena
lengemann
lenin
leningrad
lenken
lenkung
lennon
lenz
leo
leoben
leon
leonard
leonardo
leone
leonhard
leonid
leopard
leopold
leopoldina
leq
ler
lern
lernen
lernt
lernte
lernten
leroy
les
lese
lesebuch
lesen
leser
lesern
leske
leslie
lessing
leste
lester
lesung
lesungen
let
letter
letters
lettisch
lettischen
lettischer
lettland
lettres
letzte
letzten
letztendlich
letzter
letztere
letzterem
letzteren
letzterer
letzteres
letztes
letztgenannten
letztlich
letztmals
leuchten
leuchtend
leuchtturm
leute
leuten
leutershausen
leutnant
level
leverkusen
levi
levin
levy
lew
lewis
lex
lexicales
lexicon
lexikon
lexington
ley
lf
lg
lh
li
liang
lib
libanon
liber
liberal
liberale
liberalen
liberaler
liberalismus
liberation
liberia
libertadores
liberty
library
libre
libretto
libri
libro
libyen
license
lich
licht
lichte
lichten
lichtenau
lichtenberg
lichtenfels
lichtenstein
lichter
lichtes
lichtjahre
lichtjahren
lichts
lie
lieb
liebe
lieben
liebenden
lieber
liebes
liebhaber
liebig
liebling
liebsten
liebt
liebte
liechtenstein
lied
lieder
liedern
liedes
lief
liefen
liefern
liefert
lieferte
lieferten
lieferung
lieferungen
liege
liegen
liegend
liegende
liegenden
liegnitz
liegt
lieh
lies
liess
liest
lietuvos
lieutenant
ließ
ließe
ließen
life
lig
liga
ligakonkurrenten
ligaspiele
ligaspielen
ligen
light
lightning
lights
ligue
liiert
like
lil
lila
lilie
lille
lilly
lily
lim
lima
limburg
limes
limit
limited
limits
limousine
lin
lina
lincoln
lind
linda
lindau
linde
lindemann
linden
lindenberg
lindner
lindsay
line
linear
lineare
linearen
lines
ling
lingen
lingua
linguistik
linie
linien
link
linke
linken
linker
links
linnaeus
linne
linux
linz
linzer
lion
lionel
lions
lipp
lippe
lippen
lis
lisa
lissabon
list
liste
listed
listen
listet
liszt
lit
litauen
litauens
litauisch
litauische
litauischen
litauischer
liter
literarisch
literarische
literarischen
literarischer
literarisches
literary
literatur
literature
literaturgeschichte
literaturkritiker
literaturpreis
literaturwissenschaft
literaturwissenschaftler
lithium
litt
litteratur
little
liturgie
liturgischen
liu
liv
live
liverpool
lives
living
livius
livland
livre
lizenz
lj
ljubljana
lk
lkw
ll
llc
llengua
lloyd
lm
lmu
ln
lo
lob
lobau
lobe
loben
lobt
lobte
local
locarno
loch
locher
locke
locken
locker
lockheed
lodge
loewe
loffler
log
logan
loge
logic
logik
logische
logistik
logo
logos
lohe
lohmann
lohn
lohne
lohnt
lohr
loire
lois
lok
lokal
lokalbahn
lokale
lokalen
lokaler
lokales
lokativ
lokomotive
lokomotiven
lola
lombardei
lon
london
londoner
lonely
long
longmapsto
longrightarrow
look
looking
loop
loos
lopez
lorch
lord
lords
lore
lorenz
lorenzo
lorrach
lorraine
los
loschen
lose
losen
loser
loss
lost
loste
losten
losung
losungen
lot
lothar
lothringen
lotte
lotus
lou
louis
louisa
louise
louisiana
louvre
love
low
lowe
lowen
lowenstein
lower
lp
lpg
lq
lr
ls
lsg
lt
ltd
lu
lubbe
lubbecke
lubeck
lubecker
lublin
lubw
luc
luca
lucas
lucca
lucia
luciano
lucie
lucien
lucius
luck
lucke
lucken
lucky
lucy
lud
ludenscheid
ludger
ludolf
ludwig
ludwigs
ludwigsburg
ludwigshafen
ludwigslust
luft
luftangriff
luftangriffe
luftangriffen
luftaufnahmen
luftfahrt
lufthansa
luftlinie
luftstreitkrafte
luftwaffe
lugano
luge
lugen
luigi
luis
luisa
luise
lukas
luke
luna
lund
luneburg
luneburger
lunge
lust
lustig
lustige
lustigen
lustspiel
lut
luth
luther
lutherisch
lutherische
lutherischen
lutherischer
luthers
luttich
lutz
lux
luxembourg
luxemburg
luxemburger
luxus
luz
luzern
luzerner
lv
lw
lwl
lx
ly
lydia
lynch
lynn
lynx
lyon
lyrik
lyriker
lyrische
lz
lə
lən
m
m0
m1
m2
m3
m4
m5
m6
m7
m8
m9
ma
maas
maastricht
mac
macau
macdonald
mach
mache
machen
machine
macht
machte
machten
machtergreifung
machtig
machtige
machtigen
machtiger
machtubernahme
mack
mackenzie
macmillan
mad
madagaskar
madame
madchen
madchens
made
madeira
madeleine
mader
madison
madonna
madrid
mae
mafia
mag
magazin
magazine
magazins
magd
magdalena
magdeburg
magdeburger
magen
maggie
maggiore
magic
magie
magische
magischen
magister
magistrat
magna
magnetische
magnetischen
magnum
magnus
magyar
mahl
mahler
mahlzeit
mahnmal
mahren
mahrischen
mai
maier
maigret
mail
mailand
mailander
main
maine
mainstream
mainz
mainzer
mairie
mais
maison
maja
majestat
major
majors
mak
make
makedonien
makes
making
mal
mala
malaga
malaria
malaysia
malcolm
male
malen
maler
malerei
malereien
malerin
malers
mali
malik
mall
mallorca
malmo
malta
malte
mama
mammals
man
management
manager
manche
manchen
mancher
mancherlei
manches
manchester
manchmal
mandat
mandate
manet
manfred
manga
mangel
mangelnde
mangelnder
mangels
manhattan
manier
manifest
manila
manipulation
manitoba
mann
mannchen
manne
manner
mannern
mannes
mannheim
mannheimer
mannigfaltigkeit
manning
mannlich
mannliche
mannlichen
mannlicher
manns
mannschaft
mannschaften
mannschaftsverfolgung
mannschaftszeitfahren
manover
mans
mansfeld
mantel
mantua
manual
manualen
manuel
manuela
manuell
manufacturing
manufaktur
manuscript
manuskript
manuskripte
many
mao
maori
map
maple
maps
mapsto
mar
mara
marathon
marbach
marburg
marburger
marc
marcel
marcello
march
marche
marchen
marco
marcos
marcus
mare
marek
margaret
margareta
margarete
margaretha
margarethe
margit
margot
margret
marguerite
mari
maria
marian
marianne
mariano
marias
marie
marien
marienberg
marienburg
marienkirche
mariens
marija
marilyn
marin
marina
marine
marineoffizier
marino
mario
marion
maritime
marius
mark
markante
markanten
marke
marken
markenname
markennamen
markenzeichen
marker
market
marketing
markgraf
markgrafen
markgraflerland
markgrafschaft
markieren
markiert
markierte
markierung
markische
markischen
marko
marks
markt
marktanteil
markte
markten
marktes
marktgemeinde
marktplatz
marktwirtschaft
markung
markus
marlene
marmor
marne
marokko
marques
marquess
marquis
marriage
mars
marsch
marschall
marschierte
marseille
marsh
marshal
marshall
mart
marta
martens
martha
marti
martial
martin
martina
martinez
martini
martino
martins
martinus
marty
martyrer
marvel
marvin
marx
marxismus
mary
maryland
marz
mas
maschine
maschinen
maschinenbau
maschinenfabrik
maserati
maske
masken
maskulinum
mason
mass
massa
massachusetts
massacre
massaker
masse
massen
massimo
massiv
massive
massiven
mast
masten
master
masters
masuren
mat
match
matches
mater
material
materialien
materials
materie
materielle
materiellen
math
mathbb
mathbf
mathcal
mathematical
mathematics
mathematik
mathematiker
mathematisch
mathematische
mathematischen
mathfrak
mathias
mathieu
mathilde
mathrm
matrikel
matrix
matrizen
matrosen
matt
matteo
matter
matthaus
matthes
matthew
matthews
matthias
matura
mau
maud
mauer
mauern
mauerwerk
maul
mauren
maurer
maurice
mauritius
mauro
maus
mausoleum
max
maxi
maxim
maximal
maximale
maximalen
maxime
maximilian
maximilians
maximum
maximus
maxwell
may
maya
mayer
mayo
mayor
mayr
mazedonien
mazen
maß
maße
maßen
maßgabe
maßgeblich
maßgeblichen
maßig
maßnahme
maßnahmen
maßstab
maßstabe
mb
mbh
mc
mccarthy
mccartney
mcdonald
mcfarland
mclaren
md
mdb
mdl
mdr
mdz
me
mean
means
mechanik
mechaniker
mechanisch
mechanische
mechanischen
mechanischer
mechanismen
mechanismus
mecklenburg
mecklenburgische
mecklenburgischen
med
medaille
medaillen
medal
media
mediathek
medical
medici
medicin
medicine
medien
medieval
medikamente
medina
meditation
mediterranean
medium
medizin
mediziner
medizinisch
medizinische
medizinischen
medizinischer
meer
meere
meeres
meereshohe
meeresspiegel
meet
meeting
meets
mega
mehl
mehmet
mehr
mehrere
mehreren
mehrerer
mehrfach
mehrfache
mehrfacher
mehrheit
mehrheitlich
mehrkampf
mehrmals
mehrzahl
mei
meier
meile
meilen
meilenstein
mein
meine
meinem
meinen
meiner
meines
meiningen
meint
meinte
meinung
meinungen
meist
meiste
meisten
meistens
meister
meisterin
meistern
meisters
meisterschaft
meisterschaften
meistertitel
meisterwerk
meisterwerke
meißen
meißner
mekka
mel
melanchthon
melanie
melbourne
melchior
melden
meldet
meldete
meldung
meldungen
melissa
melodie
melodien
member
members
membran
memel
memento
memmingen
memoire
memoiren
memoires
memoirs
memoria
memorial
memoriam
memory
memphis
men
mende
mendelssohn
mendoza
menge
mengen
menhir
mensch
menschen
menschenrechte
menschheit
menschliche
menschlichen
menschlicher
menschliches
menschlichkeit
mental
mentor
menu
menzel
mer
meran
mercedes
merck
mercury
mercy
mergentheim
merian
merimee
merit
merite
merkel
merken
merkmal
merkmale
merkmalen
merkt
merkte
merkur
merkwurdig
merkwurdige
merkwurdigen
merlin
merriam
merseburg
mertens
merz
mes
mesa
meschede
message
messe
messen
messer
messina
messing
messung
messungen
mesto
met
meta
metacritic
metal
metall
metalle
metaphysik
meteorologie
meter
metern
method
methode
methoden
methodik
methods
metro
metropole
metropolitan
metropolregion
metternich
metz
metzger
metzler
mexico
mexikanische
mexikanischen
mexikanischer
mexiko
mexikos
meyer
meyers
mf
mfs
mg
mgm
mh
mhz
mi
mia
miami
mich
michael
michaela
michaelis
michail
michailowitsch
michel
michelangelo
michele
michelle
michigan
mick
microsoft
mid
middle
midi
midnight
miene
mieter
mig
migranten
migration
migros
miguel
mike
mil
milan
milano
milch
milchstraße
mild
milde
milden
mile
miles
milieu
militar
militarakademie
militardienst
militarisch
militarische
militarischen
militarischer
militarregierung
militars
military
miliz
mill
millennium
miller
milliarde
milliarden
millimeter
millimetern
million
millionen
mills
milton
milwaukee
min
mina
minas
mind
mindat
minden
minder
minderheit
minderheiten
minderjahrigen
mindestens
mine
minen
mineral
minerale
mineralien
mineralogical
mineralogie
minerals
minerva
mines
ming
minh
mini
minimal
minimum
mining
miniserie
minister
ministerien
ministerin
ministerium
ministeriums
ministerprasident
ministerprasidenten
ministers
ministry
minna
minne
minneapolis
minnesota
minor
minsk
minus
minute
minuten
mio
mir
mira
miranda
miriam
miroslav
mirror
mischen
mischung
miss
missa
missbrauch
missing
mission
missionar
missionare
missionen
mississippi
missouri
misst
mister
mit
mitarbeit
mitarbeiter
mitarbeiterin
mitarbeitern
mitbegrunder
mitchell
miteinander
mitgebracht
mitgenommen
mitgeteilt
mitgetheilt
mitgewirkt
mitglied
mitglieder
mitgliedern
mitgliedschaft
mitgliedsnummer
mitgliedstaaten
mitgrunder
mitherausgeber
mithilfe
mithin
mitkonsekratoren
mitleid
mitleidenschaft
mitsamt
mitspieler
mitsubishi
mitt
mittag
mittags
mitte
mitteilung
mitteilungen
mittel
mittelalter
mittelalterliche
mittelalterlichen
mittelalterlicher
mittelalters
mitteldeutsche
mitteldeutschen
mitteldeutscher
mitteldeutschland
mitteleuropa
mitteleuropas
mittelfeld
mittelfeldspieler
mittelfranken
mittelgewicht
mittelhochdeutsch
mittelmeer
mittelmeerraum
mitteln
mittelpunkt
mittelrhein
mittels
mittelschiff
mittelschule
mittelst
mittelteil
mitten
mitternacht
mittheilung
mittheilungen
mittig
mittler
mittlere
mittleren
mittlerer
mittleres
mittlerweile
mittwoch
mitunter
mitwirkte
mitwirkung
mix
mixed
mj
mk
ml
mlb
mls
mlynek
mm
mn
mo
mob
mobel
mobil
mobile
mobilen
mobilitat
mochte
mochten
mochtest
mod
mode
model
modell
modelle
modellen
modells
models
modena
moderation
moderator
moderatorin
moderiert
moderierte
modern
moderne
modernen
moderner
modernes
modernisiert
modernisierung
modifiziert
modling
modul
module
modus
moers
moge
mogen
moglich
mogliche
moglichen
moglicher
moglicherweise
moglichkeit
moglichkeiten
moglichst
mohamed
mohammad
mohammed
mohn
mohr
mol
moldau
molecular
molekule
moll
moller
molly
moltke
moment
momentan
momente
mommsen
mon
mona
monaco
monarch
monarchen
monarchie
monat
monate
monaten
monatlich
monatliche
monats
monatshefte
monatsschrift
monch
monche
monchen
monchengladbach
mond
monde
mondes
money
mongolei
mongolen
monica
monika
monitor
monitoring
monk
mono
monogramm
monographie
monographien
monopol
monroe
mons
monsieur
monster
mont
montag
montage
montags
montana
monte
montenegro
montevideo
montfort
montgomery
month
monthly
montiert
montpellier
montreal
monument
monumenta
monumentale
monumente
monuments
monza
moon
moor
moore
moos
moose
mor
moral
morales
moralisch
moralische
moralischen
morbus
mord
morde
morden
morder
mordes
more
moreno
morgan
morgen
morgenpost
morgens
morgenstern
mori
moritz
morning
morphologie
morris
morrison
mort
mortimer
morton
mos
mosaik
mosambik
moschee
moscow
mose
mosel
moselle
moser
moses
moskau
moskauer
moss
most
mot
mother
motion
motiv
motivation
motive
motiven
motor
motorbuch
motordrehzahl
motoren
motorrad
motorrader
motorradrennfahrer
motors
motorsport
motte
motto
mount
mountain
mountains
move
movement
movie
movies
moving
mozart
mozarts
mp
mq
mr
mrd
mrs
ms
msv
mt
mtv
mu
much
mude
mueller
muenchen
muhammad
muhe
muhlbach
muhldorf
muhle
muhlen
muhlhausen
muhsam
mulde
mulheim
mull
muller
mullers
multi
multimedia
multiple
multiplikation
munch
munchen
munchener
munchhausen
munchner
mund
mundart
mundarten
munde
munden
mundet
mundete
mundi
mundlich
mundliche
mundlichen
mundo
mundung
municipal
municipio
municipios
munition
munster
munsterland
munter
munz
munze
munzen
munzer
munzinger
mur
murat
murder
murphy
murr
murray
mus
musa
muscheln
musculus
muse
musee
museen
museo
museum
museums
music
musica
musical
musicals
musik
musikalisch
musikalische
musikalischen
musikalischer
musikalisches
musiker
musikerin
musikern
musikgeschichte
musikhochschule
musiklexikon
musikpadagoge
musikproduzent
musikschule
musiktheater
musikverkaufe
musikverlag
musikvideo
musikvideos
musikwissenschaft
musikwissenschaftler
musique
muskeln
muslim
muslime
muslimen
muslimische
muslimischen
muss
musse
mussen
mussolini
musste
mussten
must
mustafa
muster
mustern
mut
mutation
mutationen
muth
mutig
mutter
mutterlicherseits
muttersprache
mutze
muß
mußt
mußte
mußten
mv
mvp
mw
mx
my
myanmar
myers
myspace
mystery
mystik
myth
mythen
mythologie
mythos
mz
n
n0
n1
n2
n3
n4
n5
n6
n7
n8
n9
na
nach
nachahmung
nachbar
nachbargemeinde
nachbargemeinden
nachbarn
nachbarort
nachbarorte
nachbarschaft
nachbildung
nachdem
nachdenken
nachdruck
nacheinander
nachempfunden
nachfahren
nachfolge
nachfolgend
nachfolgende
nachfolgenden
nachfolger
nachfolgerin
nachforschungen
nachfrage
nachgehen
nachgewiesen
nachhaltig
nachhaltige
nachhaltigen
nachhaltigkeit
nachher
nachkomme
nachkommen
nachkriegszeit
nachlass
nachlasse
nachlaß
nachmittag
nachmittags
nachname
nachnamen
nachricht
nachrichten
nachrichtliches
nachruf
nachschlagewerk
nachst
nachste
nachsten
nachster
nachstes
nachstgelegene
nachstgelegenen
nacht
nachte
nachteil
nachteile
nachtigall
nachtlichen
nachtrag
nachtrage
nachtraglich
nachts
nachwahl
nachweis
nachweisbar
nachweise
nachweisen
nachweislich
nachwelt
nachwort
nachwuchs
nachzuweisen
nacional
nacken
nackt
nackte
nackten
nad
nadel
nadine
nadja
nagano
nagel
nagy
nah
nahe
nahegelegenen
nahen
naher
nahere
naheren
naheres
nahern
nahert
naherte
nahezu
nahm
nahmen
nahrung
nahrungsmittel
naht
nahverkehr
nam
name
named
namen
namens
namenseintrag
namensform
namensgebend
namensgebenden
namensgeber
namensgebung
namenstrager
namentlich
names
namhafte
namhaften
namibia
namlich
namlichen
namur
nan
nana
nancy
nannte
nannten
nantes
napoleon
napoleonischen
napoleons
napoli
narr
narrative
narren
nas
nasa
nase
naselenija
nasen
nash
nashville
nassau
nasse
nat
natal
natalie
nathan
nathaniel
nation
national
nationalbibliothek
nationale
nationalen
nationaler
nationales
nationalgalerie
nationalismus
nationalitat
nationalliga
nationalmannschaft
nationalmannschaften
nationalmuseum
nationalpark
nationalparks
nationalrat
nationalsozialismus
nationalsozialisten
nationalsozialistische
nationalsozialistischen
nationalsozialistischer
nationalspieler
nationalstraße
nationalteam
nationaltheater
nationaltrainer
nationalversammlung
nationen
nations
native
nato
natur
natura
natural
naturdenkmal
naturdenkmale
naturdenkmaler
nature
naturelle
naturforscher
naturgeschichte
naturkunde
naturlich
naturliche
naturlichen
naturlicher
naturpark
naturparks
naturraum
naturraumlichen
naturschutz
naturschutzgebiet
naturschutzgebiete
naturschutzgebietes
naturwissenschaft
naturwissenschaften
naturwissenschaftler
naturwissenschaftliche
naturwissenschaftlichen
naukowe
naumann
naumburg
naval
navarra
navigation
navy
naxos
nazi
nazionale
nazis
nb
nba
nbc
nbn
nc
ncaa
nd
ndb
ndl
ndr
ne
neal
neapel
near
nebel
neben
nebenbei
nebendarsteller
nebendarstellerin
nebeneinander
nebenfluss
nebenflusse
nebenformen
nebengebaude
nebenrolle
nebenrollen
nebensatzkonjugation
nebenwirkungen
nebraska
nebst
nec
neckar
ned
nederland
nederlandse
need
neffe
neffen
negativ
negative
negativen
negro
nehme
nehmen
neid
neigung
neigungen
neil
neill
nein
neiße
nekrolog
nel
nell
nella
nelson
nem
nen
nenndrehzahl
nennen
nennenswerte
nennt
nennung
neo
nepal
nepomuk
neq
ner
nero
nerven
nes
nest
nester
nestor
nestroy
net
netflix
netherlands
network
networks
netz
netze
netzes
netzwerk
netzwerke
neu
neuauflage
neuausgabe
neubau
neubauer
neubaustrecke
neubauten
neubearbeitete
neubearbeitung
neubrandenburg
neuburg
neudorf
neudruck
neue
neuem
neuen
neuenburg
neuendorf
neuer
neuerdings
neuere
neueren
neuerer
neuerung
neuerungen
neues
neueste
neuesten
neugegrundeten
neugestaltung
neugliederung
neugotische
neugotischen
neugrundung
neuguinea
neuhaus
neuhausen
neuhof
neukirchen
neukolln
neumann
neumark
neumarkt
neumunster
neun
neunkirchen
neunte
neunten
neunter
neunzehnten
neuordnung
neurologie
neuseeland
neuseelandische
neuseelandischen
neuseelandischer
neuseelands
neuss
neustadt
neustadter
neustrelitz
neutral
neutrale
neutralen
neutralitat
neutrum
neuwahlen
neuwied
neuzeit
nevada
never
neville
new
newcastle
newcomer
newman
newport
news
newsletter
newspaper
newton
next
nf
nfl
ng
ngc
ngr
nguyen
nh
nhl
nhn
ni
niamey
nicaragua
niccolo
nice
nich
nicholas
nichols
nicholson
nicht
nichte
nichts
nick
nickel
nickte
nico
nicola
nicolai
nicolas
nicolaus
nicole
nie
nieder
niederbayern
niedere
niederen
niedergang
niedergebrannt
niedergelassen
niedergelegt
niedergeschlagen
niederlage
niederlagen
niederlande
niederlanden
niederlander
niederlandisch
niederlandische
niederlandischen
niederlandischer
niederlassung
niederlassungen
niederlausitz
niederosterreich
niederosterreichischen
niederrhein
niedersachsen
niedersachsische
niedersachsischen
niedersachsisches
niederschlag
niederschlage
niederschlagung
niederschlesien
niederung
niedrig
niedrige
niedrigen
niedriger
niedrigere
niedrigeren
niedrigsten
niels
nielsen
niemals
niemand
niemeyer
nienburg
nietzsche
nigel
niger
nigeria
night
nights
niht
nijmegen
nikita
niklas
niklaus
nikola
nikolai
nikolajewitsch
nikolaus
nil
nils
nilsson
nimm
nimmer
nimmt
nina
nine
nino
nintendo
nippon
nirgends
nis
nische
nischen
nischni
nissan
nit
niveau
nix
nixon
nizza
nj
njw
nk
nl
nm
nn
no
noah
nobel
nobelpreis
nobelpreistrager
noble
noch
nochmal
nochmals
noel
noir
noise
nom
nomen
nomenclature
nomenklatur
nomina
nominatform
nominations
nominativ
nominiert
nominierte
nominierung
nominierungen
nomos
non
nonne
nonnen
nor
nora
norbert
nord
nordafrika
nordamerika
nordamerikanischen
nordamerikas
norddeutsche
norddeutschen
norddeutscher
norddeutschland
norden
nordens
norderstedt
nordhausen
nordic
nordirland
nordische
nordischen
nordkorea
nordkuste
nordlich
nordliche
nordlichen
nordlicher
nordlingen
nordost
nordosten
nordostlich
nordostlichen
nordostlicher
nordrand
nordrhein
nordsee
nordseite
nordufer
nordwand
nordwarts
nordwest
nordwesten
nordwestlich
nordwestlichen
nordwestlicher
norfolk
norm
normal
normale
normalen
normaler
normalerweise
normalschanze
norman
normandie
normdaten
normen
norris
norsk
norske
norstedts
norte
north
northern
norton
norwegen
norwegens
norwegisch
norwegische
norwegischen
norwegischer
norwich
nos
nostra
not
notar
notation
note
noten
notes
noth
nothig
nothigen
nothing
nothwendig
nothwendigkeit
notice
notiert
notig
notige
notigen
notiz
notizen
notlagen
notre
notruf
nottingham
notwendig
notwendige
notwendigen
notwendigkeit
nous
nouveau
nouvelle
nov
nova
novak
nove
novel
novelle
novellen
november
novi
novo
now
nowak
nowgorod
nowy
np
npd
nq
nr
nrhp
nrw
ns
nsdap
nsg
nsu
nt
nu
nuclear
nueva
nuevo
null
num
number
numbers
nummer
nummerierung
nummern
nun
nunatak
nunmehr
nuntius
nur
nurburgring
nurnberg
nurnberger
nutzbar
nutze
nutzen
nutzer
nutzlast
nutzlich
nutzt
nutzte
nutzten
nutzung
nv
nva
nw
nx
ny
nytimes
nz
nzz
nə
nən
o
o0
o1
o2
o3
o4
o5
o6
o7
o8
o9
oa
oak
oakland
ob
obama
obb
obec
oben
ober
oberamt
oberamtmann
oberamts
oberbayerischen
oberbayern
oberbefehl
oberbefehlshaber
oberbegriffe
oberburgermeister
obere
oberen
oberer
oberes
oberflache
oberflachen
oberfranken
obergeschoss
oberhalb
oberhaupt
oberhaus
oberhausen
oberhessen
oberhof
oberkommando
oberland
oberlandesgericht
oberlauf
oberlausitz
oberleutnant
oberliga
obern
oberndorf
oberosterreich
oberosterreichischen
oberpfalz
oberpfalzer
oberschicht
oberschlesien
oberschule
oberseite
oberst
oberstdorf
oberste
obersten
oberster
oberstleutnant
oberstufe
obgleich
obhut
obigen
obituary
object
objekt
objekte
objekten
objektes
objektiv
objektive
objekts
obl
oblag
oblast
obliegt
obmann
oboe
obrigkeit
obschon
observations
observatorium
observatory
observer
obst
obstbau
obv
obwohl
oc
ocean
och
ochsen
oclc
oct
october
od
ode
oden
odenwald
oder
odessa
odyssee
oe
oecd
oel
oesterreich
oesterreichs
oettingen
of
ofb
ofen
off
offen
offenbach
offenbar
offenbart
offenbarung
offenburg
offene
offenem
offenen
offener
offenes
offensichtlich
offensive
offentlich
offentliche
offentlichen
offentlicher
offentliches
offentlichkeit
offentlichkeitsarbeit
office
officer
official
officier
officiere
offiziell
offizielle
offiziellen
offizieller
offizielles
offizier
offiziere
offizieren
offnen
offnet
offnete
offnung
offnungen
offs
offshore
oft
ofter
ofteren
ofters
oftmals
og
ognd
oh
ohio
ohm
ohne
ohnehin
ohnmacht
ohr
ohren
oi
oil
oise
oj
ok
okinawa
oklahoma
okologie
okologische
okologischen
okologischer
okonom
okonomie
okonomische
okonomischen
okres
okt
oktober
oktoberrevolution
okumenischen
okzitanien
ol
olaf
olbad
old
oldenbourg
oldenburg
oldenburger
oldenburgischen
oldid
oldrich
ole
oleg
olga
olgemalde
olimpbase
oliveira
oliver
olivia
olivier
olms
olmutz
olof
olpe
olsen
olten
olympedia
olympia
olympiamannschaft
olympiasieger
olympiasiegerin
olympiastadion
olympic
olympics
olympique
olympische
olympischen
om
oman
omar
omega
omnibus
on
onb
once
one
onkel
onkels
online
only
ons
ontario
oo
op
opel
open
opening
oper
opera
operation
operationen
operations
operative
operativen
operator
operatorname
operette
opern
opernhaus
opernsanger
opernsangerin
opfer
opfern
opfers
opitz
opladen
opnv
oppeln
oppenheim
opposition
optik
optimal
optimale
optimierung
option
optional
optionen
optisch
optische
optischen
opus
oq
or
oral
orange
orangen
oranien
oratorium
orbit
orchester
orchesters
orchestra
ord
ordbok
orden
ordens
ordensgeistlicher
ordensgemeinschaft
ordentlich
ordentliche
ordentlichen
ordentlicher
ordentliches
order
ordinarius
ordnen
ordnet
ordnete
ordnung
ordnungen
ordre
oregon
orf
org
organ
organe
organen
organic
organisation
organisationen
organisatorischen
organische
organischen
organisieren
organisiert
organisierte
organisierten
organismen
organismus
organist
organisten
organization
orgel
orgelbau
orgelbauer
orgeln
orient
oriental
orientalische
orientalischen
orientalist
orientieren
orientiert
orientierte
orientierten
orientierung
origin
original
originalausgabe
originale
originalen
originals
originaltitel
origine
origins
orion
orlando
orleans
oro
orpheus
ort
orte
orten
ortenburg
ortes
orth
orthodoxe
orthodoxen
ortliche
ortlichen
ortograficzny
orts
ortsbeirat
ortsburgermeister
ortschaft
ortschaften
ortsdatenbank
ortsgemeinde
ortsgeschichte
ortsgruppe
ortskern
ortslage
ortslexikon
ortsmitte
ortsname
ortsnamen
ortsrand
ortsregister
ortsteil
ortsteile
ortsteilen
ortsteils
ortsverzeichnis
ortsvorsteher
ortszeit
ortszentrum
os
osaka
oscar
oscars
oscarverleihung
oskar
oslo
osm
osmanen
osmanische
osmanischen
osnabruck
osnabrucker
ost
ostafrika
ostantarktischen
ostasien
ostdeutschen
ostdeutschland
osten
ostens
ostern
osterode
osterr
osterreich
osterreicher
osterreichisch
osterreichische
osterreichischen
osterreichischer
osterreichisches
osterreichs
osteuropa
ostfildern
ostfriesischen
ostfriesland
ostfront
ostindien
ostkuste
ostlich
ostliche
ostlichen
ostlicher
ostpreußen
ostsee
ostseite
ostteil
osttimor
osttimors
ostufer
ostwarts
oswald
ot
other
others
otimes
ots
ott
ottawa
otto
ottokar
ottos
ou
ouest
our
out
outdoor
outstanding
ouverture
ov
oval
over
overline
overtime
overview
ovid
ovp
ow
owen
own
ox
oxford
oxidation
oy
oz
ozean
p
p0
p1
p2
p3
p4
p5
p6
p7
p8
p9
pa
paar
paare
paaren
paarung
paarweise
pablo
pabst
pace
pachter
pacific
pack
padagoge
padagogik
padagogische
padagogischen
paderborn
padua
page
pages
pain
painting
pair
pais
pak
paket
pakete
pakistan
pakt
pal
palace
palais
palaontologe
palaontologie
palast
palastes
palastina
palastinensischen
palazzo
palermo
palette
palissy
pallas
palm
palma
palme
palmen
palmer
pamela
pan
panama
panamerikanischen
pandemie
panel
panik
pankow
panorama
pantheon
panther
panthers
panzer
paolo
papa
pape
paper
papers
papier
papiere
pappenheim
papst
papste
papstes
papstliche
papstlichen
papua
papyrus
par
para
parade
paradies
paradise
paraguay
parallel
parallele
parallelen
paralympics
parameter
paramount
parana
parc
parchim
parey
paris
pariser
parish
park
parkanlage
parker
parkplatz
parks
parlament
parlamentarier
parlamentarische
parlamentarischen
parlamentarismus
parlaments
parlamentswahl
parlamentswahlen
parliament
parma
parodie
parque
parroquia
pars
parsons
part
partei
parteien
parteitag
partenkirchen
parti
partial
participle
partido
partie
partien
partikel
partisanen
partitur
partizip
partizipien
partner
partnerin
partnern
partners
partnerschaft
partnerschaften
parts
party
parzellen
pas
pascal
pascha
pass
passage
passagen
passagier
passagiere
passagieren
passau
passauer
passe
passen
passend
passende
passenden
passes
passieren
passiert
passierte
passion
passiv
passive
passt
past
pastor
pat
pate
patent
patente
pater
path
pathologie
patient
patienten
patients
patriarch
patriarchen
patricia
patrick
patrimoine
patriot
patron
patronat
patrozinium
patterson
pau
paul
paula
pauli
pauline
paulo
pauls
paulus
pauly
paulys
paus
pausanias
pause
pavel
pavia
pavillon
pawel
pax
pay
payne
pays
paz
pazifik
pazifischen
pb
pc
pd
pdc
pdf
pds
pe
peace
peak
pearl
pearson
pech
pedal
pedersen
pedro
peer
peerage
pegel
peggy
peine
peking
pelz
pen
pendant
penguin
peninsula
penis
penn
pennsylvania
penny
pension
pensionierung
people
per
percy
pere
pereira
perez
perfect
perfekt
perfekte
performance
period
periode
perioden
perkins
perkussion
perl
perle
perlen
perlentaucher
perm
permanent
permanente
perry
perser
persien
persisch
persische
persischen
person
personal
personalunion
personen
personendatensatz
personenlexikon
personennamen
personensuche
personenverkehr
personenwagen
personlich
personliche
personlichen
personlicher
personliches
personlichkeit
personlichkeiten
perspective
perspectives
perspektive
perspektiven
perth
perthes
peru
peruanischen
pest
pestalozzi
pesth
pet
pete
peter
peters
petersberg
petersburg
petersburger
petersen
peterson
petit
petite
petition
petr
petra
petri
petrus
peugeot
pf
pfad
pfaff
pfaffenhofen
pfalz
pfalzer
pfalzgraf
pfalzgrafen
pfalzische
pfalzischen
pfarr
pfarramt
pfarrdorf
pfarre
pfarrei
pfarreien
pfarrer
pfarrers
pfarrgemeinde
pfarrhaus
pfarrkirche
pfarrstelle
pfeffer
pfeife
pfeifen
pfeifer
pfeiffer
pfeil
pfeiler
pfeilern
pfennig
pferd
pferde
pferden
pferdes
pfingsten
pfister
pflanze
pflanzen
pflanzenart
pflanzenarten
pflanzennamen
pflege
pflegen
pfleger
pflegt
pflegte
pflicht
pflichten
pflug
pforte
pforzheim
pfund
pg
ph
phanomen
phanomene
phantasie
phantom
pharao
pharmakologie
pharmazie
phase
phasen
phi
phil
philadelphia
philharmonic
philharmonie
philharmoniker
philip
philipp
philippe
philippi
philippine
philippinen
philipps
philips
phillip
phillips
philologe
philologie
philosoph
philosophen
philosophical
philosophie
philosophisch
philosophische
philosophischen
philosophy
phoenix
phonix
photo
photographie
photography
photos
php
phylogenetic
phylogeny
phys
physical
physics
physik
physikalisch
physikalische
physikalischen
physiker
physiologie
physische
physischen
pi
pia
pianist
pianisten
pianistin
piano
pianoforte
piazza
picasso
pichler
pick
picture
pictures
pie
pieces
piemont
pier
pierce
piero
pierre
piet
pieta
pieter
pietro
pilger
pilot
piloten
pilz
pilze
pim
pin
pine
pink
pinto
pinus
pinyin
pioneer
pionier
pioniere
piotr
pipeline
piper
piraten
pirates
pirmasens
pirna
pisa
piste
pistole
pitt
pittsburgh
pius
pixel
piz
pj
pjotr
pk
pkt
pkw
pl
place
places
plain
plains
plakate
plakette
plan
planck
plane
planen
planet
planetary
planeten
planmaßig
planning
plans
plant
plantarum
plante
plants
planung
planungen
plasma
plastik
plastiken
plata
plate
plateau
platform
platin
plato
platon
platons
platt
platte
platten
plattenfirma
plattenlabel
plattenvertrag
plattform
plattformen
platz
platze
platzen
platzes
platzieren
platziert
platzierte
platzierung
platzierungen
platzierungskriterien
plauen
play
player
players
playoff
playoffs
playstation
plaza
plin
plinius
plon
plotzlich
plotzlichen
plural
plus
plut
plutarch
plymouth
pm
pmatrix
pmc
pmid
pn
pnas
po
poblacion
pocket
pod
podcast
podest
podium
poe
poems
poesie
poet
poeten
poetische
poetischen
poetry
pohl
point
points
pokal
pokals
pokalsieger
poker
pol
poland
polar
pole
polen
polens
police
policy
polit
political
politics
politik
politiker
politikerin
politikern
politikers
politikwissenschaft
politikwissenschaftler
politisch
politische
politischen
politischer
politisches
polizei
polizeiruf
polizist
polizisten
polka
poll
poln
polnisch
polnische
polnischen
polnischer
polo
polska
polski
polskiego
polten
polynom
polytechnischen
pommern
pommerschen
pompeius
pons
pont
ponte
pool
pop
pope
popmusik
popp
popular
populare
popularen
popularitat
population
populationen
por
porsche
port
porta
portal
portale
porte
porter
portfolio
portland
porto
portrait
portraits
portrat
portrats
portsmouth
portugal
portugals
portugiesen
portugiesisch
portugiesische
portugiesischen
portugiesischer
porzellan
pos
posaune
posen
position
positionen
positiv
positive
positiven
positiver
positivs
posse
possible
post
postamt
posten
posthum
postum
pot
potential
potenzial
potok
potsdam
potsdamer
potter
pour
powell
power
powers
powiat
poznan
pp
pq
pr
pra
pracht
prachtige
prachtigen
practice
pradesh
pradikat
pradikative
prafekt
prafektur
prafix
prag
pragen
prager
pragt
pragte
pragten
pragung
praha
praktiken
praktikum
praktisch
praktische
praktischen
praktischer
praktiziert
praktizierte
pralat
prasens
prasent
prasentation
prasentieren
prasentiert
prasentierte
prasenz
prasident
prasidenten
prasidentin
prasidentschaft
prasidentschaftswahl
prasidentschaftswahlen
prasidium
prasidiums
prateritum
pratt
pravention
praxis
prazise
pre
prediger
predigt
predigten
preis
preise
preisen
preises
preisgeld
preistrager
preisverleihung
premier
premiere
premierminister
premierministers
premio
premium
pres
present
president
presidential
press
presse
presseamt
pressekonferenz
pressemappe
pressemeldung
pressemitteilung
prestel
preston
pretty
preussen
preussischen
preuß
preußen
preußens
preußisch
preußische
preußischen
preußischer
preßburg
pri
price
pride
priester
priesterseminar
priesterweihe
prima
primar
primare
primaren
primary
prime
primera
primetime
primo
primus
primzahl
primzahlen
prince
princess
princeton
principe
principles
print
prinz
prinzen
prinzessin
prinzip
prinzipiell
prinzipien
prior
prioritat
prirucka
prirucni
prisma
prison
privat
privatbesitz
privatdozent
private
privaten
privater
privates
privatleben
privatpersonen
privileg
privilegien
prix
prize
pro
probe
proben
problem
problematik
problematisch
probleme
problemen
problemlos
problems
probst
proc
proceedings
process
procyclingstats
prod
producer
product
production
productions
products
produkt
produkte
produkten
produktion
produktionen
produktionsfirma
produzent
produzenten
produzentin
produzieren
produziert
produzierte
produzierten
prof
professional
professionelle
professionellen
professioneller
professor
professoren
professorin
professors
professur
profi
profikarriere
profil
profile
profimannschaft
profis
profit
profitieren
profitierte
profivertrag
prognose
program
programm
programme
programmen
programmiersprache
programmierung
programms
progress
progressive
project
projects
projekt
projekte
projekten
projektes
projektion
projekts
prolog
promenade
prometheus
prominente
prominenten
promotion
promoviert
promovierte
proof
propaganda
properties
property
prophet
propheten
proportional
propst
propstei
propulsion
propylaen
prosa
prosieben
prospekt
prostitution
protagonist
protagonisten
protected
protection
protein
proteine
protest
protestanten
protestantische
protestantischen
protestantismus
proteste
protesten
protocol
protokoll
protokolle
prototyp
prototypen
provence
providence
province
provincia
provincial
provinz
provinzen
provinzhauptstadt
provinzial
provisorisch
provisorische
provisorischen
prozent
prozess
prozesse
prozessen
prozesses
prozession
prozessor
prozessoren
prozeß
pruf
prufe
prufen
prufung
prufungen
prum
ps
psa
psalm
psalmen
pseudo
pseudonym
psi
psyche
psychiater
psychiatrie
psychiatrischen
psychisch
psychische
psychischen
psychoanalyse
psychologe
psychologie
psychologische
psychologischen
psychology
psychotherapie
pt
ptolemaios
pts
pu
pub
publ
public
publication
publications
publicum
publikation
publikationen
publikum
publikums
publikumspreis
published
publisher
publishers
publishing
publius
publiziert
publizierte
publizist
publizistik
puerto
puls
pulver
pumpe
pumpen
punk
punkt
punkte
punkten
punkterange
punta
puppe
puppen
pur
pure
purple
pustet
put
putin
putsch
putz
puy
pv
pw
pwn
px
py
pyramide
pyramiden
pyrenaen
pyrenees
pyrmont
python
pz
q
q0
q1
q2
q3
q4
q5
q6
q7
q8
q9
qa
qb
qc
qd
qe
qf
qg
qh
qi
qing
qj
qk
ql
qm
qn
qo
qp
qq
qquad
qr
qs
qt
qu
qua
quad
quadrat
quadratische
quadratischen
quadratkilometer
quadratkilometern
quadratmeter
quadratmetern
quae
qual
qualen
qualifikant
qualifikation
qualifikationsrunde
qualifizieren
qualifiziert
qualifizierte
qualifizierten
qualitat
qualitaten
qualitativ
quality
quam
quantitative
quantum
quartal
quarterly
quartet
quartett
quartier
quasi
que
quebec
quechua
quecksilber
quedlinburg
queen
queens
queensland
queer
quelle
quellen
quelltext
quentin
quer
querschnitt
quest
question
questions
qui
quick
quincy
quinn
quintett
quintus
quo
quod
quote
quotenmeter
qv
qw
qx
qy
qz
r
r0
r1
r2
r3
r4
r5
r6
r7
r8
r9
ra
raab
raabe
rabbi
rabbiner
rabe
raben
race
rache
rachel
rachen
racing
rad
rada
radar
radebeul
rademacher
rader
radern
radfahrer
radical
radikal
radikale
radikalen
radio
radiosender
radius
radrennfahrer
radsport
radsportler
radsportseiten
radstand
radweg
rae
raf
rafael
ragen
ragt
rahmen
rahmenbedingungen
rai
rail
railroad
railway
railways
raimund
rain
rainbow
rainer
rajon
rajons
rakete
raketen
ralf
rallye
ralph
ram
rama
ramirez
ramon
ramos
rampe
ran
ranch
rand
randall
rande
randern
randolph
random
randy
rang
range
ranger
rangers
ranges
rangle
rangliste
ranke
ranking
rankings
raoul
rap
raphael
rapid
rapper
rapperswil
rare
ras
rasch
rasche
raschen
rascher
rasen
rasmussen
rasse
rassen
rassismus
rast
rastatt
rat
rate
raten
rates
ratgeber
rath
rathaus
rathauses
rathe
ratings
rationale
rationalen
rats
ratsel
ratsherr
ratten
ratzeburg
rau
raub
rauber
rauch
rauchen
rauh
raul
raum
raume
raumen
raumes
raumfahrt
raumgruppe
raumlich
raumliche
raumlichen
raumlichkeiten
raums
raumschiff
raumstation
raupen
raus
rausch
rauschen
raven
ravenna
ravensburg
raw
ray
raymond
rb
rbb
rc
rca
rd
re
reaction
read
reader
reading
ready
reagieren
reagiert
reagierte
reaktion
reaktionen
real
reale
realen
realencyclopadie
realgymnasium
realisieren
realisiert
realisierte
realisierung
realismus
realitat
reality
reallexikon
really
realschule
rebecca
rebellen
rebellion
rebounds
rebsorten
rec
recent
recherche
recherchen
recherches
rechnen
rechner
rechnet
rechnung
rechnungen
recht
rechte
rechteckige
rechteckigen
rechten
rechter
rechtes
rechtfertigen
rechtfertigung
rechtlich
rechtliche
rechtlichen
rechts
rechtsanwalt
rechtschreibung
rechtsextremen
rechtsextremismus
rechtsform
rechtsgeschichte
rechtsprechung
rechtsstreit
rechtsverbindliche
rechtswissenschaft
rechtswissenschaften
rechtswissenschaftler
rechtzeitig
recklinghausen
reclam
reclams
record
recording
recordings
records
rector
red
redaction
redakteur
redakteurin
redaktion
rede
reden
redensarten
redet
redewendungen
redner
reduktion
reduzieren
reduziert
reduzierte
reduzierung
reed
reeder
reederei
reelle
reellen
rees
ref
referat
reference
referendum
referent
referenz
referenzen
reflektiert
reflexion
reflexionen
reform
reformation
reformator
reformen
reformiert
reformierte
reformierten
reformierter
refrain
reg
regal
rege
regel
regelfall
regelmaßig
regelmaßige
regelmaßigen
regelmaßiger
regeln
regelt
regelung
regelungen
regen
regenbogen
regensburg
regensburger
regent
regenten
regentschaft
regenwald
regenzeit
reger
regesta
regesten
reggae
reggio
regie
regieren
regierenden
regiert
regierte
regierung
regierungen
regierungs
regierungsbezirk
regierungsbezirke
regierungsbezirken
regierungsbezirks
regierungsblatt
regierungschef
regierungsprasident
regierungsrat
regierungszeit
regime
regiment
regimenter
regiments
regimes
regina
reginald
regine
regio
region
regional
regionale
regionalen
regionaler
regionalgeschichte
regionalliga
regionen
regis
regisseur
regisseure
regisseurin
regisseurs
register
registern
registriert
registrierte
registrierung
reglement
regte
regular
regulare
regularen
regulation
regulierung
rehabilitation
rei
reich
reichardt
reiche
reichen
reichenau
reichenbach
reichenberg
reichenhall
reicher
reichert
reiches
reichlich
reichs
reichsbahn
reichskanzler
reichsmark
reichsstadt
reichstag
reichstage
reichstags
reichstagsabgeordneten
reichstagswahlen
reichsten
reichswehr
reicht
reichte
reichten
reichthum
reichtum
reichweite
reid
reif
reife
reifen
reihe
reihen
reihenfolge
reilly
reimann
reime
reimer
reims
rein
reinbek
reine
reinen
reiner
reines
reinhard
reinhardt
reinhart
reinheit
reinhold
reinigen
reinigung
reis
reise
reisefuhrer
reisen
reisende
reisenden
reist
reiste
reisten
reiten
reiter
reiz
reize
reißen
reißt
rekonstruiert
rekonstruktion
rekord
rekorde
rektor
related
relation
relations
relativ
relative
relativen
relativitatstheorie
release
relegation
relevant
relevante
relevanten
relevanz
relief
reliefs
religion
religionen
religions
religios
religiose
religiosen
religioser
religious
reliquien
rem
remake
remanie
rembrandt
remember
remis
remix
remscheid
remy
ren
renaissance
renate
renato
renault
rendsburg
rene
renee
rennen
rennens
renner
rennes
rennfahrer
rennwagen
renommierte
renommierten
renoviert
renovierung
rente
reorganisation
rep
reparatur
reparaturen
repariert
repertoire
repertorium
report
reportage
reportagen
reporter
reports
reprasentant
reprasentanten
reprasentantenhaus
reprasentantenhauses
reprasentation
reprasentative
reprasentativen
reprasentieren
reprasentiert
reprint
reptilien
repubblica
republic
republica
republican
republik
republikaner
republikanische
republikanischen
republique
requiem
rer
rerum
res
research
reservat
reserve
reservoir
residence
resident
residenz
residenzstadt
residierte
resistance
resolution
resonanz
resort
resource
resources
resp
respekt
respektive
response
ressource
ressourcen
ressources
rest
restaurant
restaurants
restauration
restauriert
restaurierte
restaurierung
reste
resten
restliche
restlichen
result
resultat
resultate
resultierende
resultierenden
resultiert
results
ret
retired
retrospektive
retten
retter
rettet
rettete
rettung
return
returns
reue
reunion
reuter
reuters
reutlingen
reuß
rev
reval
revier
review
reviews
revised
revision
revista
revolte
revolution
revolutionar
revolutionare
revolutionaren
revolver
revue
rex
rey
reykjavik
reynolds
reza
rezension
rezensionen
rezept
rezepte
rezeption
rf
rfc
rg
rh
rhein
rheine
rheingau
rheinhessen
rheinisch
rheinische
rheinischen
rheinisches
rheinland
rheinlande
rheinprovinz
rheins
rhetorik
rhin
rho
rhode
rhodes
rhodos
rhon
rhone
rhythm
rhythmus
ri
rica
ricardo
riccardo
rice
rich
richard
richards
richardson
richmond
richten
richter
richterin
richters
richtet
richtete
richteten
richtig
richtige
richtigen
richtiger
richtigkeit
richtlinie
richtlinien
richtung
richtungen
rick
rico
ride
rider
ridge
rie
ried
riedel
rief
riefen
riegel
rieger
riemann
ries
riesa
riese
riesen
riesenslalom
riesige
riesigen
riff
riga
right
rightarrow
rights
riley
rin
rinde
rinder
ring
ringe
ringen
ringer
ringmauer
rings
rio
rippen
ris
rise
risiken
risiko
rising
risk
riss
risse
rita
ritt
ritter
rittergut
ritterguter
rittergutsbesitzer
ritterkreuz
ritters
ritterschaft
rittmeister
ritual
rituale
ritus
rivalen
river
rivera
rivers
riviere
riß
rj
rk
rl
rm
rn
rna
ro
road
rob
robert
roberto
roberts
robertson
robin
robinson
roboter
roche
rochester
rochus
rock
rockband
rocket
rocks
rocky
rod
roda
roder
rodney
rodrigo
rodrigues
rodriguez
roger
rogers
roggen
roh
rohan
rohde
rohe
rohr
rohrbach
rohre
rohren
rohstoffe
roi
rokoko
roland
role
rolf
roll
rolle
rollen
roller
rolling
rolls
rom
roma
romain
roman
romana
romance
romane
romanen
romani
romania
romanische
romanischen
romanist
romano
romanorum
romans
romantik
romantische
romantischen
rome
romeo
romer
romern
romero
romerzeit
romisch
romische
romischen
romischer
romisches
roms
ron
ronald
ronnie
rookie
room
roosevelt
root
roots
rosa
rosario
rose
rosemarie
rosen
rosenberg
rosengarten
rosenheim
rosenkranz
rosenthal
roses
ross
rossi
rossini
rost
rostock
rostocker
rot
rotation
rote
rotem
roten
rotenburg
roter
rotes
roth
rothe
rothen
rothenburg
rother
rothschild
rotlich
rott
rotten
rottenburg
rotterdam
rottweil
rouen
rouge
rough
round
rousseau
route
routen
routledge
rover
row
rowohlt
roy
royal
royale
royce
roß
rp
rq
rr
rs
rsssf
rt
rtl
ru
ruanda
rubel
ruben
rubens
rubin
rubrik
ruby
ruck
ruckblick
rucken
ruckert
ruckgabe
ruckgang
ruckgangig
ruckkehr
ruckreise
ruckrunde
ruckseite
rucksicht
ruckspiel
ruckstand
ruckt
ruckte
ruckten
rucktritt
ruckwarts
ruckwartsgang
ruckwartsgange
ruckweg
ruckzug
ruder
ruderer
rudern
rudi
rudiger
rudolf
rudolph
rudolstadt
rue
ruf
rufe
rufen
ruft
rufus
rugby
ruge
rugen
ruh
ruhe
ruhen
ruhestand
ruhestatte
ruhig
ruhige
ruhigen
ruhiger
ruhm
ruhr
ruhren
ruhrgebiet
ruhrt
ruht
ruhte
ruine
ruinen
ruisseau
ruiz
rule
rulers
rules
rum
rumanien
rumanisch
rumanische
rumanischen
rumanischer
rumpf
run
rund
rundbogen
rundbogenfenster
runde
runden
rundfahrt
rundfunk
rundfunks
rundschau
runge
running
runs
rupert
ruprecht
rural
ruralgemeinde
rus
rush
russ
russe
russell
russen
russia
russian
russisch
russische
russischen
russischer
russisches
russland
russlands
rust
rustung
ruta
ruth
rußland
rv
rw
rwe
rwth
rx
ry
ryan
rz
s
s0
s1
s2
s3
s4
s5
s6
s7
s8
s9
sa
saal
saalbau
saale
saalfeld
saalkirche
saar
saarbrucken
saarbrucker
saarland
saarlandes
saarlandischen
saarlouis
sabel
sabina
sabine
sabrina
sac
sach
sachbegriff
sachbuch
sache
sachen
sachs
sachsen
sachsenhausen
sachsens
sachsische
sachsischen
sachsischer
sachsisches
sachverhalt
sack
sacra
sacramento
sacred
sad
safe
safety
saft
sag
saga
sage
sagen
sagt
sagte
sagten
sah
sahara
sahen
said
saint
sainte
saints
saison
saisonbeginn
saisonende
saisons
saite
saiten
sakralbauten
sakrament
sakristei
sakularisation
sal
sala
sale
salem
sales
saline
salisbury
sally
salm
salome
salomon
salon
salt
salvador
salvatore
salz
salzburg
salzburger
salze
salzgitter
salzwedel
sam
sambia
same
samen
sammelband
sammeln
sammelt
sammelte
sammelten
sammler
sammlung
sammlungen
sammt
sammtlich
sammtliche
sammtlichen
samoa
sampler
samson
samstag
samsung
samt
samtgemeinde
samtliche
samtlichen
samtlicher
samuel
samurai
san
sanchez
sand
sande
sander
sanders
sandor
sandra
sandro
sandstein
sandte
sandy
sanft
sanfte
sanften
sang
sangen
sanger
sangerin
sangers
saniert
sanierung
sank
sankt
sanktionen
sans
sanskrit
sant
santa
santi
santiago
santo
santos
sao
saone
sap
sapporo
sar
sara
saragossa
sarah
sarajevo
sardinien
sarg
sars
sas
sascha
saskatchewan
sat
satan
satellit
satellite
satelliten
satire
sato
satt
sattel
satteldach
sattler
saturday
saturn
satz
satze
satzen
satzes
satzung
sau
sauber
sauce
saudi
sauer
sauerland
sauerlander
sauerstoff
saugetiere
saugetieren
saul
saule
saulen
saunders
saur
saure
sauren
sauter
savage
save
savoie
savoy
savoyen
saw
sax
saxophon
saxophonist
say
sayn
says
saß
saßen
sb
sbb
sbz
sc
scala
scale
scan
scene
sch
schaar
schach
schachspieler
schacht
schachte
schade
schadel
schaden
schaefer
schaf
schafe
schafer
schaffen
schaffens
schaffer
schaffhausen
schafft
schaffte
schafften
schaffung
schaft
schah
schale
schalen
schalke
schall
schaller
schallplatte
schallplatten
schalter
scham
schande
schanze
schar
scharf
scharfe
scharfen
scharfer
schatten
schatz
schatze
schatzen
schatzmeister
schatzt
schatzte
schatzung
schatzungen
schatzungsweise
schau
schauen
schaumburg
schauplatz
schauspiel
schauspieler
schauspielerin
schauspielern
schauspielers
schauspielhaus
schauspielschule
schaut
schaute
sche
scheel
scheer
scheffel
scheibe
scheiben
scheich
scheiden
scheidung
schein
scheinbar
scheine
scheinen
scheint
scheitel
scheitern
scheitert
scheiterte
scheiterten
schema
schen
schenk
schenken
schenkt
schenkte
schenkung
schenkungen
scher
scherer
scherz
sches
scheu
scheune
schicht
schichten
schicken
schicksal
schicksale
schickt
schickte
schied
schieden
schiedsrichter
schiefer
schien
schiene
schienen
schier
schießen
schießt
schiff
schiffe
schiffen
schiffer
schiffes
schifffahrt
schiffs
schild
schilde
schildern
schildert
schilderte
schilderung
schilderungen
schiller
schillers
schilling
schindler
schirm
schirmer
schlacht
schlachten
schlachtfeld
schlaf
schlafen
schlaft
schlafzimmer
schlag
schlaganfall
schlage
schlagen
schlager
schlagt
schlagzeilen
schlagzeug
schlagzeuger
schlamm
schlange
schlangen
schlank
schlanke
schlanken
schlecht
schlechte
schlechten
schlechter
schlechtes
schlegel
schleier
schleife
schleifen
schlepper
schlesien
schlesiens
schlesinger
schlesische
schlesischen
schleswig
schleuse
schlicht
schlichte
schlichten
schlichter
schlief
schliesslich
schließen
schließlich
schließt
schließung
schlimm
schlimmer
schlitten
schloss
schlosse
schlossen
schlosser
schlossern
schlosses
schlosspark
schloß
schlucht
schluchten
schlug
schlugen
schlupfen
schluss
schlusse
schlussel
schlusselnummernanderungen
schlussendlich
schluter
schluß
schmal
schmale
schmalen
schmaler
schmalspurbahn
schmerz
schmerzen
schmetterling
schmetterlinge
schmid
schmidt
schmied
schmiede
schmitt
schmitz
schmuck
schmucken
schmutz
schnabel
schnauze
schnecken
schnee
schneeberg
schneiden
schneider
schneidet
schnell
schnelle
schnellen
schneller
schnelligkeit
schnellste
schnellsten
schnellstraße
schnitt
schnittstelle
schnittstellen
schnitzler
schob
schock
schokolade
schol
scholar
scholl
scholz
schon
schonau
schonberg
schonborn
schonbrunn
schone
schoneberg
schonen
schoner
schones
schonfeld
schonheit
schoningh
schonste
schonsten
school
schools
schopfer
schopfung
schopfungshohe
schornstein
schoss
schott
schotten
schottische
schottischen
schottischer
schottland
schoß
schrader
schrag
schramm
schrank
schranke
schranken
schrecken
schrecklich
schrei
schreiben
schreiber
schreibt
schreibung
schreibweise
schreibweisen
schreien
schrein
schreiner
schrie
schrieb
schrieben
schrift
schriften
schriftenreihe
schriftlich
schriftliche
schriftlichen
schriftsteller
schriftstellerin
schriftstellern
schriftstellers
schriftzeichen
schriftzug
schritt
schritte
schritten
schrittweise
schroder
schroeder
schroll
schroter
schubert
schuf
schufen
schuh
schuhe
schul
schulabschluss
schulausbildung
schulbesuch
schulbildung
schuld
schulden
schuldig
schuldner
schule
schulen
schulenburg
schuler
schulerin
schulerinnen
schulern
schulgebaude
schulhaus
schuljahr
schulleiter
schulmeister
schulte
schulter
schultern
schultheiß
schultz
schultze
schulung
schulz
schulze
schulzeit
schumacher
schumann
schuppen
schuss
schusse
schussel
schuster
schutt
schutte
schuttelte
schutz
schutze
schutzen
schutzgebiet
schutzgebiete
schutzt
schuß
schwab
schwabach
schwabe
schwaben
schwabisch
schwabische
schwabischen
schwach
schwache
schwachen
schwacher
schwager
schwalm
schwan
schwanger
schwangerschaft
schwanken
schwankt
schwankungen
schwann
schwanz
schwartz
schwarz
schwarzach
schwarzburg
schwarze
schwarzem
schwarzen
schwarzenberg
schwarzer
schwarzes
schwarzkopf
schwarzwald
schwarzwalder
schweden
schwedens
schwedisch
schwedische
schwedischen
schwedischer
schwefel
schwefelsaure
schweigen
schweigend
schwein
schweine
schweinfurt
schweitzer
schweiz
schweizer
schweizerisch
schweizerische
schweizerischen
schweizerischer
schweizerisches
schwelle
schwer
schwere
schweren
schwerer
schweres
schwergewicht
schwerin
schweriner
schwerlich
schwerpunkt
schwerpunkte
schwerpunkten
schwerste
schwersten
schwert
schwerter
schwertern
schwester
schwestern
schwieg
schwiegersohn
schwiegervater
schwierig
schwierige
schwierigen
schwieriger
schwierigkeit
schwierigkeiten
schwimmen
schwimmer
schwimmerin
schwindel
schwingen
schwingungen
schwule
schwyz
sci
science
sciences
scientific
score
scorerpunkte
scotia
scotland
scott
scottish
scout
screen
script
scriptorum
sd
se
sea
sean
search
season
seat
seattle
sebastian
sebastien
sec
sechs
sechsmal
sechste
sechsten
sechster
sechszylinder
sechzehn
sechzig
second
secret
secretary
secrets
section
security
sed
sedan
seds
see
seebold
seefahrer
seele
seelen
seeleute
seelsorge
seelsorger
seemann
seemeilen
seen
seenplatte
sees
seeschlacht
segel
segeln
segen
segler
segment
segunda
seh
sehe
sehen
sehenswert
sehenswurdigkeiten
sehnsucht
sehr
seht
sei
seid
seide
seidel
seidl
seien
seifert
seigneur
seil
seilbahn
seiler
sein
seine
seinem
seinen
seiner
seinerseits
seinerzeit
seines
seins
seit
seitdem
seite
seiten
seitenaltar
seitenaltare
seitens
seitenschiff
seitenschiffe
seither
seitlich
seitliche
seitlichen
seitz
sejm
sekretar
sekretarin
sektion
sektionen
sektor
sekunde
sekunden
sel
selben
selber
selbst
selbstandig
selbstandige
selbstandigen
selbstandiger
selbstandigkeit
selbstbestimmung
selbstkontrolle
selbstmord
selbststandig
selbststandige
selbststandigen
selbstverlag
selbstverstandlich
selbstverstandnis
selbstverwaltung
select
selected
selection
self
selig
seligen
seligman
selma
selten
seltene
seltenen
seltener
seltenheit
seltsam
seltsame
seltsamen
semester
semi
seminar
seminare
seminars
sen
senat
senate
senator
senatoren
senators
senats
senatsverwaltung
senden
sender
sendereihe
senders
sendet
sendete
sendung
sendungen
seneca
senegal
senior
senioren
senke
senken
senkrecht
sens
sensation
sense
sensor
sensoren
seoul
sep
separat
separate
separaten
sepp
sept
september
sequence
sequenz
sequenzen
ser
sera
serben
serbien
serbisch
serbische
serbischen
serbischer
serge
sergeant
sergei
sergio
serie
serien
serienmaßig
series
serra
server
service
services
serviert
ses
session
sessions
set
seth
setminus
sets
setze
setzen
setzt
setzte
setzten
seu
seven
severin
severus
sevilla
sex
sexual
sexualitat
sexuell
sexuelle
sexuellen
sexueller
sey
seymour
seyn
sf
sfb
sg
sgb
sh
shadow
shadows
shah
shakespeare
shakespeares
shan
shanghai
shannon
sharks
sharon
sharp
shaw
she
sheffield
shell
shepherd
sheriff
sherlock
sherman
shi
shin
ship
ships
shirley
shooting
shop
shopping
shore
short
shot
should
show
shows
shu
shuttle
si
siam
sibirien
sibylle
sic
sich
sicher
sichere
sicheren
sicherer
sichergestellt
sicherheit
sicherlich
sichern
sichert
sicherte
sicherten
sicherung
sicherzustellen
sicht
sichtbar
sichtbare
sichtbaren
sichtweise
sichuan
sick
sid
side
sidney
sie
siebeck
sieben
siebenburgen
siebenjahrigen
siebenten
siebte
siebten
siebter
siebzehn
siecle
siedelte
siedelten
siedler
siedlern
siedlung
siedlungen
siedlungsgebiet
sieg
siegburg
siege
siegel
siegen
sieger
siegerin
sieges
siegfried
siegmund
siegreich
siegreichen
siegte
siegten
siegtore
sieh
siehe
siehst
sieht
siemens
siena
sier
sierra
sig
sigismund
sigma
sigmaringen
sigmund
sign
signal
signale
signatur
signifikant
signs
sigrid
silbe
silber
silbermedaille
silberne
silbernen
silberner
silbernes
silence
silent
silke
silva
silver
silvia
silvio
sim
simbabwe
simbad
simmons
simon
simone
simons
simple
simplicissimus
simpson
simpsons
simulation
sin
sina
sinai
since
sinclair
sind
sinfonie
sinfonien
sinfonieorchester
sing
singapore
singapur
singen
singer
singh
single
singlecharts
singles
singt
singular
sinken
sinkt
sinn
sinne
sinnen
sinnverwandte
sinnvoll
sint
sioux
sir
sister
sisters
sit
sitcom
site
sites
sitte
sitten
sittlichen
situation
situationen
sitz
sitze
sitzen
sitzend
sitzenden
sitzplatze
sitzplatzen
sitzt
sitzung
sitzungen
sitzverteilung
sive
six
size
sizilien
sj
sk
ska
skala
skandal
skandinavien
skandinavischen
skelett
ski
skigebiet
skilanglauf
skilanglaufer
skin
skirennlaufer
skirennlauferin
skispringen
skispringer
skiverbands
skiweltmeisterschaften
skizze
skizzen
sklaven
sklaverei
skoda
skulptur
skulpturen
sky
sl
slalom
slam
slawen
slawische
slawischen
sleep
slovnik
slow
slowakei
slowakisch
slowakische
slowakischen
slowakischer
slowenien
slowenisch
slowenische
slowenischen
slowenischer
slub
sm
small
smart
smartphone
smith
smithsonian
sms
sn
snooker
snow
so
soap
sobald
soc
soccer
soccerway
social
societa
societe
society
sockel
sodann
sodass
sodaß
soeben
soest
sofern
sofia
sofort
sofortige
sofortigen
soft
software
sog
sogar
sogenannte
sogenannten
sogenannter
sogenanntes
sogleich
sogn
sohle
sohn
sohne
sohnen
sohnes
sojus
soko
sokrates
sol
solange
solar
solch
solche
solchem
solchen
solcher
solches
sold
soldat
soldaten
soldier
soldner
sole
soli
solid
solidaritat
solide
solingen
solist
solisten
soll
solle
sollen
sollst
sollt
sollte
sollten
solms
solo
soloalbum
solomon
solothurn
soltau
solutions
som
somalia
some
somerset
something
somit
somme
sommer
sommermonaten
sommers
sommersemester
sommerspiele
sommerspielen
son
sonate
sonde
sonderausgabe
sonderausstellung
sonderheft
sonderlich
sondern
sonderpreis
sondershausen
song
songs
songwriter
songwriterin
sonic
sonja
sonn
sonne
sonnen
sonnenschein
sonnenuntergang
sonntag
sonntags
sonny
sons
sonst
sonstige
sonstigen
sonstiges
sony
sophia
sophie
sopran
sorbonne
sorge
sorgen
sorgfalt
sorgfaltig
sorgt
sorgte
sorgten
sorte
sorten
sortiert
sortiment
sos
sotschi
soul
sound
sounds
soundtrack
source
sources
sous
south
southampton
southern
souveran
souveranitat
soviel
soviet
soweit
sowie
sowjetisch
sowjetische
sowjetischen
sowjetischer
sowjetunion
sowohl
sozial
sozialdemokraten
sozialdemokratie
sozialdemokratische
sozialdemokratischen
soziale
sozialen
sozialer
soziales
sozialforschung
sozialgeschichte
sozialismus
sozialisten
sozialistische
sozialistischen
sozialpolitik
sozialwissenschaften
soziologe
soziologie
sozusagen
sp
spa
space
spaces
spain
spalte
spalten
spaltung
span
spandau
spanien
spaniens
spanier
spanisch
spanische
spanischen
spanischer
spanish
spannung
spannungen
spannungsfeld
spannweite
spar
sparen
sparkasse
sparkassen
sparlich
sparta
sparte
spat
spatantike
spate
spaten
spater
spatere
spateren
spaterer
spatestens
spatgotische
spatgotischen
spatmittelalter
spatsommer
spaziergang
spaß
spd
speaker
specht
special
species
speck
speech
speed
speer
speicher
speichern
speise
speisen
spektrum
spekulationen
spencer
spende
spenden
spendete
sperre
spessart
speyer
spezial
spezialisiert
spezialisierte
spezialist
spezialisten
speziell
spezielle
speziellen
spezieller
spezies
spezifikation
spezifisch
spezifische
spezifischen
sphare
spider
spiegel
spiegeln
spiegelt
spiel
spielberg
spielbericht
spielbetrieb
spiele
spielen
spielende
spielenden
spieler
spielerin
spielerinnen
spielern
spielerprofil
spielers
spielerstatistik
spielfeld
spielfilm
spielfilme
spieljahr
spielklasse
spielminute
spielplan
spiels
spielstatte
spielt
spieltag
spieltagen
spielte
spielten
spielzeit
spielzeiten
spielzeug
spin
spindler
spinne
spinnen
spion
spiralgalaxie
spirit
spisovneho
spital
spitz
spitze
spitzen
spitzer
spitzname
spitznamen
split
spo
sponsor
sponsoren
spontan
sporadisch
sporen
sport
sportart
sportarten
sportfunktionar
sporthalle
sporting
sportler
sportlich
sportliche
sportlichen
sportlicher
sportplatz
sports
sportschutze
sportverein
sportverlag
sportwagen
spot
spott
sprach
sprache
sprachen
sprachgebrauch
sprachlich
sprachliche
sprachlichen
sprachraum
sprachwissenschaft
sprachwissenschaftler
sprang
sprechen
sprecher
sprecherin
spree
spreewald
sprengel
sprich
spricht
spring
springen
springer
springfield
springs
springt
sprint
sprinter
sprinterin
spruch
spruche
sprung
spur
spuren
spurensuche
spurlos
spurweite
spvgg
spy
sq
sql
sqrt
squad
squadron
square
sr
srf
sri
ss
ssr
ssv
st
sta
staat
staate
staaten
staates
staatlich
staatliche
staatlichen
staatlicher
staatliches
staats
staatsangehorigkeit
staatsangehorigkeitskategorie
staatsanwalt
staatsanwaltschaft
staatsarchiv
staatsbahn
staatsbahnen
staatsbibliothek
staatsburger
staatsburgerschaft
staatsdienst
staatsdruckerei
staatsexamen
staatsgebiet
staatsgrenze
staatskanzlei
staatsmann
staatsmeisterschaft
staatsminister
staatsministerium
staatsoberhaupt
staatsoberhaupter
staatsoper
staatsprasident
staatsprasidenten
staatsprufung
staatsrat
staatsregierung
staatssekretar
staatssicherheit
staatsstraße
staatstheater
stab
stabes
stabil
stabile
stabilisierung
stabilitat
stabilversion
stade
stadien
stadion
stadions
stadium
stadler
stadt
stadtarchiv
stadtarchivs
stadtbahn
stadtbefestigung
stadtbezirk
stadtbibliothek
stadtbild
stadtchen
stadte
stadtebau
stadten
stadtentwicklung
stadtgebiet
stadtgemeinde
stadtgeschichte
stadtgrenze
stadthalle
stadtische
stadtischen
stadtischer
stadtisches
stadtkirche
stadtkreis
stadtlexikon
stadtmauer
stadtmauern
stadtmitte
stadtmuseum
stadtpark
stadtpfarrkirche
stadtplan
stadtrand
stadtrat
stadtrecht
stadtrechte
stadtteil
stadtteile
stadtteilen
stadtteils
stadttheater
stadtverordnetenversammlung
stadtverwaltung
stadtviertel
stadtwerke
stadtzentrum
stadtzentrums
staff
staffel
staffeln
stage
stahl
stalin
stalingrad
stall
stamm
stammbaum
stamme
stammen
stammende
stammenden
stammes
stammplatz
stammsitz
stammspieler
stammt
stammte
stammten
stammvater
stan
stand
standard
standards
standardwerk
stande
standen
standes
standesamt
standig
standige
standigen
standiger
standing
standort
standorte
standorten
standpunkt
standpunkte
stanford
stange
stangel
stanislaus
stanisław
stanley
stapel
star
starb
starben
stare
stargard
stark
starke
starkem
starken
starkenburg
starker
starkere
starkeren
starkes
starkste
starksten
starkung
starr
starre
starren
stars
start
startelf
starten
starter
startet
startete
starteten
startplatz
starts
startseite
stasi
stat
state
statement
states
station
stationen
stationiert
stationierten
statistica
statistical
statistiche
statisticky
statistics
statistik
statistiken
statistisch
statistische
statistischen
statistischer
statistisches
stats
statt
stattdessen
statte
statten
stattfand
stattfanden
stattfinden
stattfindende
stattfindenden
stattfindet
stattgefunden
statthalter
stattliche
statue
statuen
status
statuten
staub
staubblatter
stausee
stay
std
ste
steam
stechen
steckbrief
stecken
steckt
steckte
steel
steele
stefan
stefanie
stefano
steffen
steg
steglitz
stehe
stehen
stehend
stehende
stehenden
stehender
stehlen
steht
steiermark
steig
steigen
steigende
steigenden
steigender
steiger
steigern
steigerte
steigerung
steigt
steigung
steil
steile
steilen
stein
steinbach
steinberg
steinbruch
steine
steinen
steiner
steinerne
steinernen
steinfurt
steinkohle
steinmetz
steinzeit
steirischen
stele
stella
stelle
stellen
stellenweise
stellenwert
stellt
stellte
stellten
stellung
stellungen
stellungnahme
stellvertretende
stellvertretenden
stellvertretender
stellvertreter
stempel
sten
stendal
step
stephan
stephane
stephanie
stephanus
stephen
stephens
sterben
sterblichen
sterling
stern
sternberg
sternbild
sterne
sternen
sternwarte
stetig
stetige
stets
stetten
stettin
stettiner
steuer
steuerdistrikt
steuermann
steuern
steuert
steuerte
steuerung
steve
steven
stevens
stevenson
stewart
steyr
stgb
stich
stichtag
stichwahl
stichwort
stickstoff
stiefel
stieg
stiegen
stiel
stier
stieß
stießen
stift
stifte
stifter
stiftes
stiftete
stifts
stiftskirche
stiftung
stiftungen
stil
stile
stilistisch
still
stille
stillen
stiller
stillgelegt
stillgelegten
stillleben
stilllegung
stillstand
stils
stimme
stimmen
stimmenanteil
stimmt
stimmte
stimmten
stimmung
stipendiat
stipendien
stipendium
stirbt
stirn
stn
stock
stocken
stocker
stockhausen
stockholm
stockwerk
stockwerke
stoff
stoffe
stoffen
stoffes
stolberg
stoll
stollen
stolp
stolpersteine
stolz
stolze
stolzen
stone
stones
stop
stoppen
storch
store
storen
storia
storico
stories
storm
storung
storungen
story
stoß
stoßen
stoßt
str
strab
strada
strafe
strafen
strafminuten
strafrecht
straftaten
strahl
strahlen
strahlung
straight
stralsund
strand
strande
strange
strasbourg
strasse
strasser
strategic
strategie
strategien
strategisch
strategische
strategischen
strategy
straubing
strauch
strauss
strauß
straßburg
straßburger
straße
straßen
straßenbahn
straßenbahnen
straßenbau
straßennamen
straßennetz
straßenrennen
straßenverkehr
stream
streaming
streben
strebt
strebte
strecke
strecken
streckenabschnitt
street
streich
streichen
streicher
streichquartett
streifen
streik
streit
streiten
streitigkeiten
streitkrafte
streitkraften
strelitz
streng
strenge
strengen
strenger
stress
strich
strike
strikt
string
strip
stroh
strom
strome
stromerzeugung
stromung
stromungen
stromversorgung
strong
strophe
strophen
structural
structure
structures
struktur
strukturen
strukturiert
strunz
sts
stuart
stube
stuck
stucke
stucken
stuckes
stucks
student
studenten
studentenverbindung
students
studi
studia
studie
studien
studiengang
studiengange
studienzeit
studieren
studierende
studierenden
studiert
studierte
studies
studio
studioalben
studioalbum
studios
studirte
studium
studiums
study
stufe
stufen
stuhl
stuhle
stuhls
stumm
stummfilm
stumpf
stunde
stunden
stundlich
sturm
sturme
sturmen
sturmer
sturz
sturzen
sturzt
sturzte
sturzten
stuttgart
stuttgarter
stutze
stutzen
stutzpunkt
stutzt
stutzte
style
su
suarez
sub
subjekt
subset
subseteq
subsp
substantiv
substantive
substantiven
substantivs
substanz
substanzen
substrat
such
suche
suchen
suchergebnisse
sucht
suchte
suchten
suco
sud
sudafrika
sudafrikanische
sudafrikanischen
sudafrikanischer
sudamerika
sudamerikanischen
sudamerikas
sudan
suddeutsche
suddeutschen
suddeutschland
suden
sudfrankreich
sudkorea
sudkoreanische
sudkoreanischen
sudkoreanischer
sudkurier
sudkuste
sudlich
sudliche
sudlichen
sudlicher
sudost
sudostasien
sudosten
sudosteuropa
sudostlich
sudostlichen
sudostlicher
sudrand
sudseite
sudstaaten
sudtirol
sudtiroler
sudufer
sudwand
sudwarts
sudwest
sudwesten
sudwestlich
sudwestlichen
sudwestlicher
sue
sueddeutsche
suffix
sugar
suhl
suhrkamp
sui
suisse
suite
suizid
sukzessive
sul
sulla
sullivan
sultan
sultans
sulz
sulzbach
sum
sumatra
summa
summary
summe
summen
summer
summit
sumpf
sun
sund
sundance
sunday
sunde
sunden
sunder
sung
sunshine
sup
super
supercup
superieure
superintendent
superior
superlativ
superlativs
superman
supermarkt
superstar
suppe
suppl
supplement
support
supreme
sur
sure
surface
surgery
surrey
survey
survival
sus
susan
susanna
susanne
suspendiert
sussex
sutherland
sutton
suub
suzanne
suzuki
suß
suße
sußen
sv
sven
svenska
svg
svp
sw
swan
sweet
swift
swing
swiss
switch
switzerland
sword
swr
sx
sy
sydney
sylt
sylvester
sylvia
symbol
symbole
symbolik
symbolisch
symbolische
symbolischen
symbolisieren
symbolisiert
symmetrisch
sympathie
symphonie
symphony
symposium
symptome
syn
synagoge
synagogen
synchron
synchronisation
synchronisiert
synchronkartei
synchronsprecher
synchronsprecherin
syndrom
syndrome
synode
synonym
synonyme
syntax
synthese
synthesis
synthesizer
syria
syrien
syrische
syrischen
system
systematic
systematik
systematisch
systematische
systematischen
systeme
systemen
systems
sz
szene
szenen
słownik
sə
t
t0
t1
t2
t3
t4
t5
t6
t7
t8
t9
ta
tab
tabak
tabelle
tabellen
tabellenplatz
tabernakel
table
tables
tac
tacitus
tadeusz
taf
tafel
tafeln
tag
tagblatt
tage
tagebau
tageblatt
tagebuch
tagebucher
tagen
tages
tageslicht
tagesschau
tagesspiegel
tageszeitung
tageszeitungen
taglich
tagliche
taglichen
tagliches
tags
tagsuber
tagung
tagungen
tai
taipeh
taiwan
take
takes
takt
taktik
tal
talbot
tale
talent
talente
taler
talern
tales
taliban
talk
tallinn
tals
talsperre
tam
tamara
tambon
tamil
tampa
tan
tang
tango
tanja
tank
tanks
tankstelle
tanne
tannen
tansania
tante
tanz
tanze
tanzen
tanzer
tanzerin
tanzt
tao
tapferkeit
target
tarif
tartu
tasche
taschen
taschenbuch
task
tasmanien
tastatur
taste
tasten
tat
tate
taten
tater
tatig
tatige
tatigen
tatigkeit
tatigkeiten
tatjana
tatort
tatra
tatsache
tatsachen
tatsachlich
tatsachliche
tatsachlichen
tau
taube
tauben
tauber
tauberbischofsheim
tauchen
taucher
taucht
tauchte
taufbecken
taufe
taufen
taufer
taufstein
taunus
tausch
tauschen
tauschung
tausend
tausende
tausenden
taxa
taxi
taxis
taxon
taxonomic
taxonomy
taylor
taz
tb
tc
td
te
tea
team
teamkollegen
teams
teamsprint
teatro
tech
technical
technik
techniken
techniker
technisch
technische
technischen
technischer
technisches
techno
technologie
technologien
technologies
technology
ted
teddy
tee
teen
teenager
teheran
teich
teiche
teig
teil
teilband
teilbanden
teilchen
teile
teilen
teilgebiet
teilgenommen
teilhaber
teilliste
teilmenge
teilnahm
teilnahme
teilnahmen
teilnehmen
teilnehmenden
teilnehmer
teilnehmerfeld
teilnehmern
teils
teilstuck
teilt
teilte
teilten
teilung
teilweise
teilzunehmen
tel
tele
telefon
telegraph
telekom
teleskop
television
tell
teller
teltow
tem
tempel
tempelhof
tempels
temperatur
temperaturen
temple
tempo
temps
ten
tendenz
tendenzen
tendenziell
tennessee
tennis
tennisspieler
tennisspielerin
tennisturnier
tenor
teppich
ter
teresa
term
terme
termin
terminal
termine
terminologie
terminus
tern
terra
terrain
terrasse
terre
territorial
territoriale
territorien
territorium
territoriums
territory
terror
terrorism
terrorismus
terroristen
terry
tes
tesla
tessin
test
testament
testaments
testen
tests
tet
teubner
teuer
teufel
teufels
teure
teuren
teurer
teutschen
tex
texas
text
textarchiv
texte
texten
textes
textil
textilien
textilindustrie
texts
textstyle
textuelles
tf
tff
tfrac
tg
th
thai
thailand
thailandischen
thailandischer
thal
thale
thaler
thalern
thalia
thames
than
that
thaten
thatig
thatigkeit
thatsache
thatsachen
the
theater
theatern
theaterregisseur
theaters
theaterschauspieler
theaterstuck
theaterstucke
theatre
theben
theguardian
theil
theile
theilen
theilnahme
theils
theilte
theilweise
their
theiss
them
thema
themas
thematik
thematisch
thematisiert
theme
themen
then
theo
theobald
theodor
theodore
theol
theologe
theologen
theologie
theologische
theologischen
theologischer
theorem
theoretisch
theoretische
theoretischen
theoretischer
theorie
theorien
theory
thepeerage
therapie
therapy
there
theresa
therese
theresia
theresien
theresienstadt
thermische
thesaurus
these
thesen
thessaloniki
theta
they
thiel
thiele
thieme
thier
thiere
thierry
thilo
thing
things
think
third
this
thlr
thoma
thomas
thompson
thomson
thor
thorbecke
thore
thorn
thorsten
those
thought
thranen
thrash
threatened
three
thriller
thron
thronfolger
through
thun
thunder
thur
thure
thurgau
thuringen
thuringer
thuringischen
thurm
thurn
thut
thw
ti
tiberius
tibet
ticket
tickets
tie
tief
tiefe
tiefen
tiefer
tieferen
tiefgang
tiefland
tiefste
tiefsten
tier
tierarten
tiere
tieren
tiergarten
tiflis
tiger
tigers
til
tilde
till
tilly
tilman
tilmann
tilsit
tim
time
times
timisoara
timm
timo
timor
timothy
tin
tina
tipp
tipps
tirana
tirol
tiroler
tisch
tische
tischler
tischtennis
titan
titanic
titel
titelgewinn
titeln
titelrolle
titels
titelverteidiger
title
tito
tittelbach
titularbischof
titus
tj
tk
tl
tm
tn
to
tobago
tobias
tochter
tochtergesellschaft
tochtern
tochterunternehmen
tod
today
todd
tode
todes
todesfalle
todesjahr
todesopfer
todesstrafe
todestag
todlich
todliche
todlichen
todor
todt
todten
together
togo
toilette
tokio
tokyo
toledo
toleranz
toll
tolle
tolstoi
tolz
tom
tomas
tomatoes
tomb
tome
tommy
tomorrow
ton
tonaufnahmen
tone
tonen
toni
tonight
tonkunst
tonne
tonnen
tonnengewolbe
tontechniker
tontrager
tony
too
tool
tools
top
topf
topfer
topographia
topographie
topographisch
topographische
topographischen
topographisches
topologie
tor
tordifferenz
tore
toren
torgau
torhuter
tornado
toronto
torpedo
torpedos
torre
torres
torschutze
torschutzenkonig
torsten
torwart
toskana
tot
total
totale
tote
toten
toter
totet
totete
totung
touch
toulouse
tour
touren
tourenwagen
touring
tourism
tourismus
tourist
touristen
touristisch
touristische
touristischen
tournament
tournee
tourneen
tours
tourte
tout
towards
tower
town
towns
township
townships
toyota
tp
tq
tr
tra
tracht
track
tracks
tracy
trade
tradition
traditional
traditionell
traditionelle
traditionellen
traditioneller
traditionen
traf
trafen
traffic
trage
tragen
tragende
trager
tragerschaft
tragflachen
tragodie
tragt
trail
trailer
train
trainer
trainerin
trainieren
trainiert
trainierte
training
traktor
traktoren
tram
tranen
trank
trans
transactions
transcript
transfer
transferiert
transfermarkt
transformation
transit
transition
transitiv
transkription
translation
transliteration
transparent
transparenz
transport
transportation
transportieren
transportiert
transpress
trasse
trat
traten
trauben
trauer
traueranzeige
traugott
traum
trauma
traume
traumen
traunstein
traurig
traurige
traurigen
travel
travis
tre
treatment
tree
treemagic
treffen
treffer
treffern
treffpunkt
treiben
treibstoff
treibt
trek
trend
trends
trennen
trennt
trennte
trennten
trennung
trentino
treppe
treppen
treppenhaus
tres
treten
treu
treue
treuen
treuer
trevor
tri
trial
trias
triathlon
tribe
tribunal
tribune
tribus
tribute
trick
tricks
trieb
triebe
trieben
triebwagen
triebwerk
triebwerke
trient
trier
trierer
triest
trifft
trikot
trilogie
trinidad
trinity
trinken
trinkwasser
trio
trip
triple
tristan
tritt
triumph
triumphbogen
trkpt
trocken
trockene
trockenen
trocknen
trois
trommel
trommeln
trompete
trompeten
trompeter
trondheim
tropen
tropfen
trophae
trophy
tropical
tropicos
tropische
tropischen
trost
trotz
trotzdem
trouble
troy
truck
true
trug
trugen
trummer
trummern
trump
truppe
truppen
trust
trustees
truth
ts
tschechen
tschechien
tschechisch
tschechische
tschechischen
tschechischer
tschechoslowakei
tschechoslowakischen
tschechoslowakischer
tsd
tsg
tsunami
tsv
tt
tu
tuberkulose
tubingen
tubinger
tuch
tucker
tudor
tugend
tugenden
tum
tumor
tumoren
tun
tunesien
tunis
tunnel
tunnels
tur
turbine
turbinen
turbo
turen
turin
turk
turkei
turken
turkey
turkisch
turkische
turkischen
turkischer
turkish
turkiye
turm
turme
turmen
turmes
turms
turn
turnen
turner
turnhalle
turnier
turniere
turnieren
turnierplan
turniers
tus
tut
tuttlingen
tv
tw
twentieth
twenty
twin
twitter
two
tx
ty
tyler
typ
type
typen
typisch
typische
typischen
typischer
typischerweise
typisches
typs
typus
tz
tɐ
tə
təm
təs
təst
tət
u
u0
u1
u2
u3
u4
u5
u6
u7
u8
u9
ua
ub
ubel
uben
uber
uberall
uberarb
uberarbeitet
uberarbeitete
uberarbeitung
uberaus
uberbaut
uberblick
uberdeckt
uberdies
uberein
ubereinander
ubereinkommen
ubereinstimmung
uberfall
uberfallen
uberflussig
uberfuhrt
uberfuhrung
ubergab
ubergabe
ubergang
ubergange
ubergeben
ubergegangen
ubergehen
ubergeht
ubergibt
uberging
uberhaupt
uberholt
uberlassen
uberleben
uberlebende
uberlebenden
uberlebt
uberlebte
uberlebten
uberlegen
uberlegenheit
uberlegungen
uberliefert
uberlieferte
uberlieferten
uberlieferung
uberlieferungen
uberließ
ubernahm
ubernahme
ubernahmen
ubernehmen
ubernimmt
ubernommen
uberprufen
uberpruft
uberprufung
uberqueren
uberquert
uberquerte
uberragt
uberraschend
uberrascht
uberraschung
uberreden
uberregional
uberregionale
uberregionalen
uberreicht
uberreste
ubers
uberschreiten
uberschrift
uberschritten
uberschwemmungen
ubersee
ubersehen
ubersetzen
ubersetzer
ubersetzerin
ubersetzt
ubersetzte
ubersetzung
ubersetzungen
ubersicht
ubersiedelte
uberspannt
uberstand
uberstanden
ubertraf
ubertragen
ubertragenen
ubertragt
ubertragung
ubertroffen
ubertrug
uberwachen
uberwacht
uberwachung
uberwiegend
uberwiegende
uberwinden
uberwindung
uberwunden
uberzahltore
uberzeugen
uberzeugt
uberzeugte
uberzeugung
uberzogen
ublich
ubliche
ublichen
ublicherweise
ubrig
ubrige
ubrigen
ubrigens
ubt
ubte
ubten
ubung
ubungen
uc
uci
uckermark
ud
udo
udssr
ue
ueber
uebersetzung
uebersicht
ueberzeugung
uebrigens
uefa
uelzen
uf
ufa
ufer
ufern
ug
uganda
uh
uhr
uhren
uhrzeigersinn
ui
uir
uj
uk
ukraine
ukrainisch
ukrainische
ukrainischen
ukrainischer
ukw
ul
ulb
ulf
uli
ulla
ullmann
ullrich
ullstein
ulm
ulmer
ulrich
ulrike
ultimate
ultra
um
umb
umbau
umbauten
umbenannt
umbenennung
umberto
umbruch
umfang
umfangreich
umfangreiche
umfangreichen
umfangreicher
umfangreiches
umfassen
umfassend
umfassende
umfassenden
umfassendes
umfasst
umfasste
umfassten
umfeld
umfrage
umgang
umgangssprache
umgangssprachlich
umgebaut
umgeben
umgebende
umgebenden
umgebracht
umgebung
umgebungen
umgegend
umgehen
umgehend
umgekehrt
umgerechnet
umgesetzt
umgestaltet
umgestaltung
umgestellt
umgewandelt
umher
umkreis
umland
umlauf
umlaufbahn
umliegende
umliegenden
ums
umsatz
umschlossen
umschrift
umsetzen
umsetzung
umso
umsonst
umstand
umstande
umstanden
umstellung
umstritten
umstrittene
umstrittenen
umstrukturierung
umwandlung
umwelt
umweltschutz
umzug
umzusetzen
un
una
unabhangig
unabhangige
unabhangigen
unabhangiger
unabhangigkeit
unabhangigkeitskrieg
unangenehm
unbedeutend
unbedingt
unbekannt
unbekannte
unbekannten
unbekannter
unbemerkt
unberuhrt
unbestimmte
und
under
underground
underline
understanding
une
unendlich
unendliche
unendlichen
unentschieden
unerwartet
unesco
unfall
unfallbericht
unfalle
ung
ungarisch
ungarische
ungarischen
ungarischer
ungarn
ungarns
ungeachtet
ungeeignet
ungefahr
ungeheuer
ungeklart
ungemein
unger
ungewohnlich
ungewohnliche
ungewohnlichen
ungleich
ungluck
unglucklich
ungluckliche
unglucklichen
ungultig
unheil
uni
unicode
uniform
uniformen
union
unit
united
univ
universal
universalworterbuch
universe
universelle
universiade
universidad
universitat
universitaten
universitats
universitatsbibliothek
universitatsklinikum
universitatsprofessor
universitatsverlag
universite
university
universum
unix
unklar
unmittelbar
unmittelbare
unmittelbaren
unmittelbarer
unmoglich
unna
unnotige
uno
unrecht
unregelmaßig
unregelmaßigen
unruhe
unruhen
uns
unschuld
unschuldig
unser
unsere
unserem
unseren
unserer
unseres
unserm
unsern
unsicher
unsicherheit
unsichtbare
unsign
unsre
unsrer
unten
unter
unterabteilung
unterart
unterarten
unterbau
unterbegriffe
unterbrach
unterbrechen
unterbrechung
[...]
