!
"
#
##0
##1
##10
##11
##12
##13
##14
##15
##16
##17
##18
##19
##2
##20
##21
##22
##23
##24
##25
##26
##27
##28
##29
##3
##30
##31
##32
##33
##34
##35
##36
##37
##38
##39
##4
##40
##41
##42
##43
##44
##45
##46
##47
##48
##49
##5
##50
##51
##52
##53
##54
##55
##56
##57
##58
##59
##6
##60
##61
##62
##63
##64
##65
##66
##67
##68
##69
##7
##70
##71
##72
##73
##74
##75
##76
##77
##78
##79
##8
##80
##81
##82
##83
##84
##85
##86
##87
##88
##89
##9
##90
##91
##92
##93
##94
##95
##96
##97
##98
##99
$
%
&
'
(
)
*
+
,
-
.
/
0
00
000
001
002
003
004
005
006
007
008
009
01
010
011
012
013
014
015
016
017
018
02
020
021
03
030
04
040
05
06
07
08
09
094
1
10
100
1000
1001
1002
1007
101
1010
1016
102
1020
1021
1024
103
1030
1038
104
1040
105
1050
1055
106
1060
1066
107
1070
1071
1073
108
1080
1086
109
1093
1098
11
110
1100
111
1111
112
1120
1125
1126
113
1130
1135
1136
1137
1138
1139
114
1140
1142
1147
115
1150
1152
1156
1157
116
1160
117
1170
1177
118
1180
1185
1186
1189
119
1190
1191
1192
1194
1198
12
120
1200
1202
1204
1205
1206
1209
121
1210
1212
1214
1215
1216
1217
1218
1219
122
1220
1221
1222
1223
1224
1225
1226
1227
1228
1229
123
1230
1231
1232
1233
1234
1235
1236
1237
1238
1239
124
1240
1241
1242
1243
1244
1245
1246
1247
1248
1249
125
1250
1251
1252
1253
1254
1255
1256
1257
1258
1259
126
1260
1261
1262
1263
1264
1265
1266
1267
1268
1269
127
1270
1271
1272
1273
1274
1275
1276
1277
1278
1279
128
1280
1281
1282
1283
1284
1285
1286
1287
1288
1289
129
1290
1291
1292
1293
1294
1295
1296
1297
1298
1299
13
130
1300
1301
1302
1303
1304
1305
1306
1307
1308
1309
131
1310
1311
1312
1313
1314
1315
1316
1317
1318
1319
132
1320
1321
1322
1323
1324
1325
1326
1327
1328
1329
133
1330
1331
1332
1333
1334
1335
1336
1337
1338
1339
134
1340
1341
1342
1343
1344
1345
1346
1347
1348
1349
135
1350
1351
1352
1353
1354
1355
1356
1357
1358
1359
136
1360
1361
1362
1363
1364
1365
1366
1367
1368
1369
137
1370
1371
1372
1373
1374
1375
1376
1377
1378
1379
138
1380
1381
1382
1383
1384
1385
1386
1387
1388
1389
139
1390
1391
1392
1393
1394
1395
1396
1397
1398
1399
14
140
1400
1401
1402
1403
1404
1405
1406
1407
1408
1409
141
1410
1411
1412
1413
1414
1415
1416
1417
1418
1419
142
1420
1421
1422
1423
1424
1425
1426
1427
1428
1429
143
1430
1431
1432
1433
1434
1435
1436
1437
1438
1439
144
1440
1441
1442
1443
1444
1445
1446
1447
1448
1449
145
1450
1451
1452
1453
1454
1455
1456
1457
1458
1459
146
1460
1461
1462
1463
1464
1465
1466
1467
1468
1469
147
1470
1471
1472
1473
1474
1475
1476
1477
1478
1479
148
1480
1481
1482
1483
1484
1485
1486
1487
1488
1489
149
1490
1491
1492
1493
1494
1495
1496
1497
1498
1499
15
150
1500
1501
1502
1503
1504
1505
1506
1507
1508
1509
151
1510
1511
1512
1513
1514
1515
1516
1517
1518
1519
152
1520
1521
1522
1523
1524
1525
1526
1527
1528
1529
153
1530
1531
1532
1533
1534
1535
1536
1537
1538
1539
154
1540
1541
1542
1543
1544
1545
1546
1547
1548
1549
155
1550
1551
1552
1553
1554
1555
1556
1557
1558
1559
156
1560
1561
1562
1563
1564
1565
1566
1567
1568
1569
157
1570
1571
1572
1573
1574
1575
1576
1577
1578
1579
158
1580
1581
1582
1583
1584
1585
1586
1587
1588
1589
159
1590
1591
1592
1593
1594
1595
1596
1597
1598
1599
16
160
1600
1601
1602
1603
1604
1605
1606
1607
1608
1609
161
1610
1611
1612
1613
1614
1615
1616
1617
1618
1619
162
1620
1621
1622
1623
1624
1625
1626
1627
1628
1629
163
1630
1631
1632
1633
1634
1635
1636
1637
1638
1639
164
1640
1641
1642
1643
1644
1645
1646
1647
1648
1649
165
1650
1651
1652
1653
1654
1655
1656
1657
1658
1659
166
1660
1661
1662
1663
1664
1665
1666
1667
1668
1669
167
1670
1671
1672
1673
1674
1675
1676
1677
1678
1679
168
1680
1681
1682
1683
1684
1685
1686
1687
1688
1689
169
1690
1691
1692
1693
1694
1695
1696
1697
1698
1699
17
170
1700
1701
1702
1703
1704
1705
1706
1707
1708
1709
171
1710
1711
1712
1713
1714
1715
1716
1717
1718
1719
172
1720
1721
1722
1723
1724
1725
1726
1727
1728
1729
173
1730
1731
1732
1733
1734
1735
1736
1737
1738
1739
174
1740
1741
1742
1743
1744
1745
1746
1747
1748
1749
175
1750
1751
1752
1753
1754
1755
1756
1757
1758
1759
176
1760
1761
1762
1763
1764
1765
1766
1767
1768
1769
177
1770
1771
1772
1773
1774
1775
1776
1777
1778
1779
178
1780
1781
1782
1783
1784
1785
1786
1787
1788
1789
179
1790
1791
1792
1793
1794
1795
1796
1797
1798
1799
18
180
1800
1801
1802
1803
1804
1805
1806
1807
1808
1809
181
1810
1811
1812
1813
1814
1815
1816
1817
1818
1819
182
1820
1821
1822
1823
1824
1825
1826
1827
1828
1829
183
1830
1831
1832
1833
1834
1835
1836
1837
1838
1839
184
1840
1841
1842
1843
1844
1845
1846
1847
1848
1849
185
1850
1851
1852
1853
1854
1855
1856
1857
1858
1859
186
1860
1861
1862
1863
1864
1865
1866
1867
1868
1869
187
1870
1871
1872
1873
1874
1875
1876
1877
1878
1879
188
1880
1881
1882
1883
1884
1885
1886
1887
1888
1889
189
1890
1891
1892
1893
1894
1895
1896
1897
1898
1899
19
190
1900
1901
1902
1903
1904
1905
1906
1907
1908
1909
191
1910
1911
1912
1913
1914
1915
1916
1917
1918
1919
192
1920
1921
1922
1923
1924
1925
1926
1927
1928
1929
193
1930
1931
1932
1933
1934
1935
1936
1937
1938
1939
194
1940
1941
1942
1943
1944
1945
1946
1947
1948
1949
195
1950
1951
1952
1953
1954
1955
1956
1957
1958
1959
196
1960
1961
1962
1963
1964
1965
1966
1967
1968
1969
197
1970
1971
1972
1973
1974
1975
1976
1977
1978
1979
198
1980
1981
1982
1983
1984
1985
1986
1987
1988
1989
199
1990
1991
1992
1993
1994
1995
1996
1997
1998
1999
2
20
200
2000
2001
2002
2003
2004
2005
2006
2007
2008
2009
201
2010
2011
2012
2013
2014
2015
2016
2017
2018
2019
202
2020
2021
2022
2023
2024
2025
2026
203
2030
204
205
206
207
208
209
21
210
2100
211
212
213
214
215
216
217
218
219
22
220
2200
221
222
223
224
225
226
227
228
229
23
230
2300
231
232
233
234
235
236
237
238
239
24
240
2400
241
242
243
244
245
246
247
248
249
25
250
2500
251
252
253
254
255
256
257
258
259
26
260
2600
261
262
263
264
265
266
267
268
269
27
270
2700
271
272
273
274
275
276
277
278
279
28
280
2800
281
282
283
284
285
286
287
288
289
29
290
291
292
293
294
295
296
297
298
299
3
30
300
3000
301
302
303
304
305
306
307
308
309
31
310
311
312
313
314
315
316
317
318
319
32
320
3200
321
322
323
324
325
326
327
328
329
33
330
331
332
333
334
335
336
337
338
339
34
340
341
342
343
344
345
346
347
348
349
35
350
3500
351
352
353
354
355
356
357
358
359
36
360
361
362
363
364
365
366
367
368
369
37
370
371
372
373
374
375
376
377
378
379
38
380
381
382
383
384
385
386
387
388
389
39
390
391
392
393
394
395
396
397
398
399
4
40
400
4000
401
402
403
404
405
406
407
408
409
41
410
411
412
413
414
415
416
417
418
419
42
420
421
422
423
424
425
426
427
428
429
43
430
431
432
433
434
435
436
437
438
439
44
440
441
442
443
444
445
446
447
448
449
45
450
4500
451
452
453
454
455
456
457
458
459
46
460
461
462
463
464
465
466
467
468
469
47
470
471
472
473
474
475
476
477
478
479
48
480
481
482
483
484
485
486
487
488
489
49
490
491
492
493
494
495
496
497
498
499
5
50
500
5000
501
502
503
504
505
506
507
508
509
51
510
511
512
513
514
515
516
517
518
519
52
520
521
522
523
524
525
526
527
528
529
53
530
531
532
533
534
535
536
537
538
539
54
540
541
542
543
544
545
546
547
548
549
55
550
551
552
553
554
555
556
557
558
559
56
560
561
562
563
564
565
566
567
568
569
57
570
571
572
573
574
575
576
577
578
579
57958
58
580
581
582
583
584
585
586
587
588
589
59
590
591
592
593
594
595
596
597
598
599
6
60
600
6000
601
602
603
604
605
606
607
608
609
61
610
611
612
613
614
615
616
617
618
619
62
620
621
622
623
624
625
626
627
628
629
63
630
631
632
633
634
635
636
637
638
639
64
640
641
642
643
644
645
646
647
648
649
65
650
651
652
653
654
655
656
657
658
659
66
660
661
662
663
664
665
666
667
668
669
67
670
671
672
673
674
675
676
677
678
679
68
680
681
682
683
684
685
686
687
688
689
69
690
691
692
693
694
695
696
697
698
699
7
70
700
7000
701
702
703
704
705
706
707
708
709
71
710
711
712
713
714
715
716
717
718
719
72
720
721
722
723
724
725
726
727
728
729
73
730
731
732
733
734
735
736
737
738
739
74
740
741
742
743
744
745
747
748
749
75
750
751
752
753
754
755
756
757
76
760
761
762
764
765
767
768
7696
77
770
7700
7701
7708
771
772
773
774
775
777
778
779
78
780
781
782
783
784
785
786
787
788
789
79
790
791
795
7954
7995
8
80
800
8000
8001
801
802
803
804
805
8053
806
8062
807
808
809
81
810
811
812
813
814
815
816
817
82
820
821
822
823
824
825
8252
8253
8258
8260
827
8274
83
830
833
835
8353
836
84
840
841
842
84234
843
845
85
850
852
855
86
860
864
87
870
875
876
88
880
885
888
89
890
89533
89602
89784
9
90
900
9000
901
905
906
907
908
909
91
910
911
912
914
915
917
92
920
925
928
93
930
934
935
936
94
940
95
950
951
954
955
96
960
961
963
965
97
970
972
973
974
975
976
978
979
98
980
981
983
985
987
99
990
995
996
997
999
:
;
<
=
>
?
@
\
^
_
`
a
aa
aachen
aachener
aalen
aan
aarau
aare
aargau
aarhus
aaron
aas
ab
aba
abb
abba
abbas
abbau
abbe
abbey
abbild
abbildung
abbildungen
abbott
abbrechen
abbruch
abc
abd
abdankung
abdel
abdruck
abdul
abdullah
abe
abel
abend
abendblatt
abendla
abendmahl
abends
abenteuer
abenteuerfilm
abenteurer
aber
aberdeen
aberkannt
abermals
abfa
abfahrt
abfall
abfallenden
abfluss
abfolge
abfu
abga
abgabe
abgaben
abgang
abgea
abgebaut
abgeben
abgebildet
abgebrochen
abgebrochenen
abgedeckt
abgedruckt
abgeflacht
abgefragt
abgefu
abgegangene
abgegangenes
abgegeben
abgegebenen
abgegrenzt
abgehalten
abgeku
abgelegenen
abgelegt
abgelehnt
abgeleitet
abgeleitete
abgeliefert
abgelo
abgenommen
abgeordnete
abgeordneten
abgeordnetenhaus
abgeordnetenhauses
abgeordnetenkammer
abgeordneter
abgerissen
abgerufen
abgerundet
abgesagt
abgeschafft
abgeschaltet
abgeschlossen
abgeschlossene
abgeschlossenen
abgeschnitten
abgeschossen
abgesehen
abgesetzt
abgestellt
abgestiegen
abgestimmt
abgestu
abgetragen
abgetrennt
abgetreten
abgewickelt
abgewiesen
abgeworfen
abgewrackt
abgezogen
abgrenzung
abgrund
abha
abhalten
abhandlung
abhandlungen
abi
abitur
abkehr
abko
abkommandiert
abkommen
abkommens
abku
abla
ablagerungen
ablauf
ableben
ablegen
ableger
ablegte
ablehnend
ablehnte
ablehnung
ableiten
ableitung
ablo
abmessungen
abnahme
abneigung
abonnenten
aborigines
about
abraham
abrechnung
abreise
abriss
abru
abruf
abrufbar
abrupt
abs
absage
absatz
abscha
abschaffung
abschied
abschließen
abschließend
abschließende
abschließenden
abschloss
abschlu
abschluss
abschlussbericht
abschlusspru
abschlusstabelle
abschneiden
abschnitt
abschnitte
abschnitten
abschnitts
abschrift
abseits
absender
absetzen
absetzung
absicherung
absicht
absichten
absichtlich
absolut
absolute
absoluten
absoluter
absolvent
absolventen
absolvieren
absolviert
absolvierte
absolvierten
abspaltung
abspann
absprache
absta
abstammung
abstand
absteigen
absteiger
abstieg
abstiegsrunde
abstimmung
abstract
abstrakte
abstrakten
abstu
absturz
abt
abtei
abteikirche
abteilung
abteilungen
abteilungsleiter
abtes
abtheilung
abtransport
abtrennung
abtreten
abtretung
abu
abwa
abwanderung
abwasser
abwechselnd
abwehr
abwehrspieler
abweichen
abweichend
abweichende
abweichenden
abweichung
abweichungen
abwesenheit
abwicklung
abzeichen
abzug
abzugeben
abzugrenzen
abzuhalten
abzuschließen
abzweig
abzweigt
abzweigung
ac
acade
academia
academic
academy
accademia
access
account
ace
ach
acha
achievement
achille
achilles
achim
achse
achsen
achsfolge
acht
achte
achteckigen
achtelfinale
achten
achter
achterbahn
achtmal
achtung
achtzehn
acid
acker
ackerbau
ackerfla
ackerland
ackermann
acre
across
act
acta
actes
action
actionfilm
active
activity
actor
actors
actress
acts
ad
ada
adac
adagio
adalbert
adam
adams
adaptiert
adaption
adaptionen
adb
add
addiert
addison
addition
ade
adel
adelaide
adele
adelheid
adelige
adeligen
adeliger
adels
adelsfamilie
adelsfamilien
adelsgeschlecht
adelsgeschlechts
adelsstand
adelstitel
aden
adenauer
adi
adjektiv
adjutant
adler
adlerorden
adlerordens
adlige
adligen
adliger
administration
administrativ
administrative
administrativen
administrator
admira
admiral
admiralita
admirals
adolf
adolfo
adolph
adolphe
adoption
adorno
adressbuch
adresse
adressen
adreßbuch
adria
adrian
adriano
adrien
adult
adulten
advanced
advancement
advent
adventure
adventures
advisory
ae
aeg
aero
aerospace
af
afc
afd
affa
affair
affairs
affen
afghanischen
afghanistan
africa
african
afrika
afrikameisterschaft
afrikanische
afrikanischen
afrikanischer
afrikas
afrique
afro
afroamerikaner
afroamerikanern
after
ag
again
against
agatha
age
agency
agenda
agent
agenten
agentur
ages
aggression
aggressiv
aggressive
agieren
agiert
agierte
agnes
agon
agostino
agrarwissenschaftler
agreement
agricola
agricultural
agriculture
aguilar
agusti
ah
ahl
ahlen
ahmad
ahmed
ahmet
ahnen
ahorn
ahrens
ahrweiler
ai
aid
aida
aids
aigner
aik
aime
ain
air
airbus
aircraft
aires
airline
airlines
airport
airways
ais
aisch
aise
aisne
aix
ajax
ak
aka
akademie
akademien
akademiker
akademische
akademischen
akademischer
akira
akkordeon
akku
akt
akte
akten
akteure
akteuren
aktie
aktien
aktiengesellschaft
aktion
aktiona
aktionen
aktiv
aktive
aktiven
aktiver
aktives
aktiviert
aktivierung
aktivist
aktivisten
aktivistin
aktivita
aktualisiert
aktualisierte
aktualita
aktuell
aktuelle
aktuellen
aktueller
aktuelles
akustik
akustische
akustischen
akute
akuten
akzent
akzente
akzeptanz
akzeptieren
akzeptiert
akzeptierte
al
ala
alabama
alain
alan
alarm
alaska
alb
alba
alban
albaner
albanien
albanische
albanischen
albanischer
albany
alben
alber
albers
albert
alberta
alberti
alberto
albertus
albin
albion
albrecht
albrechts
album
albumcharts
albums
aldeia
aldo
ale
alec
alegre
alejandro
aleksander
alemannia
aleppo
alessandro
alex
alexander
alexanderplatz
alexanders
alexandra
alexandre
alexandria
alexandrowitsch
alexandru
alexei
alexis
alf
alfa
alfons
alfonso
alfred
alfredo
algarve
algebra
algebraische
algen
algerien
algier
algorithmen
algorithmus
ali
alias
alice
alicia
alien
aliens
align
alignbars
alison
alive
alkohol
all
alla
allan
alle
allee
allegorie
allegro
allein
alleine
alleinerziehende
alleinige
alleiniger
allem
allen
allenfalls
allenstein
aller
allerdings
allerheiligen
allerho
allerlei
alles
allesamt
allga
allgemein
allgemeine
allgemeinen
allgemeiner
allgemeines
allgemeinheit
alliance
allianz
allied
alliierte
alliierten
allison
allja
allma
allmusic
allradantrieb
allsvenskan
allta
alltag
alltags
allzu
alm
alma
almanach
almaty
almeida
aloe
alois
alone
alonso
aloys
alp
alpen
alpes
alpha
alphabet
alphabetisch
alphonse
alpin
alpine
alpinen
als
alsace
alsbald
alsfeld
also
alt
alta
altar
altarbild
altarraum
altars
altbayern
altdorf
alte
altem
alten
altena
altenberg
altenburg
altenburger
altenkirchen
alter
alternativ
alternative
alternativen
alternativtext
alters
altersklasse
altertu
altertum
altertumskunde
altertumswissenschaft
altes
altgriechisch
althistoriker
altmann
altmark
altmu
alto
altona
altonaer
altphilologe
altpreußischen
altsta
altstadt
aluminium
alumni
alvensleben
alves
alvin
always
alzey
am
ama
amadeus
amalia
amalie
amanda
amateur
amateure
amateurliga
amazing
amazon
amazonas
amber
amberg
ambitionen
ambrosius
amd
ame
ameisen
amelia
america
american
americans
amerika
amerikaner
amerikanerin
amerikanern
amerikanisch
amerikanische
amerikanischen
amerikanischer
amerikanisches
amerikas
amg
ami
amiens
amiga
amin
aminosa
amir
ammann
ammoniak
amnestie
amnesty
amo
amon
among
amor
amore
amos
amour
amphibien
amphoe
ams
amsterdam
amsterdamer
amstetten
amt
amtes
amtierende
amtierenden
amtierender
amtierte
amtlich
amtliche
amtlichen
amtlicher
amtliches
amtmann
amts
amtsantritt
amtsbezirk
amtsblatt
amtseinfu
amtsgericht
amtsgerichte
amtsgerichts
amtshauptmannschaft
amtshaus
amtsinhaber
amtssitz
amtssprache
amtstra
amtszeit
amu
amy
an
ana
anaheim
analog
analoge
analogen
analogie
analyse
analysen
analysieren
analysiert
analysis
analytische
analytischen
anastasia
anatoli
anatolien
anatom
anatomie
anatomischen
anatomy
anbau
anbauten
anbetung
anbieten
anbieter
anbietet
anbindung
anblick
anbot
anc
anchor
ancien
ancient
and
andalusien
andante
andauernde
andauernden
anden
andenken
ander
andere
anderem
anderen
anderer
andererseits
anderes
andern
andernach
andernfalls
anders
andersen
anderson
andersson
anderswo
anderthalb
anderweitig
andorra
andra
andre
andrea
andreae
andreas
andrei
andrej
andres
andrew
andrews
android
andrzej
andy
aneinander
anekdoten
anerkannt
anerkannte
anerkannten
anerkannter
anerkennen
anerkennung
anfa
anfang
anfangs
anfangsjahren
anfangszeit
anfertigen
anflug
anforderung
anforderungen
anfrage
anfragen
anfu
angabe
angaben
ange
angebaut
angeben
angeblich
angebliche
angeblichen
angeblicher
angebot
angebote
angeboten
angebotene
angebotenen
angebracht
angebrachte
angebrachten
angebunden
angedeutet
angefahren
angefangen
angefertigt
angefu
angegeben
angegebene
angegebenen
angegliedert
angegriffen
angeha
angehalten
angeho
angehoben
angekauft
angeklagt
angeklagte
angeklagten
angekommen
angeku
angel
angela
angelegenheit
angelegenheiten
angelegt
angelegte
angelegten
angelehnt
angeles
angelica
angelika
angeln
angelo
angels
angelsa
angemeldet
angemessen
angemessene
angemessenen
angenommen
angeordnet
angeordnete
angeordneten
angepasst
angepasste
anger
angeregt
angers
angeschafft
angeschlossen
angeschlossenen
angesehen
angesehene
angesehenen
angesetzt
angesichts
angesiedelt
angesprochen
angestellt
angestellte
angestellten
angestellter
angestiegen
angestrebt
angestrebte
angetreten
angetrieben
angewachsen
angewandt
angewandte
angewandten
angewendet
angewiesen
angezeigt
angezogen
angibt
anglikanischen
anglistik
anglo
angola
angoule
angreifen
angreifer
angrenzende
angrenzenden
angriff
angriffe
angriffen
angriffs
angst
angus
anha
anhalt
anhaltende
anhaltenden
anhand
anhang
anhieb
anho
ani
animal
animals
animation
animationsfilm
anime
anita
anja
anjou
anka
ankara
ankauf
anke
anker
ankla
anklage
anklam
anklang
anknu
anku
ankunft
anla
anlage
anlagen
anlass
anlauf
anlegen
anleger
anlehnung
anleihen
anleitung
anliegen
anm
anmelden
anmeldung
anmerkung
anmerkungen
ann
anna
annaberg
annahm
annahme
annahmen
annalen
annales
annals
anne
annehmen
annektiert
anneliese
annemarie
annen
annette
annexion
anni
annie
annika
annimmt
anniversary
anno
annuaire
annual
anon
anonym
anonyme
anonymen
anonymous
anonymus
anordnung
anordnungen
anorganische
another
anpassen
anpassung
anpassungen
anraten
anrede
anregung
anregungen
anru
anruf
ans
ansa
ansah
ansatz
ansbach
anschaulich
anschein
anscheinend
anschla
anschlag
anschliessend
anschließen
anschließend
anschließende
anschließenden
anschließender
anschließt
anschloss
anschlu
anschluss
anschlussstelle
anschuldigungen
ansehen
anselm
ansgar
ansicht
ansichten
ansiedlung
ansiedlungen
ansonsten
anspielung
anspielungen
ansprache
ansprechen
anspru
anspruch
anspruchsvolle
anstalt
anstalten
anstatt
anstehenden
anstelle
anstellung
anstieg
anstoß
anstrengungen
anstrich
ant
antarctic
antarctica
antarktika
antarktis
antarktischen
antarktisexpedition
ante
anteil
anteile
anteilen
anteils
antenne
antennen
anthologie
anthologien
anthology
anthony
anthropologe
anthropologie
anthropology
anti
antibiotika
antigua
antike
antiken
antiker
antiko
antiochia
antiochos
antiquita
antiquity
antisemitische
antisemitischen
antisemitismus
antje
anto
antoine
antoinette
anton
antoni
antonia
antonie
antonio
antonius
antony
antra
antrag
antrat
antraten
antreten
antrieb
antritt
antwerpen
antwort
antworten
antwortet
antwortete
anvertraut
anwa
anwalt
anwaltskanzlei
anweisung
anweisungen
anwendbar
anwenden
anwender
anwendung
anwendungen
anwesen
anwesend
anwesenden
anwesenheit
anwesens
anwohner
any
anzahl
anzeichen
anzeige
anzeigen
anzeiger
anzu
anzubieten
anzuerkennen
anzugreifen
anzulegen
anzunehmen
anzupassen
anzuschließen
anzusehen
anzutreffen
anzutreten
anzuwenden
ao
ap
apa
apache
apartheid
apertura
apfel
aphorismen
api
apokalypse
apolda
apollo
apollon
apostel
apostolische
apostolischen
apostolischer
apotheke
apotheken
apotheker
app
apparat
appel
appell
appenzell
apple
application
applications
applied
approach
approx
apps
apr
apre
april
apsis
apulien
aqua
aquarell
aquarelle
aquarium
aquin
aquitaine
aquitanien
ar
ara
arab
araber
arabien
arabisch
arabische
arabischen
arabischer
arad
arago
aragon
aragonien
arama
arbeit
arbeiten
arbeitende
arbeitenden
arbeiter
arbeiterbewegung
arbeiterklasse
arbeitern
arbeiterpartei
arbeitet
arbeitete
arbeiteten
arbeitgeber
arbeitnehmer
arbeits
arbeitsbedingungen
arbeitsgemeinschaft
arbeitsgruppe
arbeitsgruppen
arbeitskra
arbeitskraft
arbeitskreis
arbeitskreises
arbeitslos
arbeitslosigkeit
arbeitsmarkt
arbeitspla
arbeitsplatz
arbeitsrecht
arbeitssta
arbeitsstelle
arbeitsverha
arbeitsweise
arbeitswelt
arbeitszeit
arbor
arc
arcade
arch
archa
archaeological
archaeology
arche
archer
archibald
archipel
architects
architecture
architekt
architekten
architektin
architektonisch
architektonische
architektonischen
architektur
architekturbu
archiv
archivalien
archivar
archive
archiven
archives
archiviert
archivio
archivs
arco
arctic
ard
are
area
areal
areals
areas
arena
arendt
argentina
argentinien
argentiniens
argentinier
argentinische
argentinischen
argentinischer
argument
argumentation
argumente
argumentiert
argumentierte
ari
aria
ariane
arie
ariel
arien
aristoteles
arizona
arkaden
arkansas
arktis
arles
arlington
arm
armand
armando
arme
armee
armeekorps
armeen
armen
armenien
armenier
armenisch
armenische
armenischen
armenischer
armin
arminia
arms
armstrong
armut
armutsgrenze
army
arn
arnaud
arnd
arndt
arne
arnheim
arnim
arno
arnold
arnsberg
arnstadt
arnulf
aron
arosa
around
arp
arpad
arrangement
arrangements
arrangeur
arrangiert
arrangierte
arras
array
arrest
arrondissement
arrondissements
arrow
arroyo
ars
arsenal
art
arte
artefakte
artemis
arten
artenvielfalt
artepitheton
artes
arthur
arti
article
articles
artikel
artikeln
artikels
artillerie
artillery
artist
artists
artnet
artois
arts
artur
arturo
arzneimittel
arzneistoff
arzt
arztes
as
asa
asch
aschaffenburg
asche
aschendorff
aschersleben
aserbaidschan
ash
ashley
ashton
asia
asian
asiaten
asiatische
asiatischen
asien
asienmeisterschaft
asienmeisterschaften
asiens
asienspielen
ask
asp
aspects
aspekt
aspekte
aspekten
asphalt
aspx
ass
assembly
assessment
assessor
assisi
assistant
assistent
assistenten
assistentin
assistenztrainer
assists
associate
associated
association
assoziation
assoziiert
ast
asta
astana
asteroid
asteroiden
aston
astra
astrid
astrologie
astronaut
astronauten
astronom
astronomen
astronomical
astronomie
astronomische
astronomischen
astrophysics
asturien
asv
asyl
at
ata
atari
atelier
ateliers
athen
athena
athener
athens
athlet
athleten
athletic
athletics
athletinnen
atkinson
atlanta
atlantic
atlantik
atlantis
atlantischen
atlas
atle
atmospha
atoll
atom
atome
atomic
atp
attack
attacke
attacken
attackiert
attenta
attentat
attika
attila
attorney
attraktion
attraktionen
attraktiv
attraktivita
attribut
attribute
au
aubin
auch
auckland
audi
audio
audrey
aue
auer
auerbach
auf
aufarbeitung
aufbau
aufbauen
aufbauend
aufbaus
aufbauten
aufbereitung
aufbewahrt
aufbewahrung
aufbringen
aufbruch
aufeinander
aufeinanderfolgenden
aufeinandertreffen
aufenthalt
aufenthalte
aufenthaltes
aufenthalts
aufenthaltsort
auferstehung
auff
auffa
auffallend
auffassung
auffassungen
aufforderung
auffu
aufgab
aufgabe
aufgaben
aufgebaut
aufgebaute
aufgebauten
aufgeben
aufgebot
aufgebracht
aufgedeckt
aufgefasst
aufgefordert
aufgefu
aufgefunden
aufgegangen
aufgegeben
aufgegriffen
aufgeha
aufgehalten
aufgehoben
aufgekauft
aufgekla
aufgelassen
aufgelegt
aufgelistet
aufgelo
aufgenommen
aufgenommene
aufgenommenen
aufgerufen
aufgeschu
aufgesetzt
aufgestellt
aufgestellte
aufgestellten
aufgestiegen
aufgestockt
aufgesucht
aufgeteilt
aufgetragen
aufgetreten
aufgewachsen
aufgezeichnet
aufgezogen
aufging
aufgrund
aufha
aufhalten
aufhebung
aufhielt
aufho
aufkla
aufkommen
aufkommenden
aufl
auflage
auflagen
auflief
auflistung
auflo
aufmerksam
aufmerksamkeit
aufnahm
aufnahme
aufnahmen
aufnehmen
aufnimmt
aufrecht
aufrechten
aufrechterhalten
aufrechterhaltung
aufrechtzuerhalten
aufru
aufruf
aufruhr
aufs
aufsa
aufsatz
aufschluss
aufschrift
aufschwung
aufsehen
aufsicht
aufsichtsbeho
aufsichtsrat
aufsichtsratsvorsitzender
aufsta
aufstand
aufstandes
aufstands
aufsteigen
aufsteigenden
aufsteiger
aufstellen
aufstellung
aufstieg
aufstiegsrunde
aufstrebenden
auftakt
auftauchen
auftaucht
aufteilung
auftra
auftrag
auftrage
auftraggeber
auftrat
auftraten
auftreten
auftretende
auftretenden
auftrieb
auftritt
auftritte
auftritten
aufwa
aufwand
aufweisen
aufweist
aufwendig
aufwertung
aufwies
aufwiesen
aufwuchs
aufza
aufzeichnung
aufzeichnungen
aufzu
aufzubauen
aufzug
aufzugeben
aufzuhalten
aufzulo
aufzunehmen
aufzustellen
aufzutreten
aug
auge
augen
augenblick
augenmerk
auges
augsburg
augsburger
augsburgischen
august
augusta
auguste
augustin
augustiner
augustinus
augusto
augustus
auktion
aula
aura
aurel
aurich
aurora
aus
ausarbeitung
ausbau
ausbauen
ausbeute
ausbeutung
ausbilden
ausbilder
ausbildung
ausbildungssta
ausblick
ausbrach
ausbreitung
ausbru
ausbruch
auschwitz
ausdauernde
ausdehnung
ausdru
ausdruck
auseinander
auseinandersetzung
auseinandersetzungen
ausfa
ausfahrt
ausfall
ausfallen
ausfiel
ausfindig
ausflu
ausflug
ausflugsziel
ausfu
ausg
ausgabe
ausgaben
ausgang
ausgangspunkt
ausgearbeitet
ausgebaut
ausgebaute
ausgebauten
ausgebildet
ausgebildete
ausgebildeten
ausgebreitet
ausgedehnt
ausgedehnte
ausgedehnten
ausgedru
ausgefallen
ausgefu
ausgegangen
ausgegeben
ausgeglichen
ausgegliedert
ausgegraben
ausgehen
ausgehend
ausgehenden
ausgeht
ausgekoppelt
ausgelagert
ausgelegt
ausgeliefert
ausgeliehen
ausgelo
ausgemustert
ausgenommen
ausgenutzt
ausgepra
ausgerechnet
ausgerichtet
ausgerichtete
ausgerichteten
ausgeru
ausgerufen
ausgeschaltet
ausgeschieden
ausgeschlossen
ausgeschrieben
ausgesetzt
ausgespielt
ausgesprochen
ausgestaltet
ausgestaltung
ausgestattet
ausgestattete
ausgestatteten
ausgestellt
ausgestellten
ausgestorben
ausgestorbene
ausgestorbenen
ausgestrahlt
ausgetauscht
ausgetragen
ausgetragene
ausgetragenen
ausgeu
ausgewa
ausgewechselt
ausgeweitet
ausgewertet
ausgewiesen
ausgewiesenen
ausgezahlt
ausgezeichnet
ausgezeichnete
ausgezeichneten
ausging
ausgleich
ausgleichen
ausgrabung
ausgrabungen
ausha
auskunft
ausla
ausland
auslandes
auslaufen
auslegung
auslieferung
auslo
auslosung
ausmachen
ausmacht
ausmalung
ausmaß
ausmaße
ausnahme
ausnahmefa
ausnahmen
ausnahmslos
ausnahmsweise
auspra
ausreichend
ausreichende
ausreichenden
ausreichender
ausreise
ausrichtung
ausru
aussage
aussagen
ausscheiden
ausschied
ausschlaggebend
ausschließlich
ausschluss
ausschnitt
ausschreibung
ausschreitungen
ausschu
ausschuss
ausschusses
aussehen
ausserdem
aussicht
aussichtsplattform
aussichtspunkt
aussichtsturm
aussprache
ausstattung
ausstellung
ausstellungen
ausstellungskatalog
aussterben
ausstieg
ausstrahlung
austausch
austin
austragung
austragungsort
australia
australian
australien
australiens
australier
australische
australischen
australischer
austria
austrian
austritt
ausu
auswa
auswahl
auswahlmannschaft
auswanderer
auswanderung
ausweg
ausweichen
ausweisung
ausweitung
auswertung
auswirkung
auswirkungen
auszeichnen
auszeichnung
auszeichnungen
auszu
auszubauen
auszufu
auszug
auszugehen
auszugleichen
auszuschließen
auszuu
aut
authentizita
authority
auto
autobahn
autobahnen
autobahnkreuz
autobiografie
autobiographie
automaten
automatisch
automatische
automatischen
automobil
automobile
automobilen
automobilhersteller
automobilindustrie
automobilrennfahrer
automotive
autonome
autonomen
autonomie
autor
autoren
autorenbeteiligung
autorennfahrer
autorenseite
autorin
autorinnen
autorita
autoroute
autors
autos
autounfall
autres
auvergne
aux
auxerre
außen
außenbereich
außenhandel
außenlager
außenminister
außenministerium
außenministeriums
außenpolitik
außenseite
außenseiter
außenstelle
außenwa
außenwand
außenwelt
außer
außerdem
außergewo
außerhalb
außerordentlich
außerordentliche
außerordentlichen
außerordentlicher
außerplanma
av
ava
avalanche
avancierte
avant
avantgarde
ave
avec
avenida
avenue
aviation
avignon
aviv
avn
aw
award
awards
away
axel
axt
ay
az
aziz
azoren
azul
azur
b
ba
baader
baar
bab
baba
babelsberg
baby
babylon
bach
bachelor
bachem
baches
bachmann
bachs
back
background
backgroundcolors
backhaus
backstein
bacon
bad
bade
baden
badener
bader
badische
badischen
badischer
badminton
badmintonspieler
badmintonspielerin
badmintonwettbewerb
baer
bafta
bag
bagdad
bahamas
bahia
bahn
bahnbetriebswerk
bahnen
bahngesellschaft
bahnho
bahnhof
bahnhofes
bahnhofs
bahnhofsgeba
bahnhofstraße
bahnlinie
bahnstation
bahnsteig
bahnsteige
bahnstrecke
bahnstrecken
bahnu
bahr
bahrain
bai
baier
bailey
bains
baja
baker
bakterien
baku
bal
bala
balance
bald
balduin
baldwin
bali
balingen
balkan
balken
balkon
ball
ballade
balladen
ballet
ballett
ballettta
ballon
balthasar
baltic
baltikum
baltimore
baltische
baltischen
baltischer
bamberg
bamberger
ban
banat
banco
band
bandbreite
bande
banden
bandes
bandgeschichte
bandleader
bandmitglieder
bands
bang
bangkok
bangladesch
bank
banken
bankhaus
bankier
bankiers
banking
banknoten
bankrott
banks
bann
banner
bantamgewicht
baptist
baptiste
baptisten
bar
barack
baracken
barbados
barbara
barbarossa
barber
barcelona
barclay
bardata
bari
barincrement
bariton
barker
barmen
barnes
barney
barnim
barock
barockbauwerk
barocke
barocken
barocker
barockzeit
baron
barone
baroness
baronet
barons
barra
barre
barren
barrett
barrow
barry
bars
barset
bart
bartels
barth
barthe
barthel
bartholdy
bartholoma
bartolomeo
barton
bartsch
bas
basalt
base
baseball
baseballspieler
based
basel
basen
basf
basic
basieren
basierend
basierende
basierenden
basiert
basierte
basierten
basil
basilica
basilika
basin
basis
basket
basketball
basketballspieler
basketballtrainer
baskets
basler
bass
basse
bassist
bassisten
basso
bastei
bastian
bastien
bastion
bat
bataillon
bataillone
bataillons
bates
bath
batman
battalion
battenberg
batterie
batterien
battista
battle
bau
bauabschnitt
bauarbeiten
bauart
baubeginn
baubeschreibung
bauch
baudenkma
baudenkmal
baudenkmale
bauen
bauer
bauern
bauernhaus
bauernho
bauernhof
bauernkrieg
bauerschaft
baufa
bauform
bauformen
baugeschichte
bauhaus
bauherr
bauingenieur
baujahr
bauko
baukosten
baukunst
baulich
bauliche
baulichen
baum
baumann
baumaterial
baumaßnahmen
baumeister
baumga
baumgarten
baumgartner
baumwolle
bauphase
baur
baureihe
baureihen
baus
bausteine
baustelle
baustil
bausubstanz
baut
bauta
baute
bauteil
bauteile
bauteilen
bauten
bautzen
bauunternehmer
bauvorhaben
bauweise
bauwerk
bauwerke
bauwerken
bauwerks
bauwesen
bauzeit
bavaria
baxter
bay
bayer
bayerisch
bayerische
bayerischen
bayerischer
bayerisches
bayern
bayernatlas
bayernliga
bayerns
bayreuth
bayreuther
bayrischen
bb
bbc
bbe
bbecke
bben
bc
bchen
bd
bda
bde
be
bea
beabsichtigt
beabsichtigte
beach
beachten
beachtet
beachtliche
beachtung
beachvolleyball
beachvolleyballspieler
beamte
beamten
beamter
beanspruchen
beansprucht
beanspruchte
beantragen
beantragt
beantragte
beantworten
beantwortet
bear
bearb
bearbeiten
bearbeiter
bearbeitet
bearbeitete
bearbeitung
bearbeitungen
bears
beast
beat
beate
beatles
beatrice
beatrix
beats
beaufort
beauftragt
beauftragte
beauftragten
beauftragter
beaulieu
beaumont
beautiful
beauty
beaux
beaver
bebaut
bebauung
bebel
bec
becher
beck
becken
beckens
becker
beckett
beckische
beckmann
beda
bedacht
bedarf
bedeckt
bedenken
bedeuten
bedeutend
bedeutende
bedeutenden
bedeutender
bedeutendes
bedeutendste
bedeutendsten
bedeutet
bedeutete
bedeutsam
bedeutsame
bedeutsamen
bedeutung
bedeutungen
bedford
bedienen
bedient
bediente
bedienten
bedienung
bedingt
bedingte
bedingten
bedingung
bedingungen
bedra
bedroht
bedrohte
bedrohten
bedrohung
bedu
bee
beeindruckt
beeinflussen
beeinflusst
beeinflusste
beeinflussten
beeinflussung
beeintra
been
beenden
beendet
beendete
beendeten
beendigung
beer
beerdigt
beerdigung
beeren
beeskow
beethoven
beethovens
befa
befahl
befahrbar
befahren
befallen
befand
befanden
befassen
befasst
befasste
befehl
befehle
befehligte
befehlshaber
befestigt
befestigte
befestigten
befestigung
befestigungen
befestigungsanlage
befestigungsanlagen
befinden
befindet
befindliche
befindlichen
befo
befohlen
before
befragt
befragten
befragung
befreien
befreit
befreite
befreiung
befreiungskriege
befreundet
befreundete
befreundeten
befriedigung
befu
befugnisse
befugt
befund
befunde
befunden
begab
begabung
begangen
begann
begannen
begeben
begebenheiten
begegnen
begegnet
begegnete
begegnung
begegnungen
begehen
begeht
begehung
begeistert
begeisterte
begeisterung
begibt
begin
beging
beginn
beginnen
beginnend
beginnende
beginnenden
beginnt
begleiten
begleiter
begleitet
begleitete
begleiteten
begleitung
begnu
begonnen
begonnene
begonnenen
begra
begraben
begrenzen
begrenzt
begrenzte
begrenzten
begrenzung
begriff
begriffe
begriffen
begriffs
begriffskla
begru
begu
beha
behaart
behalten
behandeln
behandelt
behandelte
behandelten
behandlung
behaupten
behauptet
behauptete
behaupteten
behauptung
behauptungen
behavior
beheimatet
beherbergen
beherbergt
beherbergte
beherrschen
beherrscht
beherrschte
beherrschten
behielt
behielten
behind
behindert
behinderte
behinderten
behinderung
behinderungen
beho
behoben
behr
behrens
bei
beibehalten
beibehaltung
beide
beiden
beider
beiderseits
beides
beidseitig
beier
beigefu
beigelegt
beigeordneter
beigesetzt
beigetragen
beigetreten
beiheft
beihilfe
beijing
beilage
beim
bein
beinahe
beiname
beinamen
beine
beinen
being
beinhalten
beinhaltet
beinhaltete
beirat
beirats
beirut
beisein
beisetzung
beisitzer
beispiel
beispiele
beispielen
beispielhaft
beispielsweise
beitra
beitrag
beitragen
beitrags
beitritt
beitrug
beiwagen
beka
bekam
bekamen
bekannt
bekannte
bekannten
bekannter
bekanntes
bekannteste
bekanntesten
bekanntestes
bekanntgabe
bekanntgegeben
bekanntheit
bekanntheitsgrad
bekanntmachung
bekanntschaft
bekennenden
bekenntnis
beklagen
beklagt
beklagte
bekleidet
bekleidete
bekleidung
bekommen
bekommt
bekra
bekro
bel
bela
beladen
belagert
belagerte
belagerten
belagerung
belange
belarus
belarussischen
belassen
belastet
belastung
belastungen
bele
beleg
belege
belegen
belegschaft
belegt
belegte
belegten
belehnt
beleidigung
beleuchtet
beleuchtung
belfast
belfort
belgien
belgiens
belgier
belgique
belgisch
belgische
belgischen
belgischer
belgrad
beliebig
beliebige
beliebigen
beliebt
beliebte
beliebten
beliebter
beliebtes
beliebtesten
beliebtheit
belief
beliefen
believe
belize
bell
bella
belle
belles
belletristik
bellevue
bellinzona
bello
beln
belo
belohnt
belohnung
below
belt
beltz
belu
belvedere
bema
bemalt
bemalte
bemalung
bemerkbar
bemerken
bemerkenswert
bemerkenswerte
bemerkt
bemerkte
bemerkung
bemerkungen
bemu
ben
benachbarte
benachbarten
benannt
benannte
benannten
bender
bene
benedetto
benedict
benedikt
benediktiner
benediktinerabtei
benediktinerkloster
benennen
benennt
benennung
benes
benfica
beni
benin
benito
benjamin
bennett
benno
benny
beno
benoi
bensheim
benson
bentheim
bentley
benu
benutzen
benutzer
benutzeroberfla
benutzt
benutzte
benutzten
benutzung
benz
benzin
beobachten
beobachter
beobachtet
beobachtete
beobachteten
beobachtung
beobachtungen
beordert
ber
bera
berall
berarb
berarbeitet
berarbeitete
berarbeiteten
berarbeitung
beraten
berater
beratung
beratungen
beraus
berbaut
berblick
berbru
berchtesgaden
berchtesgadener
berdachte
berdeckt
berdies
berdurchschnittlich
berechnen
berechnet
berechnung
berechnungen
berechtigt
berechtigte
berechtigten
berechtigung
bereich
bereiche
bereichen
bereichs
berein
bereinander
bereinkommen
bereinkunft
bereinstimmung
bereiste
bereit
bereiten
bereitet
bereitete
bereitgestellt
bereits
bereitschaft
bereitstellung
berfa
berfahrt
berfall
berfallen
berfalls
berfamilie
berfeld
berflu
berflutet
berfu
berg
berga
bergab
bergabe
bergakademie
bergamo
bergang
bergangs
bergangsregierung
bergbau
bergbaus
berge
bergeben
bergedorf
bergegangen
bergehen
bergehend
bergehende
bergehenden
bergeht
bergen
bergeordnete
bergeordneten
berger
berges
bergfried
berghaus
bergheim
bergibt
berging
bergisch
bergische
bergischen
bergland
bergleute
bergman
bergmann
bergreifend
bergreifende
bergreifenden
bergriffe
bergriffen
bergru
bergs
bergstation
bergsteiger
bergstraße
bergung
bergwerk
bergwerke
bergwerks
bergwertung
berhaupt
berho
berholt
berholte
berholung
bericht
berichte
berichten
berichterstattung
berichtet
berichtete
berichteten
berichtigung
berief
beriet
berkeley
berla
berlagert
berlassen
berleben
berlebende
berlebenden
berlebender
berlebt
berlebte
berlebten
berlegen
berlegenen
berlegenheit
berlegungen
berliefert
berlieferte
berlieferten
berlieferung
berlieferungen
berliegende
berliegenden
berließ
berlin
berlinale
berliner
berlingen
berlins
berlioz
berma
bermittelt
bermittlung
bermuda
bern
bernahm
bernahme
bernahmen
bernard
bernardino
bernardo
bernatu
bernau
bernburg
bernd
berndt
bernehmen
berner
bernhard
bernhardt
bernie
bernimmt
bernommen
bernommenen
bernstein
berpru
berqueren
berquert
berquerte
berquerung
berragt
berraschend
berraschenden
berrascht
berraschung
berreden
berregional
berregionale
berregionalen
berreicht
berreste
berry
bers
berschattet
berschreiten
berschreitet
berschreitung
berschrift
berschritt
berschritten
berschu
berschuss
berschwemmungen
bersee
bersehen
bersetzen
bersetzer
bersetzerin
bersetzt
bersetzte
bersetzung
bersetzungen
bersicht
bersiedelte
berspannt
bersta
berstand
berstanden
berstehen
bersteigen
bersteigt
berstellt
bert
berta
bertelsmann
bertha
berthold
bertolt
bertra
bertraf
bertragen
bertragenen
bertragung
bertragungen
bertram
bertrand
bertritt
bertroffen
bertrug
beru
beruf
berufe
berufen
beruflich
berufliche
beruflichen
beruflicher
berufs
berufsausbildung
berufsfeuerwehr
berufsschule
berufsta
beruft
berufung
beruhen
beruht
beruhte
berwa
berwachen
berwacht
berwachung
berwiegend
berwiegende
berwiegenden
berwiesen
berwinden
berwindung
berwunden
berzeugen
berzeugend
berzeugt
berzeugte
berzeugung
berzeugungen
berzogen
bes
besa
besagt
besanc
besatzer
besatzung
besatzungen
besatzungsmacht
besatzungsmitglieder
besatzungstruppen
besatzungszeit
besatzungszone
besaß
besaßen
bescha
beschaffen
beschaffenheit
beschafft
beschaffte
beschaffung
bescheid
bescheidenen
beschlagnahmt
beschleunigen
beschleunigt
beschleunigte
beschleunigung
beschließen
beschließt
beschloss
beschlossen
beschlossenen
beschlu
beschluss
beschluß
beschossen
beschra
beschreiben
beschreibt
beschreibung
beschreibungen
beschrieb
beschrieben
beschriebene
beschriebenen
beschriftung
beschu
beschuldigt
beschuldigte
beschuldigten
beschuss
beschwerde
beschwerden
beschwo
beseitigen
beseitigt
beseitigung
besessen
besetzen
besetzt
besetzte
besetzten
besetzung
besichtigen
besichtigt
besichtigung
besiedelt
besiedelten
besiedelung
besiedlung
besiegen
besiegt
besiegte
besiegten
besitz
besitze
besitzen
besitzer
besitzern
besitzes
besitzt
besitztu
besitzungen
besondere
besonderem
besonderen
besonderer
besonderes
besonderheit
besonderheiten
besonders
besorgt
besorgte
besprechung
besprechungen
besprochen
besser
bessere
besseren
besserer
besseres
best
besta
bestand
bestanden
bestandsaufnahme
bestandteil
bestandteile
bestattet
bestattung
bestattungen
beste
bestehe
bestehen
bestehend
bestehende
bestehenden
bestehender
bestehendes
bestehens
besteht
besteigung
bestellt
bestellte
bestellten
bestellung
besten
bester
bestes
besteuerung
bestieg
bestiegen
bestimmen
bestimmt
bestimmte
bestimmten
bestimmter
bestimmtes
bestimmung
bestimmungen
bestleistung
bestleistungen
bestplatzierten
bestrafen
bestraft
bestrafung
bestreben
bestrebt
bestrebungen
bestreiten
bestreitet
bestritt
bestritten
bestseller
bestu
bestzeit
bestzeiten
besuch
besuche
besuchen
besucher
besuchern
besucht
besuchte
besuchten
bet
beta
beteiligen
beteiligt
beteiligte
beteiligten
beteiligung
beteiligungen
beten
beth
bethel
bethlehem
betitelt
beton
betonen
betont
betonte
betonten
betonung
betra
betracht
betrachten
betrachter
betrachtet
betrachtete
betrachteten
betrachtung
betrachtungen
betraf
betrafen
betrag
betragen
betrat
betraut
betreffen
betreffend
betreffende
betreffenden
betreiben
betreiber
betreibt
betreten
betreuen
betreuer
betreut
betreute
betreuten
betreuung
betrieb
betriebe
betrieben
betriebene
betriebenen
betriebes
betriebliche
betrieblichen
betriebs
betriebsfu
betriebshof
betriebssystem
betriebssysteme
betriebswirtschaft
betriebswirtschaftslehre
betrifft
betritt
betroffen
betroffene
betroffenen
betru
betrug
betrugen
bett
betten
better
bettina
betty
between
beurlaubt
beurteilen
beurteilt
beurteilung
beute
beuys
beverly
bevo
bevollma
bevor
bevorstehenden
bevorzugen
bevorzugt
bevorzugte
bevorzugten
bewa
bewacht
bewaffnet
bewaffnete
bewaffneten
bewaffnung
bewahren
bewahrt
bewahrte
bewahrung
bewaldet
bewaldete
bewaldeten
bewarb
bewegen
bewegliche
beweglichen
bewegt
bewegte
bewegten
bewegung
bewegungen
beweis
beweise
beweisen
beweist
bewerben
bewerber
bewerbung
bewerten
bewertet
bewertete
bewertung
bewertungen
bewies
bewiesen
bewilligt
bewilligung
bewirken
bewirkt
bewirkte
bewirtschaftet
bewirtschaftete
bewirtschafteten
bewirtschaftung
bewohner
bewohnern
bewohnt
bewohnte
bewohnten
beworben
bewusst
bewusstsein
bey
beyer
beyond
bez
bezahlen
bezahlt
bezahlte
bezahlung
bezeichnen
bezeichnet
bezeichnete
bezeichneten
bezeichnung
bezeichnungen
bezeugt
beziehen
bezieht
beziehung
beziehungen
beziehungsweise
bezirk
bezirke
bezirken
bezirkes
bezirks
bezirksamt
bezirksgericht
bezirkshauptmannschaft
bezirksklasse
bezirksliga
bezirksregierung
bezog
bezogen
bezu
bezug
bezwang
bf
bfc
bg
bgb
bgh
bhp
bhutan
bi
bianca
bianchi
biathlet
biathletin
biathlon
bibel
bibelu
biber
biberach
bible
biblio
bibliografie
bibliographie
bibliographisches
bibliography
biblioteca
bibliothe
bibliotheca
bibliothek
bibliothekar
bibliotheken
biblische
biblischen
biden
bie
bieber
biedenkopf
biedermann
biegt
biel
bielefeld
bielefelder
bien
bienen
biennale
bier
biermann
biete
bieten
bietet
bietigheim
big
bigband
bike
bilanz
bilbao
bild
bilden
bildende
bildenden
bildender
bilder
bilderbuch
bildergalerie
bildern
bildes
bildet
bildete
bildeten
bildhauer
bildhauerei
bildhauerin
bildhauers
bildnis
bildnisse
bildschirm
bildstock
bildung
bildungs
bildungseinrichtung
bildungseinrichtungen
bildungswesen
bill
billard
billboard
billie
billy
bin
bina
binden
binder
bindet
bindung
bindungen
bing
bingen
binger
binnen
bio
biochemie
biochemiker
biodiversita
biodiversity
biografie
biografien
biografische
biograph
biographical
biographie
biographien
biographisch
biographische
biographischen
biographischer
biographisches
biography
biologe
biological
biologie
biologisch
biologische
biologischen
biology
biomasse
biospha
bip
bir
bird
birds
birgit
birgt
birken
birkenau
birkenfeld
birkha
birmingham
birnbaum
birth
birthday
bis
bisch
bische
bischen
bischo
bischof
bischoff
bischofs
bischofskonferenz
bischofssitz
bischofsweihe
bisher
bisherige
bisherigen
bishop
bislang
bismarck
bismarcks
biss
bissau
bisschen
bist
bistu
bistum
bistums
bisweilen
bit
bitburg
bits
bitte
bitten
bitter
bitterfeld
bittet
bjo
bk
bka
bl
bla
black
blackburn
blackwell
blade
blair
blake
blanc
blanca
blanche
blanco
blank
blankenburg
blaschke
blasien
blasius
blasonierung
blasorchester
blass
blast
blatt
blattrand
blattspreite
blattstiel
blau
blaue
blauem
blauen
blauer
blaues
ble
blech
blei
bleibe
bleiben
bleibt
bler
blica
blich
bliche
blichen
blicherweise
blick
blickpunkt
blickt
blieb
blieben
blin
blind
blinde
blinden
bling
blingen
blitz
blko
blo
bloch
block
blockade
blockflo
blockiert
blocks
blog
blogspot
blois
blonde
blood
bloom
bloomington
bloomsbury
bloß
bloße
bloßen
blu
blue
blues
bluff
blum
blume
blumen
blumenthal
blut
blutgefa
blutige
blutigen
blv
bm
bmatrix
bmg
bmw
bnd
bner
bnis
bnissta
bo
board
boat
bob
bobby
boca
bocholt
bochum
bochumer
bock
bode
boden
bodendenkma
bodendenkmal
bodendenkmale
bodenreform
bodens
bodenscha
bodensee
bodo
body
boeing
bog
bogdan
bogen
bogenschießen
bogenschu
bogota
bohe
bohlen
bohnen
bohrung
bois
boldsymbol
boli
bolivianischen
bolivien
boll
bologna
bolschewiki
bolton
bombardier
bombardierung
bombay
bombe
bomben
bombenangriff
bomber
bon
bonaparte
bond
bone
bones
bonhoeffer
bonifatius
bonn
bonner
bonnie
bonus
boogie
book
booklet
books
boom
boot
boote
booten
bootes
booth
boots
boppard
bor
bora
bord
bordeaux
border
borg
boris
borken
born
borna
borneo
borough
borussia
bos
bosch
bosco
bose
bosnien
bosnisch
boss
bosse
boston
bot
botanic
botanical
botanik
botaniker
botanische
botanischen
botanischer
botany
bote
boten
both
botschaft
botschaften
botschafter
botschafterin
botschafters
botswana
bottom
bottrop
boulder
boulevard
boulogne
bourbon
bourg
bourgogne
bowie
bowl
box
boxen
boxer
boxing
boy
boyd
boykott
boyle
boys
boz
bozen
bp
br
bra
brabant
brabham
brach
brachen
brachte
brachten
brad
bradford
bradley
brady
braga
brahms
brain
brake
bram
branch
branche
branchen
brand
brandenburg
brandenburger
brandenburgische
brandenburgischen
brandenburgisches
brandes
brandon
brandschutz
brandstiftung
brandt
brannte
brannten
bras
brasil
brasilianer
brasilianische
brasilianischen
brasilianischer
brasilianisches
brasilien
brasiliens
brass
bratislava
brauch
brauchen
braucht
brauchte
brauchtum
brauer
brauerei
brauereien
braun
braunau
braune
braunen
brauner
braunfels
braunkohle
braunschweig
braunschweiger
braunschweigischen
braut
brave
bravo
brazil
brd
bre
break
breaking
breaks
brechen
brecht
brechts
breda
bredow
bregenz
breisgau
breit
breite
breiten
breitenbach
breiter
breitere
breiteren
breites
breitete
breitkopf
bremen
bremer
bremerhaven
bremischen
bremse
bremsen
brendan
brennan
brennen
brennende
brennenden
brenner
brennerei
brennstoff
brennt
brent
brentano
brescia
breslau
breslauer
brest
bretagne
brett
breuer
brian
bricht
bridge
bridges
brief
briefe
briefen
briefmarke
briefmarken
briefwechsel
brien
brig
brigade
brigadegeneral
brigaden
brigadier
brige
brigen
brigens
bright
brighton
brigitte
brill
brille
brilon
bring
bringen
bringt
brinkmann
brisbane
bristol
britain
britannia
britannica
britannien
brite
briten
britisch
britische
britischen
britischer
britisches
british
britta
brixen
brno
bro
broadcasting
broadway
brock
brockhaus
brod
broken
bromberg
bronx
bronze
bronzemedaille
bronzemedaillen
bronzene
bronzezeit
brook
brooke
brooklyn
brooks
bros
broschu
brot
brother
brothers
brown
browne
browns
browser
brt
bru
bruce
bruch
bruchsal
bruchstu
bruck
bruckmann
bruckner
bruder
bruders
bruderschaft
bruins
brun
brunei
brunn
brunnen
brunner
bruno
bruns
brunswick
brust
brut
brutal
brutzeit
bruxelles
bryan
bryant
bs
bsb
bsc
bsg
bspw
bt
bte
bten
btissin
bu
buch
buchanan
buchautor
buchdrucker
buchdruckerei
buche
buchen
buchenwald
bucher
buches
buchgesellschaft
buchha
buchhandlung
buchholz
buchmesse
buchner
buchreihe
buchs
buchstabe
buchstaben
bucht
buchverlag
buck
buckingham
bud
budapest
budapester
buddha
buddhismus
buddhistische
buddhistischen
buddhistischer
buddy
budget
buenos
buffalo
bug
bugatti
building
buildings
bukarest
bukowina
bulgaren
bulgarien
bulgariens
bulgarisch
bulgarische
bulgarischen
bulgarischer
bull
bulle
bulletin
bulls
bund
bundes
bundesamt
bundesamtes
bundesanstalt
bundesarchiv
bundesautobahn
bundesbahn
bundesbahnen
bundesbank
bundesdeutschen
bundesebene
bundesgerichtshof
bundesgesetz
bundesheer
bundeskanzler
bundeskanzlerin
bundesla
bundesland
bundeslandes
bundesliga
bundesligisten
bundesminister
bundesministerium
bundesministeriums
bundespolizei
bundespost
bundespra
bundesrat
bundesrates
bundesregierung
bundesrepublik
bundesstaat
bundesstaaten
bundesstaates
bundesstaats
bundesstraße
bundesstraßen
bundestag
bundestages
bundestags
bundestagsabgeordneter
bundestagsfraktion
bundestagswahl
bundestagswahlkreis
bundestrainer
bundesverband
bundesverdienstkreuz
bundesverdienstkreuzes
bundesverfassungsgericht
bundesverfassungsgerichts
bundesversammlung
bundesvorstand
bundeswehr
bundesweit
bundesweiten
bundeszentrale
bung
bungen
bungsplatz
bunker
bunt
bunte
bunten
burchard
burckhardt
bureau
buren
burg
burganlage
burgberg
burgdorf
burgen
burgenla
burgenland
burger
burgess
burggraf
burggrafen
burghausen
burgos
burgruine
burgstall
burgtheater
burgund
burke
burkhard
burkhardt
burkina
burlington
burma
burn
burning
burns
burschenschaft
burschenschafter
burt
burton
bus
busbahnhof
busch
bush
business
buslinie
buslinien
busse
bussen
busverkehr
but
butler
butter
butterfly
button
buxtehude
buy
bv
bvb
bverfg
bvg
bvr
bw
bwv
by
bye
byrd
byron
byte
byzantinische
byzantinischen
byzantinischer
byzanz
bz
bzw
c
ca
cabinet
cabriolet
cache
cadillac
caen
caesar
caesars
caf
cafe
cage
cagliari
cai
cairns
cairo
cal
calais
calcio
calcium
calder
calgary
cali
california
call
calle
called
calvin
calvo
calw
cam
cambrai
cambridge
camden
came
camera
cameron
camilla
camille
camillo
camp
campaign
campbell
campe
campeonato
campingplatz
campo
campos
camps
campus
can
canada
canadian
canadiens
canadier
canal
canberra
cancer
candy
cannabis
cannes
cannon
cannstatt
canon
canterbury
canto
canton
canvas
canyon
cao
cap
cape
capital
capitals
capitol
capo
cappella
captain
car
caracas
carbon
card
cardiff
cardinals
care
career
carey
cargo
caribbean
caritas
carl
carla
carlisle
carlo
carlos
carlsen
carmen
carnegie
caro
carol
carola
carolin
carolina
caroline
carpenter
carr
carrara
carrera
carrie
carrier
carroll
cars
carson
carsten
carter
carvalho
cas
casa
casablanca
casanova
case
cases
casey
cash
casimir
casino
caspar
casper
cassel
cassius
cast
castel
castell
castello
castillo
casting
castle
castro
cat
catalog
catalogue
catania
catarina
caterina
catharina
cathedral
catherine
catholic
cato
cats
cause
cave
cavendish
cb
cbs
cc
cd
cdot
cdots
cds
cdu
ce
cecil
cecilia
cedar
cell
celle
cellist
cello
cells
celsius
celtic
cembalo
cemetery
census
cent
center
centers
central
centrale
centre
centro
centrum
centuries
century
ceo
ceres
cerro
cervantes
ces
cesare
ceylon
cf
ch
cha
chad
chain
chair
chairman
chal
challenge
challenger
cham
chamber
chamberlain
chambers
champ
champagne
champion
champions
championship
championships
champs
chan
chance
chancen
chandler
chang
change
changes
channel
chanson
chansons
chao
chaos
chapel
chapelle
chaplin
chapman
chapter
character
charakter
charaktere
charakteren
charakterisiert
charakterisierung
charakteristik
charakteristisch
charakteristische
charakteristischen
charakters
charente
charge
charite
charity
charkiw
charles
charleston
charlie
charlotte
charlottenburg
charlton
charly
charme
chart
charta
charter
chartplatzierungen
chartres
charts
chase
chassis
chat
chaussee
chaux
che
check
checklist
chef
chefarzt
chefredakteur
chefs
cheftrainer
chel
cheln
chelsea
chem
chemical
chemie
chemikalien
chemiker
chemin
chemins
chemisch
chemische
chemischen
chemischer
chemistry
chemnitz
chemnitzer
chen
cheng
chenma
chentlich
chentliche
chentlichen
cher
cherei
cheren
chern
cherokee
cherry
chess
chester
chevalier
chevrolet
chez
chi
chiang
chiba
chicago
chico
chief
chiefs
chiemsee
chiesa
chig
chige
chigen
chiger
child
children
chile
chilenische
chilenischen
chilenischer
chiles
chin
china
chinas
chinese
chinesen
chinesisch
chinesische
chinesischen
chinesischer
chip
chips
chirurg
chirurgen
chirurgie
chirurgische
chirurgischen
chl
chlein
chler
chlich
chliche
chlichen
chlicher
chloe
chner
cho
choi
choice
cholera
chopin
chor
choral
chorbogen
choreograf
chores
chorgestu
chorherren
chorleiter
chorraum
chors
chorus
chow
chr
chre
chris
christ
christa
christel
christen
christensen
christentum
christentums
christi
christian
christiane
christianisierung
christians
christiansen
christie
christina
christine
christlich
christliche
christlichen
christlicher
christmas
christo
christof
christoph
christophe
christopher
christophorus
christus
christuskirche
chromosom
chromosomenzahl
chronicle
chronicles
chronik
chroniken
chronische
chronischen
chronist
chronisten
chronologie
chronologisch
chronologischer
chronology
chrysler
chs
chse
chsen
chsisch
chsische
chsischen
chsischer
chsisches
chst
chste
chsten
chstens
chster
chstes
chstgelegene
chstgelegenen
chstgeschwindigkeit
chststand
chstwahrscheinlich
cht
chte
chten
chter
chtern
chtet
chtete
chteten
chtig
chtige
chtigen
chtiger
chtiges
chtigkeit
chtigsten
chtigt
chtigte
chtigten
chtigter
chtigung
chtigungen
chtlich
chtliche
chtlichen
chtlinge
chtlingen
chtnis
chtung
chu
chuck
chun
chung
chur
church
churchill
ci
cia
cicero
cie
cile
cincinnati
cine
cinema
cio
circ
circa
circle
circuit
circus
cis
cisleithanien
cit
cite
cities
citizen
citroe
citta
city
citypopulation
ciudad
civil
ck
ckbau
ckblick
ckblickend
ckchen
cke
ckel
cken
ckenden
ckenkopf
ckens
cker
ckerei
ckern
ckeroberung
ckert
ckes
ckfu
ckga
ckgabe
ckgang
ckgebaut
ckgedra
ckgefu
ckgegangen
ckgegeben
ckgegriffen
ckgehen
ckgeht
ckgekehrt
ckgenommen
ckgetreten
ckgewiesen
ckgezogen
ckgreifen
ckig
ckige
ckigen
ckingen
ckkehr
ckkehren
ckkehrt
ckkehrte
ckl
ckla
ckler
cklich
ckliche
cklichen
ckner
ckreise
ckrunde
cks
cksburg
ckschlu
ckseite
cksicht
cksichtigen
cksichtigt
cksichtigung
ckspiel
ckspiele
cksta
ckstand
ckt
ckte
ckten
cktreten
cktritt
ckung
ckwa
ckwand
ckweg
ckwirkend
ckzahl
ckzahlen
ckziehen
ckzog
ckzufu
ckzug
ckzukehren
ckzuziehen
cl
cla
clair
claire
clan
clans
clapton
clara
clare
clarence
clarendon
clark
clarke
class
classe
classic
classical
classics
classification
claude
claudia
claudio
claudius
claus
clausen
clausthal
clausura
clav
clay
clayton
cle
clean
clear
clemens
clement
clermont
cleveland
client
cliff
clifford
climate
clinical
clinton
clio
clive
clock
cloppenburg
close
cloud
clown
club
clubs
cluj
cluster
clyde
cm
cn
cnn
co
coa
coach
coast
coat
cobra
coburg
coburger
coca
cochabamba
cochem
cockpit
cod
code
codes
codex
cody
coesfeld
cohen
cohn
cohors
coimbra
col
cola
cold
cole
coleman
colin
coll
colle
collected
collection
collections
college
colleges
collegium
collins
colmar
colo
cologne
colombia
colombo
colon
colonel
colonia
colonial
colonna
colony
color
colorado
colors
colt
colts
columbia
columbus
com
combat
come
comeback
comedian
comedy
comedyserie
comes
comet
comic
comics
comiczeichner
coming
comite
command
commander
comme
commerce
commercial
commission
commissioner
committee
commodore
common
commons
commonwealth
communaute
commune
communes
communication
communications
community
como
comp
compact
compagnie
companion
company
comparative
competition
compilation
comple
complete
complex
composite
composition
compton
computer
computern
computers
computerspiel
computerspiele
computing
comte
comune
con
conan
concacaf
concept
concern
concert
concerto
concordia
conde
condor
conference
conflict
congress
connecticut
connection
connor
conny
conquest
conrad
conseil
conservation
conservative
constance
constant
constantin
constitution
construction
contact
container
conte
contemporary
content
contest
context
conti
continental
continuo
contra
contract
contre
contribution
contributions
control
controlled
controller
controlling
conus
convent
convention
conversations
conway
cook
cooke
cool
cooper
cop
copa
coppa
cops
copyright
cordillera
core
corinna
cork
cornelia
cornelis
cornelius
cornell
corner
cornwall
corona
coronavirus
corporate
corporation
corps
corpslisten
corpsstudent
corpus
corte
cortina
corvey
cos
costa
cotta
cottbus
cotton
could
council
count
counter
counties
countries
country
county
countys
coup
coupe
cour
courage
course
court
cousin
cousine
cousins
cov
cove
coventry
cover
coverversion
coverversionen
covid
cowboy
cowboys
cox
cp
cpu
cr
craig
crailsheim
cramer
crane
crash
crawford
crazy
cre
creation
creative
credit
cree
creek
cremer
cremona
crew
cricket
cricketspieler
crime
crimes
criminal
crisis
cristina
cristo
critical
critics
critique
cro
croix
cromwell
cropped
crosby
cross
crossing
crosslauf
crossover
crow
crown
cru
cruise
cruz
cry
crystal
cs
csa
csi
csu
ct
ctor
cu
cuba
cultura
cultural
culture
cum
cumberland
cunningham
cup
cups
curie
curling
current
curriculum
curry
curt
curtis
cut
cuxhaven
cv
cvp
cyber
cycle
cycling
cynthia
cyril
cyrus
cz
czech
czernowitz
d
da
dab
dabei
dach
dachau
dachgeschoss
dachreiter
dachstuhl
dachte
dachverband
daddy
dadurch
daf
dafrika
dafrikaner
dafrikanische
dafrikanischen
dafrikanischer
dafrikas
dafu
dag
dagegen
dagmar
dagoge
dagogen
dagogik
dagogin
dagogische
dagogischen
dagogischer
daheim
daher
dahin
dahingehend
dahinter
dahl
dahlem
dahme
dai
daily
daimler
daisy
dakar
dakota
dal
dalberg
dale
dali
dall
dalla
dallas
dalmatien
dalton
dam
damalige
damaligen
damaliger
damals
damaskus
dame
damen
damendoppel
dameneinzel
damerika
damerikanischen
damerikas
dames
damian
damit
damm
damon
dampf
dampfer
dampflokomotive
dampflokomotiven
dampfmaschine
dan
dana
danach
dance
dancing
daneben
danger
dangerous
dani
daniel
daniela
daniele
daniels
dank
dankbarkeit
dann
dannenberg
danny
dans
dansk
danske
dante
danzig
danziger
daphne
dar
daran
darauf
darauffolgenden
daraufhin
daraus
darbietung
darf
dargestellt
dargestellte
dargestellten
darin
dario
dark
darkgrey
darkness
darlehen
darling
darm
darmsta
darmstadt
darren
darstellen
darstellende
darstellender
darsteller
darstellerin
darstellt
darstellte
darstellten
darstellung
darstellungen
darts
daru
darum
darunter
darwin
darzustellen
das
dasein
daselbst
dass
dasselbe
dat
data
database
date
dateformat
datei
dateien
daten
datenbank
datenbanken
datenblatt
datenschutz
datenu
datenverarbeitung
datieren
datiert
datierung
dato
datum
dauer
dauerausstellung
dauerhaft
dauerhafte
dauerhaften
dauern
dauernde
dauernden
dauert
dauerte
dauerten
daughter
daumen
daun
dav
dave
david
davids
davidson
davies
davis
davon
davor
davos
dawn
dawson
day
days
daytona
dazu
dazugeho
dazwischen
daß
db
dc
dchen
dchens
dchenschule
dd
ddeutsche
ddeutschen
ddeutscher
ddeutschland
ddp
ddr
de
dea
dead
deadline
deal
dean
dear
dearborn
death
debatte
debatten
deborah
debu
dec
decca
december
deck
decke
deckel
decken
deckengema
decker
deckt
deckte
deckung
dee
deep
deer
defa
defekt
defence
defense
defensive
definieren
definiert
definierte
definierten
definition
definitionen
definitiv
degen
degener
deggendorf
degli
dehio
dei
deich
dein
deine
deinen
deiner
dek
dekan
dekanat
deklaration
dekor
dekoration
dekoriert
dekret
del
delaware
delbru
delegation
delegierte
delegierten
delegierter
delhi
delitzsch
delius
dell
della
delle
delmenhorst
dels
delta
deluxe
dem
demand
dementsprechend
demgegenu
demjenigen
demnach
demnig
demo
democracy
democratic
demografie
demografische
demographie
demokraten
demokratie
demokratisch
demokratische
demokratischen
demokratischer
demokratisierung
demonstranten
demonstration
demonstrationen
demonstrieren
demontiert
demos
demselben
demu
demzufolge
den
denen
deng
denis
denise
denjenigen
denk
denkbar
denke
denken
denkens
denker
denkma
denkmal
denkmale
denkmalgeschu
denkmalliste
denkmalpflege
denkmals
denkmalschutz
denkmaltopographie
denkmalverzeichnis
denkschrift
denkt
denkwu
denmark
denn
dennis
dennoch
dens
denscheid
denselben
denver
departamento
departamentos
departement
departements
department
deportation
deportiert
deportivo
depot
depression
depressionen
deputy
der
derart
derartige
derartigen
deration
derby
derek
deren
derer
dergleichen
derierten
derjenige
derjenigen
dern
derrick
ders
derselbe
derselben
derstandard
derweil
derzeit
derzeitige
derzeitigen
des
descartes
description
desert
deshalb
design
designer
designs
desire
desktop
desmond
dessau
desselben
dessen
destiny
desto
destruction
deswegen
det
detail
detailliert
detaillierte
detaillierten
details
detective
detektiv
detlef
detlev
detmold
detroit
dettelbach
deu
deuropa
deus
deuten
deutet
deutete
deutlich
deutliche
deutlichen
deutlicher
deutsch
deutsche
deutschem
deutschen
deutscher
deutsches
deutschland
deutschlandfunk
deutschlandradio
deutschlands
deutschlandweit
deutschsprachige
deutschsprachigen
deutschsprachiger
deutschsta
deutung
deutungen
deutz
deux
development
devil
devils
devon
dexter
dez
dezember
df
dfb
dfg
dflu
dfrankreich
dg
dgb
dh
dha
dhabi
dhang
dhb
di
dia
diabetes
diagnose
diagnostik
diagnostiziert
diagramm
diakon
diakonie
dialekt
dialekte
dialekten
dialektik
dialog
dialogbuch
dialoge
dialogregie
diamant
diamanten
diamond
diamonds
diana
diane
diary
dias
diaspora
dich
dicht
dichte
dichten
dichter
dichterin
dichters
dichtung
dichtungen
dick
dicke
dicken
dickens
dicker
dickinson
dictionary
dictionnaire
did
didaktik
diderot
didier
die
dieb
diebstahl
dieburg
diederichs
diedrich
diego
diehl
diejenige
diejenigen
dien
dienen
diener
dienst
dienstag
dienste
diensten
dienstes
dienstgrad
dienstleister
dienstleistung
dienstleistungen
dienststelle
dienststellen
dienstzeit
dient
diente
dienten
diepholz
dierte
dies
diesbezu
diese
diesel
dieselbe
dieselben
diesellokomotiven
dieselmotor
dieselmotoren
diesem
diesen
dieser
dieses
diesmal
dieter
dietmar
dietrich
dietz
dieu
diez
different
differential
differentialgleichungen
differenz
differenzen
differenziert
differenzierung
dig
digen
diger
digital
digitale
digitalen
digitaler
digitales
digitalisat
digitalisate
digitalisiert
digitalisierte
digitalisierung
digt
digte
digten
digung
digungen
dijon
dikat
diktator
diktatur
dilemma
dili
dill
dillenburg
dillingen
dillon
dimension
dimensionen
dimitri
din
dinamo
ding
dinge
dingen
dinger
dinghausen
dinkelsbu
dinner
dino
dinosaurier
dio
diogenes
dion
dionysius
dipl
diplom
diplomarbeit
diplomat
diplomaten
diplomatie
diplomatin
diplomatische
diplomatischen
dir
direct
direction
director
directors
directory
direkt
direkte
direkten
direkter
direktion
direktmandat
direktor
direktoren
direktorin
direktors
direktwahl
dirigent
dirigenten
dirigierte
dirk
dirty
dis
disc
disch
dische
dischen
discher
disches
disco
discography
discogs
discovery
disease
diseases
diskografie
diskographie
diskographische
diskriminierung
diskurs
diskussion
diskussionen
diskuswurf
diskutieren
diskutiert
diskutierte
disney
display
disposition
disqualifiziert
diss
dissertation
distanz
distanzen
distanziert
distanzierte
distinguished
distribution
district
distrikt
distrikte
distrikts
disziplin
disziplinen
dit
dithmarschen
dition
ditions
dittrich
div
diverse
diversen
diverser
diversity
divisio
division
divisionen
divisions
dix
dixon
diz
dizionario
dj
djk
djs
dk
dkorea
dkoreanische
dkoreanischen
dkoreanischer
dku
dkurier
dl
dlich
dliche
dlichen
dlicher
dliches
dlichste
dlichsten
dling
dlr
dm
dma
dmitri
dn
dna
dnb
dnf
dns
dnvp
do
dobbertin
doc
doch
dock
doctor
document
documenta
documentary
documents
dodge
does
dog
doge
dogen
dogmatik
dogs
doha
dohna
doi
doktor
doktorarbeit
doktrin
doku
dokument
dokumentarfilm
dokumentarfilme
dokumentarfilmer
dokumentation
dokumentationen
dokumente
dokumenten
dokumentieren
dokumentiert
dokumentierte
doll
dollar
dolmen
dolmetscher
dolni
dolomiten
dolores
dom
doma
domain
dome
domenico
domes
domherr
dominant
dominante
dominanz
domingo
domini
dominic
dominieren
dominierende
dominierenden
dominiert
dominierte
dominierten
dominik
dominikaner
dominikanische
dominikanischen
dominikus
dominique
domino
domkapitel
domkapitels
dompropst
doms
don
donald
donau
donaueschingen
donauwo
donezk
dong
donizetti
donkey
donna
donner
donnerstag
donovan
doom
door
doping
doppel
doppelkonkurrenz
doppelsitzer
doppelt
doppelte
doppelten
doppelter
doppelvierer
doppelzweier
dora
dordogne
dordrecht
dorf
dorfbewohner
dorfes
dorfkirche
dorfplatz
dorfs
dorfstraße
doris
dorn
dornbirn
dornen
dornier
dorothea
dorothee
dorothy
dorpat
dorset
dort
dorthin
dortige
dortigen
dortmund
dortmunder
dos
dosen
dosis
dossier
dost
dostasien
dosten
dosteuropa
dot
dotiert
dotierten
dots
dotsc
douard
double
doubs
doug
douglas
dover
down
download
downloads
doyle
dozent
dozenten
dozentin
dp
dpa
dr
dra
drache
drachen
dracula
draft
drag
dragon
dragoner
dragons
draht
drake
drama
dramas
dramaserie
dramatic
dramatiker
dramatisch
dramatische
dramatischen
dramaturg
dramaturgie
dramen
drand
drang
drangen
drastisch
drau
draußen
draw
dream
dreams
dreh
dreharbeiten
drehbu
drehbuch
drehbuchautor
drehbuchautoren
drehbuchautorin
drehen
dreher
drehmoment
drehort
drehorte
drehscheibe
dreht
drehte
drehung
drehzahl
drei
dreiband
dreieck
dreieckig
dreieckigen
dreiecks
dreieinhalb
dreier
dreifach
dreifache
dreifaltigkeit
dreifaltigkeitskirche
dreigeschossige
dreija
dreiko
dreila
dreimal
dreischiffige
dreisprung
dreizehn
dreißig
dreißigja
dresden
dresdener
dresdner
dressur
drew
dreyer
dreyfus
dringend
dringt
dritt
dritte
drittel
dritten
dritter
drittes
drittgro
drittho
drittklassigen
drittligisten
drive
driver
drk
dro
droemer
droga
drogen
drohenden
droht
drohte
drohung
droit
drop
droste
drs
dru
druck
drucke
drucken
drucker
druckerei
drucksache
drug
drum
drums
dry
ds
dsc
dschungel
dsee
dseite
dstaaten
dsu
dsv
dt
dtchen
dte
dtebau
dtebauliche
dtebaulichen
dteil
dten
dtepartnerschaft
dtepartnerschaften
dter
dtirol
dtiroler
dtische
dtischen
dtischer
dtisches
dtm
dts
dtv
du
dual
dubai
dublin
dubois
duc
duck
ducks
duden
dudley
due
duell
duett
dufer
duft
duisburg
duisburger
duke
dumas
dumont
duncan
duncker
dundee
dung
dunkel
dunkelbraun
dunkelgru
dunkelheit
dunkeln
dunkle
dunklen
dunkler
dunn
duo
duos
dupont
dur
durand
durban
durch
durchaus
durchbrechen
durchbrochen
durchbruch
durchfahrt
durchfließt
durchflossen
durchfu
durchga
durchgang
durchgefu
durchgehend
durchgehende
durchgehenden
durchgesehene
durchgesetzt
durchla
durchlaufen
durchlief
durchmesser
durchquert
durchs
durchschnitt
durchschnittlich
durchschnittliche
durchschnittlichen
durchschnittsalter
durchschnittseinkommen
durchschnittstemperatur
durchsetzen
durchsetzt
durchsetzte
durchsetzung
durchweg
durchzogen
durchzufu
durchzusetzen
durfte
durften
durham
during
durlach
dus
dust
dutch
dutzend
dux
dv
dva
dvb
dvd
dvds
dvor
dvorak
dvp
dvu
dw
dwa
dwand
dwest
dwestafrika
dwesten
dwestlich
dwestliche
dwestlichen
dwestlicher
dwight
dx
dy
dylan
dynamic
dynamics
dynamik
dynamische
dynamischen
dynamo
dynastie
dz
e
ea
eagle
eagles
earl
earls
early
earth
east
eastern
easy
eaton
eau
eb
ebd
ebel
eben
ebenda
ebene
ebenen
ebenfalls
ebenso
eberhard
eberle
ebersberg
eberswalde
ebert
ebner
ec
echo
echt
echte
echten
echter
echtzeit
eck
eckart
ecke
ecken
eckernfo
eckert
eckhard
eckhart
eckstein
eclipse
eco
ecology
economic
economics
economy
ecuador
ed
edda
eddie
eddy
edel
edelmann
eden
eder
edgar
edge
edikt
edinburgh
edison
edit
edited
edith
edition
editionen
editions
editor
editore
editorial
edizioni
edle
edlen
edler
edmond
edmonton
edmund
edo
edouard
eds
edu
eduard
eduardo
education
educational
edv
edvard
edward
edwards
edwin
ee
een
eesti
ef
effect
effects
effekt
effekte
effekten
effektiv
effektive
effizient
effizienz
eg
egal
egbert
eger
egg
egger
eggers
eglise
egmont
ego
egon
egypt
egyptian
eh
ehc
ehe
ehefrau
ehefrauen
ehegatten
eheleute
ehelichte
ehem
ehemalige
ehemaligen
ehemaliger
ehemaliges
ehemals
ehemann
ehen
ehepaar
eher
eheschließung
ehesten
ehf
ehingen
ehir
ehlers
ehre
ehren
ehrenamtlich
ehrenamtliche
ehrenamtlichen
ehrenamtlicher
ehrenberg
ehrenbu
ehrendoktor
ehrendoktorwu
ehrengrab
ehrenkreuz
ehrenlegion
ehrenmal
ehrenmedaille
ehrenmitglied
ehrenpra
ehrenpreis
ehrentitel
ehrenzeichen
ehrenzeichens
ehrlich
ehrt
ehrte
ehrung
ehrungen
ei
eich
eiche
eichen
eichenlaub
eichhorn
eichler
eichmann
eichsfeld
eichsta
eid
eidgeno
eidgenossenschaft
eier
eiern
eifel
eifer
eifersu
eifersucht
eifo
eigen
eigenart
eigene
eigenem
eigenen
eigener
eigenes
eigenha
eigens
eigenschaft
eigenschaften
eigenschreibweise
eigensta
eigenthu
eigentlich
eigentliche
eigentlichen
eigentlicher
eigentu
eigentum
eigentums
eigenverlag
eigenvero
eight
eignen
eigner
eignet
eignung
eike
eilenburg
ein
einander
einar
einbau
einberufen
einberufung
einbeziehung
einbezogen
einbindung
einblick
einblicke
einbrachte
einbringen
einbruch
einbu
einda
eindeutig
eindeutige
eindeutigen
eindhoven
eindringen
eindru
eindruck
eine
eineinhalb
einem
einen
einer
einerseits
einerverfolgung
eines
einfa
einfach
einfache
einfachen
einfacher
einfaches
einfachheit
einfachste
einfachsten
einfahrt
einfall
einflu
einfluss
einflusses
einflussnahme
einflussreiche
einflussreichen
einflussreichsten
einfluß
einfu
einfuhr
einga
eingabe
eingang
eingangs
eingangsbereich
eingangshalle
eingangsportal
eingangstu
eingearbeitet
eingebaut
eingebaute
eingebauten
eingebettet
eingebracht
eingebu
eingebunden
eingefasst
eingefu
eingegangen
eingegliedert
eingehalten
eingehen
eingeholt
eingeladen
eingelagert
eingelassen
eingelegt
eingeleitet
eingeliefert
eingemeindet
eingemeindeten
eingemeindung
eingemeindungen
eingenommen
eingeordnet
eingepfarrt
eingera
eingereicht
eingerichtet
eingerichtete
eingerichteten
eingescha
eingeschlossen
eingeschmolzen
eingeschra
eingeschrieben
eingesehen
eingesetzt
eingesetzte
eingesetzten
eingesperrt
eingespielt
eingestellt
eingestellten
eingestuft
eingeteilt
eingetragen
eingetragene
eingetragenen
eingetreten
eingewechselt
eingeweiht
eingezeichnet
eingezogen
eingezogenen
eingleisige
eingliederung
eingreifen
eingriff
eingriffe
einhaltung
einheimische
einheimischen
einheit
einheiten
einheitlich
einheitliche
einheitlichen
einheitliches
einher
einhergehenden
einhorn
einhundert
einig
einige
einigen
einiger
einigermaßen
einiges
einigkeit
einigte
einigten
einigung
einja
einkaufszentrum
einklang
einkommen
einku
einladung
einlagen
einleitung
einmal
einmalig
einmalige
einmarsch
einmu
einnahm
einnahme
einnahmen
einnehmen
einnimmt
eino
einordnung
einra
einreise
einrichten
einrichtung
einrichtungen
eins
einsa
einsam
einsamkeit
einsatz
einsatzes
einscha
einschaltquoten
einschiffige
einschla
einschließlich
einschnitt
einschra
einschu
einsehbar
einseitig
einseitige
einsetzbar
einsetzen
einsetzenden
einsetzt
einsetzte
einsetzung
einsicht
einsiedeln
einsiedler
einsitzer
einspruch
einst
einstein
einstellen
einstellte
einstellung
einstellungen
einstieg
einstige
einstigen
einstimmig
einstu
einstufung
einsturz
einteilung
eintra
eintracht
eintraf
eintrag
eintragung
eintrat
eintreffen
eintreten
eintritt
einvernehmen
einversta
einverstanden
einw
einwa
einwanderer
einwanderung
einwechselspieler
einweihung
einwilligung
einwirkung
einwohner
einwohnerentwicklung
einwohnern
einwohnerzahl
einwohnerzahlen
einzel
einzelausstellung
einzelausstellungen
einzelbelege
einzelergebnisse
einzelfa
einzelfall
einzelga
einzelhandel
einzelheiten
einzelkonkurrenz
einzelmehrkampf
einzeln
einzelnachweise
einzelne
einzelnen
einzelner
einzelnes
einzelpersonen
einzelstu
einzelwertung
einzelzeitfahren
einziehen
einzig
einzigartig
einzigartige
einzigartigen
einzige
einzigen
einziger
einziges
einzog
einzufu
einzug
einzugsgebiet
einzunehmen
einzurichten
einzusetzen
einzustellen
eis
eisba
eisen
eisenach
eisenbahn
eisenbahnbru
eisenbahndirektion
eisenbahnen
eisenbahngesellschaft
eisenbahnlinie
eisenbahnnetz
eisenbahnstrecke
eisenbahnstrecken
eisenberg
eisenerz
eisenhower
eisenhu
eisenstadt
eisenzeit
eiserne
eisernen
eisernes
eishockey
eishockeynationalspieler
eishockeyspieler
eishockeytorwart
eishockeytrainer
eiskunstla
eiskunstlauf
eisleben
eisler
eisschnellla
eisschnelllauf
eiszeit
ek
ekd
ekkehard
ekliptik
el
elbe
elberfeld
elbing
eleanor
election
electric
electro
electronic
electronics
elefant
elefanten
elektra
elektrifiziert
elektrifizierung
elektrisch
elektrische
elektrischen
elektrischer
elektrizita
elektro
elektroingenieur
elektromagnetische
elektromotor
elektron
elektronen
elektronik
elektronisch
elektronische
elektronischen
elektronischer
elektrotechnik
element
elementary
elemente
elementen
elements
elena
elend
eleonora
eleonore
elephant
elf
elfenbein
elfenbeinku
elfmeter
elfmeterschießen
elfriede
elfte
elften
elfter
eli
elias
eliot
elisa
elisabeth
elise
elite
eliten
eliza
elizabeth
elke
ella
elle
ellen
eller
ellington
elliot
elliott
elliptisch
elliptische
elliptischen
ellis
ellwangen
elm
elmar
elmer
elo
elsa
elsass
elsaß
else
elsevier
elster
elterlichen
eltern
elternhaus
elternteil
elton
elvira
elvis
elwert
em
emanuel
emanzipation
emblem
emden
emergency
emeritiert
emeritierter
emeritierung
emerson
emi
emigrant
emigranten
emigration
emigrierte
emigrierten
emil
emile
emilia
emilie
emilio
emily
emir
emirate
emission
emissionen
emma
emmanuel
emmerich
emmy
emotional
emotionale
emotionalen
emotionen
emperor
empfa
empfahl
empfand
empfang
empfangen
empfangsgeba
empfehlen
empfehlung
empfehlungen
empfiehlt
empfinden
empfindlich
empfing
empfohlen
empfunden
empire
empirisch
empirische
empirischen
empo
empor
empore
emporen
ems
emsland
en
encyclopaedia
encyclope
encyclopedia
encyklopa
end
ende
endemisch
endemit
enden
endergebnis
enders
endes
endet
endete
endeten
endgu
endlich
endliche
endlichen
endphase
endpunkt
endrunde
endspiel
endsta
endstand
endstation
endung
enemy
energie
energien
energieversorgung
energy
eng
engagement
engagements
engagieren
engagiert
engagierte
engagierten
enge
engel
engelbert
engelhardt
engelmann
engeln
engels
engen
enger
engere
engeren
engine
engineering
engineers
engl
engla
england
englands
englisch
englische
englischen
englischer
englischsprachige
englischsprachigen
english
engsten
enigma
enke
enkel
enkelin
enno
enns
enorm
enorme
enormen
enrico
enrique
ens
ensemble
ensemblemitglied
ensembles
entartete
entbunden
entdecken
entdecker
entdeckt
entdeckte
entdeckten
entdeckung
entdeckungen
enteignet
enteignung
entente
enterprise
entertainer
entertainment
entfa
entfallen
entfalten
entfaltet
entfaltung
entfernen
entfernt
entfernte
entfernten
entfernung
entfernungen
entfernungsangaben
entfiel
entfielen
entfu
entgegen
entgegenzuwirken
entgehen
entging
entha
enthalten
enthaltend
enthaltene
enthaltenen
enthielt
enthielten
enthoben
enthu
entkommen
entlang
entlassen
entlassung
entlasten
entlastet
entlastung
entlehnt
entließ
entnehmen
entnommen
entomologe
entre
entrichten
entry
entsandt
entsandte
entscha
entscheiden
entscheidend
entscheidende
entscheidenden
entscheidender
entscheidet
entscheidung
entscheidungen
entscheidungsspiel
entschied
entschieden
entschloss
entschlossen
entschlu
entschluss
entsenden
entsetzt
entsorgung
entsprach
entsprachen
entsprechen
entsprechend
entsprechende
entsprechenden
entsprechender
entsprechendes
entsprechung
entspricht
entspringen
entspringt
entstammen
entstammt
entstammte
entstammten
entstand
entstanden
entstandene
entstandenen
entstehen
entstehende
entstehenden
entsteht
entstehung
entstehungsgeschichte
entstehungszeit
entta
entwa
entwarf
entweder
entwerfen
entwickeln
entwickelt
entwickelte
entwickelten
entwickler
entwicklung
entwicklungen
entwicklungsgeschichte
entwicklungsla
entworfen
entworfene
entworfenen
entwu
entwurf
entziehen
entzog
entzogen
entzu
environment
environmental
enz
enzo
enzyklopa
enzym
enzyme
eo
eos
eoza
ep
ephraim
epic
epidemie
epik
episode
episoden
episodenliste
epitaph
epoche
epochen
epos
eps
epsilon
epstein
equipment
equiv
er
era
erachtet
erarbeiten
erarbeitet
erarbeitete
erarbeitung
erasmus
erb
erbach
erbauen
erbauer
erbaut
erbaute
erbauten
erbauung
erbe
erben
erbes
erbeutet
erbfolgekrieg
erbin
erblichen
erbracht
erbrachte
erbringen
erbschaft
erbte
erc
erd
erdbeben
erdboden
erde
erden
erdgas
erdgeschoss
erding
erdmann
erdo
erdoberfla
erdog
eredivisie
ereignete
ereignis
ereignisse
ereignissen
erfa
erfahren
erfahrene
erfahrenen
erfahrung
erfahrungen
erfand
erfassen
erfasst
erfasste
erfassten
erfassung
erfinder
erfindung
erfindungen
erfolg
erfolge
erfolgen
erfolges
erfolglos
erfolglosen
erfolgreich
erfolgreiche
erfolgreichen
erfolgreicher
erfolgreiches
erfolgreichste
erfolgreichsten
erfolgreichster
erfolgs
erfolgt
erfolgte
erfolgten
erfolgter
erforderlich
erforderliche
erforderlichen
erfordern
erfordert
erforderte
erforschen
erforscht
erforschte
erforschung
erfreut
erft
erfu
erfuhr
erfuhren
erfunden
erfurt
erfurter
erga
ergab
ergaben
ergeben
ergebnis
ergebnisse
ergebnissen
ergibt
erging
ergreifen
ergriff
ergriffen
erha
erhalt
erhalten
erhaltene
erhaltenen
erhaltung
erhard
erheben
erheblich
erhebliche
erheblichen
erheblicher
erhebt
erhebung
erhebungen
erhielt
erhielten
erho
erhob
erhoben
erhobenen
erhoffte
erholen
erholte
erholung
eric
erica
erich
erik
erika
eriksson
erin
erinnern
erinnert
erinnerte
erinnerung
erinnerungen
eritrea
erka
erkannt
erkannte
erkannten
erkelenz
erkennbar
erkennbare
erkennbaren
erkennen
erkennt
erkenntnis
erkenntnisse
erkenntnissen
erkennung
erker
erkla
erkrankt
erkrankte
erkrankten
erkrankung
erkrankungen
erkunden
erkundung
erla
erlag
erlangen
erlanger
erlangt
erlangte
erlangten
erlangung
erlass
erlassen
erlassenen
erlauben
erlaubnis
erlaubt
erlaubte
erlaubten
erleben
erlebnis
erlebnisse
erlebt
erlebte
erlebten
erledigt
erleichtern
erleichtert
erleidet
erlenbach
erler
erlernen
erlernte
erliegen
erließ
erlitt
erlitten
erlo
erlosch
erloschen
erma
ermessen
ermitteln
ermittelt
ermittelte
ermittelten
ermittler
ermittlung
ermittlungen
ermittlungsverfahren
ermland
ermo
ermorden
ermordet
ermordete
ermordeten
ermordung
ern
erna
ernannt
ernannte
ernannten
ernennen
ernennung
ernest
ernestine
ernesto
erneuerbare
erneuerbaren
erneuern
erneuert
erneuerte
erneuerung
erneut
erneute
erneuten
erneuter
ernst
ernste
ernsthaft
ernsthafte
ernte
ero
eroberer
erobern
erobert
eroberte
eroberten
eroberung
eros
erosion
erotische
erprobt
erprobung
errang
errangen
errechnet
erreger
erregte
erreichbar
erreichen
erreicht
erreichte
erreichten
errichten
errichtet
errichtete
errichteten
errichtetes
errichtung
erringen
errungen
errungenschaften
ers
ersatz
erschaffen
erscheinen
erscheinende
erscheinenden
erscheint
erscheinung
erscheinungen
erscheinungsbild
erschien
erschienen
erschienene
erschienenen
erschienener
erschießen
erschießt
erschlagen
erschließen
erschließt
erschließung
erschlossen
erscho
erschossen
erschu
erschweren
erschwert
ersetzen
ersetzt
ersetzte
ersetzten
ersichtlich
erskine
erst
erstauffu
erstausgabe
erstausstrahlung
erstbeschreibung
erstbeschrieben
erste
erstellen
erstellt
erstellte
erstellten
erstellung
erstem
ersten
erstens
erster
erstere
ersterscheinung
ersterwa
erstes
erstflug
erstligisten
erstmalige
erstmals
erstrecken
erstreckt
erstreckte
erstsendung
erstu
erstveranstaltung
erstverleihung
erstvero
erteilen
erteilt
erteilte
erteilung
ertra
ertrag
erw
erwa
erwachen
erwachsen
erwachsene
erwachsenen
erwachsenenbildung
erwachsener
erwacht
erwarb
erwarben
erwarten
erwartet
erwartete
erwarteten
erwartung
erwartungen
erweckt
erweisen
erweist
erweitern
erweitert
erweiterte
erweiterten
erweiterung
erweiterungen
erweiterungsbau
erwerb
erwerben
erwerbsta
erwies
erwiesen
erwin
erwirbt
erwogen
erworben
erworbene
erworbenen
erwu
erz
erza
erzbischo
erzbischof
erzbischofs
erzbistum
erzbistums
erzdio
erzengel
erzeugen
erzeugnisse
erzeugt
erzeugte
erzeugten
erzeugung
erzgebirge
erzherzog
erzherzogin
erzieher
erziehung
erzielen
erzielt
erzielte
erzielten
erzogen
erzstift
erzwingen
es
esa
esc
escape
esch
eschenbach
escher
eschwege
eschweiler
escudo
esel
eskadron
eske
esky
espan
esperanto
espn
esprit
essai
essay
essayist
essays
essen
essener
esser
essex
esslingen
est
esta
estadio
estado
estate
este
esteban
ester
esther
estland
estlands
estnisch
estnische
estnischen
estnischer
esv
et
eta
etablieren
etabliert
etablierte
etablierten
etablierung
etage
etagen
etappe
etappen
etat
etc
etcs
eth
ethan
ethanol
ethik
ethische
ethischen
ethnie
ethnien
ethnisch
ethnische
ethnischen
ethnologe
ethnologie
etienne
etliche
etlichen
etwa
etwas
etymologie
etymologisches
eu
euch
euge
eugen
eugene
eugenia
eugenio
eule
eulen
eulenspiegel
euler
eupen
eur
eure
euro
euroleague
europa
europacup
europaea
europameister
europameisterin
europameisterschaft
europameisterschaften
europapokal
europas
europastraße
europawahl
europaweit
europe
european
eurovision
eusebius
euskirchen
euthanasie
eutin
ev
eva
evakuiert
evakuierung
evaluation
evan
evang
evangelien
evangelisch
evangelische
evangelischen
evangelischer
evangelisches
evangelist
evangelisten
evangelium
evans
eve
evelyn
even
evening
event
events
eventuell
eventuelle
ever
everest
everett
evers
everton
every
everything
evic
evidence
evil
evo
evolution
evolutiona
evolutionary
evtl
ew
ewald
ewg
ewig
ewige
ewigen
ewigkeit
ex
exakt
exakte
examen
excellence
exchange
executive
exekutive
exemplar
exemplare
exemplaren
exemplarisch
exeter
exhibition
exil
existent
existenz
existieren
existierende
existierenden
existiert
existierte
existierten
exit
exklave
exklusiv
exodus
exp
expandierte
expansion
expedition
expeditionen
experience
experiment
experimental
experimente
experimentell
experimentelle
experimentellen
experimenten
experiments
experte
experten
explizit
explodierte
exploration
explorer
explosion
expo
exponate
export
exportiert
exposition
express
expression
expressionismus
extended
extension
externe
externen
extra
extraliga
extrem
extreme
extremen
eye
eyes
ez
f
fa
faber
fabian
fabio
fabricius
fabrik
fabrikant
fabrikanten
fabriken
fabrizio
face
facebook
facelift
faces
fach
facharzt
fachbereich
fache
fachgebiet
fachhochschule
fachkra
fachleute
fachliteratur
fachrichtung
fachschule
fachwerk
fachwerkha
fachwerkhaus
fachzeitschrift
fachzeitschriften
fact
facto
factor
factory
facts
faculty
faden
fagott
fahne
fahnen
fahnentra
fahr
fahrbahn
fahren
fahrenden
fahrer
fahrern
fahrerwertung
fahrga
fahrgestell
fahrla
fahrplan
fahrplanwechsel
fahrra
fahrrad
fahrt
fahrten
fahrtrichtung
fahrwerk
fahrzeit
fahrzeug
fahrzeuge
fahrzeugen
fahrzeugs
fair
faire
faith
faksimile
fakten
faktisch
faktor
faktoren
fakulta
falco
falcon
falcons
falk
falke
falken
falkenberg
falkenstein
falko
fall
falle
fallen
falls
fallschirmja
falsch
falsche
falschen
falscher
falter
falun
fame
familia
familie
familien
familienangeho
familienbesitz
familiengeschichte
familiengro
familienmitglied
familienmitglieder
familienname
familiennamen
familienunternehmen
families
family
famous
fan
fand
fanden
fang
fangen
fanny
fans
fantasie
fantastic
fantasy
fao
far
farbe
farben
farbgebung
farbig
farbige
farbigen
farblich
farm
farmer
farmteam
farnese
faschismus
faschistische
faschistischen
fasern
fashion
faso
fassade
fassaden
fassen
fasst
fasste
fassung
fassungen
fassungsvermo
fast
faszination
fasziniert
fat
fate
father
fatih
fauna
faust
favorit
favorite
favoriten
fay
faz
fazit
fb
fbi
fc
fda
fdgb
fdj
fdp
fe
fear
feat
feature
features
featuring
feb
februar
february
fechten
fechter
feder
federal
federation
federfu
federgewicht
federico
federn
fee
feel
feeling
feet
fehde
fehl
fehlen
fehlende
fehlenden
fehlender
fehler
fehlern
fehlt
fehlte
fehlten
fei
feier
feierlich
feierliche
feierlichen
feierlichkeiten
feiern
feiert
feiertag
feiertagen
feierte
feierten
fein
feind
feinde
feinden
feindliche
feindlichen
feine
feinen
feiner
fekt
fekten
fektur
feld
feldartillerie
felde
felder
feldern
feldes
feldherr
feldkirch
feldmann
feldmark
feldmarschall
feldzu
feldzug
felice
felicitas
felipe
felix
fell
felle
fellow
fellowship
fels
felsen
female
feminismus
feministische
femme
femmes
fen
fenerbahc
fenster
fensterachsen
fenstern
fer
ferdinand
ferdinando
ferdinands
ferenc
ferguson
ferien
fern
ferna
fernand
fernandes
fernando
ferne
fernen
ferner
fernseh
fernsehen
fernsehens
fernsehfilm
fernsehjournalist
fernsehmoderator
fernsehmoderatorin
fernsehpreis
fernsehproduktionen
fernsehreihe
fernsehsender
fernsehsendung
fernsehserie
fernsehserien
fernstraße
fernverkehr
fernwa
ferrara
ferrari
ferreira
ferry
fers
fertig
fertige
fertigen
fertiggestellt
fertiggestellte
fertiggestellten
fertigkeiten
fertigstellung
fertigte
fertigung
fest
feste
festen
fester
festes
festgehalten
festgelegt
festgelegte
festgelegten
festgenommen
festgeschrieben
festgesetzt
festgestellt
festhalten
festigkeit
festival
festivals
festko
festland
festlegen
festlegung
festnahme
festsaal
festschrift
festspiele
festspielen
feststellen
feststellung
festung
festungen
festzustellen
fett
fettsa
feucht
feuchte
feuchten
feuchtigkeit
feuer
feuerbach
feuerlo
feuers
feuerstein
feuerstellen
feuerwache
feuerwehr
feuerwehren
feuerwehrhaus
feuilleton
fever
ff
ffc
ffel
ffen
ffentlich
ffentliche
ffentlichen
ffentlicher
ffentliches
ffentlichkeit
ffentlichkeitsarbeit
ffentlicht
ffentlichte
ffentlichten
ffentlichtes
ffentlichung
ffentlichungen
ffer
ffh
ffler
ffnen
ffnet
ffnete
ffneten
ffnung
ffnungen
ffnungsfeier
fh
fi
fia
fiat
fiba
fichte
fichtelgebirge
fichten
fiction
fide
fidel
fidschi
fieber
fiedler
fiel
field
fields
fielen
fifa
fifth
fifty
fig
figaro
fight
fighter
fighting
figu
figur
figure
figuren
fiktion
fiktive
fiktiven
file
files
filiale
filialen
filialkirche
filip
filippo
film
filmdrama
filme
filmeditor
filmemacher
filmen
filmes
filmfest
filmfestival
filmfestivals
filmfestspiele
filmfestspielen
filmkomo
filmkomponist
filmkritik
filmkritiker
filmmusik
filmografie
filmpreis
filmproduktion
filmproduktionen
filmproduzent
filmproduzentin
filmregisseur
filmregisseurin
filmreihe
films
filmschauspieler
filmschauspielerin
filmtitel
fils
filter
fin
final
finale
finaleinzug
finalen
finalist
finalisten
finalrunde
finals
finalsieg
finalteilnahmen
finance
financial
finanz
finanzamt
finanzen
finanziell
finanzielle
finanziellen
finanzieller
finanzieren
finanziert
finanzierte
finanzierten
finanzierung
finanzkrise
finanzminister
finanzministerium
finanzverwaltung
find
finde
finden
findet
fine
fing
finger
fink
finn
finne
finnen
finnisch
finnische
finnischen
finnischer
finnland
finnlands
finsternis
fire
firenze
firma
firmen
firmengru
firmensitz
firmiert
firmierte
first
fis
fisch
fischbach
fische
fischen
fischer
fischerei
fischfang
fish
fisher
fishes
fit
fitness
fitz
fitzgerald
fitzroy
five
fix
fixiert
fjodor
fjord
fk
fl
fla
flach
flache
flachen
flacher
flag
flagge
flaggen
flaggschiff
flak
flamenco
flames
flamme
flammen
flandern
flanke
flanken
flankiert
flasche
flaschen
flash
flat
flavius
fle
fleck
flecken
flederma
fledermaus
fleet
fleisch
fleischer
fleischmann
fleming
flemming
flensburg
flensburger
fler
flerland
fletcher
flexibel
flexibilita
flexible
flich
fliche
flichen
fliches
fliegen
fliegende
fliegenden
fliegengewicht
flieger
fliegerhorst
fliegt
fliehen
flieht
fließen
fließend
fließende
fließenden
fließgewa
fließt
flight
fling
flint
flo
flog
flogen
floh
flohen
flohic
floor
flora
florence
florenz
flores
florett
florian
florida
floss
flossen
flotte
flottille
flow
flower
flowers
floyd
flu
fluch
flucht
flug
flugbetrieb
flugbla
fluggesellschaft
fluggesellschaften
flugha
flughafen
flughafens
flugpla
flugplatz
flugunfall
flugzeug
flugzeuge
flugzeugen
flugzeugs
flugzeugtra
flugzeugtypen
flur
flurnamen
fluss
flussabwa
flussaufwa
flussbett
flusses
flussla
flusslauf
flusssystem
flussufer
flut
fly
flyer
flyers
flying
flynn
fm
fn
fo
focke
focus
foerster
fokker
fokus
fokussiert
fol
folge
folgejahr
folgejahren
folgen
folgend
folgende
folgendem
folgenden
folgender
folgendermaßen
folgendes
folgesaison
folgetag
folgezeit
folglich
folgt
folgte
folgten
folie
folio
folk
folklore
folkwang
follow
folter
fondation
fonds
fontaine
fontana
fontane
fontsize
food
foot
football
footballspieler
for
forbes
force
forces
forchheim
ford
fordern
fordert
forderte
forderten
forderung
forderungen
fore
foreign
forest
forever
forgotten
fork
form
formal
formale
formalen
format
formate
formation
formationen
formel
formell
formeln
formen
former
formierte
forms
formula
formuliert
formulierte
formulierung
forrest
forscher
forschern
forscht
forschte
forschung
forschungen
forschungs
forschungsarbeiten
forschungseinrichtungen
forschungsergebnisse
forschungsgemeinschaft
forschungsgeschichte
forschungsgruppe
forschungsinstitut
forschungsprojekt
forschungsschwerpunkte
forschungsstelle
forschungszentrum
forst
forsten
forster
forsthaus
forstwirtschaft
fort
fortan
fortbildung
forte
fortfu
fortgefu
fortgeschrittenen
fortgesetzt
fortlaufend
fortpflanzung
forts
fortschritt
fortschritte
fortsetzen
fortsetzte
fortsetzung
fortsetzungen
fortuna
fortune
fortwa
fortzusetzen
forum
forums
forward
fossil
fossile
fossilen
fossilien
foster
foto
fotograf
fotografen
fotografie
fotografien
fotografiert
fotografin
fotomodell
fotos
found
foundation
four
fourth
fowler
fox
foyer
fpo
fr
fra
frac
fracht
frachter
frage
fragen
fragestellungen
fraglich
fragment
fragmente
fragt
fragte
fragwu
fraktion
fraktionen
fraktionsvorsitzender
frame
frames
framework
franc
france
frances
francesca
francesco
franche
franchise
francis
francisco
franck
francke
franckh
franco
francois
francs
frank
franke
franken
frankenberg
frankenstein
frankenthal
frankfurt
frankfurter
frankie
franklin
franko
frankreich
frankreichs
frans
frantis
franz
franziska
franziskaner
franziskanerkloster
franziskus
franzo
franzose
franzosen
fraser
frau
frauen
frauenbewegung
frauenfeld
frauenfußball
frauenkirche
frauenrechtlerin
frauenwahlrecht
fraunhofer
fre
fred
freddie
freddy
frederic
frederick
frederik
fredrik
free
freedom
freeman
freestyle
fregatte
freguesia
frei
freibad
freiberg
freiberger
freiburg
freiburger
freie
freiem
freien
freier
freies
freifla
freigabe
freigegeben
freigelassen
freigelegt
freigesetzt
freigesprochen
freigestellt
freiheit
freiheiten
freiheitska
freiheitsstrafe
freiherr
freiherren
freiherrn
freiin
freikorps
freilassung
freilich
freilichtmuseum
freilos
freimaurer
freimaurerloge
freischaffender
freising
freispruch
freistaat
freistaates
freistadt
freistil
freitag
freitags
freital
freitreppe
freiwillig
freiwillige
freiwilligen
freiwilliger
freizeit
freizeitpark
freizu
fremd
fremde
fremden
fremder
fremdsprache
fremdsprachen
french
frequenz
frequenzen
fresh
fresken
fresko
fressen
freud
freude
freudenberg
freudenstadt
freund
freunde
freunden
freundes
freundeskreis
freundin
freundinnen
freundlich
freundschaft
freundschaftsspiel
frey
freytag
frh
friaul
fribourg
frick
fricke
frida
friday
frido
fridolin
fried
frieda
friedberg
friede
friedel
friedemann
frieden
friedens
friedensbewegung
friedenskirche
friedensschluss
friedensverhandlungen
friedensvertrag
friederike
friedhelm
friedho
friedhof
friedhofs
friedhofskapelle
friedl
friedla
friedland
friedlich
friedliche
friedlichen
friedman
friedrich
friedrichs
friedrichshafen
friedrichshain
friedrichstadt
friedrichstraße
friend
friends
fries
friese
friesen
friesland
frisch
frische
frischen
frist
fritsch
fritz
fritzlar
frl
fro
froh
from
fromm
fromme
frommen
front
frontal
fronten
frontier
frosch
frost
fru
frucht
fruchtbaren
fruchtknoten
fruchtko
fry
frz
fs
fsk
fsv
ft
fte
ften
fter
fteren
fters
ftig
ftige
ftigen
ftiger
ftigt
ftigte
ftigten
ftigung
ftling
ftlinge
ftlingen
fts
ftsbereich
ftsfu
ftshaus
ftsjahr
ftsleitung
ftsmann
ftsstelle
ftung
fu
fuchs
fuer
fuge
fugger
fuhr
fuhren
fuhrmann
fuji
fukuoka
fukushima
fulda
fuldaer
full
fuller
fun
function
functions
fund
fundament
fundamente
funde
funden
fundort
fundorte
fundplatz
fundsta
fundstelle
fundstellen
fundstu
funeral
fung
fungen
fungieren
fungiert
fungierte
fungierten
funk
funke
funktion
funktiona
funktionale
funktionalita
funktionen
funktionieren
funktioniert
funktionierte
funktionsfa
funktionsweise
fur
furcht
fury
fusion
fusioniert
fusionierte
fusionierten
fussball
futsal
futter
future
fuß
fußball
fußballabteilung
fußballer
fußballfunktiona
fußballliga
fußballmannschaft
fußballmeisterschaft
fußballnationalmannschaft
fußballnationalspieler
fußballpokal
fußballs
fußballsaison
fußballschiedsrichter
fußballspielen
fußballspieler
fußballspielerin
fußballstadion
fußballtorhu
fußballtorwart
fußballtrainer
fußballverband
fußballverbandes
fußballverein
fußboden
fuße
fußga
fußnote
fußnoten
fv
fw
g
ga
gab
gabe
gaben
gabler
gabriel
gabriela
gabriele
gabrielle
gabun
gaetano
gage
gail
gaius
gal
gala
galatasaray
galaxie
galaxien
galaxy
gale
galen
galerie
galerien
galilei
galileo
galizien
gall
gallen
galler
galleria
gallery
gallien
gallimard
gallo
galloway
gallus
galt
galten
gama
gambia
game
games
gaming
gamma
gan
gandhi
gang
gangster
gans
ganz
ganze
ganzen
ganzer
ganzes
ganzja
gap
gar
garage
garantie
garantieren
garantiert
garci
garcia
garde
garden
gardens
gardiner
gardner
gare
garfield
garland
garmisch
garnison
garonne
garrett
garten
gartenbau
gartenlaube
gartens
gartenstadt
gary
gas
gase
gasse
gassen
gast
gastauftritt
gastauftritte
gastbeitra
gastgeber
gasthaus
gasthof
gastierte
gastmannschaft
gastmusiker
gaston
gastprofessor
gastronomie
gastspiel
gastspiele
gaststa
gastwirt
gate
gates
gateway
gatten
gattin
gattung
gattungen
gattungsname
gau
gauleiter
gauliga
gaulle
gauß
gavin
gay
gaza
gazette
gazetteer
gb
gbar
gbare
gbaren
gbarkeit
gc
gd
gdan
ge
gea
geachtet
gearbeitet
geb
geba
gebar
gebaut
gebaute
gebauten
gebe
gebeine
geben
gebet
gebete
gebeten
gebhard
gebhardt
gebiet
gebiete
gebieten
gebietes
gebiets
gebietsa
gebietsko
gebietsreform
gebietsstand
gebilde
gebildet
gebildete
gebildeten
gebirge
gebirges
gebirgs
geblieben
gebliebene
gebliebenen
gebogen
gebogenen
geboren
geborene
geborenen
geborener
geborgen
gebot
gebote
geboten
gebr
gebra
gebracht
gebrauch
gebraucht
gebrauchte
gebrochen
gebru
gebu
gebunden
gebundene
gebundenen
geburt
geburtsdatum
geburtshaus
geburtshilfe
geburtsjahr
geburtsort
geburtsstadt
geburtstag
geburtstages
geburtstags
geda
gedacht
gedanke
gedanken
gedankengut
gedeckt
gedeihen
gedeiht
gedenken
gedenkmu
gedenksta
gedenkstein
gedenktafel
gedenktafeln
gedenktag
gedeutet
gedicht
gedichtband
gedichte
gedichten
gedient
gedra
gedreht
gedrehten
gedru
gedruckt
gedruckte
gedruckten
gedrucktes
geehrt
geeignet
geeignete
geeigneten
geeigneter
geerbt
geest
gefa
gefahr
gefahren
gefallen
gefallene
gefallenen
gefangen
gefangene
gefangenen
gefangener
gefangennahme
gefangenschaft
gefasst
gefecht
gefechte
gefechten
gefeiert
gefertigt
gefertigte
gefertigten
gefieder
geflogen
geflohen
geflu
gefo
gefolge
gefolgt
gefoltert
gefordert
geforderte
geforderten
geformt
gefragt
gefu
gefunden
gefundene
gefundenen
gegangen
gegeben
gegebene
gegebenen
gegebenenfalls
gegebenheiten
gegen
gegenangriff
gegend
gegenden
gegeneinander
gegenleistung
gegenreformation
gegensa
gegensatz
gegenseitig
gegenseitige
gegenseitigen
gegenspieler
gegensta
gegenstand
gegenstu
gegenteil
gegentore
gegenu
gegenwa
gegenwart
gegenzug
gegessen
gegliedert
gegner
gegnerische
gegnerischen
gegnern
gegners
gegossen
gegru
geh
geha
gehabt
gehalt
gehalten
gehaltene
gehaltenen
gehandelt
gehe
geheim
geheimdienst
geheime
geheimen
geheimer
geheimnis
geheimnisse
geheimnisvolle
geheimrat
geheiratet
gehen
gehindert
gehirn
gehirns
geho
gehoben
gehobenen
geholfen
geholt
gehorsam
geht
gehzeit
geige
geiger
geisel
geiseln
geislingen
geist
geiste
geister
geistes
geisteswissenschaften
geistig
geistige
geistigen
geistiger
geistliche
geistlichen
geistlicher
geißler
gejagt
geka
gekauft
gekennzeichnet
gekla
geknu
gekommen
gekommenen
gekoppelt
gekreuzt
gekro
gekru
geku
gel
gela
geladen
gelagert
gelang
gelangen
gelangt
gelangte
gelangten
gelassen
gelaufen
gelb
gelbe
gelben
gelber
gelblich
gelbliche
geld
geldecken
gelder
geldern
geldes
geldstrafe
gelebt
gelege
gelegen
gelegene
gelegenen
gelegenheit
gelegenheiten
gelegentlich
gelegt
gelehrt
gelehrte
gelehrten
gelehrter
geleistet
geleitet
geleitete
geleiteten
gelernt
gelesen
geliebt
geliebte
geliebten
geliefert
gelige
geligen
gelingen
gelingt
gelistet
gelisteten
gelland
geln
gelnhausen
gelo
gelobt
gels
gelsenkirchen
gelspannweite
gelt
gelte
gelten
geltend
geltende
geltenden
geltung
gelu
gelungen
gem
gema
gemacht
gemachten
gemahlin
gemalt
gemarkung
gemarkungen
gemein
gemeinde
gemeindeauflo
gemeindebezirk
gemeindeedikt
gemeindegebiet
gemeindegebietes
gemeindegebiets
gemeindegliederung
gemeindegrenze
gemeindegru
gemeindehaus
gemeindelexikon
gemeinden
gemeindeordnung
gemeindepartnerschaften
gemeindera
gemeinderat
gemeinderates
gemeinderats
gemeinderatswahl
gemeinderatswahlen
gemeindeteil
gemeindeteile
gemeindeverband
gemeindevertretung
gemeindeverwaltung
gemeindeverzeichnis
gemeindewappen
gemeindezentrum
gemeine
gemeinen
gemeinnu
gemeinsam
gemeinsame
gemeinsamen
gemeinsamer
gemeinsames
gemeinsamkeiten
gemeinschaft
gemeinschaften
gemeinschaftlich
gemeinschaftlichen
gemeint
gemeldet
gemeldeten
gemessen
gemisch
gemischt
gemischte
gemischten
gemmingen
gemu
gen
gena
genannt
genannte
genannten
genannter
genau
genaue
genauen
genauer
genauere
genaues
genauigkeit
genauso
gend
gendarmerie
gende
genden
gender
gene
genealogie
genealogische
genealogisches
genealogy
genehmigt
genehmigte
genehmigung
geneigt
genera
general
generaldirektion
generaldirektor
generale
generalfeldmarschall
generalgouverneur
generalkonsul
generalleutnant
generalmajor
generaloberst
generals
generalsekreta
generalstaatsanwalt
generalstab
generalstabes
generalstabs
generalstabschef
generalsuperintendent
generalversammlung
generalvikar
generation
generationen
generative
generator
generatoren
generell
generelle
genesis
genesung
genetic
genetics
genetik
genetisch
genetische
genetischen
genf
genfer
genie
genießen
genießt
genius
geno
genom
genommen
genoss
genossen
genossenschaft
genossenschaften
genre
genremaler
genres
gens
gent
gentleman
genu
genua
genug
genus
genuss
genutzt
genutzte
genutzten
geo
geoda
geoff
geoffrey
geografie
geografische
geografischen
geograph
geographic
geographie
geographisch
geographische
geographischen
geographischer
geographisches
geologe
geologen
geological
geologie
geologisch
geologische
geologischen
geology
geometrie
geometrische
geometrischen
geometry
geonames
geordnet
georg
georgano
george
georgen
georges
georgetown
georgi
georgia
georgien
georgios
georgische
georgischen
georgischer
georgs
geotop
gepa
gepfarrt
gepflanzt
gepflegt
geplant
geplante
geplanten
geplu
gepra
gepru
geq
ger
gera
gerade
geraden
geradezu
gerais
gerald
gerard
geraten
gerber
gerd
gerda
gerechnet
gerecht
gerechte
gerechten
gerechtfertigt
gerechtigkeit
geregelt
gereinh
gereinigt
gerettet
gerhard
gerhardt
gerhart
gericht
gerichte
gerichten
gerichtet
gerichtete
gerichteten
gerichtlich
gerichtliche
gerichtlichen
gerichts
gerichtsbarkeit
gerichtsbezirk
gerichtsgeba
gerichtshof
gerichtshofs
gerichtsverfahren
geriet
gerieten
gerin
gering
geringe
geringem
geringen
geringer
geringere
geringerem
geringeren
geringerer
geringfu
geringsten
gerinnen
gerlach
germain
german
germanen
germania
germaniae
germanische
germanischen
germanist
germanistik
germany
germersheim
gern
gerne
gernot
gero
gerold
gerrit
gerry
gers
gerschaft
gerste
gert
gerte
gerten
gertrud
gertrude
geru
geruch
gerufen
gerundet
gerung
gerungen
ges
gesa
gesagt
gesammelt
gesammelte
gesammelten
gesamt
gesamtausgabe
gesamtbevo
gesamte
gesamten
gesamtes
gesamtfla
gesamtgewicht
gesamtheit
gesamtkosten
gesamtla
gesamtrang
gesamtreihe
gesamtschule
gesamtweltcup
gesamtwerk
gesamtwertung
gesamtzahl
gesandt
gesandte
gesandten
gesandter
gesandtschaft
gesang
gesangbuch
gesangspa
gesch
gescha
geschaffen
geschaffene
geschaffenen
geschafft
geschah
geschaltet
geschehen
geschehens
geschehnisse
gescheitert
gescheiterten
geschenk
geschenke
geschenkt
geschichtchen
geschichte
geschichten
geschichtliche
geschichtlichen
geschichtlicher
geschichts
geschichtsbla
geschichtsforschung
geschichtsschreiber
geschichtsschreibung
geschichtsverein
geschichtsvereins
geschichtswissenschaft
geschick
geschickt
geschieden
geschieht
geschildert
geschlagen
geschlecht
geschlechter
geschlechtern
geschlechts
geschlossen
geschlossene
geschlossenen
geschlossener
geschmack
geschmu
geschnitten
geschnitzte
gescho
geschoben
geschoss
geschosse
geschossen
geschrieben
geschriebene
geschriebenen
geschu
geschuldet
geschwa
geschwader
geschwindigkeit
geschwindigkeiten
geschwister
geschwistern
gesehen
gesellen
gesellschaft
gesellschaften
gesellschafter
gesellschaftlich
gesellschaftliche
gesellschaftlichen
gesellschaftlicher
gesendet
gesenkt
gesetz
gesetze
gesetzen
gesetzentwurf
gesetzes
gesetzgeber
gesetzgebung
gesetzlich
gesetzliche
gesetzlichen
gesetzt
gesetzte
gesetzten
gesichert
gesicherte
gesicherten
gesicht
gesichter
gesichtet
gesichtspunkten
gesims
gesinnung
gesondert
gesorgt
gespalten
gespannt
gespeichert
gespeist
gespendet
gesperrt
gespielt
gespielte
gespielten
gespra
gesprengt
gesprochen
gesprochenen
gespu
gest
gesta
gestalt
gestalten
gestaltet
gestaltete
gestalteten
gestaltung
gestand
gestanden
gestapo
gestartet
gestarteten
gestatten
gestattet
gestattete
geste
gesteckt
gesteht
gesteigert
gestein
gesteine
gesteinen
gestellt
gestellte
gestellten
gestern
gesteuert
gestiegen
gestielt
gestielten
gestiftet
gestimmt
gesto
gestohlen
gestoppt
gestorben
gestoßen
gestrichen
gestu
gesu
gesucht
gesund
gesunde
gesunden
gesundheit
gesundheitliche
gesundheitlichen
gesundheits
gesundheitswesen
gesundheitszustand
gesungen
gesunken
get
geta
getan
getauft
getauscht
geteilt
geteilte
geteilten
getestet
geto
getra
getragen
getreide
getrennt
getrennte
getrennten
getreten
getriebe
getrieben
getroffen
getroffenen
geu
gewa
gewachsen
gewalt
gewaltige
gewaltigen
gewaltsam
gewaltsamen
gewaltta
gewand
gewandelt
gewann
gewannen
gewarnt
gewebe
gewechselt
geweckt
gewehr
gewehre
geweiht
geweihte
gewerbe
gewerbegebiet
gewerbliche
gewerblichen
gewerk
gewerkschaft
gewerkschaften
gewerkschafter
gewertet
gewesen
gewicht
gewichte
gewichtheben
gewichtheber
gewichtsklasse
gewidmet
gewinn
gewinne
gewinnen
gewinner
gewinnt
gewinnung
gewirkt
gewisse
gewissen
gewisser
gewissermaßen
gewitter
gewo
gewohnt
gewonnen
gewonnene
gewonnenen
geworden
gewordene
gewordenen
geworfen
gewu
gewusst
geyer
geza
gezahlt
gezeichnet
gezeigt
gezeigten
gezielt
gezielte
gezogen
gezogenen
gezu
gezwungen
gf
gg
gge
ggf
ggmbh
ghana
ghanaischer
gheorghe
ghetto
ghost
ghz
gi
giacomo
gian
gianni
giant
giants
gib
gibbs
gibraltar
gibson
gibt
gide
gideon
giebel
gier
gießen
gießener
gießerei
gif
gifhorn
gift
gig
gige
gigen
giger
gigkeit
gil
gilbert
gilde
giles
gill
gilles
gillespie
gilt
gime
giment
gina
ging
gingen
gino
gion
giordano
giorgio
giovanni
gipfel
gipfels
gips
girl
girls
giro
girolamo
gironde
gis
gisela
gitarre
gitarren
gitarrist
gitarristen
gitter
giulia
giulio
giuseppe
give
gl
gla
glacier
gladbach
glan
glanz
glarus
glas
glaser
glasfenster
glasgow
glashu
glasmaler
glasmalerei
glass
glatt
glatte
glatten
glatz
glaube
glauben
glaubens
glaubt
glaubte
glaubten
glaubwu
glauchau
glauser
gleich
gleichberechtigung
gleiche
gleichem
gleichen
gleicher
gleichermaßen
gleiches
gleichfalls
gleichgesetzt
gleichgestellt
gleichgewicht
gleichgu
gleichheit
gleichma
gleichnamige
gleichnamigen
gleichnamiger
gleichsam
gleichschaltung
gleichstellung
gleichstrom
gleicht
gleichung
gleichungen
gleichwohl
gleichzeitig
gleichzeitige
gleichzeitigen
gleichzeitiger
gleis
gleisanlagen
gleise
gleisen
glen
glenn
gler
gletscher
gletschers
gli
glich
gliche
glichen
glicher
glicherweise
gliches
glichkeit
glichkeiten
glichst
glicht
glichte
glichten
glied
glieder
gliedern
gliedert
gliederte
gliederung
gliedmaßen
glise
glo
global
globale
globalen
globalisierung
globe
globus
glocke
glocken
glockengießerei
glockenstuhl
glockenturm
glogau
gloria
glory
gloucester
glu
glucose
gm
gmbh
gmina
gmu
gmunden
gnade
gnaden
gne
gnu
go
goa
goal
god
godesberg
gods
goebbels
goes
goethe
goethes
goetz
gogh
goia
going
gold
goldberg
golden
goldene
goldenem
goldenen
goldener
goldenes
goldman
goldmann
goldmedaille
goldmedaillen
goldschmidt
goldschmied
goldstein
golf
goltz
gomes
gomez
gone
gong
gonza
gonzaga
gonzalo
good
goodbye
goodman
google
gordon
gore
gorki
goslar
gospel
got
gotha
gothaisches
gothic
gotik
gotische
gotischen
gotischer
gotisches
gott
gottes
gottesdienst
gottesdienste
gotteshaus
gottesmutter
gottfried
gotthard
gottheit
gottheiten
gotthelf
gotthold
gottlieb
gottlob
gottorf
gottschalk
gould
gouvernement
gouvernements
gouverneur
gouverneure
gouverneurs
gov
governance
government
governor
governors
goya
gp
gps
gr
gra
grab
grabbau
grabbeigaben
grabe
graben
grabes
grabfeld
grabhu
grabkammer
grablege
grabmal
grabplatte
grabsta
grabstein
grabsteine
grabung
grabungen
grace
grad
grade
grades
graduate
graduierte
graefe
graeff
graf
grafen
graff
graffiti
grafik
grafiken
grafiker
grafikerin
grafische
grafischen
grafschaft
grafschaften
graham
gramm
grammar
grammatik
grammophon
grammy
gran
granada
granaten
grand
grande
grandes
granit
grant
graph
graphen
graphic
graphik
graphiker
graphische
gras
grass
grat
gratz
grau
graubraun
graubu
graue
grauen
grauer
grave
graves
gray
graz
grazer
gre
great
greater
greatest
greco
greece
greek
green
greene
greenpeace
greenwich
greenwood
greg
gregor
gregorianischen
gregorio
gregory
greif
greifen
greifswald
greifswalder
greift
greiner
greiz
gremien
gremium
grenadier
grenoble
grenze
grenzen
grenzgebiet
grenzt
grenzte
grenzu
grenzwert
greta
grete
greven
grey
gridcolor
griech
grieche
griechen
griechenland
griechenlands
griechisch
griechische
griechischen
griechischer
griff
griffel
griffen
griffin
griffith
griffiths
grimm
grimma
grimme
gro
grob
grobe
groben
gronau
groningen
groove
gropius
gros
groschen
gross
grosse
grossen
grosser
grosses
grosso
grossrat
grote
grotte
ground
group
groupe
groups
grove
growth
groß
großbrand
großbritannien
großbritanniens
große
großeltern
großem
großen
großer
großes
großfla
großfu
großgemeinde
großgrundbesitzer
großherzog
großherzoglich
großherzogtum
großherzogtums
großko
großkreuz
großma
großmann
großmeister
großmutter
großoffizier
großpolen
großra
großraum
großschanze
großsta
großstadt
großsteingra
großsteingrab
großteil
großteils
großvater
großvaters
großzu
gru
grub
grube
gruben
gruber
gruft
grund
grundausbildung
grundbesitz
grundbesitzer
grunde
grundfarbe
grundfla
grundgesetz
grundgesetzes
grundherren
grundherrschaft
grundlage
grundlagen
grundlegend
grundlegende
grundlegenden
grundmauern
grundrechte
grundriss
grundsa
grundsatz
grundschule
grundschulen
grundstein
grundsteinlegung
grundstu
grundwasser
grundzu
gruner
grunewald
gruppe
gruppen
gruppenausstellungen
gruppenphase
gruppensieger
gruppenspiel
gruppenspielen
gruppierung
gruppierungen
gruyter
gruß
gs
gt
gte
gten
gter
gtes
gu
guadalajara
guangdong
guangzhou
guard
guardian
guatemala
gudrun
gue
guerra
guerre
guerrero
guez
guggenheim
gui
guide
guido
guild
guillaume
guillermo
guinea
guinness
guitar
gulag
gulbransson
gulden
gulf
gumbinnen
gummersbach
gummi
gun
gundolf
gung
gungen
gunnar
guns
gunst
gunsten
gunter
gunther
gunzenhausen
gus
gustaf
gustav
gustave
gustavo
gut
gutachten
gutachter
gute
gutem
guten
gutenberg
guter
gutes
gutie
guts
gutsbesitzer
gutsbezirk
gutshaus
gutsherr
gutshof
guttenberg
guy
guyana
gv
gvbl
gw
gymnasiallehrer
gymnasien
gymnasium
gymnasiums
gymnastik
gyna
gyo
gypten
gyptens
gypter
gyptische
gyptischen
gyptischer
gyula
h
ha
haag
haager
haan
haar
haare
haaren
haarlem
haas
haase
hab
habe
haben
haber
habermas
habilitation
habilitationsschrift
habilitierte
habitat
habitus
habsburg
habsburger
habsburgermonarchie
habsburgischen
hack
hacker
had
hadamar
hadrian
hafen
hafens
hafenstadt
hafner
haft
haftbefehl
haftet
haftstrafe
haftung
hagen
hager
hahn
hai
haider
haie
haifa
hain
hair
haiti
haken
hakenkreuz
hal
halb
halbbruder
halbe
halben
halber
halberstadt
halbes
halbfinale
halbfinals
halbinsel
halbjahr
halbkreisfo
halbmarathon
halbschwergewicht
halbstu
halbzeit
hale
half
halfen
halfpipe
halifax
hall
halle
hallein
hallen
halleneuropameisterschaften
hallenkirche
haller
hallo
halloween
hals
halt
halte
halten
haltepunkt
haltestelle
haltestellen
haltung
ham
hamann
hamas
hamburg
hamburger
hamburgische
hamburgischen
hamburgs
hameln
hamilton
hamlet
hamm
hammer
hammerstein
hammond
hampshire
hampton
han
hanau
hanauer
hancock
hand
handball
handballspieler
handballspielerin
handbook
handbu
handbuch
handel
handele
handeln
handelns
handels
handelsblatt
handelskammer
handelsregister
handelsschule
handelt
handelte
handhabung
handle
handlung
handlungen
hands
handschrift
handschriften
handwerk
handwerker
handwerks
handwo
handy
hang
hank
hann
hanna
hannah
hannelore
hannes
hannibal
hanno
hannover
hannovers
hannoversche
hannoverschen
hanns
hans
hansa
hanse
hanseatische
hansen
hanser
hansestadt
hansjo
happy
hara
harald
harbor
harbour
harburg
harcourt
hard
hardcore
hardenberg
harder
harding
hardt
hardware
hardy
hare
harfe
harlem
harley
harmonie
harmony
harms
harold
harper
harrassowitz
harriet
harris
harrison
harry
hart
hartberg
harte
harten
harter
hartford
hartmann
hartmut
hartna
hartplatz
hartung
hartwig
harvard
harvey
harz
has
hasan
hase
hasen
hass
hassan
hasse
hast
hastings
hat
hate
hatte
hatten
hattingen
hau
haube
haufen
haug
haupt
hauptaltar
hauptamtlichen
hauptamtlicher
hauptartikel
hauptaufgabe
hauptbahnhof
hauptbahnhofs
hauptdarsteller
hauptdarstellerin
haupteingang
haupteinheit
hauptfeld
hauptfigur
hauptfiguren
hauptfriedhof
hauptgeba
hauptgescha
hauptgu
hauptinsel
hauptkirche
hauptlinie
hauptmann
hauptmanns
hauptort
hauptportal
hauptpreis
hauptquartier
hauptrolle
hauptrollen
hauptrunde
hauptsa
hauptsache
hauptsatzung
hauptschule
hauptsitz
hauptsta
hauptstaatsarchiv
hauptstadt
hauptstraße
hauptstrecke
hauptteil
hauptthema
hauptversammlung
hauptverwaltung
hauptwerk
haus
hause
hausen
hauser
hauses
hausfrau
haushalt
haushalte
haushalten
haushalts
haushaltungen
hauslehrer
hausmann
hausnummer
hausordens
haut
haute
hautes
hauts
havanna
have
havel
haven
havilland
havre
hawaii
hawk
hawkins
hawks
hay
haydn
hayes
hb
hbf
hbo
hc
hd
he
head
health
heart
hearts
heat
heath
heather
heaven
heavy
heavyweight
hebel
heben
hebra
hebt
hebung
hechingen
hecht
heck
heckansicht
hecken
hecker
hector
hedwig
heer
heere
heeres
heeresgruppe
heerfu
heerstraße
heft
hefte
heftig
heftige
heftigen
heftiger
hegel
heide
heidegger
heidelberg
heidelberger
heiden
heidenheim
heidi
heidnischen
height
heights
heike
heiko
heil
heilbronn
heilbronner
heilen
heilig
heilige
heiligen
heiligenkreuz
heiligenstadt
heiliger
heiliges
heiligtum
heilkunde
heilung
heim
heimat
heimatbla
heimatbuch
heimatforscher
heimatgeschichte
heimathafen
heimatkunde
heimatland
heimatmuseum
heimatort
heimatstadt
heimatverein
heimgesucht
heimisch
heimische
heimischen
heimkehr
heimlich
heimliche
heimmannschaft
heimniederlage
heimsieg
heimspiel
heimspiele
heimsta
heimsuchung
hein
heine
heinemann
heiner
heino
heinrich
heinrichs
heinsberg
heinz
heinze
heirat
heiraten
heiratet
heiratete
heirateten
heise
heizung
heiß
heiße
heißen
heißt
hektar
hel
held
helden
helen
helena
helene
helfen
helfer
helga
helge
helgoland
helios
helium
hell
hellblau
helle
hellen
heller
hellgru
helligkeit
hellmut
hellmuth
hello
helm
helme
helmholtz
helms
helmstedt
helmut
helmuth
help
helsinki
hemer
hemmung
hempel
hen
henburg
hende
henden
henderson
hendon
hendrik
hengst
henkel
henlage
henlagen
henmeter
henneberg
hennig
henning
henri
henrich
henriette
henrik
henrique
henru
henry
henryk
henschel
hensel
hentrich
henunterschied
henze
henzug
heppenheim
hepunkt
hepunkte
her
herab
herakles
herald
heraldik
heraldiker
heran
herangezogen
heraus
herausforderer
herausforderung
herausforderungen
herausgab
herausgabe
herausgeber
herausgeberin
herausgeberschaft
herausgebracht
herausgegeben
herausgegebene
herausgegebenen
herausragende
herausragenden
herausragender
herausstellte
herb
herbeifu
herbeigefu
herbert
herbig
herborn
herbst
hercules
herde
herder
here
herem
heren
herer
heres
herford
hergestellt
hergestellte
hergestellten
heribert
hering
heritage
herko
herkules
herkunft
herleitung
herman
hermann
hermannstadt
hermes
hermine
hermsdorf
hern
herna
hernd
herne
hero
herodes
herodot
heroes
herold
herr
herren
herrendoppel
herreneinzel
herrenha
herrenhaus
herrenhauses
herrenmannschaft
herrera
herrin
herrlichkeit
herrmann
herrn
herrschaft
herrschaften
herrschaftsgebiet
herrschen
herrschende
herrschenden
herrscher
herrschern
herrschers
herrscht
herrschte
herrschten
herru
herschel
hersfeld
herstellen
hersteller
herstellern
herstellers
herstellt
herstellte
herstellung
hert
herta
herte
herten
hertha
hertz
herum
herung
herunter
herve
hervor
hervorgebracht
hervorgegangen
hervorgehoben
hervorgeht
hervorgerufen
hervorging
hervorragend
hervorragende
hervorragenden
hervorragender
hervorrufen
hervorzuheben
herwig
herz
herzberg
herzegowina
herzen
herzens
herzinfarkt
herzo
herzog
herzogin
herzoglich
herzoglichen
herzogs
herzogtu
herzogtum
herzogtums
herzustellen
hes
hess
hesse
hessen
hessische
hessischen
hessischer
hessisches
heste
hesten
hestens
het
heubner
heuss
heute
heutige
heutigen
heutiger
heutiges
heutzutage
hexe
hexen
hey
heymann
heyne
heß
hf
hg
hgb
hgeschichte
hi
hidden
hielt
hielten
hier
hierarchie
hierauf
hieraus
hierbei
hierdurch
hierfu
hierher
hierin
hiermit
hiernach
hieronymus
hiervon
hierzu
hiesigen
hieß
hießen
hig
hige
higen
higer
higes
higgins
high
higher
highland
highlights
highschool
highway
highways
higkeit
higkeiten
higung
hilaire
hilary
hilbert
hilda
hildburghausen
hilde
hildebrand
hildebrandt
hildegard
hilden
hildesheim
hildesheimer
hilf
hilfe
hilfen
hilfreich
hilfsmittel
hilft
hill
hiller
hills
hilton
him
himalaya
himmel
himmelfahrt
himmels
himmelsareal
himmelsko
himmler
himmlische
hin
hinab
hinauf
hinaus
hinblick
hindenburg
hindern
hindernis
hindernisse
hindi
hindu
hinduismus
hindurch
hindus
hinein
hing
hingegen
hingerichtet
hingerichtete
hingewiesen
hinnehmen
hinreichend
hinrich
hinrichs
hinrichtung
hinrichtungen
hinrunde
hinsicht
hinsichtlich
hinspiel
hinspiele
hinten
hinter
hinterachse
hintere
hintereinander
hinteren
hinterflu
hintergru
hintergrund
hintergrundlayer
hinterhalt
hinterla
hinterland
hinterlassen
hinterlegt
hinterleib
hinterließ
hinterpommern
hinunter
hinweg
hinweis
hinweise
hinweisen
hinweist
hinz
hinzu
hinzufu
hinzugefu
hip
hirn
hiroshi
hiroshima
hirsch
hirschberg
hirschfeld
hirte
hirten
hirzel
his
histo
histoire
historia
historic
historica
historical
historie
historien
historienmaler
historiker
historikerin
historikern
historikers
historique
historiques
historisch
historische
historischen
historischer
historisches
historismus
history
hit
hitchcock
hitler
hitlers
hitparade
hits
hitze
hiv
hj
hjahr
hk
hl
hlau
hlbach
hlbar
hlberg
hldorf
hle
hlen
hlende
hlenden
hler
hlergemeinschaft
hlergrill
hlern
hlers
hlerstimmen
hlhausen
hlich
hliche
hlig
hlige
hligen
hling
hlings
hlmann
hls
hlt
hlte
hlten
hlter
hlung
hlungen
hlungsdaten
hm
hmann
hme
hmen
hmens
hmer
hmisch
hmische
hmischen
hmischer
hmittelalter
hms
hmt
hmte
hmten
hmter
hmtesten
hmtheit
hmung
hn
hnchen
hne
hneln
hnelt
hnelte
hnen
hnenbild
hnenbildner
hnenstu
hnenswert
hner
hnlich
hnliche
hnlichem
hnlichen
hnlicher
hnliches
hnlichkeit
hnlichkeiten
hnrich
hnt
hnte
hnten
hnung
hnungen
ho
hob
hobby
hoc
hoch
hochaltar
hochburg
hochebene
hochfla
hochha
hochhaus
hochkant
hochland
hochmeister
hochmittelalter
hochsauerlandkreis
hochschule
hochschulen
hochschullehrer
hochschullehrerin
hochsprung
hochstift
hochstifts
hochwasser
hochwertige
hochwertigen
hochzeit
hochzeiten
hockey
hockeyspieler
hodges
hof
hofanlage
hofe
hofer
hofes
hoff
hoffen
hoffenheim
hoffman
hoffmann
hoffnung
hoffnungen
hofft
hoffte
hofkapelle
hofmaler
hofmann
hofmannsthal
hofmark
hofmeister
hofrat
hoftheater
hogan
hohe
hoheit
hohem
hohen
hohenberg
hohenheim
hohenlohe
hohenstein
hohenzollern
hoher
hohes
hohl
hohlra
hokkaido
hold
holden
holding
holdings
hole
holen
holger
holiday
holla
holland
holly
hollywood
holm
holmes
holocaust
holst
holstein
holsteinische
holsteinischen
holsteins
holt
holte
holten
holy
holz
holzbru
holzhausen
holzkirche
holzminden
holzschnitt
holzschnitte
homberg
homburg
home
homepage
homer
hommage
homme
homo
homosexualita
homosexuelle
homosexuellen
hon
honda
honduras
honey
hong
hongkong
honig
honnef
honolulu
honor
honorarprofessor
honorary
honore
honour
hood
hook
hoover
hop
hope
hopkins
hoppe
hor
hora
horace
horb
horizon
horizont
horizontal
horizontale
horizontalen
horizonte
horn
horni
horror
horrorfilm
horse
horst
horva
hose
hosen
hospital
host
hot
hotel
hotels
houghton
hour
hours
house
houston
how
howard
howe
hoya
hp
hr
hrbein
hrchen
hrden
hrdet
hrdete
hrdeten
hrdeter
hrdung
hre
hren
hrend
hrenddessen
hrende
hrenden
hrender
hrendes
hrer
hrerin
hrern
hrers
hrerstand
hrig
hrige
hrigem
hrigen
hriger
hriges
hring
hringen
hringer
hrisch
hrischen
hrleisten
hrleistet
hrlich
hrliche
hrlichen
hrlicher
hrliches
hrsg
hrt
hrte
hrten
hrter
hrtes
hrtin
hrung
hrungen
hrungs
hrungskra
hs
hsam
hsg
hstu
hsv
ht
hte
hten
hter
htm
html
http
https
hu
hua
huang
hub
hubatsch
hubbard
hubble
huber
hubert
hubertus
hubraum
hubschrauber
hudson
hufen
hugenotten
hugh
hughes
hugo
huhn
hui
hull
human
humanismus
humanist
humanistische
humanistischen
humanita
humblot
humboldt
hume
hummel
humor
humphrey
hund
hunde
hunden
hundert
hunderte
hundertja
hundred
hung
hungen
hunger
hungersnot
hunsru
hunt
hunter
hurricane
hurricanes
hurrikan
hus
husaren
hussein
husum
hut
hutchinson
hv
hybrid
hyde
hygiene
hymne
hypothese
hypothesen
hyundai
hz
hzeit
hzeitig
i
ia
iaaf
ian
ias
iata
iau
ib
iba
ibbenbu
iberischen
ibiza
ibm
ibn
ibrahim
ibsen
ic
icao
icc
ice
ich
ichi
icon
id
ida
idaho
ide
idea
ideal
ideale
idealen
idealismus
idee
ideen
identification
identifikation
identifizieren
identifiziert
identifizierte
identifizierung
identisch
identische
identita
identity
ideologie
ideologische
ideologischen
idol
idstein
ie
iec
ieee
if
ifk
ig
igel
iglesia
ignacio
ignatius
ignaz
ignoriert
igor
ihk
ihm
ihn
ihnen
ihr
ihre
ihrem
ihren
ihrer
ihrerseits
ihres
ii
iihf
iii
ij
ik
ikko
ikone
iktas
il
ilias
ilja
ill
illegal
illegale
illegalen
iller
illinois
illusion
illustrated
illustration
illustrationen
illustrator
illustratorin
illustriert
illustrierte
ilm
ilmenau
ilona
ilse
im
ima
image
images
imagesize
imagina
imam
imdb
img
imhof
immanuel
immatrikulierte
immer
immergru
immerhin
immobilien
immunita
impact
impe
imperial
imperialismus
imperii
imperium
impfstoff
impfung
implementiert
implementierung
implications
import
importiert
impressionismus
improvisation
impuls
impulse
imre
in
ina
inbetriebnahme
inc
inch
including
increment
inde
indem
independence
independent
inder
indes
indessen
index
india
indian
indiana
indianapolis
indianer
indianern
indianischen
indians
indie
indien
indiens
indienststellung
indies
indigene
indigenen
indikator
indirekt
indirekte
indirekten
indische
indischen
indischer
individual
individuell
individuelle
individuellen
individueller
individuen
individuum
individuums
indiz
indizien
indo
indochina
indonesia
indonesien
indonesische
indonesischen
indonesischer
indoor
industrial
industrialisierung
industrie
industriebetriebe
industriegebiet
industriekultur
industriell
industrielle
industriellen
industrieller
industries
industry
ine
ineinander
ines
inf
infanterie
infanteriedivision
infanterieregiment
infantry
infektion
infektionen
inferior
inferno
infiziert
infizierten
inflation
influence
info
infolge
infolgedessen
informatik
informatiker
information
informationen
informations
informationstafel
informationstechnik
informieren
informiert
informierte
infos
infrastruktur
infty
ing
inga
ingbert
inge
ingeborg
ingelheim
ingenieur
ingenieure
ingenieurwissenschaften
ingo
ingolstadt
ingrid
inhaber
inhaftiert
inhaftierten
inhaftierung
inhalt
inhalte
inhalten
inhaltlich
inhaltliche
inhaltlichen
inhalts
inhaltsstoffe
inhaltsverzeichnis
initialen
initiative
initiativen
initiator
initiatoren
initiiert
initiierte
initiierten
inka
inkl
inklusive
inkrafttreten
inla
inland
inline
inmitten
inn
inne
innehatte
innen
innenansicht
innenausstattung
inneneinrichtung
innenhof
innenminister
innenministerium
innenministeriums
innenra
innenraum
innenseite
innenstadt
inner
innere
inneren
innerer
inneres
innerhalb
innern
innersta
innings
innovation
innovationen
innovative
innozenz
innsbruck
innsbrucker
inoffiziell
inoffizielle
inoffiziellen
inquisition
ins
insassen
insbesondere
inschrift
inschriften
inscriptions
insekten
insel
inselgruppe
inseln
insgesamt
inside
insofern
insolvenz
insoweit
inspector
inspekteur
inspektion
inspektor
inspiration
inspirieren
inspiriert
inspirierte
instagram
installation
installationen
installiert
installierte
installierten
instand
instandhaltung
instandsetzung
instanz
instanzen
institut
institute
instituten
institutes
institution
institutionelle
institutionen
instituto
instituts
instrument
instrumental
instrumente
instrumenten
instruments
inszeniert
inszenierte
inszenierung
inszenierungen
int
inte
integral
integrated
integration
integrieren
integriert
integrierte
integrierten
integrita
intel
intellektuelle
intellektuellen
intelligence
intelligent
intelligenz
intendant
intendanten
intensita
intensiv
intensive
intensiven
intensiver
intention
inter
interactive
interaktion
interaktive
intercity
interdisziplina
interessant
interessante
interesse
interessen
interessengemeinschaft
interessenten
interesses
interessieren
interessiert
interessierte
interessierten
interest
interface
interieur
interim
interior
interkulturelle
intermezzo
intern
internacional
internat
international
internationale
internationalen
internationaler
internationales
interne
internen
internes
internet
internetauftritt
internetpra
internetseite
interniert
internierungslager
internist
interpret
interpretation
interpretationen
interpreten
interpretieren
interpretiert
interpretierte
interstate
intervall
intervention
interventionen
interview
interviews
into
intrigen
intro
introduction
inuit
inv
invasion
inventar
investieren
investiert
investierte
investigation
investition
investitionen
investment
investor
investoren
involviert
inwieweit
inzwischen
io
ioc
ion
ionen
ionischen
ios
iowa
ip
iphone
ir
ira
irak
irakische
irakischen
iran
iranische
iranischen
iranischer
irdischen
ire
ireland
iren
irene
irgendwann
irgendwo
irina
iris
irisch
irische
irischen
irischer
irish
irland
irlands
irma
irmgard
iron
ironie
ironman
irrefu
irrtu
irrtum
irvine
irving
irwin
is
isa
isaac
isaak
isabel
isabella
isabelle
isar
isbn
isch
ische
ischen
ischer
isches
ise
isenburg
iserlohn
isidor
isis
isla
islam
islamic
islamische
islamischen
islamischer
island
islanders
islands
isle
ismail
iso
isolation
isolde
isoliert
isolierte
isolierten
israel
israeli
israelische
israelischen
israelischer
israelitischen
israels
iss
issn
issue
issues
ist
istanbul
istanbuler
istituto
istrien
istva
it
ita
ital
italia
italian
italiana
italiani
italiano
italien
italiener
italienisch
italienische
italienischen
italienischer
italienisches
italiens
italo
italy
item
itf
ithaca
ito
its
itu
itunes
itzehoe
iu
iucn
iulius
iur
iuris
ius
iv
iva
ivan
ivo
iwan
iwanow
iwanowitsch
iwf
ix
iz
izmir
iſt
j
ja
jack
jackie
jackson
jacksonville
jacob
jacobi
jacobs
jacobsen
jacobsohn
jacobus
jacoby
jacopo
jacqueline
jacques
jade
jae
jaeger
jagd
jagdschloss
jagen
jagst
jaguar
jahn
jahr
jahrbu
jahrbuch
jahre
jahrelang
jahren
jahres
jahresbeginn
jahresbericht
jahresende
jahresniederschlag
jahrestag
jahreswechsel
jahreszahl
jahreszeit
jahreszeiten
jahrg
jahrga
jahrgang
jahrhundert
jahrhunderte
jahrhundertelang
jahrhunderten
jahrhunderts
jahrhundertwende
jahrtausend
jahrtausends
jahrtausendwende
jahrzehnt
jahrzehnte
jahrzehntelang
jahrzehnten
jahrzehnts
jaime
jak
jakarta
jake
jakob
jakobs
jakobsweg
jakobus
jakub
jam
jamaika
jamaikanischer
james
jamie
jan
jana
jane
janeiro
janet
jansen
janssen
januar
january
janus
janusz
jap
japan
japaner
japanese
japanisch
japanische
japanischen
japanischer
japanisches
japans
jar
jardin
jaroslav
jaroslawl
jasmin
jason
jasper
jaspers
java
javier
jay
jazz
jazzmusiker
jazzpianist
jazzsa
je
jean
jeanne
jede
jedem
jeden
jedenfalls
jeder
jedermann
jederzeit
jedes
jedoch
jeff
jefferson
jeffrey
jegliche
jeglicher
jeher
jehke
jehle
jehovas
jelena
jemals
jemand
jemanden
jemen
jena
jenaer
jene
jenem
jenen
jener
jenes
jenkins
jennifer
jennings
jenny
jens
jenseits
jensen
jeremias
jeremy
jerewan
jerome
jerry
jersey
jerusalem
jerusalemer
jerzy
jesse
jessen
jessica
jesu
jesuit
jesuiten
jesus
jesuskind
jet
jets
jetzige
jetzigen
jetzt
jever
jeweilige
jeweiligen
jeweils
jewgeni
jewish
jews
jg
jh
ji
jiang
jill
jim
jime
jimmy
jin
jir
jo
joa
joachim
joan
joanna
joaqui
job
jobs
jobst
joch
joche
jochen
joe
joel
joey
joh
johan
johann
johanna
johannes
johannesburg
johanneskirche
johannis
johanniter
johanniterordens
johanns
johansson
john
johnny
johns
johnson
johnston
joint
joker
jon
jona
jonas
jonathan
jones
jong
jordan
jordanien
jorge
jos
jose
josef
josefstadt
josep
joseph
josepha
josephine
josephs
josephus
josh
joshua
jost
jour
journal
journalismus
journalist
journalisten
journalistin
journalistische
journals
journey
jours
joy
joyce
jozef
jp
jpeg
jpg
jr
js
ju
juan
jubila
juda
judaica
judas
jude
juden
judentum
judentums
judge
judith
judo
judoka
judy
jugend
jugendabteilung
jugendarbeit
jugendbewegung
jugendhilfe
jugendliche
jugendlichen
jugendlicher
jugendliteratur
jugendmannschaft
jugendmannschaften
jugendorganisation
jugendstil
jugendstils
jugendzeit
jugoslawe
jugoslawien
jugoslawiens
jugoslawische
jugoslawischen
jugoslawischer
juice
jul
jules
juli
julia
julian
juliana
juliane
julie
julien
juliette
julio
julius
july
jump
jun
junction
june
jung
junge
jungen
junger
junges
jungfrau
jungle
jungs
jungsteinzeit
jungtiere
jungvo
juni
junior
junioren
juniorenbereich
juniorenweltmeisterschaften
juniorinnen
juniors
junker
junkers
juno
jupiter
jur
jura
jurastudium
jure
juri
juris
jurist
juristen
juristin
juristisch
juristische
juristischen
juristischer
jury
just
justice
justify
justin
justinian
justiz
justizminister
justizministerium
justus
jutta
juventus
jørgen
k
ka
kabarett
kabarettist
kabel
kabine
kabinen
kabinett
kabinetts
kabul
kac
kader
kaffee
kafka
kahl
kahle
kahlen
kahn
kai
kairo
kais
kaiser
kaiserin
kaiserlich
kaiserliche
kaiserlichen
kaiserlicher
kaiserreich
kaiserreichs
kaisers
kaiserslautern
kaisertum
kaiserzeit
kajak
kakteen
kala
kalabrien
kalb
kalender
kali
kaliber
kalif
kalifen
kalifornien
kalifornischen
kaliningrad
kalk
kalkstein
kalkutta
kalle
kalt
kalte
kalten
kalter
kam
kambodscha
kamen
kamera
kameraden
kameramann
kameras
kamerun
kamin
kamm
kammer
kammerherr
kammermusik
kammern
kammerorchester
kammerspiele
kamp
kampagne
kampagnen
kampf
kampfes
kampfgruppe
kampfhandlungen
kampflos
kan
kana
kanada
kanadas
kanadier
kanadisch
kanadische
kanadischen
kanadischer
kanal
kanalisation
kanals
kanarischen
kandidat
kandidaten
kandidatin
kandidatur
kandidieren
kandidierte
kane
kang
kaninchen
kann
kannte
kannten
kanon
kanone
kanonen
kanoniker
kansas
kant
kantate
kantaten
kante
kanten
kanton
kantonalen
kantone
kantonen
kantons
kantonsschule
kantor
kants
kanu
kanute
kanzel
kanzlei
kanzler
kap
kapazita
kapelle
kapellen
kapellmeister
kapita
kapital
kapitalismus
kapitals
kapitel
kapitell
kapitelle
kapitellen
kapiteln
kapitulation
kaplan
kapp
kappa
kapstadt
kapuziner
kara
karate
kardina
kardinal
kardinals
karel
karen
karibik
karibischen
karikatur
karikaturen
karikaturist
karim
karin
karl
karlchen
karlheinz
karls
karlsbad
karlsruhe
karlsruher
karneval
karol
karoline
karosserie
karosserien
karpaten
karriere
karriereende
karrierestatistik
karsten
karta
karte
karten
karthago
kartoffeln
kas
kasachischen
kasachischer
kasachstan
kasan
kaserne
kasernen
kasimir
kaspar
kasper
kasse
kassel
kasseler
kastell
kastells
kasten
kastilien
kat
katalanisch
katalanischen
katalanischer
katalog
kataloge
katalonien
katalysator
katar
katastralgemeinde
katastralgemeinden
katastrophe
katastrophen
kate
katechismus
kategorie
kategorien
kater
kath
katharina
kathedrale
katherine
kathleen
katholiken
katholisch
katholische
katholischen
katholischer
katholisches
katholizismus
kathrin
katie
kationen
katja
kato
katowice
katrin
kattowitz
katz
katze
katzen
katzenelnbogen
kauf
kaufbeuren
kaufen
kaufhaus
kaufleute
kaufma
kaufmann
kaufmanns
kaufpreis
kauft
kaufte
kauften
kaukasus
kaum
kaunas
kavallerie
kawasaki
kay
kayser
kazimierz
kb
kc
kd
ke
keep
kegel
kehl
kehle
kehren
kehrt
kehrte
kehrten
kei
keil
keilfo
kein
keine
keinem
keinen
keiner
keinerlei
keines
keinesfalls
keineswegs
keith
kelch
kelchbla
kelheim
keller
kellner
kelly
kelten
keltische
keltischen
kemal
kemp
kempen
kempten
ken
kenia
kenianischer
kennedy
kennen
kennengelernt
kennenlernte
kenner
kenneth
kennt
kenntnis
kenntnisse
kenntniß
kennung
kenny
kennzahlen
kennzeichen
kennzeichnen
kennzeichnend
kennzeichnet
kennzeichnung
kent
kentucky
kepler
ker
keramik
kern
kerne
kernkraftwerk
kernstadt
kerr
kerry
kersten
kerstin
kessel
kessler
kette
ketten
kevin
kew
key
keyboard
keyboarder
keyboards
keynes
keys
kf
kfk
kfz
kg
kgl
kh
khan
khl
khmer
khz
ki
kick
kicker
kickers
kid
kids
kiefer
kiefern
kiel
kieler
kiepenheuer
kies
kiew
kiewer
kilian
kill
killed
killer
killing
kilogramm
kilometer
kilometern
kim
kind
kinder
kinderbu
kinderbuch
kinderdarsteller
kinderga
kindergarten
kinderlos
kindern
kindertagessta
kindes
kindesalter
kindheit
kindler
king
kingdom
kings
kingston
kino
kinofilm
kinos
kinostart
kinzig
kira
kirby
kirch
kirchberg
kirchdorf
kirche
kirchen
kirchenbau
kirchenbezirk
kirchenbu
kirchengeba
kirchengemeinde
kirchengemeinden
kirchengeschichte
kirchenhistoriker
kirchenkreis
kirchenkreises
kirchenmusik
kirchenmusiker
kirchenprovinz
kirchenraum
kirchenrecht
kirchenschiff
kirchenschiffs
kirchenva
kirchgemeinde
kirchheim
kirchhof
kirchhoff
kirchlich
kirchliche
kirchlichen
kirchlicher
kirchner
kirchspiel
kirchturm
kirgisistan
kirk
kirke
kirsch
kirsten
kis
kiss
kissingen
kissinger
kiste
kisten
kit
kita
kitty
kitzbu
kitzingen
kj
kk
kl
kla
klage
klagen
klagenfurt
klagte
klammern
klang
klar
klara
klare
klaren
klarer
klarheit
klarinette
klarinetten
klarinettist
klartext
klasse
klassen
klassenerhalt
klassifikation
klassifiziert
klassifizierung
klassik
klassiker
klassisch
klassische
klassischen
klassischer
klassisches
klassizismus
klassizistische
klassizistischen
klaus
klavier
klavierkonzert
klavierstu
klavierunterricht
klee
kleid
kleider
kleidung
kleidungsstu
klein
kleinasien
kleinbahn
kleine
kleinem
kleinen
kleiner
kleinere
kleineren
kleinerer
kleines
kleinstadt
kleinste
kleinsten
kleist
klemens
klemm
kleopatra
kleriker
klerus
klett
klettern
kleve
klima
klimas
klimaschutz
klimatischen
klimawandel
klinge
klingen
klingenberg
klinger
klingt
klinik
kliniken
klinikum
klinische
klinischen
klippen
klo
klose
kloster
klosteranlage
klostergeba
klosterkirche
klostermann
klosterneuburg
klosters
klotz
klu
klub
klubs
klug
kluge
km
kn
knabe
knaben
knapp
knappe
knappen
knaur
knecht
knesset
knie
knight
knights
kno
knoblauch
knochen
knoll
knopf
knorr
knoten
knotenpunkt
know
knowledge
knox
knu
knut
ko
koalition
koalitionskrieg
kobayashi
koblenz
koch
kochen
kocher
koda
kodansha
koeffizienten
koehler
koenig
koffer
kognitive
koha
kohl
kohle
kohlen
kohlendioxid
kohlenstoff
kohlenstoffdioxid
kohler
kohlhammer
kohn
kohorte
kolb
kolbe
kolben
kolberg
kollaboration
kolleg
kollege
kollegen
kollegin
kollegium
kollektion
kollektiv
kollektive
kollektiven
koller
kollidierte
kollision
kologe
kologie
kologisch
kologische
kologischen
kolonialen
kolonialzeit
kolonie
kolonien
kolonisten
kolumbianischen
kolumbianischer
kolumbien
kolumbus
kolumne
kolumnist
koma
kombi
kombination
kombinationen
kombinierer
kombiniert
kombinierte
kombinierten
komet
kometen
komiker
komische
komischen
komitat
komitee
komitees
komm
kommandant
kommandanten
kommandeur
kommandeure
kommandierender
kommandiert
kommandierte
kommando
kommandos
komme
kommen
kommend
kommende
kommenden
kommentar
kommentare
kommentator
kommentiert
kommentierte
kommerziell
kommerzielle
kommerziellen
kommerzieller
kommerzienrat
kommissar
kommissarisch
kommissarischer
kommission
kommissionen
kommt
kommunale
kommunalen
kommunaler
kommunalpolitik
kommunalpolitiker
kommunalwahl
kommunalwahlen
kommune
kommunen
kommunikation
kommunismus
kommunist
kommunisten
kommunistische
kommunistischen
kommunistischer
kommunizieren
komo
kompakt
kompakte
kompanie
kompaniechef
kompanien
kompatibel
kompendium
kompensieren
kompetenz
kompetenzen
kompilation
kompilationen
komplementa
komplett
komplette
kompletten
komplex
komplexe
komplexen
komplexer
komplexes
komplexita
komplikationen
komplizierten
komponente
komponenten
komponieren
komponiert
komponierte
komponist
komponisten
komponistin
komposition
kompositionen
kompromiss
komtur
kon
konferenz
konferenzen
konfession
konfessionen
konfessionslos
konfiguration
konflikt
konflikte
konflikten
konflikts
konfo
konfrontation
konfrontiert
kong
kongo
kongregation
kongress
kongresses
kongresswahlen
konkret
konkrete
konkreten
konkurrent
konkurrenten
konkurrenz
konkurrenzfa
konkurrierenden
konkurs
konnte
konnten
konom
konomen
konomie
konomik
konomisch
konomische
konomischen
konomischer
konrad
konsens
konsequent
konsequenz
konsequenzen
konservativ
konservative
konservativen
konservativer
konservatorium
konsistorium
konsole
konsolen
konsolidierung
konsonanten
konsortium
konstant
konstante
konstanten
konstantin
konstantinopel
konstanz
konstanzer
konstellation
konstituierenden
konstitution
konstruieren
konstruiert
konstruierte
konstrukteur
konstrukteurswertung
konstruktion
konstruktionen
konstruktive
konsul
konsulat
konsum
konsumenten
kontakt
kontakte
kontakten
konteradmiral
kontext
kontinent
kontinentalen
kontinenten
kontinents
kontingent
kontinuierlich
kontinuierliche
kontinuierlichen
kontinuita
konto
kontrabass
kontrahenten
kontrakt
kontrast
kontrolle
kontrollen
kontrollieren
kontrolliert
kontrollierte
kontrollierten
kontrovers
kontroverse
kontroversen
konvent
konvention
konventionelle
konventionellen
konventionen
konvergenz
konversations
konversion
konvertierte
konvoi
konzentration
konzentrationen
konzentrationslager
konzentrationslagern
konzentrieren
konzentriert
konzentrierte
konzentrierten
konzept
konzepte
konzepten
konzeption
konzepts
konzern
konzerns
konzert
konzerte
konzerten
konzertsa
konzession
konzil
konzils
konzipiert
konzipierte
kooperation
kooperationen
kooperiert
koordinaten
koordination
koordinator
koordiniert
koordinierte
kopenhagen
kopf
kopfes
kopie
kopien
kopiert
kopp
koppeln
kopplung
koproduktion
kor
koran
korb
korea
korean
koreanisch
koreanische
koreanischen
korn
korporierter
korps
korpus
korrekt
korrekte
korrektur
korrespondent
korrespondenz
korrespondierendes
korridor
korrigiert
korrigierte
korruption
korsika
korvettenkapita
kos
kosaken
kosmos
kosovo
kossa
kosten
kostengru
kostengu
kostenlos
kostenlose
kostenlosen
kostet
kostete
kostu
kov
kova
kp
kpd
kpdsu
kpo
kr
kra
krafft
kraft
kraftfahrzeuge
kraftfahrzeugen
kraftstoff
kraftu
kraftwerk
kraftwerke
kraftwerks
kragen
krain
kraj
krakau
krakauer
krallen
kramer
krank
kranke
kranken
krankenha
krankenhaus
krankenhauses
krankenkassen
krankenpflege
krankenschwester
krankenversicherung
krankheit
krankheiten
krankheitsbild
kranz
krater
kraus
krause
krauss
krautige
krauß
kreative
kreativen
kreativita
krebs
kredit
kredite
krefeld
kreide
kreis
kreisbahn
kreise
kreisen
kreises
kreisfo
kreisfreie
kreisfreien
kreisgebiet
kreislauf
kreisliga
kreisreform
kreissparkasse
kreisstadt
kreisstraße
kreistag
kreisverwaltung
kremer
krems
kreta
kreuz
kreuzberg
kreuze
kreuzen
kreuzer
kreuzes
kreuzfahrer
kreuzgang
kreuzgratgewo
kreuzigung
kreuzigungsgruppe
kreuzkirche
kreuznach
kreuzrippengewo
kreuzt
kreuztabelle
kreuzung
kreuzweg
kreuzzug
krieg
kriege
kriegen
krieger
kriegerdenkmal
kriegerischen
krieges
kriegfu
kriegs
kriegsausbruch
kriegsbedingt
kriegsbeginn
kriegsdienst
kriegsende
kriegserkla
kriegsfu
kriegsgefangene
kriegsgefangenen
kriegsgefangenenlager
kriegsgefangener
kriegsgefangenschaft
kriegsgra
kriegsmarine
kriegsminister
kriegsministerium
kriegsschauplatz
kriegsschiffe
kriegsverbrechen
kriegsverbrecher
krim
krimi
kriminalfall
kriminalfilm
kriminalita
kriminalroman
kriminelle
kriminellen
krimiserie
kris
krise
krisen
kristall
kristalle
kristallisiert
kristallstruktur
kristallsystem
kristian
kristin
kristina
kriterien
kriterium
kritik
kritiken
kritiker
kritikern
kritisch
kritische
kritischen
kritischer
kritisieren
kritisiert
kritisierte
kritisierten
kriz
kro
kroaten
kroatien
kroatisch
kroatische
kroatischen
kroatischer
kronach
kronbla
krone
kronen
kronprinz
kronprinzen
kronro
kru
krug
krupp
kruse
kruzifix
krypta
krzysztof
ks
ksc
ksv
kt
ku
kuala
kuba
kubanische
kubanischen
kubanischer
kubikmeter
kuchen
kufstein
kugel
kugelfo
kugeln
kugelstoßen
kuh
kuhn
kularisation
kulisse
kulissen
kulm
kulmbach
kult
kultiviert
kultur
kulturbesitz
kulturdenkma
kulturdenkmal
kulturdenkmale
kulturell
kulturelle
kulturellen
kultureller
kulturelles
kulturen
kulturerbe
kulturgeschichte
kulturgu
kulturgut
kulturhaus
kulturlandschaft
kulturpolitik
kulturpreis
kulturstiftung
kulturzentrum
kultusministerium
kultusministeriums
kumar
kumenische
kumenischen
kummer
kun
kunde
kunden
kung
kunigunde
kuno
kunst
kunstakademie
kunstausstellung
kunstausstellungen
kunstdenkma
kunstfu
kunstgeschichte
kunstgewerbeschule
kunstha
kunsthalle
kunsthandwerk
kunsthaus
kunsthistoriker
kunsthistorikerin
kunsthistorischen
kunsthochschule
kunstkritiker
kunstmaler
kunstmuseum
kunstpreis
kunstsammler
kunstsammlung
kunstsammlungen
kunstschule
kunststoff
kunstverein
kunstvereins
kunstverlag
kunstwerk
kunstwerke
kunstwerken
kunz
kunze
kupfer
kupferstecher
kupferstich
kuppe
kuppel
kupplung
kur
kurator
kuratorin
kuratorium
kuratoriums
kurden
kurdischen
kurfu
kurhaus
kurhessen
kurhessischen
kurie
kurier
kurko
kurland
kurort
kurpark
kurpfa
kurpfalz
kurs
kursa
kurse
kursk
kurt
kurve
kurven
kurz
kurzbiografie
kurzbiographie
kurze
kurzem
kurzen
kurzer
kurzerhand
kurzes
kurzfilm
kurzfilme
kurzform
kurzfristig
kurzgeschichte
kurzgeschichten
kurzzeitig
kusel
kuss
kuwait
kv
kw
kwh
ky
kyffha
kyle
kyo
kyoto
kyu
kz
l
la
laaber
lab
label
labels
labor
laboratorium
laboratory
labour
labyrinth
lac
lachen
lackiert
lackierung
laden
ladies
ladislaus
ladung
lady
lafayette
lag
laga
lage
lagen
lager
lagern
lagers
lagersta
lagerung
lago
lagos
laguna
lagune
lahn
lahr
lahti
lai
laibach
laien
lajos
lake
lakers
lakes
lam
lama
lamb
lambda
lambert
lamellen
lamm
lampe
lampen
lan
lana
lancashire
lancaster
lance
lancia
land
landau
landbevo
landbuch
lande
landebahn
landen
landes
landesamt
landesamtes
landesanstalt
landesarchiv
landesaufnahme
landesausstellung
landesbibliothek
landesfu
landesgartenschau
landesgeschichte
landesgrenze
landeshauptmann
landeshauptstadt
landesherren
landesherrn
landeskirche
landeskunde
landesliga
landesliste
landesmeister
landesmuseum
landesmuseums
landesrat
landesregierung
landesstraße
landestheater
landesverba
landesverband
landesverbandes
landesversammlung
landesvorsitzender
landesvorstand
landesweit
landesweite
landesweiten
landeszentrale
landet
landete
landeten
landgemeinde
landgemeinden
landgericht
landgerichte
landgerichts
landgra
landgraf
landgrafen
landgrafschaft
landgut
landhaus
landkarte
landkreis
landkreise
landkreisen
landkreises
landmark
landmarks
landra
landrat
landratsamt
lands
landsberg
landscape
landschaft
landschaften
landschafts
landschaftsmaler
landschaftspark
landschaftsplan
landschaftsschutzgebiet
landschaftsschutzgebiete
landshut
landshuter
landsitz
landsmann
landsmannschaft
landspitze
landsta
landstraße
landtag
landtages
landtags
landtagsabgeordnete
landtagsabgeordneter
landtagspra
landtagswahl
landtagswahlen
landtagswahlkreis
landung
landvogt
landwehr
landwirt
landwirte
landwirtschaft
landwirtschaftlich
landwirtschaftliche
landwirtschaftlichen
landwirtschaftlicher
lane
lang
langdistanz
lange
langem
langen
langensalza
langer
langes
langfristig
langfristige
langfristigen
langhaus
langhauses
langja
langlauf
langle
langsam
langsame
langsamen
langsamer
langstrecken
langstreckenla
language
languages
langue
lanham
lanka
lanz
lanzettlich
laos
lara
large
larry
lars
larsen
larsson
larve
larven
las
laser
lask
lasker
lass
lasse
lassen
last
lasten
lastkraftwagen
lastwagen
lat
late
latein
lateinamerika
lateinamerikanischen
lateinamerikanischer
lateinisch
lateinische
lateinischen
lateinischer
lateinschule
laten
later
laterne
latin
latina
latinos
lau
laub
laubbla
laube
lauda
laudatio
laude
lauenburg
lauer
lauf
laufbahn
laufdisziplinen
laufe
laufen
laufend
laufende
laufenden
laufzeit
laura
laurel
lauren
laurence
laurent
laurentius
laurie
lausanne
lausitz
lausitzer
laut
laute
lauten
lauter
lauterbach
lautet
lautete
lautsprecher
lautsta
lava
laval
law
lawrence
laws
lawson
lay
layer
layout
lazarett
lazarus
lb
lbe
lben
lbt
lbte
lbten
lbung
lc
ld
lde
ldegalerie
lden
lder
lderlin
ldern
ldes
ldner
ldots
ldp
le
lea
lead
leader
leadership
leafs
league
leander
lear
learning
least
leave
lebe
leben
lebend
lebende
lebenden
lebender
lebendig
lebendige
lebendigen
lebens
lebensalter
lebensbedingungen
lebensbild
lebensbilder
lebensdaten
lebensdauer
lebensende
lebenserwartung
lebensgefa
lebensgeschichte
lebensjahr
lebensjahre
lebensjahren
lebensla
lebenslange
lebenslauf
lebensmittel
lebensmitteln
lebensqualita
lebensra
lebensraum
lebensstil
lebensunterhalt
lebensweg
lebensweise
lebenswerk
lebenszeit
leber
lebewesen
lebt
lebte
lebten
lebus
lebzeiten
lech
lechner
lecture
lecturer
lectures
led
leder
lediglich
lee
leeds
leer
leere
leeren
left
leg
legacy
legal
legat
legen
legend
legenda
legende
legenden
legends
legio
legion
legiona
legionen
legislative
legislaturperiode
legislaturperioden
legitimation
lego
legt
legte
legten
lehen
lehm
lehmann
lehnen
lehnt
lehnte
lehnten
lehr
lehramt
lehranstalt
lehrauftrag
lehrbeauftragter
lehrbu
lehrbuch
lehre
lehren
lehrer
lehrerin
lehrern
lehrers
lehrerseminar
lehrga
lehrgang
lehrkra
lehrstu
lehrstuhl
lehrstuhls
lehrt
lehrta
lehrte
lei
leib
leibarzt
leibniz
leica
leicester
leiche
leichen
leichnam
leicht
leichtathlet
leichtathletik
leichtathletin
leichte
leichten
leichter
leichtes
leichtgewicht
leichtgewichts
leid
leiden
leidenschaft
leider
leidet
leif
leigh
leihbasis
leihe
leine
leinen
leiningen
leinwand
leipzig
leipziger
leise
leisten
leistet
leistete
leisteten
leistung
leistungen
leistungsdaten
leistungsfa
leistungssta
leistungstra
leiten
leitende
leitenden
leitender
leiter
leiterin
leiters
leitet
leitete
leiteten
leitfa
leitfaden
leitlinien
leitner
leitung
leitungen
leksikon
lektor
lektu
lemberg
lemgo
lemma
len
lena
lengemann
lenin
leningrad
lenken
lenne
lennon
lennox
lens
lenz
leo
leoben
leon
leonard
leonardo
leonberg
leone
leonhard
leonhardt
leonid
leopard
leopold
leopoldina
leq
ler
lerin
lerinnen
lern
lernen
lernt
lernte
lernten
leroy
lers
les
lese
lesebuch
lesen
leser
lesern
leske
leslie
lesotho
lessing
leste
lester
lesung
lesungen
let
letter
letters
lettische
lettischen
lettischer
lettland
lettres
letzte
letzten
letztendlich
letzter
letztere
letzterem
letzteren
letzterer
letzteres
letztes
letztgenannten
letztlich
letztmals
leuchten
leuchtend
leuchtturm
leuka
leur
leute
leuten
leutershausen
leutnant
leuven
levante
level
levels
leverkusen
levi
levin
levy
lew
lewin
lewis
lex
lexicon
lexikon
lexington
ley
leyen
lez
lf
lfe
lfen
lfja
lfte
lften
lg
lgbt
lgema
lhas
lheim
lhota
li
lia
liam
liang
lib
libanon
libe
liber
liberal
liberale
liberalen
liberaler
liberalismus
liberec
liberia
liberta
libertadores
liberty
library
libre
librettist
libretto
libri
libro
libyen
libyschen
lica
lich
licht
lichte
lichten
lichtenau
lichtenberg
lichtenfels
lichtenstein
lichter
lichterfelde
lichtjahre
lichtjahren
lichts
lie
lieb
liebe
lieben
lieber
liebermann
liebesgeschichte
liebfrauenkirche
liebhaber
liebig
liebknecht
liebling
liebt
liebte
liechtenstein
liechtensteiner
lied
lieder
liedermacher
liedern
liedes
liedtexter
lief
liefen
lieferanten
liefern
liefert
lieferte
lieferten
lieferung
lieferungen
liege
liegen
liegend
liegende
liegenden
liegenschaft
liegenschaften
liegnitz
liegt
lieh
lienz
lies
liess
liest
lietuvos
lieutenant
ließ
ließen
life
lifetime
lift
lig
liga
ligaeinsa
ligakonkurrenten
ligapokal
ligaspiel
ligaspiele
ligaspielen
ligen
light
lightgrey
lightning
lights
ligne
ligue
liiert
like
lil
lila
lili
lilie
lilien
lilienthal
lille
lillehammer
lilli
lilly
lily
lim
lima
limbach
limburg
limes
limit
limited
limitierte
limits
limoges
limousine
lin
lina
lincoln
lind
linda
lindau
linde
lindemann
linden
lindenau
lindenberg
lindenfels
lindgren
lindner
lindsay
line
linear
lineare
linearen
liner
lines
ling
lingen
linguist
linguistik
linie
linien
link
linke
linken
linker
links
linn
linnaeus
linne
linse
linsen
linsenfo
linux
linz
linzer
lio
lion
lionel
lions
lippe
lippen
lippert
lippstadt
liquidita
lis
lisa
lisch
lische
lischen
lischer
lisches
lise
liselotte
lissabon
list
liste
listen
listet
liszt
lit
litauen
litauens
litauer
litauische
litauischen
litauischer
liter
literarisch
literarische
literarischen
literarischer
literarisches
literary
literaten
literatur
literature
literaturgeschichte
literaturhistoriker
literaturkritik
literaturkritiker
literaturpreis
literaturverfilmung
literaturwissenschaft
literaturwissenschaftler
litern
lithium
lithograf
litt
litte
litten
litteratur
little
liturgie
liturgische
liturgischen
liu
liv
live
livealben
livealbum
liverpool
lives
living
livingston
livius
livla
livland
livre
lix
liz
lizenz
lizenzen
ljubljana
lk
lker
lkerkunde
lkermord
lkern
lkerrecht
lkerung
lkerungsanteil
lkerungsdichte
lkerungsentwicklung
lkerungsgruppen
lkerungswachstum
lkerungszahl
lkischen
lkw
ll
llbla
lle
llen
ller
llers
llheim
llig
llige
lligen
lliger
lligkeit
lling
lln
llner
lloyd
llt
llte
llten
llung
llungen
lm
lmann
lmu
ln
lner
lnische
lnischen
lo
lob
lobt
lobte
local
locarno
loch
lock
locke
locken
locker
lockheed
lodge
loeb
loewe
log
logan
loge
logic
logik
logische
logischen
logistik
logo
logos
lohmann
lohn
lohr
loi
loire
lois
lok
lokal
lokalbahn
lokale
lokalen
lokaler
lokales
lokalisiert
lokalrivalen
lokomotive
lokomotiven
loks
lola
lombardei
london
londoner
lone
lonely
long
longrightarrow
look
looking
loop
loos
loose
lopes
lopez
lorch
lord
lords
lore
lorentz
lorenz
lorenzo
lorient
lorraine
lorsch
los
lose
loser
lost
lot
lothar
lothringen
lotte
lotus
lou
louis
louisa
louise
louisiana
louisville
lounge
lourdes
louvre
love
lover
low
lowe
lowell
lower
loyal
loyalita
lp
lpg
lps
lr
ls
lscher
lschlich
lschlicherweise
lscht
lschung
lschungen
lse
lsen
lsg
lshoff
lt
ltd
lte
lten
lter
ltere
lteren
lterer
ltern
lteste
ltesten
ltester
ltestes
ltig
ltige
ltigen
ltiger
ltiges
ltigkeit
ltigt
ltigung
ltin
ltlich
ltnis
ltnisma
ltnisse
ltnissen
ltnisses
lu
lublin
lubw
luc
luca
lucas
lucca
luchterhand
lucia
luciano
lucie
lucien
lucius
luck
lucky
lucy
lud
ludger
ludolf
ludovico
ludwig
ludwigs
ludwigsburg
ludwigshafen
ludwigslust
luft
luftangriff
luftangriffe
luftangriffen
luftaufnahme
luftaufnahmen
luftbild
luftfahrt
luftfeuchtigkeit
lufthansa
luftlinie
luftschiff
luftstreitkra
luftverkehr
luftwaffe
lugano
lui
luigi
luis
luisa
luise
luitpold
luka
lukas
luke
lulu
lumie
lumpur
luna
lund
lune
lung
lunge
lungenentzu
lust
lustenau
lustig
lustige
lustspiel
luth
luther
lutherisch
lutherische
lutherischen
lutherischer
luthers
lutz
lux
luxembourg
luxemburg
luxemburger
luxemburgischen
luxemburgischer
luxurio
luxus
luz
luzern
luzerner
lv
lvarez
lvaro
lwiw
lwl
ly
lyce
lyck
lydia
lynch
lynn
lynx
lyon
lyrik
lyriker
lyrikerin
lyrische
lyrischen
lyzeum
lz
lze
lzen
lzer
lzern
lzerne
lzernen
lzerwald
lzische
lzischen
m
ma
maas
maastricht
mac
macau
macbeth
macdonald
mach
mache
machen
machine
macht
machte
machten
machtergreifung
machthaber
machtu
mack
mackenzie
macmillan
macos
mad
madagascar
madagaskar
madame
made
madeira
madeleine
mader
madison
madonna
madras
madrid
mae
maestro
mafia
mag
magazin
magazine
magazins
magd
magda
magdalena
magdalene
magdeburg
magdeburger
magen
maggie
maggiore
magic
magie
magier
magische
magischen
magister
magistrat
magna
magnesium
magnetfeld
magnetische
magnetischen
magnum
magnus
magyar
mahler
mahmud
mahnmal
mai
maier
maigret
mail
maila
mailand
mails
main
maine
mains
mainstream
mainz
mainzer
mairie
mais
maison
maja
majesta
major
majors
mak
make
makedonien
making
makroskopische
mal
mala
malaria
malawi
malaysia
malcolm
male
malen
maler
malerei
malereien
malerin
malern
malers
malerschule
mali
malik
mall
mallorca
malmo
malt
malta
malte
mama
mammals
man
management
manager
manche
manchen
mancher
manchester
manchmal
mandat
mandate
manesse
manet
manfred
manga
mangel
mangelnde
mangelnden
mangelnder
mangels
manhattan
manifest
manila
manipulation
manitoba
mann
mannes
mannesstamm
mannheim
mannheimer
manning
manns
mannschaft
mannschaften
mannschaftskapita
mannschaftsmehrkampf
mannschaftsverfolgung
mannschaftswertung
mannschaftswettbewerb
mannschaftszeitfahren
mano
manor
mans
mansfeld
mantel
mantua
manual
manuale
manualen
manuel
manuela
manuell
manufacturing
manufaktur
manuskript
manuskripte
many
manz
mao
map
maple
maps
mapsto
mar
mara
marathon
marathonla
marbach
marburg
marburger
marc
marcel
marcello
marcelo
march
marche
marco
marcos
marcus
mare
marek
maren
margaret
margareta
margarete
margaretha
margarethe
margarita
margit
margot
margret
marguerite
mari
maria
mariae
marian
marianne
mariano
marias
maribor
marie
marien
marienberg
marienburg
marienkapelle
marienkirche
mariens
marienwerder
marija
marilyn
marin
marina
marine
marineoffizier
marines
marino
mario
marion
maritime
marius
mark
markant
markante
markanten
marke
marken
markenname
markennamen
markenzeichen
marker
market
marketing
markgra
markgraf
markgrafen
markgrafschaft
markieren
markiert
markierte
markierten
markierung
marko
marks
markt
marktanteil
marktes
marktfu
marktgemeinde
markthalle
marktplatz
marktwirtschaft
markus
marl
marlene
marmor
marne
marokko
marquess
marquis
marriage
mars
marsch
marschall
marschierte
marschierten
marseille
marsh
marshal
marshall
mart
marta
martens
martha
marti
martial
martin
martina
martinez
martini
martino
martins
martinskirche
martinus
marty
martyrium
maru
marvel
marvin
marx
marxismus
mary
maryland
mas
maschine
maschinen
maschinenbau
maschinenfabrik
maschinengewehr
maserati
mask
maske
masken
maskenbildner
mason
masowien
mass
massa
massachusetts
massacre
massaker
masse
massen
massenstart
massimo
massiv
massive
massiven
massiver
mast
masten
master
masters
masuren
mat
mata
match
matches
mate
mater
material
materialien
materials
materie
materielle
materiellen
math
mathbb
mathbf
mathcal
mathematical
mathematics
mathematik
mathematiker
mathematikerin
mathematisch
mathematische
mathematischen
mathematischer
mathfrak
mathias
mathieu
mathilde
mathrm
matrikel
matrix
matrizen
matrosen
matt
matteo
matter
mattha
matthes
matthew
matthews
matthias
matti
matura
mau
maud
mauer
mauern
mauerreste
mauerwerk
maul
mauren
maurer
maurice
mauritius
maurizio
mauro
maus
mausoleum
mauthausen
max
maxi
maxim
maximal
maximale
maximalen
maxime
maximilian
maximilians
maximum
maximus
maxwell
may
maya
mayen
mayer
mayo
mayor
mayr
mays
maz
mazda
mazedonien
maß
maße
maßen
maßgabe
maßgeblich
maßgebliche
maßgeblichen
maßnahme
maßnahmen
maßsta
maßstab
maßwerk
mb
mbh
mbildner
mc
mccarthy
mccartney
mcdonald
mcdonnell
mcfarland
mclaren
md
mda
mdb
mdep
mdl
mdr
me
mechanics
mechanik
mechaniker
mechanisch
mechanische
mechanischen
mechanischer
mechanismen
mechanismus
mechthild
mecklenburg
mecklenburgische
mecklenburgischen
med
medaille
medaillen
medaillengewinner
medaillenspiegel
medailleur
medaillon
medal
medea
media
mediale
median
mediathek
medical
medici
medicine
medien
medienunternehmen
medieval
medikamente
medikamenten
medina
meditation
mediterranean
medium
medizin
mediziner
medizingeschichte
medizinhistorische
medizinisch
medizinische
medizinischen
medizinischer
medizinstudium
meer
meere
meerenge
meeres
meeresho
meeresspiegel
meet
meeting
meets
meg
mega
mehl
mehmed
mehmet
mehr
mehrere
mehreren
mehrerer
mehrfach
mehrfache
mehrfachen
mehrfacher
mehrheit
mehrheitlich
mehrheitswahl
mehrja
mehrkampf
mehrmals
mehrzahl
mei
meier
meiji
meile
meilen
meilenstein
meilensteine
mein
meine
meinem
meinen
meiner
meines
meiningen
meint
meinte
meinung
meinungen
meinungsverschiedenheiten
meist
meiste
meisten
meistens
meister
meisterin
meistermannschaft
meistern
meisters
meisterschaft
meisterschaften
meisterschu
meistertitel
meisterwerk
meisterwerke
meißen
meißner
mekka
mel
melanchthon
melanie
melbourne
melchior
melden
meldet
meldete
meldeten
meldung
meldungen
melissa
melk
melle
melodie
melodien
melody
melville
member
members
membran
memel
memmingen
memoiren
memoirs
memorandum
memoria
memorial
memoriam
memories
memory
memphis
men
mende
mendelssohn
menden
mendes
mendoza
menge
mengen
menhir
mensa
mensch
menschen
menschenrechte
menschenwu
menschheit
menschliche
menschlichen
menschlicher
menschliches
menschlichkeit
ment
mental
mentor
menu
menzel
meppen
mer
meran
mercedes
mercer
merck
mercury
mercy
meredith
mergentheim
merian
merin
merit
merkel
merkmal
merkmale
merkmalen
merkt
merkur
merkwu
merlin
mern
mers
merseburg
merstraße
mertens
merz
merzeit
merzig
mes
mesa
meschede
mesopotamien
mess
message
messe
messen
messer
messerschmitt
messgera
messias
messina
messing
messung
messungen
mesz
met
meta
metacritic
metal
metall
metalle
metallen
metapher
metaphysik
meteorologe
meteorologie
meter
metern
methan
method
methode
methoden
methodik
methods
metrik
metro
metropol
metropole
metropolis
metropolitan
metropolregion
metternich
mettmann
metz
metzger
metzler
meuse
mexico
mexikaner
mexikanische
mexikanischen
mexikanischer
mexiko
mexikos
meyer
meyers
mez
mezzosopran
mfs
mg
mgm
mh
mhild
mhz
mi
mia
miami
mica
mich
michael
michaela
michaelis
michaels
michail
michailowitsch
michal
michał
michel
michelangelo
michelbach
michele
michelin
michelle
michels
michigan
mick
mickey
micro
microsoft
mid
middle
midi
midnight
mie
mien
miert
mies
mieter
mig
mighty
migranten
migration
migros
miguel
mika
mike
miklo
mikrobiologie
mikroorganismen
mikroskopische
mil
milan
milano
milch
milchstraße
mild
milde
mile
miles
milieu
milita
militaire
military
miliz
milizen
mill
mille
millennium
miller
milliarde
milliarden
millimeter
millimetern
million
milliona
millionen
milliyet
mills
milos
miltenberg
milton
milwaukee
min
mina
minas
mind
minden
mindener
minder
minderheit
minderheiten
minderja
mindestens
minds
mine
minen
mineral
minerale
mineralien
mineralo
mineraloge
mineralogie
minerva
mines
ming
mingus
minh
mini
miniatur
miniaturen
minimal
minimale
minimum
mining
miniserie
minister
ministerialbeamter
ministerialrat
ministerien
ministerin
ministerium
ministeriums
ministerpra
ministers
ministry
minna
minne
minneapolis
minnesota
minor
minsk
mint
minu
minus
minute
minuten
mio
mioza
mir
mira
miracle
miranda
miriam
mirko
miro
miroslav
mirror
mis
misch
mische
mischen
mischer
misches
mischung
mise
mishima
miss
missa
missbrauch
missbraucht
misserfolg
misshandelt
missing
mission
missionar
missionare
missionen
mississippi
misslang
missouri
misssta
misst
misstrauen
missversta
mister
mit
mitarbeit
mitarbeiter
mitarbeiterin
mitarbeitern
mitautor
mitbegru
mitbu
mitchell
miteinander
mitgefu
mitgenommen
mitgeteilt
mitgewirkt
mitgift
mitglied
mitglieder
mitgliedern
mitgliederversammlung
mitgliederzahl
mitgliedschaft
mitgliedschaften
mitgliedsgemeinden
mitgliedsnummer
mitgliedsstaaten
mitgliedstaaten
mitgru
mitherausgeber
mithilfe
mithin
mitkonsekratoren
mitleidenschaft
mitsamt
mitschu
mitspieler
mitsubishi
mittag
mitte
mitteilung
mitteilungen
mitteilungsblatt
mittel
mittelalter
mittelalterliche
mittelalterlichen
mittelalterlicher
mittelalters
mittelamerika
mitteldeutsche
mitteldeutschen
mitteldeutscher
mitteldeutschland
mitteleuropa
mitteleuropas
mittelfeld
mittelfeldspieler
mittelfranken
mittelgewicht
mittelhochdeutsch
mittelklasse
mittelma
mittelmeer
mittelmeerraum
mitteln
mittelpunkt
mittelrhein
mittels
mittelschiff
mittelschule
mittelsta
mittelstreckenla
mittelstu
mittelteil
mittelwert
mitten
mitternacht
mittheilungen
mittig
mittler
mittlere
mittleren
mittlerer
mittleres
mittlerweile
mittwoch
mitunter
mitwirken
mitwirkte
mitwirkung
mix
mixed
mixtape
mk
ml
mlb
mlich
mliche
mlichen
mls
mly
mlynek
mm
mme
mmel
mmen
mmer
mmerer
mmern
mmert
mmerte
mmerung
mmige
mmigen
mmiger
mmigkeit
mmler
mmliche
mmlichen
mmt
mmung
mn
mo
mob
mobil
mobile
mobilen
mobilita
mobilmachung
mod
mode
model
modell
modelle
modellen
modellierung
modelljahr
modells
models
modena
moderation
moderator
moderatoren
moderatorin
moderiert
moderierte
modern
moderna
moderne
modernen
moderner
modernes
modernisiert
modernisierte
modernisierung
modi
modifikation
modifikationen
modifiziert
modifizierte
modifizierten
modul
module
modus
moers
moguls
mohamed
mohammad
mohammed
mohn
mohr
moi
moire
moires
mol
molaren
moldau
mole
molecular
moleku
molekulare
molie
molina
moll
molly
moltke
moment
momentan
momente
mommsen
mon
mona
monaco
monarch
monarchen
monarchie
monat
monate
monaten
monatlich
monatliche
monatlichen
monats
monatshefte
monatsschrift
mond
monde
mondes
mondkrater
mondo
monen
monet
money
mongolei
mongolen
mongolischen
monica
monika
monitor
monitoring
monk
monkey
mono
monografien
monogramm
monographie
monographien
monopol
monroe
mons
monsieur
monster
monsters
mont
montag
montage
montagne
montags
montana
monte
montenegro
montevideo
montfort
montgomery
monthly
monti
montiert
montmorency
montpellier
montre
montreal
montreux
monument
monumenta
monumentale
monumentalen
monumente
monuments
monza
moody
moon
moor
moore
moos
moose
mora
moral
morales
moralisch
moralische
moralischen
morbus
mord
morde
morden
mordes
more
moreau
moreno
morgan
morgen
morgenpost
morgens
morgenstern
mori
moritz
moriz
morning
moro
morphologie
morris
morrison
morse
mort
morte
mortimer
morton
mos
mosaik
mosambik
mosbach
moschee
moscheen
moscow
mose
mosel
moselle
moser
moses
moskau
moskauer
moss
most
mot
mother
motion
motiv
motivation
motive
motiven
motiviert
moto
motor
motorbuch
motoren
motorisierten
motorleistung
motorra
motorrad
motorradrennfahrer
motors
motorsport
motte
motto
moulin
mount
mountain
mountainbike
mountains
move
movement
movie
movies
mozart
mozarts
mp
mpfe
mpfen
mpfer
mpferin
mpfern
mpft
mpfte
mpften
mpfung
mr
mrd
mrs
ms
msc
msv
mt
mter
mtern
mtliche
mtlichen
mtlicher
mtv
mu
much
mueller
muenchen
muh
muhammad
mulde
muller
multi
multimedia
multiple
multiplikation
mumbai
mun
munch
mund
mundart
mundarten
mundi
mundo
mung
mungen
munich
municipal
municipality
municipio
municipios
munition
munro
munster
mur
mura
murat
murder
murnau
murphy
murr
murray
mus
musa
muschelkalk
muscheln
musculus
muse
museen
museo
museu
museum
museums
music
musica
musical
musicale
musicals
musik
musikakademie
musikalien
musikalisch
musikalische
musikalischen
musikalischer
musikalisches
musikdirektor
musiker
musikerin
musikern
musikers
musikfestival
musikgeschichte
musikgruppe
musikhochschule
musikinstrumente
musikkritiker
musiklabel
musikleben
musiklehrer
musikpa
musikproduzent
musikschule
musikstil
musikstu
musiktheater
musiktheorie
musikverein
musikverka
musikverlag
musikvideo
musikvideos
musikwissenschaft
musikwissenschaftler
musique
muskeln
muskulatur
muslim
muslime
muslimen
muslimische
muslimischen
muss
mussolini
musste
mussten
must
mustafa
muster
mustern
mut
mutation
mutationen
mutmaßlich
mutmaßlichen
mutter
muttergottes
muttersprache
muß
mußte
mv
mvp
mw
mx
my
mya
myanmar
myers
myspace
mysterio
mystery
mystik
myth
mythen
mythologie
mythos
mz
n
na
nabla
nabu
nach
nachbar
nachbargemeinde
nachbargemeinden
nachbarla
nachbarn
nachbarort
nachbarorte
nachbarschaft
nachbau
nachbildung
nachdem
nachdruck
nacheinander
nachempfunden
nachfahren
nachfolge
nachfolgend
nachfolgende
nachfolgenden
nachfolger
nachfolgerin
nachfolgern
nachfolgers
nachforschungen
nachfrage
nachgehen
nachgewiesen
nachhaltig
nachhaltige
nachhaltigen
nachhaltigkeit
nachhinein
nachkomme
nachkommen
nachkriegszeit
nachla
nachlass
nachmittag
nachmittags
nachname
nachnamen
nachricht
nachrichten
nachrichtenagentur
nachrichtendienst
nachru
nachruf
nachschub
nacht
nachteil
nachteile
nachteilig
nachtigall
nachtra
nachtrag
nachts
nachvollziehbar
nachwahl
nachweis
nachweisbar
nachweise
nachweisen
nachweislich
nachwort
nachwuchs
nachwuchsabteilung
nachzuweisen
nacional
nacken
nackt
nackte
nad
nadel
nadeln
nadine
nadja
nadu
nagano
nagasaki
nagel
nagoya
nagy
nah
nahe
nahegelegene
nahegelegenen
nahen
naher
naherholungsgebiet
nahezu
nahm
nahmen
nahrung
nahrungsmittel
nahverkehr
nai
nairobi
nakamura
naked
nakhon
nam
name
named
namen
namens
namensa
namensform
namensgebend
namensgebende
namensgebenden
namensgeber
namensgebung
namenstra
namenszusatz
namentlich
names
namhafte
namhaften
namibia
namur
nan
nana
nancy
nanjing
nannte
nannten
nantes
naomi
napole
napoleon
napoleonischen
napoleons
napoli
narbe
narr
narrative
nas
nasa
nascar
nase
nasen
nash
nashville
nassau
nassauische
nassauischen
nat
natal
natalia
natalie
natalja
nathalie
nathan
nathaniel
nation
national
nationalbank
nationalbibliothek
nationale
nationalelf
nationalen
nationaler
nationales
nationalgalerie
nationalgarde
nationalhymne
nationalismus
nationalisten
nationalistische
nationalistischen
nationalita
nationalliga
nationalmannschaft
nationalmannschaften
nationalmuseum
nationalmuseums
nationalo
nationalpark
nationalparks
nationalrat
nationalsozialismus
nationalsozialisten
nationalsozialistische
nationalsozialistischen
nationalsozialistischer
nationalspieler
nationalstraße
nationalteam
nationaltheater
nationaltrainer
nationalversammlung
nationen
nations
native
nato
natrium
natu
natur
natura
natural
naturalis
naturdenkma
naturdenkmal
naturdenkmale
nature
naturelle
naturforscher
naturgema
naturgeschichte
naturkunde
naturnahen
naturpark
naturparks
naturra
naturraum
naturschu
naturschutz
naturschutzgebiet
naturschutzgebiete
naturschutzgebietes
naturwissenschaft
naturwissenschaften
naturwissenschaftler
naturwissenschaftliche
naturwissenschaftlichen
nau
nauheim
naumann
naumburg
naval
navarra
navarro
navigation
navy
naxos
nazareth
nazi
nazionale
nazis
nb
nba
nbc
nberg
nborn
nbrunn
nburg
nc
ncaa
nch
nche
nchen
nchener
nchengladbach
nchez
nchhausen
nchner
nd
ndchen
nde
ndel
ndeln
ndels
ndelt
nden
nder
nderat
ndereien
nderin
nderinnen
ndern
nders
nderspiel
nderspiele
nderspielen
ndert
nderte
nderten
nderter
nderung
nderungen
nderzeit
ndes
ndet
ndete
ndeten
ndeter
ndetes
ndeversammlung
ndez
ndig
ndige
ndigem
ndigen
ndiger
ndiges
ndigkeit
ndigkeiten
ndigkeitsbereich
ndigt
ndigte
ndigten
ndigung
ndigungen
ndisch
ndische
ndischen
ndischer
ndisches
ndl
ndler
ndlern
ndlers
ndlich
ndliche
ndlichen
ndlicher
ndlichkeit
ndner
ndnis
ndnisse
ndnisses
ndor
ndr
ndung
ndungen
ndungsjahr
ndungsmitglied
ndungsmitglieder
ndungsmitgliedern
ne
nea
neal
neapel
near
nebeck
nebel
neben
nebenbei
nebenbla
nebendarsteller
nebendarstellerin
nebeneinander
nebenflu
nebenfluss
nebengeba
nebenrolle
nebenrollen
nebenstraße
nebenwirkungen
neberg
nebraska
nebst
neburg
neburger
nec
neck
neckar
ned
nederland
nederlandse
need
neffe
neffen
negativ
negative
negativen
negativer
negro
nehmen
neigen
neigung
neil
neill
nein
neisse
neiße
nek
nekrolog
nekropole
nel
nell
nella
nelly
nelson
nem
nemann
nemark
nemarks
nen
nennen
nennenswerte
nennenswerten
nennt
nennung
neo
neolithikum
neorenaissance
nepal
nepomuk
neptun
ner
nero
ners
nerven
nes
nest
nester
nestor
nestroy
net
netflix
netherlands
nette
netto
network
networks
netz
netze
netzes
netzwerk
netzwerke
netzwerken
netzwerks
neu
neuanfang
neuartige
neuartigen
neuauflage
neuausgabe
neuausrichtung
neubau
neubauer
neubaus
neubaustrecke
neubauten
neubearbeitete
neubearbeitung
neubrandenburg
neuburg
neucha
neudorf
neudruck
neue
neuem
neuen
neuenahr
neuenburg
neuendorf
neuengamme
neuer
neuerdings
neuere
neueren
neuerer
neuerung
neuerungen
neues
neueste
neuesten
neufassung
neufundland
neugebauer
neugeborenen
neugegru
neugestaltung
neugliederung
neugotische
neugotischen
neugotisches
neugru
neuguinea
neuhaus
neuhausen
neuhochdeutsch
neuhof
neukirch
neukirchen
neuko
neuling
neumann
neumark
neumarkt
neumu
neun
neunkirchen
neunte
neunten
neunter
neunzehnten
neuordnung
neurologe
neurologie
neuruppin
neuseela
neuseeland
neuseelands
neuss
neusta
neustadt
neustrelitz
neutral
neutrale
neutralen
neutralita
neuwahl
neuwahlen
neuwied
neuzeit
nevada
never
neville
new
newald
newark
newcastle
newcomer
newman
newport
news
newsletter
newton
next
ney
nez
nf
nfeld
nfja
nfkampf
nfl
nfla
nfmal
nfte
nftel
nften
nfter
nftes
nftig
nftige
nftigen
nftiger
nfza
nfzehn
nfzig
ng
ngc
nge
ngel
ngeln
ngelt
ngen
ngend
ngende
ngenden
nger
ngerbau
ngerbaus
ngerbru
ngere
ngerem
ngeren
ngerer
ngerin
ngerinnen
ngerkirche
ngern
ngers
ngerschaft
ngert
ngerte
ngerten
ngerung
ngerzone
ngig
ngige
ngigen
ngiger
ngiges
ngigkeit
ngigkeitserkla
ngigkeitskrieg
ngler
nglich
ngliche
nglichen
nglicher
ngliches
nglichkeit
ngling
ngnis
ngo
ngs
ngst
ngste
ngsten
ngster
ngstes
ngt
ngte
ngten
ngung
nh
nhausen
nheit
nhl
ni
nia
nibelungen
nica
nicaragua
niccolo
nice
nicholas
nichols
nicholson
nicht
nichte
nichts
nick
nickel
nico
nicola
nicolae
nicolai
nicolas
nicolaus
nicole
nicolo
nidda
nie
nieder
niederbayern
niederdeutsch
niederdeutsche
niederdeutschen
niedere
niederen
niedergang
niedergebrannt
niedergelassen
niedergelegt
niedergeschlagen
niederla
niederlage
niederlagen
niederlande
niederlanden
niederlassung
niederlassungen
niederlausitz
niederließ
niedero
niederrhein
niedersa
niedersachsen
niedersachsens
niederschla
niederschlag
niederschlagsmenge
niederschlagung
niederschlesien
niederung
niedrig
niedrige
niedrigen
niedriger
niedrigere
niedrigeren
niedrigste
niedrigsten
niels
nielsen
niemals
niemand
niemann
niemeyer
nien
nienburg
niens
nieren
nietzsche
nig
nige
nigel
nigen
niger
nigeria
nigerianischer
niggra
night
nightmare
nights
nigin
nigl
niglich
nigliche
niglichen
niglicher
nigliches
nigreich
nigreiche
nigreiches
nigreichs
nigs
nigsberg
nigsberger
nigshaus
nigshausen
nigshof
nigshofen
nigstein
nigswinter
nigtum
nihon
niht
nijmegen
nik
nike
niki
nikita
niklas
niklaus
nikola
nikolai
nikolaikirche
nikolajewitsch
nikolaus
nil
nils
nilsson
nimmt
nin
nina
nine
ning
ningen
ninger
ningh
ninja
nino
nintendo
nio
nippon
nis
nisch
nische
nischen
nischer
nischni
nissan
nit
nita
nitz
niveau
nix
nixon
nizza
nj
njw
nk
nke
nken
nkisch
nkische
nkischen
nkischer
nkt
nkte
nkten
nkter
nkung
nkungen
nkwd
nl
nla
nland
nleutnant
nlich
nliche
nlichen
nlicher
nliches
nlichkeit
nlichkeiten
nlp
nm
nn
nnchen
nne
nnen
nner
nnerchor
nnern
nnische
nnischen
nnischer
nnlich
nnliche
nnlichen
nnlicher
nnt
nnte
nnten
no
noack
noah
nobel
nobelpreis
nobelpreistra
noble
noch
nochmal
nochmals
noe
noeditsection
noel
noir
noise
nokia
nolan
nolte
nom
noma
nomen
nomene
nomenklatur
nomenologie
nominatform
nominations
nominiert
nominierte
nominierten
nominierung
nominierungen
nomos
non
nonne
nonnen
nor
nora
norbert
nord
nordafrika
nordamerika
nordamerikanischen
nordamerikas
nordatlantik
nordbahn
norddeutsche
norddeutschen
norddeutscher
norddeutschland
norden
nordens
norderstedt
nordeuropa
nordflu
nordfriesland
nordhausen
nordhorn
nordic
nordirland
nordische
nordischen
nordischer
norditalien
nordkorea
nordku
nordmazedonien
nordnordo
nordnordwestlich
nordo
nordost
nordosten
nordrand
nordrhein
nordsee
nordseite
nordteil
nordufer
nordwa
nordwand
nordwest
nordwesten
nordwestlich
nordwestliche
nordwestlichen
nordwestlicher
norfolk
norm
norma
normal
normale
normalen
normaler
normalerweise
normalschanze
normalspur
norman
normandie
normannen
normen
norris
norsk
norske
norte
north
northeim
northern
northumberland
northwest
northwestern
norton
norway
norwegen
norwegens
norweger
norwegisch
norwegische
norwegischen
norwegischer
norwich
nos
nostra
not
notar
notation
note
noten
notes
notfall
nothing
notice
notiert
notierte
notiz
notizen
notoc
notre
notruf
nottingham
notwendig
notwendige
notwendigen
notwendigkeit
nous
nouveau
nouvelle
nov
nova
nove
novel
novelle
novellen
november
novemberrevolution
novi
novo
novum
novy
now
nowak
nowgorod
nowosibirsk
nowy
np
npd
nr
nrhp
nrw
ns
nsa
nsche
nschen
nscht
nschte
nschten
nsdap
nse
nsel
nsg
nste
nsten
nster
nsterland
nsters
nsterschwarzach
nstig
nstige
nstigen
nstiger
nstigt
nstigte
nstler
nstlerbund
nstlergruppe
nstlerhaus
nstlerin
nstlerinnen
nstlerisch
nstlerische
nstlerischen
nstlerischer
nstlerisches
nstlerlexikon
nstlern
nstlername
nstlernamen
nstlers
nstlich
nstliche
nstlichen
nstlicher
nsu
nt
nte
nten
nter
ntgen
nther
nu
nuclear
nuestra
nueva
nuevo
null
number
numbers
numerische
nummer
nummerierung
nummern
nun
nunatak
nung
nunmehr
nuntius
nuova
nur
nutzbar
nutzen
nutzer
nutzern
nutzfla
nutzlast
nutzt
nutzte
nutzten
nutzung
nv
nva
nw
nwa
nwald
nxt
ny
nya
nyi
nz
nzburg
nze
nzen
nzenberg
nzend
nzende
nzenden
nzer
nzerin
nzlich
nzsta
nzt
nzte
nzten
nzung
nzungen
nzwurf
nzz
o
oak
oakland
oara
oase
ob
obama
obec
obelisk
oben
ober
obera
oberamt
oberamtmann
oberamts
oberarzt
oberbayerischen
oberbayern
oberbefehl
oberbefehlshaber
oberbergischen
oberbu
obere
oberen
oberer
oberes
oberfla
oberfranken
obergeschoss
oberhalb
oberhand
oberhaupt
oberhaus
oberhausen
oberhessen
oberhof
oberhoheit
oberko
oberkommando
oberla
oberland
oberlandesgericht
oberlauf
oberlausitz
oberleitung
oberleutnant
oberliga
oberndorf
obero
oberpfa
oberpfalz
oberpra
oberrealschule
oberregierungsrat
oberrhein
oberschicht
oberschlesien
oberschule
oberschwaben
oberseite
oberst
oberstdorf
oberste
obersten
oberster
oberstleutnant
oberstufe
obgleich
obhut
obigen
obituary
object
objekt
objekte
objekten
objektiv
objektive
objektiven
objekts
oblag
oblast
obliegt
obmann
oboe
oboen
obrigkeit
observations
observatorium
observatory
observer
obst
obstbau
obwohl
ocean
och
october
od
ode
odense
odenwald
oder
odessa
odi
odore
odyssee
odysseus
oe
oecd
oesterreich
oettingen
oeynhausen
of
ofen
off
offen
offenbach
offenbar
offenbart
offenbarung
offenburg
offene
offenem
offenen
offener
offenes
offensichtlich
offensive
office
officer
official
offiziell
offizielle
offiziellen
offizieller
offizielles
offizier
offiziere
offizieren
offiziers
offs
offshore
ofm
oft
oftmals
og
oh
ohio
ohl
ohm
ohne
ohnehin
ohr
ohren
oil
oilers
ois
oise
ok
okinawa
oklahoma
okres
okt
oktober
oktoberrevolution
okzitanien
ol
ola
olaf
olav
old
oldenbourg
oldenburg
oldenburger
oldenburgischen
ole
oleg
olg
olga
olimpbase
oliveira
oliver
olivia
olivier
olms
olmu
olof
ologe
ologen
ologie
ologin
ologisch
ologische
ologischen
ologischer
ologisches
olpe
olsen
olsztyn
olten
olympia
olympiade
olympiasieg
olympiasieger
olympiasiegerin
olympiastadion
olympiateilnehmer
olympic
olympics
olympique
olympische
olympischen
om
omaha
oman
omar
omega
omnibus
omnium
on
once
one
onkel
onkels
online
only
ono
ons
ontario
ontologe
ontologie
oo
op
opac
ope
opel
open
oper
opera
operation
operationen
operations
operative
operativen
operator
operatorname
operette
operetten
operiert
operierte
opern
opernhaus
opernsa
opfer
opfern
opfers
opitz
opladen
opole
oppeln
oppenheim
oppenheimer
opposition
oppositionelle
oppositionellen
ops
optik
optimal
optimale
optimalen
optimiert
optimierung
option
optional
optionen
optisch
optische
optischen
opus
or
ora
oral
orange
orangerie
oranien
oranienburg
oratorium
orb
orbis
orbit
orchester
orchestern
orchesters
orchestra
orchestre
orchideen
orden
ordens
ordensgeistlicher
ordensgemeinschaft
ordentliche
ordentlichen
ordentlicher
ordentliches
order
ordinarius
ordnen
ordnet
ordnete
ordnung
ordnungen
ordnungsgema
ordre
oregon
orf
org
organ
organe
organen
organic
organisation
organisationen
organisator
organisatoren
organisatorisch
organisatorische
organisatorischen
organische
organischen
organisieren
organisiert
organisierte
organisierten
organismen
organismus
organist
organisten
organization
orgel
orgelbau
orgelbauer
orgelbaufirma
orgelempore
orgeln
ori
orient
oriental
orientalische
orientalischen
orientalist
orientation
orientieren
orientiert
orientierte
orientierten
orientierung
origin
original
originalausgabe
originale
originalen
originals
originaltitel
origine
origins
orion
orla
orlando
orle
orleans
ornithologe
oro
orpheus
orsini
ort
orte
ortega
orten
ortenburg
ortes
orth
orthodox
orthodoxe
orthodoxen
orthodoxer
orthopa
ortiz
orts
ortsansa
ortsbeirat
ortsbezirk
ortsbild
ortsbu
ortschaft
ortschaften
ortsgemeinde
ortsgeschichte
ortsgruppe
ortskern
ortskerns
ortslage
ortslexikon
ortsmitte
ortsname
ortsnamen
ortsnamens
ortsrand
ortsrat
ortsteil
ortsteile
ortsteilen
ortsteils
ortsverzeichnis
ortsvorsteher
ortszeit
ortszentrum
os
osaka
osb
osborne
oscar
oscars
oscarverleihung
oskar
oslo
osman
osmanen
osmanische
osmanischen
osmanischer
osmanisches
osnabru
ossietzky
ost
ostafrika
ostantarktischen
ostasien
ostbahn
ostdeutsche
ostdeutschen
ostdeutschland
osten
ostende
ostens
osterholz
ostern
osterode
osterzgebirge
osteuropa
ostfildern
ostflu
ostfriesische
ostfriesischen
ostfriesland
ostfront
ostindien
ostku
ostnordo
ostpreußen
ostpreußens
ostpreußischen
ostrand
ostrava
ostro
ostsee
ostseite
ostsu
ostteil
osttimor
osttimoresischer
osttimors
ostufer
ostwa
ostwand
ostwestfalen
oswald
ot
other
othmar
otimes
otis
otmar
otn
ots
ott
ottawa
otter
ottilie
otto
ottokar
ottomotor
ottos
ou
ouest
our
out
outstanding
ouvertu
ov
ova
oval
ovale
ovalen
over
overline
overtime
overview
ovice
owen
owens
own
oxford
oxid
oxidation
oz
ozean
ozeanien
ozeans
p
pa
paar
paare
paaren
paares
paarung
paarweise
pablo
pabst
pac
pace
pacific
pack
packard
packers
paderborn
paderborner
padua
page
pages
pai
pain
painting
paintings
pair
pak
paket
pakete
pakistan
pakistanischen
pakt
pal
pala
palace
palais
palast
palastes
palau
palazzo
palermo
palette
palgrave
palissy
pallas
palm
palma
palme
palmer
pamela
pan
panama
panamerikanischen
pandemie
panel
panik
pankow
panorama
pantheon
panther
panthers
panzer
panzerbrigade
panzerdivision
panzern
panzerung
paola
paolo
papa
pape
paper
papers
papier
papiere
papierfabrik
papiermu
pappenheim
papst
papstes
papua
papyrus
par
para
parade
paradies
paradise
paraguay
parallel
parallele
parallelen
paralympics
parameter
paramilita
paramount
parana
parasiten
parate
parc
parchim
parey
parfu
paris
pariser
parish
parita
park
parkanlage
parkanlagen
parker
parkinson
parkpla
parkplatz
parks
parlament
parlamentarier
parlamentarische
parlamentarischen
parlamentarischer
parlamentarismus
parlaments
parlamentspra
parlamentswahl
parlamentswahlen
parliament
parma
parodie
parque
parroquia
pars
parsons
part
partei
parteien
parteifu
parteifunktiona
parteilos
parteitag
parteivorsitzender
partement
partements
partenkirchen
parti
partial
partido
partie
partielle
partien
parties
partikel
partisanen
partitur
partner
partnerin
partnern
partners
partnerschaft
partnerschaften
partnersta
parts
party
parzellen
pas
pasadena
pascal
pascha
paso
pass
passage
passagen
passagier
passagiere
passagieren
passagierschiff
passau
passauer
passe
passen
passend
passende
passenden
passieren
passiert
passierte
passion
passiv
passive
passiven
passt
passte
past
pasteur
pastor
pastoren
pat
pate
patent
patente
pater
path
pathologe
pathologie
patient
patienten
patients
patriarch
patriarchat
patriarchen
patrice
patricia
patrick
patrimoine
patrimonialherrschaften
patriot
patriots
patrizier
patron
patronat
patrone
patrozinium
patterns
patterson
patton
pau
pauken
paul
paula
pauli
pauline
paulo
pauls
paulus
pausanias
pause
pavel
pavia
pavillon
pavillons
pawel
pax
pay
payne
pays
paz
pazifik
pazifischen
pb
pc
pcr
pcs
pd
pdc
pdf
pds
pe
peace
peak
pearl
pearson
pech
pedal
pedersen
pedro
peer
peerage
pegasus
pegel
peggy
pegnitz
peine
peking
pel
peloponnes
pelz
pen
penalty
penaltyschießen
pendant
penguin
penguins
penick
peninsula
penis
penn
pennsylvania
penny
pension
pensionierung
people
pepper
per
percussion
percy
pereira
perez
perfect
perfekt
perfekte
performance
performances
perg
period
periode
perioden
peripherie
perkins
perkussion
perl
perle
perlen
perm
permanent
permanente
permanenten
perry
perser
persien
persisch
persische
persischen
persischer
perso
person
personal
personals
personalunion
personelle
personen
personenlexikon
personennahverkehr
personenname
personennamen
personenverkehr
personenwagen
personenzu
perspective
perspectives
perspektive
perspektiven
perth
perthes
peru
peruanischen
peruanischer
perugia
pest
pestalozzi
pesth
pet
petar
pete
peter
peters
petersberg
petersburg
petersburger
petersen
peterson
petit
petite
petition
petr
petra
petri
petroleum
petrowitsch
petrus
petzold
peugeot
pez
pf
pfa
pfad
pfaff
pfaffenhofen
pfalz
pfalzgraf
pfalzgrafen
pfand
pfarr
pfarramt
pfarrdorf
pfarre
pfarrei
pfarreien
pfarrer
pfarrers
pfarrgemeinde
pfarrhaus
pfarrhof
pfarrkirche
pfarrstelle
pfchen
pfe
pfeffer
pfeifen
pfeifer
pfeiffer
pfeil
pfeile
pfeiler
pfeilern
pfel
pfen
pfennig
pfer
pferd
pferde
pferden
pferdes
pfige
pfigen
pfingsten
pfister
pflanze
pflanzen
pflanzenart
pflanzenarten
pflanzengattung
pflanzennamen
pflege
pflegeheim
pflegen
pfleger
pflegt
pflegte
pflicht
pflichten
pflichtspiel
pflu
pflug
pforte
pforzheim
pfosten
pfru
pft
pfte
pften
pfu
pfund
pfung
pfungen
pg
ph
pha
phane
phantasie
phantastische
phantom
pharao
pharmakologie
pharmazeutische
pharmazie
phase
phasen
phi
phil
philadelphia
philharmonic
philharmonie
philharmoniker
philip
philipp
philippe
philippi
philippine
philippinen
philippinische
philippinischen
philippinischer
philipps
philips
phillip
phillips
philologe
philologie
philosoph
philosophen
philosophical
philosophie
philosophin
philosophisch
philosophische
philosophischen
philosophy
pho
phoenix
phosphat
photo
photographie
photography
photos
php
phra
phrase
phylogenetic
phylogeny
phys
physical
physics
physik
physikalisch
physikalische
physikalischen
physiker
physiologe
physiologie
physiologische
physiologischen
physische
physischen
pi
pia
piacenza
pianist
pianisten
pianistin
piano
pianoforte
piazza
pic
picard
picasso
piccolo
pichler
pick
pico
picture
pictures
pie
piece
piemont
pieper
pier
pierce
piero
pierre
piet
pieta
pieter
pietismus
pietro
pike
pilaster
pilastern
pilatus
pilger
pilot
piloten
pilsen
pilz
pilze
pin
pine
ping
pink
pinneberg
pinto
pinus
pio
pioneer
pionier
pioniere
piotr
pipeline
piper
pira
piraten
pirates
pirmasens
pirna
pisa
piste
pistole
pit
pitt
pittsburgh
piu
pius
pixel
piz
pjotr
pke
pkk
pkt
pkw
pl
pla
place
places
placid
plain
plains
plakat
plakate
plakette
plan
planck
plane
planen
planet
planeten
planma
planning
plans
plant
plantagen
plantarum
plante
planten
plants
planung
planungen
plasma
plastik
plastiken
plastische
plata
plate
plateau
plateaus
platform
platin
plato
platon
platons
platt
platte
platten
plattenfirma
plattenlabel
plattenvertrag
plattform
plattformen
platz
platzes
platzieren
platziert
platzierte
platzierten
platzierung
platzierungen
plauen
play
playboy
player
players
playoff
playoffs
plays
playstation
plaza
plc
ple
please
pleistoza
plettenberg
plinius
plo
plotarea
plotdata
plu
plug
plural
plus
plutarch
plymouth
pm
pmatrix
pmid
pnas
png
pnv
po
pocket
pod
podcast
podest
podestpla
podium
poe
poems
poesie
poet
poetik
poetische
poetischen
poetry
pohl
point
pointe
points
poitiers
pokal
pokalfinale
pokals
pokalsieger
pokalwettbewerb
poke
poker
pokerspieler
pol
pola
poland
polar
polarforscher
pole
polen
polens
poli
police
policy
polis
polish
politbu
political
politics
politik
politiker
politikerin
politikern
politikers
politikwissenschaft
politikwissenschaften
politikwissenschaftler
politique
politisch
politische
politischen
politischer
politisches
politologe
polizei
polizeiliche
polizeilichen
polizeipra
polizeiruf
polizist
polizisten
polka
poll
pollen
poln
polnisch
polnische
polnischen
polnischer
polo
polonia
polska
polski
poly
polydor
polytechnischen
pommern
pommersche
pommerschen
pompeius
pond
pons
pont
ponte
pony
pool
poor
pop
pope
popmusik
popp
popsa
popsong
popula
popular
popularita
population
populationen
por
pornodarstellerin
porsche
port
porta
portal
portale
portals
porte
porter
portfolio
portikus
portland
porto
portra
portrait
portraits
portsmouth
portugal
portugals
portugiese
portugiesen
portugiesisch
portugiesische
portugiesischen
portugiesischer
porzellan
pos
posaune
posaunist
posen
position
positionen
positioniert
positiv
positive
positiven
positiver
positives
posse
posselenije
possible
post
postamt
posten
poster
posthum
postkarte
postkarten
postum
pot
potential
potentielle
potentiellen
potenzial
potok
potosi
potsdam
potsdamer
potter
pour
powell
power
powers
powiat
poznan
pp
ppchen
ppel
ppen
pper
ppingen
pr
pra
pracht
practice
pradesh
prado
prag
prager
praha
prairie
praktiken
praktikum
praktisch
praktische
praktischen
praktischer
praktizieren
praktiziert
praktizierte
pratt
praxis
pre
prediger
predigt
predigten
preis
preise
preisen
preises
preisgekro
preisgeld
preisgelder
preistra
preisverleihung
preka
premie
premier
premiere
premierleutnant
premierminister
premierministers
premio
premium
prenzlau
prenzlauer
pres
present
presents
president
presidential
presley
press
presse
pressefreiheit
pressekonferenz
pressemeldung
pressemitteilung
prestel
prestige
preston
pretoria
pretty
preussen
preussischen
preuß
preußen
preußens
preußisch
preußische
preußischen
preußischer
preußisches
preßburg
pri
price
pride
priest
priester
priestern
priesters
priesterseminar
priesterweihe
prignitz
prima
primary
prime
primera
primo
primus
primzahlen
prince
princess
princeton
principal
principles
print
prinz
prinzen
prinzessin
prinzip
prinzipiell
prinzipien
prior
priorita
prisma
prison
privat
privatbesitz
privatdozent
private
privaten
privater
privates
privatisierung
privatleben
privatpersonen
privatrecht
privatschule
privileg
privilegien
privy
prix
prize
pro
probe
proben
problem
problematik
problematisch
probleme
problemen
problemlos
problems
probst
proc
proceedings
process
prod
producer
product
production
productions
products
produkt
produkte
produkten
produktion
produktionen
produktions
produktionsfirma
produktionskosten
produktionsnotizen
produktionssta
produktivita
produzent
produzenten
produzentin
produzieren
produzierendes
produziert
produzierte
produzierten
prof
professional
professionell
professionelle
professionellen
professioneller
professor
professoren
professorin
professors
professur
profi
profidebu
profifußball
profikader
profikarriere
profil
profile
profilierten
profiliga
profimannschaft
profis
profit
profitieren
profitierte
profivertrag
prognose
program
programm
programme
programmen
programmierer
programmiersprache
programmierung
programms
progress
progressive
project
projects
projekt
projekte
projekten
projektes
projektion
projekts
prokop
prolog
promenade
prometheus
prominente
prominenten
prominenter
promo
promotion
promoviert
promovierte
propaganda
propeller
properties
property
prophet
propheten
proportional
propst
propstei
propyla
prosa
prosieben
prospekt
prost
prostituierte
prostituierten
prostitution
protagonist
protagonisten
protection
protein
proteine
proteinen
protektorat
protest
protestanten
protestantisch
protestantische
protestantischen
protestantischer
protestantismus
proteste
protesten
protestierte
protocol
protokoll
protokolle
prototyp
prototypen
provence
providence
province
provincia
provincial
provinz
provinzen
provinzhauptstadt
provinzial
provinziallandtages
provisorisch
provisorische
provisorischen
prozent
prozess
prozesse
prozessen
prozesses
prozession
prozessor
prozessoren
pru
ps
psa
psalm
psalmen
pseudo
pseudonym
psi
pste
pstliche
pstlichen
pstlicher
psv
psyche
psychiater
psychiatrie
psychiatrische
psychiatrischen
psychisch
psychische
psychischen
psycho
psychoanalyse
psychoanalytiker
psychologe
psychologen
psychological
psychologie
psychologin
psychologische
psychologischen
psychology
psychotherapie
pt
ptolema
ptolemaios
pu
pub
publ
public
publication
publications
publikation
publikationen
publikum
publikums
publikumspreis
publique
published
publisher
publishers
publishing
publius
publiziert
publizierte
publizierten
publizist
publizistik
publizistin
puccinia
puebla
pueblo
puerto
pulitzer
puls
pulver
pumpe
pumpen
punjab
punk
punkt
punkte
punktefahren
punkten
punktera
punktgleich
punktspiele
punktzahl
punta
puppe
puppen
pure
purple
puschkin
pustet
put
putin
putnam
putsch
putten
putz
puy
px
pyeongchang
pyramide
pyramiden
pyre
pyrena
pyrmont
python
q
qa
qaida
qi
qin
qing
qu
qua
quad
quadrat
quadratische
quadratischen
quadratkilometer
quadratkilometern
quadratmeter
quadratmetern
qualifikation
qualifikationsrunde
qualifikationsrunden
qualifikationsspiel
qualifizieren
qualifiziert
qualifizierte
qualifizierten
qualifying
qualita
qualitativ
qualitative
quality
quantitative
quantum
quaranta
quarta
quartal
quarterback
quarterly
quartet
quartett
quartier
quarz
quasi
quatre
que
quebec
quechua
quecksilber
quedlinburg
queen
queens
queensland
queer
quelle
quellen
quellgebiet
quentin
quer
querhaus
querschiff
querschnitt
quert
quest
question
qui
quick
quincy
quinn
quintett
quintus
quipe
quito
quivalent
quo
quote
r
ra
raab
raabe
rabbi
rabbiner
rabe
raben
rac
race
rache
rachel
racing
rad
rada
radar
radebeul
radfahren
radfahrer
radia
radical
radierer
radierungen
radikal
radikale
radikalen
radio
radiosender
radius
radrennen
radrennfahrer
radsport
radsportler
radsportteam
radstand
radweg
rae
raf
rafael
rage
ragen
ragt
rahman
rahmen
rahmenbedingungen
rahmenlos
rai
raid
raiders
raiffeisen
raiffeisenbank
rail
railroad
railway
railways
raimund
rain
rainbow
rainer
raja
rajon
rajongemeinde
rajons
rakademie
rakete
raketen
ral
rale
ralf
rallye
ralph
ram
rama
rami
ramo
ramon
ramos
rampe
rams
ramsay
ramses
ramsey
ran
ranch
rand
randall
rande
randolph
random
randy
rang
range
ranger
rangers
ranges
rangle
rangliste
ranking
ranlage
rantzau
raoul
rap
raphael
rapid
rapide
rapids
rapp
rapper
rapperswil
rard
rare
ras
rasch
rasche
raschen
rascher
rasen
rasmussen
rasse
rassen
rassismus
rassistischen
rast
rastatt
rat
ratato
rate
rates
ratgeber
rath
rathaus
rathauses
ratibor
ratifiziert
rating
ratingen
ration
rational
rationale
rationalen
rats
ratsherr
ratsherren
ratsmitglieder
ratsmitgliedern
ratten
ratzeburg
rau
raub
rauch
rauchen
raum
raumes
raumfahrer
raumfahrt
raumflug
raums
raumschiff
raumstation
raupe
raupen
raus
rausch
raven
ravenna
ravensbru
ravensburg
raw
ray
raymond
rb
rbar
rbb
rbe
rbel
rben
rber
rbt
rbte
rbten
rbu
rbuch
rbung
rburgring
rc
rca
rchen
rcher
rchten
rchtet
rchtete
rchteten
rd
rde
rden
rdenla
rdenlauf
rdentra
rder
rderer
rdern
rderpreis
rdert
rderte
rderten
rderung
rderungen
rderverein
rdienst
rdig
rdige
rdigen
rdiger
rdigkeit
rdigkeiten
rdigt
rdigte
rdigung
rdlich
rdliche
rdlichen
rdlicher
rdliches
rdlichste
rdlichsten
rdlingen
rdoba
re
rea
reach
read
reader
reading
ready
reagan
reagieren
reagiert
reagierte
reagierten
reaktion
reaktionen
reaktiviert
reaktivierung
reaktor
real
reale
realen
realgymnasium
realisieren
realisiert
realisierte
realisierung
realismus
realistisch
realistische
realita
reality
reallexikon
realschule
rear
rebecca
rebel
rebell
rebellen
rebellion
rebounds
rebsorte
rebsorten
rec
receiver
recent
recherche
recherchen
recherches
rechnen
rechner
rechnet
rechnete
rechnung
rechnungen
recht
rechte
rechteckige
rechteckigen
rechten
rechter
rechtes
rechtfertigen
rechtfertigung
rechtlich
rechtliche
rechtlichen
rechtlicher
rechtma
rechts
rechtsanwa
rechtsanwalt
rechtschreibung
rechtsextreme
rechtsextremen
rechtsextremismus
rechtsform
rechtsgescha
rechtsgeschichte
rechtsgrundlage
rechtshistoriker
rechtskra
rechtslage
rechtsprechung
rechtsquelle
rechtsstreit
rechtswissenschaft
rechtswissenschaften
rechtswissenschaftler
rechtzeitig
reck
recklinghausen
reclam
reclams
reconstruction
record
recording
recordings
records
recycling
red
redakteur
redakteurin
redaktion
redaktionelle
redaktioneller
rede
reden
redner
reduktion
reduzieren
reduziert
reduzierte
reduzierten
reduzierung
reed
reeder
reederei
reelle
reellen
rees
reeves
referat
reference
referendariat
referendum
referent
referenz
referenzen
reflections
reflektiert
reflexion
reflexionen
reform
reformation
reformator
reformen
reformer
reformiert
reformierte
reformierten
reformierter
reformpa
refrain
reg
regatta
rege
regel
regelfall
regelma
regeln
regelt
regelte
regelung
regelungen
regelwerk
regen
regenbogen
regenfa
regensburg
regensburger
regent
regenten
regentin
regentschaft
regenwald
regenzeit
reger
regesta
regesten
reggae
reggio
regia
regie
regieren
regierende
regierenden
regiert
regierte
regierten
regierung
regierungen
regierungs
regierungsbezirk
regierungsbezirke
regierungsbezirks
regierungsblatt
regierungschef
regierungschefs
regierungspra
regierungsrat
regierungszeit
regime
regiment
regimenter
regiments
regimes
regina
reginald
regine
regio
region
regional
regionale
regionalen
regionaler
regionales
regionalgeschichte
regionalliga
regionalligisten
regionalverkehr
regionen
regis
regisseur
regisseure
regisseuren
regisseurin
regisseurs
register
registern
registriert
registrierte
registrierten
registrierung
reglement
regte
regula
regular
regulation
reguliert
regulierung
rehabilitation
rei
reich
reiche
reichel
reichen
reichenau
reichenbach
reichenberg
reichenhall
reicher
reichert
reiches
reichlich
reichs
reichsbahn
reichsbahndirektion
reichsfu
reichsgesetzblatt
reichskanzler
reichsmark
reichspra
reichsrat
reichsregierung
reichssta
reichsstadt
reichsstraße
reichstag
reichstages
reichstags
reichstagsabgeordneter
reichstagswahl
reichstagswahlen
reichsten
reichswehr
reicht
reichte
reichten
reichtum
reichweite
reid
reif
reife
reifen
reifepru
reign
reihe
reihen
reihenfolge
reilly
reimann
reimer
reims
rein
reinbek
reine
reinen
reiner
reines
reinhard
reinhardt
reinhart
reinheit
reinhold
reinigung
reis
reise
reisebericht
reisefu
reisen
reisende
reisenden
reist
reiste
reisten
reiten
reiter
reitern
reiz
reißen
reißt
rekonstruieren
rekonstruiert
rekonstruktion
rekord
rekorde
rekordmeister
rekrutiert
rektor
related
relation
relationen
relations
relationships
relativ
relative
relativen
relativita
release
relegation
relevant
relevante
relevanten
relevanz
relief
reliefs
religio
religion
religionen
religions
religionsfreiheit
religionspa
religionsunterricht
religionswissenschaft
religionszugeho
religious
reliquien
rem
remake
rembrandt
remember
remis
remix
remixes
rems
remscheid
ren
renaissance
renate
renato
renault
rend
rende
renden
rendsburg
rene
rener
rennen
rennens
renner
rennes
rennfahrer
rennrunde
rennserie
rennstall
rennstrecke
rennwagen
reno
renommierte
renommierten
renoviert
renovierung
renovierungsarbeiten
renreiter
rente
renten
rentenversicherung
renz
reorganisation
rep
reparatur
reparaturen
repariert
repertoire
repertorium
report
reportage
reportagen
reporter
reports
repra
reprint
reprise
reproduktion
reptilien
repu
repubblica
republic
republican
republik
republikaner
republikanische
republikanischen
reputation
requiem
rer
rern
rers
rerum
res
rescue
research
reservat
reservation
reserve
reservemannschaft
reserven
reserviert
reservoir
residence
resident
residenz
residenzstadt
residierte
resistance
resolution
resonanz
resort
resource
resources
resp
respekt
respektive
response
ressort
ressource
ressourcen
rest
restaurant
restaurants
restauration
restaurator
restauriert
restaurierte
restaurierung
restaurierungsarbeiten
reste
resten
restliche
restlichen
resu
resultat
resultate
resultierende
resultierenden
resultiert
resultierte
results
ret
retrospektive
retten
retter
rettet
rettete
rettung
rettungsdienst
return
reunion
reuter
reuters
reutlingen
reuß
rev
reval
revenge
revidiert
revidierte
revier
review
reviews
revised
revision
revista
revival
revolte
revolution
revolutiona
revolver
revue
rex
rey
reyes
reykjavi
reynolds
rez
reza
rezension
rezensionen
rezept
rezepte
rezeption
rezeptor
rezeptoren
rezipiert
rezitativ
rf
rfc
rfe
rfel
rfen
rfer
rfern
rflugplatz
rfnis
rfnisse
rfnissen
rft
rfte
rften
rftig
rftige
rftigen
rfung
rfunk
rg
rgb
rge
rgen
rgens
rger
rgerhaus
rgerinitiative
rgerkrieg
rgerkrieges
rgerkriegs
rgerlich
rgerliche
rgerlichen
rgerlicher
rgerliches
rgermeister
rgermeisterei
rgermeisterin
rgermeisters
rgermeisterwahl
rgermeisterwahlen
rgern
rgerrecht
rgerrechte
rgers
rgerschaft
rgerschule
rgert
rgertum
rgertums
rgerung
rgeschichte
rgt
rgy
rhein
rheine
rheinfelden
rheingau
rheinhessen
rheinisch
rheinische
rheinischen
rheinisches
rheinland
rheinlande
rheinprovinz
rheins
rheinufer
rhenania
rhetorik
rhin
rho
rhode
rhodes
rhododendron
rhodos
rhythm
rhythmen
rhythmische
rhythmus
ri
ria
rias
ribeiro
ric
rica
ricanischer
ricardo
riccardo
ricci
rice
rich
richard
richards
richardson
richelieu
richie
richmond
richten
richter
richterin
richtern
richters
richtet
richtete
richteten
richtig
richtige
richtigen
richtigkeit
richtlinie
richtlinien
richtung
richtungen
rick
ricky
rico
ride
rider
ridge
rie
ried
riedel
rief
riefen
riegel
rieger
riemann
rien
ries
riesa
riese
riesen
riesenslalom
riesige
riesigen
riet
rieure
riff
rig
riga
rige
rigen
riger
right
rightarrow
rights
rigkeit
rigord
riley
rilke
rime
rimini
rin
rinde
rinder
ring
ringe
ringen
ringens
ringer
ringfo
ringische
ringischen
ringmauer
ringo
rings
ringstraße
rinne
rinteln
rio
riot
rippen
ris
risch
rische
rischen
rischer
risches
rise
risiken
risiko
rising
risk
riss
risse
rita
ritchie
rite
riten
ritt
ritter
rittergu
rittergut
rittergutsbesitzer
ritterkreuz
ritterorden
ritters
ritterschaft
rittmeister
ritual
rituale
ritus
ritz
riva
rivalen
rivalita
river
rivera
rivers
riverside
rivie
rk
rkarriere
rke
rkei
rken
rker
rkere
rkeren
rkheim
rki
rkisch
rkische
rkischen
rkischer
rkisches
rkiye
rkste
rksten
rkt
rkte
rkten
rkung
rkungen
rl
rlich
rliche
rlichen
rlicher
rliches
rliteratur
rlitz
rlitzer
rm
rmann
rmchen
rme
rmelkanal
rmen
rmer
rmeren
rmern
rmers
rmig
rmige
rmigen
rmiger
rmiges
rmlichen
rmsten
rmt
rmte
rmung
rn
rna
rnberg
rnberger
rnchen
rne
rner
rnern
rnten
rntner
ro
road
roadster
rob
robbie
robbins
robert
roberto
roberts
robertson
robin
robinson
robot
roboter
rocca
rocco
roche
rochelle
rochester
rochlitz
rochus
rock
rockabilly
rockband
rockefeller
rocket
rockets
rockmusik
rockmusiker
rocks
rocky
rod
roda
rode
roden
rodgers
rodney
rodolfo
rodri
rodrigo
rodrigues
rodriguez
rogeba
roger
rogers
roggen
roh
rohan
rohde
rohr
rohrbach
rohre
rohstoff
rohstoffe
rohstoffen
rohwer
roi
rokoko
rokratie
roland
role
rolf
roll
rolle
rollen
rollenspiel
roller
rolling
rolls
rollstuhl
roloff
rom
roma
romagna
romain
roman
romana
romance
romane
romanen
romani
romanik
romanische
romanischen
romanischer
romanist
romanistik
romano
romans
romantik
romantische
romantischen
romanum
romanze
rome
romeo
romero
rommel
roms
romy
ron
ronald
rondo
ronnie
ronny
rookie
room
roosevelt
root
roots
ros
rosa
rosario
rosberg
rose
rosemarie
rosen
rosenberg
rosengarten
rosenheim
rosenkranz
rosenthal
roses
rosette
ross
rossi
rossini
rosso
rost
rostock
rostocker
rostow
rot
rotation
rotbraun
rote
rotem
roten
rotenburg
roter
rotes
roth
rothe
rothenburg
rother
rothschild
rott
rottal
rotten
rottenburg
rotterdam
rottweil
rouen
rouge
rough
round
rousseau
route
routen
routledge
roux
rover
rovers
row
rowohlt
roy
royal
royale
royce
rp
rper
rperbau
rpergewicht
rpergro
rperla
rperlich
rperliche
rperlichen
rperlicher
rpern
rpers
rperschaft
rperschaften
rperson
rpert
rperte
rperverletzung
rr
rrach
rre
rregierung
rrez
rs
rsc
rsche
rschen
rschner
rschners
rse
rsen
rser
rsfsr
rshavn
rsorge
rspiel
rspiele
rspielsprecher
rsssf
rst
rstbischo
rstbischof
rste
rsten
rstenberg
rstenfeldbruck
rstentu
rstentum
rstentums
rster
rsterei
rstin
rstlich
rstliche
rstlichen
rt
rte
rtel
rtelasteroid
rtels
rten
rter
rterbu
rterbuch
rtern
rth
rther
rtig
rtige
rtigen
rtiger
rtiges
rtingen
rtl
rtlich
rtliche
rtlichen
rtlicher
rtner
rtnerei
rts
rtsniederlage
rtssieg
rtsspiel
rttemberg
rttemberger
rttembergische
rttembergischen
rttembergischer
rttembergs
rtyrer
ru
ruanda
rubel
ruben
rubens
rubin
rubrik
ruby
ruder
ruderer
ruderin
rudern
rudi
rudolf
rudolph
rudolstadt
rudy
rue
ruf
rufe
rufen
ruft
rufus
rugby
ruhe
ruhen
ruhesta
ruhestand
ruhig
ruhigen
ruhm
ruhr
ruhrgebiet
ruht
ruhte
ruine
ruinen
ruisseau
ruiz
rule
rulers
rules
rum
ruma
rumpf
run
rund
rundbogenfenster
rundbogige
runde
runden
runder
rundfahrt
rundfunk
rundfunks
rundgang
rundschau
rundweg
rung
runge
rungen
rungstheorien
runner
running
runs
rupert
ruppin
ruprecht
rural
ruralgemeinde
rus
rush
russ
russe
russell
russen
russia
russian
russisch
russische
russischen
russischer
russisches
russland
russlands
rust
ruta
ruth
rutherford
rutschte
rußland
rv
rverlag
rverwaltung
rvi
rwe
rworter
rwortete
rwth
ry
ryan
ryo
ryu
rz
rzburg
rzburger
rze
rzel
rzen
rzer
rzere
rzeren
rzeste
rzester
rzlich
rzt
rzte
rzteblatt
rztekammer
rzten
rztin
rztliche
rztlichen
rztlicher
rzung
rzungen
s
sa
saab
saal
saalbau
saale
saalfeld
saalkirche
saar
saarbru
saarburg
saarla
saarland
saarlandes
saarlouis
saba
sabah
sabina
sabine
sabrina
sac
sachbu
sachbuch
sachbuchautor
sache
sachen
sachlichkeit
sachliteratur
sachs
sachsen
sachsenhausen
sachsens
sachverhalt
sachversta
sack
sacra
sacramento
sacred
sad
sae
safe
safety
sag
saga
sagan
sage
sagen
sagt
sagte
sagten
sah
sahara
sahen
sai
said
sailer
saint
sainte
saints
saison
saisonbeginn
saisonende
saisons
saisonverlauf
saiten
sakralbau
sakralbauten
sakrament
sakristei
sal
sala
salamanca
salazar
sale
salem
salerno
sales
saline
salisbury
salle
sally
salm
salome
salomon
salon
salt
salvador
salvator
salvatore
salz
salzburg
salzburger
salze
salzgitter
salzkammergut
salzwedel
sam
samantha
sambia
same
samen
sami
sammelba
sammelband
sammeln
sammelt
sammelte
sammelten
sammler
sammlung
sammlungen
sammy
samoa
sampler
samson
samstag
samstags
samsung
samt
samtgemeinde
samuel
samurai
san
sanatorium
sancho
sancti
sand
sande
sander
sanders
sandigen
sandra
sandro
sands
sandstein
sandte
sandy
sanft
sang
sangen
saniert
sanierung
sanita
sank
sanken
sankt
sanktionen
sanremo
sans
sanskrit
sant
santa
santana
santander
santi
santiago
santo
santos
sao
sap
sapporo
sar
sara
saragossa
sarah
sarajevo
sardinien
sarg
sarkophag
sars
sas
sascha
saskatchewan
sat
satan
satellit
satellite
satelliten
satire
satirische
sato
sattel
satteldach
sattler
saturday
saturn
satz
satzes
satzung
sauber
saudi
sauer
sauerla
sauerland
sauerstoff
saul
saunders
saur
sauren
savage
save
savoie
savoy
savoyen
saw
sax
saxon
saxonia
saxophon
saxophonist
say
sayn
says
saß
saßen
sb
sbb
sbz
sc
scala
scale
scalemajor
scaleminor
scan
scar
scene
sch
scha
schach
schachspieler
schacht
schade
schaden
schaefer
schaf
schafe
schaffen
schaffens
schaffhausen
schafft
schaffte
schafften
schaffung
schaft
schah
schale
schalen
schalke
schall
schaller
schallplatte
schallplatten
schalter
schaltung
schanze
scharf
scharfe
scharfen
scharfschu
schatten
schatz
schatzmeister
schau
schauen
schaumburg
schaupla
schauplatz
schauspiel
schauspielausbildung
schauspieler
schauspielerei
schauspielerin
schauspielern
schauspielers
schauspielhaus
schauspielschule
schaut
sche
scheduled
scheel
scheer
scheffel
scheibe
scheiben
scheich
scheiden
scheidung
schein
scheinbar
scheinbare
scheinen
scheint
scheinwerfer
scheitel
scheitern
scheitert
scheiterte
scheiterten
schel
schell
schellenberg
schema
schen
schenck
schenk
schenken
schenkt
schenkte
schenkung
schenkungen
scher
scherben
scherer
scherz
scheune
schicht
schichten
schicken
schicksal
schicksale
schickt
schickte
schickten
schied
schieden
schiedsrichter
schiefer
schien
schiene
schienen
schienenfahrzeug
schienennetz
schienenverkehr
schießen
schießt
schiff
schiffbau
schiffbru
schiffe
schiffen
schiffer
schiffes
schifffahrt
schiffs
schiffsverkehr
schiffsverlust
schild
schilddru
schilde
schilder
schildert
schilderte
schilderung
schilderungen
schildkro
schiller
schillers
schilling
schindler
schinkel
schirmer
schirmherrschaft
schla
schlacht
schlachten
schlachtfeld
schlachtschiff
schlaf
schlafen
schlafzimmer
schlag
schlaganfall
schlagen
schlager
schlagersa
schlagzeilen
schlagzeug
schlagzeuger
schlamm
schlange
schlangen
schlank
schlanke
schlanken
schlecht
schlechte
schlechtem
schlechten
schlechter
schlechtes
schlechteste
schlechtesten
schlegel
schleicher
schleife
schleifen
schlepper
schlesien
schlesiens
schlesinger
schlesische
schlesischen
schleswig
schleuse
schleusen
schlicht
schlichte
schlichten
schlichter
schliesslich
schließen
schließlich
schließt
schließung
schlo
schloss
schlossberg
schlossen
schlosser
schlosses
schlosskapelle
schlosskirche
schlosspark
schloß
schlu
schlucht
schlug
schlugen
schluss
schlussendlich
schluß
schma
schmal
schmale
schmalen
schmaler
schmalkalden
schmallenberg
schmalspurbahn
schmerz
schmerzen
schmetterling
schmetterlinge
schmid
schmidhammer
schmidt
schmied
schmiede
schmitt
schmitz
schmo
schmu
schmuck
schnabel
schnauze
schnecken
schnee
schneeberg
schneiden
schneider
schneidet
schnell
schnelle
schnellen
schneller
schnelles
schnellfahrstrecke
schnellste
schnellsten
schnellstraße
schnitt
schnittpunkt
schnittstelle
schnittstellen
schnitzler
schnu
scho
schock
schokolade
scholar
scholl
scholz
schon
schongau
school
schools
schopenhauer
schorndorf
schornstein
schoss
schott
schotte
schotten
schottische
schottischen
schottischer
schottland
schottlands
schra
schrader
schramm
schrauben
schrecken
schrei
schreiben
schreiber
schreibt
schreibung
schreibweise
schreibweisen
schrein
schreiner
schrieb
schrieben
schrift
schriften
schriftenreihe
schriftfu
schriftlich
schriftliche
schriftlichen
schriftsteller
schriftstellerin
schriftstellern
schriftstellers
schriftstu
schriftzeichen
schriftzug
schritt
schritte
schritten
schrittweise
schro
schroeder
scht
schu
schub
schubert
schuf
schufen
schuh
schuhe
schul
schulabschluss
schulausbildung
schulbesuch
schulbildung
schuld
schulden
schuldienst
schuldig
schuldner
schule
schulen
schulenburg
schuler
schulgeba
schulhaus
schulische
schulischen
schuljahr
schulklassen
schulleiter
schulte
schulter
schultern
schultheiß
schultz
schultze
schulung
schulwesen
schulz
schulze
schulzeit
schulzentrum
schumacher
schumann
schung
schuppen
schuss
schusswaffen
schuster
schutt
schutz
schutze
schutzgebiet
schutzgebiete
schutzhu
schutzmaßnahmen
schutzpatron
schutzzweck
schwa
schwab
schwabach
schwabe
schwaben
schwach
schwache
schwachen
schwager
schwalm
schwan
schwandorf
schwanger
schwangerschaft
schwanken
schwankt
schwankungen
schwann
schwanz
schwartz
schwarz
schwarzach
schwarzburg
schwarze
schwarzem
schwarzen
schwarzenberg
schwarzer
schwarzes
schwarzkopf
schwarzwa
schwarzwald
schwarzweißfilm
schwede
schweden
schwedens
schwedisch
schwedische
schwedischen
schwedischer
schwedt
schwefel
schwefelsa
schweidnitz
schweigen
schwein
schweine
schweinfurt
schweitzer
schweiz
schweizer
schweizerisch
schweizerische
schweizerischen
schweizerischer
schweizerisches
schwelle
schwenningen
schwer
schwere
schweren
schwerer
schweres
schwergewicht
schwerin
schweriner
schwerpunkt
schwerpunkte
schwerpunkten
schwerpunktma
schwerste
schwersten
schwert
schwerter
schwertern
schwester
schwestern
schwesterschiff
schwiegersohn
schwiegervater
schwierig
schwierige
schwierigen
schwieriger
schwierigkeit
schwierigkeiten
schwierigkeitsgrad
schwimmbad
schwimmen
schwimmer
schwimmerin
schwingen
schwingungen
schwo
schwule
schwulen
schwyz
sci
science
sciences
scientific
score
scorer
scorerpunkte
scorpions
scotia
scotland
scott
scottish
scout
scratch
screen
scuderia
sculpture
sd
se
sea
seal
seals
sean
search
season
seat
seattle
sebastia
sebastian
sebring
sec
secession
sechs
sechsja
sechsmal
sechste
sechsten
sechster
sechszylinder
sechzehn
sechzig
sechziger
second
secret
secretary
secrets
section
security
sed
sedan
sedimente
see
seebach
seefahrer
seefahrt
seefeld
seeger
seekrieg
seeland
seele
seelen
seeleute
seelsorge
seelsorger
seemann
seemeilen
seen
seenplatte
sees
seeschlacht
sega
segeberg
segel
segeln
segelte
segen
segler
segment
segmente
segunda
sehe
sehen
sehenswert
sehenswu
sehnsucht
sehr
sei
seid
seide
seidel
seidl
seien
seifert
seigneur
seil
seilbahn
seiler
sein
seine
seinem
seinen
seiner
seinerseits
seinerzeit
seines
seins
seit
seitdem
seite
seiten
seitenalta
seitenaltar
seitenansicht
seitenflu
seitenla
seitens
seitenschiff
seitenschiffe
seitenwa
seither
seitlich
seitliche
seitlichen
seitz
sejm
sek
[...]
