!
"
#
##0
##1
##10
##11
##12
##13
##14
##15
##16
##17
##18
##19
##2
##20
##21
##22
##23
##24
##25
##26
##27
##28
##29
##3
##30
##31
##32
##33
##34
##35
##36
##37
##38
##39
##4
##40
##41
##42
##43
##44
##45
##46
##47
##48
##49
##5
##50
##51
##52
##53
##54
##55
##56
##57
##58
##59
##6
##60
##61
##62
##63
##64
##65
##66
##67
##68
##69
##7
##70
##71
##72
##73
##74
##75
##76
##77
##78
##79
##8
##80
##81
##82
##83
##84
##85
##86
##87
##88
##89
##9
##90
##91
##92
##93
##94
##95
##96
##97
##98
##99
$
%
&
'
(
)
*
+
,
-
.
/
0
00
000
001
002
003
01
010
012
013
02
03
04
05
06
07
08
09
1
10
100
1000
10000
101
102
103
104
105
106
107
108
109
11
110
1100
111
112
113
114
115
116
117
118
119
12
120
1200
121
122
123
124
125
126
127
128
129
13
130
1300
131
132
133
134
135
136
137
138
139
14
140
1400
141
142
143
144
145
146
147
148
149
1492
15
150
1500
151
152
1520
1521
153
154
1541
1542
1547
155
156
1564
157
158
1582
159
16
160
1600
161
162
163
164
1648
165
166
167
168
169
1691
17
170
1700
1701
1707
171
1712
172
173
174
175
1750
1759
176
1760
1765
1768
177
1770
1772
1775
1776
1778
178
1782
1783
1786
1788
1789
179
1790
1791
1792
1793
1794
1795
1796
1797
1799
18
180
1800
1801
1802
1803
1804
1805
1806
1808
1809
181
1810
1812
1813
1814
1815
1816
1817
1818
1819
182
1820
1821
1822
1823
1824
1825
1826
1827
1828
1829
183
1830
1831
1832
1833
1834
1835
1836
1837
1838
1839
184
1840
1841
1842
1843
1844
1845
1846
1847
1848
1849
185
1850
1851
1852
1853
1854
1855
1856
1857
1858
1859
186
1860
1861
1862
1863
1864
1865
1866
1867
1868
1869
187
1870
1871
1872
1873
1874
1875
1876
1877
1878
1879
188
1880
1881
1882
1883
1884
1885
1886
1887
1888
1889
189
1890
1891
1892
1893
1894
1895
1896
1897
1898
1899
19
190
1900
1901
1902
1903
1904
1905
1906
1907
1908
1909
191
1910
1911
1912
1913
1914
1915
1916
1917
1918
1919
192
1920
1921
1922
1923
1924
1925
1926
1927
1928
1929
193
1930
1931
1932
1933
1934
1935
1936
1937
1938
1939
194
1940
1941
1942
1943
1944
1945
1946
1947
1948
1949
195
1950
1951
1952
1953
1954
1955
1956
1957
1958
1959
196
1960
1961
1962
1963
1964
1965
1966
1967
1968
1969
197
1970
1971
1972
1973
1974
1975
1976
1977
1978
1979
198
1980
1981
1982
1983
1984
1985
1986
1987
1988
1989
199
1990
1991
1992
1993
1994
1995
1996
1997
1998
1999
2
20
200
2000
2001
2002
2003
2004
2005
2006
2007
2008
2009
201
2010
2011
2012
2013
2014
2015
2016
2017
2018
2019
202
2020
2021
2022
2023
203
204
205
206
208
209
21
210
211
212
213
214
215
216
217
218
219
22
220
221
222
223
224
225
226
227
228
229
23
230
232
233
234
235
236
237
238
24
240
241
242
243
244
245
246
247
248
249
25
250
252
253
254
255
256
257
258
259
26
260
261
262
263
264
265
267
268
27
270
271
272
273
274
275
276
277
279
28
280
281
283
284
285
287
288
29
290
291
292
293
295
296
299
3
30
300
301
303
304
305
306
309
31
310
312
313
316
317
318
319
32
320
321
322
323
324
325
326
329
33
330
331
333
334
336
339
34
340
343
344
345
346
347
348
35
350
352
353
354
355
356
359
36
360
362
365
366
37
370
372
376
38
380
383
385
387
39
395
4
40
400
4000
41
410
42
420
43
430
435
44
449
45
450
46
47
48
486
49
5
50
500
5000
51
52
53
54
55
550
56
569
57
570
58
580
59
6
60
600
61
613
62
625
63
639
64
65
650
66
67
68
69
7
70
700
71
72
73
74
747
75
750
76
77
770
78
79
8
80
800
81
815
82
83
84
840
85
850
86
8601
87
88
89
9
90
900
91
911
92
920
93
930
94
949
95
950
96
960
965
97
970
975
978
98
980
99
990
999
:
;
<
=
>
?
@
\
^
_
`
a
aa
aaa
ab
abc
ability
able
about
above
abstract
abuse
ac
acceptable
accepted
accepting
access
accessdate
accessed
accessible
according
account
accounts
across
act
action
actions
active
activities
activity
ad
add
addclass
added
adding
addition
additional
addportletlink
address
adds
adjacent
admin
administrators
advance
advanced
af
affect
affected
affects
affiliate
after
again
against
age
agency
agenda
ago
agree
ahead
air
al
aleph
alias
aliases
align
all
allow
allowed
allows
alpha
already
als
also
alt
although
always
am
ambassadors
america
american
among
amount
amsgila
amsterdam
an
analysis
anchor
and
announce
announced
announcement
announcing
annual
another
ans
answer
answers
any
anyone
anything
apologies
apologize
appear
appearance
appears
applications
apply
appreciate
appreciated
appropriate
april
ar
arabic
aragorn
archive
archived
archivedate
archiveis
archives
archiveurl
are
area
areas
aren
args
argument
arguments
arms
around
arrow
art
article
articles
artist
arxiv
as
asin
ask
asked
asking
asp
aspx
assisted
associated
association
at
attend
attr
au
august
author
authorlink
authors
auto
automatic
automatically
available
aware
away
az
b
ba
back
background
bad
baden
bakerloo
banner
bar
bars
base
based
basic
bbb
bbc
be
because
become
been
before
begin
beginning
begun
behalf
behavior
behind
being
believe
below
berlin
bes
best
beta
betawiki
better
between
bg
bhol
bi
bibcode
bidi
big
bing
birthdate
birthdatestr
bit
black
blank
block
blocked
blog
blogs
blogspot
blue
bn
board
body
bold
book
books
boolean
border
bot
both
botmultichill
bots
bottom
box
boxes
br
brackets
branch
break
bring
british
brivla
broken
browser
bs
bug
bugs
bugzilla
build
building
bureaucrat
but
button
buttons
by
byrial
bytes
c
ca
cache
cactions
calendar
call
callback
called
cambridge
campaign
can
candidate
candidates
cannot
cap
caption
cards
care
case
cases
cat
categori
categoria
categorie
categories
category
cats
cc
ccc
cdot
ce
cell
center
central
centre
century
cfg
ch
chan
chance
change
changed
changes
changing
channel
chapter
chapterurl
character
characters
charter
chat
check
checkuser
chess
child
chile
choose
christmas
cia
circle
circular
citation
citationclass
citations
cite
citoid
city
cl
claim
claims
class
classname
clear
click
clicking
close
cm
cnn
co
coauthors
cocktail
code
codes
coins
collection
collections
color
colors
colspan
column
columns
com
come
coming
comment
comments
committee
common
commons
communication
communities
community
company
compass
competition
complaints
complete
completed
computer
con
concat
concerns
conduct
conference
config
configuration
conflict
conflicts
consider
consistent
consultation
consultations
contact
contains
content
contents
contest
context
continue
contribute
contributions
contributors
control
conversation
conversations
convert
coord
coordinate
coordinates
coordinatespec
copy
copyright
core
correct
corresponding
cos
cot
could
count
counter
countries
country
county
course
create
created
creating
creation
cross
crossvalidate
crossvalidateresult
cs
css
csstext
ctrl
cultural
culture
cur
current
currently
cy
d
da
daily
danny
darkgrey
das
data
database
datastyle
datatemplate
datavalue
date
dateformat
daterangestr
dates
datestr
datetime
datetype
david
day
days
dc
dd
ddd
de
dead
deadline
dear
deathcause
deathdate
deathdatestr
dec
december
decide
decimal
decision
default
defaults
define
defined
definition
degrees
del
delete
deleted
delivered
delivery
den
department
depending
deployment
deprecated
der
des
desc
description
descriptions
design
desktop
details
deutsche
deutschland
developers
development
devices
di
dia
diagram
dialog
dictionary
did
die
diff
different
digit
digital
digits
direction
directly
disable
disambiguation
discuss
discussion
discussions
display
displayed
displays
dissemination
distributed
div
diverse
diversity
dl
dms
dn
dna
do
doc
document
documentation
does
doesn
doi
doing
domain
don
donation
done
dont
dos
double
down
download
downloader
dr
draft
drafting
drop
drork
dt
du
due
during
dutch
dvd
dx
e
each
eachpropclaim
earlier
early
easier
easily
east
eastbound
easy
ed
edit
edited
editform
editing
edition
editor
editors
edits
edu
education
eee
effeietsanders
effort
either
el
election
elections
element
elements
eligible
elitre
else
elseif
elu
em
email
embargo
empty
en
enable
enabled
enabling
encode
encourage
encyclopedia
end
enddate
enforcement
engagement
engine
english
enough
entity
entityid
entry
environment
eo
err
error
errors
es
escape
espan
especially
est
et
etc
eu
europe
european
even
event
events
every
everyone
everything
evt
example
examples
except
excited
exist
existing
exists
expand
expandtemplate
expect
expected
experience
experienced
explorer
extension
external
f
fa
facebook
fact
false
family
fancy
faq
far
faster
favor
favorite
fdc
fe
feature
featured
features
february
feedback
feel
fellow
feminism
fen
fetch
few
ff
fff
ffffff
fi
field
file
files
fill
filled
film
filter
final
find
first
firstchild
fis
five
fix
fixed
flag
flags
float
fo
focus
focused
folk
folklore
follow
followed
following
font
fontsize
food
footer
for
force
form
format
formats
formatted
formattedevent
formattedvalue
formatting
former
forum
forums
forward
found
foundation
four
fr
frac
frame
frameless
framework
franc
france
free
french
friday
friends
from
front
fu
full
func
function
functionality
functions
funding
funds
further
future
g
ga
gadget
gadgets
game
gangleri
ge
gender
general
generaldate
geo
george
geotype
german
geschichte
get
getargs
getbeststatements
getelementbyid
getentityidforcurrentpage
getparent
getpropertybyoptions
getting
geturl
getvalueof
ghil
gif
git
give
given
gje
gl
global
globe
gnu
go
goal
going
good
google
gov
governance
grant
grants
gray
great
green
greetings
group
groups
gsub
guide
guidelines
h
ha
had
hampstead
hand
handle
handler
handling
happen
happens
happy
harassment
harel
harrow
has
hasdata
hasidic
hat
have
haven
having
hc
hdate
he
head
header
headline
health
hear
heard
hebrew
hebrewbooks
height
held
helena
hello
help
helpbox
helped
helper
helping
her
here
hi
hidden
hide
hides
high
highbury
hill
him
his
history
hlist
hold
home
hope
host
hosted
hot
hour
hours
house
how
however
hr
href
htm
html
htmlhttps
http
https
hu
human
hx
i
ia
icon
icons
id
idea
ideas
identifier
idnumber
ids
ie
if
ignore
ignored
ii
iii
ijja
il
im
image
images
imdb
img
impact
implementation
important
improve
improved
improvements
improving
in
inarray
include
included
includes
including
inclusive
increment
index
indexnavigationbar
indexpages
indic
individual
individuals
info
infobox
infoboxes
infoobj
inform
information
informed
infty
inherit
initial
initials
initiative
inline
input
insert
inserter
inset
inside
instead
institute
instructions
int
intended
interested
interface
internal
international
internet
interview
interwiki
into
introduction
invalid
inversed
invitation
invite
invited
involved
inwikidata
ip
ipairs
ipv
ir
irc
is
isbn
islands
islington
isn
iso
israel
israeli
issn
issue
issues
ist
it
italian
italic
item
items
its
itself
iv
ivelt
j
ja
jaffa
james
jan
january
japanese
javascript
jdn
jerusalem
jethrobt
jewish
jews
jiddisch
jobs
joe
john
join
joining
joseph
journal
journals
jpg
js
jstor
ju
judaica
juden
july
jun
junction
june
just
k
ka
kategori
kategorie
kategorija
kaveshtiebel
keep
key
keyboard
kind
kindly
king
kingdom
know
knowledge
known
ko
korean
ku
l
la
label
labelname
lane
lang
language
languages
large
last
lat
late
later
latest
latitude
law
lay
lb
lccn
le
lead
leadership
leading
learn
learning
least
leave
led
left
leftimage
legal
legend
len
length
les
less
let
lets
letter
letters
level
lh
li
library
life
light
like
likely
lim
limit
limited
line
linen
lines
link
linked
linking
links
list
listed
lists
little
live
ll
load
loader
local
localisation
location
log
logged
logo
london
long
longer
longitude
look
looking
los
lost
lot
love
loves
lower
lowercase
lt
ltr
lua
lum
lv
m
ma
machine
made
magazine
magic
mail
mailing
main
mainsnak
maintain
maintaincecats
maintenance
major
make
makes
making
man
manager
manual
manually
many
map
mapframe
maps
march
margin
mark
marked
marks
markup
mask
mass
match
matching
materials
math
mathbb
matter
max
maximum
may
maybe
mc
me
means
media
mediawiki
meet
meeting
meetings
members
men
menu
menus
message
messages
meta
mi
michael
microsoft
middle
might
military
million
min
minor
minute
minutes
miss
missing
mit
mk
ml
mm
mo
mobile
mod
mode
modern
module
monobook
month
monthly
monthname
months
moon
more
most
mostly
move
movement
movies
mp
mr
ms
msg
mt
mu
much
multilingual
multiple
museum
music
must
mw
my
mylanguage
mystackj
n
na
name
named
names
namespace
namespaces
nasa
national
native
navbox
navchild
navcontent
navframe
navigation
navpop
navpopup
navtoggle
nd
nds
ne
necessary
need
needed
needs
negative
net
network
never
new
newcomers
newoption
news
newsletter
newwin
next
ng
night
nil
nisa
nit
nl
nm
nn
no
noeditsection
noinclude
nominate
nominations
non
none
normal
north
northbound
northern
not
note
notes
nothing
notice
notification
notifications
notify
notoc
november
now
nowrap
nrg
ns
null
num
number
numbers
numeric
ny
nybc
nytimes
o
object
oc
ocinsoutput
oclc
ocr
october
of
off
offer
office
official
offset
ok
ol
old
oldid
ombudsperson
omega
on
once
one
ones
oneway
online
only
open
opening
opera
operation
operations
operator
opinion
opinions
opt
option
optional
options
or
order
org
organization
organize
organized
organizing
orig
original
os
osti
other
others
otherwise
our
out
outdate
output
outside
over
overground
override
owl
own
owner
oxford
p
pa
padding
page
pages
pairs
palestine
param
parameter
parameters
paramname
params
parent
parentnode
pargs
paris
park
parse
parser
part
partial
participants
participate
participated
participating
participation
partners
parts
party
passed
past
pattern
patterns
paul
pcall
pdf
pdt
pending
people
per
performance
period
periodical
permission
persian
person
personal
pg
ph
phabricator
phase
phi
photos
php
pi
picture
piece
pikiwiki
pl
place
plain
plan
planned
planning
plans
plantilla
platform
platforms
please
pm
pmc
pmid
png
po
podcast
point
policy
polish
politics
poll
poly
pop
popup
popuppreview
popups
popupstring
popuptoplinks
portal
pos
position
positions
positive
possible
post
posted
posting
postscript
potential
power
pp
pre
precision
prefer
preference
preferences
preferred
prefix
prefixindex
present
presentation
press
preview
previews
previous
previously
print
prio
prior
priorities
priority
privacy
pro
problem
problems
process
produces
product
program
programming
project
projects
property
propertylink
propertyname
propertyvals
proposal
proposals
propose
proposed
propvalue
protocol
prototype
provide
provided
provides
ps
psi
pt
public
publication
publicationdate
publicationplace
published
publisher
publishername
publishing
pump
punctuation
purge
purpose
push
put
px
pywikibot
pywikipedia
pywikipediabot
q
qualifier
qualifiers
quality
que
queen
question
questions
quick
quickly
quote
r
ra
rabbi
rail
railway
range
rank
rather
ratification
raw
re
reach
read
readers
reading
ready
real
really
reason
receive
recent
recentchanges
recently
recipe
recipes
record
red
redirect
redirects
reduce
ref
reference
references
regarding
regards
region
regions
registered
registration
regular
related
relative
release
released
relevant
remember
remove
removed
removing
render
repeat
replace
replaced
reply
report
request
requested
requests
require
required
requires
res
research
resources
rest
restable
result
resultclaims
results
ret
retrieved
return
returns
rev
reverse
revert
review
revision
revisionslider
rfc
rft
rgb
rich
richard
right
rightimage
rights
river
rna
ro
road
robert
role
roles
root
rottentomatoes
round
roundel
row
rowargs
rows
rowstyle
royal
rr
rtl
ru
ruislip
rule
rules
run
running
runs
russia
russian
s
sa
said
saint
same
sandbox
santa
save
say
says
scale
schedule
scheduled
scholarship
scholarships
science
sciences
scientific
screen
screenshot
script
scripts
se
sea
search
season
second
seconds
section
sections
security
see
seems
seen
select
selected
selection
self
send
sent
sep
separate
separator
sepc
september
series
serve
server
service
services
session
sessions
set
seterror
several
sex
sgrabarczuk
sh
share
shared
shift
short
should
show
showing
shown
shows
si
side
sidebar
sign
signage
signup
signups
similar
simple
simpler
simply
sin
since
single
site
sitenotice
sites
siva
sixth
size
sk
skills
skin
skins
sl
small
snak
snaks
so
social
society
sockpuppets
software
solid
solve
some
someone
something
sometimes
somewhere
song
songs
soon
sorry
source
sources
south
southbound
space
spaces
span
spanish
spb
speak
special
specific
specified
speed
split
sprache
spread
sq
sqrt
square
sr
ss
st
staff
stage
standard
star
start
started
starting
starts
state
statement
statements
states
station
stations
status
stay
step
steward
stewards
still
stn
stop
stories
story
str
strategy
street
string
strings
structure
structures
stub
study
style
stylesuffix
styling
su
sub
subject
submission
submit
subpage
subpages
subrule
subscribe
subscription
substitute
success
successful
such
suffix
suggest
suggested
suggestions
sum
summary
support
supported
supporting
supports
sure
surname
survey
sv
svg
switch
switching
symbol
synagogue
syntax
sysop
sysops
system
t
ta
tab
table
tables
tag
tagargs
tags
tail
take
taken
takes
taking
tales
talk
tammu
tan
target
task
taxobox
td
te
teagreen
team
teams
tech
technical
technology
tell
temp
template
templatearg
templateargs
templatedata
templatedocumentation
templatename
templateparams
templateparamsmissingparam
templates
templatestructure
temporary
ten
term
terminus
terms
test
tested
testing
text
textcolor
tfl
th
than
thank
thanks
that
the
their
them
theme
then
there
these
they
things
think
third
this
those
though
thoughts
three
through
thumb
thumbnail
thursday
ti
till
time
timeline
times
timestamp
timezone
tisjre
title
titles
titletype
tmp
to
toc
today
together
toggle
tonumber
too
tool
toolbar
tools
top
topic
topics
tostring
towards
tower
town
tr
track
trademark
tramstop
trans
transchapter
transfer
translate
translated
translatewiki
translating
translation
translations
translators
transtitle
travel
treaty
triage
trim
true
trust
trustees
try
trying
ts
tt
tu
tube
turkiz
turn
tv
twitter
twl
two
type
typen
typeof
types
typing
u
ua
ucoc
uk
ukraine
ul
un
und
undeclared
undefined
under
understand
understanding
unicode
unit
united
universal
university
unknown
unless
unsubscribe
until
up
upcoming
update
updated
updates
upload
upper
upright
ur
uri
url
us
usa
usability
usage
usd
use
used
useful
uselang
user
username
users
uses
using
usingwikidata
ustring
usually
utc
utf
util
v
val
valid
value
valuearg
values
van
vandalism
var
variable
various
ve
vec
vector
verlag
version
versions
vertical
very
vi
via
victoria
video
view
viewer
views
viewtopic
village
vilnius
violations
visible
visit
vista
visual
visualeditor
voice
vol
volume
volunteer
volunteers
von
vote
voted
voter
voters
votes
voting
vous
w
want
wanted
wants
war
warnings
was
watch
watchlist
way
ways
wdate
we
web
webarchive
website
wednesday
week
weekly
weeks
weight
welcome
well
went
were
west
westbound
what
whatamidoing
when
where
whether
which
while
white
who
whole
why
wide
widget
width
wie
wiki
wikibase
wikidata
wikidatabirth
wikidatacats
wikidataparamvalue
wikilink
wikimania
wikimedia
wikimedians
wikipe
wikipedia
wikipedias
wikis
wikisource
wikitable
wikitech
wikitext
wikt
wiktionary
will
willing
win
window
windows
wish
wishes
wishlist
with
within
without
wmde
wmf
wo
wolbachia
women
word
words
work
worked
working
works
world
worldcat
would
wrap
wrapper
wrights
write
writing
written
wrong
www
x
xeno
xp
xx
y
year
years
yes
yet
yi
yiddish
yidel
yiwiki
ynet
york
you
your
youtube
yue
yyyy
z
zh
zu
zuckermann
{
|
}
~


£
¥
§
©
«
¬
­
°
²
´
·
º
»
½
¾
¿
×
ß
ħ
ł
ə
ɛ
ʃ
ʒ
ʹ
ʻ
ʼ
ʿ
ˈ
ː
̀
́
̂
̃
̄
̆
̇
̈
̉
̊
̋
̌
̍
̓
̔
̛
̣
̦
̧
̨
̮
̯
̱
͂
͡
α
β
δ
ε
η
θ
ι
λ
μ
ν
ο
π
ρ
ς
σ
τ
υ
φ
χ
ω
а
авив
б
без
более
больше
болѣе
бы
был
была
были
было
быть
в
варианты
варіанты
во
вот
времени
время
все
въ
г
д
даже
для
до
другои
е
евреев
евреевъ
евреи
его
ее
если
есть
еще
ж
же
жизни
жизнь
з
за
и
иерусалим
из
изъ
или
исключительно
их
к
как
какъ
когда
которые
къ
л
ли
либо
лишь
любви
м
меня
можно
москва
мы
мінск
н
на
нам
нами
народ
народа
народных
народныхъ
народъ
не
ни
но
о
однои
он
она
онъ
от
отъ
п
песен
песни
песнях
по
порою
почти
при
пѣсенъ
пѣсни
пѣсняхъ
р
россии
с
своего
своеи
свои
свою
ская
скии
ского
скои
со
собою
сс
стороны
съ
ся
т
так
также
такъ
творчества
тель
то
того
только
ты
у
уже
х
ч
что
чтобы
ш
шаблон
эта
эти
это
этои
этом
этомъ
ю
я
і
֑
֔
֖
֣
֥
ְ
ֱ
ֲ
ֳ
ִ
ֵ
ֶ
ַ
ָ
ֹ
ֻ
ּ
ֽ
־
ֿ
ׁ
ׂ
׃
ׇ
א
אא
אאז
אב
אבא
אבאמא
אבגדה
אבד
אבדאללא
אבדול
אבדק
אבהו
אבו
אבודרהם
אבוחצירא
אבות
אבותינו
אבזערוואציע
אבזערווער
אבטליון
אבי
אביב
אביגדור
אביגיל
אביו
אביוז
אביון
אביי
אביך
אבילות
אבינו
אביסל
אביסעל
אביסעלע
אביעקט
אביעקטיוו
אביעקטן
אביר
אביש
אבישי
אבל
אבלאסט
אבלות
אבלים
אבן
אבני
אבנר
אבסאלוט
אבסטראקטע
אבער
אבערלענדער
אבר
אבראמאוויטש
אבראמסקי
אברהם
אברהמל
אברהמלען
אברים
אברכים
אברם
אבשלום
אג
אגאנצן
אגב
אגד
אגדה
אגדות
אגדתא
אגודה
אגודת
אגענדע
אגענט
אגענטור
אגענטורן
אגענטן
אגענסט
אגרא
אגרות
אגריפס
אגריקולטור
אגרעסיוו
אגרעסיווע
אגרת
אד
אדא
אדאלף
אדאנק
אדאפטירט
אדאפטירן
אדה
אדוואקאט
אדוואקאטן
אדווערטייזמענט
אדום
אדומה
אדומים
אדון
אדוני
אדורך
אדורכגיין
אדורכגעגאנגען
אדורכגעפירט
אדינגטאן
אדל
אדלער
אדלר
אדם
אדמו
אדמור
אדמורי
אדמיניסטראטיווע
אדמיניסטראטיווער
אדמיניסטראציע
אדמיראל
אדנ
אדעס
אדער
אדערן
אדר
אדרבא
אדרבה
אדרעס
אדרעסן
אדרעסע
אדרת
אה
אהאיא
אהבה
אהבת
אהוד
אהיה
אהייא
אהיים
אהיימגעקומען
אהין
אהינ
אהינצו
אהל
אהלות
אהלי
אהן
אהער
אהערגעשטעלט
אהערשטעלן
אהרון
אהרונים
אהרן
אהרנען
או
אוגאנדע
אוגוסט
אודאי
אודווארי
אודות
אוה
אוהב
אוהל
אוהעל
אוו
אוואדאי
אוואו
אוואולאציע
אוואנטורע
אווארד
אוודאי
אוויאציע
אוויולעישן
אוונט
אווענט
אוועק
אוועקגיין
אוועקגעגאנגען
אוועקגעגעבן
אוועקגעלייגט
אוועקגענומען
אוועקגעצויגן
אוועקגעשטעלט
אוועקגעשיקט
אוועקלייגן
אוועקנעמען
אוועקצונעמען
אוועקשטעלן
אוורוטש
אוזבעקיסטאן
אוחזין
אוי
אויב
אויבוואויל
אויבן
אויבנא
אויבנדערמאנטע
אויבענדערמאנטע
אויבער
אויבערדערמאנטע
אויבערהאנט
אויבערפלאך
אויבערשטן
אויבערשטע
אויבערשטער
אויג
אויגוסט
אויגן
אויגנ
אויגע
אויגען
אוידיא
אויוון
אויווען
אויטא
אויטאבוס
אויטאבוסן
אויטאביאגראפיע
אויטאמאביל
אויטאמאבילן
אויטאמאטיש
אויטאמאטישע
אויטאנאמיע
אויטאנאמישע
אויטאס
אויטאסטראד
אויטאריטעט
אויטאריטעטן
אויך
אויכ
אויכט
אויכעט
אויל
אוילעמ
אוילער
אוימאן
אוין
אויס
אויסארבעטן
אויסב
אויסבא
אויסבאהאלטן
אויסבילדונג
אויסבעטן
אויסבראך
אויסברוך
אויסברייטערן
אויסברעכן
אויסגא
אויסגאבן
אויסגאבע
אויסגאבעס
אויסגאנג
אויסגיין
אויסגיסן
אויסגלייכן
אויסגע
אויסגעארבעט
אויסגעארבעטע
אויסגעב
אויסגעבויט
אויסגעבן
אויסגעברא
אויסגעבראכן
אויסגעברייטערט
אויסגעגא
אויסגעגאנגען
אויסגעגאסן
אויסגעגעבן
אויסגעדרוקט
אויסגעדרייט
אויסגעדריקט
אויסגעהא
אויסגעהאלטן
אויסגעהאקט
אויסגעהיילט
אויסגעהערט
אויסגעהרגעט
אויסגעווא
אויסגעוואקסן
אויסגעוויזן
אויסגעוויילט
אויסגעוועלט
אויסגעזאגט
אויסגעזעהן
אויסגעזען
אויסגעזעצט
אויסגעטא
אויסגעטייטשט
אויסגעטיילט
אויסגעטרא
אויסגעטראכט
אויסגעטראפן
אויסגעלא
אויסגעלאזט
אויסגעלויבט
אויסגעלייגט
אויסגעליידיגט
אויסגעלייזט
אויסגעלערנט
אויסגעמא
אויסגעמאכט
אויסגעמיטן
אויסגעמישט
אויסגעמעקט
אויסגענומען
אויסגענוצט
אויסגעניצט
אויסגעפ
אויסגעפא
אויסגעפארעמט
אויסגעפארשט
אויסגעפונען
אויסגעפינען
אויסגעפירט
אויסגעפלאצט
אויסגעפעלט
אויסגעפרעגט
אויסגעצאלט
אויסגעצויגן
אויסגעצייכנט
אויסגעצייכנטע
אויסגעצייכענט
אויסגעקומען
אויסגעקוקט
אויסגעקליבן
אויסגעקליבענע
אויסגעקערעוועט
אויסגעקריצט
אויסגערופן
אויסגעריסן
אויסגערעדט
אויסגערעכנט
אויסגערעכנטע
אויסגעשטא
אויסגעשטעלט
אויסגעשטרעקט
אויסגעשלא
אויסגעשלאסן
אויסגעשמועסט
אויסגעשעפ
אויסגעשפ
אויסגעשפילט
אויסגעשפרייט
אויסגעשריגן
אויסגעשריען
אויסדערוויילט
אויסדערוועלט
אויסדרוק
אויסדרוקן
אויסדרייען
אויסדריקן
אויסהא
אויסהאלטן
אויסהערן
אויסהערנדיק
אויסווא
אויסוואל
אויסוועג
אויסוועלן
אויסוועפן
אויסזאגן
אויסזיכטן
אויסזעהן
אויסזען
אויסטא
אויסטאן
אויסטויש
אויסטערליש
אויסטערלישן
אויסטערלישע
אויסטערלישער
אויסטרא
אויסטראליע
אויסטראלישע
אויסטרעפן
אויסלא
אויסלאזן
אויסלאנד
אויסלייג
אויסלייגן
אויסלייזונג
אויסלייזן
אויסלע
אויסלענדישע
אויסלענדישער
אויסלענדער
אויסלערנען
אויסלעשן
אויסמיידן
אויסמישן
אויסמעקן
אויסן
אויסנא
אויסנאם
אויסנאמען
אויסנוצן
אויסניצן
אויסע
אויסער
אויסערגעווענליכע
אויסערגעווענליכער
אויסערדעם
אויסערלעך
אויסערן
אויספ
אויספא
אויספאלגן
אויספאלן
אויספארשונג
אויספארשן
אויספארשער
אויספילן
אויספיר
אויספירן
אויספרעגן
אויסצו
אויסצוג
אויסצוגן
אויסצוהערן
אויסצומיידן
אויסצומעקן
אויסצופירן
אויסצושטיין
אויסצושטעלן
אויסצייכענונג
אויסצייכענונגען
אויסציען
אויסקומען
אויסקוק
אויסקוקן
אויסקלויבן
אויסקלייב
אויסקלייבן
אויסראטן
אויסרופן
אויסרייד
אויסרייניגן
אויסרייסן
אויסרעדן
אויסרעכנען
אויסרעכענען
אויסשטעל
אויסשטעלונג
אויסשטעלן
אויסשפ
אויסשפארן
אויסשרייען
אויער
אויערבאך
אויערן
אויף
אויפ
אויפאיינמאל
אויפבוי
אויפבויען
אויפברויז
אויפגא
אויפגאבע
אויפגאבעס
אויפגיין
אויפגע
אויפגעבויט
אויפגעבויעט
אויפגעבן
אויפגעברא
אויפגעברויזט
אויפגעברענגט
אויפגעגאנגען
אויפגעגעבן
אויפגעגעסן
אויפגעדעקט
אויפגעהא
אויפגעהאלטן
אויפגעהאנגען
אויפגעהויבן
אויפגעהערט
אויפגעווא
אויפגעוואקסן
אויפגעוויזן
אויפגעוועקט
אויפגעזאגט
אויפגעטאן
אויפגעטוישט
אויפגעטון
אויפגעטרעטן
אויפגעכא
אויפגעכאפט
אויפגעלייגט
אויפגעלעבט
אויפגעלעזט
אויפגענומען
אויפגעעפנט
אויפגעפאדערט
אויפגעפירט
אויפגעצויגן
אויפגעקומען
אויפגעקלערט
אויפגערודערט
אויפגערופן
אויפגעריסן
אויפגערעגט
אויפגעשטא
אויפגעשטאנען
אויפגעשטעלט
אויפגעשפילט
אויפדעקונג
אויפדעקן
אויפדערנא
אויפדערנאכט
אויפהאלטונג
אויפהאלטן
אויפהייבן
אויפהער
אויפהערן
אויפווייזן
אויפוועקן
אויפזיכט
אויפזעער
אויפטאן
אויפטו
אויפטוה
אויפטון
אויפטוען
אויפטריט
אויפטריטן
אויפטרעטן
אויפירונג
אויפירן
אויפכאפן
אויפלא
אויפלאגע
אויפלעבן
אויפמערקזאם
אויפמערקזאמקייט
אויפן
אויפנאמע
אויפנעמען
אויפעסן
אויפפיר
אויפפירונג
אויפפירונגען
אויפפירן
אויפצובויען
אויפצוהייבן
אויפצולעבן
אויפצונעמען
אויפצוקלערן
אויפצושטעלן
אויפציען
אויפקומען
אויפקלערונג
אויפקלערן
אויפרייס
אויפרייסן
אויפשטאנד
אויפשטיין
אויפשטעלן
אויפשטענדלער
אויפשריפטן
אויר
אויש
אוישוויץ
אוכל
אוכמא
אוכראנא
אול
אולטימאטום
אולטרא
אוליאנאוו
אולינוב
אולם
אולמאן
אולמערט
אולן
אום
אומ
אומא
אומאיידעלע
אומאן
אומאפהענגיק
אומאפהענגיקייט
אומאפהענגיקע
אומבא
אומבאוואוסטע
אומבאוועגלעכע
אומבאקאנטע
אומברענגן
אומברענגען
אומגיין
אומגלויבליך
אומגליק
אומגליקן
אומגעברא
אומגעבראכט
אומגעברענגט
אומגעגא
אומגעגנט
אומגעהויערע
אומגעפעהר
אומגעפער
אומגעקומן
אומגעקומען
אומגעקומענע
אומגעקוקט
אומגעקערט
אומגעריכט
אומה
אומות
אומזיסט
אומלעגא
אומלעגאל
אומלעגאלע
אוממעגליך
אוממעגלעך
אומנישט
אומעט
אומעטום
אומענדלעכע
אומפ
אומפא
אומצאליגע
אומצוברענגען
אומצוקערן
אומקום
אומקומען
אומקוקן
אומקערן
אומר
אומרו
אומרוען
אומריין
אומריינע
אומרים
אומרעכט
אומשולדיג
אומשולדיגע
אומשולדיק
אומשולדיקע
אומשטא
אומשטענדן
אומשעדליך
אומװערדיקײטן
און
אונ
אונגא
אונגאר
אונגאריש
אונגארישן
אונגארישע
אונגארישער
אונגארן
אונגוואר
אונגער
אונגעריש
אונגערישע
אונגערישער
אונגערן
אונד
אונדז
אונדזער
אונדזערע
אונז
אונזער
אונזערע
אונזר
אונט
אונטן
אונטען
אונטער
אונטערברענגען
אונטערגא
אונטערגאנג
אונטערגיין
אונטערגעבן
אונטערגעגא
אונטערגעגאנגען
אונטערגעגעבן
אונטערגעהא
אונטערגעווארפן
אונטערגענומען
אונטערגעקומען
אונטערגעשריבן
אונטערגרונט
אונטערגײן
אונטערדריקט
אונטערהא
אונטערוועגס
אונטערזוכן
אונטערן
אונטערנעמונג
אונטערנעמונגען
אונטערנעמען
אונטערערד
אונטערערדישע
אונטערשטן
אונטערשטע
אונטערשטער
אונטערשייד
אונטערשיידן
אונטערשרייבן
אונטערשריפט
אוניווערס
אוניווערסיטעט
אוניווערסיטעטן
אוניװערסיטעט
אונליין
אונן
אונעסקא
אונקלוס
אוסטראה
אוען
אוף
אופ
אופן
אופנים
אופקי
אופקים
אוצר
אוצרות
אוקרא
אוקראיניש
אוקראינישע
אוקראינישער
אוקראינע
אוקראינער
אוקריינא
אוקריינע
אור
אורא
אוראייניקל
אוראל
אוראלט
אוראלטע
אוראלטער
אוראנוס
אוראניום
אורבאן
אורדו
אורה
אורוגוויי
אורוויל
אורות
אורזאך
אורזאכן
אורח
אורחים
אורטייל
אורטיילן
אורי
אוריאל
אורך
אורנשטיין
אושעיא
אות
אותה
אותו
אותי
אותיות
אותם
אז
אזא
אזאט
אזאלכע
אזאלעכע
אזהרות
אזו
אזוי
אזויגערופענע
אזויווי
אזוינס
אזוינע
אזויפיל
אזולאי
אזיאטישע
אזייגער
אזיע
אזכרה
אזלעכע
אזעלכע
אזעלעכע
אזערביידזשאן
אזערע
אזערעס
אזרחי
אזש
אזשאראוו
אח
אחד
אחדות
אחוץ
אחור
אחז
אחי
אחיו
אחיך
אחים
אחינו
אחר
אחרא
אחרון
אחרונה
אחרונות
אחרונים
אחרי
אחריות
אחרים
אחרית
אחרת
אחשוורוש
אחשורוש
אחת
אט
אטא
אטאם
אטאמאטיק
אטאמאנישע
אטאמאנישער
אטאמישן
אטאמישע
אטאמען
אטאמקערן
אטאקירט
אטאקירן
אטאקירער
אטאקע
אטאקעס
אטוואצק
אטוירני
אטייל
אטלאנטא
אטלאנטיק
אטלאנטישן
אטלאנטישער
אטלאס
אטמאספער
אטמאספערע
אטעיסטן
אטעם
אטעמט
אטעמען
אטען
אטענטאט
אטראקציע
אטראקציעס
אי
איב
איבונגן
איבונגען
איבן
איבער
איבעראל
איבעראשט
איבערבויען
איבערבייט
איבערבליק
איבערבלײ
איבערבעטן
איבערגאנג
איבערגיין
איבערגע
איבערגעארבעט
איבערגעבויט
איבערגעבליבן
איבערגעבליבענע
איבערגעבן
איבערגעבעטן
איבערגעגא
איבערגעגעבן
איבערגעדעקט
איבערגעדרוקט
איבערגעדרייט
איבערגעזעצט
איבערגעחזרט
איבערגעטייטשט
איבערגעטרא
איבערגעלא
איבערגעלאזט
איבערגעלעבט
איבערגעמאכט
איבערגענומען
איבערגעפ
איבערגעפילט
איבערגעצויגן
איבערגעצייגט
איבערגעקוקט
איבערגעקערט
איבערגעריסן
איבערגערעדט
איבערגעשטיגן
איבערגעשריבן
איבערגרונט
איבערדרייען
איבערהויפ
איבערהויפט
איבערווא
איבערזעצונג
איבערזעצונגען
איבערזעצן
איבערזעצער
איבערחזרן
איבערטייטשן
איבעריג
איבעריגע
איבעריק
איבעריקן
איבעריקס
איבעריקע
איבעריקער
איבערישן
איבערלא
איבערלאזן
איבערלאזנדיג
איבערלעבונגען
איבערלעבן
איבערלעבענישן
איבערלעבער
איבערמאכן
איבערן
איבערנאכט
איבערנעמען
איבערפ
איבערפאל
איבערצוגעבן
איבערצונעמען
איבערצייגונג
איבערצייגט
איבערצייגן
איבערקומען
איבערקוקן
איבערקערן
איבערקערעניש
איבעררא
איבערראשונג
איבערראשט
איבעררייסן
איבעררעדן
איבערשרייבן
איבר
איבריגע
איברים
איגא
איגנארירט
איגנארירן
איגענט
איגר
איד
אידי
אידיאל
אידייען
אידיש
אידישיסטן
אידישן
אידישע
אידישען
אידישער
אידישקייט
אידל
אידן
אידנטום
אידעא
אידעאלאגיע
אידען
אידענטום
אידענטיטעט
אידענטיפיצירט
אידענטיפיצירן
אידענע
אידעע
איהם
איהעל
איהר
איהרע
איו
איוב
איווא
איוואן
איז
איזא
איזאבעלא
איזאטאפן
איזאלירונג
איזאלירט
איזה
איזהו
איזט
איזי
איזלינגטאן
איזמיר
איזרא
איזראעל
איזראעלי
איזשביצע
איזשביצער
איחוד
איטא
איטאליע
איטאליעניש
איטאליענישע
איטאליענישער
איטאליענער
איטליכער
איטלעך
איטלעכן
איטלעכנ
איטלעכס
איטלעכע
איטלעכער
איטשע
איי
אייב
אייביג
אייביגע
אייביק
אייביקי
אייביקן
אייביקע
אייביקער
אייבערפ
אייבערפלאך
אייבערשטיבל
אייבערשטן
אייבערשטע
אייבערשטען
אייבערשטער
אייבעשיץ
אייגן
אייגנא
אייגנארטיג
אייגנארטיגע
אייגנטום
אייגנטומער
אייגנטימער
אייגנטליך
אייגנטלעך
אייגנס
אייגנקייטן
אייגנשא
אייגנשאפט
אייגנשאפטן
אייגע
אייגענטומער
אייגענטליך
אייגענע
אייגענעם
אייגענער
אייגער
איידים
איידל
איידלשטיינער
איידע
איידעלע
איידעלער
איידעם
איידעמס
איידעמעס
איידעמער
איידער
אייוועלט
אייז
אייזבארג
אייזבערג
אייזיק
אייזל
אייזן
אייזנבאן
אייזנהאוער
אייזנשטאט
אייזעל
אייזערנע
אייזערנעם
אייזערנער
אייזקרעם
אייך
אייכלער
אייכמאן
אייכנשטיין
אייל
איילאנד
איילבירט
איילבירטן
איילון
איילט
איילן
איילנדיק
איילענד
איילעניש
איין
איינ
איינברעכן
איינגאס
איינגיין
איינגע
איינגעארדנט
איינגעבויגן
איינגעבן
איינגעגעבן
איינגעהאלטן
איינגעהילט
איינגעזאפט
איינגעזעהן
איינגעזען
איינגעזעצט
איינגעטיילט
איינגעלא
איינגעלאדענט
איינגענומען
איינגעפאלן
איינגעפירט
איינגעפלאנצט
איינגעקויפט
איינגעקריצט
איינגערעדט
איינגעשוואוירן
איינגעשטאנען
איינגעשטימט
איינגעשטעלט
איינגעשטעלטע
איינגעשלא
איינגעשלאסן
איינגעשפארט
איינגעשפארטע
איינגעשריבן
איינגעשריבענע
איינדרוק
איינהאלטן
איינהייט
איינהייטן
איינוואוינער
איינוואוינערס
איינוואונער
איינוואינער
איינוווינער
איינזא
איינזאם
איינזאפן
איינזעהן
איינטיילונג
איינטיילן
איינטריט
אייניג
אייניגע
אייניקל
אייניקלעך
אייניקע
אייניקעל
איינלא
איינמא
איינמאהל
איינמאל
איינמעלדן
אייננעמען
איינס
איינסן
איינע
איינעם
איינעמען
איינער
איינפא
איינפאך
איינפאכע
איינפאל
איינפאלן
איינפירן
איינפלוס
איינצאל
איינצונעמען
איינצושטעלן
איינצושרייבן
איינציג
איינציגן
איינציגסטע
איינציגסטער
איינציגע
איינציגער
איינציק
איינציקן
איינציקסטע
איינציקע
איינציקער
איינצלהייטן
איינצעלנע
איינצעלע
איינקויף
איינקויפן
איינקויפער
איינקונפט
איינרעדן
איינשווערונג
איינשטיין
איינשטימיג
איינשטעלן
איינשלאפן
איינשליסן
איינשליסנדיק
איינשרייבן
אייע
אייער
אייערס
אייערע
אייפ
אייפאן
אייר
איירא
אייראוויזיע
אייראזאנע
אייראסטאר
אייראפע
אייראפעאישן
אייראפעאישע
אייראפעאישער
אייראפעישן
אייראפעישע
אייראפעישער
אייראפעער
איירישע
איירעס
איך
איכ
איכה
איל
אילוזיע
אילוסטרירט
איליא
אילינג
אילינוי
אילן
אילפארד
אילת
אים
אימ
אימא
אימה
אימון
אימיגרא
אימיגראנט
אימיגראנטן
אימיגראציע
אימיגרירט
אימיגרירן
אימעיל
אימער
אימפ
אימפאקט
אימפארט
אימפארטירט
אימפארטירן
אימפארטן
אימפעט
אימפעריע
אימפעריעס
אימשטא
אין
אינ
אינאיינעם
אינאיינעמ
אינג
אינגא
אינגאנצן
אינגאנצנ
אינגאנצען
אינגבער
אינגיכן
אינגל
אינגע
אינגעל
אינגעלייט
אינגער
אינגערמאן
אינגערע
אינגעװײד
אינדא
אינדאנעזיע
אינדארסירט
אינדוס
אינדוסטרי
אינדוסטריאלע
אינדוסטריס
אינדוסטריע
אינדוסטריעלע
אינדוסטריעלער
אינדוסטריעס
אינדזל
אינדזלען
אינדיא
אינדיאנע
אינדיאנער
אינדיווידועל
אינדיווידועלע
אינדיע
אינדיק
אינדישן
אינדישע
אינדישער
אינדעמניטי
אינדעקס
אינדערהיים
אינדערויסן
אינדערמיט
אינדערפרי
אינדערצווישן
אינדערצייט
אינדרויסן
אינהא
אינהאלט
אינו
אינוואדירט
אינוואדירן
אינוואזיע
אינוועסטארס
אינוועסטירט
אינוועסטירן
אינוועסטירער
אינוועסטמענט
אינוועסטמענטס
אינזין
אינזל
אינזלן
אינזלען
אינזשעניר
אינזשעניריע
אינזשענירן
אינטיפאדע
אינטעליגענץ
אינטער
אינטערוויאו
אינטערוויו
אינטערוויקי
אינטערנא
אינטערנאציאנאל
אינטערנאציאנאלן
אינטערנאציאנאלע
אינטערנאציאנאלער
אינטערנעט
אינטערנעץ
אינטערסאנט
אינטערסאנטע
אינטערסאנטער
אינטערסטעיט
אינטערסירט
אינטערעס
אינטערעסא
אינטערעסאנט
אינטערעסאנטע
אינטערעסאנטער
אינטערעסט
אינטערעסירט
אינטערעסירן
אינטערעסן
אינטערעסע
אינטערשטע
אינטערשפראך
אינטרעסאנט
אינטרעסאנטע
אינטרעסירט
אינטש
אינטשעס
איניציאטיוו
אינלאנד
אינלענדישן
אינלענדישער
אינם
אינמיטן
אינמיטען
אינסולין
אינסטאלירט
אינסטאלירן
אינסטאנצן
אינסטיטוט
אינסטיטוציע
אינסטיטוציעס
אינסטינקט
אינסטרומענט
אינסטרומענטן
אינסטרוקציעס
אינסעקט
אינסעקטן
אינספירירט
אינע
אינעווייניג
אינעווייניגסטע
אינעווייניק
אינעווייניקסטע
אינעם
אינערהאלב
אינערליכע
אינערלעך
אינערלעכן
אינערלעכע
אינערלעכער
אינערן
אינערציע
אינעװײניק
אינעװײניקסטן
אינפ
אינפא
אינפאבאקס
אינפאקעסטלעך
אינפארמאציע
אינפלאציע
אינפעקציע
אינפעקציעס
אינפראסטרוקטור
אינצווישן
אינציאטיוו
אינציאטיוון
אינצידענט
אינצידענטן
אינקא
אינקאם
אינקוויזיציע
אינשורענס
איס
איסור
איסורים
איסט
איסטמאס
איסטערן
איסלא
איסלאם
איסלאמישע
איסלאמישער
איסלאנד
איסני
איסר
איסײם
איפה
איצט
איצטיגע
איצטיגער
איצטיקן
איצטיקע
איצטיקער
איצטער
איציק
איציקל
איר
אירא
איראן
איראנישע
איראנער
איראק
איראקער
אירי
אירישער
אירלאנד
אירן
אירס
אירע
איש
אישה
אישו
אישוס
אישן
אישע
איתמר
איתן
אך
אכ
אכזריות
אכט
אכטונג
אכטן
אכטע
אכטער
אכילה
אכילת
אכסניא
אכסניה
אכציג
אכצן
אל
אלא
אלאבאמא
אלאסקא
אלאסקע
אלארם
אלבאם
אלבאמען
אלבאני
אלבאניע
אלבאנס
אלבערט
אלבערטא
אלגאזי
אלגעברע
אלגעמיין
אלגעמיינע
אלגעמיינעם
אלגעמיינער
אלד
אלדגייט
אלדד
אלה
אלהי
אלהיך
אלהים
אלהינו
אלו
אלוועלטליכע
אלול
אלומיניום
אלון
אלוקות
אלוקינו
אלז
אלזא
אלזוז
אלזשיר
אלחנן
אלט
אלטא
אלטן
אלטע
אלטען
אלטער
אלטערנאטיווע
אלטר
אלטשטאט
אלי
אליאירטע
אליאנץ
אליה
אליהו
אליו
אליטע
אליין
אלייןס
אליינ
אליינס
אליך
אלימלך
אלימפיאדע
אלין
אליס
אליסלייט
אליעזר
אליציי
אליק
אליקום
אליקים
אלישב
אלישבע
אלישיב
אלישע
אלכסנדר
אלמן
אלמנה
אלמנות
אלן
אלס
אלסטער
אלע
אלעד
אלעזר
אלעם
אלעמאל
אלעמען
אלעמענס
אלען
אלעס
אלעסק
אלעקסאנדער
אלעקסאנדריע
אלערט
אלערליי
אלף
אלפ
אלפאבעט
אלפי
אלפים
אלפן
אלפסי
אלפרעד
אלץ
אלצ
אלצדינג
אלצהיימער
אלק
אלקאהאל
אלקאהאלישע
אלקאלי
אלקבץ
אלקהאל
אלקות
אלקי
אלקיך
אלקים
אלקינו
אלקנה
אם
אמ
אמא
אמאדעוס
אמאהל
אמאזאנאס
אמאל
אמאליגן
אמאליגע
אמאליגער
אמאן
אמבאסאדאר
אמבאסאדע
אמהות
אמו
אמונה
אמונות
אמוני
אמונים
אמוניציע
אמונת
אמור
אמורא
אמוראים
אמות
אמט
אמטן
אמי
אמין
אמירה
אמיש
אמן
אמנו
אמנון
אמסטערדאם
אמעריקא
אמעריקאנישן
אמעריקאנישע
אמעריקאנישער
אמעריקאנע
אמעריקאנער
אמעריקן
אמעריקע
אמעריקען
אמעריקעס
אמר
אמרו
אמרות
אמרי
אמריקאנער
אמשינאוו
אמשינאווער
אמת
אמתן
אמתע
אמתער
אן
אנ
אנא
אנאטאליע
אנאטאמיע
אנאליז
אנאליזירן
אנאליזן
אנאנד
אנאנסירט
אנגאלא
אנגהויבן
אנגיאס
אנגיין
אנגייענדיגע
אנגליא
אנגעבאטן
אנגעבליך
אנגעבן
אנגעגאנגען
אנגעגעבן
אנגעגרייט
אנגעהאלטן
אנגעהאנגען
אנגעהויבן
אנגעהויבען
אנגעהערט
אנגעוויזן
אנגעזאגט
אנגעזאמעלט
אנגעזען
אנגעזעענע
אנגעטאן
אנגעטוהן
אנגעטון
אנגעטראפן
אנגעכאפט
אנגעלעגנהייטן
אנגעמאכט
אנגענומען
אנגענומענע
אנגענומענער
אנגעפאנגן
אנגעפאנגען
אנגעפילט
אנגעפירט
אנגעצויגן
אנגעצייכנט
אנגעצינדן
אנגעקומען
אנגעקוקט
אנגעקלאגט
אנגעקלאגטער
אנגעקניפט
אנגערופן
אנגערופען
אנגעשטויסן
אנגעשטעלט
אנגעשטעקט
אנגעשלאסן
אנגעשריבן
אנגרייטן
אנדארע
אנדזשעלעס
אנדן
אנדענק
אנדעקט
אנדער
אנדערהאלבן
אנדערט
אנדערן
אנדערנ
אנדערע
אנדערען
אנדערער
אנדערש
אנדערשט
אנדרושה
אנדרע
אנהאלט
אנהאלטן
אנהויב
אנהויבן
אנהייב
אנהייבן
אנהענגער
אנהענגערס
אנו
אנוואר
אנווארעמען
אנווייזונג
אנווייזונגן
אנווייזונגען
אנווייזן
אנווייזער
אנוועזנד
אנוועזנהייט
אנולירט
אנוסים
אנוש
אנזשעלעס
אנחנו
אנט
אנטאן
אנטאניא
אנטארקטיקע
אנטדעקונג
אנטדעקט
אנטדעקן
אנטהאלט
אנטהאלטן
אנטוויקלונג
אנטוויקלונגען
אנטוויקלט
אנטוויקלטע
אנטוויקלן
אנטוויקלען
אנטוויקלער
אנטוויקעלט
אנטווערפן
אנטוישונג
אנטוישט
אנטזאגט
אנטי
אנטיגונוס
אנטיוכוס
אנטייל
אנטילן
אנטיסעמיט
אנטיסעמיטיזם
אנטיסעמיטישע
אנטיסעמיטישער
אנטיסעמיטן
אנטיפטרוס
אנטיק
אנטלאפן
אנטלאפען
אנטלאפענע
אנטלויפט
אנטלויפן
אנטעריא
אנטפ
אנטפלעקט
אנטפלעקן
אנטצינדונג
אנטקעגן
אנטקעגען
אנטראפאלאגיע
אנטשולדיגט
אנטשטאנען
אנטשלאסן
אני
אנידער
אנימאציע
אנימירטע
אנימירטער
אניע
אנכי
אנליין
אננעמען
אנע
אנעמען
אנעקסירט
אנערקענונג
אנערקענט
אנערקענטע
אנערקענטער
אנערקענען
אנפאל
אנפאנג
אנפאנגען
אנפילן
אנפין
אנפירן
אנפירער
אנפירערשאפט
אנצוגיין
אנצוהאלטן
אנצוהייבן
אנצונעמען
אנצופירן
אנצוקומען
אנצושליסן
אנצייכענען
אנצינדונג
אנצינדן
אנציקלאפעדיע
אנציקלופדיה
אנקום
אנקומען
אנקומענדיג
אנקוקן
אנקלאגן
אנקלאגע
אנקלאגעס
אנקלאגער
אנקעטע
אנרופן
אנרי
אנרירן
אנש
אנשויאונג
אנשטאט
אנשטאלט
אנשטאלטן
אנשי
אנשיל
אנשים
אנשליסן
אס
אסאד
אסאך
אסאמא
אסאסיאציע
אסור
אסט
אסטערויד
אסטראווצע
אסטראנאטן
אסטראנאם
אסטראנאמיע
אסטראנאמישע
אסטראנאמען
אסטראנויט
אסטראנויטן
אסימא
אסימילאציע
אסיפה
אסך
אסלא
אסעמבלי
אסעמבלימאן
אסף
אספעקטן
אסקאר
אסר
אסרו
אסרט
אסתר
אע
אף
אפ
אפאזיציע
אפאלא
אפאר
אפאראט
אפאראטן
אפגאט
אפגאניסטאן
אפגעבן
אפגעגעבן
אפגעהאלטן
אפגעהאקט
אפגעהיטן
אפגעווארפן
אפגעווישט
אפגעזאגט
אפגעזונדערט
אפגעזען
אפגעטאן
אפגעטיילט
אפגעלאזט
אפגעמאכט
אפגעפארן
אפגעפארענע
אפגעפארענער
אפגעפירט
אפגעקאסט
אפגעקויפט
אפגערופן
אפגערוקט
אפגעריסן
אפגערעדט
אפגעשאצט
אפגעשוואכט
אפגעשטופט
אפגעשטעלט
אפגעשיידט
אפגעשיקט
אפגעשניטן
אפגעשפילט
אפגעשריבן
אפדעיט
אפדעיטס
אפדרוקן
אפהאלטן
אפהיטן
אפהענגיק
אפווישן
אפזאגן
אפט
אפטא
אפטייטש
אפטייל
אפטיילונג
אפטיילונגן
אפטיילונגען
אפטיילן
אפטיק
אפטמאל
אפטע
אפטער
אפטראגן
אפי
אפילו
אפילע
אפיס
אפיסעס
אפיציעהלער
אפיציעל
אפיציעלן
אפיציעלע
אפיציעלער
אפיציר
אפיצירן
אפיקומן
אפיקורס
אפיקורסות
אפיקורסים
אפיר
אפישעלס
אפלאזן
אפליקאציע
אפליקאציעס
אפלערנען
אפמאך
אפמאכן
אפמינסטער
אפן
אפנ
אפנעמען
אפס
אפסטעיט
אפעטיט
אפעלירט
אפעלירן
אפען
אפענע
אפענעם
אפענער
אפעק
אפעקט
אפער
אפעראטאר
אפעראציע
אפעראציעס
אפערירט
אפערירן
אפערע
אפערעיטינג
אפערעס
אפפאל
אפצאל
אפצאלן
אפצוגעבן
אפצוהאלטן
אפצוהיטן
אפצווייג
אפצוטיילן
אפצושטעלן
אפציאנאל
אפציע
אפציעלע
אפציעס
אפקלאנג
אפרו
אפרוען
אפריל
אפרים
אפריקאנישע
אפריקאנער
אפריקע
אפרעכענען
אפשאצונג
אפשאצונגען
אפשוואכונג
אפשטאם
אפשטאמונג
אפשטאמיגע
אפשטאמיגער
אפשטופן
אפשטימונג
אפשטעל
אפשטעלן
אפשיידן
אפשניט
אפשניידן
אפשערן
אפשר
אץ
אצ
אצונד
אצילות
אצינד
אצל
אק
אקאדעמיע
אקאדעמישע
אקאונט
אקאונטס
אקבאר
אקופאציע
אקופירט
אקופירטע
אקוראט
אקט
אקטאבער
אקטאן
אקטועל
אקטועלע
אקטיאר
אקטיארן
אקטיוו
אקטיוויזירט
אקטיוויזירן
אקטיוויטעט
אקטיוויטעטן
אקטיוויסט
אקטיוויסטן
אקטיווע
אקטיווער
אקטן
אקטריסע
אקס
אקסברידזש
אקסיאמען
אקסיגן
אקסיגען
אקסל
אקסלען
אקסן
אקספארד
אקעאן
אקעאניע
אקעאנען
אקעגן
אקעגנ
אקער
אקערן
אקצא
אקצידענט
אקציע
אקציעס
אקצענט
אקצעפטירט
אקצעפטירן
אר
ארא
אראביע
אראביש
אראבישן
אראבישע
אראבישער
אראבער
אראגאן
אראד
אראייניגטע
אראמיש
אראן
אראנדזש
אראנזש
אראנזשירט
אראפ
אראפאט
אראפגיין
אראפגעברענגט
אראפגעווארפן
אראפגעזעצט
אראפגעלאזט
אראפגעלייגט
אראפגענומען
אראפגעפאלן
אראפגעקומען
אראפגעשטעלט
אראפגעשיקט
אראפווארפן
אראפלאזן
אראפלייגן
אראפנעם
אראפנעמען
אראפפאלן
אראפצונעמען
אראפקומען
ארבה
ארביט
ארבייט
ארבייטן
ארבייטען
ארבייטער
ארבע
ארבעה
ארבעט
ארבעטן
ארבעטס
ארבעטסלאזיקייט
ארבעטען
ארבעטער
ארבעטערס
ארברייטערן
ארג
ארגאן
ארגאניזאציע
ארגאניזאציעס
ארגאניזירט
ארגאניזירטע
ארגאניזירן
ארגאניזם
ארגאניזמען
ארגאניש
ארגאנישע
ארגאנען
ארגינעל
ארגינעלן
ארגינעלע
ארגינעלער
ארגיקולטור
ארגענטינע
ארגענטינער
ארגענעזאציע
ארד
ארדענונג
ארדער
ארדשיר
ארה
ארויס
ארויסברענגן
ארויסברענגען
ארויסגאנג
ארויסגיין
ארויסגעבן
ארויסגעבער
ארויסגעברענגט
ארויסגעגאנגען
ארויסגעגבן
ארויסגעגעבן
ארויסגעגעהבן
ארויסגעהאלפן
ארויסגעווארפן
ארויסגעוויזן
ארויסגעזאגט
ארויסגעטריבן
ארויסגעלאזט
ארויסגענומען
ארויסגעפאלן
ארויסגעפארן
ארויסגעפירט
ארויסגעצויגן
ארויסגעקומען
ארויסגערופן
ארויסגערעדט
ארויסגעשטעלט
ארויסגעשיקט
ארויסדרייען
ארויסהעלפן
ארויסווארפן
ארויסווייזן
ארויסזאגן
ארויסלאזן
ארויסנעמען
ארויספארן
ארויסצוברענגען
ארויסצוגיין
ארויסצוגעבן
ארויסצוהעלפן
ארויסצונעמען
ארויסצוציען
ארויסציען
ארויסקומען
ארויסשיקן
ארויף
ארויפברענגען
ארויפגיין
ארויפגעארבעט
ארויפגעברענגט
ארויפגעגאנגען
ארויפגעלייגט
ארויפגעקומען
ארויפגעשטעלט
ארויפגעשיקט
ארויפלייגן
ארויפקומען
ארום
ארומ
ארומגיין
ארומגעגאנגען
ארומגענומען
ארומגעפארן
ארומגערינגלט
ארומגערעדט
ארומיגע
ארומיקע
ארומפארן
ארון
ארונטער
ארוני
ארונים
ארונישע
ארז
ארזאמלונג
ארזי
ארזיכערונג
ארחות
ארט
ארטאדאקס
ארטאדאקסיע
ארטאדאקסישן
ארטאדאקסישע
ארטאדאקסישער
ארטאדאקסן
ארטור
ארטיגן
ארטיגע
ארטיגער
ארטיסט
ארטיסטן
ארטיקל
ארטיקלן
ארטיקלען
ארטיקעל
ארי
אריאל
אריאלי
אריאן
אריבער
אריבערגיין
אריבערגעגאנגען
אריבערגעפארן
אריבערגעפירט
אריבערגעצויגן
אריבערפירן
אריבערצוגיין
אריבערצופירן
אריבערציען
אריגינעל
אריגינעלע
אריגינעלער
אריה
אריז
אריזאנע
אריטמעטיק
אריין
אריינברענגן
אריינברענגען
אריינגאנג
אריינגיין
אריינגעבויט
אריינגעבן
אריינגעברענגט
אריינגעגאנגען
אריינגעגעבן
אריינגעדרוקט
אריינגעווארפן
אריינגעזעצט
אריינגעטרעטן
אריינגעכאפט
אריינגעלאזט
אריינגעלייגט
אריינגעלייט
אריינגעמישט
אריינגענומען
אריינגעפאלן
אריינגעפארן
אריינגעפירט
אריינגעצויגן
אריינגעקומען
אריינגערופן
אריינגערעכנט
אריינגערעכענט
אריינגעשטעלט
אריינגעשיקט
אריינגעשליידערט
אריינגעשלעפט
אריינלאזן
אריינלייגן
אריינמארשירט
אריינמישן
ארייננעמען
אריינעמען
אריינפאלן
אריינפיר
אריינצוברענגן
אריינצוברענגען
אריינצוגיין
אריינצולייגן
אריינצוקומען
אריינצושטעלן
אריינציען
אריינקומען
אריינשטעלן
אריינשיינען
אריינשיקן
אריינשרייבן
אריך
אריכות
ארים
ארימאן
ארימע
ארימעלייט
ארימקייט
אריסטא
אריסטו
אריסטובולוס
אריק
ארכי
ארכיוו
ארכיוון
ארכיטעקט
ארכיטעקטור
ארכיטעקטן
ארכיפעלאג
ארכעאלאגיע
ארכעאלאגישע
ארכעאלאגן
ארם
ארמאציע
ארמיי
ארמייען
ארמסטראנג
ארמעניע
ארן
ארסענאל
ארעגאן
ארעם
ארעמאן
ארעמע
ארעמעלייט
ארעמער
ארענדאר
ארענע
ארעסט
ארעסטאנטן
ארעסטירט
ארעסטירן
ארעסטן
ארץ
ארצות
ארצי
ארקטיק
ארקטישן
ארקטישער
ארקעסטער
ארשוינענ
ארשעווע
ארײ
אש
אשדוד
אשה
אשור
אשי
אשכול
אשכנז
אשכנזי
אשכנזים
אשכנזישע
אשכנזישער
אשל
אשלג
אשפעצין
אשקלון
אשר
אשרה
אשרי
אשת
את
אתא
אתה
אתו
אתכם
אתם
אתר
אתרוג
אתרוגים
אױ
אױב
אױבן
אױבערשטן
אױג
אױגוסט
אױגן
אױטא
אױך
אױס
אױסגעגא
אױסגעלײזט
אױסגעפ
אױסגעשטרעקט
אױסגעשפ
אױסדערװײלט
אױסהא
אױסהערן
אױסזען
אױסלײזן
אױסן
אױסנװײניקסטן
אױספ
אױסשטרעקן
אױסשפ
אױער
אױערן
אױף
אױפ
אײ
אײביק
אײביקן
אײביקע
אײגנטום
אײגענעם
אײדער
אײזל
אײזלען
אײל
אײלן
אײן
אײנס
אײנע
אײנעם
אײנער
אײרא
ב
בא
באאיינפלוסט
באאיינפלוסן
באאמטע
באאמטער
באארבעט
באארבעטן
באב
באבא
באבאוו
באבאווער
באבוב
באבובער
באבי
באבע
באבער
באגאזשן
באגאנגען
באגדאד
באגייט
באגיין
באגייסטערט
באגלייבט
באגלייט
באגלייטונג
באגלייטן
באגלייטער
באגעגנט
באגעגענט
באגעגעניש
באגעגענען
באגער
באגראבן
באגרייפן
באגריסט
באגריף
באגריפן
באגרעניצט
באגרעניצטע
באגרעניצן
באגרענעצט
באד
באדאנקט
באדארף
באדארפט
באדייט
באדייטונג
באדייטן
באדינגונגען
באדינונג
באדינונגען
באדינט
באדינטע
באדינען
באדינער
באדן
באדען
באדעקט
באדעקן
באדערט
באדערפענישן
באדר
באהאלט
באהאלטן
באהאלטען
באהאלטענע
באהאלטענער
באהאנדלונג
באהאנדלונגען
באהאנדלט
באהאנדלן
באהאנדלען
באהאנדעלט
באהאפטן
באהבה
באהוש
באהושער
באהעלטעניש
באהעפט
באהעפטן
באהערשט
באהר
באואינג
באוגוסט
באוואוינט
באוואוינטע
באוואוינער
באוואונדערט
באוואוסט
באוואוסטזיין
באוואוסטן
באוואוסטע
באוואוסטער
באוואכט
באוואכן
באוואסערונג
באוואפנטע
באוווינער
באוויזן
באווייז
באווייזט
באווייזן
באוויינט
באוויסט
באוויסטע
באוול
באוועגונג
באוועגונגן
באוועגונגען
באוועגט
באוועגן
באומות
באונטי
באופן
באור
באורד
באותו
באזארגט
באזוך
באזוכט
באזוכטע
באזוכן
באזוכער
באזונדער
באזונדערן
באזונדערס
באזונדערע
באזונדערער
באזיגט
באזיגן
באזייטיגט
באזייטיגן
באזיס
באזיץ
באזיצט
באזירט
באזע
באזעל
באזעס
באזעצונג
באזעצט
באזעצן
באט
באטאליאן
באטאנט
באטאניק
באטיטלט
באטייליגונג
באטייליגט
באטייליגטע
באטייליגן
באטייליגער
באטייליקט
באטייליקטערס
באטערי
באטעריע
באטראכט
באטראכטן
באטראפן
באטרעפט
באטרעפן
באיאן
באיאנער
באידיש
באייר
באך
באכניא
באכריין
באל
באלאגערונג
באלאגערט
באלאן
באלאנגט
באלאנגן
באלאנגען
באלאנס
באלאנסירט
באלאנסירן
באלד
באלדיגע
באלוינונג
באלוינט
באלול
באלטימאר
באלטישן
באליבט
באליבטע
באליבטער
באליוויע
באליידיגט
באליידיגן
באלייכטן
באלעבאס
באלעסטיגט
באלעסטיגן
באלפור
באלקאן
באלשעוויקן
באמ
באמבאדירט
באמבארדירט
באמבע
באמבעס
באמונה
באמערקונג
באמערקט
באמערקן
באמת
באן
באנאפארטע
באנגלאדעש
באנגלית
באנד
באנדלעך
באנוועגן
באנוץ
באנוצט
באנוצטע
באנוצן
באנוצען
באנוצער
באנוצערס
באנייט
באנייען
באניץ
באניצט
באניצן
באניצער
באניצערס
באנעט
באנעמונג
באנעמט
באנען
באנק
באנקיר
באנקירונג
באנקירן
באנקנאט
באנקנאטן
באנקראט
באנקראטירונג
באס
באסטאן
באסטאנער
באסיין
באסניע
באסעס
באספארוס
באערדיגט
באערדיגן
באערדיקט
באפ
באפאלט
באפאלן
באפוילן
באפעל
באפעלט
באפעלן
באפעלקערונג
באפעלקערט
באפעלקערטע
באפעסטיגט
באפרייאונג
באפרייונג
באפרייט
באפריינדעט
באפרייען
באצא
באצאלט
באצאלן
באצוואנע
באציאונג
באציאונגען
באציהט
באציונגען
באציט
באצייכנט
באצייכענט
באצייכענען
באציען
באצירק
באצירקן
באקאנט
באקאנטן
באקאנטסטע
באקאנטע
באקאנטער
באקאנטשאפט
באקוועם
באקומט
באקומען
באקט
באקטעריע
באקטעריעס
באקינגהאמשיר
באקלאגט
באקן
באקס
באקסער
באקעמפט
באקעמפן
באקענט
באקענען
באקרוינט
באר
בארא
באראטן
באראן
באראנאוויטש
באראס
באראק
בארבאראסע
בארג
בארגט
בארגן
בארגקייט
בארד
בארדא
בארדיאוו
בארדיאווער
בארדיטשוב
בארואיגט
בארואיגן
בארויבט
בארטן
בארטנס
בארי
בארייכערן
באריכות
באריכט
באריכטן
באריכטעט
בארימט
בארימטן
בארימטע
בארימטער
באריס
באריער
בארירונג
בארירט
בארניוו
בארנעט
בארנשטיין
בארסקי
בארעכטיגט
בארץ
בארצעלאנע
בארקינג
בארקשיר
בארשא
בארשט
באש
באשא
באשאנקען
באשאף
באשאפונג
באשאפן
באשאפען
באשולדיגונג
באשולדיגט
באשולדיגן
באשולדינגס
באשולדיקט
באשטאנד
באשטאנדטייל
באשטאנדטיילן
באשטאנען
באשטייט
באשטיין
באשטייען
באשטימט
באשטימטן
באשטימטע
באשטימטער
באשטימען
באשטעטיגונג
באשטעטיגט
באשטעטיגן
באשטעטיקט
באשטעטיקן
באשטעלט
באשטעלן
באשטראפט
באשטראפן
באשיידן
באשיינען
באשיצונג
באשיצט
באשיצן
באשיר
באשלאסן
באשלוס
באשלוסן
באשליסט
באשליסן
באשמוצט
באשמוצן
באשמוצען
באשעוויס
באשעפטיגונג
באשעפטיגט
באשעפטיגן
באשעפטיקט
באשעפעניש
באשעפענישן
באשעפער
באשר
באשריבן
באשרייבונג
באשרייבונגען
באשרייבט
באשרייבן
באתר
בב
בבא
בבחי
בבחינת
בביאת
בבית
בבל
בבלי
בברכות
בברכת
בג
בגד
בגדול
בגדי
בגדים
בגימ
בגימטרי
בגימטריא
בגשמיות
בד
בדביקות
בדבר
בדברי
בדורותיו
בדחן
בדחנים
בדיוק
בדין
בדיקה
בדיקת
בדעה
בדף
בדרך
בה
בהירות
בהם
בהמה
בהמות
בהעלותך
בהר
בו
בוא
בואה
בובער
בוד
בודא
בודאפעסט
בודאפעשט
בודהיזם
בודזשעט
בודק
בודקע
בוזי
בוזעם
בוזשעט
בוטשאטש
בוי
בויגן
בויד
בוידעם
בויט
בויך
בוים
בוימווא
בוימל
בוימלגרין
בוימער
בויס
בויעט
בויען
בויער
בוך
בוכטע
בוכשטאב
בוכשטאבן
בולגא
בולגאריע
בולט
בולעטין
בונג
בונד
בונדסטאג
בונדסראט
בוני
בונים
בונם
בונקער
בוס
בוסטער
בוסטערס
בוסן
בוסק
בוענאס
בוקא
בוקאווינא
בוקאווינע
בוקאווסק
בוקארעסט
בוקארעשט
בוקיער
בוקן
בור
בורא
בורגנלאנד
בורונדי
בוריקעס
בורמע
בורקינע
בורשטין
בוש
בושה
בושוויק
בז
בזה
בזיווג
בזיון
בזיונות
בזכות
בזמן
בח
בחברותא
בחדרי
בחודש
בחור
בחורים
בחי
בחיי
בחייו
בחיים
בחינה
בחינם
בחירה
בחירות
בחלב
בחלקו
בחשוון
בט
בטבע
בטבת
בטוח
בטחון
בטל
בטלית
בטעות
בי
ביא
ביאגארפיע
ביאגראפיע
ביאגראפיעס
ביאגראפישע
ביאור
ביאורים
ביאכעמיע
ביאכעמיקער
ביאלא
ביאלאג
ביאלאגיע
ביאלאגישע
ביאליסטאק
ביאליק
ביאלע
ביאלער
ביאת
ביב
ביבי
ביבל
ביבליא
ביבליאגראפיע
ביבליאטעק
ביבליאטעקן
ביבער
ביג
ביד
בידזשא
בידי
בידערמאן
ביה
ביהודה
ביהמ
ביום
ביורא
ביוראען
ביוראקראט
ביותר
ביז
ביזא
ביזאנטישע
ביזאנטישער
ביזדערווייל
ביזט
ביזטו
ביזן
ביזנעס
ביזנעסלייט
ביזנעסמאן
ביזנעסער
ביחד
ביחידות
ביטא
ביטול
ביטלס
ביטע
ביטער
ביטערן
ביטערניש
ביטערע
ביטערער
ביטש
ביי
בייא
בייגט
בייגלייטער
בייגן
בייגעווען
בייגעשטייערט
ביידיש
ביידן
ביידע
ביידען
ביידער
בייז
בייזוויליגע
בייזן
בייזע
בייזער
בייזשינג
בייט
בייטא
בייטאג
בייטייך
בייטייכן
בייטל
בייטן
בייטש
בייטשער
ביילא
ביילאגע
ביילוס
בייליס
ביילע
ביים
ביימער
ביין
ביינא
ביינאכט
ביינוש
בייניש
ביינער
ביינערי
בייסט
בייסן
בייערן
בייקומען
ביירוט
ביישטיין
ביישטייערונגען
ביישטייערן
ביישפ
ביישפיל
ביישפילן
ביך
ביכולת
ביכורים
ביכל
ביכלעך
ביכער
ביל
בילא
בילבא
בילבולים
בילד
בילדונג
בילדינג
בילדער
ביליא
ביליאן
ביליאנען
ביליאנער
ביליאנערן
ביליג
ביליגע
ביליגער
ביליגערע
ביליזירט
ביליץ
ביליקע
בילס
בילעט
בילעטן
בים
בימה
בימי
בימים
בימינו
בין
בינ
בינא
בינארישע
בינדט
בינדיגער
בינדן
בינה
בינטל
ביניא
בינע
בינעט
בינען
בינעעט
ביס
ביסאו
ביסט
ביסטו
ביסטריצער
ביסל
ביסלעכווי
ביסלעכווייז
ביסן
ביסעלע
ביע
ביצה
ביציקל
ביק
ביקור
ביקס
ביקסן
ביר
בירא
בירגער
בירגערמייסטער
בירגערמייסטערס
בירגערס
בירגערקריג
בירגערשאפט
בירושה
בירושלים
בירמינגהאם
בירנבוים
ביש
בישע
בישראל
בית
ביתו
ביתר
בך
בכ
בכבוד
בכדי
בכוונה
בכוח
בכור
בכורה
בכורות
בכורים
בכח
בכל
בכלל
בכן
בכסלו
בל
בלא
בלאג
בלאגס
בלאגער
בלאזט
בלאזן
בלאזשאוו
בלאזשאווער
בלאט
בלאטע
בלאך
בלאק
בלאקירט
בלאקירן
בלב
בלבד
בלבול
בלהה
בלו
בלוז
בלוט
בלוטיגע
בלוטיקע
בלוי
בלויגרונד
בלויז
בלויזן
בלויזע
בלויע
בלויען
בלויער
בלום
בלומא
בלומבערג
בלומינגבורג
בלומען
בלומענפעלד
בלי
בליט
בליי
בלייב
בלייבט
בלייבן
בלייבנדיק
בלייבען
בלילה
בלימא
בלימי
בלינד
בלינדן
בלינדע
בלינדער
בלינדערהייט
בליען
בליץ
בליץבריוו
בליצן
בליק
בליקן
בלית
בלע
בלעטל
בלעטלעך
בלעטער
בלעטערער
בלעך
בלעם
בלעמען
בלען
בלעק
בלעקפרייערס
בלער
בלק
בלשון
בלתך
בלױז
בלײ
במדבר
במה
במהדורת
במהרה
במזיד
במילא
במלכות
במציאות
במקום
במשך
בן
בנ
בנדיק
בנו
בנוגע
בנוסף
בנות
בנחל
בני
בניו
בניין
בנים
בנימין
בנימינה
בנין
בנינים
בניסן
בנמצא
בנס
בנעט
בנציון
בס
בסא
בסדר
בסוד
בסוכה
בסוף
בסטרא
בסיוון
בסך
בספטמבר
בספר
בסתר
בע
בעבא
בעבודת
בעברית
בעגין
בעד
בעדואינער
בעדער
בעדפארד
בעדפארדשיר
בעה
בעהמען
בעולם
בעומר
בעז
בעזר
בעזרת
בעט
בעטא
בעטל
בעטלער
בעטלערס
בעטן
בעטען
בעי
בעיבי
בעיל
בעיקינג
בעיקר
בעיר
בעכער
בעל
בעלא
בעלארוס
בעלארוסיש
בעלגיע
בעלגישע
בעלות
בעלז
בעלזא
בעלזער
בעלט
בעלי
בעלעטריסטיק
בעמח
בען
בענג
בענגאל
בענגיס
בענד
בענדער
בענז
בענזין
בענטש
בענטשט
בענטשן
בעני
בעניטא
בענין
בעניני
בענעט
בענעפיט
בענעפיטן
בענציא
בענק
בענקט
בענקל
בענקלעך
בעס
בעסא
בעסט
בעסטן
בעסטנס
בעסטע
בעסטער
בעסי
בעסער
בעסערן
בעסערס
בעסערע
בעפאר
בעפארן
בעצם
בעק
בעקאנט
בעקטאן
בעקן
בעקער
בעקעריי
בעקערייען
בעקערלו
בער
בערבעשט
בערג
בערגיק
בערגל
בערגלעך
בערגמאן
בערגן
בערגעלסא
בערגער
בערד
בערדיטשעוו
בערדיטשעווער
בערדל
בערזע
בערט
בערטש
בערטשע
בערי
בעריא
בעריש
בערך
בערכו
בערל
בערלין
בערלינער
בערמאן
בערן
בערנארד
בערנולי
בערני
בערנשטיין
בערס
בערעג
בערעגסאז
בערעלע
בערקאוויטש
בעש
בעשא
בעשאס
בעת
בעתו
בעתן
בפ
בפה
בפועל
בפירוש
בפנימי
בפרט
בפשטות
בצד
בציבור
בצלאל
בק
בקדושה
בקהילה
בקודש
בקול
בקי
בקיאות
בקיצור
בקישור
בקרוב
בקשה
בקשות
בר
ברא
בראד
בראדוויי
בראדוועי
בראדער
בראהמס
בראון
בראזיל
בראטן
בראך
בראכפעלד
בראמלי
בראנד
בראנדוויין
בראנדז
בראנפן
בראנקס
בראסלעווער
בראש
בראשית
ברבי
ברבים
ברבנות
ברואים
ברוב
ברוגז
ברודער
ברודערס
ברוחניות
ברוטא
ברוטאל
ברויט
ברויך
ברויכט
ברויכן
ברוין
ברוינע
ברויער
ברוך
ברוכ
ברוכל
ברום
ברומען
ברונא
ברונינג
ברונעם
ברוס
ברוסט
ברוסטקאסטן
ברוק
ברוקלין
ברור
ברורה
ברחמים
ברי
בריאה
בריאת
בריגאדע
בריגעל
ברידזש
ברידער
בריה
בריוו
בריוון
בריטאניע
בריטיש
בריטישן
בריטישע
בריטישער
בריטן
בריטען
בריטענ
ברייט
ברייטאן
ברייטן
ברייטע
ברייטער
ברייטערן
ברייטקייט
ברייל
בריינגט
בריינגען
בריינדל
ברייען
ברייער
ברייש
ברייתא
בריך
בריליא
בריליאנט
בריליאנטן
ברילן
ברים
בריסט
בריסטאל
בריסל
בריסעל
בריסק
בריסקער
בריעה
בריעף
בריף
בריק
בריקא
בריקן
בריקס
ברירה
ברירות
ברירת
ברית
בריתי
ברך
ברכה
ברכהן
ברכו
ברכות
ברכי
ברכיה
ברכת
ברמה
ברסלב
ברסלבער
ברעג
ברעגן
ברעגנט
ברעגעס
ברעזשאן
ברעזשנעוו
ברעט
ברעטל
ברעטער
ברעכט
ברעכן
ברעמען
ברען
ברענג
ברענגט
ברענגן
ברענגען
ברענדי
ברענט
ברענען
ברענשטאף
ברעסלאווער
ברעסלעווער
ברעקלעך
ברק
ברױט
ברײט
בש
בשאלה
בשבט
בשביל
בשבת
בשבתו
בשוגג
בשום
בשורה
בשותפות
בשז
בשלום
בשלח
בשלימות
בשם
בשמחה
בשמים
בשן
בשנת
בשעה
בשעת
בשעתו
בשעתן
בשפה
בשר
בת
בתבנית
בתוך
בתוכם
בתולה
בתורה
בתי
בתיה
בתים
בתכלית
בתמוז
בתמימות
בתנאי
בתרא
בתשובה
בתשרי
בױגן
בױם
בױען
בײ
בײדע
בײז
בײזן
בײזע
בײם
בײמער
בײנער
ג
גא
גאב
גאבעס
גאהר
גאוה
גאווה
גאווערנאר
גאווערנער
גאולה
גאון
גאונות
גאונים
גאוס
גאז
גאזאלין
גאזן
גאזעט
גאט
גאטהייט
גאטוויק
גאטליב
גאטס
גאטפריד
גאל
גאלא
גאלאן
גאלאנען
גאלאקסיע
גאלד
גאלדא
גאלדבערג
גאלדבערגער
גאלדמאן
גאלדן
גאלדע
גאלדען
גאלדענע
גאלדענעם
גאלדענער
גאלדערס
גאלדשטיין
גאלילעא
גאליציאנער
גאליציע
גאלען
גאלעריע
גאלף
גאמא
גאמאל
גאן
גאנג
גאנגעס
גאנז
גאנץ
גאנצ
גאנצן
גאנצנ
גאנצע
גאנצען
גאנצער
גאס
גאסט
גאסטגעבער
גאסן
גאספל
גאר
גאראנטירט
גארבאטשאוו
גארד
גארדאן
גארדיען
גארטל
גארטן
גארליץ
גארליצער
גארניט
גארנישט
גארע
גארער
גב
גבאי
גבאים
גבוה
גבוך
גבול
גבורה
גבורות
גבורים
גבי
גביר
גבירים
גבירישער
גבעת
גבעתיים
גבר
גבריאל
גד
גדול
גדולה
גדולות
גדולי
גדולים
גדי
גדיא
גדלות
גדליה
גדליהו
גדעון
גדר
גהא
גהאנע
גו
גוא
גואל
גואלינו
גובערנאטאר
גובערנאטארן
גובערניע
גובר
גוג
גוגל
גוגעל
גודל
גווא
גוואטעמאלע
גוואלד
גוונין
גוזר
גוט
גוטמאן
גוטן
גוטס
גוטע
גוטען
גוטעס
גוטער
גוי
גויאישע
גויים
גוים
גולה
גולם
גולן
גולני
גומע
גומען
גוסטאוו
גוף
גופ
גופא
גופטא
גור
גורבאטשאוו
גורוויץ
גורט
גוריון
גורל
גורם
גורן
גוש
גושן
גזירה
גזירות
גזירת
גזל
גזלה
גזלן
גזלנים
גזע
גזר
גט
גטן
גטע
גי
גיא
גיב
גיבו
גיבור
גיבורים
גיבט
גיבן
גיבסאן
גיבראלטאר
גיד
גידעמא
גיהנום
גיהנם
גיוס
גיוסן
גיוסעס
גיט
גיטא
גיטאר
גיטין
גיטל
גיטעלע
גיטעלען
גיטער
גיי
גייגער
גייט
גייטוויי
גייטס
גייטסהעד
גייטסהעדער
גיין
גיינ
גייסט
גייסטו
גייסטיגע
גייסטיק
גייסטיקע
גייסטיקער
גייסטיש
גייסטישע
גייסטליכע
גייסטער
גייען
גייענדיג
גייענדיק
גייער
גיך
גיכן
גיכע
גיכער
גיכקייט
גילדן
גילדענע
גילדערנע
גילה
גילוי
גילויים
גילטיג
גילטיק
גימאטריע
גימטריא
גימלי
גימנא
גין
גינזבורג
גינזבערג
גינע
גיסא
גיסט
גיסטרא
גיסן
גיע
גיפ
גיפט
גיפטיק
גירוש
גירט
גיש
גישן
גישע
גישער
גכז
גל
גלא
גלאבאלע
גלאגאוו
גלאוב
גלאז
גלאט
גלאנץ
גלגול
גלגל
גלו
גלויב
גלויבונג
גלויבט
גלויביגע
גלויבן
גלוסט
גלוסטונג
גלוסטן
גלופ
גלות
גלח
גלחים
גלט
גלי
גליד
גלידער
גליון
גליטשן
גליי
גלייב
גלייבט
גלייבן
גליידער
גלייט
גלייטן
גלייך
גלייכונג
גלייכונגען
גלייכט
גלייכן
גלייכע
גלייכער
גלייכצייטיג
גלייכצייטיק
גליך
גליכע
גליל
גלילות
גליציה
גליק
גליקט
גליקליך
גליקלעך
גליקמאן
גליקן
גלעד
גלעזל
גלעזעלע
גלעזער
גלעזערנע
גלעטשער
גלען
גלױבן
גלײ
גם
גמ
גמורה
גמילות
גמליאל
גמרא
גמרות
גן
גנ
גנא
גנב
גנבה
גנבים
גנבענען
גנדיק
גניבה
גניבות
גניזה
גנים
גנעסיע
גנעסיען
גס
גסט
גסטו
גסיסה
גע
געא
געאגראפיע
געאגראפיש
געאגראפישע
געאגראפישער
געאורטיילט
געאייגנט
געאייגענט
געאיילט
געאלאגיע
געאמעטריע
געארבייט
געארבעט
געארג
געב
געבא
געבאט
געבאטן
געבאקן
געבארגט
געבארן
געבוי
געבויגן
געבויט
געבויטע
געבויעט
געבוירן
געבוירען
געבוירענע
געבוירענער
געבונדן
געבוקט
געבורט
געבורטן
געבורטס
געבורטסטאג
געבט
געביט
געביטן
געביידע
געביידעס
געבייזערט
געביין
געבילדעט
געבינדן
געבירטיג
געבלא
געבלאזן
געבליבן
געבליבנ
געבליבען
געבליבענע
געבליט
געבן
געבנדיג
געבעט
געבעטן
געבעטען
געבען
געבענטש
געבענטשט
געבענקט
געבעקס
געבער
געבערן
געברא
געבראכט
געבראכן
געברויך
געברויכט
געברויכן
געברענגט
געברענט
געבױגן
געבױט
געבױרן
געג
געגא
געגאנגן
געגאנגען
געגאנגענ
געגאסן
געגבן
געגלויבט
געגלוסט
געגלייבט
געגליכן
געגלױבט
געגן
געגנבעט
געגנט
געגנטן
געגנטער
געגעב
געגעבן
געגעבנ
געגעבען
געגענט
געגענטן
געגענטער
געגעניש
געגענען
געגעסן
געגעסען
געגרא
געגראבן
געגרייט
געגרינדט
געגרינדעט
געגרינדעטע
געדא
געדאוונט
געדאווענט
געדאכט
געדאנזשעט
געדאנק
געדאנקן
געדאנקען
געדארפט
געדויערט
געדויערן
געדוכט
געדולד
געדונגען
געדיכט
געדיכטע
געדיכטער
געדיכטקייט
געדינגען
געדינט
געדיק
געדעכט
געדעכטע
געדעכטקייט
געדעכעניש
געדענק
געדענקט
געדענקמאל
געדענקן
געדענקען
געדעקט
געדערים
געדערעם
געדרא
געדרונגען
געדרוקט
געדרוקטן
געדרוקטע
געדרייט
געדריקט
געדריקטע
געדרײ
געה
געהא
געהאדעוועט
געהאט
געהאלט
געהאלטן
געהאלטען
געהאלפן
געהאנגען
געהאנדלט
געהאפט
געהארגעט
געהויבן
געהויבענע
געהט
געהיט
געהיטן
געהיילט
געהיים
געהיימע
געהיימער
געהייסן
געהייסען
געהייצט
געהייראט
געהילף
געהילפן
געהילץ
געהן
געהעכערט
געהען
געהער
געהערט
געהעריג
געהעריגע
געהעריגער
געהעריק
געהעריקע
געהערן
געהערשט
געהרג
געהרגט
געהרגעט
געהרגעטע
געהױבן
געהײליקט
געהײסן
געו
געוארן
געווא
געוואגט
געוואויגן
געוואוינט
געוואויר
געוואונדערט
געוואונט
געוואונטשן
געוואונטשענע
געוואונען
געוואוסט
געוואוקס
געוואוקסן
געוואלד
געוואלדטאטן
געוואלדיג
געוואלדיגן
געוואלדיגע
געוואלדיגער
געוואלט
געוואן
געוואנדן
געוואנדען
געוואנדערט
געוואקסן
געוואר
געווארט
געווארן
געווארנט
געווארען
געווארענט
געווארפן
געוואשן
געווו
געוווינט
געווידמעט
געוויזן
געוויזען
געוויילט
געוויין
געוויינט
געוויינטליך
געוויינטלעך
געוויינטלעכע
געוויינליך
געוויינלעך
געוויינלעכן
געוויינלעכע
געוויינלעכער
געווייקט
געוויכט
געווינט
געווינס
געווינען
געווינער
געוויס
געוויסט
געוויסן
געוויסע
געוויסער
געוויקס
געוויקסן
געווירץ
געווירצן
געווירקט
געווישט
געוון
געוועב
געוועהן
געוועזן
געוועזען
געוועזענע
געוועזענעם
געוועזענער
געוועלב
געוועלט
געוועלטיגט
געוועלטיגן
געוועלטיקט
געוועלטיקן
געווען
געווענ
געווענדט
געווענדעט
געווענטליך
געווענליך
געווענליכן
געווענליכע
געווענליכער
געווענלעך
געווער
געווערן
געוען
געזא
געזאגט
געזאלט
געזאמלט
געזאנג
געזאנגען
געזארגט
געזוכט
געזונגען
געזונד
געזונדערט
געזונט
געזונטהייט
געזונטן
געזונטע
געזונטער
געזונטערהייט
געזיגט
געזיכט
געזינגען
געזינדיגט
געזינדיקט
געזיצן
געזעגנט
געזעגענען
געזעהן
געזעלשא
געזעלשאפט
געזעלשאפטליכע
געזעלשאפטן
געזעמל
געזעמלען
געזען
געזעסן
געזעסען
געזעסענע
געזעץ
געזעצט
געזעצליך
געזעצן
געזעצען
געחלומט
געחתמעט
געט
געטא
געטאן
געטאנצט
געטאס
געטארט
געטוהן
געטויגט
געטוישט
געטון
געטוען
געטייט
געטיילט
געטליכע
געטליכער
געטליכקייט
געטלעכן
געטלעכע
געטלעכער
געטלעכקייט
געטע
געטענה
געטענהט
געטער
געטרא
געטראגן
געטראכט
געטראנק
געטראנקען
געטראפן
געטראפען
געטרויען
געטרונקען
געטריבן
געטריי
געטרייסט
געטרייע
געטרייער
געטריישאפט
געטרײ
געטשעפעט
געטײט
געי
געיא
געיאגט
געיז
געיט
געיטס
געיעג
געכא
געכאפ
געכאפט
געל
געלא
געלאדענט
געלאזט
געלאכט
געלאנדעט
געלאפן
געלד
געלויבט
געלוינט
געלונגן
געלונגען
געלונגענע
געלונגענער
געלט
געלטליכע
געלטער
געליבטער
געליגן
געליטן
געליטענע
געלייגט
געלייזט
געליינט
געלייענט
געלייקנט
געליען
געלן
געלע
געלעבט
געלעגן
געלעגנהי
געלעגנהייט
געלעגנהייטן
געלעגענהייט
געלעגער
געלעכטער
געלענק
געלער
געלערטע
געלערטער
געלערנט
געלערנטע
געלערנטער
געלערענט
געלױבט
געלײ
געלײגט
געמ
געמא
געמאכט
געמאכטע
געמאלדן
געמאלט
געמאלן
געמאסטן
געמארדעט
געמבלינג
געמוזט
געמוטשעט
געמיט
געמיטער
געמיינדע
געמיינדעס
געמיינזאמע
געמיינזאמען
געמיינזאמער
געמיינט
געמיינע
געמינערט
געמיש
געמישט
געמישטע
געמישטער
געמעגט
געמעל
געמעלן
געמעקט
געמערט
געמערקט
גען
גענא
גענאסן
גענאק
גענג
גענוג
גענוי
גענויגט
גענויע
גענויען
גענויער
גענומען
גענומענ
גענוצט
גענוצטע
גענז
גענטפערט
גענידערט
געניטער
גענייגט
גענייט
געניסט
געניסן
געניצט
געניש
גענע
גענעטישע
גענענט
גענענען
גענעס
גענער
גענערא
גענעראל
גענעראלן
גענעראלע
גענערירט
גענף
גענצליך
גענײ
געס
געסט
געסטראשעט
געסל
געסלעך
געענגט
געענדיגט
געענדיקט
געענדערט
געענטפ
געענטפערט
געענפערט
געעפ
געעפנט
געעפענט
געערלעכט
געפ
געפא
געפאדערט
געפאלגט
געפאלט
געפאלן
געפאלען
געפאנגען
געפאנגענע
געפאנצערטע
געפאסט
געפאר
געפארן
געפארשט
געפונט
געפונען
געפועלט
געפיטערט
געפייניגט
געפייערט
געפיל
געפילט
געפילטע
געפילן
געפינט
געפינען
געפירט
געפלא
געפלאגט
געפלאנט
געפלאנטע
געפלויגן
געפסקנט
געפעכט
געפעכטן
געפעלט
געפעלן
געפענגעניש
געפענט
געפערליך
געפערליכע
געפערלעך
געפראוועט
געפרו
געפרואווט
געפרוירן
געפרייט
געפרעגט
געץ
געצא
געצאלט
געצוואונגען
געצווונגען
געצווינגן
געצווינגען
געצויגן
געציטערט
געצייג
געצייגט
געציילט
געציילטע
געציל
געצילט
געצן
געצעלט
געצעלטן
געצערנט
געצױגן
געקא
געקאכט
געקאנט
געקאנטשעט
געקאסט
געקויפ
געקויפט
געקומן
געקומען
געקומענ
געקומענע
געקוקט
געקושט
געקיניגט
געקלא
געקלאגט
געקלאפט
געקלונגען
געקליבן
געקליבענע
געקליידט
געקלעקט
געקלערט
געקעמפט
געקענט
געקעניגט
געקערט
געקערעוועט
געקרא
געקראגן
געקראכט
געקרוינט
געקריגט
געקריגן
געקרינן
געקױפ
גער
גערא
געראטן
געראטעוועט
גערודער
גערודפט
גערוט
גערויבט
גערוך
גערופ
גערופן
גערופען
גערופענע
גערופענער
גערוקט
גערט
גערטנער
גערייכערט
געריכט
געריכטליכע
געריכטן
גערין
געריסן
געריקט
גערירט
גערמא
גערמאנישע
גערן
גערס
גערעגט
גערעדט
גערעדטן
גערעדטע
גערעכט
גערעכטיגקייט
גערעכטיקייט
גערעכטיקײט
גערעכטן
גערעכטע
גערעכטער
גערעכנט
גערעכענט
גערער
גערשט
גערשטן
גערױש
געש
געשא
געשאנק
געשאנקן
געשאנקען
געשאסן
געשאפ
געשאפט
געשאפן
געשאצט
געשאצטע
געשווא
געשוואוירן
געשוויגן
געשווינד
געשוויסטער
געשטא
געשטאכן
געשטאלט
געשטאמט
געשטאנען
געשטארבן
געשטארבען
געשטארקט
געשטויסן
געשטופט
געשטורעמט
געשטיגן
געשטימט
געשטיצט
געשטעטנער
געשטעל
געשטעלט
געשטעלטע
געשטעקט
געשטערט
געשטרא
געשטראפט
געשטרעבט
געשטרױכלט
געשיידט
געשיכטע
געשיכטעס
געשילדערט
געשיצט
געשיקט
געשיר
געשלא
געשלאגן
געשלאסן
געשלאפן
געשליכטעט
געשלעג
געשלעגן
געשלעכט
געשלעפ
געשלעפט
געשמא
געשמאק
געשמאקע
געשמדט
געשמועסט
געשמייכלט
געשמעלצן
געשמעקט
געשניטן
געשעדיגט
געשעדיקט
געשעהט
געשעהן
געשעהעניש
געשעהענישן
געשעט
געשעמט
געשען
געשענט
געשענקט
געשעעניש
געשעענישן
געשעפ
געשעפט
געשעפטן
געשעצט
געשפ
געשפאלטן
געשפילט
געשפירט
געשפריצט
געשפרעכן
געשרא
געשרי
געשריב
געשריבן
געשריבען
געשריבענע
געשריגן
געשריי
געשרייען
געשריען
געשרײ
געשװא
געשװיגן
געװא
געװאר
געװארן
געװו
געװיזן
געװינערין
געװע
געװעלבן
געװעלטיקט
געװעלטיקן
געװעלטיקער
געװען
געװױנט
געװײן
געװײנט
גפן
גפני
גר
גרא
גראבונגען
גראבט
גראבן
גראבע
גראד
גראדואירט
גראדזיסק
גראדזענסקי
גראדזשיסק
גראדע
גראוויטאציע
גראוויטי
גראז
גראזן
גראם
גראמאטיק
גראמען
גראס
גראסמאן
גראסערי
גראף
גראפנשאפט
גראפנשאפטן
גרו
גרוב
גרובער
גרוזיניש
גרוזיע
גרוי
גרויס
גרויסאיסטערן
גרויסבריטאניע
גרויסווארדיין
גרויסלאנדאן
גרויסמאכטן
גרויסמייסטער
גרויסן
גרויסנארדערן
גרויסע
גרויסען
גרויסער
גרויסקייט
גרונד
גרונט
גרונטליכע
גרונטלעכע
גרונטפ
גרוס
גרופ
גרופע
גרופעס
גרוש
גרושה
גריבאוו
גריבעס
גריבער
גריג
גריי
גרייז
גרייזן
גרייט
גרייטן
גרייטע
גרייכט
גרייכן
גרייס
גרייסן
גריכיש
גריכישן
גריכישע
גריכישער
גריכן
גריכנלאנד
גרים
גרימצא
גרין
גרינבוים
גרינבלאט
גרינבערג
גרינג
גרינגסטע
גרינגע
גרינגער
גרינגערהייט
גרינגערע
גרינדונג
גרינדן
גרינדעט
גרינדער
גרינוואלד
גריניטש
גרינלאנד
גרינס
גרינסן
גרינע
גרינעם
גרינער
גרינפעלד
גרינצייג
גריס
גריסט
גריסן
גריף
גריפ
גריפן
גריפע
גרמנית
גרע
גרעבער
גרעגאריאנישן
גרעגאריאנישע
גרעיט
גרענד
גרעניץ
גרעניצט
גרעניצן
גרעניצען
גרענעץ
גרענעצט
גרענעצן
גרעסטן
גרעסטע
גרעסטער
גרעסער
גרעסערן
גרעסערע
גרעסערער
גרשום
גרשון
גרױס
גרױסן
גרױסע
גרױסער
גרױסקײט
גרײ
גשא
גשמי
גשמיות
גשר
גשריבן
גת
גײ
גײט
גײן
גײען
ד
דא
דאבעליו
דאברהם
דאגה
דאגות
דאגעגן
דאהי
דאו
דאוונען
דאווענט
דאווענען
דאווער
דאון
דאורייתא
דאזיגן
דאזיגע
דאזיגער
דאזיקן
דאזיקע
דאזיקער
דאטא
דאטום
דאטן
דאטנבאזע
דאטע
דאך
דאכט
דאכנער
דאלאר
דאלארן
דאלינא
דאלער
דאם
דאמב
דאמבע
דאמבעס
דאמבראווא
דאמבראווער
דאמינירט
דאמען
דאמעסטיק
דאן
דאנאלד
דאנען
דאנעצק
דאנערשטאג
דאנערשטיק
דאנציג
דאנציגער
דאנק
דאנקבארקייט
דאנקן
דאנקען
דאס
דאסמאל
דאסקאל
דאפעלט
דאקומענט
דאקומענטאציע
דאקומענטארער
דאקומענטירט
דאקומענטירן
דאקומענטן
דאקטאר
דאקטאראט
דאקטוירים
דאקטער
דאקלאנדס
דאקעגן
דאר
דארבי
דארבישיר
דארווין
דארום
דארט
דארטיגע
דארטן
דארטען
דארן
דארף
דארפט
דארפן
דארפסט
דארפסטו
דארפען
דארשט
דאש
דאתרא
דב
דבוק
דבור
דבורה
דבי
דבינה
דביקות
דבר
דברי
דברים
דבש
דגוש
דגל
דגש
דה
דהיינו
דו
דוא
דוב
דוביי
דובלין
דובנא
דובער
דוגמא
דוגמה
דוד
דודאים
דודו
דודי
דודין
דודיס
דודל
דודן
דווא
דווייט
דווקא
דויד
דויטש
דויער
דויערט
דויערן
דוכט
דול
דולער
דום
דומ
דומא
דומה
דונאם
דונג
דוניי
דונער
דונערן
דוס
דוסא
דועל
דוצירט
דוצירן
דוצירער
דוקא
דוקט
דוקטן
דוקלא
דוקציע
דור
דורות
דורך
דורכ
דורכאויס
דורכגאנג
דורכגאס
דורכגיין
דורכגייער
דורכגעגא
דורכגעגאנגען
דורכגעלא
דורכגעלעבט
דורכגעמא
דורכגעפ
דורכגעפאלן
דורכגעפירט
דורכגײן
דורכדעם
דורכזיכטיג
דורכן
דורכפ
דורכפא
דורכפאל
דורכפאלן
דורכפירן
דורכפירער
דורכפעלער
דורכצופירן
דורכרעדן
דורכשמועסן
דורכשניט
דורכשניטליך
דורכשניטליכע
דורכשניטליכער
דורכשניטלעך
דורכשניטלעכע
דורכשניטלעכער
דורש
דורשט
דושינסקי
דושינסקיא
דז
דזועס
דזמרה
דזש
דזשא
דזשאב
דזשאבס
דזשאו
דזשאמייקע
דזשאן
דזשאנס
דזשאנסאן
דזשאסעף
דזשארדזיע
דזשארדזש
דזשארדזשיע
דזשארזש
דזשואיש
דזשול
דזשוסעפע
דזשורי
דזשורנאל
דזשי
דזשיבוטי
דזשיי
דזשיימס
דזשילבערץ
דזשים
דזשימי
דזשין
דזשיקאוו
דזשיקאווער
דזשעז
דזשעט
דזשעי
דזשעימס
דזשענעראל
דזשעף
דזשעק
דזשערבא
דזשערזי
דזשערי
דזשערסי
דט
די
דיא
דיאלעקט
דיאלעקטן
דיאמאנט
דיאמאנטן
דיאמעטער
דיאקסייד
דיבוק
דיבור
דיבורים
דיג
דיגן
דיגע
דיגער
דיוויזיע
דיוויזיעס
דיון
דיזל
דיזן
דיזני
דיי
דייוויד
דייוויס
דייט
דייטש
דייטשיש
דייטשישע
דייטשלא
דייטשלאנד
דייטשלאנדס
דייטשן
דייטשע
דייטשער
דיין
דיינים
דיינס
דיינע
דייעט
דייקא
דיך
דיכ
דיכטונג
דיכטונגען
דיכטער
דיכטערס
דיל
דים
דימונה
דימיטריוס
דימיר
דימענט
דימענסיע
דימענסיעס
דין
דינא
דינאוו
דינאווער
דינאסטיע
דינאסטיעס
דינג
דינגונגען
דינגט
דינגען
דינה
דינהלה
דינהלע
דינהלען
דינונגען
דינט
דיני
דינים
דינסט
דינסטאג
דינסטיק
דינסטן
דינע
דינען
דינער
דיסא
דיסטאנץ
דיסטענס
דיסטריקט
דיסטריקטן
דיסלעקסיע
דיסערטא
דיסציפלין
דיסציפלינען
דיסק
דיסקא
דיסקאגראפיע
דיסקוסיע
דיסקוסיעס
דיסקוסירן
דיסקין
דיסקרימינאציע
דיסקרעטע
דיע
דיעגא
דיעה
דיעות
דיעטע
דיעל
דיף
דיפ
דיפלאם
דיפלאמאט
דיפלאמאטישע
דיפלאמאטן
דיפערענצן
דיציא
דיציע
דיק
דיקא
דיקטא
דיקטאטאר
דיקטאטור
דיקן
דיקע
דיקער
דיר
דירה
דירות
דיריגענט
דירעקט
דירעקטא
דירעקטאר
דירעקטירט
דירעקטן
דירעקטע
דירעקטער
דיש
דישן
דישע
דישער
דישקי
דישקייט
דכלה
דל
דלא
דלות
דלער
דם
דמ
דמי
דמיון
דמיטרא
דמיטרי
דמיין
דמים
דמיניסטרא
דמשיחא
דמשק
דן
דנ
דנטום
דני
דניאל
דניאלן
דניו
דניעפער
דנע
דס
דסאטמאר
דסקי
דסקער
דע
דעבאטירט
דעבאטירן
דעבאטע
דעביוטירט
דעברעצין
דעגרי
דעגרייכט
דעגרייכן
דעד
דעדאקטעבל
דעה
דעהאן
דעהם
דעווא
דעוויד
דעוועט
דעוועלא
דעות
דעזיין
דעזיינט
דעט
דעטאל
דעטאלן
דעטרויט
דעי
דעיוויד
דעילי
דעכער
דעל
דעלאטין
דעלטע
דעלעגא
דעלעגאט
דעלעגאטן
דעלעגאציע
דעם
דעמ
דעמא
דעמאגראפיע
דעמאלט
דעמאלטדיגער
דעמאלטס
דעמאלטסדיגער
דעמאלס
דעמאלסט
דעמאלסטיקער
דעמאנסטראנטן
דעמאנסטראציע
דעמאנסטראציעס
דעמאקראט
דעמאקראטיע
דעמאקראטיש
דעמאקראטישן
דעמאקראטישע
דעמאקראטישער
דעמאקראטן
דעמביץ
דעמיע
דעמלט
דען
דענ
דענג
דענווער
דעני
דעניס
דעניש
דענישער
דענמארק
דענסטמא
דענסטמאל
דענסמאל
דענע
דענענבורג
דענצמא
דענקט
דענקמא
דענקען
דענקער
דעס
דעסט
דעסטוועגן
דעסטינאציע
דעסלער
דעעש
דעעשער
דעפ
דעפארטירט
דעפארטמענט
דעפארטמענטן
דעפוטאט
דעפוטאטן
דעפיניציע
דעפינירט
דעפינירן
דעפיציט
דעפענס
דעפרעסיע
דעצימאל
דעצעמבער
דעק
דעקא
דעקאטע
דעקארט
דעקונג
דעקט
דעקל
דעקלא
דעקלאראציע
דעקלעראציע
דעקלערט
דעקן
דער
דערב
דערבא
דערבי
דערביי
דערבײ
דערגא
דערגאנגען
דערגייט
דערגיין
דערגעגן
דערגרייכונג
דערגרייכונגען
דערגרייכט
דערגרייכן
דערהא
דערהאלטן
דערהארגעט
דערהויבן
דערהויבענע
דערהויפ
דערהייבט
דערהייבן
דערהיים
דערהער
דערהערט
דערהערן
דערהערנדיק
דערהרגעט
דערהױבן
דערהײבן
דערווא
דערוואוסט
דערוואקסן
דערוואקסענער
דערווו
דערווי
דערווידער
דערווייז
דערווייזן
דערווייטענס
דערווייטערט
דערווייטערן
דערווייל
דערוויילט
דערוויסן
דערוועגן
דערוועקט
דערוועקן
דערווײ
דערויסענדע
דערויף
דערום
דערונג
דערופ
דערזא
דערזעהן
דערזעט
דערזען
דערזעענדיק
דערזײ
דערט
דערטרא
דערטרונקען
דעריב
דעריבער
דערין
דערינען
דערלא
דערלאזט
דערלאזן
דערלאנגט
דערלאנגען
דערלויבט
דערלויבן
דערלויבעניש
דערלעבט
דערלױבעניש
דערמא
דערמאנונג
דערמאנט
דערמאנטע
דערמאנען
דערמארדעט
דערמיט
דערמעגלעכט
דערמעגלעכן
דערן
דערנא
דערנאך
דערנידערט
דערנע
דערנעבן
דערנעבנדיגע
דערנעם
דערנענטערט
דערנענטערן
דערנער
דערנערונג
דערפ
דערפא
דערפאלג
דערפאלגרייך
דערפאר
דערפארונג
דערפון
דערפונ
דערפילט
דערפילן
דערפינדן
דערפינדער
דערפל
דערפלעך
דערפער
דערפרייט
דערצו
דערצויגן
דערציאונג
דערצייל
דערציילונג
דערציילונגען
דערציילט
דערציילן
דערצעהלט
דערצײלט
דערצײלן
דערקלערונג
דערקלערט
דערקלערן
דערקעגן
דערקענט
דערקענטעניש
דערקענען
דערשא
דערשאוויץ
דערשאסן
דערשטוינט
דערשטיקט
דערשטיקן
דערשי
דערשיינונג
דערשיינט
דערשיינען
דערשינען
דערשלא
דערשפ
דערשפירט
דערשפירן
דערשרא
דערשראקן
דערשרעקן
דערשײ
דערװעק
דערװײ
דערױף
דעש
דעת
דף
דפגרא
דפוס
דפים
דפרקא
דק
דקא
דקדושה
דקהל
דר
דרא
דראג
דראגס
דראהאביטש
דראהביטש
דראט
דראטן
דראמא
דראמאטורג
דראמאטורגן
דראמאטיש
דראמאטישע
דראמאטישער
דראמע
דראסטיש
דרב
דרבי
דרבנן
דרוזן
דרויסן
דרויסנדיגע
דרויסנדיקע
דרויסנדיקער
דרויסענדיגע
דרוך
דרום
דרומדיק
דרומדיקן
דרומדיקע
דרומדיקער
דרוק
דרוקט
דרוקן
דרוקסאגראפיע
דרוקער
דרוקעריי
דרוש
דרושים
דרי
דריא
דריווש
דריז
דריזן
דריט
דריטל
דריטן
דריטע
דריטער
דריי
דריידל
דרייוו
דרייוון
דרייווען
דרייווער
דרייט
דרייסט
דרייסיג
דרייסיגסטער
דרייסיק
דרייען
דרייעק
דרייפוס
דרייצן
דרייצנטער
דרייצען
דרינגט
דרינגען
דרינען
דריק
דריקונג
דריקט
דריקן
דריקער
דרך
דרכי
דרכים
דרע
דרעוין
דרענאזש
דרעס
דרש
דרשה
דרשו
דרשות
דרשן
דרױסן
דרײ
דרײען
דש
דשא
דשטיין
דשמיא
דת
דײ
דײטש
ה
הא
האב
האבין
האבן
האבנדיג
האבען
האבענדיג
האבער
האג
האגל
האגער
האדם
האדמה
האדמו
האדסאן
האדעווען
האוואי
האוואנע
האוז
האוזינג
האומה
האומות
האור
האזינו
האחרון
האט
האטליין
האטן
האטעל
האטעלן
האי
האיטי
האיש
האל
האלאנד
האלאנדישע
האלאקאוסט
האלאקאסט
האלאשיץ
האלב
האלבאינדזל
האלבאינזל
האלבן
האלבע
האלבער
האלבערשטאם
האלבקיילעך
האלדז
האלה
האלהים
האלוקות
האלוקי
האלט
האלטן
האלטנדיג
האלטסט
האלטען
האלטער
האליוואד
האליוואוד
האלענדיש
האלענדישן
האלענדישע
האלענדישער
האלענדער
האלפערט
האלפערין
האלפרין
האלץ
האלקין
האלשטאט
האם
האמבורג
האמונה
האמילטאן
האמיתי
האמלעט
האמלעטס
האמעאפאט
האמעאפאטיע
האמעאפאטישע
האמערסמיט
האמפסטעד
האמצעי
האמת
האן
האנאווער
האנג
האנד
האנדא
האנדוראס
האנדל
האנדלט
האנדלן
האנדלס
האנדלען
האנדלער
האנדעלט
האנט
האניג
האניפאלי
האנס
האנסלוי
האנעמאן
האס
האסט
האסטו
האסן
האף
האפ
האפט
האפמאן
האפן
האפנונג
האפסבורגער
האפענונג
האפשטיין
האצילות
האק
האקט
האקן
האר
הארא
האראדענקע
האראדענקער
האראלד
הארב
הארבסט
הארבע
הארבער
הארגעט
הארגענען
הארווארד
הארוי
הארט
הארטווארג
הארטי
הארטע
הארטער
הארטפארד
הארטפארדשיר
הארי
האריזאנט
הארינגיי
הארלעם
הארמאן
הארמאניע
הארמאנען
הארמי
הארן
הארץ
הארצ
הארצות
הארציגע
הארצים
הארצן
הארשאם
האש
האשה
האשעמ
האתר
הב
הבא
הבאה
הבאים
הבדלה
הבורא
הבחור
הבטחה
הביטול
הבית
הבל
הבן
הבנים
הבעל
הבעש
הברה
הבריאה
הבריות
הברית
הברכה
הבתולה
הג
הגאולה
הגאון
הגאונים
הגבהה
הגדה
הגדול
הגדולה
הגדולים
הגה
הגהות
הגולה
הגומל
הגוף
הגלות
הגלילי
הגם
הגן
הגנה
הגנוז
הגפן
הגר
הגשמי
הדבר
הדברות
הדברים
הדור
הדורות
הדין
הדלקת
הדם
הדס
הדסה
הדסהן
הדעת
הדף
הדפוס
הדר
הדרך
הדת
ההגדה
ההגנה
ההוא
ההטיות
ההם
הו
הוא
הוגא
הוד
הודו
הודעה
הוה
הוו
הוט
הוטנער
הוי
הויב
הויבט
הויבן
הויז
הויזגעזינד
הויזן
הויט
הויך
הויכלאנד
הויכן
הויכע
הויכער
הויכפונקט
הויכקייט
הויכשולע
הויל
הוילע
הויעכע
הויף
הויפ
הויפט
הויפטזעכליך
הויפטזעכלעך
הויפטליניע
הויפטן
הויפטקווארטיר
הויפטקווארטירט
הויפטקווארטירן
הויפטשטא
הויפטשטאט
הויפטשטעט
הויפן
הויפשטאט
הויקער
הולך
הומא
הומאר
הון
הונא
הונגער
הונגעריג
הונגעריק
הונגעריקע
הונדערט
הונדערטע
הונדערטער
הונט
הוסט
הוסיאטין
הוספות
הוספת
הוצאה
הוצאות
הוצאת
הורא
הוראגאן
הוראה
הוראות
הורדוס
הורוויץ
הורידו
הוריות
הורקנוס
הושע
הושענא
הזאת
הזה
הזהב
הזוהר
הזיכרון
הזיתים
הזמן
הזמנה
הזמנים
הזקן
החא
החדש
החדשה
החודש
החומות
החושן
החזקה
החי
החיים
החינוך
החכם
החכמה
החלטה
החמה
החנוכה
החסד
החסיד
החסידות
החסידים
החרדי
החרדים
החרדית
החתן
הט
הטבע
הטהור
הטוב
הטורים
הטל
הטקסט
הי
היא
היברו
היבש
היגן
היגע
היגער
היד
הידרא
הידראגען
היה
היהדות
היהודי
היהודים
היו
היום
היומי
היות
היזק
היחוד
היחודים
היחס
היט
היטב
היטונג
היטל
היטלען
היטלער
היטלערן
היטלערס
היטן
היטע
היטען
היטער
היטרוי
היי
הייב
הייבט
הייבן
הייבריד
הייד
היידזעקערס
היידן
היידרא
היידראדזשען
הייוון
הייוועי
הייזער
הייט
הייטס
הייך
הייל
היילונג
היילט
הייליג
הייליגן
הייליגע
הייליגען
הייליגער
הייליגקייט
הייליק
הייליקייט
הייליקן
הייליקע
הייליקער
היילן
היילפרין
היים
היימאן
היימיש
היימישן
היימישע
היימישער
היימלא
היימלאנד
היימען
היינאלט
היינו
היינט
היינטיגן
היינטיגע
היינטיגער
היינטיקן
היינטיקע
היינטיקער
היינריך
הייס
הייסט
הייסן
הייסע
הייסען
הייסער
הייעוועי
הייעוועיס
הייפיש
הייפישן
הייצונג
הייצט
הייצן
הייקינד
הייראט
הייראטן
היישעריק
הייתי
היכל
היל
הילבערט
הילד
הילוויכט
הילוך
הילל
הילס
הילערי
הילף
הילצערנע
הים
הימאלייע
הימים
הימין
הימל
הימלישע
הימלען
הימלער
הימע
הימעל
הין
הינגעריכט
הינגעריכטעט
הינדא
הינדו
הינדואיזם
הינדי
הינדל
הינדענבורג
הינזיכט
הינזיכטן
הינט
הינטן
הינטער
הינטערגרונט
הינטערן
הינער
הינריכטעט
היסוד
היסטא
היסטאריע
היסטאריקער
היסטאריקערס
היסטאריש
היסטארישן
היסטארישע
היסטארישער
היספאנישע
היפ
היפאטענוז
היפש
היץ
היצירה
היצן
היצר
הירדן
הירץ
היררים
הירש
הירשל
הירשע
הישועה
הישיבה
הישיבות
הישן
הישר
הישראלי
היתה
היתכן
היתר
הכ
הכבוד
הכהן
הכהנים
הכוכבים
הכולל
הכותל
הכז
הכיפורים
הכל
הכלה
הכלל
הכללי
הכנה
הכנות
הכנסה
הכנסות
הכנסת
הכנת
הכסא
הכפורים
הכרה
הכרם
הכרמל
הכרת
הכשר
הכשרות
הכשרים
הכתוב
הכתר
הכתרה
הל
הלא
הלאום
הלאומי
הלאומית
הלב
הלבבות
הלואי
הלוואה
הלוואות
הלוואי
הלוי
הלט
הלילה
הלים
הלימוד
הלך
הלכה
הלכות
הלל
הללו
הלע
הלשון
הם
המאה
המאור
המאיר
המבול
המדבר
המדות
המדינה
המדרש
המו
המודיע
המוות
המוחין
המון
המוסר
המועד
המוציא
המות
המזבח
המזון
המזרח
המחבר
המט
המידות
המים
המינים
המכון
המכפלה
המלאך
המלח
המלך
המלכה
המלכות
המלכים
הממשלה
המן
המנ
המנוחות
המנורה
המסלה
המספיק
המע
המעלות
המערבי
המעשה
המצאה
המצב
המצוות
המצות
המציאות
המקדש
המקובלים
המקום
המשיח
המשך
המשנה
המשניות
המשפחה
המשפט
המת
המתים
הן
הנ
הנאה
הנאות
הנאמנים
הנב
הנבואה
הנביא
הנביאים
הנגיד
הנגינה
הנה
הנהגה
הנהגות
הנהגת
הנהלה
הנותן
הנט
הנים
הניסים
הנני
הנס
הנפש
הנרות
הנשיא
הנשמה
הסבר
הסדר
הסולם
הסופר
הסטו
הסטת
הסכם
הסכמה
הסכמות
הספד
הספר
הספרים
הסתדרות
הסתלקות
הסתם
הסתר
הסתרה
הסתרות
הע
העב
העבודה
העברי
העברית
העברעאיש
העברעאישן
העברעאישע
העברעאישער
העברעי
העברעיש
העברעישן
העברעישע
העברעישער
העגל
העדה
העובדות
העולה
העולם
העולמים
העומר
העזר
העט
העין
העיר
העכסט
העכסטן
העכסטע
העכסטער
העכער
העכערונג
העכערן
העכערע
העכערער
העל
העלד
העלדן
העלט
העליום
העליון
העליונה
העליונים
העליקאפטער
העליקאפטערס
העלן
העלע
העלען
העלענע
העלער
העלף
העלפ
העלפאנד
העלפאנדביין
העלפט
העלפן
העלפען
העלפער
העלצער
העם
העמד
העמדל
העמילטאן
העמים
העמק
העמקים
הענא
הענגט
הענגיק
הענגיקייט
הענגן
הענגען
הענד
הענדאן
הענדל
הענדלער
הענט
הענטל
הענטלעך
הענטשא
הענטשקעס
העניא
העניך
הענין
הענרי
הענריק
העס
העפ
העפט
העפטיגע
העץ
העצמאות
העצן
העצערייען
העק
העקני
העקסאדעצימאלער
העקער
הער
העראלד
הערב
הערבערט
הערה
הערונג
הערות
הערט
הערי
הערין
הערינג
העריסאן
הערליך
הערליכן
הערליכע
הערליכער
הערמאן
הערן
הערנדיק
הערנער
הערסט
הערסטו
הערען
הערץ
הערצא
הערצאג
הערצאגשאפט
הערצל
הערצעגאווינע
הערצער
הערש
הערשא
הערשאפט
הערשט
הערשי
הערשל
הערשלס
הערשלען
הערשמאן
הערשן
הערשעל
הערשעלס
הערשעלע
הערשער
הערשקאוויטש
העשיה
העשיל
העשל
הפ
הפוסקים
הפועל
הפחות
הפטורה
הפטרה
הפלא
הפליטה
הפנים
הפסוק
הפסח
הפסק
הפקר
הפרשיות
הצבי
הצדיק
הצדיקים
הצופה
הצופים
הציבור
הצלה
הצלחה
הצניעות
הצעה
הצעות
הצעיר
הק
הקב
הקבלה
הקברות
הקדוש
הקדושה
הקדושים
הקדמה
הקדמות
הקדש
הקדשים
הקהילה
הקהילות
הקהל
הקובץ
הקודש
הקטן
הקמת
הקפה
הקפות
הקרבנות
הר
הרא
הראיה
הראל
הראשון
הראשונה
הראשונים
הראשי
הרב
הרבה
הרבי
הרבים
הרבני
הרבנים
הרבנית
הרג
הרגעט
הרגען
הרגענען
הרגשים
הרה
הרואה
הרואים
הרובע
הרוגי
הרוח
הרון
הרועים
הרחמים
הרחמן
הרט
הרטע
הרי
הריח
הריין
הרליך
הרמ
הרמב
הרן
הרע
הרען
הרצל
הרצליה
הררי
הרש
הרשב
הרשע
הש
השא
השארת
השבוע
השבועות
השבטים
השבת
השג
השגה
השגות
השגחה
השדה
השדרה
השואבה
השוחטים
השולחן
השומר
השחר
השחרור
השי
השירים
השכינה
השכל
השכלה
השלום
השלישי
השלם
השם
השמאל
השמח
השמים
השמשות
השנה
השני
השערה
השערות
השפ
השפעה
השפעות
השקל
השקפה
השקפות
השרון
השתדלות
השתוקקות
השתלשלות
הת
התאחדות
התבודדות
התבוננות
התבטלות
התבנית
התגלות
התגרות
התוכנה
התוספות
התורה
התחדשות
התחזקות
התחלה
התחתון
התחתונה
התלהבות
התלויות
התלמוד
התמדה
התמונה
התנ
התנגדות
התנהגות
התניא
התעוררות
התפילה
התפלה
התפעלות
התפשטות
התקרבות
התקשרות
התרגשות
התרת
התשובה
הױב
הױז
הױזגעזינט
הױך
הױכן
הױכע
הױף
הױפ
הײ
הײב
הײבט
הײבן
הײך
הײכן
הײל
הײליק
הײליקטום
הײליקן
הײליקע
הײליקער
הײליקײט
הײלן
הײם
הײסט
הײסן
הײשעריק
ו
וא
ואה
ואהבת
ואהרן
ואומר
ואחד
ואין
ואינו
ואל
ואלו
ואם
ואמר
ואנ
ואנחנו
ואני
ואס
ואף
ואק
ואר
וארא
וארן
ואת
ואתה
ואתחנן
וב
ובא
ובין
ובכל
ובכן
ובליק
ובליקא
ובליקירט
ובן
ובני
ובפ
ובפרט
וברוך
וברכה
ובתמימות
וגו
וגלילה
וגם
וגן
וד
ודאי
ודו
ודור
ודם
ודע
ודעת
וה
והבן
והדר
והוא
והוספות
והיא
והיה
והיו
והיינו
והם
והמטיב
והן
והנה
וו
ווא
וואבלאסט
וואג
וואגאנען
וואגן
וואגשאהל
וואגשאל
וואדקע
וואהלין
וואהלינער
וואו
וואוד
וואודל
וואודפארד
וואוהין
וואוט
וואויוואדעשאפט
וואויל
וואוילזיין
וואוין
וואוינארט
וואוינונג
וואוינט
וואוינען
וואול
וואולטעטיגע
וואוליטש
וואולקאן
וואולקאנען
וואונד
וואונדן
וואונדער
וואונדערט
וואונדערליך
וואונדערליכע
וואונדערלעך
וואונדערלעכע
וואונדערן
וואונט
וואונטש
וואונטשן
וואונען
וואונק
וואוסט
וואוסטן
וואוסטע
וואוסטער
וואוקס
וואזנער
וואט
וואטיקאן
וואטס
וואטערלו
וואטפארד
וואיעוואדעשאפט
וואיעוואדעשאפטן
וואך
וואכן
וואכנשריפט
וואכעדיגע
וואל
וואלאווע
וואלאזשין
וואלאזשינער
וואלד
וואלדמאן
וואלווס
וואלוטע
וואלוטעס
וואלונטיר
וואלונטירן
וואלט
וואלטאזש
וואלטן
וואלטער
וואלי
וואלין
וואלן
וואלען
וואלענטורן
וואלעס
וואלף
וואלפגאנג
וואלפיש
וואלפישן
וואלפסאן
וואלקן
וואלקנס
וואלקענעס
וואן
וואנדאל
וואנדאלאזירט
וואנדאליזירט
וואנדאליזם
וואנדאלן
וואנדעל
וואנדער
וואנדערן
וואנט
וואנעט
וואנען
וואס
וואסארא
וואסה
וואסלוי
וואסער
וואסערמאן
וואסערן
וואסערע
וואסערפאל
וואסערפאלן
וואסערשטאף
וואספארא
וואפן
וואצלאוו
וואקאל
וואקאלן
וואקאציע
וואקזאל
וואקזאלן
וואקיום
וואקס
וואקסט
וואקסינאציע
וואקסן
וואקסנדיגע
וואקער
וואר
ווארדן
ווארהייט
ווארום
ווארט
ווארטזאגער
ווארטן
ווארים
ווארימע
ווארימער
ווארלד
ווארן
ווארעם
ווארעמע
ווארעמען
ווארעמער
ווארעמקייט
ווארען
ווארענונג
ווארענט
ווארענען
ווארף
ווארפט
ווארפן
ווארצגאנג
ווארצל
ווארצלען
ווארקא
ווארקע
ווארקער
ווארשא
ווארשיינליך
ווארשע
ווארשעווער
וואש
וואשט
וואשינגטאן
וואשן
וודאי
ווו
וווינונג
וווינט
וווינען
וווסט
ווט
ווי
וויא
וויאזוי
וויב
וויבא
וויבאלד
וויג
וויד
ווידאו
ווידוי
ווידיא
ווידיאו
ווידע
ווידעא
ווידעאס
ווידער
ווידערא
ווידעראום
ווידעראמאל
ווידערשטאנד
ווידערשפ
ווידר
וויזא
וויזועל
וויזיט
וויזיע
וויזלי
וויזן
וויזניץ
וויזניצער
וויזע
וויזעל
וויזשניץ
וויזשניצער
וויטאל
וויטאמין
וויטאמינען
וויטעבסק
וויטש
וויטשער
וויי
ווייב
ווייבל
ווייבס
ווייבער
וויידל
וויידנפעלד
ווייז
ווייזט
ווייזן
ווייזע
ווייזען
ווייזער
ווייט
ווייטאג
ווייטיק
ווייטיקן
ווייטן
ווייטע
ווייטער
ווייטערדיגע
ווייטערדיקע
ווייטערע
ווייטערפירונג
ווייטערפירן
ווייטקייט
ווייך
ווייכווארג
ווייכן
ווייכע
ווייכער
ווייל
וויילז
וויילט
וויילן
וויילס
וויילע
וויילער
וויימאר
וויימארער
וויין
וויינבערג
וויינבערגער
וויינגא
וויינגארטן
וויינט
וויינטרויבן
ווייניג
ווייניגסטנס
ווייניגסטע
ווייניגסטענס
ווייניגער
ווייניק
ווייניקער
וויינעט
וויינען
וויינרייך
וויינשטא
וויינשטאק
ווייס
ווייסבוך
ווייסבלום
ווייסט
ווייסטו
ווייסל
ווייסמאנדל
ווייסן
ווייסע
ווייסען
ווייסער
ווייסרוסלאנד
ווייען
ווייץ
ווייצמאן
ווייקן
וויכוח
וויכוחים
וויכטיג
וויכטיגן
וויכטיגסטע
וויכטיגע
וויכטיגער
וויכטיגקייט
וויכטיק
וויכטיקייט
וויכטיקן
וויכטיקסטע
וויכטיקסטער
וויכטיקע
וויכטיקער
וויכע
וויל
ווילא
ווילאנג
ווילבאר
ווילד
ווילדן
ווילדע
ווילדער
ווילהעלם
ווילט
וויליא
וויליאם
וויליאמס
וויליאמסבורג
וויליאמסבורגער
ווילידזש
וויליזש
ווילן
ווילנא
ווילנדיג
ווילנדיק
ווילנע
ווילנער
ווילסאן
ווילסט
ווילסטו
ווילע
ווילעדזש
ווילען
ווילרייק
ווימבלדאן
ווין
ווינד
ווינדאוס
ווינדאס
ווינדזאר
ווינט
ווינטן
ווינטער
ווינטערס
ווינטשי
ווינטשן
וויניצע
ווינסטאן
ווינסענט
ווינער
ווינץ
ווינציג
ווינציגער
ווינקל
ווינקלען
ווינקלער
וויס
וויסט
וויסטע
וויסן
וויסנדיג
וויסנדיק
וויסנשא
וויסנשאפט
וויסנשאפטלעכע
וויסנשאפטלעכער
וויסנשאפטלער
וויסנשאפטן
וויסע
וויסען
וויסענדיג
וויסענשאפט
וויסקאנסין
וויסקי
וויע
וויעטיש
וויעטישן
וויעטישע
וויעטישער
וויעטן
וויעטנא
וויעטנאם
וויעליטשקא
וויען
וויענער
וויפ
וויפיל
וויפיעל
וויפל
וויץ
וויצן
וויצע
וויק
וויקטא
וויקטאר
וויקטאריע
וויקי
וויקיביבליאטעק
וויקידאטן
וויקיווערטערבוך
וויקיטעקסט
וויקימעדיע
וויקינייעס
וויקיס
וויקיפ
וויקיפידיע
וויקיפעדיע
וויקיפעדיעס
וויקעפעדיע
וויר
ווירדזשיניע
ווירוס
ווירוסן
ווירזשיניע
ווירט
ווירטואלע
ווירטשא
ווירטשאפט
ווירקונג
ווירקט
ווירקליך
ווירקלעך
ווירקלעכקייט
ווירקן
וויש
ווישי
ווישן
ווישניצא
ווישע
ווישעווע
וול
וולא
וולאדימיר
וון
וונא
וונדר
וונט
וונטן
ווניק
וונע
וונען
וונער
ווס
ווסקי
ווסקין
ווע
וועב
וועבארט
וועבזיי
וועבזייט
וועבזייטל
וועבזייטלעך
וועבזײ
וועבלינק
וועבלינקס
וועבלינקען
וועבסייט
וועבער
וועג
וועגאס
וועגווייזער
וועגונג
וועגונגען
וועגט
וועגן
וועגנ
וועגען
וועגענער
וועד
וועדליק
וועהרט
וועזן
וועט
וועטא
וועטיש
וועטישע
וועטישער
וועטן
וועטער
וועטעראן
וועטערס
וועטשערע
וועילס
וועכטער
וועכנטליך
וועכנטליכע
וועכענטליך
וועכענטליכע
וועל
וועלדער
וועלוול
וועלוועל
וועלט
וועלטליכע
וועלטלעכע
וועלטלעכער
וועלטן
וועלטס
וועלי
וועלין
וועלכן
וועלכע
וועלכען
וועלכעס
וועלכער
וועלן
וועלנ
וועלנדיג
וועלנדיק
וועלס
וועלעכע
וועלעכער
וועלען
וועלף
וועלפעיר
וועלשיש
וועם
וועמבלי
וועמבער
וועמען
וועמענ
וועמענס
וועמעס
ווען
ווענ
ווענד
ווענדונג
ווענדט
ווענדן
ווענוס
ווענט
ווענעדיג
ווענעזועלע
ווענען
ווענעציע
וועס
וועסט
וועסטו
וועסטמינסטער
וועסטשעסטער
וועפט
וועק
וועקגיין
וועקגעגא
וועקגעזעצט
וועקגעלא
וועקגעלייגט
וועקגענומען
וועקגעפ
וועקגעפא
וועקגעשטעלט
וועקט
וועקטאר
וועקלייגן
וועקן
וועקסלען
וועקפ
ווער
ווערא
ווערב
ווערבן
ווערבע
ווערד
ווערדיגער
ווערדן
ווערדע
ווערט
ווערטהיימער
ווערטל
ווערטליך
ווערטלעך
ווערטן
ווערטער
ווערטערבוך
ווערטערביכער
ווערטפולע
ווערים
ווערין
ווערמאכט
ווערמאנט
ווערן
ווערנ
ווערנדיג
ווערנט
ווערנער
ווערסיי
ווערסיע
ווערסיעס
ווערעם
ווערען
ווערצבערגער
ווערק
ווערקצייג
ווערשא
וועש
ווקע
וושט
ווײ
וז
וזאת
וזה
וזהו
וח
וחומר
וחות
וחסד
וחסידות
וחשבון
וט
וטא
וטהרה
וטעה
וטער
וי
ויאמר
ויבא
ויגל
ויגש
ויד
וידוי
ויהי
ויואל
ויום
ויז
ויזן
ויחי
ויט
ויי
וייב
וייג
וייז
וייט
וייטער
וייל
ויין
ויינ
וייס
ויל
וילוס
ויליש
וילישן
וילישע
וילישער
וילך
וילן
וים
וימע
וינ
ויס
ויע
ויען
ויער
ויערים
ויעש
ויפ
ויצא
ויקהל
ויקח
ויקינתונים
ויקיפדיה
ויקרא
וירא
ויראה
ויראת
ויש
וישב
וישלח
וישראל
ויתן
וך
וכ
וכדו
וכדומה
וכו
וכי
וכידוע
וכך
וכל
וכן
וכנ
ול
ולא
ולוי
ולט
ולכן
ולל
ולן
ולע
ולער
ולערע
ולקדושה
ום
ומבוטל
ומדינה
ומה
ומוריד
ומטר
ומי
ומל
ומלאה
ומצוות
ומקהלת
ומשיב
ומתן
ון
ונ
ונא
ונאים
ונג
ונגען
ונד
ונדא
ונו
ונסיל
ונעם
ונען
ונפלאות
ונקט
ונקטן
ונקציע
ונקציעס
ונשמע
וס
וסט
וסטע
וסי
וע
ועג
ועד
ועוד
ועט
ועיין
ועל
ועלט
ועלן
וען
ועס
ועק
וער
ועשה
ועשו
ועשרים
ועתה
וף
ופ
וץ
וק
וקים
ור
ורא
וראש
ורבי
ורג
ורה
ורוח
ורט
ורי
ורים
ורן
ורע
ורעמט
ורפ
ורת
ושוב
ושיפ
ושלום
ושלשים
ושם
ושמו
ושמחה
ושמש
ושקע
ות
ותן
ותקנות
ותשובות
ז
זא
זאא
זאאלאגיע
זאב
זאבלאטאוו
זאג
זאגאר
זאגט
זאגין
זאגן
זאגנדיג
זאגסט
זאגען
זאגענדיג
זאגער
זאונינג
זאט
זאך
זאכ
זאכווארט
זאכן
זאכנ
זאכען
זאל
זאלוינים
זאלונים
זאלט
זאלי
זאליס
זאלן
זאלסט
זאלסטו
זאלען
זאלץ
זאלצבורג
זאלצן
זאלשט
זאמביע
זאמד
זאמלונג
זאמלונגען
זאמלט
זאמלן
זאמלען
זאמעלט
זאמען
זאנגען
זאנוויל
זאנע
זאנענפעלד
זאנעס
זאפאסן
זאפארט
זאפט
זאץ
זאצן
זאק
זאקארי
זאקן
זאקס
זאקסן
זארג
זארגן
זארקאווי
זאת
זבולון
זבחים
זגא
זגאל
זגאלן
זה
זהב
זהירות
זהר
זו
זוא
זוג
זוגות
זוה
זוהן
זוהר
זוועהיל
זוועהילער
זוטא
זוי
זויבער
זויגער
זויגערס
זויווי
זוימען
זוינס
זוינע
זויער
זויערשטאף
זויפיל
זוך
זוכה
זוכט
זוכמאשין
זוכן
זוכנדיק
זוכען
זוכעניש
זוכער
זומער
זומערס
זומפ
זון
זונ
זונג
זונגען
זונדל
זונדער
זונדערן
זונדערס
זונדערע
זונה
זונות
זונטאג
זונטיג
זונטיק
זונס
זוסיא
זופ
זושא
זז
זט
זטו
זטע
זי
זיא
זיב
זיבן
זיבנבערגן
זיבעטן
זיבעטע
זיבעטער
זיבען
זיבעציג
זיבעציק
זיבעצן
זיג
זיגט
זיגל
זיגמונד
זיגן
זיגע
זיגער
זידיטשוב
זידיטשובער
זידיטשויב
זידיטשויווער
זידלונג
זידלונגען
זיהן
זיו
זיווג
זיטא
זיטן
זיי
זייגן
זייגער
זייגערווייז
זייגערס
זיידא
זיידל
זיידן
זיידנס
זיידע
זיידען
זיידענע
זיידעס
זייט
זייטיגע
זייטיקע
זייטיקער
זייטל
זייטלעך
זייטן
זייטען
זייל
זיילן
זיין
זייניקע
זיינס
זיינע
זיינעם
זיינען
זיינער
זייע
זייען
זייענדיג
זייענדיק
זייער
זייערן
זייערס
זייערסן
זייערע
זייערער
זייף
זיך
זיכ
זיכט
זיכן
זיכער
זיכערהייט
זיכערהייטס
זיכערן
זיכערע
זיכערער
זיכערקי
זיכערקייט
זיכערקײט
זיכרון
זיל
זילאנד
זילב
זילבורג
זילבער
זילבערמאן
זילבערן
זילבערנע
זילבערשטיין
זילבערשלאג
זימבאבווע
זימבערגן
זין
זינג
זינגט
זינגן
זינגען
זינגער
זינגערין
זינגערס
זינד
זינדא
זינדיגן
זינדיגע
זינדיק
זינדיקן
זינדיקע
זינדיקער
זינט
זינען
זינקען
זיס
זיסווארג
זיסיע
זיסל
זיסן
זיסע
זיסער
זיסקייט
זיע
זיפ
זיץ
זיצונג
זיצונגען
זיצט
זיציע
זיציעס
זיצן
זיצנדיק
זיצנדיקע
זיצע
זיצען
זיצער
זיק
זיקן
זיקנ
זיקע
זיקער
זיר
זירא
זירט
זישע
זית
זכ
זכאי
זכור
זכות
זכותים
זכי
זכיה
זכר
זכרון
זכרונות
זכרי
זכריה
זכרים
זל
זלאטיפאלי
זלאטשאוו
זלאטשאווער
זלמן
זמירות
זמן
זמני
זמנים
זמר
זן
זנ
זנדיק
זנות
זע
זעבאר
זעה
זעהט
זעהן
זעהנדיג
זעהסט
זעהען
זעהר
זעונג
זעט
זעטן
זעיר
זעך
זעכציג
זעכציק
זעכצן
זעכצנטער
זעל
זעלביגן
זעלביגע
זעלביקן
זעלביקער
זעלבן
זעלבסט
זעלבסטמארד
זעלבסטמערדער
זעלבסטשטענדיג
זעלבסטשטענדיגע
זעלבסטשטענדיגקייט
זעלבסטשטענדיק
זעלבסטשטענדיקייט
זעלבע
זעלבער
זעלבשטענדיג
זעלבשטענדיגע
זעלבשטענדיגקייט
זעלבשטענדיק
זעלבשטענדיקייט
זעלבשטענדיקע
זעלדא
זעלדע
זעלטן
זעלטענע
זעלטענער
זעליג
זעליק
זעלכע
זעלנער
זעמבא
זען
זענ
זענט
זענטא
זענן
זענע
זענען
זענענ
זעס
זעסט
זעסטו
זעען
זעענדיג
זעענדיק
זעער
זעץ
זעצט
זעצן
זעק
זעקל
זעקלעך
זעקס
זעקסטאגיקע
זעקסטאגיקער
זעקסטל
זעקסטן
זעקסטע
זעקסטער
זעקעלע
זער
זערא
זערסי
זצ
זצוק
זק
זקן
זקני
זקנים
זר
זרה
זרוע
זרות
זרח
זרחיה
זרע
זרעא
זרעים
זרעך
זש
זשא
זשאב
זשאבאטינסקי
זשאבנא
זשאו
זשאואיש
זשאזעף
זשאן
זשאנסאן
זשאנער
זשאנערא
זשאנערס
זשאסעף
זשאק
זשארזש
זשאריק
זשואיש
זשוליאני
זשומייעל
זשוס
זשוקעס
זשורי
זשורנא
זשורנאל
זשורנאליזם
זשורנאליסט
זשורנאליסטן
זשורנאלן
זשי
זשיד
זשיטאמיר
זשיטאמירער
זשיימס
זשים
זשימי
זשינקאוו
זשיר
זשירן
זשמיגראד
זשע
זשעי
זשעקסאן
זשערא
זשערוסאלעם
זשערסי
זױ
זײ
זײט
זײן
זײנע
זײנען
זײער
זײערע
ח
חא
חאדאראוו
חאלאב
חב
חבד
חבורה
חבורות
חבלי
חבקוק
חבר
חברה
חברון
חברונער
חברותא
חברי
חברים
חברת
חג
חגא
חגאות
חגי
חגיגה
חד
חדושי
חדר
חדרה
חדרים
חדש
חדשה
חדשות
חדשים
חה
חו
חוב
חובבי
חובה
חובות
חובת
חודש
חוה
חווה
חוות
חוזה
חוזק
חוזר
חוט
חול
חולה
חולון
חולים
חולין
חולם
חומה
חומר
חומרות
חומש
חומשי
חומת
חוסט
חוף
חופ
חופה
חוץ
חוצפה
חוק
חוקי
חוקים
חוקר
חוקרים
חוקת
חור
חורב
חורבה
חורבות
חורבן
חורבנות
חוש
חושד
חושים
חושך
חושן
חושש
חות
חותם
חז
חזון
חזיר
חזירים
חזירל
חזן
חזנות
חזנים
חזנישע
חזק
חזקה
חזקיה
חזקיהו
חזר
חזרה
חזרט
חזרת
חטא
חטאים
חטאינו
חטאת
חי
חיא
חיבור
חיבורים
חיבת
חיד
חידוש
חידושי
חידושים
חידקל
חיה
חיוב
חיוורא
חיונה
חיות
חיזבאלא
חיזוק
חיי
חייא
חייב
חייו
חיים
חייקיל
חייקל
חיל
חילול
חילוק
חילוקי
חילוקים
חינוך
חיפ
חיפה
חיצוני
חיצונים
חית
חכינאי
חכם
חכמה
חכמות
חכמי
חכמים
חכמת
חל
חלב
חלה
חלו
חלום
חלומ
חלומות
חלות
חלילה
חליצה
חלל
חלף
חלפתא
חלק
חלקה
חלקי
חלקים
חלקת
חלש
חלשות
חם
חמ
חמא
חמד
חמדת
חמה
חמור
חמירא
חמץ
חמש
חמשה
חן
חנ
חנה
חנוך
חנוכה
חנוכת
חנינא
חנם
חנן
חנניא
חנניה
חס
חסד
חסדא
חסדי
חסדים
חסיד
חסידות
חסידי
חסידים
חסידיש
חסידישן
חסידישע
חסידישער
חסר
חסרון
חסרונות
חפץ
חפצים
חצות
חצי
חצירות
חצר
חק
חקירה
חקירות
חקל
חקרן
חקת
חרב
חרבנות
חרד
חרדי
חרדים
חרדיש
חרדישן
חרדישע
חרדישען
חרדישער
חרוב
חרוסת
חרטה
חריף
חרם
חרמון
חרן
חרפ
חשב
חשבון
חשבונות
חשד
חשוב
חשובן
חשובסטע
חשובע
חשובער
חשוון
חשון
חשיבות
חשכות
חשמונאים
חשק
חשש
חת
חתונה
חתונות
חתימה
חתם
חתמ
חתן
חתנים
ט
טא
טאב
טאבאק
טאבעלע
טאג
טאגא
טאגבוך
טאגן
טאגס
טאהש
טאהשער
טאוב
טאוול
טאון
טאונס
טאטאל
טאטאלע
טאטן
טאטנ
טאטנהאם
טאטנס
טאטע
טאטען
טאטעס
טאכטער
טאל
טאלאנט
טאלאנטן
טאליבאן
טאלן
טאלנא
טאלנער
טאלער
טאלק
טאם
טאמאטעס
טאמאס
טאמאשאוו
טאמי
טאמיל
טאמעס
טאמער
טאמפסאן
טאן
טאנגא
טאנזאניע
טאני
טאנען
טאנץ
טאנצט
טאנצן
טאנק
טאנקן
טאנקען
טאסמאן
טאער
טאפ
טאפאגראפיע
טאפאלאגיע
טאפלונג
טאפלט
טאפלען
טאץ
טאקטיק
טאקטיקן
טאקיא
טאקע
טאר
טאראנטא
טארן
טארנא
טארנאפאל
טארנאפאלער
טארניגראד
טארנע
טאש
טאשן
טב
טבא
טבול
טביה
טבילה
טבע
טבריה
טבת
טה
טהא
טהו
טהור
טהורה
טהרה
טהרות
טהרת
טו
טוא
טואין
טוב
טובה
טובות
טובי
טוביה
טובים
טובל
טובערקולא
טובערקולאז
טוה
טוהט
טוהן
טוהען
טווא
טוויטער
טווערסקי
טוט
טוי
טויב
טויבא
טויבן
טויבע
טויבער
טויג
טויגן
טויזנט
טויזנטער
טויזענט
טויזענטע
טויזענטער
טויט
טויטן
טויטע
טויטער
טויע
טויער
טויערן
טויפן
טויש
טוישט
טוישן
טוך
טול
טולוז
טולן
טולס
טומאה
טומאת
טומל
טון
טונג
טונגען
טוניסיע
טונעיאדעווקע
טונעל
טונעלן
טונקל
טונקעל
טונקעלע
טונקעלער
טוס
טוסט
טוסטו
טועה
טועהן
טועם
טוען
טוער
טוערס
טור
טורא
טורבין
טוריזם
טורים
טוריסט
טוריסטן
טוריסק
טורמע
טורמעס
טורן
טורעם
טורעמס
טורעמעס
טורקמעניסטאן
טז
טזעליק
טזעליקײט
טי
טיא
טיבעט
טיבער
טיגער
טיהר
טיוב
טיובכחהצחבהצבהתצך
טיודאר
טיוו
טיוון
טיווע
טיווער
טיטאניק
טיטול
טיטוס
טיטל
טיטלען
טיי
טייג
טייוואן
טייוול
טייט
טייטל
טייטלבוים
טייטן
טייטש
טייטשט
טייטשן
טייך
טייכן
טייל
טיילאנד
טיילאר
טיילגענומען
טיילווייז
טיילווייזע
טיילונג
טיילונגען
טיילט
טייליקט
טיילכלעך
טיילמא
טיילמאל
טיילן
טיילער
טיים
טיימס
טיין
טייע
טייער
טייערן
טייערסטע
טייערע
טייערער
טייף
טייפ
טייפן
טיכא
טיכל
טילא
טים
טימאר
טין
טינט
טיסא
טיסטיק
טיע
טיעם
טיעף
טיעפע
טיף
טיפ
טיפישע
טיפישער
טיפן
טיפסטן
טיפסטע
טיפסטער
טיפע
טיפעניש
טיפענישן
טיפער
טיפקייט
טיצן
טיק
טיקט
טיקן
טיקע
טיקעט
טיקעטס
טיקער
טיר
טירא
טירה
טירזײ
טירט
טירית
טירלעך
טירלעכע
טירן
טירנויער
טיש
טישל
טישן
טישע
טישער
טל
טלא
טליכע
טלית
טלעך
טלעכע
טלעכער
טלײ
טמא
טן
טנ
טנס
טנפא
טס
טספא
טע
טעא
טעאטער
טעאטערס
טעאלאגיע
טעאריע
טעאריעס
טעארעטישע
טעארעם
טעג
טעגא
טעגליך
טעגליכן
טעגליכע
טעגלעך
טעגלעכן
טעגלעכע
טעגס
טעד
טעדי
טעהראן
טעוויע
טעוועט
טעווען
טעות
טעותים
טעט
טעטיג
טעטיק
טעטיקי
טעטיקייט
טעטיקייטן
טעטן
טעטש
טעיפ
טעיפס
טעכטער
טעכנא
טעכנאלאגיע
טעכנאלאגיעס
טעכנאלאגישע
טעכניאן
טעכניק
טעכניקן
טעכניקער
טעכניש
טעכנישע
טעכנעלאגיע
טעכץ
טעל
טעלז
טעלזער
טעלע
טעלעגראם
טעלעגראף
טעלעוויזיע
טעלעוויזשען
טעלעסקאפ
טעלעפ
טעלעפאון
טעלעפאן
טעלעפאנען
טעלעקאמוניקאציע
טעלער
טעם
טעמ
טעמא
טעמבער
טעמז
טעמזלינק
טעמט
טעמי
טעמים
טעמע
טעמען
טעמעס
טעמפ
טעמפל
טעמפעראטור
טעמפעראטורן
טעמפרעאטור
טען
טענאר
טענדלער
טענדענצן
טענה
טענהט
טענהן
טענות
טעניו
טעניס
טענע
טענענבוים
טענעסי
טענער
טענעריפע
טענץ
טענצער
טעס
טעסט
טעסטא
טעסטן
טעסלא
טעפ
טעק
טעקס
טעקסאס
טעקסט
טעקסטיל
טעקסטן
טעקסי
טעקסעס
טעקע
טעקעס
טער
טערא
טעראר
טעראריזם
טעראריסט
טעראריסטישע
טעראריסטן
טערהייזער
טערוכע
טערט
טערי
טעריא
טעריטא
טעריטאריע
טעריטאריעס
טערמאדינאמיק
טערמין
טערמינאל
טערמינאלן
טערמינען
טערן
טערניש
טערס
טערפ
טערקיי
טערקיש
טערקישע
טערקישער
טערקן
טפ
טפא
טפחים
טקווא
טקע
טקעס
טקײ
טר
טרא
טראגט
טראגישע
טראגן
טראגעדיע
טראגען
טראדאו
טראדיציאנאל
טראדיציאנאלע
טראדיציאנעל
טראדיציאנעלע
טראדיציאנעלער
טראדיציע
טראדיציעס
טראוולקארט
טראון
טראכט
טראכטן
טראל
טראם
טראמוויי
טראמלינק
טראמען
טראמפ
טראן
טראני
טראנס
טראנסמיטירט
טראנסמיסיע
טראנספארט
טראנספארטאציע
טראנספערירן
טראסט
טראסטי
טראף
טראפ
טראפיק
טראפישע
טראפן
טראץ
טראצדעם
טראצקי
טראק
טראקס
טרוג
טרויבן
טרוים
טרויער
טרויעריג
טרויעריגע
טרויעריק
טרומאן
טרומייט
טרונק
טרונקען
טרופ
טרופן
טרופע
טרופעס
טרוקן
טרוקעניש
טרוקענע
טרוקענער
טרי
טריא
טריבונע
טריגאנאמעטריע
טריגאנאמעטרישע
טריט
טריטי
טריי
טרייב
טרייבט
טרייבן
טרייסט
טרייסטן
טרייע
טריליאן
טרינידאד
טרינק
טרינקוואסער
טרינקט
טרינקן
טרינקע
טרינקען
טרינקער
טריסק
טריסקער
טריפ
טריפאלי
טריפה
טריק
טריקעניש
טרע
טרעבלינקע
טרעגער
טרעגערס
טרעט
טרעטן
טרעיד
טרענירונג
טרענירט
טרענירן
טרעף
טרעפ
טרעפט
טרעפן
טרעפען
טרעקס
טרער
טרערן
טרפון
טרױער
טרײ
טרײסטן
טש
טשא
טשאד
טשאווין
טשאטאם
טשאלנט
טשאפלין
טשארטער
טשארטקאוו
טשארטקאווער
טשארינג
טשארלי
טשארלס
טשחויוו
טשט
טשטא
טשי
טשיאנג
טשיילע
טשיינע
טשילטערן
טשילע
טשינג
טשיף
טשיפ
טשישן
טשישע
טשישער
טשל
טשלא
טשן
טשע
טשעבין
טשעבינער
טשעביריאק
טשעט
טשעטשניע
טשעין
טשעכאסלאוואקיי
טשעכיי
טשעכיש
טשעכישע
טשעכישער
טשעלא
טשעלסי
טשעמבערליין
טשען
טשעסטער
טשעפ
טשעפטער
טשעפעט
טשעפען
טשעפענען
טשעק
טשעקס
טשער
טשערטשיל
טשערנאביל
טשערנאבילער
טשערנאבל
טשערנאבלער
טשערנאוויץ
טשערנאוויצער
טשערנין
טשערעדע
טשערעפאכעס
טשערקאס
טשקא
טשריפ
טװא
טװעגן
טױב
טױזנט
טױט
טױטן
טױטע
טױער
טױערן
טײ
טײטן
טײל
י
יא
יאג
יאגדעס
יאגט
יאגן
יאדער
יאהאן
יאהאנעס
יאהאנעסבורג
יאהו
יאהר
יאהרן
יאהרען
יאו
יאוואראוו
יאווארניקער
יאוש
יאות
יאזעף
יאים
יאיר
יאך
יאכל
יאמ
יאמר
יאן
יאנאוואר
יאנג
יאנואר
יאנוש
יאנען
יאס
יאסי
יאסיר
יאסלא
יאסעלע
יאפאן
יאפאניש
יאפאנישע
יאפאנישער
יאפאנעזישער
יאפאנעזער
יאקאב
יאקאבאוויטש
יאר
יארדאניע
יארהונדערט
יארהונדערטער
יאריגע
יארן
יארצייט
יארצייטן
יארצענדלינג
יארק
יארקער
יארקשיר
יאשיהו
יאשע
יב
יבא
יבה
יבו
יבוא
יביט
יבמות
יבנה
יברכך
יבשה
יג
יגאל
יגו
יגל
יגלט
יגן
יגע
יד
ידו
ידוע
ידות
ידי
ידיד
ידידיה
ידידים
ידיו
ידיים
ידים
ידיעה
ידיעות
ידן
ידע
ידען
יה
יהא
יהדות
יהו
יהואש
יהודא
יהודה
יהודי
יהודים
יהודית
יהוה
יהויקים
יהונתן
יהוסף
יהושע
יהי
יהיה
יהיו
יו
יואב
יואל
יואלי
יואן
יובילי
יובל
יוגאסלאוויע
יוגנט
יוגנטליכע
יוד
יודא
יודיש
יודישן
יודישע
יודישער
יודישקייט
יודל
יודן
יודנטום
יודנראט
יודע
יודען
יוה
יוו
יוונים
יוחאי
יוחנן
יוחסין
יוטא
יוטוב
יוטיוב
יוטער
יויך
יוכבד
יולי
יוליא
יוליאנישן
יוליוס
יום
יומ
יומא
יון
יונג
יונגווארג
יונגל
יונגלעך
יונגן
יונגסטע
יונגסטער
יונגע
יונגעל
יונגעלייט
יונגען
יונגער
יונגערהייט
יונגערמא
יונגערמאן
יונגערע
יונגערער
יונגפ
יונגרייז
יונה
יונהן
יוני
יוניא
יוניאן
יוניאנס
יונייטעד
יוניקאד
יונתן
יוס
יוסטאן
יוסטיץ
יוסי
יוסין
יוסיפון
יוסל
יוסף
יועץ
יופיטער
יוצא
יוצר
יוקיל
יורא
יורד
יורה
יורי
יוריסדיקציע
יוריסט
יורם
יורק
יורש
יורשים
יושב
יושע
יושר
יותר
יז
יזו
יזט
יזטו
יזכור
יזרעאל
יח
יחד
יחו
יחוד
יחודא
יחודים
יחוס
יחזקאל
יחיאל
יחיד
יחידה
יחידים
יט
יטא
יטאל
יטב
יטל
יטלעך
יטן
יטער
יטערן
יטערפ
יי
ייב
ייבי
ייג
ייגע
ייד
יידיש
יידישגען
יידישיסט
יידישיסטן
יידישן
יידישע
יידישער
יידישקייט
יידל
יידן
יידנטום
יידע
יידענע
ייוו
ייווא
ייז
ייזט
ייזן
ייחוס
ייט
ייטב
ייטן
ייטע
ייך
ייכ
ייל
יים
יימ
יין
יינ
יינא
יינגל
יינגלעך
יינגער
יינגערע
יינגערער
יינו
ייניקט
ייס
ייע
ייען
ייער
ייר
ייש
יישוב
יישובים
יישר
יך
יכ
יכו
יכול
יכולים
יכל
יל
ילא
ילד
ילדים
ילה
ילו
ילט
ילין
יליפ
ילך
ילם
ילמען
ילן
ילנדיק
ילער
ילקוט
ים
ימ
ימו
ימות
ימי
ימיו
ימים
ימין
ימען
ימפ
ין
ינ
ינא
ינאי
ינג
ינגער
ינו
ינוואר
ינוקא
ינט
יניא
ינע
ינען
ינער
ינף
ינפ
ינצטער
ינצטערניש
יס
יסה
יסוד
יסודות
יסודותדיקע
יסודי
יסורים
יסט
יסטו
יסטישע
יסל
יסע
יע
יעב
יעגער
יעדן
יעדע
יעדעם
יעדען
יעדעס
יעדער
יעדערן
יעדערס
יעדערער
יעו
יעווגעני
יעטװעדער
יעל
יעלה
יעלון
יעלצין
יעמא
יען
יענטא
יענס
יענע
יענעם
יענעמ
יענעמס
יענער
יענץ
יענקי
יענקל
יענקלי
יענקעלע
יעס
יעסע
יעצט
יעצטיגע
יעצטיגער
יעקב
יעקבן
יעקבס
יעקבסאן
יעקט
יעקלראציגער
יער
יעראסלאוו
יעריג
יעריגן
יעריגע
יעריגער
יערליך
יערליכן
יערליכע
יערן
יעשה
יף
יפ
יפה
יפו
יפת
יץ
יצ
יצא
יצה
יצו
יצחק
יצחקן
יציאת
יציעלע
יציר
יצירה
יצירט
יצל
יצן
יצר
יק
יקא
יקו
יקום
יקותיאל
יקע
יקעס
יקער
יקר
יר
ירא
יראה
יראו
יראים
יראת
ירבעם
ירד
ירדן
ירו
ירוחם
ירונג
ירוש
ירושאלמער
ירושה
ירושלים
ירושלימער
ירושלמי
ירחם
ירחמיאל
ירט
ירטן
ירטע
יריא
יריד
ירידה
ירידות
יריחו
ירמי
ירמיה
ירמיהו
ירמע
ירן
ירער
ירערס
ירקות
ירש
ירשט
ירשטן
ירשענען
יש
ישא
ישו
ישוב
ישובים
ישועה
ישועות
ישורון
ישות
ישט
ישי
ישיב
ישיבה
ישיבות
ישיבת
ישיר
ישכר
ישמח
ישמעאל
ישן
ישע
ישעי
ישעיה
ישעיהו
ישעילע
ישער
ישץ
ישר
ישרא
ישראל
ישראלדיגע
ישראלדיקן
ישראלדיקע
ישראלדיקער
ישראלי
ישראלים
ישראלישע
ישראלישער
ישראלס
ישרה
ישרים
יששכר
ישתבח
ית
יתברך
יתגדל
יתד
יתו
יתום
יתומים
יתרו
יתרון
ך
כ
כא
כאאס
כאטש
כאטשיג
כאטשע
כאילו
כאליף
כאליפאט
כאמאס
כאן
כאפ
כאפט
כאפן
כאר
כאראקטער
כאראקטערן
כארירי
כארקאוו
כאשר
כב
כבד
כבוד
כבודו
כביכול
כביש
כבר
כג
כגון
כגעגא
כגעיא
כד
כדאי
כדורי
כדי
כדע
כדעם
כה
כהודאה
כהונה
כהיום
כהלכה
כהן
כהנא
כהנים
כהנעמאן
כו
כוהן
כווא
כוואליע
כוואליעס
כוונה
כוונות
כוח
כוחות
כוכב
כוכבא
כוכבי
כולה
כולו
כולל
כוללים
כולם
כולנו
כונג
כוס
כוסות
כוסיין
כוסעין
כופר
כופרים
כור
כורש
כוש
כות
כותל
כותרת
כז
כזה
כזית
כח
כחות
כט
כטא
כטונג
כטונגען
כטיגע
כטיגקייט
כטיק
כטיקן
כטיקע
כטיקער
כטל
כטן
כטס
כטע
כטער
כטערל
כטערס
כי
כיא
כיבוד
כידוע
כיוון
כיזבאלא
כיזבאללא
כיכר
כים
כינוס
כינע
כינעזיש
כינעזישע
כינעזישער
כינעזער
כיפ
כיפור
כיצד
כיקע
כיקער
כירורג
כירורגיע
כישוף
כיתה
כיתות
כיתים
כך
ככל
ככר
כל
כלאים
כלאר
כלב
כלה
כלום
כלומר
כלומרשט
כלי
כלים
כלל
כללי
כללים
כללית
כלערליי
כלפי
כמא
כמה
כמו
כמובן
כמוך
כמות
כמים
כמעט
כמעלניצקי
כמעלניק
כן
כנ
כנגד
כנסיה
כנסת
כנען
כנעני
כנענים
כנפי
כנרת
כס
כסא
כסדר
כסדרן
כסט
כסלו
כסליו
כסף
כע
כעזבאלא
כעמיע
כעמיקאל
כעמיקאלן
כעמיקאלע
כעמיקער
כעמישן
כעמישע
כעמישער
כען
כענטשין
כענע
כענער
כעס
כער
כף
כפ
כפא
כפור
כפי
כפירה
כפר
כפרה
כפרות
כפתור
כץ
כציק
כקייט
כר
כרא
כראם
כרושטשעוו
כריין
כריסטיאן
כריתות
כרך
כרכים
כרם
כרמיאל
כרמל
כרמלית
כרת
כש
כשם
כשר
כשרונות
כשרות
כשרע
כת
כתב
כתבה
כתבי
כתבים
כתבתי
כתוב
כתובות
כתובים
כתות
כתיב
כתיבת
כתר
כײ
ל
לא
לאאס
לאבאראטאריע
לאבין
לאבראדאר
לאברהם
לאגא
לאגיק
לאגע
לאגער
לאגערן
לאדונג
לאדזש
לאדזשער
לאדי
לאדין
לאדינא
לאדם
לאדן
לאדען
לאה
לאהן
לאו
לאווי
לאומי
לאוער
לאור
לאז
לאזונגען
לאזט
לאזן
לאזען
לאזער
לאזעראוו
לאזשבאן
לאחים
לאחר
לאט
לאטיין
לאטייניש
לאטיינישן
לאטיינישע
לאטיינישער
לאטעריע
לאטעריעס
לאיעוו
לאך
לאכול
לאכט
לאכן
לאל
לאלתר
לאם
לאמיר
לאמפ
לאמר
לאן
לאנג
לאנגזאם
לאנגיעריגער
לאנגן
לאנגע
לאנגען
לאנגער
לאנגערמאן
לאנד
לאנדא
לאנדאן
לאנדאנער
לאנדווירטשאפט
לאנדונג
לאנדן
לאנדשאפט
לאנטש
לאניאדא
לאנצהוט
לאנצהוטער
לאנקא
לאס
לאסט
לאסטאויטאס
לאפאש
לאפיאן
לאץ
לאק
לאקאל
לאקאלן
לאקאלע
לאקאלער
לאקאמאטיוו
לאקאמאטיוון
לאקאציע
לארד
לארדן
לארענס
לארץ
לב
לבא
לבב
לבבך
לבדו
לבו
לבוא
לבוש
לבושים
לבט
לבטלה
לבטן
לבי
לבישת
לבית
לבן
לבנה
לבנון
לבנות
לבני
לבע
לבער
לבערט
לברכה
לג
לגא
לגאולה
לגבי
לגוי
לגט
לגלות
לגמרי
לגן
לגע
לגעמיין
לגעמיינע
לגעמיינער
לגערט
לד
לדא
לדבר
לדוגמא
לדוגמה
לדוד
לדור
לדורות
לדז
לדיק
לדיקע
לדיקער
לדן
לדע
לדען
לדענע
לדענער
לדעס
לדעת
לדרך
לדרע
לה
להבדיל
להדליק
להוסיף
להוראה
להוריד
להט
להיות
להיפ
להכעיס
להלכה
להם
להניח
להשתמש
לו
לואי
לואיזיאנא
לואיס
לואישעם
לובאוויטשער
לובלין
לובלינער
לוג
לוד
לודוויג
לודמיר
לווא
לווי
לוויה
לוויות
לוזי
לוזין
לוזיס
לוח
לוחות
לוחם
לוט
לוטאן
לוטע
לוטער
לוי
לויב
לויבט
לויבן
לויד
לויה
לויז
לויט
לויטן
לויטעט
לויטער
לויטערן
לויים
לויכטן
לוין
לוינט
לוינען
לויער
לויערס
לויף
לויפ
לויפט
לויפן
לויפער
לולב
לום
לומדות
לומדים
לומען
לומר
לומרשט
לונג
לונגן
לונגען
לונד
לונדון
לוס
לוסט
לוסטיג
לוסטיק
לועזי
לופ
לופט
לופטוואפע
לופטליניע
לופטליניעס
לופטמאשין
לופטמאשינען
לופטן
לופטפלאט
לופטפעלד
לופטפעלדער
לופטקילער
לוצים
לוציע
לוצלונג
לוצלים
לוצלימ
לוצלינג
לוצערן
לוצק
לוצקער
לוקסוס
לוקסעמבורג
לוריא
לז
לזא
לזה
לזכר
לח
לחבירו
לחברו
לחיים
לחכמי
לחלוטין
לחם
לחן
לחצו
לחקר
לט
לטא
לטוב
לטובה
לטובת
לטונג
לטן
לטנדיק
לטס
לטסט
לטע
לטענע
לטענעם
לטער
לטערן
לטערס
לי
ליא
ליאדי
ליאדע
ליאון
ליאלקע
ליאן
ליב
ליבא
ליבהא
ליבהאבער
ליבוש
ליבט
ליבי
ליביע
ליבן
ליבע
ליבער
ליבעראל
ליבעראליזם
ליבעראלן
ליבעראלע
ליבעראלער
ליבערטי
ליבעריע
ליבערמאן
ליבערשט
ליבשא
ליבשאפט
ליג
ליגט
ליגל
ליגלען
ליגן
ליגנדיק
ליגנט
ליגנער
ליגע
ליגען
ליגענט
ליד
לידא
לידה
לידז
לידי
לידער
ליה
ליהודים
ליובא
ליובאוויטש
ליובאוויטשער
ליווארנא
ליווינגסטאן
ליווערפול
ליום
ליז
ליזא
ליזירט
ליזם
ליזשענסק
ליחצו
ליט
ליטא
ליטאני
ליטוואק
ליטוואקעס
ליטוויש
ליטווישן
ליטווישע
ליטווישער
ליטיק
ליטיקער
ליטיש
ליטישע
ליטישער
ליטע
ליטעט
ליטער
ליטערא
ליטעראטור
ליטערארישע
ליטפ
ליטװא
ליי
לייב
לייבאוויץ
לייבאר
לייבוש
לייבי
לייביש
לייבל
לייבן
לייבניץ
לייבעלע
לייבער
לייג
לייגט
לייגן
לייגען
לייד
ליידט
ליידיג
ליידיגן
ליידיגע
ליידיק
ליידיקונג
ליידיקט
ליידיקן
ליידיקע
ליידן
ליידע
ליידען
ליידער
לייוו
לייזונג
לייזן
לייזער
לייט
לייטן
לייטנער
לייטע
לייטען
לייטער
לייכט
לייכטן
לייכטע
לייכטער
ליים
ליין
ליינט
ליינען
ליינער
ליינערס
לייסענס
לייען
לייענט
לייענען
לייענער
לייף
לייפ
לייפער
לייפציג
לייצע
לייצעס
לייק
לייקוואד
לייקוואוד
לייקנט
לייקענט
לייקענען
לייש
ליך
ליכוד
ליכט
ליכטיג
ליכטיגע
ליכטיגקייט
ליכטיק
ליכטיקייט
ליכטיקע
ליכטל
ליכטנשטיין
ליכטער
ליל
לילא
לילה
לילע
לים
לימא
לימאנאוו
לימבאו
לימוד
לימודי
לימודים
לימעניק
לימענע
לין
לינא
לינג
לינגוויסט
לינגוויסטיק
לינגוויסטן
לינגרא
לינדז
לינדע
לינדערן
לינוקס
לינז
ליניע
ליניעס
לינס
לינסק
לינסקער
לינע
לינען
לינער
לינץ
לינק
לינקאלן
לינקן
לינקס
לינקע
לינקען
לינקער
ליס
ליסא
ליסבאן
ליסט
ליסטא
ליסטישע
ליסטישער
ליסטן
ליסטע
ליסטעס
ליע
ליעב
ליעדער
ליעזש
ליען
ליעניש
ליעס
ליעקב
ליער
ליפ
ליפא
ליפאלד
ליפט
ליפטן
ליפמאן
ליפן
ליפערן
ליפשיץ
ליציא
ליציי
ליציע
ליצמאן
ליצנות
ליצענץ
ליק
ליקו
ליקווידא
ליקווידירט
ליקווידירן
ליקוט
ליקוטי
ליקוטים
ליקוי
ליקן
ליקע
ליקעס
ליקער
ליר
לירט
לירטע
לירן
ליש
לישב
לישע
לישער
לישראל
ליתן
לך
לכ
לכא
לכאורה
לכבוד
לכבודו
לכה
לכו
לכוארה
לכל
לכם
לכן
לכע
לכת
לכתוב
לכתחילה
לל
ללא
ללים
ללמוד
לם
למא
למד
למדן
למדנים
למה
למטה
למיד
למידי
למידים
למך
למלך
למנה
למנצח
למספרם
למע
למעלא
למעלה
למען
למעשה
למצוא
למקום
למשה
למשל
לן
לנ
לנגדי
לנדא
לנו
לניק
לניקי
לנער
לנפא
לנפשך
לס
לסוף
לסט
לסטו
לע
לעא
לעאן
לעאנארדא
לעאנע
לעאפאלד
לעב
לעבא
לעבאוויטש
לעבאנעזער
לעבוד
לעבט
לעבין
לעבן
לעבנ
לעבנס
לעבנסגעשיכטע
לעבנסשטייגער
לעבעדיג
לעבעדיגן
לעבעדיגע
לעבעדיגער
לעבעדיק
לעבעדיקן
לעבעדיקע
לעבעדיקער
לעבען
לעבענאן
לעבענס
לעבענסגעשיכטע
לעבער
לעג
לעגא
לעגאל
לעגאלע
לעגאלער
לעגט
לעגיסלאטור
לעגן
לעגענדע
לעגענדעס
לעד
לעדער
לעדערנע
לעהבן
לעוו
לעווא
לעווי
לעווין
לעולם
לעומר
לעזונג
לעזן
לעזער
לעט
לעטא
לעטיש
לעטישע
לעטלאנד
לעיבאר
לעיני
לעיק
לעיקוואד
לעיקוואוד
לעיקס
לעך
לעכט
לעכטיגקייט
לעכער
לעל
לעלאוו
לעלאווער
לעם
לעמ
לעמא
לעמבערג
לעמבערגער
לעמל
לעמען
לעמענס
לעמער
לעמפ
לען
לענא
לענג
לענגאויס
לענגסטע
לענגסטער
לענגער
לענגערן
לענגערע
לענגערער
לענד
לענדא
לענדן
לענדער
לענט
לענטשער
לעני
לענין
לענינגרא
לעניני
לענע
לענער
לעס
לעסאטא
לעסטינע
לעסטינער
לעסטער
לעפ
לעפל
לעפעל
לעפקאוויטש
לעצט
לעצטיגע
לעצטיקע
לעצטן
לעצטנס
לעצטע
לעצטענס
לעצטער
לעצטערע
לעצער
לעק
לעקט
לעקטאר
לעקטן
לעקטער
לעקן
לעקס
לעקסא
לעקסיקא
לעקסיקאן
לעקציע
לעקציעס
לער
לערי
לעריע
לערך
לערליי
לערלײ
לערן
לערנונגען
לערנט
לערנען
לערנער
לערע
לערענט
לערענן
לערער
לערערין
לערערס
לערײ
לעשות
לעשט
לעשן
לעשער
לעת
לעתיד
לף
לפ
לפא
לפחות
לפי
לפן
לפני
לפניו
לפניך
לפנים
לפעלים
לץ
לצדינג
לצדיק
לצורך
לציון
לצייט
לצן
לצע
לק
לקא
לקבורה
לקבל
לקוטי
לקולא
לקח
לקחת
לקט
לקין
לקיש
לקלא
לקן
לקנס
לקס
לקע
לקען
לקער
לקראת
לקרוא
לראות
לראשך
לרעך
לרשעים
לש
לשאול
לשבת
לשה
לשון
לשונות
לשלום
לשם
לשמה
לשמים
לשע
לשער
לשקײט
לתודה
לתורה
לתפילה
לתשובה
לתת
לױב
לױבט
לױבן
לױט
לױן
לױפ
לײ
לײב
לײג
לײגט
לײגן
לײם
לײן
לײש
ם
מ
מא
מאא
מאביל
מאביליזירט
מאגאזין
מאגאזינען
מאגול
מאגלניצא
מאגלעוו
מאגן
מאגנאט
מאגנאטישע
מאגנאטן
מאגנעט
מאגנעטישע
מאגעלאן
מאד
מאדול
מאדזשיץ
מאדזשיצער
מאדים
מאדנע
מאדע
מאדעל
מאדעלן
מאדעלקע
מאדערן
מאדערניזירטע
מאדערנע
מאדערנעם
מאדערנער
מאדערענע
מאדריד
מאה
מאהל
מאהלער
מאוד
מאונט
מאונטענס
מאור
מאורות
מאורי
מאות
מאזאמביק
מאזעס
מאט
מאטא
מאטאר
מאטארן
מאטי
מאטיוו
מאטיוון
מאטיל
מאטל
מאטעלע
מאטעמאטיק
מאטעמאטיקער
מאטעמאטישע
מאטעמאטישער
מאטעריאל
מאטעריאלן
מאטעריע
מאטערסדארף
מאטריאל
מאטריאלן
מאי
מאיא
מאיאריטעט
מאיר
מאירות
מאירל
מאירלען
מאך
מאכ
מאכט
מאכטן
מאכטפול
מאכטפולע
מאכל
מאכלים
מאכמעס
מאכן
מאכנ
מאכנדיג
מאכניווקא
מאכניווקער
מאכסטו
מאכען
מאכער
מאל
מאלאווי
מאלאטאוו
מאלאריע
מאלדאווע
מאלטא
מאלי
מאלייזיע
מאלל
מאלן
מאלעקול
מאלעקולן
מאלער
מאלעריי
מאלערייען
מאלערס
מאלפעס
מאלצייט
מאלצייטן
מאלראני
מאמין
מאמינים
מאמע
מאמען
מאמענט
מאמענטום
מאמענטן
מאמעס
מאמר
מאמרי
מאמרים
מאן
מאנא
מאנאט
מאנאטליכע
מאנאטן
מאנאפאל
מאנאקא
מאנארך
מאנארכיע
מאנארכן
מאנגאליי
מאנגאלישע
מאנגל
מאנדאט
מאנדאטן
מאנדל
מאנדלבוים
מאנדלען
מאנהאטן
מאנהעטן
מאנהעטען
מאנומענט
מאנומענטן
מאנטאג
מאנטיג
מאנטיפיארי
מאנטיק
מאנטל
מאנטלען
מאנטענעגרא
מאנטריאל
מאנטרעאל
מאנטשעסטער
מאני
מאנכע
מאנס
מאנסטער
מאנסי
מאנצביל
מאנרא
מאנרוי
מאנשאפט
מאס
מאסאטשוסעטס
מאסיווע
מאסן
מאסנאמען
מאסע
מאסק
מאסקאוויטש
מאסקווע
מאסקעווע
מאפיא
מאפע
מאפעס
מאצארט
מאקאווא
מאקאווער
מאקאראוו
מאקס
מאקסוועל
מאקסימום
מאקעדאניע
מארא
מאראטאן
מאראל
מאראלישע
מאראנץ
מאראנצן
מאראקא
מאראקאנער
מארגארעט
מארגן
מארגנשטערן
מארגען
מארד
מארדן
מארווין
מארט
מארטאל
מארטין
מארטש
מארי
מאריא
מאריך
מארילעס
מארינען
מאריס
מארלעבאן
מארמארא
מארמאראש
מארס
מארסיי
מארץ
מארק
מארקאוויטש
מארקוס
מארקן
מארקס
מארקע
מארקעט
מארקער
מארש
מארשאל
מארשירט
מאשין
מאשינען
מאשינערי
מאשקאוויטש
מאת
מב
מבא
מבאר
מבוא
מבואר
מבול
מבורג
מבטיח
מבטל
מבי
מביא
מבייש
מבין
מבינא
מבינים
מביע
מבית
מבן
מבע
מבערג
מבקר
מברכה
מברסלב
מברר
מבשר
מג
מגדולי
מגדים
מגדל
מגולגל
מגיד
מגידי
מגיה
מגייר
מגילה
מגילות
מגילת
מגיפה
מגלה
מגן
מגע
מגפ
מגפה
מד
מדב
מדבק
מדבר
מדבריות
מדה
מדובר
מדור
מדות
מדי
מדין
מדינה
מדינות
מדינת
מדע
מדקדק
מדרגה
מדרגות
מדריגה
מדריגות
מדריך
מדרש
מדרשי
מדרשים
מדת
מה
מהדורה
מהדרין
מהומה
מהות
מהימנא
מהלך
מהללאל
מהם
מהנה
מהר
מהרי
מהרצ
מהרש
מו
מוא
מואב
מובהק
מודה
מודים
מודיע
מודיעין
מוה
מוהל
מוהלים
מוהר
מווי
מוותר
מוז
מוזט
מוזיאון
מוזיי
מוזייען
מוזיק
מוזיקא
מוזיקאלישע
מוזיקאנט
מוזיקאנטן
מוזיקער
מוזיקפילם
מוזיקפילמען
מוזן
מוזעאום
מוזען
מוח
מוחה
מוחות
מוחין
מוחל
מוחמד
מוט
מוטי
מוטער
מוטערס
מוטערשפראך
מויד
מויז
מויל
מויער
מויערל
מויערן
מוכאמאד
מוכאמעד
מוכר
מולד
מולטי
מום
מומביי
מומחה
מומחים
מומע
מונג
מוניזם
מוניסטישע
מוניסטישער
מוניסטן
מוניציפאליטעט
מוניציפאליטעטן
מונק
מונקאטש
מונקאטשער
מוסאליני
מוסד
מוסדות
מוסולמענער
מוסטער
מוסטערן
מוסיף
מוסלמענער
מוסלעמענער
מוסף
מוסקל
מוסקלן
מוסקלען
מוסר
מועד
מועדים
מועצת
מופ
מופת
מופתים
מוצ
מוצא
מוצאי
מוצאפי
מוציא
מוקדם
מוקדנ
מוקצה
מור
מורא
מוראדיג
מוראדיגע
מוראדיק
מורד
מורדים
מורה
מורי
מורשת
מושב
מושל
מושקא
מות
מותר
מז
מזאה
מזבח
מזבחות
מזה
מזוזה
מזוזות
מזומן
מזונות
מזיק
מזכה
מזכיר
מזל
מזלות
מזמור
מזמורים
מזנה
מזרח
מזרחדיק
מזרחדיקן
מזרחדיקע
מזרחדיקער
מזרחי
מח
מחאה
מחבר
מחברי
מחברים
מחדש
מחה
מחויב
מחוייב
מחוץ
מחותן
מחותנים
מחזור
מחזיק
מחזיקי
מחזיר
מחזק
מחיה
מחייב
מחילה
מחיצה
מחיצות
מחלה
מחלוקה
מחלוקות
מחלוקת
מחלות
מחליט
מחלל
מחלקה
מחמיר
מחמת
מחנה
מחנות
מחנך
מחנכים
מחצית
מחרוזת
מחרים
מחשב
מחשבה
מחשבות
מחשיב
מט
מטבע
מטבעות
מטה
מטהר
מטות
מטמא
מטע
מטעם
מטער
מטר
מטרה
מטריח
מי
מיא
מיאוס
מיאוסע
מיאמי
מיגליך
מיד
מידה
מידות
מידיא
מידיע
מידלאנד
מידלאנדס
מידע
מידת
מיה
מיוחד
מיוחס
מיום
מיז
מיזורי
מיזרח
מיט
מיטא
מיטאג
מיטאלאגיע
מיטאמאל
מיטגליד
מיטגלידער
מיטגלידערשאפט
מיטגעברא
מיטגעברענגט
מיטגעהאלטן
מיטגעטיילט
מיטגעמאכט
מיטגענומען
מיטגעקומען
מיטה
מיטהאלטן
מיטווא
מיטוואך
מיטטיילן
מיטינג
מיטל
מיטלאלטער
מיטלייד
מיטלן
מיטלען
מיטלענדישן
מיטלענדישער
מיטלער
מיטלשול
מיטלשולע
מיטן
מיטנעמען
מיטע
מיטעט
מיטעל
מיטעלע
מיטעלער
מיטצוהאלטן
מיי
מייאש
מייבאק
מיידל
מיידלעך
מיידעל
מיידעלע
מייז
מייזליש
מייזעלס
מייחד
מייל
מיילך
מיילן
מיילס
מיילעך
מיילער
מיין
מיינוג
מיינונג
מיינונגן
מיינונגס
מיינונגען
מיינט
מיינס
מיינסט
מיינסטו
מיינסטנס
מיינע
מיינען
מיינענדיג
מיינענדיק
מיינער
מיינץ
מייסד
מייסטנס
מייסטענס
מייסטער
מייער
מייק
מייקל
מייקראסאפט
מיישב
מיך
מיכ
מיכא
מיכאיל
מיכאל
מיכה
מיכל
מיכלס
מיכלען
מיל
מילא
מילאן
מילגרוים
מילד
מילדע
מילה
מילטאן
מילי
מיליא
מיליאן
מיליאנען
מיליאנער
מיליארד
מיליטער
מיליטעריש
מיליטערישן
מיליטערישע
מיליטערישער
מיליטערן
מילימעטער
מיליע
מיליעס
מיליציע
מילך
מילכיגס
מילכיגע
מילכיקער
מילן
מילער
מים
מין
מינ
מינא
מינאריטעט
מינאריטעטן
מינג
מינדל
מינדסט
מינדסטע
מינדסטער
מינדעסטע
מינדערהייט
מינה
מינוט
מינוטן
מינוס
מינות
מינט
מיני
מינים
מינימאלע
מינימום
מיניסטאר
מיניסטארן
מיניסטער
מיניסטעריום
מיניסטערס
מינכן
מינכען
מינס
מינסטער
מינסק
מינסקער
מינע
מינענ
מינעס
מינעסאטע
מינעראל
מינעראלן
מינעריי
מינץ
מיס
מיסא
מיסט
מיסטיק
מיסטער
מיסטעריע
מיסיא
מיסיאנערן
מיסיל
מיסילס
מיסיסיפי
מיסיע
מיסיעס
מיע
מיעוט
מיען
מיעקב
מיצע
מיק
מיקויעכ
מיקי
מיקרא
מיקראסקאפ
מיר
מירא
מירון
מירט
מירל
מירן
מירער
מיש
מישאל
מישב
מישט
מישיגן
מישן
מישע
מישעל
מישער
מישקאלץ
מישראל
מיתה
מיתות
מיתת
מכ
מכאן
מכבד
מכבי
מכה
מכובד
מכוון
מכוח
מכון
מכות
מכח
מכיר
מכירה
מכל
מכניע
מכפ
מכפר
מכשיר
מכשף
מכת
מכתב
מכתיר
מל
מלא
מלאה
מלאך
מלאכה
מלאכות
מלאכי
מלאכים
מלבדו
מלבוש
מלבושים
מלובלין
מלוה
מלוכה
מלוכות
מלוכישער
מלונג
מלונגען
מלח
מלחמה
מלחמות
מלחמת
מלט
מלטע
מלך
מלכ
מלכא
מלכה
מלכות
מלכותו
מלכי
מלכיאל
מלכיות
מלכים
מלכנו
מלכס
מלמד
מלמדים
מלמטה
מלמעלה
מלען
מלקות
מלשון
ממוזער
ממון
ממונה
ממונות
ממזר
ממילא
ממלא
ממלך
ממנה
ממנו
ממני
ממעל
ממש
ממשות
ממשיך
ממשלה
ממתיק
מן
מנ
מנדב
מנדל
מנהג
מנהגי
מנהגים
מנהיג
מנהיגים
מנהל
מנהלים
מנו
מנובל
מנוחה
מנוחת
מנוט
מנורה
מנורת
מנות
מנחה
מנחות
מנחם
מנחת
מני
מנין
מנינים
מנצח
מנשה
מנת
מס
מסאטמאר
מסבורג
מסביר
מסגרת
מסדר
מסוגל
מסודר
מסוכן
מסור
מסורה
מסורת
מסחר
מסטערדא
מסי
מסיבה
מסיבות
מסיים
מסילת
מסיני
מסירה
מסירות
מסירת
מסית
מסכים
מסכת
מסכתא
מסכתות
מסמיך
מסעוד
מסעות
מסעי
מספיד
מספר
מסקנא
מסר
מסת
מסתם
מסתמא
מע
מעביר
מעבל
מעבר
מעג
מעגא
מעגט
מעגל
מעגליך
מעגליכע
מעגליכקייט
מעגליכקייטן
מעגלעך
מעגלעכקי
מעגלעכקייט
מעגלעכקייטן
מעגן
מעגסט
מעדא
מעדאל
מעדאלן
מעדזשע
מעדיע
מעדיעוויקי
מעדיצין
מעדיצינישע
מעדיצינישער
מעדיצינען
מעדיקא
מעדיקאלע
מעדיקאמענטן
מעדיקל
מעדעצין
מעדעצינען
מעהר
מעהרן
מעו
מעוברת
מעורר
מעזריטש
מעזריטשער
מעזשביזש
מעזשביזשער
מעט
מעטא
מעטאבאליזם
מעטאד
מעטאדן
מעטאל
מעטאלן
מעטעאראלאגיע
מעטער
מעטפארמין
מעטרא
מעטראפאליטאן
מעטראפאליטאנע
מעטראפאליטען
מעטריק
מעטשעט
מעיאר
מעיד
מעיין
מעיל
מעילה
מעין
מעכא
מעכאניזם
מעכאניק
מעכאנישע
מעכב
מעכטיגע
מעכטיגער
מעכל
מעל
מעלא
מעלבארן
מעלדונג
מעלדונגען
מעלדט
מעלדן
מעלה
מעלות
מעליץ
מעליצער
מעלעך
מעלצער
מעמבער
מעמבערס
מעמבערשיפ
מעמד
מען
מענ
מענדא
מענדי
מענדיל
מענדל
מענדלאוויטש
מענדלסאן
מענדעלע
מענוווינונג
מענט
מענטא
מענטן
מענטש
מענטשהייט
מענטשל
מענטשליך
מענטשליכן
מענטשליכע
מענטשליכער
מענטשלעך
מענטשלעכן
מענטשלעכע
מענטשלעכער
מענטשן
מענטשנ
מענטשנס
מענטשנקינד
מענטשנקינדער
מענטשען
מעניו
מענעדזשד
מענער
מענש
מענשט
מענשטן
מענשן
מענשען
מעס
מעסאפאטאמיע
מעסט
מעסטונג
מעסטונגען
מעסטן
מעסטער
מעסעדזש
מעסעדזשעס
מעסער
מעסערס
מעק
מעקא
מעקדאנעלד
מעקט
מעקלער
מעקן
מעקסיקא
מעקסיקאנער
מעקסיקע
מעקעין
מער
מערא
מערב
מערבדיק
מערבדיקן
מערבדיקע
מערבדיקער
מערבי
מערדער
מערדערס
מערה
מערהייט
מערט
מערטאן
מערי
מעריב
מערידיאן
מערידיאנען
מערילענד
מעריקא
מעריקע
מערכה
מערכות
מערכת
מערן
מערניט
מערסט
מערסטן
מערסטנטייל
מערסטנס
מערסטע
מערסטענס
מערסטער
מערער
מערערע
מערץ
מערצאל
מערצעדעס
מערק
מערקבאר
מערקונג
מערקונגען
מערקור
מערקט
מערקן
מערת
מעש
מעשה
מעשונע
מעשי
מעשיות
מעשים
מעשר
מעשרות
מעת
מף
מפ
מפא
מפה
מפורסם
מפורש
מפורשים
מפטיר
מפי
מפלה
מפני
מפסיק
מפעל
מפקיר
מפרנס
מפרסם
מפרש
מפרשי
מפרשים
מפתח
מפתחות
מצב
מצבה
מצבות
מצבים
מצבת
מצד
מצדה
מצה
מצוה
מצווה
מצוות
מצורע
מצות
מציאה
מציאות
מציבה
מצייר
מציל
מציע
מציעא
מציצה
מצליח
מצמצם
מצער
מצר
מצרי
מצריים
מצרים
מצרף
מצת
מקארלין
מקבל
מקבלים
מקדיש
מקדש
מקהלת
מקואות
מקובל
מקובלים
מקוה
מקוואות
מקווה
מקויים
מקוים
מקום
מקומו
מקומות
מקור
מקורב
מקורבים
מקורות
מקורים
מקושר
מקח
מקייט
מקיים
מקלט
מקנא
מקפיד
מקץ
מקצועות
מקרא
מקרב
מקריב
מקשר
מר
מרא
מראה
מראות
מרבה
מרביץ
מרגיש
מרגליות
מרגלים
מרגלית
מרדכי
מרה
מרו
מרובה
מרומז
מרור
מרחם
מרחק
מרחשון
מרי
מרידה
מרים
מרכבה
מרכז
מרמז
מרן
מרע
מרת
מש
משא
משב
משביע
משגיח
משגיחים
משדך
משה
משהו
משהן
משהס
משוגע
משוגעים
משוגענער
משוגעת
משולח
משולם
משולשת
משום
משומד
משונה
משורר
משוררים
משי
משיב
משיג
משיח
משך
משכ
משכון
משכונות
משכיל
משכילים
משכן
משכנות
משל
משלוח
משלי
משלים
משמח
משמע
משמעות
משמעותדיקייט
משמרת
משמש
משנה
משניות
משנת
משער
משפ
משפחה
משפחות
משפחת
משפט
משפטים
משפיע
משקה
משרד
משרת
משרתים
משתדל
משתוקק
משתמש
משתתף
מת
מתאפשר
מתבונן
מתגבר
מתוך
מתחת
מתי
מתיא
מתיבתא
מתים
מתיר
מתמיד
מתן
מתנגד
מתנגדים
מתנה
מתנות
מתנחל
מתנחלים
מתפ
מתפלל
מתפללים
מתקן
מתתיהו
מױל
מױער
מױערן
מײ
מײדל
מײן
מײנט
ן
נ
נא
נאבעל
נאדווארנא
נאדווארנער
נאה
נאוואמינסקער
נאווהארדאק
נאווהארדאקער
נאוויגאציע
נאווע
נאוועמבער
נאות
נאז
נאט
נאטא
נאטור
נאטורליך
נאטורליכע
נאטיווע
נאטירליך
נאטירלעך
נאטירלעכן
נאטירלעכע
נאטירלעכער
נאטריום
נאים
נאך
נאכ
נאכאלטס
נאכאלץ
נאכאמאל
נאכאנאנד
נאכאנאנדיגע
נאכגיין
נאכגעבן
נאכגעגאנגען
נאכגעגעבן
נאכגעטאן
נאכגעלאזט
נאכגעמאכט
נאכגעפאלגט
נאכדעם
נאכהער
נאכווייען
נאכט
נאכטאן
נאכטמאל
נאכטס
נאכיאגן
נאכמאכן
נאכמיטאג
נאכמער
נאכן
נאכנישט
נאכער
נאכפאלגן
נאכפאלגנדיג
נאכפאלגענדע
נאכפאלגער
נאכפרעג
נאכצומאכן
נאכקוקן
נאמיביע
נאמינאציע
נאמינירט
נאמן
נאמנות
נאמען
נאמענטייל
נאמר
נאן
נאנט
נאנטן
נאנטע
נאנטער
נאנטקייט
נאנטשאפט
נאס
נאסע
נאסער
נאענט
נאענטע
נאפאלי
נאפאליען
נאפאלעאן
נאפט
נאצי
נאציאנאל
נאציאנאליזם
נאציאנאליסטישע
נאציאנאליסטן
נאציאנאלן
נאציאנאלע
נאציאנאלער
נאציזם
נאציס
נאצישע
נאקעט
נאר
נארד
נארדערן
נארוואס
נארוועגיע
נארוועגישער
נארט
נאריש
נארישע
נארישקייטן
נארמאל
נארמאלן
נארמאלע
נארמאלער
נארמאנדי
נב
נבואה
נבואות
נבוכ
נבוכדנאצר
נבוכדנצר
נבוכים
נבון
נבט
נביא
נביאות
נביאי
נביאים
נבלה
נבליק
נברא
נג
נגא
נגב
נגד
נגווי
נגט
נגיא
נגיד
נגידים
נגינה
נגל
נגלא
נגלה
נגלעך
נגמײ
נגן
נגסט
נגסטן
נגע
נגעא
נגעבויגן
נגעבן
נגעברא
נגעברײט
נגעגא
נגעגעבן
נגעגרייט
נגעהא
נגעהויב
נגעהויבן
נגעהויבען
נגעהױבן
נגעווא
נגעוויזן
נגעזא
נגעזען
נגעזעענע
נגעזעצט
נגעטא
נגעטרא
נגעים
נגעכא
נגעלא
נגעלייגט
נגען
נגענהי
נגענומען
נגענומענע
נגענע
נגענעם
נגענשא
נגעפ
נגעפא
נגעפירט
נגעצויגן
נגעצונדן
נגעקומען
נגעקוקט
נגעקלא
נגעקליבן
נגער
נגערופ
נגערופן
נגערופנ
נגערטנער
נגערירט
נגערן
נגערעדט
נגערעכנט
נגעשטא
נגעשטויסן
נגעשטעלט
נגעשטעלטע
נגעשלא
נגעשלונגען
נגעשפ
נגעשריבן
נגעװא
נגרעס
נגײן
נד
נדא
נדב
נדבה
נדבות
נדבר
נדה
נדז
נדזשבא
נדזשעט
נדזשען
נדחה
נדי
נדיג
נדיגט
נדיגע
נדידא
נדיק
נדיקײט
נדיר
נדל
נדלונג
נדלונגען
נדלט
נדלען
נדן
נדס
נדע
נדענק
נדער
נדערהא
נדערט
נדערן
נדערנס
נדערס
נדערע
נדערער
נדערש
נדערשמא
נדר
נדרוק
נדרי
נדרים
נדשא
נה
נהא
נהויב
נהייב
נהייבן
נהענגער
נהר
נהרדעא
נהריה
נהײב
נו
נוא
נוארק
נוגע
נודע
נוהג
נווא
נווה
נוווינער
נוועזנהייט
נווײ
נוטה
נוטריקון
נוי
נויט
נויטיג
נויטיגט
נויטיגע
נויטיק
נויטן
נול
נולד
נומ
נומען
נומער
נומערן
נון
נונג
נונגען
נוס
נוסח
נוסחאות
נוסף
נוספות
נוספת
נועם
נוף
נוץ
נוצבאר
נוצט
נוצן
נוצנדיג
נוצען
נוצער
נוק
נוקבא
נוקלעארע
נוקם
נור
נוראים
נושא
נושאי
נושאים
נות
נותן
נז
נזא
נזהר
נזיקין
נזיר
נזע
נזען
נזעצן
נזר
נח
נחום
נחומען
נחל
נחלה
נחלת
נחמדים
נחמה
נחמהקע
נחמיה
נחמן
נחמני
נחס
נחש
נחשון
נחת
נט
נטא
נטהא
נטווא
נטוויקלונג
נטוויקלט
נטורי
נטי
נטיגן
נטיגע
נטיה
נטייל
נטילת
נטין
נטינענט
נטיסעמיטיזם
נטיפ
נטיק
נטיקן
נטיקע
נטישן
נטישע
נטל
נטלא
נטלויפ
נטלויפן
נטלעכט
נטלױפ
נטן
נטע
נטער
נטעריי
נטפ
נטפע
נטצײ
נטקעגן
נטרא
נטרונא
נטרונען
נטרינען
נטרינקען
נטשא
נטשוויגן
נטשיק
נטשע
ני
ניא
ניאגארא
ניג
ניגון
ניגוני
ניגונים
ניגע
ניגעריע
ניד
נידער
נידערט
נידעריג
נידעריגסטע
נידעריגע
נידעריגער
נידעריגערע
נידעריק
נידעריקן
נידעריקע
נידעריקער
נידערלאנדן
נידערמאן
נידערן
נידריג
נידריגלאנד
נידריגסטע
נידריגע
נידריגער
ניו
ניובורג
ניובערג
ניווא
ניוז
ניוטאן
ניוס
ניורא
ניזא
ניזירט
ניזם
ניזמען
ניזשער
ניחא
ניט
ניטא
ניטאמאל
ניטל
ניי
נייגונג
נייגן
נייגעריג
נייהויז
נייהעם
נייט
נייטיג
נייטיק
נייטיקע
נייטרא
נייטראל
נייטראלע
נייטראנען
ניימאן
ניין
ניינטן
ניינטע
ניינטער
ניינציג
ניינציק
ניינצן
נייס
נייע
נייעם
נייען
נייעס
נייער
נייפונדלאנד
ניישטאט
ניישלאס
ניכט
ניל
נילוס
נים
נימ
נימא
נימער
נינו
נינטענדא
ניס
ניסט
ניסטן
ניסים
ניסן
ניע
ניעס
ניפ
ניץ
ניצוה
ניצול
ניצט
ניצן
ניצנדיק
ניצען
ניצער
ניק
ניקא
ניקאטין
ניקאלא
ניקאלאס
ניקאליי
ניקאלשבורג
ניקאלשבורגער
ניקאראגוא
ניקט
ניקי
ניקל
ניקן
ניקס
ניקסאן
ניקעלסבורג
ניקש
ניר
נירבאטור
נירט
נירן
נירנבערג
נירעדהאז
ניש
נישט
נישטא
נישטיק
נישטיקע
נישטיקײט
נישן
נישע
נישער
נישקא
נישקשה
ניתבע
ניתן
נכא
נכון
נכלל
נכשל
נלא
נמא
נמצא
נמשך
נן
ננא
ננעמען
נס
נסא
נסט
נסטא
נסטו
נסטע
נסטרא
נסטרוקציע
נסיון
נסיונות
נסים
נסיעה
נסיעות
נסן
נסערווא
נספ
נסקריפ
נסת
נסתלק
נסתר
נע
נעא
נעאלאגן
נעבאך
נעבן
נעבעך
נעבעכ
נעבען
נעגא
נעגאטיוו
נעגאטיווע
נעגל
נעגעטיוו
נעגעטיווע
נעהמט
נעהמען
נעוויל
נעט
נעטוואורק
נעטווארק
נעטיק
נעיווי
נעילה
נעים
נעיעלמער
נעישאנס
נעכט
נעכטיקן
נעכטיקע
נעכטיקער
נעכטן
נעל
נעלם
נעלן
נעלסאן
נעלע
נעלער
נעם
נעמ
נעמא
נעמט
נעמי
נעמליך
נעמלעך
נעמן
נעמען
נעמענ
נען
נענ
נענדיק
נענטסטע
נענטסטער
נענטער
נענע
נעס
נעסט
נעסטער
נעסי
נעענטער
נעפ
נעפאל
נעפטון
נעפל
נעפע
נעץ
נעצווערק
נעצווערקן
נעצן
נעצװערק
נעקסטן
נעקסטע
נעקסטער
נער
נערוו
נערוון
נערווען
נערישע
נערן
נערקענט
נערשטיק
נעשא
נעשאנעל
נעשה
נפ
נפא
נפטר
נפילה
נפילות
נפירער
נפלא
נפלאות
נפליקט
נפן
נפקא
נפש
נפשות
נפשי
נפשך
נפתלי
נץ
נצביל
נצבילן
נצבים
נצו
נצוהערעניש
נצויזיש
נצויזישע
נצויזישער
נצח
נצחון
נצחונות
נצט
נצי
נציג
נצינדן
נציע
נציעל
נציעלע
נציק
נציקסטן
נציקער
נצלער
נצן
נצע
נצעלא
נצער
נצערט
נצפרי
נצרת
נק
נקא
נקב
נקבה
נקבות
נקבר
נקודה
נקודות
נקום
נקומען
נקוקן
נקורס
נקט
נקי
נקיבה
נקיות
נקל
נקלא
נקמה
נקמות
נקן
נקס
נקע
נקעלע
נקען
נקער
נקפורט
נקפורטער
נקרא
נקריי
נקרייך
נקרײ
נר
נראה
נרות
נרירן
נרן
נש
נשא
נשטא
נשיא
נשיאות
נשיאים
נשיל
נשים
נשלא
נשמה
נשמות
נשמע
נשמת
נשע
נשפ
נשפע
נשתנה
נת
נתגלה
נתחבר
נתיב
נתיבות
נתמנה
נתן
נתנאל
נתניה
נתניהו
נתעורר
נתפעל
נתקרב
נתתי
נױט
נײ
נײן
ס
סא
סאבאלטש
סאביבאר
סאדאט
סאדאיסטערן
סאדאם
סאדארק
סאדיגורא
סאדיגורער
סאדע
סאדערן
סאהארא
סאו
סאודי
סאודיע
סאוויעט
סאוויעטישע
סאוויעטן
סאוועט
סאוועטישע
סאוועטישער
סאוועטן
סאווראן
סאוט
סאטאן
סאטורן
סאטמאר
סאטמארע
סאטמארער
סאטמער
סאטמערער
סאטעליט
סאטעליטן
סאיז
סאך
סאכ
סאכאטשאוו
סאכאטשאווער
סאלא
סאלאווייטשיק
סאלאמאן
סאלאנט
סאלאנטער
סאלאניקי
סאלדאט
סאלדאטן
סאלדאטען
סאלוואדאר
סאלי
סאליד
סאליוואן
סאמאליע
סאמארקאנד
סאמועל
סאמע
סאמעט
סאן
סאנוק
סאנט
סאנטא
סאנטיאגא
סאניק
סאנסקריט
סאנקט
סאנקציעס
סאסאוו
סאסאווער
סאסנאווצע
סאסעקס
סאפטוועיר
סאפיסטיקירטע
סאפיע
סאפרין
סאציאל
סאציאלאגיע
סאציאליזם
סאציאליסטישע
סאציאליסטישער
סאציאליסטן
סאציאלע
סאציאלער
סאקאלאוו
סאקס
סאקפאפעט
סאראס
סאראצקין
סארט
סארטירן
סארטן
סארי
סאשא
סאשע
סב
סבא
סבה
סביבה
סברא
סברה
סג
סגולה
סגולות
סגל
סגן
סד
סדא
סדום
סדר
סדרה
סדרות
סדרי
סדרים
סה
סו
סוב
סוביעקט
סובמארינען
סובסטאנטיוו
סובסטאנטיוון
סובסטאנץ
סובסטאנצן
סוג
סוגיא
סוגיות
סוד
סודאן
סודות
סווא
סוואזילאנד
סווענטיסלא
סוחר
סוחרים
סוטה
סויע
סוירטש
סוכ
סוכה
סוכות
סולטא
סולטאן
סוליימאן
סומך
סומע
סומעס
סון
סונדערלאנד
סוני
סוניס
סועץ
סוף
סופ
סופליי
סופלייס
סופלייען
סופער
סופר
סופרים
סוצקעווער
סוק
סוקסעס
סוקסעספול
סוקסעספולע
סור
סורא
סורפרייז
סז
סזע
סזעלבע
סח
סחורה
סחורות
סט
סטא
סטאביל
סטאבילע
סטאדיאן
סטאטוס
סטאטוע
סטאטיסטיק
סטאטיסטיקס
סטאלין
סטאלינגראד
סטאלינער
סטאמבול
סטאמפארד
סטאן
סטאנדארט
סטאנדארטן
סטאנדארטע
סטאניסלאוו
סטאנמאר
סטאנציאנירט
סטאנציע
סטאנציעס
סטאפ
סטאק
סטאקס
סטאר
סטארטפאס
סטו
סטוארט
סטודיא
סטודיאס
סטודענט
סטודענטן
סטווע
סטוטשין
סטוטשינער
סטוך
סטוכער
סטי
סטיוו
סטיוון
סטיווען
סטייה
סטייטש
סטייל
סטייפלער
סטיל
סטילן
סטיע
סטיק
סטישע
סטן
סטע
סטעטן
סטעיט
סטעיטמענט
סטעיטמענטס
סטעיטס
סטעך
סטעליע
סטענלי
סטעפ
סטעפאן
סטער
סטקע
סטרא
סטראזשניץ
סטראטעגיע
סטראטעגישע
סטראטפארד
סטראפקאוו
סטראפקאווער
סטראשעט
סטרונע
סטרונעס
סטרוקטור
סטרוקטורן
סטרי
סטריא
סטריזשעוו
סטריזשעווער
סטריט
סטרייק
סטריקאוו
סטריקאווער
סטרעטין
סטרעליסק
סי
סיא
סיאטל
סיבה
סיבות
סיביר
סיג
סיגוט
סיגוטער
סיגנא
סיגנאל
סיגנאלן
סיגעט
סיגעטער
סידור
סידורים
סידי
סידני
סיוון
סיום
סיון
סיט
סיטוא
סיטואציע
סיטואציעס
סיטי
סיטיזענס
סיי
סייד
סיידן
סייווי
סייז
סייט
סייטס
סיין
סייענטיסטן
סייענס
סייעתא
סיירת
סיכא
סילווער
סיליציום
סימא
סימאן
סימבא
סימבאל
סימבאליזירט
סימבאלן
סימו
סימן
סימנים
סימעטריע
סימפ
סימפא
סימפאטיקער
סימפאניעס
סימפטאמען
סינ
סינא
סינגאפור
סינגל
סינגלס
סינגלען
סינדערעלא
סינדראם
סינוס
סינטאקס
סיני
סינעגאל
סיסאפ
סיסאפן
סיסאפס
סיסטעם
סיסטעמען
סיסטערס
סיסי
סיע
סיערע
סיפ
סיפור
סיפורי
סיפורים
סיציליע
סיק
סיקן
סיקער
סיקרעט
סיר
סירא
סירט
סיריע
סירישע
סירישער
סירן
סירקיל
סירקילס
סישער
סך
סכום
סכומים
סכך
סכנה
סכנות
סכנת
סכסוך
סכעמע
סל
סלא
סלאבאדקע
סלאבאדקער
סלאגאן
סלאוואקיי
סלאוואקיש
סלאוואקישע
סלאוויטא
סלאווישע
סלאוועניע
סלאוועניש
סלאנים
סלאנימער
סלה
סלוצק
סליחות
סלייד
סלעב
סם
סמ
סמא
סמארט
סמבטיון
סמיט
סמיכה
סמיכת
סמך
סמערפ
סן
סנ
סנדק
סנדר
סנה
סנהדריה
סנהדרין
סנחריב
סס
סע
סעאל
סעגא
סעדיה
סעודה
סעודות
סעודת
סעוון
סעזא
סעזאן
סעזאנען
סעט
סעילס
סעינט
סעיף
סעיפים
סעל
סעליולער
סעליש
סעלע
סעלען
סעלעקציע
סעלפאון
סעם
סעמיטישע
סעמינא
סעמינאר
סען
סענא
סענאט
סענאטאר
סענאטארן
סענאטור
סענדי
סענדלער
סענדער
סענדערל
סענדערלענ
סענדר
סענט
סענטער
סענסארס
סענע
סענעגאל
סעס
סעסיע
סעפ
סעפטעמבער
סעקולארע
סעקולערע
סעקולערער
סעקונדן
סעקונדע
סעקונדעס
סעקטאר
סעקטארן
סעקטע
סעקיוריטי
סעקיוריטיס
סעקס
סעקסואל
סעקסואלע
סעקרעטא
סעקרעטאר
סער
סערביע
סערביש
סערגיי
סערוויס
סערוויסעס
סערוויקל
סערוויקס
סערווירט
סערווירן
סערווער
סעריע
סעריעס
סערל
סערן
סערע
סערעט
סערעטער
סעשאנס
סף
ספ
ספא
ספארט
ספארטלער
ספארטן
ספה
ספורי
ספי
ספיד
ספילבערג
ספינקא
ספינקער
ספיצער
ספיקות
ספיקער
ספיר
ספירה
ספירות
ספירת
ספעיס
ספעציאליזירט
ספעציאליסט
ספעציעל
ספעציעלן
ספעציעלע
ספעציעלער
ספעציפישן
ספעציפישע
ספעקטאר
ספערע
ספק
ספקות
ספר
ספרא
ספרד
ספרדי
ספרדים
ספרדישן
ספרדישע
ספרדישער
ספרי
ספרים
ספרינג
ספרינט
ספרעדשיט
סצענאר
סצענע
סצענעס
סק
סקא
סקאהל
סקאטישע
סקאטישער
סקאטלאנד
סקאטלענד
סקאטש
סקאלע
סקאנדאל
סקאשע
סקווירא
סקווירער
סקווע
סקווער
סקווערער
סקול
סקולס
סקולען
סקולענער
סקולפ
סקולפטאר
סקולפטור
סקי
סקעלעט
סקער
סקרין
סקריפט
סרא
סרולי
סרולין
סרוליס
סרוסיש
סרוסישן
סרוסישער
סרוסלא
סרי
סת
סתימאה
סתירה
סתירות
סתם
סײ
ע
עא
עאיק
עב
עבד
עבדות
עבדי
עבדים
עבודה
עבודות
עבודת
עבור
עבי
עבירה
עבירות
עבערט
עבר
עברוא
עברי
עברית
עג
עגא
עגונה
עגיפ
עגיפטישע
עגיפטישער
עגיפטן
עגל
עגלה
עגמת
עגנון
עד
עדא
עדה
עדווא
עדווארד
עדווערטייזמענט
עדות
עדותיך
עדזשווער
עדי
עדיות
עדיט
עדיטאריעל
עדיטס
עדים
עדינבורג
עדיסאן
עדיע
עדלשטיין
עדמאנטאן
עדמונד
עדן
עדס
עדעמס
עדער
עדערן
עדת
עה
עהו
עהם
עהר
עהרליך
עהרנפעלד
עהרע
עו
עובד
עובדי
עובדיה
עובר
עוד
עוה
עוו
עווא
עוואו
עוואלוציע
עוולה
עוולות
עוונות
עווענטועל
עוועניו
עווערעסט
עוז
עוזי
עוזיאל
עוזר
עול
עולה
עולות
עולים
עולם
עולמות
עומד
עומר
עון
עונג
עונש
עוסק
עוף
עופ
עופות
עוקר
עורך
עושה
עושים
עושר
עז
עזאי
עזה
עזו
עזיע
עזר
עזרא
עזרה
עזריאל
עזריה
עזרת
עח
עט
עטא
עטאנאל
עטווא
עטוואס
עטיאפיע
עטייה
עטיל
עטימאלאגיע
עטיק
עטיקעט
עטל
עטליכע
עטלעכע
עטן
עטנישע
עטס
עטע
עטער
עטערבורג
עטערדיקע
עטר
עטרא
עטרת
עי
עיבור
עידס
עיה
עיון
עיטש
עיי
עיין
עיל
עילאה
עילאי
עילאין
עילוי
עילית
עים
עין
עיני
עיניו
עינים
עיצוב
עיקבתא
עיקר
עיקרדיקע
עיקרי
עיקרים
עיר
עירוב
עירובין
עירליין
עירליינס
עירפארט
עך
עכ
עכו
עכט
עכטע
עכטער
עכשיו
על
עלא
עלבע
עלד
עלדז
עלדער
עלה
עלווז
עלול
עלות
עלזא
עלט
עלטסטן
עלטסטע
עלטסטער
עלטער
עלטערן
עלטערע
עלטערען
עלטערער
עלי
עליאט
עליה
עליהם
עליו
עליון
עליות
עליזא
עליזאבעט
עליזה
עליטע
עלייה
עליך
עליכם
עליכמס
עלילת
עלימינירט
עלימינירן
עלינו
עליס
עליע
עלישע
עלית
עלמא
עלמין
עלן
עלנבויגן
עלנט
עלע
עלעך
עלעמענט
עלעמענטא
עלעמענטארע
עלעמענטן
עלען
עלעפאנט
עלעקטרא
עלעקטראמאגנעטיזם
עלעקטראמאגנעטישע
עלעקטראן
עלעקטראניק
עלעקטראניש
עלעקטראנישע
עלעקטראנישער
עלעקטראנען
עלעקטריע
עלעקטריציטעט
עלעקטריק
עלעקטרישן
עלעקטרישע
עלעקטרישער
עלעקציע
עלעקציעס
עלער
עלערן
עלף
עלפטן
עלצטע
עלצטער
עלקא
עלקוש
עלקער
עלקערונג
עלשט
עלשן
עם
עמ
עמא
עמאר
עמבארגא
עמבער
עמו
עמוד
עמודים
עמוירדזשענסי
עמון
עמוס
עמטליך
עמי
עמיגרירט
עמיל
עמיצן
עמיצער
עמיר
עמיראטן
עמך
עמלק
עמנואל
עמע
עמעס
עמעצן
עמעצער
עמער
עמערגענץ
עמפייער
עמק
עמרם
ען
ענ
ענג
ענגיל
ענגלא
ענגלאנד
ענגלארד
ענגליש
ענגלישן
ענגלישע
ענגלישער
ענגלענדער
ענגע
ענגער
ענגקייט
ענגשאפט
ענד
ענדגילטיגע
ענדזשין
ענדי
ענדיגט
ענדיגן
ענדיק
ענדיקט
ענדיקן
ענדליך
ענדליכע
ענדלעך
ענדע
ענדעט
ענדערונג
ענדערונגן
ענדערונגען
ענדערט
ענדערן
ענדערש
ענדערשט
ענדרו
ענו
ענוה
ענווה
ענווייראמענט
ענווייראמענטאלע
ענונג
ענזימען
ענט
ענטהאלט
ענטן
ענטסטע
ענטע
ענטעבע
ענטער
ענטפ
ענטפער
ענטפערט
ענטפערן
ענטפערס
ענטפערען
ענטקייט
ענטראפיע
עני
עניו
עניוות
עניין
עניינים
ענין
עניני
ענינים
עניקט
עניש
ענישן
ענית
ענליך
ענליכע
ענלעך
ענלעכע
ענן
עננו
ענס
ענע
ענעם
ענען
ענער
ענערגיע
ענפארסמענט
ענפילד
ענץ
ענצטער
ענציקלא
ענציקלאפעדיע
ענציקלאפעדיעס
ענק
עס
עסא
עסט
עסטונג
עסטונגען
עסטיווא
עסטיקט
עסטלא
עסטלאנד
עסטן
עסטע
עסטעיט
עסטרייך
עסטרייכישן
עסטרייכישע
עסטרייכישער
עסטרייכער
עסטרײ
עסייען
עסיע
עסיק
עסן
עסנ
עסנווא
עסנווארג
עסען
עסענווארג
עסעקס
עסער
עספ
עספעראנטא
עסק
עסקאלאטאר
עסקאלאטארן
עסקן
עסקנות
עסקנים
עע
עף
עפ
עפאכע
עפאס
עפו
עפולה
עפיזאד
עפיזאדן
עפינג
עפל
עפן
עפנט
עפענונג
עפענט
עפענען
עפעס
עפעקט
עפעקטיוו
עפעקטירט
עפעקטירן
עפעקטן
עפר
עפשטיין
עפשער
עץ
עצ
עצבות
עצה
עצום
עצות
עצי
עציון
עציעל
עציעלע
עצם
עצמאי
עצמו
עצמות
עצמי
עצרת
עק
עקא
עקאנאמיסט
עקאנאמיסטן
עקאנאמיע
עקאנאמיעס
עקאנאמיק
עקאנאמיש
עקאנאמישן
עקאנאמישע
עקאנאמישער
עקב
עקד
עקו
עקוואדאר
עקוואטאר
עקוואטארישע
עקוויפמענט
עקזיסטירט
עקזיסטירן
עקזיסטירנדע
עקזיסטענץ
עקזעמפ
עקזעמפלארן
עקזעקוטיוו
עקזעקיוטיוו
עקזעקיוטיווע
עקט
עקטן
עקיבא
עקידת
עקל
עקן
עקס
עקסאן
עקסטער
עקסטערע
עקסטרע
עקסטרעם
עקסטרעמיסטן
עקסטרעמע
עקסטשעינדזש
עקסידענט
עקסידענטן
עקסעל
עקסעקוטיוו
עקספ
עקספארט
עקספארטירט
עקספארטירן
עקספארטירער
עקספארטן
עקספערט
עקספערטן
עקספערימענט
עקספערימענטן
עקספרעס
עקענאמיע
עקענאמישע
עקראן
עקשטיין
עקשן
עקשנות
ער
ערא
עראפלאן
עראפלאנען
ערב
ערבוס
ערבות
ערבי
ערבית
ערג
ערגסטן
ערגסטע
ערגעץ
ערגעצ
ערגער
ערד
ערדיקע
ערדישע
ערדל
ערדס
ערדציטערניש
ערדציטערנישן
ערהאלטן
ערו
ערוב
ערוגת
ערווא
ערוואקסענע
ערוואקסענער
ערווארבן
ערווארט
ערווארטעט
ערוויילט
ערווין
ערוועלט
ערוועלן
ערווענט
ערוועקן
ערוות
ערוך
ערונג
ערוץ
ערזא
ערזאנען
ערזענלעכקייט
ערזעצט
ערזעצן
ערט
ערטל
ערטער
ערטשן
ערטשע
ערי
עריא
עריות
עריטרעע
עריישא
עריע
עריק
ערירן
ערך
ערכים
ערכין
ערל
ערלה
ערלוי
ערלויבט
ערלויבן
ערלויבעניש
ערלויער
ערליי
ערליך
ערליכן
ערליכע
ערליכער
ערליכקייט
ערלע
ערלעדיגט
ערלעדיגן
ערלעך
ערלעכן
ערלעכע
ערלעכער
ערלעס
ערמא
ערמעגליכט
ערמעגליכן
ערן
ערנא
ערני
ערנסט
ערנסטע
ערנסטער
ערנע
ערנעסט
ערס
ערסא
ערע
ערעיא
ערענסט
ערענץ
ערענצן
ערעצ
ערער
ערפ
ערפאלג
ערפארונג
ערפארט
ערפילט
ערפילן
ערפינדונג
ערפינדונגען
ערפינדן
ערפינדער
ערפעקטום
ערציאונג
ערצייגט
ערצייגן
ערציילונג
ערציילונגען
ערציק
ערקלערונג
ערקלערט
ערקלערן
ערשט
ערשטא
ערשטוינט
ערשטן
ערשטנס
ערשטע
ערשטען
ערשטער
ערשיינונג
ערשיינט
ערשיינען
ערשינען
עש
עשה
עשו
עשיה
עשין
עשיר
עשירות
עשירים
עשני
עשר
עשרה
עשרת
עת
עתה
עתיד
עתיק
ף
פ
פא
פאביע
פאבלא
פאבליק
פאבלישינג
פאבריצירונג
פאבריצירט
פאבריצירן
פאבריק
פאבריקאנט
פאבריקאציע
פאבריקן
פאגראם
פאגראמען
פאד
פאדאליע
פאדווא
פאדינגטאן
פאדעם
פאדערט
פאדערן
פאדערשטע
פאה
פאהאד
פאהרן
פאווארסקי
פאוועל
פאוינט
פאול
פאולא
פאום
פאונדאוציע
פאוסט
פאוער
פאוערבאל
פאזיטיוו
פאזיטיווע
פאזיטיווער
פאזיציע
פאזיציעס
פאזע
פאזעל
פאזען
פאזעס
פאטא
פאטאגראפיע
פאטאגראפירט
פאטאך
פאטאליטעטן
פאטאלער
פאטאקי
פאטני
פאטעטא
פאטענט
פאטענץ
פאטער
פאטערס
פאיע
פאך
פאכן
פאל
פאלאנגען
פאלאנע
פאלאץ
פאלאק
פאלאקן
פאלגט
פאלגן
פאלגנד
פאלגנדיק
פאלגנדן
פאלגנדע
פאלגענד
פאלגענדע
פאלוס
פאלט
פאלטאווע
פאלטש
פאלטשע
פאליטיק
פאליטיקאנט
פאליטיקאנטן
פאליטיקער
פאליטיש
פאליטישן
פאליטישע
פאליטישער
פאלינאם
פאליסטינער
פאליסי
פאליסיס
פאליציאנט
פאליציאנטן
פאליציי
פאליצייאישע
פאליש
פאללאק
פאלם
פאלן
פאלס
פאלען
פאלעסטין
פאלעסטינע
פאלעסטינער
פאלק
פאלקאוויטש
פאלקלאנד
פאלקס
פאלש
פאלשן
פאלשע
פאלשער
פאלשקייט
פאמיליע
פאמיליעס
פאמפ
פאמפאיוס
פאמפע
פאן
פאנאוועזש
פאנאוועזשער
פאנאמא
פאנאראמע
פאנגט
פאנגן
פאנגען
פאנגער
פאנד
פאנטאזיע
פאנטאסטישע
פאנטן
פאנטס
פאניק
פאנעט
פאנצער
פאנקראס
פאס
פאסא
פאסאזשיר
פאסאזשירן
פאסט
פאסטוך
פאסטן
פאסטער
פאסיג
פאסיגן
פאסיגע
פאסיל
פאסיפיק
פאסיק
פאסירונג
פאסירונגען
פאסירט
פאסירן
פאסן
פאספארט
פאסקאוויץ
פאעזיע
פאפ
פאפא
פאפולאציע
פאפולער
פאפולערן
פאפולערסטע
פאפולערסטער
פאפולערע
פאפולערער
פאפיר
פאפיראסן
פאפירן
פאפירענע
פאפן
פאציענט
פאציענטן
פאציפיק
פאציפישן
פאציפישער
פאקולטעט
פאקט
פאקטאר
פאקטארן
פאקטיש
פאקטישע
פאקטישער
פאקטן
פאקיסטאן
פאקיסטאנער
פאקן
פאקס
פאקשיווניץ
פאר
פארא
פאראגוויי
פאראגראף
פאראד
פאראדיי
פאראדיע
פאראדע
פאראויס
פאראורזאכט
פאראורטיילט
פאראיבער
פאראיין
פאראיינגטע
פאראייניגונג
פאראייניגט
פאראייניגטן
פאראייניגטע
פאראייניגן
פאראייניקונג
פאראייניקט
פאראייניקטע
פאראייניקן
פאראכטן
פאראלעל
פאראלעלע
פאראמעטער
פאראמעטערס
פאראן
פאראנטווארטליך
פאראנטווארטליכט
פאראנטווארטליכקייט
פאראנטווארטלעך
פאראנען
פארארדענט
פארב
פארבאט
פארבאטן
פארבאטען
פארבאנד
פארבונדן
פארביי
פארבינדונג
פארבינדונגן
פארבינדונגען
פארבינדט
פארבינדן
פארבינדען
פארבליבן
פארבליבענע
פארבלייבט
פארבלייבן
פארבן
פארבס
פארבעטן
פארבעסערט
פארבעסערן
פארבראכט
פארברייטערונג
פארברייטערט
פארברייטערן
פארברעך
פארברעכן
פארברעכנס
פארברעכער
פארברענגט
פארברענגן
פארברענגען
פארברענט
פארברענען
פארגאנגנהייט
פארגאנגענהייט
פארגאנגענע
פארגאנגענעם
פארגאסן
פארגייער
פארגיכערונג
פארגלייך
פארגלייכן
פארגעזעצט
פארגעלייגט
פארגעלערנט
פארגעניגן
פארגעס
פארגעסט
פארגעסן
פארגעסען
פארגעקומען
פארגעשטעלט
פארגעשלאגן
פארגעשריטן
פארגעשריטענע
פארגרינגערן
פארגרעסערט
פארגרעסערן
פארד
פארדאכט
פארדאמט
פארדאמען
פארדאנקען
פארדארבן
פארדייאונג
פארדייען
פארדינט
פארדינסט
פארדינסטן
פארדינען
פארדינער
פארדעכטיגט
פארדעכטיגטן
פארדעכטיגטער
פארדעם
פארדעקט
פארדעקן
פארדרייט
פארדרייען
פארהאלטן
פארהאן
פארהאנג
פארהאנדלונגען
פארהאנדלען
פארהאנדלער
פארהאנען
פארהוילן
פארהייראט
פארהעלטעניש
פארהעלטענישן
פארהער
פארהערט
פארהערן
פארווא
פארוואונדעט
פארוואונדעטע
פארוואלטונג
פארוואלטעט
פארוואלטער
פארוואנדלט
פארוואנדלען
פארוואנדעלט
פארוואס
פארווארד
פארווארט
פארווונדעט
פארווונדעטע
פארוויילונג
פארווערטס
פארויס
פארום
פארומס
פארומען
פארזאמלונג
פארזאמלט
פארזאמלטע
פארזארג
פארזארגונג
פארזארגט
פארזארגן
פארזוך
פארזוכט
פארזיכטיג
פארזיכערונג
פארזיכערט
פארזיכערן
פארזיצער
פארזעצונג
פארט
פארטא
פארטאגס
פארטאל
פארטאן
פארטוגאל
פארטוגעזיש
פארטוגעזישע
פארטוגעזישער
פארטי
פארטיג
פארטיגע
פארטיזאנער
פארטיזאנערס
פארטיי
פארטייאישע
פארטיידיגונג
פארטיידיגונגס
פארטיידיגן
פארטיידיקונג
פארטיידיקונגס
פארטיידיקן
פארטייטשט
פארטיילט
פארטייען
פארטיליגט
פארטיליגן
פארטיפט
פארטיפן
פארטיק
פארטל
פארטן
פארטראגן
פארטראכט
פארטריבן
פארטרייבט
פארטרייבן
פארטרעט
פארטרעטן
פארטרעטער
פאריז
פאריין
פארייניקטע
פאריסאוו
פארכאפונג
פארכאפט
פארכאפטע
פארכאפן
פארכאפער
פארכט
פארכטן
פארלאג
פארלאזט
פארלאזן
פארלאזען
פארלאמענט
פארלאמענטארע
פארלאנג
פארלאנגט
פארלאנגן
פארלאנגען
פארלאשן
פארלויף
פארלוירן
פארלוירענע
פארלוסט
פארלוסטן
פארליבט
פארלייגט
פארלייגן
פארלימענט
פארלירט
פארלירן
פארלעמענט
פארלענגערונג
פארלענגערט
פארלענגערן
פארלענדן
פארלעצט
פארלעצן
פארלערנען
פארלעשן
פארם
פארמאגט
פארמאגן
פארמאט
פארמאטן
פארמאכט
פארמאכטע
פארמאכן
פארמאלע
פארמאסטן
פארמיטל
פארמיטלען
פארמיידט
פארמיידן
פארמינג
פארמינערט
פארמינערן
פארמירט
פארמירן
פארמישט
פארמישן
פארמל
פארמעגן
פארמען
פארמעסט
פארמעסטן
פארמער
פארמערונג
פארמערט
פארמערטע
פארמערן
פארמערס
פארן
פארנאגראפיע
פארנאכט
פארנומען
פארנומענע
פארנוצט
פארנט
פארניכטונג
פארניכטונגס
פארניכטן
פארניכטעט
פארנעם
פארנעמט
פארנעמען
פארס
פארע
פארעכט
פארעכטן
פארעכנט
פארעכענט
פארעם
פארעמען
פארען
פארענדיגט
פארענדיגן
פארענדיקט
פארענדערט
פארענהייט
פארענט
פארענטפערט
פארענטפערן
פארעסט
פארעפנטליכט
פארעפנטלעכט
פארערגערט
פארפאלן
פארפאלק
פארפאסט
פארפאסער
פארפירט
פארפירן
פארפלייצונג
פארפלייצונגען
פארפלייצט
פארפלייצן
פארפליכטעט
פארפעלט
פארפעסטיקונג
פארפרוירן
פארפרוירענע
פארצווייגטע
פארצייטישע
פארצייטנס
פארצייכנט
פארציילט
פארציילן
פארק
פארקוועי
פארקויף
פארקויפט
פארקויפן
פארקויפען
פארקויפער
פארקומען
פארקינג
פארקלענערט
פארקן
פארקער
פארקערט
פארקערטע
פארקערטער
פארראכטן
פאררופן
פאררעכטן
פאררעכנט
פאררעכענט
פארש
פארשאפט
פארשאפן
פארשוואונדן
פארשווערט
פארשוין
פארשונג
פארשונגען
פארשט
פארשטאט
פארשטאטישע
פארשטאטישער
פארשטאנד
פארשטאנען
פארשטארקט
פארשטארקן
פארשטיי
פארשטייט
פארשטיין
פארשטייסט
פארשטייען
פארשטייער
פארשטעהט
פארשטעהן
פארשטעט
פארשטעלונג
פארשטעלונגען
פארשטעלט
פארשטעלן
פארשטענדליך
פארשטענדעניש
פארשטערקערט
פארשטערקערן
פארשידנארטיגע
פארשידענע
פארשיידענע
פארשיקט
פארשלאג
פארשלאגן
פארשלאסן
פארשליסן
פארשן
פארשעמט
פארשעמען
פארשער
פארשערס
פארשפ
פארשפארט
פארשפארן
פארשפראכן
פארשפרייט
פארשפרייטונג
פארשפרייטן
פארשפרייטע
פארשפרייטער
פארשריבן
פארשריט
פארשרייבן
פארשריפטן
פאשיסטישע
פאשקאן
פאשקעווילן
פב
פג
פגל
פגם
פגעגעבן
פגעווא
פגעפ
פד
פדיון
פדר
פה
פו
פובליצירט
פובליק
פובליקירט
פובליקע
פובליקער
פוגם
פוהל
פוט
פוטבאל
פוטין
פוטער
פוטש
פויבסט
פויגל
פויגלען
פויזן
פויל
פויליש
פוילישן
פוילישע
פוילישער
פוילן
פוילע
פוילקייט
פוינטס
פויסט
פויער
פויערן
פויק
פויקן
פול
פולווער
פולין
פולן
פולנאה
פולע
פולער
פולקאם
פולקאמע
פולשטענדיג
פומבדיתא
פון
פונ
פונג
פונדא
פונדאמענט
פונדאמענטאלע
פונדאמענטן
פונדאסניי
פונדאציע
פונדעסטוועגן
פונווא
פונט
פונטקליך
פונם
פונעם
פונעמ
פונק
פונקט
פונקטליך
פונקטליכע
פונקטלעך
פונקטן
פונקען
פונקציאנירט
פונקציאנירן
פונקציע
פונקציעס
פוס
פוסבאל
פוסגייער
פוסט
פוסטריט
פוסק
פוסקים
פועל
פועלי
פועלן
פופציג
פופציק
פופצן
פופצען
פוקס
פור
פורים
פורת
פושקע
פז
פח
פחד
פחדים
פט
פטור
פטירה
פטליכע
פטלעך
פטלעכע
פטמא
פטן
פטע
פטער
פטר
פי
פיא
פיאות
פיאניסט
פיאנע
פיאנער
פיאנערן
פיבער
פיגור
פיגורן
פידזשי
פידל
פידלער
פידעל
פיה
פיהל
פיהלט
פיהר
פיהרט
פיו
פיוט
פיוטים
פיזיאלאגיע
פיזיק
פיזיקער
פיזיש
פיזישע
פיזישער
פיט
פיטא
פיטאגאראס
פיטסבורג
פיטער
פיטערבארא
פיי
פייגא
פייגל
פייגע
פייגעלעך
פייוו
פייוויל
פייוויש
פייוול
פייטן
פייכט
פייכטע
פייכטקייט
פייכקייט
פייל
פיילן
פיין
פיינד
פיינט
פייניגן
פיינע
פיינעם
פיינער
פיינשטיין
פייסבוק
פייסל
פייע
פייער
פייערדיגע
פייערדיגער
פייערונג
פייערונגען
פייערט
פייערטעג
פייערן
פייפן
פייש
פיל
פילא
פילאדעלפיע
פילאזאף
פילאזאפיע
פילאט
פילאטן
פילאנטראפ
פילאסאף
פילאסאפיע
פילאסאפן
פילאפ
פילו
פילט
פיליפ
פיליפינען
פילם
פילמאגראפיע
פילמען
פילן
פילע
פילעק
פילפאכיג
פילץ
פילצאליגע
פין
פינא
פינאנץ
פינאנציעל
פינאנציעלע
פינאנציעלער
פינאנצירט
פינאנצירן
פינגער
פינחס
פינט
פינטל
פינטלעך
פינטעלע
פינטער
פינטשלי
פיניש
פינלא
פינלאנד
פינסטע
פינסטער
פינסטערניס
פינסטערניש
פינסטערע
פינסק
פינעם
פינעף
פינף
פינפט
פינפטן
פינפטע
פינפטער
פינצטער
פינצטערניש
פינצטערע
פינק
פינקטלעך
פינקטלעכע
פינקי
פינקל
פיס
פיסטאן
פיסל
פיע
פיעטרקאוו
פיעל
פיעס
פיער
פיפטע
פיץ
פיצא
פיקא
פיקאדילי
פיקטיווע
פיקטיווער
פיקס
פיקסאר
פיקציע
פיר
פיראמיד
פיראמידן
פירוד
פירוט
פירונג
פירונגען
פירוש
פירושים
פירות
פירט
פירמע
פירמעס
פירן
פירנדיג
פירנדיקע
פירנדע
פירס
פירען
פירענצע
פירער
פירערס
פירערשא
פירערשאפט
פירשט
פירשטן
פיש
פישינג
פישל
פישן
פישע
פישער
פישעריי
פל
פלא
פלאג
פלאגט
פלאגן
פלאזשע
פלאט
פלאטא
פלאטע
פלאטעס
פלאטפארמע
פלאך
פלאכן
פלאכע
פלאם
פלאמבינג
פלאמען
פלאן
פלאנדערן
פלאנט
פלאנירונג
פלאנירט
פלאנירטע
פלאנירן
פלאנעט
פלאנעטן
פלאנען
פלאנץ
פלאנצונגען
פלאנצן
פלאנק
פלאסטיק
פלאץ
פלאצירונג
פלאצירט
פלאצק
פלארידא
פלארידע
פלאש
פלה
פלוג
פלוטאן
פלוין
פלומעניק
פלוס
פלוסט
פלוצים
פלוצלונג
פלוצלינג
פלי
פליאה
פליג
פליגל
פליגלן
פליגלען
פליגן
פליגע
פליגער
פליגערס
פליט
פליטים
פלייט
פלייטס
פלייסיג
פלייער
פלייצעס
פלייש
פליישיגע
פליכט
פליכטן
פלינק
פליסט
פליסיג
פליסיגע
פליסיגקייט
פליסיקייט
פליסן
פליען
פליפארט
פליפארטן
פליפעלד
פליפעלדער
פלמ
פלע
פלעג
פלעגט
פלעגן
פלעטבוש
פלעמיש
פלענט
פלענטס
פלענער
פלעצער
פלעק
פלעשל
פלעשעל
פלעשער
פלפול
פלשתים
פן
פנ
פנחס
פני
פניו
פנים
פנימי
פנימיות
פנימער
פנעמען
פנקס
פס
פסגת
פסול
פסוק
פסוקי
פסוקים
פסח
פסחים
פסיכאלאג
פסיכאלאגיע
פסיקתא
פסל
פסעוודאנים
פסק
פסקי
פסקים
פסקענט
פע
פעברואר
פעד
פעדעם
פעדעפייל
פעדער
פעדעראלן
פעדעראלע
פעדעראלער
פעדעראציע
פעדערן
פעדרא
פעהלט
פעולה
פעולות
פעז
פעט
פעטנס
פעטע
פעטער
פעטערבורג
פעטראגראד
פעילות
פעיסבוק
פעל
פעלא
פעלד
פעלדז
פעלדמאן
פעלדער
פעלדקירך
פעלזן
פעלט
פעלים
פעליקס
פעלן
פעלער
פעלערן
פעלץ
פעלקער
פעלקערונג
פעמים
פען
פענאמען
פענאמענען
פענונג
פעני
פעניס
פעניקישער
פענס
פענסטער
פענסטערס
פענסילוועניע
פענסיע
פענע
פענעם
פענענקו
פענער
פענצטער
פעס
פעסא
פעסט
פעסטגעשטעלט
פעסטונג
פעסטונגען
פעסטיוואל
פעסטיוואלן
פעסטן
פעסטע
פעסטער
פעסטשטעלן
פעסיא
פעסיל
פעסל
פעסלעך
פעסער
פעפער
פעקל
פעקלעך
פער
פעראן
פעראנען
פערד
פערדינאנד
פערדן
פערו
פערזא
פערזאן
פערזאנען
פערזענליך
פערזענליכן
פערזענליכע
פערזענליכער
פערזענליכקייט
פערזענליכקייטן
פערזענלעך
פערזענלעכן
פערזענלעכע
פערזענלעכער
פערזענלעכקייט
פערזענלעכקייטן
פערט
פערטל
פערטן
פערטע
פערטער
פערי
פעריאד
פעריאדישער
פעריאדן
פעריאדע
פעריל
פערל
פערלאוו
פערמא
פערמענאנטע
פערסיע
פערסיש
פערסישן
פערסישע
פערסישער
פערסער
פערספעקטיוו
פערעמעטר
פערעס
פערציג
פערציק
פערצן
פערצנטן
פערצנטער
פערצען
פקודי
פקודיך
פר
פרא
פראבירט
פראבירן
פראבלעם
פראבלעמן
פראבלעמען
פראבע
פראבעס
פראג
פראגן
פראגע
פראגעס
פראגער
פראגראם
פראגראמירן
פראגראמען
פראדוצירט
פראדוצירן
פראדוצירער
פראדוקט
פראדוקטן
פראדוקטען
פראדוקציע
פראדוקציעס
פראדיל
פראדעצור
פראדעש
פראהבישטש
פראוויזארישע
פראווינץ
פראווינציאלע
פראווינצן
פראוועט
פראווען
פראזע
פראטאן
פראטאנען
פראטאקאל
פראטעין
פראטעסט
פראטעסטאנטן
פראטעסטירן
פראטעסטירער
פראטעסטן
פראטעקטאראט
פראיעקט
פראיעקטן
פראכט
פראכטפולע
פראמינענטע
פראמינענטער
פראנט
פראנטן
פראנס
פראנסיסקא
פראנץ
פראנצויזיש
פראנצויזישן
פראנצויזישע
פראנצויזישער
פראנצויזן
פראנציסקא
פראנק
פראנקפורט
פראנקפורטער
פראנקרייך
פראסט
פראסטע
פראפ
פראפאגאנדע
פראפארציאנעל
פראפארציע
פראפיט
פראפעגאנדע
פראפעסאר
פראפעסארן
פראפעסיאנאלע
פראפעסיאנעלע
פראפעסער
פראפערטי
פראצעדור
פראצעדורן
פראצענט
פראצענטן
פראצעס
פראצעסאר
פראצעסירט
פראצעסן
פראקוראר
פראקטיצירט
פראקטיצירן
פראקטיק
פראקטיש
פראקטישע
פראקלאמירט
פראקלאמירן
פראקציע
פראקציעס
פרדס
פרה
פרו
פרואוו
פרואוון
פרובירט
פרובירן
פרוג
פרוטה
פרוטות
פרוי
פרויד
פרויען
פרוכט
פרוכטן
פרום
פרומא
פרומע
פרומען
פרומער
פרומקייט
פרוש
פרושים
פרט
פרטי
פרטים
פרטית
פרי
פריאריטעט
פריד
פרידזשידער
פרידליכע
פרידלענדער
פרידמאן
פרידמן
פרידן
פרידריך
פריה
פריהע
פריהער
פריוואט
פריוואטיזירט
פריוואטן
פריוואטע
פריוואטער
פריוואטקייט
פריז
פריזן
פריי
פרייד
פריידא
פרייהייט
פרייז
פרייזן
פרייט
פרייטאג
פרייטיג
פרייטיק
פרייליך
פרייליכע
פרייליכער
פרייליכקייט
פריילעך
פריימערי
פריימעריס
פריינד
פריינט
פריינטליך
פריינטשאפט
פרייס
פרייסן
פרייע
פרייען
פרייער
פריל
פרילינג
פרימא
פרימארגן
פרינט
פרינץ
פרינציפ
פרינציפאליטעט
פרינציפן
פרינצעסין
פריסטיק
פריע
פריעד
פריעדמאן
פריער
פריערדיגן
פריערדיגע
פריערדיגער
פריערדיק
פריערדיקן
פריערדיקע
פריערדיקער
פריערט
פריץ
פרירן
פריש
פרישוואסער
פרישות
פרישטאג
פרישן
פרישע
פרישער
פרמטר
פרמטרים
פרנס
פרנסה
פרס
פרע
פרעג
פרעגט
פרעגן
פרעגען
פרעדיגן
פרעדעריק
פרעה
פרעזידענט
פרעזידענטליכע
פרעזידענטן
פרעזידענטשאפט
פרעזעס
פרעמד
פרעמדן
פרעמדע
פרעמדער
פרעמיע
פרעמיעס
פרעמיער
פרעמישלא
פרעמישלאן
פרעמישלאנער
פרענק
פרענקל
פרענקלין
פרעס
פרעסט
פרעסע
פרעפיקס
פרעש
פרעשבורג
פרעשבורגער
פרץ
פרצוף
פרצופים
פרק
פרקי
פרקים
פרשה
פרשיות
פרשיסחא
פרשת
פרת
פרײ
פשוט
פשוטה
פשוטן
פשוטע
פשוטער
פשט
פשטות
פשטים
פשיסחא
פשעווארסק
פשעווארסקער
פשעמישל
פשרה
פשרות
פת
פתח
פתחי
פײ
ץ
צ
צא
צאל
צאלט
צאלן
צאם
צאמגעשטעלט
צאמשטעלן
צאן
צאנז
צאנזער
צאר
צארן
צאת
צב
צבא
צבור
צבי
צביה
צג
צד
צדדים
צדוק
צדוקים
צדיק
צדיקי
צדיקים
צדק
צדקה
צדקות
צדקיהו
צדקנו
צה
צהל
צו
צואה
צובאקומען
צוביסלעך
צובראכן
צובראכענע
צוברעכט
צוברעכן
צוברענגען
צוג
צוגא
צוגאב
צוגאנג
צוגיין
צוגלייך
צוגן
צוגעבונדן
צוגעבינדן
צוגעבן
צוגעברענגט
צוגעגא
צוגעגאנגען
צוגעגעבן
צוגעגרייט
צוגעדעקט
צוגעהאלפן
צוגעהערט
צוגעהערן
צוגעוואוינט
צוגעזא
צוגעזאגט
צוגעזען
צוגעטיילט
צוגעטרא
צוגעלא
צוגעלאזט
צוגעלייגט
צוגעמאכט
צוגענומען
צוגעפ
צוגעפא
צוגעפאסט
צוגעצויגן
צוגעקומען
צוגעקוקט
צוגערעדט
צוגעשטא
צוגעשטימט
צוגעשטעלט
צוגעשיקט
צוגעשלא
צוגעשריבן
צוגרייטונג
צוגרייטן
צודעק
צודעקן
צוה
צוהא
צוהעלפן
צוהערן
צוהערער
צווא
צוואה
צוואנג
צוואנגס
צוואנציג
צוואנציגסטן
צוואנציגסטער
צוואנציגער
צוואנציק
צווי
צוויבל
צוויטע
צוויטער
צוויי
צווייג
צווייגן
צווייגענהאפט
צווייט
צווייטן
צווייטנס
צווייטע
צווייטען
צווייטענס
צווייטער
צווילינג
צווינגט
צווינגן
צווינגען
צווישן
צווישנ
צווישנשטעט
צווישנשייד
צווישע
צווישען
צוועלף
צוועלפטן
צוועלפטער
צוועק
צוועקן
צוות
צוזא
צוזאג
צוזאגן
צוזאם
צוזאמגענומען
צוזאמגעשטעלט
צוזאמן
צוזאמען
צוזאמענארבעט
צוזאמענגענומען
צוזאמענגעפאלן
צוזאמענגעקומען
צוזאמענגעשטעלט
צוזאמענהאנג
צוזאמענפאל
צוזאמענפלוס
צוזאמענשטעל
צוזאמענשטעלן
צוזאמשטעל
צוזען
צוזעענדיק
צוזעצליכע
צוטא
צוטאג
צוטאגס
צוטאן
צוטיילט
צוטיילן
צוטרוי
צוטריט
צוטרעטן
צויבער
צויי
צוים
צוימען
צולא
צולאזן
צוליב
צוליבן
צולייגן
צוליעב
צולעצט
צום
צומ
צומא
צומאכן
צומאל
צומאלן
צומארגנס
צומארגענס
צומישט
צונא
צונאכט
צונאכטס
צונאמי
צונאמען
צונג
צונגען
צונד
צונויף
צונויפ
צונויפגעשטעלט
צוניץ
צונעמען
צונױפ
צוערשט
צופ
צופא
צופאל
צופארן
צופיל
צופיס
צופעליק
צופרי
צופרידן
צופרידנהייט
צוצוגרייטן
צוצוקומען
צוצושטעלן
צוציען
צוקא
צוקומען
צוקונפ
צוקונפט
צוקונפטיגער
צוקוקן
צוקוקער
צוקלאפט
צוקער
צוקערמאן
צור
צורה
צוריסן
צוריק
צוריקגיין
צוריקגעבן
צוריקגעגאנגען
צוריקגעגעבן
צוריקגעהאלטן
צוריקגעפארן
צוריקגעצויגן
צוריקגעקומען
צוריקגעקערט
צוריקגעשטעלט
צוריקגעשיקט
צוריקדרייען
צוריקהאלטן
צוריקומען
צוריקנעמען
צוריקצוהאלטן
צוריקציען
צוריקקומען
צוריקקער
צוריקקערן
צוריקשטעלן
צורירן
צורעדן
צורת
צושויער
צושטא
צושטאנד
צושטיין
צושטימונג
צושטעלן
צושטערט
צושטערן
צושיקן
צושלא
צושפ
צושפרייט
צושפרייטן
צז
צח
צט
צטע
צי
ציא
ציאונג
ציאונגען
ציאנא
ציבור
ציבעלע
ציג
ציגא
ציגארעטל
ציגארעטן
ציגיינער
ציגל
ציגלען
ציגלער
ציגן
צידון
ציהט
ציהל
ציוויליזאציע
ציוויליזאציעס
ציווילע
ציווילער
ציון
ציונ
ציונות
ציוני
ציוניזם
ציונים
ציוניסט
ציוניסטישן
ציוניסטישע
ציוניסטישער
ציוניסטן
ציור
ציט
ציטא
ציטוט
ציטירט
ציטירן
ציטער
ציטערט
ציטערן
ציטערניש
ציטרוס
ציי
צייגט
צייגן
צייט
צייטווארט
צייטווייליג
צייטווייליגע
צייטווייליגער
צייטווערטער
צייטונג
צייטונגן
צייטונגען
צייטלין
צייטן
צייטע
צייטען
צייטשריפט
צייטשריפטן
צייכן
צייכנט
צייכנס
צייכענונג
צייכענונגען
צייכענט
צייכענען
ציילונג
ציילט
ציילן
ציין
ציינער
ציל
צילום
צילט
צילינדער
צילן
צים
צימבלען
צימעס
צימער
צימערל
צימערמאן
צימערן
צימצום
צין
צינד
צינדט
צינדן
צינק
ציס
ציע
ציעט
ציען
ציעס
ציעשינאוו
ציפ
ציפורה
ציפורי
ציפער
ציפערן
ציץ
ציצית
ציק
ציקל
ציקליין
ציר
צירונג
צירוף
צירט
ציריך
צירל
צירן
צירקולאציע
צירקולירט
צירקולירן
צירקע
צישע
צישער
צל
צלם
צמח
צן
צניעות
צע
צעביסלעך
צעברא
צעבראכן
צעבראכענע
צעברעכט
צעברעכן
צעגא
צעגייט
צעגיין
צעדערבוים
צעדערן
צעהא
צעהלים
צעהן
צעווא
צעווארפן
צעוויינט
צעטאן
צעטומלט
צעטיילונג
צעטיילט
צעטיילן
צעטל
צעטלעך
צעטלען
צעטרא
צעטרעטן
צעך
צעל
צעלא
צעלאזט
צעלזיוס
צעלן
צעלסיוס
צעמישט
צעמענט
צען
צענדליגע
צענדליגער
צענדליקע
צענדליקער
צענזוס
צענזור
צענזורירן
צענט
צענטל
צענטן
צענטע
צענטער
צענטערן
צענטערס
צענטרא
צענטראל
צענטראלבאנק
צענטראלן
צענטראלע
צענטראלער
צענטרום
צעס
צעפ
צעפאלן
צער
צעריסן
צערעמא
צערעמאניע
צערעמאניעס
צערעס
צעשטערונג
צעשטערט
צעשטערן
צעשטערערישקייט
צעשיידט
צעשיידן
צעשיקונג
צעשפ
צעשפאלטן
צעשפרייט
צעשפרייטן
צפ
צפו
צפון
צפונדיק
צפונדיקן
צפונדיקע
צפונדיקער
צפורה
צפנת
צפת
צקא
צקע
צר
צרה
צרו
צרות
צריך
צרים
צװא
צװו
צװישן
צװעלף
צװײ
צװײטן
צװײטער
צײ
צײט
צײכן
צײכנס
צײן
ק
קא
קאאליציע
קאאפעראציע
קאארדינאטן
קאבינע
קאבינעט
קאבל
קאברין
קאברינער
קאד
קאדענץ
קאהל
קאהן
קאוד
קאודס
קאוויד
קאוונע
קאוונער
קאווע
קאווקאז
קאונטי
קאונטיס
קאונסיל
קאזאכסטאן
קאזאן
קאזאקן
קאזמיר
קאזשניץ
קאזשניצער
קאטאלאניע
קאטאליקן
קאטאסטראפע
קאטאסטראפעס
קאטאר
קאטוילישע
קאטוילישער
קאטלער
קאטעגאריע
קאטעגאריעס
קאידא
קאידע
קאירא
קאך
קאכט
קאכן
קאל
קאלאמבוס
קאלאמביע
קאלאמיי
קאלאמייע
קאלאניזאציע
קאלאניסטן
קאלאניע
קאלאניעס
קאלאראדא
קאלאריס
קאלאשיץ
קאלבאסאוו
קאלוב
קאלום
קאלומבוס
קאלומביע
קאלומניסט
קאלוש
קאלט
קאלטן
קאלטע
קאלטער
קאליום
קאלין
קאלינג
קאליסטאו
קאליע
קאליפארניע
קאליר
קאלירט
קאלירטע
קאלירן
קאליש
קאלס
קאלע
קאלעדזש
קאלעוו
קאלעווער
קאלעזש
קאלענדאר
קאלענדארן
קאלענדער
קאלעקציע
קאלציום
קאלקולוס
קאם
קאמא
קאמאן
קאמאנד
קאמאנדא
קאמאנדיר
קאמאנוועלט
קאמאנס
קאמארנא
קאמבאדיע
קאמבאט
קאמבינאציע
קאמדן
קאמוניזם
קאמוניסט
קאמוניסטיש
קאמוניסטישן
קאמוניסטישע
קאמוניסטישער
קאמוניסטן
קאמוניקאציע
קאמיוניטי
קאמיוניקאציע
קאמיוניקירן
קאמיונעטי
קאמיטע
קאמיטעט
קאמיל
קאמינעצקי
קאמינקא
קאמיסיע
קאמיקס
קאמיקער
קאמישע
קאמישער
קאמעדיע
קאמעניץ
קאמער
קאמעראן
קאמעראס
קאמערון
קאמערן
קאמערע
קאמערעס
קאמערץ
קאמערציאלע
קאמף
קאמפ
קאמפאוסטינג
קאמפאזיטאר
קאמפאזיטארן
קאמפאזיציע
קאמפאזיציעס
קאמפאזירט
קאמפאני
קאמפאניס
קאמפאנענטן
קאמפוס
קאמפיוטער
קאמפיוטעריי
קאמפיוטערס
קאמפיין
קאמפיינען
קאמפליצירט
קאמפליצירטע
קאמפלעט
קאמפלעקס
קאמפלעקסע
קאמפן
קאמפס
קאמפענסאציע
קאמפף
קאמפקונסט
קאן
קאנאדא
קאנאדישע
קאנאדישער
קאנאדע
קאנאדער
קאנאל
קאנאלן
קאנאן
קאנג
קאנגא
קאנגרעס
קאנגרעסלייט
קאנגרעסמאן
קאנדידאט
קאנדידאטן
קאנדידירט
קאנדידירן
קאנווענשאן
קאנווענשאנס
קאנט
קאנטאקט
קאנטינענט
קאנטינענטן
קאנטיס
קאנטע
קאנטעקסט
קאנטער
קאנטערטעראריזם
קאנטראווערסיאלע
קאנטראווערסיע
קאנטראווערסיעס
קאנטראל
קאנטראלירט
קאנטראלירן
קאנטראסט
קאנטראצעפטציע
קאנטראקט
קאנטראקטן
קאנטרי
קאני
קאניאק
קאניוגאציעס
קאנינג
קאניעווסקי
קאנסאל
קאנסאלן
קאנסאנאנט
קאנסאנאנטן
קאנסול
קאנסומער
קאנסטאנטין
קאנסטיטוציאנאלע
קאנסטיטוציע
קאנסטרוקציע
קאנסענסוס
קאנסעפסיאן
קאנסערוואטיוו
קאנסערוואטיוון
קאנסערוואטיווע
קאנסערוואטיווער
קאנסערוועטיוו
קאנסערוועטיווער
קאנספיראציע
קאנעטיקוט
קאנעטיקעט
קאנען
קאנעקט
קאנער
קאנערי
קאנפארענץ
קאנפליקט
קאנפליקטן
קאנפעדעראציע
קאנפערענץ
קאנפערענצן
קאנצלער
קאנצעטרירט
קאנצעטרירן
קאנצענטראציע
קאנצענטרירט
קאנצעסיע
קאנצעסיעס
קאנצעפט
קאנצערט
קאנצערטן
קאנקורירן
קאנקורענט
קאנקורענץ
קאסאוו
קאסאווער
קאסאן
קאסאנער
קאסט
קאסטא
קאסטומס
קאסטומער
קאסטומערס
קאסטיליע
קאסטן
קאסטנער
קאסטקא
קאסטרא
קאסינאס
קאסינוס
קאסמאס
קאסע
קאסעוויצקי
קאסעטע
קאסעטעס
קאפ
קאפי
קאפיטאל
קאפיטאליזם
קאפיטאליסטישע
קאפיטאן
קאפיטולירט
קאפיטל
קאפיטלאך
קאפיטלעך
קאפיטלען
קאפיל
קאפיס
קאפיעס
קאפירט
קאפירן
קאפירעכט
קאפל
קאפלאן
קאפלמאן
קאפע
קאפעין
קאפעליע
קאפעלע
קאפערניק
קאפף
קאץ
קאצעט
קאצק
קאצקער
קאקאא
קאקטיילס
קאקטעיל
קאקפאסטערס
קאר
קאראטשי
קאראל
קאראליינע
קאראנאווירוס
קארבאהידראטן
קארבאן
קארבן
קארגא
קארגע
קארגער
קארד
קארדאבע
קארדיף
קארדס
קארו
קארופציע
קארט
קארטא
קארטאפל
קארטל
קארטלעך
קארטן
קארטע
קארטעס
קארטער
קארטשין
קארידאר
קאריסטשאוו
קאריערע
קאריץ
קאריצער
קארל
קארליבאך
קארלין
קארלינער
קארליק
קארלסבורג
קארן
קארנוואל
קארניצער
קארנער
קארס
קארסאן
קארעא
קארעליץ
קארעע
קארפאטארוס
קארפאטן
קארפאראציע
קאשוי
קאשויער
קאשע
קב
קבוצה
קבורה
קביעות
קבלה
קבלת
קבצן
קבצנים
קבר
קברי
קברים
קג
קגע
קד
קדוש
קדושה
קדושות
קדושים
קדושת
קדימה
קדיש
קדישא
קדמון
קדש
קדשו
קדשי
קדשים
קדשך
קדשנו
קה
קהא
קהילה
קהילות
קהילת
קהל
קהלה
קהלות
קהלת
קו
קוא
קואווייט
קוב
קובא
קובי
קובע
קובץ
קובר
קוגל
קוגעלעך
קודם
קודש
קודשא
קוה
קווא
קוואדראט
קוואדראטישע
קוואל
קוואליטעט
קוואלן
קוואלשפראך
קוואנטום
קוואנטיטעט
קוואנטיטעטן
קוואנטן
קווארטאל
קווארטין
קווארטיר
קווארטל
קוויבעק
קוויבעקער
קוויטל
קוויטלעך
קוויטקא
קווין
קווינס
קוועטש
קוועטשט
קוועטשן
קוועלער
קוועקזילבער
קוזא
קוזין
קוזינע
קויל
קוילן
קוילנשטאף
קוים
קוימען
קויפ
קויפט
קויפמאן
קויפן
קויפען
קויפער
קוישל
קוכן
קול
קולא
קולות
קולטור
קולטוראלע
קולטורן
קולטורעלע
קולטורעלער
קולטיווירט
קולטעט
קום
קומה
קומזיץ
קומט
קומין
קוממיות
קומן
קומסט
קומסטו
קומען
קומענ
קומענדיג
קומענדיגן
קומענדיגע
קומענדיק
קומענדיקע
קומענדיקער
קומענט
קומענטן
קומער
קונדן
קונה
קונטרס
קונטרסים
קונים
קונסט
קונסטן
קונץ
קונצן
קוס
קופ
קופער
קופערנע
קוק
קוקורוזע
קוקט
קוקן
קוקנדיג
קוקנדיק
קוקען
קורא
קוראזש
קוראזשירן
קורבן
קורדיש
קורדן
קורט
קורלא
קורלענדער
קורס
קורסן
קורץ
קורצן
קורצע
קורצער
קוש
קושטא
קושן
קושנער
קז
קזא
קח
קט
קטא
קטאר
קטגוריה
קטו
קטוירים
קטורת
קטיא
קטיוו
קטיוויטעטן
קטיף
קטיק
קטירן
קטיש
קטלא
קטן
קטנה
קטנות
קטניות
קטע
קטער
קטריסע
קי
קיא
קיאטא
קיבוץ
קיבוצים
קיגל
קיד
קידוש
קידושין
קיו
קיוויאשד
קיוויאשדער
קיום
קיח
קיט
קיטוב
קיטל
קיי
קייאמישע
קייזער
קייט
קייטל
קייטן
קיילעך
קיין
קיינ
קיינמא
קיינמאהל
קיינמאל
קיינע
קיינעם
קיינעמס
קיינער
קייסער
קייסעריש
קיירא
קיך
קיכל
קיכן
קיל
קילא
קילאגראם
קילאמעטער
קילן
קילער
קים
קימערן
קין
קינא
קינאה
קינג
קינגן
קינגס
קינגסטאן
קינד
קינדהייט
קינדווייז
קינדליין
קינדס
קינדע
קינדער
קינדערגארטן
קינדערהיים
קינדערישע
קינדערלעך
קינדערס
קינדערשע
קינות
קיניג
קיניגל
קיניגן
קיניגרײ
קינן
קינס
קינסטלעכע
קינסטלער
קינסטלערישע
קינסטלערישער
קינסטלערס
קיסקא
קיסר
קיסרים
קיעוו
קיעווער
קיץ
קיצור
קירא
קירוב
קירט
קירי
קירך
קירכע
קירכעס
קירצער
קישור
קישן
קישקע
קישקעס
קכ
קל
קלא
קלאב
קלאגט
קלאגן
קלאגע
קלאגעס
קלאמערן
קלאנג
קלאנגען
קלאס
קלאסיפיקאציע
קלאסישע
קלאסישער
קלאסן
קלאפ
קלאפהאם
קלאפט
קלאפן
קלאר
קלארא
קלארן
קלארע
קלארער
קלארק
קלארקייט
קלו
קלוב
קלוג
קלוגן
קלוגע
קלוגער
קלוגשא
קלוגשאפט
קלויבט
קלויבן
קלויז
קלויזנבורג
קלויזנבורגער
קלויזענבורג
קלויזענבורגער
קלויסטער
קלונימוס
קלט
קלי
קליגער
קליוולאנד
קלייבט
קלייבן
קלייד
קליידונג
קליידע
קליידער
קלייט
קלייטן
קליין
קליינווארדיין
קלייניגקייט
קלייניקייט
קלייניקייטן
קליינמאן
קליינע
קליינעם
קליינער
קלימא
קלימאט
קלימאטן
קלימאקס
קלינגט
קלינגען
קלינטאן
קליענט
קליענטן
קליפ
קליפס
קליקט
קללה
קללות
קלמן
קלע
קלעזמער
קלעם
קלען
קלענסטן
קלענסטע
קלענסטער
קלענער
קלענערן
קלענערע
קלענערער
קלעפ
קלעצער
קלעצקין
קלער
קלערט
קלערן
קלײ
קלײד
קלײדער
קלײן
קלײנע
קמ
קמא
קמה
קמח
קמץ
קן
קנ
קנא
קנאבל
קנאה
קנאות
קנאי
קנאים
קנאפ
קנאפע
קנה
קנופ
קנז
קנט
קני
קניא
קניה
קנייטשן
קנין
קניען
קניפ
קניפן
קנס
קנע
קנעכט
קנעכטשאפט
קנעפ
קנעפל
קנעפלעך
קס
קסא
קסט
קסישע
קסל
קסלען
קסן
קסס
קסע
קסעלרא
קסענע
קע
קעא
קעגן
קעגנאיבער
קעגנגעשטעלט
קעגנווא
קעגנזאץ
קעגנער
קעגנערס
קעגנערשאפט
קעגנשטעל
קעגנשטעלן
קעגען
קעגענער
קעז
קעט
קעטסקיל
קעטסקילס
קעי
קעיס
קעיפינג
קעיר
קעל
קעלבל
קעלבער
קעלווין
קעלט
קעלטער
קעלי
קעלם
קעלן
קעלער
קעלץ
קעמברידזש
קעמברידזשיר
קעמל
קעמלען
קעמערלעך
קעמפ
קעמפט
קעמפן
קעמפס
קעמפער
קען
קענ
קענזינגטאן
קענט
קענטאקי
קענטעניש
קענטענישן
קעניג
קעניגין
קעניגליכע
קעניגלעכן
קעניגלעכע
קעניגלעכער
קעניגן
קעניגס
קעניגסבערג
קעניגרייך
קעניגרייכן
קעניע
קענן
קענסט
קענסטו
קענסער
קענע
קענעדי
קענעדיען
קענען
קענענ
קענענדיג
קענער
קעס
קעסט
קעסטל
קעסטלעך
קעסל
קעפ
קעפל
קעפלעך
קעפלער
קעץ
קעצעלע
קער
קערא
קערט
קערי
קערל
קערלער
קערן
קערנדל
קערנדלעך
קערנפיזיק
קערעסטיר
קערעסטירער
קערפ
קערפער
קערפערס
קערפערשאפט
קעש
קעשענע
קעשענעוו
קעשענעס
קפ
קץ
קצב
קצבים
קצות
קציע
קציעס
קציר
קר
קרא
קראאטיע
קראאטיש
קראון
קראים
קראך
קראכט
קראלי
קראמאטי
קראמוועל
קראן
קראנטע
קראנק
קראנקהייט
קראנקהייטן
קראנקייט
קראנקייטן
קראנקע
קראנקען
קראנקער
קראס
קראפ
קראפט
קראפטן
קראצער
קראקא
קראקע
קראקעווער
קרב
קרבן
קרבנות
קרו
קרוב
קרובים
קרוג
קרוז
קרוידן
קרויז
קרוין
קרוינהייטס
קרוינען
קרויס
קרום
קרומע
קרח
קרחה
קרי
קריאה
קריאת
קריג
קריגט
קריגל
קריגן
קריגס
קריגען
קריגעריי
קריגערייען
קריגערישע
קריה
קריות
קריזיס
קריטיק
קריטיקירט
קריטיקירן
קריטיקירער
קריטיקער
קריטיש
קריטישע
קרייז
קרייזן
קרייזער
קריינצי
קרייסלער
קרייץ
קרייצבאן
קרייצוג
קרייצוגלער
קרייצצוג
קריית
קריכט
קריכן
קרים
קרימינאלן
קרימינאלע
קרימער
קריס
קריסט
קריסטא
קריסטאל
קריסטאפער
קריסטי
קריסטיאן
קריסטליכע
קריסטליכער
קריסטלעכע
קריסטלעכער
קריסטן
קריסטנטום
קריסטען
קריעה
קריעת
קריפ
קריצן
קרית
קרן
קרעדיט
קרעדיטארס
קרעטשמע
קרעטשמער
קרעטשניף
קרעטשענעוו
קרעטשענעווער
קרעכץ
קרעכצן
קרעמניץ
קרעמער
קרענק
קרעסאן
קרעפ
קרעפט
קרעפטן
קרתא
קרױן
קרײ
קשא
קשאנאוו
קשאנאווער
קשה
קשות
קשיא
קשיה
קשיות
קשר
קשרים
קװא
קױפ
קײ
קײטן
קײן
קײנער
ר
רא
ראב
ראבאט
ראבאטן
ראביי
ראבייס
ראבין
ראבינאוויטש
ראבינאט
ראבינער
ראבערט
ראג
ראד
ראדאמישל
ראדאמסק
ראדאמסקער
ראדאשיץ
ראדוויל
ראדזין
ראדזינער
ראדזשער
ראדיא
ראדיאאקטיוויטעט
ראדיאו
ראדיאציע
ראדיוס
ראדין
ראדיקאלע
ראדני
ראדערפארד
ראה
ראו
ראובן
ראוד
ראודס
ראוויץ
ראוונע
ראוי
ראויס
ראומרײניקט
ראזאף
ראזוואדאוו
ראזוואדאווער
ראזלא
ראזנבוים
ראזנבלאט
ראזנבערג
ראזנפעלד
ראזע
ראזענבוים
ראזענבלאט
ראזענבלום
ראזענבערג
ראזענפעלד
ראזשינקעס
ראזשישטש
ראט
ראטאציע
ראטגעבער
ראטה
ראטהויז
ראטזאם
ראטטענבערג
ראטן
ראטנבערג
ראטנפארבאנד
ראטע
ראטעוועט
ראטעווען
ראטענבערג
ראטעס
ראטערדאם
ראטשילד
ראי
ראיאט
ראיאטן
ראיאן
ראיאנען
ראיאנראט
ראיה
ראיות
ראייניגטע
ראייניקטע
ראינטערעסירט
ראיעל
ראך
ראכט
ראל
ראלי
ראלע
ראלעס
ראם
ראמא
ראמאן
ראמאנטישע
ראמאניסט
ראמאניסטן
ראמאנען
ראמאעלד
ראמידיוס
ראמעל
ראמען
ראמעניע
ראן
ראנאלד
ראנג
ראנד
ראס
ראסיזם
ראסיסטישע
ראסע
ראפ
ראפאפארט
ראפשיץ
ראפשיצער
ראציאנאלע
ראצפערט
ראק
ראקי
ראקלענד
ראקעט
ראקעטן
ראש
ראשון
ראשונה
ראשונים
ראשי
ראשית
ראשקאוו
ראײניקטע
רב
רבא
רבה
רבו
רבונדן
רבונו
רבות
רבותי
רבותינו
רבט
רבי
רביה
רביטן
רביי
רביים
רבים
רבין
רבינ
רבינדונג
רבינדונגען
רבינדן
רבינו
רבינס
רביס
רביסטעווע
רביצין
רבלא
רבליבן
רבלייבן
רבן
רבנו
רבנות
רבני
רבנים
רבנישע
רבנישער
רבנן
רבס
רבסט
רבע
רבעט
רבעטן
רבעטער
רבענע
רבעס
רבעסערן
רבער
רבקה
רברא
רברעך
רברעכן
רברעכנס
רברעכער
רברענגען
רברענט
רברענען
רבש
רבתי
רבײ
רג
רגא
רגום
רגט
רגייט
רגינען
רגל
רגלי
רגליווערט
רגלים
רגלײ
רגן
רגנ
רגנס
רגע
רגעבן
רגעזעצט
רגעים
רגעלייגט
רגעניגן
רגעניש
רגענע
רגעס
רגעסט
רגעסן
רגעקומען
רגער
רגעשטעלט
רגריווס
רגרינגערן
רגײט
רד
רדא
רדזש
רדיגע
רדינט
רדינסט
רדינסטן
רדינען
רדיפות
רדירט
רדן
רדנט
רדס
רדע
רדעט
רדען
רדענונג
רדעקט
רדעקן
רדער
רדרא
רדרוס
רדרייט
רה
רהא
רהונדערט
רהם
רהמען
רהן
רהע
רהױלן
רו
רואה
רואווט
רואוון
רואיג
רואיגע
רואיק
רואיקן
רוב
רובא
רובאשקין
רובו
רובט
רוביא
רובין
רובינשטיין
רובירט
רובירן
רובל
רובעל
רודאלף
רודי
רודניק
רודניקער
רודער
רודף
רודפ
רוה
רוהט
רוהיג
רוהר
רווא
רוואונדערט
רוואנדע
רווו
רווחים
רוויי
רווע
רווערטס
רוז
רוזעוועלט
רוזשין
רוזשינער
רוח
רוחב
רוחות
רוחמה
רוחני
רוחניות
רוט
רוטע
רוטעס
רוי
רויב
רויבן
רויבער
רויבעריי
רויז
רויזא
רויזי
רויזן
רויט
רויטמאן
רויטן
רויטע
רויטער
רויטערס
רויך
רויכערן
רויכערער
רוים
רוימישן
רוימישע
רוימישער
רוימען
רוימער
רויס
רויסבא
רויסברענגען
רויסגיין
רויסגע
רויסגעבן
רויסגעבער
רויסגעברא
רויסגעגא
רויסגעגעבן
רויסגעווא
רויסגעוויזן
רויסגעזא
רויסגעזען
רויסגעטרא
רויסגעלא
רויסגענומען
רויסגעפ
רויסגעקומען
רויסגעקוקט
רויסגערופ
רויסגערופן
רויסגעריסן
רויסגערעדט
רויסווא
רויסזא
רויסלא
רויספ
רויסקומען
רויסרופן
רויע
רויען
רויף
רויפ
רוירן
רוירענע
רוך
רוכט
רוכפ
רוכת
רום
רומא
רומגעגא
רומגענומען
רומגערינגלט
רומז
רומיקע
רוממה
רומע
רומען
רומעניע
רומעניש
רומענישן
רומענישע
רומער
רומפא
רון
רונג
רונגען
רונד
רונדל
רונדע
רונטער
רוני
רוס
רוסא
רוסיש
רוסישן
רוסישע
רוסישער
רוסלא
רוסלאנד
רוסלענדישע
רוסלענדישער
רוסן
רועה
רועים
רוען
רוף
רופ
רופא
רופט
רופן
רופען
רוצה
רוצח
רוצחים
רוק
רוקח
רוקט
רוקן
רוש
רושם
רות
רז
רזא
רזיכערט
רזיכערן
רזינדיקט
רזיצער
רזע
רזעצט
רזעצן
רח
רחבעם
רחוב
רחובות
רחום
רחוקים
רחל
רחלען
רחם
רחמה
רחמים
רחמיסטריווקא
רחמיסטריווקער
רחמנא
רחמנות
רט
רטא
רטי
רטיג
רטיזא
רטיי
רטיליקט
רטיליקן
רטים
רטיק
רטיקל
רטיקלען
רטיקן
רטיקע
רטיקער
רטיקײט
רטיר
רטל
רטלעך
רטן
רטע
רטער
רטקע
רטרא
רטריב
רטריבן
רטריבענע
רטריקנט
רטרעט
רטרעטן
רטרעטער
רטרײ
רטײ
רי
ריא
ריאל
ריב
ריבאטוטש
ריבית
ריבענטראפ
ריבער
ריבערגעגא
ריבערגעשפ
ריבערגײן
ריגא
ריגינא
ריגינעל
ריגלען
ריגע
ריד
רידא
רידן
ריוו
ריווא
ריווח
ריווילעגיע
ריוולין
ריווע
ריווען
ריווענדעלל
ריווער
ריווערדעיל
ריופ
ריז
ריזא
ריזיג
ריזיגן
ריזיגע
ריזיגער
ריזינער
ריזיקע
ריזן
ריזער
ריח
ריחות
ריטעט
ריטעיל
ריטער
ריטש
ריטשא
ריטשארד
ריטשמאנד
ריי
רייבן
רייבערייען
רייגען
רייד
ריידינג
ריידן
ריידען
רייז
רייזיל
רייזל
רייזן
רייזע
רייזען
רייזעס
רייט
רייטונג
רייטן
רייטע
רייטער
רייך
רייכטום
רייכן
רייכסגעלט
רייכסטא
רייכסטאג
רייכסטע
רייכסטער
רייכע
רייכער
רייכערן
רייכקייט
ריילעך
ריין
ריינ
ריינגא
ריינגט
ריינגיין
ריינגע
ריינגעברא
ריינגעגא
ריינגעוואשן
ריינגעטרא
ריינגעלא
ריינגעלייגט
ריינגען
ריינגעפא
ריינגעקומען
ריינגעקוקט
ריינגערעכנט
ריינגעשטעלט
ריינהאם
ריינהארט
רייניגט
רייניגן
רייניקטע
רייניקן
ריינלא
ריינמאן
ריינע
ריינעם
ריינער
ריינקומען
ריינקוקן
ריינקייט
ריינשטעלן
רייס
רייסט
רייסליפ
רייסן
רייע
רייען
רייף
רייפן
רייץ
רייצא
רייצן
ריישא
ריישע
ריכארד
ריכווא
ריכווערטער
ריכט
ריכטונג
ריכטונגען
ריכטיג
ריכטיגן
ריכטיגע
ריכטיגער
ריכטיק
ריכטיקן
ריכטיקע
ריכטיקער
ריכטן
ריכטער
ריל
ריליא
רילינג
רים
רימ
רימא
רימאן
רימאנאוו
רימונג
רימט
רימטע
רימטער
רימע
רימען
רימער
רין
רינא
רינג
רינגל
רינגלט
רינגלען
רינגס
רינגען
רינדער
רינט
רינען
רינץ
רינציפ
רינצעסין
ריס
ריסט
ריסטא
ריסטן
ריסטער
ריסע
ריע
ריעל
ריעס
ריער
ריערדיקע
ריערע
ריף
ריפ
ריפן
ריץ
ריצים
ריק
ריקא
ריקי
ריקל
ריקן
ריקע
ריקער
ריקצוג
ריר
רירט
רירן
ריש
רישיון
רישן
רישע
רישער
רישקי
רישקייט
רך
רכ
רכא
רכט
רכטיגקייט
רכטיק
רכטיקייט
רכטיקע
רכטן
רכיוו
רכילות
רכן
רל
רלא
רלוירן
רלי
רליבט
רלייגן
רלירט
רלירן
רלס
רלענגערן
רלענדט
רלענדן
רם
רמ
רמא
רמב
רמון
רמות
רמז
רמזים
רמח
רמי
רמיטל
רמיטלס
רמיטן
רמיי
רמלה
רמע
רמעג
רמעגלעכע
רמעגן
רמען
רמת
רמײ
רן
רנ
רנא
רנומען
רנט
רניט
רנישט
רנס
רנסה
רנע
רנעם
רנעמט
רנעמען
רס
רסא
רע
רעא
רעאגירט
רעאגירן
רעאישע
רעאליטעט
רעאלע
רעאקציע
רעאקציעס
רעב
רעביס
רעביסטעווע
רעביצין
רעביצען
רעבעלן
רעבעצין
רעג
רעגולאציעס
רעגולירט
רעגולירן
רעגולער
רעגולערע
רעגט
רעגיא
רעגיי
רעגימענט
רעגיסטרירט
רעגירונג
רעגירונגן
רעגירונגס
רעגירונגען
רעגירט
רעגירן
רעגירער
רעגן
רעגנבויגן
רעגנט
רעגנס
רעגענט
רעגענען
רעד
רעדא
רעדאגירט
רעדאקטאר
רעדאקטארן
רעדאקטירונג
רעדאקטירט
רעדאקטירן
רעדאקטירער
רעדאקטער
רעדאקציע
רעדברידזש
רעדוצירט
רעדוצירן
רעדוקציע
רעדט
רעדינג
רעדל
רעדלעך
רעדן
רעדנדיגע
רעדנדיקע
רעדנדע
רעדנער
רעדנערס
רעדסט
רעדסטו
רעדע
רעדען
רעדעס
רעדער
רעדערס
רעה
רעהן
רעהס
רעוא
רעווא
רעוואלוציאנער
רעוואלוציאנערן
רעוואלוציע
רעוואלט
רעוואלטירן
רעוויאו
רעוועט
רעות
רעזא
רעזאלוציע
רעזארט
רעזולטא
רעזולטאט
רעזולטאטן
רעזומע
רעזיגנאציע
רעזיגנירט
רעזיגנירן
רעזידענט
רעזעגנירט
רעזענטירט
רעזערוו
רעזערוואר
רעזערוון
רעזשים
רעזשימען
רעזשיסאר
רעזשיסארן
רעזשיסירט
רעט
רעטונג
רעטונגס
רעטינע
רעטעניש
רעי
רעיא
רעיון
רעיונות
רעילראוד
רעים
רעך
רעכט
רעכטן
רעכטס
רעכטע
רעכטער
רעכטפ
רעכיל
רעכן
רעכנט
רעכנען
רעכענונג
רעכענט
רעכענען
רעלאטיוו
רעלאטיוויטעט
רעליגיע
רעליגיעז
רעליגיעזן
רעליגיעזע
רעליגיעזער
רעליגיעס
רעלסן
רעם
רעמ
רעמא
רעמד
רעמדן
רעמדע
רעמדער
רעמט
רעמיע
רעמיער
רעמס
רעמע
רעמעדי
רעמעלייט
רעמען
רעמער
רעמקייט
רען
רענדא
רענדיקט
רענדיקן
רענדעל
רענט
רענטגען
רענטפ
רענטפערט
רעננה
רענע
רענען
רענעסאנס
רענער
רעס
רעסורסן
רעסט
רעסטא
רעסטאראן
רעסטוראנט
רעסטוראנטן
רעסטירט
רעסייקלינג
רעסן
רעסע
רעסעסיע
רעספ
רעספעקט
רעפ
רעפא
רעפארט
רעפארטער
רעפארם
רעפארמירט
רעפארמען
רעפארמער
רעפובליק
רעפובליקאנער
רעפובליקן
רעפוטאציע
רעפנטלעכט
רעפערענדום
רעפערענץ
רעפערענצן
רעפערענצען
רעפראדוקציע
רעפרעזענטיוון
רעפרעזענטירט
רעפרעזענטירן
רעפרענצען
רעצעפט
רעצעפטן
רעקא
רעקאמענדירט
רעקאמענדירן
רעקארד
רעקארדירונג
רעקארדירונגען
רעקארדירט
רעקארדירן
רעקארדירער
רעקארדס
רעקל
רעקלא
רעקלאמעס
רער
רערלעך
רערן
רעש
רעשט
רעשטלעך
רף
רפ
רפא
רפאל
רפו
רפואה
רפואות
רפט
רפירט
רפירן
רפן
רפע
רץ
רצ
רצא
רצה
רצו
רצוא
רצון
רציחה
רציחות
רצייכנט
רציק
רציקע
רצל
רצלען
רצן
רצע
רצער
רצערט
רצערן
רצײ
רק
רקא
רקויף
רקויפ
רקויפט
רקויפן
רקומען
רקט
רקייט
רקיש
רקישן
רקלע
רקן
רקס
רקע
רקער
רקערט
רקױפ
רקײט
ררא
ררוקט
רריכטן
ררע
ררעכנט
רש
רשא
רשב
רשה
רשו
רשווא
רשוואונדן
רשווינדן
רשוין
רשוינען
רשונג
רשונגען
רשות
רשט
רשטא
רשטיי
רשטייט
רשטיין
רשטייען
רשטייער
רשטע
רשטעלונג
רשטעלונגען
רשטעלט
רשטעלן
רשטענדלעך
רשטערט
רשטערן
רשטױסן
רשטײט
רשטײן
רשי
רשידן
רשידענע
רשיידענע
רשימה
רשימות
רשימת
רשיקט
רשלא
רשמא
רשן
רשניטן
רשנײ
רשע
רשעווער
רשעות
רשעים
רשעמט
רשער
רשפ
רשריב
רשריבן
רשװעכט
רשײדענע
רװא
רװיסט
רװיסטן
רװעלקט
רױ
רױב
רױבן
רױך
רױס
רױסגעגא
רױסגעלא
רױסגעפ
רױסגעצױגן
רױסגעשיקט
רױסגײן
רױסלא
רױסרעד
רױף
רױפ
רײ
רײד
רײט
רײטן
רײלעך
רײן
רײניקן
רײנע
רײנעם
רײען
ש
שא
שאגאל
שאד
שאדט
שאדן
שאדנס
שאו
שאול
שאט
שאטל
שאטלאנד
שאטן
שאין
שאינו
שאך
שאכטל
שאכטלעך
שאל
שאלה
שאלות
שאלעכץ
שאמר
שאן
שאנד
שאנדע
שאני
שאנכאי
שאנכיי
שאנס
שאנסן
שאסיי
שאסייען
שאף
שאפ
שאפונג
שאפט
שאפינג
שאפן
שאפע
שאפען
שאפער
שאפראן
שאץ
שאצט
שאצן
שאצער
שאק
שאקאלאד
שאקירט
שאקירענדער
שאקלט
שאקלען
שאר
שארית
שארל
שארף
שארפטאן
שארפן
שארפע
שארפער
שארר
שאת
שב
שבא
שבו
שבוע
שבועה
שבועות
שבות
שבח
שבחי
שבחים
שבט
שבטי
שבטים
שבין
שביעי
שביעית
שבירת
שבכל
שבכתב
שבע
שבעה
שבעל
שבער
שבערן
שבערס
שבעת
שברים
שבשמים
שבת
שבתדיקן
שבתדיקע
שבתי
שבתים
שגיאות
שד
שדה
שדוד
שדוך
שדי
שדים
שדכן
שדרות
שה
שהוא
שהחיינו
שהיא
שהיה
שהיו
שהכל
שהם
שו
שואה
שואל
שוב
שובה
שובערט
שוהל
שוהלן
שווא
שוואב
שוואגער
שוואגערס
שוואך
שוואכע
שוואכער
שוואכערע
שוואכקייט
שוואנגערן
שווארץ
שווארצן
שווארצע
שווארצער
שווי
שוויגער
שוויי
שווייג
שווייגט
שווייגן
שווייס
שווייץ
שווייצער
שווים
שווימט
שווימען
שווימער
שווינדל
שווינדלער
שווינדלערייען
שוויץ
שוויצן
שווע
שוועבל
שוועבעלעך
שוועגערין
שוועדיש
שוועדישע
שוועדישער
שוועדן
שוועל
שוועמל
שוועסטער
שוועסטערס
שוועקי
שווער
שווערד
שווערדן
שווערט
שוועריגקייטן
שווערין
שוועריקייט
שוועריקייטן
שווערן
שווערסטע
שווערע
שווערער
שוחד
שוחט
שוחטים
שוט
שוטה
שוטע
שוטער
שוי
שויבן
שוידערליכע
שוים
שוין
שוינ
שויס
שוישפיל
שוישפילער
שויתי
שוך
שול
שולד
שולדיג
שולדיק
שולדיקט
שולדיקן
שולדיקער
שולחן
שולט
שוליים
שולמא
שולמית
שולן
שולע
שולעס
שום
שומע
שומער
שומר
שומרון
שומרי
שומרים
שונא
שונאי
שונאים
שונג
שונים
שוסטער
שוע
שופ
שופט
שופטים
שופר
שופרות
שוץ
שור
שורה
שורות
שורש
שושן
שושנה
שושנת
שות
שותף
שותפות
שותפים
שחוק
שחור
שחורה
שחט
שחיטה
שחיטות
שחרית
שט
שטא
שטאב
שטאדט
שטאט
שטאטישן
שטאטישע
שטאטישער
שטאטן
שטאטס
שטאטראט
שטאל
שטאלץ
שטאם
שטאמט
שטאמען
שטאנג
שטאנגן
שטאנגען
שטאנד
שטאנדפונקט
שטאף
שטאפל
שטאפלן
שטאפלען
שטאק
שטאקהאלם
שטאקן
שטארבט
שטארבן
שטארבען
שטארק
שטארקט
שטארקייט
שטארקן
שטארקע
שטארקער
שטו
שטוב
שטוביקע
שטודיום
שטודיע
שטודיעס
שטודירט
שטודירן
שטויב
שטויבער
שטויס
שטויסט
שטויסן
שטול
שטום
שטומע
שטומען
שטומער
שטומף
שטונדן
שטונדע
שטופ
שטופט
שטופן
שטורם
שטורמישע
שטורעם
שטורעמען
שטות
שטותים
שטח
שטחים
שטיבל
שטיבלעך
שטיבעלע
שטיבער
שטיגן
שטיוול
שטיי
שטייג
שטייגט
שטייגן
שטייגע
שטייגער
שטייט
שטיין
שטיינבערג
שטיינזאלץ
שטיינמאן
שטיינמעץ
שטיינעמאן
שטיינער
שטיינערנע
שטייען
שטייענדיג
שטייענדיק
שטייענדיקע
שטייער
שטייערן
שטייף
שטייפע
שטיל
שטילן
שטילע
שטילער
שטילערהייט
שטילקי
שטילקייט
שטילשטאנד
שטים
שטימונג
שטימונגען
שטימט
שטימטע
שטימע
שטימען
שטימעס
שטיף
שטיץ
שטיצט
שטיצן
שטיצע
שטיצער
שטיק
שטיקל
שטיקלעך
שטיקעל
שטיקער
שטן
שטע
שטעג
שטעגן
שטעהט
שטעט
שטעטיקט
שטעטיקן
שטעטל
שטעטלעך
שטעטעל
שטעטעלע
שטעך
שטעכט
שטעכן
שטעל
שטעלונג
שטעלונגען
שטעלט
שטעלן
שטעלע
שטעלעס
שטעלער
שטעמפ
שטענדיג
שטענדיגע
שטענדיק
שטענדיקן
שטענדיקע
שטענדיקער
שטענדער
שטעפאנעשט
שטעקט
שטעקן
שטעקנס
שטעקען
שטער
שטערונג
שטערונגען
שטערט
שטערן
שטערנא
שטערנבוך
שטערנבערג
שטערנפעלד
שטערען
שטערקסטע
שטערקסטער
שטערקער
שטערקערע
שטר
שטרא
שטראוס
שטראז
שטראל
שטראלונג
שטראלן
שטראם
שטראמט
שטראמען
שטראסבורג
שטראף
שטראפן
שטרוי
שטרייט
שטרייטן
שטריימל
שטרייף
שטריך
שטריכן
שטריק
שטריקל
שטרעבונג
שטרעבט
שטרעבן
שטרעמונג
שטרעמונגען
שטרענג
שטרענגע
שטרענגער
שטרעק
שטרעקע
שטרעקעס
שטרױ
שטרױכלונג
שטרײ
שטױב
שטײ
שטײגער
שטײט
שטײן
שטײנער
שטײען
שי
שיאטן
שידוך
שידוכים
שיהיה
שיח
שיחה
שיחות
שיחת
שיט
שיטה
שיטות
שיטת
שיי
שייד
שיידט
שיידן
שיידע
שייטל
שייך
שייכות
שיין
שיינא
שיינבערג
שיינדיל
שיינדל
שיינהייט
שיינט
שיינע
שיינעם
שיינען
שיינער
שיינפעלד
שיינקי
שיינקייט
שייקספיר
שיך
שיכ
שיכון
שיכור
שיכט
שיכטן
שיכטע
שילד
שילדן
שילדערונג
שילדערונגען
שילדערט
שילדערן
שילה
שילינג
שילער
שים
שימוש
שין
שינאה
שינאווא
שינאווער
שינגטא
שינדלער
שינוי
שינעס
שיסט
שיסטישן
שיסל
שיסן
שיסער
שיסעריי
שיעור
שיעורי
שיעורים
שיער
שיף
שיפ
שיפל
שיפן
שיץ
שיצונג
שיצט
שיצן
שיק
שיקא
שיקאגא
שיקזאל
שיקט
שיקן
שיקע
שיקען
שיר
שיראק
שירה
שירי
שיריים
שירים
שירע
שירעם
שירת
שיש
שך
שכ
שכונת
שכחה
שכינה
שכינות
שכינים
שכירות
שכל
שכם
שכן
שכנא
שכנות
שכנותדיקע
שכנים
שכר
של
שלא
שלאג
שלאגט
שלאגן
שלאכט
שלאכטן
שלאנג
שלאנגען
שלאס
שלאף
שלאפט
שלאפן
שלאפען
שלאק
שלהם
שלו
שלוחים
שלום
שלומי
שלומציון
שלוס
שלוש
שלושים
שלח
שלחן
שלי
שליא
שליח
שליחות
שליחים
שליט
שליטה
שליים
שלייער
שלייף
שליכטן
שלים
שלימה
שלימות
שלינגט
שלינגען
שליסט
שליסל
שליסלען
שליסן
שלישי
שלך
שלם
שלמה
שלמים
שלנו
שלע
שלעגער
שלעזינגער
שלעזיע
שלעכט
שלעכטיקײט
שלעכטן
שלעכטס
שלעכטסטוער
שלעכטע
שלעכטער
שלענג
שלעסער
שלעפ
שלעפט
שלעפן
שלעק
שלש
שלשה
שלשים
שלײ
שם
שמ
שמא
שמאטע
שמאי
שמאל
שמאלע
שמאלץ
שמד
שמו
שמוא
שמואל
שמואליקל
שמואליקלען
שמואלעוויטש
שמונה
שמוע
שמועה
שמועות
שמועס
שמועסט
שמועסן
שמוץ
שמוציג
שמוציגע
שמור
שמות
שמח
שמחה
שמחות
שמחת
שמידט
שמיה
שמיטה
שמייכל
שמייכלט
שמייכלען
שמים
שמיני
שמיץ
שמיר
שמירה
שמירט
שמירן
שמירת
שמך
שמן
שמע
שמעון
שמעוני
שמעיה
שמעלצער
שמעלקא
שמעלקע
שמעק
שמעקט
שמעקן
שמערל
שמערצן
שמעתי
שמריהו
שמש
שמשון
שמשים
שן
שנ
שנא
שנאה
שנאמר
שנאת
שנה
שנור
שנות
שני
שניאור
שניאורסאהן
שניאורסאן
שניאורסון
שניט
שניטן
שניי
שניידט
שניידן
שניידער
שנייט
שנייען
שנים
שניצלער
שנירל
שנעל
שנעלן
שנעלסטע
שנעלע
שנעלער
שנעלקייט
שנעעבאלג
שנת
שנתחלפו
שנײ
שס
שע
שעדיגן
שעדיקן
שעדליך
שעדליכע
שעדליץ
שעה
שעהן
שעהנפעלד
שעהען
שעות
שעט
שעיעד
שעיר
שעירס
שעכט
שעכטן
שעכטער
שעל
שעלדאן
שעלטן
שעלי
שעלמן
שעם
שעמט
שעמען
שען
שענדישאוו
שענסטע
שענער
שענק
שענקט
שענקען
שענקער
שעף
שעפ
שעפטיקט
שעפילד
שעפן
שעפעניש
שעפער
שעצונג
שעצן
שעק
שער
שערט
שערי
שערים
שערן
שעשה
שעת
שפ
שפא
שפאט
שפאלט
שפאלטן
שפאלער
שפאן
שפאניע
שפאניער
שפאניש
שפאנישן
שפאנישע
שפאנישער
שפאס
שפאצירט
שפאצירן
שפארט
שפארן
שפה
שפורן
שפחה
שפי
שפיאן
שפיאנאזש
שפיגל
שפיגלט
שפיגלען
שפיהלער
שפיטא
שפיטאל
שפיטעלער
שפיטץ
שפייז
שפייזן
שפיל
שפילט
שפילכלעך
שפילן
שפילער
שפילעריי
שפילצייג
שפינאזא
שפיץ
שפיצן
שפיצער
שפיקאוו
שפיר
שפירא
שפירט
שפירן
שפל
שפלות
שפלינטער
שפע
שפעהטער
שפעט
שפעטע
שפעטער
שפעטערדיגע
שפעטערדיגער
שפעטערדיקע
שפעטערע
שפר
שפרא
שפראך
שפראכיגע
שפראכיגער
שפראכן
שפרה
שפרייט
שפרינגט
שפרינגען
שפרינצא
שפריצן
שפת
שפתי
שצ
שקא
שקיעה
שקל
שקלא
שקלאף
שקלאפן
שקלאפעריי
שקלים
שקעס
שקצים
שקר
שקרים
שר
שרא
שראדער
שרגא
שרה
שרויף
שרויפן
שרון
שרי
שריבן
שריט
שריי
שרייאן
שרייב
שרייבונג
שרייבט
שרייבן
שרייבסט
שרייבען
שרייבער
שרייבערין
שרייבערס
שרייבר
שרייט
שרייען
שרים
שריפ
שריפה
שריפט
שריפטן
שריפטשטעלער
שרע
שרעבי
שרעדינגער
שרעק
שרעקט
שרעקליך
שרעקליכן
שרעקליכע
שרעקליכער
שרעקלעך
שרעקלעכע
שרעקלעכער
שרעקן
שרף
שרפה
שרץ
שרצים
שרשרת
שרת
שרײ
שש
ששה
ששון
ששת
שת
שתדלן
שתדלנות
שתי
שתיקה
שװא
שװעל
שװעלן
שװעסטער
שװער
שװערד
שװערן
שװערער
שװײ
שױן
שײ
שײדונג
שײן
שײנע
שײנקײט
ת
תאוה
תאווה
תאוות
תאומים
תאכל
תאמר
תאריך
תב
תבא
תבוא
תבואה
תבואות
תבל
תבניות
תבנית
תבשילין
תהום
תהי
תהיה
תהיו
תהילים
תהלים
תו
תואר
תובע
תודה
תווית
תוך
תוכחה
תוכן
תולדות
תולה
תולעים
תולעת
תומכי
תונו
תוניס
תוס
תוספות
תוספתא
תועבה
תופס
תוצאה
תורה
תורות
תורת
תושב
תושבים
תזריע
תחום
תחיה
תחיית
תחילת
תחינה
תחינות
תחינת
תחית
תחנה
תחנון
תחת
תי
תיבה
תיבות
תיכף
תים
תימן
תיקון
תיקוני
תיקונים
תירוץ
תירוצים
תכ
תכלית
תכלת
תכריכים
תל
תלוי
תלמוד
תלמי
תלמיד
תלמידי
תלמידים
תם
תמ
תמוז
תמונה
תמונות
תמורה
תמיד
תמים
תמימה
תמימות
תמימים
תמכין
תמר
תן
תנ
תנא
תנאי
תנאים
תנועה
תנחומא
תניא
תס
תע
תעלומה
תענוג
תענית
תעניתים
תעשה
תפ
תפארת
תפוז
תפילה
תפילות
תפילין
תפילת
תפיסה
תפלה
תפלות
תפלין
תפלת
תפקיד
תצ
תצא
תצוה
תק
תקוה
תקווה
תקופה
תקופות
תקופת
תקט
תקי
תקיעה
תקיעות
תקיעת
תקכ
תקל
תקמ
תקנ
תקנה
תקנות
תקס
תקע
תקפ
תקצ
תקציר
תר
תרגום
תרדיון
תרו
תרומה
תרומות
תרועה
תרח
תרט
תרי
תרכ
תרל
תרמ
תרנ
תרס
תרע
תרפ
תרצ
תש
תשא
תשובה
תשובות
תשובת
תשט
תשי
תשכ
תשל
תשליך
תשמ
תשמישי
תשנ
תשס
תשע
תשעה
תשפ
תשרי
תת
תתאה
תתק
װ
װא
װאו
װאס
װו
װוינער
װט
װי
װידער
װידערשפ
װיזן
װיל
װילט
װילן
װילסט
װילסטו
װינט
װינציק
װינקלען
װיסט
װיסטעניש
װיסן
װיסנשא
װיפ
װיקיפ
װנט
װע
װעבזײ
װעבלינקען
װעג
װעגן
װעט
װעכטער
װעל
װעלט
װעלכן
װעלכע
װעלכער
װעלן
װעמען
װען
װעסט
װעסטו
װעק
װעקגעגא
װעקגעלא
װעקגענומען
װעקגעשיקט
װעקגעװא
װעקגײן
װעקלא
װער
װערט
װערטער
װערמילרױט
װערן
װערק
װױל
װױנונג
װױנט
װױנען
װױנער
װײ
װײטא
װײנען
װײס
װײסט
װײסן
ױ
ױגל
ױגלען
ױלן
ײ
ײדן
׳
״
،
ا
ة
ر
قالب
م
َ
ِ
ّ
ْ
ٓ
ٔ
ٕ
ނ
ސ
ި
ް
ँ
ं
क
ग
च
ज
ट
ड
द
न
प
म
य
र
ल
व
श
स
ह
ा
ि
ी
ु
े
्
ং
ট
ত
ন
ব
য
র
ল
স
হ
়
া
ি
ী
ু
ে
্
વ
ા
િ
ી
ો
ப
ி
ை
்
ు
్
ನ
ಿ
ೆ
್
ം
ക
ട
ഡ
ത
ന
പ
മ
യ
ര
ള
വ
ാ
ി
ീ
ു
െ
േ
്
ි
ก
พ
ย
ว
ั
ิ
ี
ู
่
้
์
구역
​
‌
‍
‎
‏
‐
–
—
―
‘
’
‚
‛
“
”
„
‟
†
•
…
‪
‫
‬
‮
′
″
€
№
←
→
↔
↷
↺
⇐
−
∗
⋅
③
④
⑦
█
■
►
◄
⸗
⺀
⺄
⺆
⺈
⺊
⺌
⺕
⺝
⺸
⺼
⿰
⿱
⿲
⿳
⿴
⿵
⿶
⿷
⿸
⿹
⿺
⿻
、
。
「
」
〢
う
か
き
こ
さ
し
す
せ
た
て
と
な
に
の
は
へ
ま
よ
ら
る
れ
を
゙
゚
ア
ィ
イ
カ
キ
ク
コ
サ
シ
ス
タ
ッ
テ
ト
ナ
ヒ
フ
ヘ
ホ
マ
ャ
ユ
ラ
リ
ル
レ
ン
ー
ㅅ
ㅗ
ㅛ
㇁
㇂
㇄
㇇
㇈
㇉
㇓
㐁
㐄
㐅
㐌
㐫
㐬
㐭
㐮
㐱
㑒
㒵
㒸
㒼
㓁
㓞
㔾
㕛
㕣
㖾
㘝
㚅
㚇
㚔
㚘
㝉
㝡
㝴
㝵
㞋
㞢
㞷
㠩
㠭
㠯
㡀
㡭
㡿
㢲
㢴
㣇
㣺
㥯
㪅
㫄
㫐
㫒
㫺
㬅
㬎
㬥
㬰
㲋
㳄
㷠
㸒
㸚
㸦
㼌
㼲
㽞
㿟
䀠
䂞
䍃
䏍
䒑
䖍
䖒
䖝
䖵
䙴
䚻
䜌
䝿
䡛
䧹
䪞
一
丁
丂
七
丄
丅
丆
万
丈
三
上
下
丌
不
与
丏
丐
丑
专
且
丕
世
丘
丙
业
东
丞
丢
丣
两
严
並
丨
丩
个
丫
丬
中
丮
丰
丱
串
丵
丶
丷
丸
丹
为
主
丽
丿
乀
乂
乃
久
乆
乇
么
义
之
乌
乍
乎
乏
乐
乑
乔
乖
乗
乘
乙
乚
乛
乜
九
乞
也
习
乡
乳
乾
亀
亅
了
亇
予
争
事
二
亍
于
亏
亐
云
互
亓
五
井
亘
亚
亜
亞
亟
亠
亡
亢
交
亥
亦
产
亨
亩
享
京
亭
亮
亯
亰
亲
亳
亶
亷
人
亻
亼
亾
仁
今
介
仌
从
仐
仑
仒
仓
仕
他
付
仝
代
令
以
任
企
伊
伏
伐
休
会
伯
但
位
何
佘
余
作
佥
使
來
侈
侌
侖
侯
侵
便
保
俞
信
修
倉
倍
候
倠
備
僉
僕
儿
兀
允
兂
元
兄
充
兆
兇
先
光
兊
克
兌
免
兑
兒
兓
兔
党
兜
兟
入
全
兩
兪
八
公
六
兮
兰
共
关
兵
其
具
典
兹
兼
冀
冂
冃
冄
内
冈
冉
冊
冋
册
再
冎
冏
冐
冒
冓
冖
冗
冘
军
农
冝
冡
冥
冫
冬
冷
几
凡
凢
凵
凶
凷
凸
凹
出
函
凾
刀
刁
刂
刃
刄
刅
分
切
刍
刑
刕
刖
列
刘
则
初
別
利
别
到
制
刺
則
削
剌
前
剡
剽
劉
力
功
加
劦
助
劫
劳
劵
勃
勇
勉
勒
動
務
勞
勤
勹
勺
勻
勾
勿
匀
匂
包
匆
匈
匊
匋
匍
匕
化
北
匚
匝
匡
匪
匱
匸
匹
区
医
匽
匿
區
十
卂
千
卄
卅
卆
升
午
卉
半
卌
华
卑
卒
卓
单
卖
南
卜
卝
卞
占
卡
卢
卣
卤
卦
卩
卪
卬
卯
印
危
即
却
卵
卷
卸
卻
厂
厃
厄
历
厈
厉
厌
厓
厘
厚
原
厤
厥
厨
厭
厲
厶
厷
厸
去
厼
厽
叀
参
參
叅
又
叉
及
友
双
反
叐
发
叒
叔
叕
取
受
叚
叜
叟
口
古
句
另
叩
只
召
可
台
叱
史
右
叵
号
司
叹
吂
各
吅
合
吉
吊
吋
同
名
后
吏
向
吕
君
吝
吞
否
含
启
吳
吴
吹
吾
呂
呆
呈
告
员
呙
周
命
咅
和
咎
咠
咢
咨
咸
咼
哀
品
哉
員
哥
哲
唐
商
啇
問
啚
啬
啻
善
喜
喬
單
喿
嗇
噩
嚴
囊
囗
囘
囙
囚
四
回
囟
因
囧
囬
困
囱
囷
固
国
圂
圅
國
圍
圓
土
圡
圣
圥
在
圭
地
圶
圼
坐
坒
坚
坴
垂
垔
垚
埀
埋
城
域
埶
執
基
堂
堅
堆
堇
堯
塞
墨
壘
士
壬
壯
声
壳
壴
壹
壺
壽
夂
处
夅
夆
备
夊
夋
夌
复
夏
夒
夕
外
夗
夘
多
夜
夢
大
夨
天
太
夫
夬
夭
央
失
夲
头
夷
夸
夹
夻
夾
奂
奄
奇
奈
奉
奎
奏
奐
契
奓
奔
奚
奞
奠
奢
奥
奭
女
奴
奻
好
如
妄
妙
妟
妥
妻
妾
姑
委
姜
威
娄
婁
婴
嬰
嬴
子
孑
孔
孕
孖
字
存
孚
孛
孝
孟
季
孤
学
孫
孱
學
宀
宁
宂
它
宅
宇
守
安
宋
完
宏
宓
宗
官
定
宛
宜
宝
客
宣
室
宮
宰
害
家
容
宾
宿
寄
寅
密
富
寒
察
寧
審
寫
寬
寮
寸
对
寺
寻
寽
対
寿
封
尃
射
将
將
專
尉
尊
尋
尌
對
小
少
尒
尓
尔
尖
尗
尚
尞
尢
尣
尤
尧
尨
尭
就
尸
尹
尺
尻
尼
尽
尾
尿
局
居
屈
屋
屎
屏
屑
展
屖
屚
属
屠
屡
屬
屮
屯
屰
山
屵
屾
岁
岂
岑
岡
岩
岳
岸
峯
島
崇
崑
崔
崖
崙
崩
嵬
嶲
巂
巛
川
州
巟
巠
巢
巤
工
左
巧
巨
巩
巫
差
己
已
巳
巴
巷
巸
巽
巾
巿
帀
市
布
希
帚
帛
帝
带
師
席
帶
常
干
平
年
幵
并
幷
幸
幺
幻
幼
幽
幾
广
広
庄
床
底
店
庚
府
度
庫
庭
庶
康
庸
廉
廌
廛
廣
廩
廴
延
廷
建
廾
廿
开
弁
弃
弄
弇
弋
式
弓
弔
引
弗
弘
弜
弟
弥
弦
弱
張
強
强
彊
彌
彎
彐
彑
当
彔
录
彖
彗
彡
形
彥
彦
彧
彭
彳
役
彼
往
待
律
徒
得
徙
從
復
微
徵
心
忄
必
忌
忍
志
忝
忠
忩
快
念
忽
忿
思
怠
急
性
怱
恆
恒
恩
恭
息
悉
患
悤
悲
悶
惠
惡
惢
愁
愈
意
愛
感
慈
慧
慮
憂
憲
應
戀
戈
戉
戊
戋
戌
戍
戎
成
我
戒
戔
或
戚
戠
戢
截
戲
戶
户
戹
戼
戾
房
所
扁
扇
手
扌
才
打
托
执
承
折
拉
拜
拿
掌
推
提
摩
支
攴
攵
收
攸
改
放
政
敄
敏
敕
敖
敗
敝
敞
敢
散
敦
敫
敬
数
敷
數
斂
文
斉
斊
斗
斤
斥
斩
斬
斯
新
方
於
施
斿
旁
旋
族
无
旡
既
旣
日
旦
旧
旨
早
旬
旱
旲
时
旾
昆
昇
昌
昍
明
昏
易
昔
昗
昜
星
映
春
昬
是
昱
昴
昷
時
晃
晋
晏
普
景
晶
智
暑
暴
曇
曩
曰
曲
曳
更
曷
書
曹
曼
曾
替
最
朁
會
月
有
朋
服
朔
朕
朗
望
朝
木
朩
未
末
本
札
朮
术
朱
朵
朶
朿
杀
杏
杜
束
条
来
東
杲
杳
松
析
林
枚
果
枝
枲
枼
某
柔
查
柬
柰
柴
栗
桀
桑
桼
梁
條
梟
梨
棘
棠
棥
森
楚
業
楽
榮
樂
樊
欠
次
欣
欮
欲
欶
欽
款
歆
歇
歛
止
正
此
步
武
歨
歪
歮
歯
歰
歲
歴
歷
歸
歹
歺
死
殳
段
殷
殸
殹
殺
殻
殿
毋
毌
母
每
毒
比
毕
毚
毛
毳
氏
氐
民
气
氣
水
氵
氶
氷
永
氺
氾
求
汝
汞
江
沃
沓
沙
沝
河
泉
法
波
泣
泥
泰
洛
洪
活
派
流
浦
浪
浮
淡
淮
清
渚
渠
湯
滿
漸
火
灬
灭
灰
灵
灷
炅
炎
炏
炗
炙
炭
為
烈
烏
烝
焉
無
焦
焱
然
煞
熊
熏
燕
營
燮
爪
爫
爭
爯
爰
爱
爲
爵
父
爻
爽
爾
爿
片
牙
牚
牛
牜
牟
牢
牧
物
牪
牽
犀
犬
犭
犮
狂
狄
狊
独
狺
猋
猒
猪
献
獻
玄
率
玉
王
玟
玨
珎
班
理
琴
瑟
瑩
瓜
瓦
甘
甚
生
産
用
甫
甬
田
由
甲
申
电
甶
男
甸
甹
画
甾
畀
界
畏
畐
留
畜
畟
畢
畧
畨
番
畫
異
畱
當
畺
畾
疊
疋
疌
疑
疒
疾
癶
癸
癹
登
發
白
百
皀
皃
的
皆
皇
皋
皐
皕
皮
皷
皿
盃
盆
盇
盈
益
盍
盎
监
盒
盖
盛
盡
監
盤
盧
目
直
相
盾
省
眇
眉
看
眔
眞
真
眷
眼
眾
着
睘
睪
睿
瞏
瞢
瞿
矍
矛
矞
矢
矣
知
矦
短
石
破
碎
磊
磨
示
礻
礼
祟
票
祭
禀
禁
禸
禹
禺
离
禽
禾
禿
秀
秃
秉
秋
科
秝
秦
移
稟
穀
穌
穴
究
穹
空
穿
突
窄
窒
立
竒
竜
竝
竟
章
童
竹
笑
笠
筆
等
答
箕
算
箴
節
篤
篭
米
粉
粛
粟
粤
粦
粲
糞
糸
糹
系
約
納
素
索
紫
累
細
絜
絫
絲
維
綿
縣
繇
纍
纟
缶
网
罒
罔
罕
罗
罙
罡
罢
罪
署
罷
羅
羊
羌
羍
美
羔
羕
羗
羞
羡
羣
群
義
羲
羸
羽
翁
翏
習
翕
翟
翠
翼
老
耂
考
者
耆
而
耎
耑
耒
耳
耴
耶
耷
聂
聊
聖
聚
聶
聿
肀
肃
肅
肉
肖
肙
肥
肩
肯
育
肴
胃
背
胡
胥
能
脊
脩
膚
臣
臤
臧
自
臬
臭
臯
臱
至
致
臺
臼
臽
臾
臿
舀
舂
舄
與
興
舉
舌
舍
舛
舜
舞
舟
般
艮
良
色
艸
艹
艾
芒
芔
芬
芮
花
芳
芺
芻
苔
苗
苟
若
苦
英
茶
茸
荅
草
荒
荣
荼
莆
莧
莫
莽
菆
菊
菐
華
萬
落
葉
著
葛
董
葵
蒙
蒦
蒼
蓋
蓬
蓺
蔑
蔡
蕉
蕭
薄
薛
薦
薰
藍
藏
藥
蘭
虍
虎
虐
虒
虔
處
虖
虗
虘
虚
虛
虜
虞
虫
虽
蚤
蚩
蜀
蜜
蟲
蠡
血
行
衍
衛
衣
衤
表
衮
衰
袁
袞
褭
褱
襄
襾
西
覀
要
覃
見
規
覓
覧
親
覽
见
角
解
言
訁
訇
計
詹
語
誩
諸
讠
谷
豆
豈
豊
豐
豕
豖
豙
象
豦
豩
豪
豸
貇
貝
貞
貟
負
貢
貧
貪
貫
責
貳
貴
買
費
賁
資
賈
賏
賓
賔
賛
賞
賢
賣
質
賴
贊
贝
贡
责
贯
贲
贵
赖
赞
赤
赦
走
越
足
路
蹇
身
躬
車
軍
軎
軟
輦
车
辛
辜
辟
辥
辰
辱
農
辵
辶
边
达
过
近
连
迷
追
退
送
逆
逐
通
速
造
逢
連
逮
進
遀
遂
過
道
達
遣
適
遷
遺
邊
邑
邕
那
邦
邪
郎
部
郭
都
鄉
酉
酋
配
酓
釆
采
里
重
野
量
金
釒
錢
钅
長
镸
长
門
閃
閉
開
閏
閑
閒
間
閔
閵
閻
闌
门
间
闷
阑
阜
阝
阿
降
陳
隆
隊
隋
隡
隨
隱
隶
隹
隺
隻
隼
隽
难
雀
雁
集
雈
雋
雍
雐
雔
雙
雚
雜
雝
離
難
雨
雩
雪
雲
零
雷
需
霍
霜
霝
霞
霸
靈
靑
青
非
靡
面
靣
革
韋
韦
韭
韯
韱
音
頁
頃
項
須
頗
頡
頻
顛
页
風
风
飛
飞
食
飠
養
饣
首
香
馬
馮
駦
马
骨
高
髟
鬥
鬯
鬲
鬼
魚
魯
鮮
鱼
鲁
鳥
鳳
鸟
鹵
鹿
麃
麗
麥
麦
麻
黃
黄
黍
黎
黑
黒
黨
黹
黽
黾
鼎
鼓
鼠
鼻
齊
齋
齐
齒
齿
龍
龙
龜
龟
龠
龰
龱
龴
龵
龶
龷
龸
龹
꞉
者
艹
﻿
！
？
￼
�
𐌰
📲
𠀁
𠀃
𠀆
𠀉
𠀎
𠀐
𠁁
𠁣
𠂆
𠂇
𠂈
𠂉
𠂊
𠂋
𠂎
𠂒
𠂔
𠂛
𠂡
𠂢
𠂤
𠂬
𠂭
𠂹
𠃊
𠃋
𠃌
𠃍
𠃎
𠃑
𠃓
𠃔
𠃜
𠄌
𠄎
𠄠
𠄢
𠆢
𠆥
𠇍
𠈌
𠌵
𠓜
𠔉
𠔥
𠔼
𠔽
𠔿
𠕀
𠕁
𠕋
𠘧
𠘨
𠙻
𠙼
𠚏
𠚒
𠚤
𠚪
𠣏
𠤎
𠤕
𠥓
𠦄
𠦑
𠦝
𠧒
𠧗
𠧪
𠩺
𠪚
𠫓
𠫔
𠫤
𠬛
𠬝
𠬞
𠬢
𠬤
𠬶
𠮛
𠮦
𠮷
𠯑
𠱠
𠳮
𠷎
𡈼
𡉀
𡉵
𡌥
𡍮
𡏳
𡕒
𡕩
𡕰
𡖅
𡗗
𡗜
𡘆
𡘤
𡧱
𡨄
𡩧
𡬠
𡭽
𡰣
𡰥
𡰪
𡰯
𡰱
𡷈
𡸁
𡿨
𡿩
𡿪
𡿺
𢀖
𢀛
𢀩
𢁙
𢆉
𢆰
𢆶
𢇁
𢇇
𢉖
𢌬
𢌿
𢏚
𢑑
𢑚
𢖻
𢙣
𢛳
𢦏
𢦒
𢧵
𢼄
𢾕
𣁋
𣄼
𣅀
𣅽
𣍘
𣎳
𣎵
𣏋
𣏼
𣗥
𣥂
𣥖
𣦵
𣦼
𣧄
𣪊
𣪠
𣬉
𣳾
𣶒
𤇾
𤊽
𤐫
𤓰
𤔔
𤕨
𤣩
𤰇
𤰔
𤰞
𤴓
𤴔
𤽄
𥁑
𥁕
𥃦
𥃩
𥃭
𥇡
𥑟
𥘅
𥘈
𥝢
𥫗
𥱡
𦈢
𦉪
𦉬
𦉼
𦍌
𦍒
𦎧
𦐇
𦓔
𦔮
𦘒
𦙃
𦚏
𦣝
𦣞
𦣻
𦥑
𦥔
𦥯
𦨉
𦭝
𦰩
𧆞
𧈧
𧘇
𧰨
𧴪
𧴮
𧵩
𧾷
𨸏
𨾴
𩙿
𩠐
𩫏
𩵋
𪉷
𪜀
𪟽
𪠲
𪩲
𫇦
𫔭
𫜸
𫝀
𫠣
𫠩
𫢉
𫥞
𫩏
𫩠
𫪡
𫲽
𫶧
𬀷
𬐘
𬗌
𬙙
𬛸
𬜯
𬟩
𬯁
𬴘
𬺻
𬼉
𬼖
𭀰
𭁈
𭁨
𭅰
𭑈
𭕄
𭗼
𭤨
𭥫
𭻾
𮅕
𮊿
𮍌
𮍏
𮓗
𮥼
𮧮
廾
𰀁
𰀄
𰀈
𰀉
𰀕
𰀠
𰀡
𰀢
𰀪
𰁜
𰃮
𰆊
𰆘
𰋙
𰕎
𰢴
𰧭
𰯲
00--
02--
03--
04--
07--
09--
40--
50--
57--
73--
a--
ab--
abl--
ac--
ad--
add--
af--
afri--
age--
al--
alex--
all--
am--
an--
any--
app--
appli--
appo--
approx--
ar--
arch--
as--
at--
au--
auto--
b--
ba--
back--
be--
ber--
bi--
biog--
bir--
birth--
bo--
book--
bos--
bot--
br--
bre--
bro--
broad--
bu--
bul--
bus--
by--
c--
ca--
can--
car--
ce--
cele--
cer--
ch--
cha--
char--
chi--
chr--
cit--
cl--
cla--
co--
col--
collab--
com--
con--
contri--
cor--
cre--
cu--
cus--
d--
da--
dan--
data--
date--
de--
deg--
develo--
di--
diff--
dis--
disam--
disr--
distri--
do--
dr--
dre--
du--
dupli--
e--
ed--
edit--
effec--
el--
elec--
em--
en--
end--
er--
es--
et--
eu--
ex--
exp--
exper--
experim--
expla--
f--
fa--
facil--
fe--
fi--
fif--
fin--
fl--
flor--
flu--
fo--
foot--
for--
fr--
fre--
fu--
fund--
g--
ga--
gar--
ge--
gene--
get--
gil--
giv--
gl--
go--
gor--
gra--
gre--
gu--
h--
ha--
har--
has--
he--
heb--
her--
hi--
high--
ho--
hol--
hon--
hu--
i--
id--
iden--
il--
im--
img--
impl--
in--
incre--
inst--
inte--
inter--
inv--
inve--
ip--
ir--
is--
iv--
j--
ja--
je--
jo--
joha--
ju--
k--
ka--
ke--
ken--
key--
ki--
kir--
ko--
ku--
l--
la--
label--
lang--
last--
laun--
lay--
le--
li--
lite--
lo--
load--
lu--
ly--
m--
ma--
main--
man--
mar--
max--
mc--
me--
mean--
mer--
meta--
mi--
mix--
mo--
mor--
mu--
multi--
my--
n--
na--
nav--
ne--
new--
ni--
no--
nor--
ns--
nu--
o--
oc--
of--
off--
old--
on--
opportu--
or--
os--
out--
over--
p--
pa--
pac--
page--
param--
pe--
per--
pet--
ph--
pi--
pin--
pl--
plo--
po--
pol--
popup--
por--
pp--
pr--
pra--
prac--
pre--
prim--
prin--
print--
priv--
pro--
publi--
pyth--
q--
qu--
qua--
r--
ra--
re--
read--
recom--
red--
redir--
ref--
reli--
res--
ri--
ro--
ru--
s--
sa--
scale--
sch--
se--
ser--
set--
sh--
she--
si--
site--
sk--
sl--
slo--
so--
sockp--
solu--
sor--
spec--
spi--
st--
stat--
ste--
str--
stu--
su--
sub--
supp--
sustain--
swe--
t--
ta--
table--
te--
th--
tho--
ti--
time--
to--
toc--
tr--
tra--
trad--
tre--
tru--
ts--
tu--
u--
un--
uni--
univer--
up--
ur--
us--
v--
var--
ve--
ver--
vi--
vic--
vik--
vo--
vor--
w--
wa--
we--
web--
wel--
wg--
wiki--
wil--
wo--
wor--
work--
x--
y--
z--
za--
ze--
zo--
λ--
а--
ак--
б--
бадх--
бо--
бр--
бу--
буд--
в--
ве--
ви--
вики--
воз--
вы--
г--
гла--
го--
гор--
гос--
гр--
д--
да--
де--
до--
дру--
дѣ--
е--
евр--
жарг--
же--
жи--
з--
за--
значи--
и--
ид--
ис--
к--
ка--
каж--
кат--
кла--
ко--
кр--
ку--
л--
ле--
ли--
лю--
люб--
м--
ма--
мате--
ме--
мо--
моло--
му--
н--
на--
наш--
не--
нек--
ни--
но--
нѣ--
нѣк--
о--
об--
обл--
обр--
общ--
обще--
од--
особен--
от--
п--
пе--
пер--
пере--
пес--
пи--
по--
пов--
поло--
послед--
пр--
пра--
пре--
пред--
про--
произ--
пу--
пѣ--
пѣс--
р--
ра--
раз--
ро--
роди--
ру--
с--
са--
св--
се--
си--
ск--
ска--
сл--
сло--
слу--
со--
содержа--
ср--
ст--
ста--
стви--
сча--
сы--
т--
те--
тр--
у--
ус--
усл--
уче--
х--
ч--
ча--
че--
чер--
ш--
ша--
э--
я--
язы--
אא--
אב--
אבא--
אבו--
אבזער--
אבי--
אבר--
אג--
אגאנ--
אגיט--
אד--
אדור--
אדיק--
אדל--
אדמיני--
אדר--
אדריא--
אה--
אהיימ--
אהינ--
אהער--
או--
אוו--
אוואנ--
אוואק--
אוועק--
אוטו--
אוי--
אויב--
אויס--
אויסגע--
אויסנו--
אויסע--
אויסער--
אויספ--
אויסצו--
אויפ--
אויפגע--
אויפצו--
אול--
אומ--
אומא--
אומבא--
אומגע--
אומגעה--
אומזי--
אומפ--
אומפא--
אומצו--
אונ--
אונטער--
אופ--
אור--
אורשפר--
אז--
אזיא--
אח--
אחי--
אט--
אטא--
אטאמא--
אטלא--
אי--
איב--
איבער--
איבערצו--
איד--
אידענטיפ--
איו--
איז--
איי--
אייב--
אייגנ--
אייזענ--
איינ--
איינגע--
איינצו--
אייער--
איל--
אימ--
אימא--
אימפ--
אין--
אינ--
אינג--
אינדי--
אינדענטיפ--
אינדעפ--
אינדער--
אינו--
אינטעג--
אינטעל--
אינטענס--
אינטער--
אינע--
אינקו--
איס--
איר--
אכ--
אל--
אלא--
אלד--
אלו--
אלט--
אלי--
אלע--
אמ--
אמא--
אמו--
אמט--
אמת--
אן--
אנ--
אנא--
אנג--
אנגע--
אנגעב--
אנגעג--
אנגעזעה--
אנגעש--
אנדא--
אנו--
אנווע--
אנווענד--
אנט--
אנטי--
אני--
אנידער--
אנע--
אנעמפ--
אנצו--
אנש--
אס--
אסאציא--
אסט--
אסימי--
אע--
אפ--
אפארט--
אפגא--
אפגע--
אפגעט--
אפגעש--
אפט--
אפטיי--
אפי--
אפיר--
אפנ--
אפענס--
אפצו--
אפצור--
אפשטאמל--
אצ--
אק--
אקופ--
אקט--
אקס--
אר--
ארא--
אראפ--
אראפצו--
ארג--
ארגו--
ארד--
ארויס--
ארויסצו--
ארויפ--
ארויפצו--
ארומ--
ארט--
ארי--
אריבער--
אריט--
אריינ--
אריינג--
אריינגעד--
אריינצו--
ארכע--
ארמענ--
אש--
את--
אױב--
אױס--
אױסלײ--
אײ--
ב--
בא--
באב--
באגרעני--
באד--
באהא--
באזו--
באזונ--
באט--
באטיט--
באיינ--
באל--
באלוי--
באלשע--
באמ--
באמבאד--
באמבארד--
באס--
באפ--
באקא--
באקו--
באקווע--
באקוועמליכ--
באר--
בארטנ--
בארעכ--
באש--
באשול--
באשטי--
באשעפ--
בב--
בג--
בד--
בה--
בהת--
בו--
בוי--
בוכה--
בור--
בוש--
בז--
בח--
בט--
בטל--
בי--
ביא--
ביאמעט--
ביג--
ביו--
ביז--
ביט--
ביי--
בייז--
ביל--
בינ--
ביס--
ביע--
ביר--
ביש--
בכ--
בל--
בלא--
בלו--
בלוט--
בלי--
בלע--
במ--
במו--
במח--
בנ--
בני--
בס--
בע--
בעד--
בעה--
בעז--
בעט--
בעטהא--
בעי--
בעל--
בענק--
בעס--
בעצ--
בעק--
בער--
בעשענ--
בפ--
בק--
בר--
ברא--
בראד--
בראנס--
ברו--
ברוכ--
ברי--
ברענ--
ברענע--
ברעס--
בש--
בת--
בױ--
בײ--
ג--
גא--
גאג--
גאווער--
גאט--
גאל--
גאלד--
גאנצ--
גאר--
גב--
גד--
גו--
גוא--
גוז--
גוט--
גוי--
גור--
גט--
גי--
גיב--
גיגא--
גיט--
גיי--
גיפ--
גיש--
גל--
גלא--
גלו--
גלי--
גמ--
גנ--
גע--
געא--
געאלא--
געאמעט--
געב--
געבא--
געג--
געגרו--
געדא--
געדו--
געה--
געהא--
געו--
געווא--
געווי--
געזע--
געט--
געי--
געל--
געלא--
געלט--
געלע--
געמ--
געמא--
געמיינ--
גענ--
געניט--
גענע--
געס--
געפ--
געפא--
געפענק--
געצנדי--
געקו--
געקע--
גער--
גערא--
גערײ--
געש--
געשטא--
געשעה--
געשפ--
געװי--
גר--
גרא--
גרו--
גרויס--
גרונט--
גריב--
גריי--
גרינ--
גרע--
גײ--
ד--
דא--
דאו--
דאמיני--
דאמפ--
דאס--
דאקטו--
דאר--
דארנב--
דב--
דה--
דו--
דוא--
דוב--
דור--
דורכ--
דז--
דזש--
דזשא--
דזשונ--
דזשי--
די--
דיא--
דיג--
דיי--
דיל--
דינע--
דיע--
דיפ--
דיפלא--
דיק--
דירעק--
דיש--
דל--
דמ--
דנ--
דניפראפ--
דס--
דע--
דעט--
דעי--
דעל--
דעמ--
דענ--
דעס--
דעפ--
דעק--
דער--
דערנע--
דערפ--
דערפינ--
דערצײ--
דק--
דר--
דרא--
דרויס--
דרי--
דריי--
דרע--
דרש--
דש--
דת--
ה--
הא--
האב--
האו--
האח--
האט--
האי--
האל--
האלאוקא--
האלאק--
האלב--
האנט--
האס--
האפ--
האק--
האר--
הארא--
הארט--
הב--
הבט--
הג--
הדי--
הו--
הוי--
הויפ--
הויפט--
הומא--
הז--
הח--
החל--
הט--
הי--
היו--
היט--
היי--
הייד--
הייל--
היימגע--
היל--
הילפס--
הינט--
הינקע--
היספא--
היפ--
הכ--
הל--
הלב--
המ--
המב--
המו--
המח--
המכ--
המל--
המנ--
המע--
המפ--
המש--
המת--
הנ--
הנו--
הע--
העב--
העו--
העל--
העלד--
העלט--
העלע--
העמפ--
הענגע--
העס--
העק--
הער--
הערש--
הפ--
הק--
הר--
הרג--
הרה--
הש--
השי--
הת--
הױ--
הײ--
ו--
וא--
ואח--
ואר--
וב--
ובלי--
וד--
וה--
והת--
וו--
ווא--
וואו--
וואכנ--
וואכע--
וואל--
וואלקא--
וואר--
וואריא--
ווו--
ווי--
וויא--
ווידער--
וויי--
ווילא--
וויקי--
וויר--
ווירט--
ווע--
וועזנ--
וועל--
וועלט--
וועק--
ווער--
וז--
וח--
וט--
וי--
ויו--
ויס--
ויקי--
וכ--
ול--
ומ--
ומו--
ומל--
ומש--
ומת--
ונ--
וס--
וע--
ועו--
ופ--
וצו--
וק--
ור--
ושב--
ושכ--
ות--
ז--
זא--
זאג--
זאל--
זאמד--
זה--
זו--
זונ--
זי--
זיב--
זיג--
זיי--
זינג--
זיס--
זיצ--
זל--
זנ--
זע--
זעגל--
זעה--
זעל--
זעלבס--
זעלבסט--
זענ--
זער--
זק--
זר--
זש--
זשא--
זשי--
זשע--
זױ--
זײ--
ח--
חא--
חב--
חד--
חו--
חז--
חי--
חיי--
חל--
חמ--
חנ--
חס--
חק--
חרס--
חשכ--
חת--
ט--
טא--
טאב--
טאג--
טאל--
טאליד--
טאפ--
טאר--
טאש--
טב--
טה--
טו--
טוא--
טוב--
טוי--
טויט--
טויש--
טול--
טומל--
טור--
טי--
טיי--
טיר--
טיש--
טל--
טנ--
טס--
טע--
טעא--
טעג--
טעל--
טעלע--
טעמע--
טעפ--
טעק--
טער--
טפ--
טר--
טרא--
טראגע--
טראנז--
טראנזא--
טראנס--
טרו--
טרי--
טרע--
טרעפ--
טש--
טשא--
טשי--
טשע--
טשער--
טײ--
טײטל--
יא--
יאג--
יאמ--
יאס--
יאפא--
יאר--
יארדא--
יב--
יג--
יד--
יה--
יהו--
יו--
יוני--
יוס--
יוסטי--
יז--
יח--
יט--
יי--
ייד--
יינ--
יכ--
יל--
ימ--
ינ--
ינט--
יס--
יע--
יעטו--
יער--
יפ--
יצ--
יק--
יר--
יש--
ית--
ך--
כ--
כא--
כאפ--
כאר--
כב--
כג--
כד--
כה--
כו--
כז--
כח--
כט--
כי--
כל--
כנ--
כס--
כסדר--
כע--
כעז--
כער--
כפ--
כר--
כרא--
כש--
כת--
ל--
לא--
לאביא--
לאו--
לאז--
לאט--
לאל--
לאנג--
לאנד--
לאק--
לב--
לבא--
לבנו--
לג--
לד--
לה--
להו--
להת--
לו--
לוג--
לוי--
לויב--
לויפ--
לופ--
לופט--
לז--
לח--
לט--
לי--
ליא--
ליב--
ליג--
ליד--
ליז--
ליט--
ליי--
לייט--
לייק--
ליכט--
לימיט--
לינק--
ליס--
ליע--
ליפ--
ליצ--
ליר--
ליש--
לכ--
לל--
למח--
למע--
לנ--
לס--
לע--
לעא--
לעב--
לעבנ--
לעג--
לעד--
לעו--
לעט--
לעכ--
לעכא--
לעמ--
לענד--
לעס--
לעפ--
לעצ--
לעק--
לער--
לפ--
לצ--
לק--
לקס--
לש--
לױ--
לײ--
ם--
מ--
מא--
מאגד--
מאד--
מאו--
מאזא--
מאט--
מאי--
מאל--
מאנגא--
מאנדא--
מאנה--
מאנטי--
מאנטע--
מאני--
מאנע--
מאס--
מאקע--
מארא--
מארי--
מאשי--
מב--
מבי--
מבע--
מבק--
מג--
מד--
מה--
מו--
מוז--
מוט--
מוני--
מוניציפ--
מוסולמע--
מור--
מוש--
מז--
מח--
מחות--
מט--
מטע--
מי--
מיא--
מיד--
מיו--
מיט--
מיטא--
מיטל--
מיי--
מיל--
מילי--
מינ--
מיני--
מיס--
מיצו--
מיק--
מיקרא--
מיר--
מיש--
מכ--
מל--
מלו--
ממ--
ממו--
מנ--
מס--
מע--
מעדו--
מעדיצי--
מעט--
מעטא--
מעכא--
מעכטיג--
מעל--
מענ--
מעס--
מעק--
מער--
מערב--
מערי--
מערק--
מעש--
מפ--
מצו--
מצי--
מק--
מקד--
מקו--
מקט--
מר--
מרו--
מרי--
מש--
מת--
מתו--
מײ--
ן--
נ--
נא--
נאה--
נאז--
נאט--
נאכ--
נאס--
נאר--
נארד--
נארט--
נב--
נברע--
נג--
נגע--
נד--
נדז--
נדי--
נדע--
נדער--
נה--
נו--
נווייז--
נווע--
נוי--
נויט--
נומ--
נוס--
נוצר--
נוק--
נז--
נח--
נט--
נטויש--
נטי--
נטייל--
נטיסע--
נטל--
נטע--
נטרו--
נטרי--
נטװי--
ני--
ניג--
ניד--
נידער--
ניו--
ניט--
ניי--
נימ--
ניס--
ניע--
ניצ--
ניק--
ניר--
ניש--
נס--
נע--
נעאלא--
נעט--
נעמ--
נענ--
נעס--
נער--
נפ--
נצ--
נצו--
נצי--
נצייז--
נצע--
נצענט--
נצױ--
נק--
נקו--
נר--
נש--
נשטע--
נת--
נײ--
ס--
סא--
סאו--
סאסא--
סאקרא--
סב--
סג--
סד--
סו--
סואוו--
סוב--
סוד--
סוכ--
סופער--
סור--
סז--
סט--
סטא--
סטו--
סטי--
סטימו--
סטע--
סטער--
סטרא--
סי--
סיט--
סיי--
סיינפ--
סינ--
סיסטע--
סיק--
סיר--
סל--
סלא--
סמ--
סנ--
סע--
סעגמ--
סעט--
סעל--
סענסיט--
סעפ--
סעקו--
סער--
ספ--
ספא--
ספי--
ספעצי--
ספרא--
סק--
סקא--
סקאנדינא--
סקי--
סקעדזש--
סקערנע--
סת--
עא--
עב--
עג--
עד--
עדי--
עה--
עהר--
עו--
עוו--
עז--
עט--
עטיא--
עטל--
עטער--
עי--
עיר--
עכ--
על--
עלד--
עלט--
עלי--
עלע--
עלעקט--
עלעקטריפ--
עמ--
עמא--
עמי--
ענ--
ענג--
ענד--
ענו--
ענט--
עני--
ענלע--
ענס--
ענק--
עס--
עסט--
עפ--
עפידע--
עצ--
עצי--
עק--
עקאלא--
עקו--
עקזיס--
עקט--
עקל--
עקס--
עקספ--
ער--
ערא--
ערב--
ערג--
ערד--
ערו--
ערזענ--
ערט--
ערי--
ערל--
ערס--
ערע--
ערפ--
ערפינ--
ערשט--
עש--
עת--
פ--
פא--
פאבלי--
פאד--
פאטא--
פאטאגרא--
פאטי--
פאטע--
פאטענצי--
פאל--
פאלאד--
פאלקס--
פאנא--
פאנאט--
פאנטא--
פאנע--
פאס--
פאפ--
פאר--
פארא--
פארב--
פארבינ--
פארגע--
פארד--
פארט--
פארלא--
פארלע--
פארמא--
פארמו--
פארע--
פארצו--
פארק--
פארש--
פארשט--
פארשיד--
פארשידע--
פאשקע--
פג--
פגעד--
פו--
פובלי--
פול--
פונ--
פופצ--
פור--
פז--
פח--
פט--
פטייל--
פי--
פיא--
פיזיק--
פיט--
פיי--
פייאי--
פייער--
פיל--
פילאזא--
פילאסא--
פיליז--
פיס--
פיע--
פיר--
פיש--
פל--
פלא--
פלאט--
פלאנע--
פלי--
פלע--
פנ--
פס--
פסח--
פסיכיא--
פסק--
פע--
פעאי--
פעד--
פעט--
פעל--
פעלד--
פעס--
פעסט--
פער--
פערסא--
פקו--
פר--
פרא--
פראבלע--
פראג--
פראגרא--
פראדו--
פראדוצי--
פראדש--
פראהב--
פראטע--
פראפ--
פרו--
פרוביר--
פרי--
פריי--
פרימ--
פרס--
פרע--
פרעג--
פרעזי--
פרענט--
פשט--
פת--
צ--
צא--
צאמגע--
צאר--
צדק--
צו--
צוג--
צוגעב--
צוגעג--
צוגעט--
צוגעש--
צוויי--
צווע--
צוזא--
צוזאמ--
צוזאמגע--
צוזאמנ--
צוזאמענ--
צומ--
צונויפ--
צופ--
צוצו--
צור--
צוריק--
צי--
ציג--
ציט--
ציי--
צייט--
צימ--
ציע--
ציר--
צל--
צע--
צעל--
צעפ--
צער--
צעשמע--
צעשפ--
צפ--
צפו--
צר--
צװי--
צײ--
צײט--
ק--
קא--
קאארד--
קאארדינ--
קאבאל--
קאד--
קאזאכ--
קאטא--
קאטוי--
קאל--
קאלט--
קאלע--
קאמבי--
קאמו--
קאמוטאט--
קאנא--
קאנדא--
קאנדי--
קאנו--
קאנווענצי--
קאנס--
קאנסטיטוציא--
קאנסעקווע--
קאנפ--
קאנצע--
קאנק--
קאסמאלא--
קאפ--
קאפי--
קאצ--
קאר--
קאראאיב--
קארבא--
קאריב--
קב--
קבצ--
קד--
קדמו--
קו--
קוא--
קודש--
קווע--
קווענקל--
קול--
קומע--
קונ--
קוס--
קופ--
קוק--
קורד--
קט--
קטו--
קי--
קיד--
קיו--
קיט--
קיי--
קיילע--
קיל--
קירגיז--
קל--
קלא--
קלאסיפ--
קלאר--
קלו--
קלוג--
קלי--
קליינ--
קליינפ--
קלע--
קמ--
קנ--
קני--
קנע--
קס--
קע--
קעגנ--
קעט--
קעל--
קענ--
קעפ--
קער--
קפ--
קר--
קרא--
קרו--
קרי--
קרייצ--
קרעט--
קײ--
ר--
רא--
ראב--
ראבינא--
ראג--
ראגאט--
ראד--
ראדיא--
ראו--
ראזא--
ראזנ--
ראזע--
ראחמיסט--
ראט--
ראי--
ראל--
ראמא--
ראמענ--
ראס--
ראפ--
ראק--
רב--
רבו--
רבי--
רביי--
רבעט--
רברע--
רג--
רגו--
רגל--
רגנ--
רגע--
רד--
רדע--
רה--
רו--
רוב--
רוז--
רוט--
רוי--
רויס--
רויסגע--
רויפ--
רומ--
רומגע--
רומנ--
רוס--
רופ--
רז--
רזיכ--
רזינ--
רזע--
רח--
רט--
רטו--
רטונ--
רטי--
רטיי--
רטע--
רי--
ריב--
ריבער--
ריד--
ריז--
ריט--
ריי--
רייד--
רייט--
רייכס--
ריינ--
רימ--
ריס--
ריע--
ריפ--
ריר--
ריש--
רכ--
רל--
רלוי--
רלי--
רמ--
רמול--
רמי--
רמע--
רנ--
רנט--
רניכ--
רס--
רע--
רעא--
רעב--
רעג--
רעד--
רעדע--
רעזיג--
רעזיס--
רעט--
רעי--
רעכט--
רעכנ--
רעמ--
רעמד--
רענ--
רעס--
רעפ--
רעפא--
רעפטי--
רעפרע--
רעקא--
רעקרו--
רער--
רפ--
רצ--
רצו--
רצייכ--
רצע--
רק--
רקע--
ררע--
רש--
רשו--
רשט--
רשטיי--
רשטע--
רשי--
רשייד--
רשע--
רשפ--
רױ--
רױס--
רײ--
ש--
שא--
שאד--
שאט--
שאכש--
שאל--
שאפ--
שאצקא--
שאק--
שאר--
שב--
שבת--
שד--
שה--
שו--
שווא--
שווע--
שוי--
שול--
שולע--
שט--
שטא--
שטאט--
שטאל--
שטו--
שטיפ--
שטע--
שטער--
שטר--
שטײ--
שי--
שיט--
שיי--
שיכ--
שיפ--
שכ--
של--
שלו--
שלי--
שלע--
שמ--
שמא--
שמו--
שמייכ--
שמע--
שנ--
שנא--
שני--
שניי--
שע--
שעה--
שעל--
שעפ--
שעפעט--
שער--
שפ--
שפא--
שפי--
שפיל--
שפע--
שפר--
שפרא--
שר--
שריי--
שרייב--
שרעק--
שש--
שת--
שװי--
שװע--
שױ--
שײ--
ת--
תב--
תהל--
תו--
תח--
תי--
תכ--
תל--
תמ--
תנ--
תס--
תע--
תפ--
תצ--
תק--
תר--
תש--
תת--
װ--
װו--
װי--
װידמ--
װיל--
װע--
װעק--
װער--
װױ--
װײ--
ױ--
ײ--
ال--
--0
--00
--1
--2
--3
--4
--5
--6
--7
--8
--9
--a
--able
--ach
--acy
--ai
--ak
--al
--am
--an
--ance
--ant
--ar
--ard
--ary
--as
--at
--ata
--ate
--ated
--ating
--ation
--ations
--ative
--ator
--avo
--ay
--b
--berg
--ble
--box
--c
--ca
--cal
--ce
--ceae
--ces
--ch
--che
--cher
--cio
--ck
--ct
--cy
--d
--da
--date
--de
--ded
--desc
--do
--ds
--dy
--e
--ea
--ect
--ed
--edia
--ee
--eep
--ein
--ek
--el
--ely
--em
--en
--ent
--ep
--er
--eral
--ering
--ern
--ers
--ery
--es
--ese
--ess
--et
--ever
--ex
--ey
--f
--fied
--ft
--ful
--g
--ga
--ge
--gen
--ger
--go
--gs
--h
--ham
--he
--hed
--hint
--i
--ia
--ial
--iam
--ian
--ic
--ica
--ical
--ice
--ick
--ics
--ict
--id
--ide
--ie
--ies
--ified
--ify
--ig
--ight
--ik
--iki
--il
--ill
--im
--image
--in
--ine
--ing
--ings
--ini
--ink
--ins
--io
--ion
--ions
--ip
--ir
--is
--ise
--ised
--ising
--ism
--iss
--it
--ities
--ity
--ium
--ive
--ix
--ization
--ize
--ized
--j
--k
--ka
--ke
--ker
--key
--ki
--ko
--ks
--ky
--l
--la
--ld
--le
--ley
--link
--links
--list
--lity
--ll
--lle
--lo
--lop
--ls
--ly
--m
--ma
--map
--me
--ment
--mid
--n
--na
--name
--nce
--ncy
--nd
--ne
--nen
--ner
--ness
--ng
--ni
--nia
--nie
--ning
--nis
--nk
--no
--ns
--nt
--ntly
--ny
--o
--od
--of
--ol
--olution
--om
--on
--ons
--or
--ors
--os
--ot
--ous
--ow
--p
--page
--param
--pare
--patible
--pe
--ped
--phy
--pond
--port
--q
--r
--ra
--ral
--rc
--rd
--re
--rea
--ref
--ren
--rg
--ri
--ria
--rial
--ring
--rio
--rl
--rn
--ro
--rs
--rt
--rted
--ry
--s
--saw
--sc
--se
--sed
--ses
--sh
--ship
--si
--sion
--sis
--son
--ss
--st
--ster
--str
--t
--ta
--tain
--tal
--te
--tect
--ted
--ter
--tes
--text
--th
--ting
--tion
--tions
--title
--to
--ton
--tor
--tr
--ts
--ture
--ty
--tyle
--tz
--u
--ual
--ually
--ub
--ue
--ula
--um
--up
--ur
--ure
--url
--us
--ut
--v
--va
--value
--ve
--ved
--vo
--w
--x
--y
--ya
--ys
--z
--ze
--zy
--α
--ο
--ς
--а
--аи
--ал
--ами
--ать
--ах
--ая
--б
--бѣ
--в
--ва
--вич
--г
--гда
--го
--д
--да
--де
--ди
--ду
--дъ
--ды
--е
--еи
--елеи
--ем
--ер
--ет
--етъ
--и
--ие
--ии
--им
--имъ
--ит
--ить
--ия
--к
--ка
--ки
--ко
--ков
--ком
--л
--ла
--ло
--лось
--м
--ма
--ми
--му
--мъ
--н
--наго
--ная
--ние
--но
--ного
--нои
--ны
--ные
--ныи
--ным
--нымъ
--ных
--ныхъ
--ныя
--ня
--ніе
--ніи
--нія
--нѣ
--о
--ов
--ого
--ои
--ом
--омъ
--ою
--р
--ра
--ри
--рии
--рия
--рои
--с
--сколько
--сле
--сти
--сть
--стью
--сь
--т
--та
--тва
--ти
--тъ
--ть
--тье
--тья
--у
--х
--хъ
--ца
--че
--чь
--ш
--шеи
--ъ
--ы
--ьма
--ю
--я
--ями
--і
--іи
--ія
--ѣ
--א
--אב
--אבע
--אג
--אגא
--אגיע
--אד
--אדע
--אה
--או
--אוו
--אווא
--אוויטש
--אווסקי
--און
--אונג
--אוס
--אז
--אט
--אטאר
--אטיוו
--אטן
--אטע
--אי
--אין
--איק
--איקע
--איש
--אישע
--אך
--אכט
--אכץ
--אל
--אלאגיע
--אליזם
--אללה
--אלן
--אלע
--אלער
--אם
--אמען
--אן
--אנא
--אנג
--אנד
--אנט
--אנטן
--אנישע
--אנס
--אנסקי
--אנע
--אנען
--אנער
--אנץ
--אנקן
--אס
--אסי
--אעל
--אף
--אפ
--אפט
--אציע
--אציעס
--אק
--אר
--ארד
--ארט
--ארישע
--ארן
--ארס
--ארע
--ארער
--ארפן
--אש
--את
--אױף
--ב
--בא
--באן
--באר
--בארן
--בארע
--בארער
--בה
--בו
--בוך
--בורג
--בות
--בט
--בי
--ביון
--ביץ
--בך
--בל
--בלאט
--בלי
--בן
--בס
--בע
--בעל
--בען
--בענע
--בער
--בערג
--בר
--ברא
--בראכן
--בת
--בײ
--ג
--גא
--גאג
--גאן
--גאנג
--גאף
--גה
--גו
--גון
--גונג
--גוס
--גות
--גט
--גי
--גיין
--גייער
--גים
--גיסונג
--גיע
--גיעס
--גירן
--גל
--גלעכע
--גן
--גנ
--גנט
--גנס
--גס
--גע
--געבן
--געגא
--געזא
--געלא
--גען
--געפ
--געפא
--גער
--גרא
--גײער
--ד
--דא
--דאם
--דאן
--דאס
--דאק
--דאר
--דד
--דה
--דו
--דות
--דט
--די
--דיג
--דיגט
--דיגן
--דיגע
--דיגער
--דיום
--דין
--דיע
--דיק
--דיקט
--דיקן
--דיקע
--דיקער
--דך
--דל
--דליך
--דן
--דנ
--דנא
--דנט
--דס
--דע
--דעם
--דען
--דער
--דרוקט
--דש
--דת
--ה
--הא
--האד
--האם
--הג
--הו
--הט
--הי
--היט
--הייט
--הל
--הלן
--הם
--המ
--הן
--הע
--הען
--הערט
--הר
--ו
--וא
--ואל
--ואן
--וב
--וג
--וד
--ודא
--ודה
--וה
--וו
--ווא
--ווט
--ווי
--ווייז
--וון
--ווע
--ווענץ
--ווער
--וורא
--ווײ
--וז
--וח
--וט
--וי
--ויב
--ויבן
--וין
--וינען
--וינער
--ויס
--ויף
--ויץ
--וירן
--וך
--וכע
--ול
--ום
--ומ
--ומא
--ומפ
--ון
--ונ
--ונג
--ונגן
--ונגס
--ונגען
--ונה
--ונט
--וני
--ונים
--ונם
--ונס
--וס
--וסקי
--וע
--ועהן
--ועז
--ועי
--ועים
--ועל
--ועלע
--וער
--וף
--ופ
--ופן
--וץ
--וק
--וקט
--וקן
--ור
--ורן
--וש
--ות
--ותי
--ותם
--וײ
--ז
--זא
--זאג
--זאגן
--זאם
--זאמט
--זאמע
--זאמער
--זאן
--זאציע
--זב
--זד
--זדן
--זו
--זוכט
--זט
--זי
--זיין
--זיכט
--זים
--זיע
--זירן
--זיש
--זל
--זלעך
--זם
--זן
--זע
--זען
--זעצט
--זער
--זש
--זשאד
--זשער
--זשקע
--זײ
--ח
--חה
--חי
--חים
--חץ
--חר
--חת
--ט
--טא
--טאוו
--טאן
--טאק
--טאר
--טארן
--טארס
--טה
--טו
--טוהן
--טוועגן
--טוישט
--טום
--טון
--טופ
--טור
--טח
--טי
--טיגט
--טיזם
--טייל
--טיל
--טילט
--טילן
--טימע
--טינג
--טיס
--טיע
--טיק
--טיש
--טל
--טליכע
--טן
--טנ
--טני
--טס
--טע
--טעט
--טען
--טעס
--טער
--טערט
--טץ
--טר
--טרא
--טריבן
--טש
--טשוב
--טת
--טײ
--י
--יא
--יאל
--יב
--יבט
--יבן
--יבער
--יג
--יגונג
--יגונגס
--יגט
--יגטע
--יגן
--יגסטע
--יגע
--יגען
--יגער
--יגקייט
--יד
--ידזש
--יה
--יהל
--יהלט
--יהם
--יהן
--יהרט
--יו
--יוב
--יוו
--יוון
--יווע
--יווער
--יום
--יוס
--יות
--יז
--יזא
--יזאציע
--יזירט
--יזירטע
--יזירן
--יזם
--יזן
--יזשפולע
--יט
--יטי
--יטן
--יטנס
--יטס
--יטעט
--יטען
--יטש
--יטשט
--יי
--ייבן
--ייה
--ייזן
--ייט
--ייל
--יים
--יין
--יינט
--יינס
--ייען
--ייפל
--ייצט
--ייק
--יך
--יכט
--יכטן
--יכי
--יכם
--יכן
--יכנט
--יכע
--יכער
--יל
--ילט
--ילן
--ילע
--ים
--ימ
--ימט
--ימענט
--ימער
--ין
--ינ
--ינא
--ינג
--ינגטאן
--ינגען
--ינה
--ינו
--ינוס
--ינט
--יני
--ינים
--יניק
--יניקט
--יניש
--ינס
--ינסקי
--ינע
--ינען
--ינק
--ינקע
--יס
--יסט
--יסטיש
--יסטן
--יסטען
--יסי
--יסן
--יסק
--יע
--יעוו
--יעט
--יען
--יעס
--יער
--יף
--יפ
--יפן
--יץ
--יצט
--יציא
--יציע
--יצע
--יצען
--יצער
--יצקי
--יק
--יקא
--יקונג
--יקט
--יקי
--יקייט
--יקל
--יקן
--יקס
--יקע
--יקער
--יקײט
--יר
--ירונג
--ירט
--ירטע
--ירטער
--ירים
--ירן
--ירען
--ירענע
--ירער
--יש
--ישאן
--ישן
--ישע
--ישער
--ישקייט
--ית
--יתא
--ך
--כ
--כא
--כאוו
--כאפן
--כה
--כט
--כטן
--כי
--כיג
--כיגע
--כיק
--כך
--כל
--כלעך
--כם
--כן
--כנ
--כנדיג
--כנט
--כס
--כע
--כען
--כער
--כפ
--כץ
--כקײט
--כר
--כת
--ל
--לא
--לאג
--לאגיע
--לאגן
--לאז
--לאך
--לאנד
--לאפן
--לאציע
--לאר
--לבט
--לד
--לה
--לו
--לונג
--לוס
--לות
--לט
--לטן
--לטע
--לי
--ליזם
--לייגט
--לייגן
--ליך
--ליכן
--ליכסטע
--ליכע
--ליכער
--לימ
--לין
--לינ
--ליע
--ליץ
--ליק
--ליקן
--ליש
--לישן
--לית
--לך
--לל
--לם
--לן
--לנ
--לס
--לע
--לעבונג
--לעבט
--לעט
--לעך
--לעכ
--לעכן
--לעכע
--לעכער
--לעכקי
--לען
--לעס
--לער
--לצן
--לת
--לײ
--ם
--מ
--מא
--מאכט
--מאל
--מאן
--מאנד
--מאנט
--מאק
--מאר
--מב
--מד
--מה
--מו
--מוד
--מון
--מוס
--מט
--מי
--מיט
--מיל
--מיק
--מיר
--מיש
--מישט
--מישן
--מך
--מל
--מלעך
--מם
--מן
--מס
--מסטע
--מסקי
--מע
--מען
--מענט
--מעס
--מער
--מפ
--מץ
--מצא
--מר
--מת
--מײ
--ן
--ןס
--נ
--נא
--נאו
--נאוו
--נאל
--נאלע
--נאם
--נאמע
--נב
--נבא
--נבויגן
--נבוים
--נבוך
--נבורג
--נבערג
--נג
--נגונג
--נגט
--נגל
--נגן
--נגס
--נגען
--נגענ
--נד
--נדיג
--נדיק
--נדיקן
--נדיקע
--נדיקער
--נדל
--נדן
--נדע
--נדעט
--נדעלט
--נדען
--נדער
--נה
--נו
--נוב
--נום
--נות
--נז
--נזאן
--נט
--נטא
--נטאל
--נטום
--נטלעך
--נטן
--נטס
--נטע
--נטש
--ני
--ניא
--ניו
--ניום
--נים
--נימען
--נין
--נינג
--ניס
--ניע
--ניץ
--ניצא
--ניק
--ניקע
--ניקעס
--ניש
--נישע
--נית
--נך
--נם
--נן
--נס
--נסאן
--נסען
--נסק
--נסקי
--נע
--נעט
--נעל
--נעם
--נעמונג
--נעמען
--נעמער
--נען
--נענ
--נעס
--נער
--נערט
--נערן
--נפ
--נפעלד
--נץ
--נצ
--נצט
--נצן
--נצען
--נק
--נקא
--נקט
--נקייט
--נקן
--נר
--נשא
--נת
--ס
--סא
--סאהן
--סאן
--סבורג
--סט
--סטא
--סטו
--סטן
--סטנס
--סטע
--סטען
--סטער
--סי
--סים
--סין
--סיס
--סל
--סלט
--סלען
--סן
--סע
--סען
--סענע
--סער
--ספ
--ספער
--סק
--סקא
--סקי
--סקעט
--סר
--סרט
--ע
--עא
--עב
--עבן
--עג
--עגן
--עד
--עדט
--עדיגע
--עדיקע
--עה
--עהא
--עו
--עוו
--עוועט
--עווען
--עות
--עז
--עזא
--עזעצט
--עזש
--עט
--עטי
--עטן
--עטע
--עי
--עישן
--עך
--עכ
--עכט
--עכל
--עכן
--עכנט
--עכע
--עכער
--עכץ
--עכקײט
--על
--עלט
--עלן
--עלס
--עלע
--עלעך
--עם
--עמ
--עמט
--עמן
--ען
--ענ
--ענד
--ענדיג
--ענדיק
--ענדע
--ענט
--עניס
--עניש
--ענישן
--ענס
--ענסטע
--ענע
--ענעם
--ענעס
--ענער
--ענץ
--ענצן
--עס
--עעוו
--עף
--עפ
--עפדיע
--עפט
--עץ
--עצט
--עצקי
--עק
--עקט
--ער
--ערא
--ערג
--ערהייט
--ערט
--ערי
--עריי
--ערייען
--ערישע
--ערן
--ערס
--ערע
--עש
--עת
--ף
--פ
--פא
--פאל
--פאלן
--פאן
--פאס
--פאר
--פארן
--פה
--פו
--פול
--פולע
--פולער
--פות
--פט
--פי
--פיג
--פידיע
--פילד
--פים
--פין
--פיע
--פיק
--פירן
--פיש
--פך
--פל
--פלט
--פלטע
--פן
--פנט
--פס
--פע
--פעלד
--פען
--פער
--פץ
--פק
--פר
--פש
--פת
--ץ
--צ
--צא
--צאל
--צה
--צו
--צוטרא
--צויגן
--צופ
--צופירן
--צורייסן
--צות
--צט
--צי
--ציא
--צייט
--ציע
--ציען
--ציעס
--צל
--צן
--צנ
--צנס
--צע
--צען
--צענע
--צער
--צק
--צקי
--צר
--צת
--צױגן
--צײ
--ק
--קא
--קאוו
--קאט
--קאטן
--קאם
--קב
--קה
--קו
--קום
--קומען
--קומפט
--קונג
--קוקט
--קות
--קט
--קטע
--קי
--קיי
--קייט
--קייטן
--קין
--קינד
--קיס
--קיע
--קיש
--קל
--קלט
--קליבן
--קם
--קן
--קנ
--קס
--קסיד
--קסן
--קע
--קען
--קעס
--קער
--קערט
--קף
--קרא
--קש
--קשן
--קת
--קײ
--קײט
--ר
--רא
--ראד
--ראוו
--ראט
--ראטן
--ראכן
--ראל
--ראן
--ראס
--ראציע
--ראש
--רב
--רבן
--רג
--רד
--רה
--רהייט
--רו
--רוג
--רוט
--רוף
--רופ
--רופן
--רוקט
--רט
--רטן
--רטע
--רטען
--רי
--ריבען
--ריבענע
--רידזש
--ריה
--ריט
--ריי
--רייך
--רייכע
--רייסן
--ריך
--ריכט
--רין
--ריע
--ריק
--ריקנט
--ריש
--רישן
--רישע
--רית
--רך
--רל
--רם
--רמירן
--רמס
--רן
--רנע
--רס
--רסירן
--רע
--רעד
--רעדן
--רעט
--רעך
--רעכט
--רען
--רעס
--רעף
--רער
--רף
--רפן
--רץ
--רק
--רש
--רת
--רתי
--רײ
--ש
--שא
--שאם
--שאפט
--שב
--שה
--שו
--שט
--שטא
--שטאט
--שטאק
--שטן
--שטע
--שטש
--שי
--שיגע
--שיל
--שין
--שינג
--שיע
--שיף
--שיץ
--שיק
--שיקט
--שיר
--של
--שלא
--שן
--שניטן
--שע
--שעוו
--שעט
--שען
--שענס
--שעס
--שער
--שפ
--שקע
--שר
--שריבן
--שת
--ת
--תא
--תה
--תו
--תח
--תי
--תיה
--תיו
--תית
--תך
--תם
--תן
--תר
--װ
--װא
--װן
--ױ
--ױט
--ױם
--ױף
--ײ
--ײט
--ײן
--ײנט
--ن
