!
"
#
##0
##1
##10
##11
##12
##13
##14
##15
##16
##17
##18
##19
##2
##20
##21
##22
##23
##24
##25
##26
##27
##28
##29
##3
##30
##31
##32
##33
##34
##35
##36
##37
##38
##39
##4
##40
##41
##42
##43
##44
##45
##46
##47
##48
##49
##5
##50
##51
##52
##53
##54
##55
##56
##57
##58
##59
##6
##60
##61
##62
##63
##64
##65
##66
##67
##68
##69
##7
##70
##71
##72
##73
##74
##75
##76
##77
##78
##79
##8
##80
##81
##82
##83
##84
##85
##86
##87
##88
##89
##9
##90
##91
##92
##93
##94
##95
##96
##97
##98
##99
$
%
&
'
(
)
*
+
,
-
.
/
0
00
000
01
02
03
033
04
05
06
067
07
08
09
1
10
100
1000
101
102
103
104
105
106
107
108
109
11
110
1100
111
112
113
114
115
116
117
118
119
12
120
1200
121
122
123
124
125
126
127
128
129
13
130
1300
131
132
133
134
135
136
137
138
139
14
140
1400
141
142
143
144
145
146
147
1470
148
1483
149
1492
1495
1497
1498
15
150
1500
1502
1504
151
1512
1514
1519
152
1520
1521
1525
1526
1527
153
1533
154
1540
1541
1542
1544
1546
1547
1549
155
1550
156
1564
1566
157
158
1580
1584
1589
159
1594
1596
1599
16
160
1600
1603
1605
1606
1609
161
1614
1616
1619
162
1626
163
1630
1632
164
1640
1642
1644
1648
165
1650
1654
1655
166
1660
1665
1667
167
1672
1676
1678
168
1683
1685
1688
169
1691
1694
17
170
1700
1701
1703
1705
1707
171
1712
1713
1715
172
1723
1724
1727
1728
1729
173
1732
1733
1735
1736
1738
174
1743
1744
1748
1749
175
1750
1755
1756
1759
176
1760
1761
1762
1763
1764
1765
1766
1767
1768
1769
177
1770
1771
1772
1774
1775
1776
1777
1778
1779
178
1780
1781
1782
1783
1784
1785
1786
1788
1789
179
1790
1791
1792
1793
1794
1795
1796
1797
1798
1799
18
180
1800
1801
1802
1803
1804
1805
1806
1807
1808
1809
181
1810
1811
1812
1813
1814
1815
1816
1817
1818
1819
182
1820
1821
1822
1823
1824
1825
1826
1827
1828
1829
183
1830
1831
1832
1833
1834
1835
1836
1837
1838
1839
184
1840
1841
1842
1843
1844
1845
1846
1847
1848
1849
185
1850
1851
1852
1853
1854
1855
1856
1857
1858
1859
186
1860
1861
1862
1863
1864
1865
1866
1867
1868
1869
187
1870
1871
1872
1873
1874
1875
1876
1877
1878
1879
188
1880
1881
1882
1883
1884
1885
1886
1887
1888
1889
189
1890
1891
1892
1893
1894
1895
1896
1897
1898
1899
19
190
1900
1901
1902
1903
1904
1905
1906
1907
1908
1909
191
1910
1911
1912
1913
1914
1915
1916
1917
1918
1919
192
1920
1921
1922
1923
1924
1925
1926
1927
1928
1929
193
1930
1931
1932
1933
1934
1935
1936
1937
1938
1939
194
1940
1941
1942
1943
1944
1945
1946
1947
1948
1949
195
1950
1951
1952
1953
1954
1955
1956
1957
1958
1959
196
1960
1961
1962
1963
1964
1965
1966
1967
1968
1969
197
1970
1971
1972
1973
1974
1975
1976
1977
1978
1979
198
1980
1981
1982
1983
1984
1985
1986
1987
1988
1989
199
1990
1991
1992
1993
1994
1995
1996
1997
1998
1999
2
20
200
2000
2001
2002
2003
2004
2005
2006
2007
2008
2009
201
2010
2011
2012
2013
2014
2015
2016
2017
2018
2019
202
2020
2021
2022
203
204
205
206
207
208
209
21
210
211
212
213
214
215
216
217
218
219
22
220
221
222
223
224
225
226
227
228
229
23
230
231
232
233
234
235
236
237
238
239
24
240
241
242
243
244
245
246
247
248
249
25
250
251
252
253
254
255
256
257
258
259
26
260
261
262
263
264
265
266
267
268
269
27
270
271
272
273
274
275
276
277
278
279
28
280
281
282
283
284
285
286
287
288
289
29
290
291
292
293
294
295
296
297
298
299
3
30
300
301
302
303
304
305
306
307
308
309
31
310
311
312
313
314
315
316
317
318
319
32
320
321
322
323
324
325
326
327
328
329
33
330
331
332
333
334
335
336
337
338
339
34
340
341
342
343
344
345
346
347
348
35
350
351
352
353
354
355
356
359
36
360
361
362
363
364
365
366
367
369
37
370
372
373
375
376
38
380
383
384
385
387
39
391
395
396
399
4
40
400
4000
405
41
410
415
417
42
420
425
43
430
431
435
44
440
441
45
450
46
467
47
472
476
48
480
483
486
49
492
495
496
5
50
500
5000
508
509
51
510
512
52
521
525
53
54
55
550
56
57
570
58
580
583
59
6
60
600
61
613
62
63
64
65
650
66
67
68
69
7
70
700
71
72
73
74
747
75
750
76
77
770
78
79
8
80
800
81
82
83
84
840
85
850
86
87
88
880
89
9
90
900
91
911
917
92
920
93
930
933
94
949
95
950
96
960
965
97
970
975
978
98
980
983
99
990
999
:
;
<
=
>
?
@
[
\
]
^
_
`
a
aa
ab
abc
about
abraham
ac
action
ad
affairs
after
ag
against
agency
al
aleph
alexander
aligned
all
also
am
america
american
amsterdam
an
analysis
ancient
and
april
archive
are
area
art
article
articles
as
asean
asp
aspx
association
at
au
august
australia
b
ba
base
bbc
bc
be
begin
beider
ben
berlin
best
bhol
bibcode
bing
biography
black
blica
blogspot
book
books
borough
britannica
british
brooklyn
bu
bugzilla
business
by
c
ca
calculus
california
cambridge
canada
categories
category
cdot
ce
census
center
central
century
ch
channel
chapter
charles
chemistry
chile
china
christmas
cia
cite
cities
city
cl
cm
cnn
co
cocktail
code
cohen
columbia
com
company
con
cos
cot
council
countries
country
crossrail
ctrl
culture
current
d
da
daniel
das
data
david
day
de
dead
december
del
den
department
der
des
details
deutsche
deutschen
development
di
diao
dictionary
die
directory
displaystyle
dn
dna
do
doi
don
dortmund
dos
dr
du
dvd
dx
e
early
earth
east
economic
ed
edit
edition
eds
edu
education
ein
el
en
encyclopedia
encyclopædia
end
english
environment
er
es
et
eu
europe
european
events
f
facebook
fact
factbook
facts
family
fe
february
field
film
films
find
first
fm
food
for
foreign
forum
forums
forward
fox
fr
frac
franc
france
free
french
from
fu
fun
func
g
galgalejournal
gdp
ge
general
geometry
george
german
geschichte
ghil
global
gnu
go
good
google
gov
government
great
greek
green
group
guide
h
ha
had
hall
hat
he
hebrew
hebrewbooks
her
heritage
high
hill
his
history
home
hot
house
how
htm
html
http
https
human
i
ic
id
ii
iii
il
im
imdb
in
inc
index
india
information
infty
institute
int
international
internet
introduction
ip
ir
is
isaac
isbn
island
islands
israel
israeli
istanbul
it
its
iv
ivelt
ix
j
james
jan
january
jdn
jerusalem
jewish
jewishgen
jews
john
joseph
journal
jpg
ju
juden
july
june
jupiter
k
kaveshtiebel
key
king
kingdom
ko
ku
kyiv
l
la
land
lane
language
languages
last
law
le
left
leipzig
les
li
library
life
light
lim
line
link
list
little
live
lo
local
london
los
louis
love
ltd
m
ma
machine
made
magazine
main
man
map
march
marie
mark
mars
mathematical
mathematics
may
me
media
men
miasta
michael
microsoft
military
miss
mit
mo
modern
more
moscow
most
movie
movies
mp
mr
mu
museum
music
my
n
na
name
names
nasa
national
nations
nd
ne
net
network
new
news
ng
night
nit
nli
nm
no
north
not
november
now
nrg
number
ny
nybc
nytimes
o
oclc
october
oecd
of
off
office
official
old
omega
on
one
online
or
org
original
os
other
our
over
oxford
p
pa
page
pages
paris
park
part
party
paul
pdf
people
per
peter
ph
php
physics
pi
planet
pmid
polish
popular
population
portal
post
power
pp
president
press
pro
profile
psi
public
publications
publique
publishers
publishing
purge
q
que
queen
r
ra
rabbi
radio
rail
railway
rangle
re
recipe
recipes
record
ref
region
relations
report
repu
republic
research
retrieved
review
richard
right
rights
ro
road
robert
rottentomatoes
royal
rterbuch
ru
russia
russian
s
sa
saturn
science
se
sea
search
second
see
september
server
service
sheet
should
show
si
sid
signup
sin
singapore
sister
smith
so
social
society
song
songs
south
soviet
space
spb
special
sprache
springer
sqrt
st
sta
standard
star
state
states
station
statistical
statistics
story
street
structure
studies
study
su
sum
survey
system
t
ta
tan
te
technology
tfl
th
that
the
their
theta
this
thomas
time
times
title
to
topic
torah
town
towns
transport
trump
tt
tu
tv
twin
u
ua
uk
ukraine
un
und
underground
union
united
university
up
us
usa
utc
v
va
value
van
verlag
version
vi
viaf
video
view
viewtopic
vii
viii
vilnius
vista
vol
volkskunde
volume
von
w
war
was
watch
water
way
wayback
we
web
website
west
what
which
white
who
why
wie
wiki
wikipedia
wiktionary
will
william
windows
with
wo
wolbachia
women
wood
word
world
worldcat
wrights
www
x
xi
xii
xiv
xix
xp
y
year
years
yi
yiddish
ynet
york
you
youtube
z
zu
zuckermann
zur
{
|
}
~


£
¥
§
©
«
¬
­
®
¯
°
±
²
´
·
º
»
½
¾
×
ı
ɑ
ə
ʃ
ʒ
ʰ
ʲ
ʹ
ʻ
ʿ
ˈ
ː
̀
́
̂
̃
̄
̆
̇
̈
̉
̊
̋
̌
̍
̓
̔
̛
̣
̦
̧
̨
̯
̸
͂
ͅ
͡
α
β
γ
δ
ε
ζ
η
θ
ι
λ
ν
ο
π
ρ
ς
υ
φ
χ
ψ
ω
ϕ
а
б
без
более
больше
болѣе
бы
был
была
были
было
былъ
быть
в
вар
вариант
варианты
варіантъ
варіанты
виленск
вильна
витебск
во
вот
вотъ
времени
время
все
второи
въ
вып
г
гальперн
гальпернъ
гродненск
губ
д
даже
деи
для
до
др
другои
дѣи
е
евреев
евреевъ
евреи
его
ее
если
есть
еще
ж
жа
же
жизни
жизнь
з
за
зин
зинъ
и
из
изъ
или
иногда
исключительно
истории
их
ихъ
к
как
какъ
кассель
ковенск
когда
которые
кто
курляндск
къ
л
левин
левинъ
лет
ли
либо
лишь
любви
м
маи
мать
меня
минск
могилевск
можно
москва
мы
мінск
н
на
нам
нами
намъ
напеч
народ
народа
народная
народнои
народных
народныхъ
народъ
нас
насъ
наше
не
неи
несколько
ни
но
нъ
нѣсколько
о
области
область
одесса
одна
однои
одну
он
она
они
онъ
орша
от
отъ
п
песен
песне
песни
песня
песнях
петербург
пик
пикъ
по
под
подольск
поется
половины
полтавск
порою
портнои
почему
почти
при
пѣсенъ
пѣсни
пѣсня
пѣсняхъ
пѣснѣ
р
реи
родителеи
россии
с
своего
своеи
своему
свои
свою
себе
себѣ
синява
ская
скии
ских
ского
скои
см
со
собою
содержание
содержанія
среди
сс
ст
старая
ства
стороны
стр
счастье
съ
ся
т
так
также
такъ
творчества
те
тель
то
того
только
том
томъ
ты
у
уже
ф
х
ц
ч
чем
что
чтобы
чѣмъ
ш
ъ
ы
ь
э
эта
эти
это
этои
этом
этомъ
ю
я
і
֑
֔
֖
֗
֙
֛
֜
֣
֤
֥
ְ
ֱ
ֲ
ֳ
ִ
ֵ
ֶ
ַ
ָ
ֹ
ֻ
ּ
ֽ
־
ֿ
ׁ
ׂ
׃
ׅ
ׇ
א
אא
אאז
אב
אבא
אבאמא
אבד
אבדאללא
אבדול
אבדק
אבהו
אבו
אבודרהם
אבוחצירא
אבות
אבותינו
אבזערווער
אבטליון
אבי
אביב
אביבער
אביגדור
אביגיל
אביו
אביון
אביי
אביך
אבילות
אבינו
אביסל
אביסעל
אביסעלע
אביעקט
אביעקטן
אביר
אביש
אבל
אבלאסט
אבלים
אבן
אבני
אבנר
אבסאלוט
אבסטראקטע
אבסטראקטער
אבעל
אבער
אבערלענדער
אבר
אבראמאוויטש
אבראמסקי
אברהם
אברהמל
אברהמלען
אברים
אברכים
אברם
אבשלום
אג
אגאנצן
אגב
אגד
אגדה
אגדות
אגדתא
אגודה
אגודת
אגענדע
אגענט
אגענטור
אגענטורן
אגענטן
אגענסט
אגרא
אגרות
אגריפס
אגריקולטור
אגרעסיווע
אגרת
אד
אדא
אדאלף
אדאנק
אדאפטירט
אדאפטירן
אדה
אדוואקאט
אדוואקאטן
אדווערטייזמענט
אדווערטייזן
אדום
אדומה
אדומים
אדון
אדוני
אדורך
אדורכגיין
אדורכגעגאנגען
אדורכגעפירט
אדזשאד
אדינגטאן
אדל
אדלער
אדלר
אדם
אדמו
אדמון
אדמורי
אדמיניסטראטיווע
אדמיניסטראטיווער
אדמיניסטראציע
אדמיראל
אדנ
אדעס
אדעססא
אדער
אדערן
אדר
אדרבא
אדרבה
אדרים
אדרעס
אדרעסן
אדרת
אה
אהאיא
אהבה
אהבת
אהבתי
אהוד
אהיה
אהייא
אהיים
אהיימגעקומען
אהין
אהינ
אהינצו
אהל
אהלות
אהלי
אהן
אהנ
אהער
אהערגעשטעלט
אהרון
אהרונים
אהרן
אהרנען
או
אוגאנדע
אוגוסט
אודאי
אודווארי
אודות
אוה
אוהב
אוהד
אוהל
אוהעל
אוו
אוואו
אוואולאציע
אוואנטורע
אווארד
אוודאי
אוויאציע
אוונט
אווענט
אוועק
אוועקגיין
אוועקגעבן
אוועקגעגאנגען
אוועקגעגעבן
אוועקגעלייגט
אוועקגענומען
אוועקגעצויגן
אוועקגעשטעלט
אוועקלייגן
אוועקנעמען
אוועקשטעלן
אוורוטש
אוזבעקיסטא
אוזבעקיסטאן
אוחזין
אוי
אויא
אויב
אויבוואויל
אויבן
אויבנא
אויבנדערמאנטע
אויבענדערמאנטע
אויבער
אויבערדערמאנטע
אויבערהאנט
אויבערפלאך
אויבערשטן
אויבערשטע
אויבערשטער
אויג
אויגוסט
אויגן
אויגנ
אויגע
אויגען
אוידיא
אויוון
אויווען
אויטא
אויטאבוס
אויטאבוסן
אויטאביאגראפיע
אויטאמאביל
אויטאמאבילן
אויטאמאטיש
אויטאמאטישע
אויטאנאמיע
אויטאנאמישע
אויטאס
אויטאריטעט
אויטאריטעטן
אויך
אויכ
אויכט
אויכעט
אויל
אוילעמ
אוילער
אוימאן
אוין
אויס
אויסארבעטן
אויסב
אויסבא
אויסבאהאלטן
אויסבעטן
אויסבראך
אויסברוך
אויסברעכן
אויסגא
אויסגאבן
אויסגאבע
אויסגאבעס
אויסגאנג
אויסגיין
אויסגיסן
אויסגלייכן
אויסגע
אויסגעארבעט
אויסגעב
אויסגעבויט
אויסגעבן
אויסגעברא
אויסגעבראכן
אויסגעברייטערט
אויסגעגא
אויסגעגאנגען
אויסגעגאסן
אויסגעגעבן
אויסגעדא
אויסגעדרוקט
אויסגעדרייט
אויסגעדריקט
אויסגעהא
אויסגעהאלטן
אויסגעהיילט
אויסגעהערט
אויסגעהרגעט
אויסגעווא
אויסגעוואקסן
אויסגעוויזן
אויסגעוויילט
אויסגעוועלט
אויסגעזעהן
אויסגעזען
אויסגעזעצט
אויסגעטא
אויסגעטייטשט
אויסגעטיילט
אויסגעטרא
אויסגעטראכט
אויסגעטראכטע
אויסגעטראפן
אויסגעלא
אויסגעלאזט
אויסגעלויבט
אויסגעלייגט
אויסגעליידיגט
אויסגעליידיקט
אויסגעלייזט
אויסגעלערנט
אויסגעמא
אויסגעמאכט
אויסגעמיטן
אויסגעמישט
אויסגענומען
אויסגענוצט
אויסגעניצט
אויסגעפ
אויסגעפא
אויסגעפארעמט
אויסגעפארשט
אויסגעפונען
אויסגעפינען
אויסגעפירט
אויסגעפלאצט
אויסגעפעלט
אויסגעפרעגט
אויסגעצאלט
אויסגעצויגן
אויסגעצייכנט
אויסגעצייכנטע
אויסגעצייכענט
אויסגעקומען
אויסגעקוקט
אויסגעקליבן
אויסגעקליבען
אויסגעקליבענע
אויסגעקערעוועט
אויסגעקריצט
אויסגערופן
אויסגערופען
אויסגעריסן
אויסגערעדט
אויסגערעכנט
אויסגערעכנטע
אויסגעשטא
אויסגעשטעלט
אויסגעשטרעקט
אויסגעשלא
אויסגעשלאסן
אויסגעשעפ
אויסגעשפ
אויסגעשפילט
אויסגעשפרייט
אויסגעשריגן
אויסגעשריי
אויסגעשרייען
אויסגעשריען
אויסדערוויילט
אויסדערוועלט
אויסדרוק
אויסדרוקן
אויסדרייען
אויסדריק
אויסדריקן
אויסהא
אויסהאלטן
אויסהערן
אויסהערנדיק
אויסווא
אויסוואל
אויסוועג
אויסוועלן
אויסוועפן
אויסזא
אויסזאגן
אויסזיכטן
אויסזעהן
אויסזען
אויסטא
אויסטאן
אויסטויש
אויסטיילן
אויסטערליש
אויסטערלישן
אויסטערלישע
אויסטערלישער
אויסטרא
אויסטראליע
אויסטראלישע
אויסטרעף
אויסלא
אויסלאזן
אויסלאנד
אויסלייג
אויסלייגונג
אויסלייגן
אויסלייזונג
אויסלייזן
אויסלייזער
אויסלע
אויסלענדישע
אויסלענדער
אויסלערנען
אויסלעשן
אויסמיידן
אויסמישן
אויסמעקן
אויסן
אויסנא
אויסנאם
אויסנאמען
אויסנוצן
אויסניצן
אויסע
אויסער
אויסערגעווענליכע
אויסערדעם
אויסערליכע
אויסערלעך
אויסערן
אויספ
אויספא
אויספאלגן
אויספאלן
אויספארשונג
אויספארשן
אויספארשער
אויספילן
אויספיר
אויספירן
אויספרעגן
אויסצו
אויסצוג
אויסצוגן
אויסצוהערן
אויסצומיידן
אויסצופ
אויסצופארשן
אויסצופירן
אויסצושטיין
אויסצושטעלן
אויסצייכענונג
אויסצייכענונגען
אויסציען
אויסקומען
אויסקוק
אויסקוקן
אויסקלויבן
אויסרא
אויסראטן
אויסרופן
אויסרייד
אויסרייניגן
אויסרייסן
אויסרעדן
אויסרעכנען
אויסרעכענען
אויסשטעל
אויסשטעלונג
אויסשטעלן
אויסשפ
אויסשרייען
אויע
אויער
אויערבאך
אויערן
אויף
אויפ
אויפאיינמאל
אויפבוי
אויפבויען
אויפברויז
אויפגא
אויפגאבע
אויפגע
אויפגעבויט
אויפגעבויעט
אויפגעבלאזן
אויפגעבן
אויפגעברא
אויפגעברויזט
אויפגעברענגט
אויפגעגעבן
אויפגעגעסן
אויפגעדעקט
אויפגעהא
אויפגעהאלטן
אויפגעהאנגען
אויפגעהויבן
אויפגעהערט
אויפגעווא
אויפגעוואקסן
אויפגעוויזן
אויפגעוועקט
אויפגעזאגט
אויפגעטאן
אויפגעטוהן
אויפגעטוישט
אויפגעטון
אויפגעטרעטן
אויפגעכא
אויפגעכאפט
אויפגעכאפטע
אויפגעלייגט
אויפגעלעבט
אויפגעלעזט
אויפגענומען
אויפגעעפנט
אויפגעפירט
אויפגעצויגן
אויפגעקומען
אויפגעקלערט
אויפגערופן
אויפגעריסן
אויפגערעגט
אויפגעשטא
אויפגעשטאנען
אויפגעשטעלט
אויפגעשפילט
אויפגעשריבן
אויפדעקונג
אויפדעקן
אויפדערנא
אויפדערנאכט
אויפהאלטן
אויפהויב
אויפהייבן
אויפהער
אויפהערן
אויפווייזן
אויפוועקן
אויפזיכט
אויפזעער
אויפטאן
אויפטו
אויפטון
אויפטוען
אויפטריט
אויפטריטן
אויפטרעטן
אויפירונג
אויפכאפן
אויפלא
אויפלאגע
אויפלעבן
אויפמערקזאמקייט
אויפן
אויפנאמע
אויפנעמען
אויפעסן
אויפפיר
אויפפירונג
אויפפירונגען
אויפפירן
אויפצובויען
אויפצוהייבן
אויפצולעבן
אויפצונעמען
אויפצוקלערן
אויפצושטעלן
אויפציען
אויפקומען
אויפקלערונג
אויפקלערן
אויפרופן
אויפרייס
אויפרייסן
אויפשטאנד
אויפשטיין
אויפשטעלן
אויפשטענדלער
אויפשריפט
אויפשריפטן
אויר
אויש
אוישוויץ
אוכל
אוכמא
אוכראנא
אול
אולטרא
אוליאנאוו
אולינוב
אולמאן
אולמערט
אולן
אום
אומ
אומא
אומאיידעלע
אומאן
אומאפהענגיק
אומאפהענגיקייט
אומאפהענגיקע
אומאר
אומבא
אומבאוועגלעכע
אומבאקאנטע
אומברענגן
אומברענגען
אומגיין
אומגליק
אומגליקן
אומגעבונג
אומגעברא
אומגעבראכט
אומגעברענגט
אומגעגא
אומגעגנט
אומגעהויערע
אומגעפעהר
אומגעפער
אומגעקומן
אומגעקומען
אומגעקומענע
אומגעקוקט
אומגעקערט
אומגעריכט
אומגערן
אומדרייען
אומה
אומות
אומזיסט
אומלעגא
אומלעגאל
אומלעגאלע
אוממעגליך
אוממעגלעך
אומנישט
אומעט
אומעטום
אומפ
אומפא
אומצאליגע
אומצוברענגען
אומצוקערן
אומקום
אומקומען
אומקוקן
אומקערן
אומר
אומרו
אומרואיק
אומרוי
אומרוען
אומריין
אומריינע
אומרים
אומרעכט
אומשולדיג
אומשולדיגע
אומשולדיק
אומשולדיקן
אומשולדיקע
אומשטא
אומשטענדן
אומװערדיקײט
אומװערדיקײטן
און
אונ
אונאה
אונגא
אונגאר
אונגאריש
אונגארישן
אונגארישע
אונגארישער
אונגארן
אונגוואר
אונגער
אונגעריש
אונגערישע
אונגערן
אונד
אונדז
אונדזער
אונדזערע
אונז
אונזער
אונזערע
אונזר
אונט
אונטן
אונטען
אונטער
אונטערברענגען
אונטערגא
אונטערגאנג
אונטערגיין
אונטערגעבן
אונטערגעגא
אונטערגעגאנגען
אונטערגעגעבן
אונטערגעהא
אונטערגעווארפן
אונטערגענומען
אונטערגעקומען
אונטערגעשריבן
אונטערגרונט
אונטערגײן
אונטערדריקט
אונטערהא
אונטערוועגס
אונטערזוכן
אונטערן
אונטערנעמונג
אונטערנעמונגען
אונטערנעמען
אונטערנעמער
אונטערערד
אונטערערדישע
אונטערקומען
אונטערשטן
אונטערשטע
אונטערשטער
אונטערשייד
אונטערשיידן
אונטערשרייבן
אונטערשריפט
אוניווערס
אוניווערסיטעט
אוניווערסיטעטן
אוניװערסיטעט
אונליין
אונן
אונסדארפער
אונעסקא
אונקלוס
אוסטילע
אוסטראה
אוען
אוף
אופ
אופן
אופנים
אופקים
אוצר
אוצרות
אוקרא
אוקראיניש
אוקראינישע
אוקראינישער
אוקראינע
אוקראינער
אוקריינא
אוקרייניש
אוקריינע
אוקרײ
אור
אורא
אוראייניקל
אוראל
אוראלט
אוראלטע
אוראלטער
אוראנוס
אוראניום
אורבאן
אורדו
אורה
אורוגוויי
אורות
אורזאך
אורזאכן
אורח
אורחים
אורטייל
אורטיילן
אורי
אוריאל
אורנשטיין
אורשפרינגליך
אושעיא
אות
אותה
אותו
אותי
אותיות
אותך
אותם
אז
אזא
אזאט
אזאלכע
אזהרה
אזהרות
אזו
אזוי
אזויגערופענע
אזויווי
אזוינס
אזוינע
אזויפיל
אזולאי
אזיאטישע
אזייגער
אזיע
אזכרה
אזלעכע
אזעלכע
אזעלעכע
אזערביידזשאן
אזערע
אזערעס
אזרחי
אזש
אזשאראוו
אח
אחד
אחדות
אחוץ
אחור
אחז
אחי
אחיה
אחיו
אחיך
אחים
אחינו
אחר
אחרא
אחרון
אחרונה
אחרונות
אחרונים
אחרי
אחריות
אחרים
אחרית
אחרת
אחשוורוש
אחשורוש
אחת
אט
אטא
אטאם
אטאמאנישע
אטאמאנישער
אטאמישן
אטאמישע
אטאמען
אטאמקערן
אטאקירט
אטאקירן
אטאקירער
אטאקע
אטאקעס
אטוואצק
אטוירני
אטייל
אטלאנטא
אטלאנטיק
אטלאנטישן
אטלאנטישער
אטלאס
אטמאספער
אטמאספערע
אטעיסט
אטעם
אטעמט
אטעמען
אטען
אטענטאט
אטער
אטראקציע
אטראקציעס
אי
איא
איב
איבונגן
איבונגען
איבן
איבער
איבערא
איבעראל
איבעראשט
איבערבויען
איבערבייט
איבערבליק
איבערבלײ
איבערבעטן
איבערגאנג
איבערגיין
איבערגע
איבערגעארבעט
איבערגעבויט
איבערגעבליבן
איבערגעבליבענע
איבערגעבן
איבערגעבעטן
איבערגעגא
איבערגעגעבן
איבערגעדעקט
איבערגעדרוקט
איבערגעדרייט
איבערגעזעצט
איבערגעחזרט
איבערגעטייטשט
איבערגעטרא
איבערגעלא
איבערגעלאזט
איבערגעלעבט
איבערגעמאכט
איבערגענומען
איבערגעפ
איבערגעפילט
איבערגעפירט
איבערגעצויגן
איבערגעצייגט
איבערגעקוקט
איבערגעקערט
איבערגעריסן
איבערגערעדט
איבערגעשטיגן
איבערגעשרא
איבערגעשריבן
איבערגרונט
איבערדרייען
איבערהויפ
איבערהויפט
איבערווא
איבערזעצונג
איבערזעצונגען
איבערזעצן
איבערזעצער
איבערחזרן
איבערטייטשן
איבעריג
איבעריגע
איבעריק
איבעריקן
איבעריקס
איבעריקע
איבעריקער
איבערישן
איבערלא
איבערלאזן
איבערלאזנדיג
איבערלעבונגען
איבערלעבן
איבערלעבענישן
איבערלעבער
איבערמאכן
איבערן
איבערנאכט
איבערנעכטיקן
איבערנעמען
איבערפ
איבערפאל
איבערצוגעבן
איבערצונעמען
איבערצי
איבערצייגונג
איבערצייגט
איבערצייגן
איבערציען
איבערקומען
איבערקוקן
איבערקערן
איבערקערעניש
איבעררא
איבערראשט
איבעררייסן
איבעררעדן
איבערשרייבן
איבר
איבריגע
איברים
איגא
איגנארירט
איגנארירן
איגענט
איגר
איד
אידי
אידיאל
אידייען
אידיש
אידישן
אידישע
אידישען
אידישער
אידישקייט
אידל
אידן
אידנטום
אידעא
אידעאלאגיע
אידען
אידענטום
אידענטיטעט
אידענטיפיצירט
אידענטיפיצירן
אידענע
אידעע
איהם
איהעל
איהר
איהרע
איו
איוב
איווא
איוואן
איז
איזא
איזאבעלא
איזאטאפן
איזה
איזהו
איזט
איזי
איזלינגטאן
איזמיר
איזמען
איזרא
איזראעל
איזראעלי
איזשביצע
איזשביצער
איחוד
איטא
איטאליע
איטאליעניש
איטאליענישער
איטאליענער
איטליכער
איטלעך
איטלעכן
איטלעכנ
איטלעכס
איטלעכע
איטלעכער
איטשע
איטשעלע
איי
אייאווע
אייב
אייביג
אייביגע
אייביק
אייביקי
אייביקייט
אייביקן
אייביקע
אייביקער
אייבערפלאך
אייבערשטיבל
אייבערשטן
אייבערשטע
אייבערשטען
אייבערשטער
אייבעשיץ
אייגן
אייגנא
אייגנארטיג
אייגנארטיגע
אייגנטום
אייגנטומער
אייגנטימער
אייגנטליך
אייגנטלעך
אייגנס
אייגנקייטן
אייגנשא
אייגנשאפט
אייגנשאפטן
אייגע
אייגענטומער
אייגענטליך
אייגענטלעך
אייגענע
אייגענעם
אייגענער
אייגער
איידים
איידל
איידע
איידעלע
איידעלער
איידעם
איידעמס
איידעמעס
איידעמער
איידער
אייוועלט
אייז
אייזבארג
אייזבערג
אייזיק
אייזיקל
אייזל
אייזלען
אייזן
אייזנבא
אייזנבאן
אייזנהאוער
אייזנשטאט
אייזעל
אייזערנע
אייזערנעם
אייזערנער
אייזקרעם
אייך
אייכלער
אייכמאן
אייכנשטיין
אייל
איילאנד
איילבירט
איילבירטן
איילון
איילט
איילן
איילנדיק
איילענד
איילעניש
איין
איינ
איינגאס
איינגיין
איינגע
איינגעא
איינגעארדנט
איינגעבויגן
איינגעבן
איינגעגעבן
איינגעהא
איינגעהאלטן
איינגעהילט
איינגעזאמלט
איינגעזאפט
איינגעזעהן
איינגעזען
איינגעזעצט
איינגעטיילט
איינגעלא
איינגעלאדענט
איינגענומען
איינגעפ
איינגעפאלן
איינגעפירט
איינגעפלאנצט
איינגעקויפט
איינגעקריצט
איינגערעדט
איינגעשוואוירן
איינגעשטאנען
איינגעשטילט
איינגעשטימט
איינגעשטעלט
איינגעשטעלטע
איינגעשלא
איינגעשלאסן
איינגעשפארט
איינגעשפארטע
איינגעשריבן
איינדרוק
איינהא
איינהאלטן
איינהייט
איינהייטן
איינוואוינער
איינוואוינערס
איינוואונער
איינוואינער
איינוווינער
איינזא
איינזאפן
איינזען
איינטיילן
איינטריט
אייניג
אייניגע
אייניקי
אייניקל
אייניקלעך
אייניקע
אייניקעל
איינלא
איינמא
איינמאהל
איינמאל
אייננעמען
איינס
איינסן
איינע
איינעם
איינעמען
איינער
איינפא
איינפאך
איינפאכע
איינפאלן
איינפירן
איינפלאנצן
איינפלוס
איינצאל
איינצונעמען
איינצושטעלן
איינצושרייבן
איינציג
איינציגן
איינציגסטע
איינציגסטער
איינציגע
איינציגער
איינציק
איינציקווייז
איינציקן
איינציקסטע
איינציקע
איינציקער
איינצלנע
איינצעלנע
איינצעלע
איינקויף
איינקויפן
איינקויפער
איינקומפט
איינקונפט
איינר
איינרעדן
איינשווערונג
איינשטיין
איינשטימיג
איינשטעל
איינשטעלן
איינשליסן
איינשליסנדיק
איינשרייבן
אייע
אייער
אייערע
אייפ
אייפאן
אייר
איירא
אייראזאנע
אייראסטאר
אייראפע
אייראפעאישן
אייראפעאישע
אייראפעאישער
אייראפעישן
אייראפעישע
אייראפעישער
אייראפעער
איירישע
איירעס
איך
איכ
איכה
איל
אילוזיע
אילוסטרירט
איליא
אילינג
אילינוי
אילן
אילפארד
אילת
אים
אימ
אימא
אימה
אימהות
אימון
אימיגרא
אימיגראנט
אימיגראנטן
אימיגראציע
אימיגרירט
אימיגרירן
אימעיל
אימער
אימפ
אימפאקט
אימפארט
אימפארטירט
אימפארטירן
אימפארטן
אימפעט
אימפעריע
אימפעריעס
אימשטא
אין
אינ
אינאיינעם
אינאיינעמ
אינג
אינגא
אינגאנצן
אינגאנצנ
אינגאנצען
אינגבער
אינגיכן
אינגל
אינגלעך
אינגע
אינגעל
אינגעלייט
אינגער
אינגערמאן
אינגעװײד
אינדא
אינדאנעזיע
אינדוס
אינדוסטרי
אינדוסטריאלע
אינדוסטריס
אינדוסטריע
אינדוסטריעלע
אינדוסטריעלער
אינדוסטריעס
אינדזל
אינדזלען
אינדיא
אינדיאנע
אינדיאנער
אינדיווידועלע
אינדיע
אינדיק
אינדישן
אינדישע
אינדישער
אינדן
אינדעקס
אינדערהיים
אינדערויסן
אינדערמיט
אינדערפרי
אינדערצווישן
אינדרויסן
אינהא
אינהאלט
אינו
אינוואדירט
אינוואדירן
אינוואזיע
אינווע
אינוועסטארס
אינוועסטירט
אינוועסטירן
אינוועסטירער
אינוועסטמענט
אינוועסטמענטס
אינזין
אינזל
אינזלן
אינזלען
אינזשעניר
אינזשעניריע
אינזשענירן
אינטיפאדע
אינטעליגענץ
אינטער
אינטערוויאו
אינטערוויו
אינטערוויוס
אינטערנא
אינטערנאציאנאל
אינטערנאציאנאלן
אינטערנאציאנאלע
אינטערנאציאנאלער
אינטערנעט
אינטערנעץ
אינטערסאנט
אינטערסאנטע
אינטערסטעיט
אינטערסירט
אינטערעס
אינטערעסא
אינטערעסאנט
אינטערעסאנטע
אינטערעסאנטער
אינטערעסט
אינטערעסירט
אינטערעסירן
אינטערעסן
אינטערעסע
אינטערשטע
אינטרעסאנט
אינטרעסאנטע
אינטרעסירט
אינטש
אינטשעס
איניציאטיוו
אינלאנד
אינלענדישן
אינלענדישער
אינם
אינמיטן
אינן
אינסברוק
אינסולין
אינסטא
אינסטאלירט
אינסטאלירן
אינסטאנצן
אינסטיטוט
אינסטיטוציע
אינסטיטוציעס
אינסטינקט
אינסטרומענט
אינסטרומענטן
אינסטרוקציעס
אינסעקט
אינסעקטן
אינספירירט
אינע
אינעווייניג
אינעווייניגסטע
אינעווייניק
אינעווייניקסטע
אינעם
אינערהאלב
אינערליכע
אינערלעך
אינערלעכן
אינערלעכע
אינערלעכער
אינערן
אינערציע
אינעװײניק
אינעװײניקסטן
אינפ
אינפא
אינפארמאציע
אינפלאציע
אינפעקציע
אינפעקציעס
אינפראסטרוקטור
אינצווישן
אינצידענט
אינקא
אינקאם
אינקוויזיציע
אינשורענס
איס
איסור
איסורים
איסט
איסטמאס
איסטערן
איסלא
איסלאם
איסלאמישע
איסלאמישער
איסלאנד
איסני
איסר
איסײם
איפה
איצט
איצטיגע
איצטיגער
איצטיקן
איצטיקע
איצטיקער
איצטער
איציק
איציקל
איר
אירא
איראן
איראנישע
איראנער
איראק
איראקער
אירי
איריש
אירישער
אירלאנד
אירן
אירס
אירע
אירער
איש
אישה
אישו
אישוס
אישע
איתמר
איתן
אך
אכ
אכזריות
אכט
אכטונג
אכטן
אכטע
אכטער
אכילה
אכילת
אכל
אכן
אכסניא
אכסניה
אכציג
אכצן
אל
אלא
אלאבאמא
אלאסקא
אלאסקע
אלארם
אלבאם
אלבאמען
אלבאני
אלבאניע
אלבאנס
אלבערט
אלבערטא
אלגאזי
אלגעברע
אלגעמיין
אלגעמיינע
אלגעמיינעם
אלגעמיינער
אלד
אלדגייט
אלדד
אלה
אלהי
אלהיך
אלהיכם
אלהים
אלהינו
אלו
אלוועלטליכע
אלול
אלומיניום
אלון
אלוקות
אלוקינו
אלז
אלזא
אלזשיר
אלחנן
אלט
אלטא
אלטן
אלטע
אלטען
אלטער
אלטר
אלטשטאט
אלי
אליאירטע
אליאנץ
אליה
אליהו
אליו
אליין
אלייןס
אליינ
אליינס
אליך
אלימלך
אלימפיאדע
אלין
אליס
אליסלייט
אליעזר
אליציי
אליק
אליקום
אליקים
אלישב
אלישבע
אלישיב
אלישע
אלכסנדר
אלמן
אלמנה
אלמנות
אלמערט
אלן
אלס
אלסטער
אלע
אלעאי
אלעד
אלעזר
אלעם
אלעמאל
אלעמען
אלעמענס
אלען
אלעס
אלעסק
אלעקסאנדער
אלעקסאנדריע
אלערט
אלערליי
אלף
אלפ
אלפאבעט
אלפי
אלפים
אלפן
אלפסי
אלפרעד
אלץ
אלצ
אלצדינג
אלק
אלקאהאל
אלקאהאלישע
אלקאלי
אלקבץ
אלקהאל
אלקות
אלקי
אלקיך
אלקים
אלקינו
אלקנה
אלקס
אלשיך
אם
אמ
אמא
אמאדעוס
אמאהל
אמאזאנאס
אמאל
אמאליגן
אמאליגע
אמאליגער
אמאליקע
אמאן
אמבאסאדאר
אמבאסאדע
אמה
אמהות
אמו
אמונה
אמונות
אמוני
אמונים
אמוניציע
אמונת
אמור
אמורא
אמוראים
אמות
אמט
אמטן
אמי
אמין
אמירה
אמיש
אמן
אמנו
אמנון
אמנם
אמסטערדאם
אמסעל
אמעריקא
אמעריקאנישן
אמעריקאנישע
אמעריקאנישער
אמעריקאנע
אמעריקאנער
אמעריקן
אמעריקע
אמעריקען
אמעריקעס
אמר
אמרו
אמרות
אמרי
אמריקאנער
אמרתי
אמשינאוו
אמשינאווער
אמת
אמתן
אמתע
אמתער
אן
אנ
אנא
אנאטאליע
אנאטאמיע
אנאליז
אנאליזירן
אנאליזן
אנאנאס
אנאנד
אנאנסירט
אנגאלא
אנגהויבן
אנגיאס
אנגיין
אנגליא
אנגעבינדן
אנגעבליך
אנגעגאנגען
אנגעגרייט
אנגעהאלטן
אנגעהאנגען
אנגעהויבן
אנגעהויבען
אנגעהערט
אנגעוויזן
אנגעזאגט
אנגעזאמעלט
אנגעזען
אנגעזעענע
אנגעטאן
אנגעטוהן
אנגעטון
אנגעטראפן
אנגעכאפט
אנגעלעגנהייטן
אנגעמאכט
אנגענומען
אנגענומענע
אנגענומענער
אנגעפאנגן
אנגעפאנגען
אנגעפילט
אנגעפירט
אנגעצויגן
אנגעצייכנט
אנגעצינדן
אנגעקומען
אנגעקוקט
אנגעקלאגט
אנגעקלאגטער
אנגעקניפט
אנגערופן
אנגערופען
אנגעשטויסן
אנגעשטעלט
אנגעשטעקט
אנגעשלאסן
אנגעשריבן
אנדארע
אנדזשעלעס
אנדן
אנדענק
אנדעקט
אנדער
אנדערהאלבן
אנדערט
אנדערן
אנדערנ
אנדערע
אנדערען
אנדערער
אנדערש
אנדערשט
אנדרושה
אנדרע
אנהאלט
אנהאלטן
אנהויב
אנהויבן
אנהייב
אנהייבן
אנהייבנדיק
אנהענגער
אנהענגערס
אנו
אנוואר
אנווארעמען
אנווייזונגן
אנווייזונגען
אנווייזן
אנוועזנד
אנוועזנהייט
אנולירט
אנוסים
אנוש
אנזאגן
אנזשעלעס
אנחנו
אנט
אנטאן
אנטאניא
אנטארקטיקע
אנטדעקונג
אנטדעקט
אנטדעקן
אנטהאלט
אנטהאלטן
אנטוויקלונג
אנטוויקלונגען
אנטוויקלט
אנטוויקלטע
אנטוויקלן
אנטוויקלען
אנטוויקלער
אנטוויקעלט
אנטווערפן
אנטוישונג
אנטוישט
אנטזאגט
אנטי
אנטיגונוס
אנטיגנוס
אנטיוכוס
אנטייל
אנטילן
אנטיסעמיט
אנטיסעמיטיזם
אנטיסעמיטישע
אנטיסעמיטישער
אנטיסעמיטן
אנטיפטרוס
אנטיק
אנטלאפן
אנטלאפען
אנטלאפענע
אנטלויפט
אנטלויפן
אנטעריא
אנטפ
אנטפלעקט
אנטפלעקן
אנטצינדונג
אנטקעגן
אנטקעגען
אנטשולדיגט
אנטשטאנען
אני
אנידער
אנימאציע
אנימירטע
אנימירטער
אניע
אנכי
אנליין
אננעמען
אנע
אנעמען
אנעקסירט
אנערקענונג
אנערקענט
אנערקענטע
אנערקענטער
אנערקענען
אנפאל
אנפאנג
אנפילן
אנפין
אנפירן
אנפירער
אנפירערשאפט
אנצוגיין
אנצוהאלטן
אנצוהייבן
אנצונעמען
אנצופירן
אנצוקומען
אנצושליסן
אנצינדונג
אנצינדן
אנציקלופדיה
אנקארא
אנקום
אנקומען
אנקומענדיג
אנקוקן
אנקלאגן
אנקלאגע
אנקלאגער
אנקעטע
אנרופן
אנרי
אנרירן
אנש
אנשויאונג
אנשטאט
אנשטאלט
אנשטאלטן
אנשי
אנשיל
אנשים
אנשליסן
אס
אסאד
אסאך
אסאמא
אסאסיאציע
אסור
אסט
אסטערויד
אסטראלאגיע
אסטראנאטן
אסטראנאם
אסטראנאמיע
אסטראנאמישע
אסטראנאמען
אסטראנויט
אסטראנויטן
אסימא
אסימילאציע
אסיפה
אסך
אסלא
אסעמבלי
אסעמבלימאן
אסף
אספעקטן
אסקאר
אסר
אסרו
אסרט
אסתר
אע
אעשה
אף
אפ
אפאזיציע
אפאלא
אפאר
אפאראט
אפאראטן
אפגאט
אפגאניסטאן
אפגעבן
אפגעגעבן
אפגעהאלטן
אפגעהאקט
אפגעהיטן
אפגעווארפן
אפגעווישט
אפגעזאגט
אפגעזונדערט
אפגעטיילט
אפגעלאזט
אפגעמאכט
אפגעפארן
אפגעפארענע
אפגעפירט
אפגעקאסט
אפגעקויפט
אפגעקילט
אפגערופן
אפגערוקט
אפגעריסן
אפגערעדט
אפגעשאצט
אפגעשוואכט
אפגעשטופט
אפגעשטעלט
אפגעשיידט
אפגעשיקט
אפגעשניטן
אפגעשפילט
אפגעשריבן
אפדעיט
אפדעיטס
אפדרוקן
אפהאלטן
אפהיטן
אפהענגיק
אפווישן
אפזאגן
אפט
אפטא
אפטייטש
אפטייל
אפטיילונג
אפטיילונגן
אפטיילונגען
אפטיילן
אפטיק
אפטמאל
אפטע
אפטער
אפי
אפילו
אפילע
אפיס
אפיסעס
אפיציעהלער
אפיציעל
אפיציעלן
אפיציעלע
אפיציעלער
אפיציר
אפיצירן
אפיקומן
אפיקורס
אפיקורסות
אפיקורסים
אפיר
אפישעלס
אפלאזן
אפליקאציע
אפליקאציעס
אפלערנען
אפמאך
אפמאכן
אפמינסטער
אפן
אפנ
אפנעמען
אפס
אפסטעיט
אפע
אפעלירט
אפעלירן
אפען
אפענע
אפענעם
אפענער
אפעקט
אפער
אפעראטאר
אפעראציע
אפעראציעס
אפערירט
אפערירן
אפערע
אפערעיטינג
אפערעס
אפפאל
אפצאל
אפצאלן
אפצוגעבן
אפצוהאלטן
אפצוהיטן
אפצווייג
אפצוטיילן
אפצוקויפן
אפצושטעלן
אפציעלע
אפציעס
אפקלאנג
אפרו
אפרוען
אפריל
אפרים
אפריקאנישע
אפריקאנער
אפריקע
אפרעכענען
אפשאצונג
אפשאצונגען
אפשטאם
אפשטאמונג
אפשטאמיגע
אפשטאמיגער
אפשטעל
אפשטעלן
אפשניט
אפשניידן
אפשערן
אפשר
אץ
אצ
אצילות
אצינד
אצל
אק
אקאדעמיע
אקאדעמישע
אקאונט
אקופאציע
אקופירט
אקופירטע
אקוראט
אקט
אקטאבער
אקטאן
אקטועלע
אקטיאר
אקטיארן
אקטיוו
אקטיוויזירט
אקטיוויזירן
אקטיוויטעט
אקטיוויטעטן
אקטיוויסט
אקטיוויסטן
אקטיווע
אקטיווער
אקטן
אקטריסע
אקן
אקס
אקסברידזש
אקסיגן
אקסיגען
אקסל
אקסלען
אקסן
אקספארד
אקספארדשיר
אקעאן
אקעאניע
אקעאנען
אקעגן
אקעגנ
אקער
אקצידענט
אקציע
אקציעס
אקצענט
אקצעפטירט
אקצעפטירן
אר
ארא
אראב
אראביע
אראביש
אראבישן
אראבישע
אראבישער
אראבער
אראגאן
אראד
אראייניגטע
אראמיש
אראן
אראנדזש
אראנזש
אראנזשירט
אראפ
אראפאט
אראפגיין
אראפגעברענגט
אראפגעווארפן
אראפגעזעצט
אראפגעלאזט
אראפגעלייגט
אראפגענומען
אראפגענידערט
אראפגעפאלן
אראפגעקומען
אראפגעשטעלט
אראפגעשיקט
אראפווארפן
אראפלאזן
אראפלייגן
אראפנעם
אראפנעמען
אראפפאלן
ארבה
ארביט
ארבייט
ארבייטן
ארבייטען
ארבייטער
ארבע
ארבעה
ארבעט
ארבעטן
ארבעטס
ארבעטסלאזיקייט
ארבעטען
ארבעטער
ארבעטערס
ארבעים
ארברײטערן
ארגאן
ארגאניזאציע
ארגאניזאציעס
ארגאניזירט
ארגאניזירטע
ארגאניזירן
ארגאניזם
ארגאניזמען
ארגאניש
ארגאנישע
ארגאנען
ארגינעל
ארגינעלן
ארגינעלע
ארגינעלער
ארגיקולטור
ארגענטינע
ארגענעזאציע
ארד
ארדענונג
ארדער
ארדשיר
ארה
ארויס
ארויסברענגן
ארויסברענגען
ארויסגאנג
ארויסגיין
ארויסגעבן
ארויסגעבער
ארויסגעברענגט
ארויסגעגאנגען
ארויסגעגבן
ארויסגעגעבן
ארויסגעגעהבן
ארויסגעהאלפן
ארויסגעווארפן
ארויסגעוויזן
ארויסגעזאגט
ארויסגעטריבן
ארויסגעלאזט
ארויסגענומען
ארויסגעפאלן
ארויסגעפארן
ארויסגעפירט
ארויסגעצויגן
ארויסגעקומען
ארויסגערופן
ארויסגערעדט
ארויסגעשטעלט
ארויסגעשיקט
ארויסדרייען
ארויסהעלפן
ארויסווארפן
ארויסווייזן
ארויסזאג
ארויסזאגן
ארויסלאזן
ארויסנעמען
ארויספארן
ארויסצוברענגען
ארויסצוגיין
ארויסצוגעבן
ארויסצוהעלפן
ארויסצונעמען
ארויסצוציען
ארויסציען
ארויסקומען
ארויסשיקן
ארויף
ארויפגיין
ארויפגעברענגט
ארויפגעגאנגען
ארויפגעלייגט
ארויפגעקומען
ארויפגעשטעלט
ארויפגעשיקט
ארויפלייגן
ארויפקומען
ארום
ארומ
ארומגיין
ארומגעגאנגען
ארומגענומען
ארומגעפארן
ארומגערינגלט
ארומגערעדט
ארומיגע
ארומיקע
ארומנעם
ארומפארן
ארון
ארונטער
ארוני
ארונים
ארז
ארזאמלונג
ארזיכערונג
ארחות
ארט
ארטאדאקס
ארטאדאקסיע
ארטאדאקסישן
ארטאדאקסישע
ארטאדאקסישער
ארטאדאקסן
ארטור
ארטיגן
ארטיגע
ארטיגער
ארטיסט
ארטיסטן
ארטיקל
ארטיקלן
ארטיקלען
ארי
אריאל
אריאלי
אריאן
אריבער
אריבערגיין
אריבערגעגאנגען
אריבערגעפארן
אריבערגעפירט
אריבערגעצויגן
אריבערפירן
אריבערציען
אריגינאל
אריגינעל
אריגינעלע
אריגינעלער
אריה
אריז
אריזאנע
אריטמעטיק
אריין
אריינברענגן
אריינברענגען
אריינגאנג
אריינגיין
אריינגעבויט
אריינגעברענגט
אריינגעגאנגען
אריינגעגעבן
אריינגעדרוקט
אריינגעווארפן
אריינגעזעצט
אריינגעטרעטן
אריינגעכאפט
אריינגעלאזט
אריינגעלייגט
אריינגעלייט
אריינגעמישט
אריינגענומען
אריינגעפאלן
אריינגעפירט
אריינגעצויגן
אריינגעקומען
אריינגערופן
אריינגערעכנט
אריינגערעכענט
אריינגעשטעלט
אריינגעשיקט
אריינגעשלעפט
אריינכאפן
אריינלאזן
אריינלייגן
אריינמישן
ארייננעמען
אריינעמען
אריינפאלן
אריינפיר
אריינצוברענגן
אריינצוברענגען
אריינצוגיין
אריינצולייגן
אריינצושטעלן
אריינציען
אריינקומען
אריינשטעלן
אריינשיינען
אריינשיקן
אריך
אריכות
ארים
ארימאן
ארימע
ארימעלייט
ארימקייט
אריסטא
אריסטו
אריסטובולוס
אריק
ארכי
ארכיוו
ארכיווט
ארכיווירט
ארכיוון
ארכיטעקט
ארכיטעקטור
ארכיטעקטן
ארכיפעלאג
ארכעאלאגיע
ארכעאלאגישע
ארם
ארמיי
ארמייען
ארמסטראנג
ארמעניע
ארן
ארסענאל
ארעגאן
ארעם
ארעמאן
ארעמע
ארעמעלייט
ארעמער
ארעמקייט
ארענדאר
ארענע
ארעסט
ארעסטאנטן
ארעסטירט
ארעסטירן
ארפינגטאן
ארץ
ארצות
ארצי
ארקטיק
ארקטישן
ארקטישער
ארקעסטער
ארשוינענ
ארײ
אש
אשדוד
אשה
אשור
אשטייגער
אשי
אשכול
אשכנז
אשכנזי
אשכנזים
אשכנזישע
אשכנזישער
אשל
אשלג
אשפארד
אשפעצין
אשקלון
אשר
אשרה
אשרי
אשת
את
אתא
אתה
אתו
אתכם
אתם
אתר
אתרא
אתרוג
אױ
אױב
אױבן
אױבערשטן
אױג
אױגן
אױטא
אױך
אױס
אױסגיסן
אױסגעגא
אױסגעטריקנט
אױסגעלײזט
אױסגעפ
אױסגערופ
אױסגעשטרעקט
אױסגעשפ
אױסדערװײלט
אױסהא
אױסהערן
אױסזען
אױסלײזן
אױסן
אױסנװײניקסטן
אױספ
אױסשטרעקן
אױסשפ
אױער
אױערן
אױף
אױפ
אײ
אײביק
אײביקן
אײביקע
אײגנטום
אײגענעם
אײגענער
אײדער
אײזל
אײזלען
אײל
אײלן
אײן
אײנס
אײנע
אײנעם
אײנער
אײרא
ב
בא
באאיינפלוסט
באאיינפלוסן
באאמטע
באאמטער
באארבעט
באב
באבא
באבאוו
באבאווער
באבוב
באבובער
באבי
באבע
באבער
באגאזש
באגאזשן
באגאנגען
באגדאד
באגייט
באגיין
באגייסטערט
באגלייט
באגלייטונג
באגלייטן
באגלייטער
באגעגנט
באגעגענט
באגעגעניש
באגעגענען
באגער
באגראבן
באגרייפן
באגריסט
באגריף
באגריפן
באגרעניצט
באגרעניצטע
באגרענעצט
באד
באדאנקט
באדארף
באדארפט
באדייט
באדייטונג
באדייטן
באדינגונגען
באדינונג
באדינונגען
באדינט
באדינען
באדינער
באדן
באדען
באדעקט
באדעקן
באדערפענישן
באהאלט
באהאלטן
באהאלטען
באהאלטענע
באהאלטענער
באהאנדלונג
באהאנדלט
באהאנדלן
באהאנדלען
באהאנדעלט
באהאפטן
באהבה
באהוש
באהושער
באהעלטעניש
באהעפט
באהעפטן
באהערשט
באהר
באואינג
באוואוינט
באוואוינטע
באוואוינער
באוואונדערט
באוואוסט
באוואוסטזיין
באוואוסטן
באוואוסטע
באוואוסטער
באוואכט
באוואכן
באוואסערונג
באוואפנטע
באוווינער
באוויזן
באווייז
באווייזט
באווייזן
באוויינט
באוויסט
באוויסטע
באוול
באוועגונג
באוועגונגן
באוועגונגען
באוועגט
באוועגן
באומות
באונטי
באופן
באור
באורד
באזארגט
באזוך
באזוכט
באזוכן
באזוכער
באזונדער
באזונדערן
באזונדערס
באזונדערע
באזונדערער
באזיגט
באזיגן
באזייטיגט
באזייטיגן
באזיס
באזיץ
באזיצט
באזירט
באזע
באזעל
באזעס
באזעצונג
באזעצט
באזעצן
באחד
באחדות
באט
באטאליאן
באטאנט
באטאניק
באטאנישער
באטיטלט
באטייליגונג
באטייליגט
באטייליגטע
באטייליגן
באטייליגער
באטייליקט
באטערי
באטעריע
באטערסי
באטראכט
באטראכטן
באטראפן
באטרעפט
באטרעפן
באיאן
באיאנער
באך
באכניא
באכריין
באל
באלאגערונג
באלאגערט
באלאנגט
באלאנגן
באלאנגען
באלאנס
באלד
באלדיגע
באלויכטן
באלוינונג
באלוינט
באלטימאר
באלטישן
באליבט
באליבטע
באליבטער
באליוואר
באליוויע
באלייכטן
באלעבא
באלעבאס
באלעסטיגט
באלעסטיגן
באלפור
באלקאן
באלשעוויקן
באמ
באמבאדירט
באמבארדירט
באמבע
באמבעס
באמונה
באמערקט
באמערקן
באמת
באן
באנאפארטע
באנגלאדעש
באנד
באנדלעך
באנדע
באנוועגן
באנוץ
באנוצט
באנוצן
באנוצען
באנוצער
באניהאד
באנייט
באנייען
באניץ
באניצט
באניצן
באניצער
באנעט
באנעמט
באנען
באנק
באנקיר
באנקירונג
באנקנאט
באנקנאטן
באנקראט
באנקראטירונג
באס
באסטאן
באסטאנער
באסיין
באסניע
באסעס
באספארוס
באערדיגט
באערדיגן
באערדיקט
באפ
באפאלן
באפוילן
באפעל
באפעלט
באפעלן
באפעלקערונג
באפעלקערט
באפעלקערטע
באפעסטיגט
באפרייאונג
באפרייונג
באפרייט
באפריינדעט
באפרייען
באצא
באצאלט
באצאלן
באצוואנע
באציאונג
באציאונגען
באציהט
באציונגען
באציט
באצייכנט
באצייכענט
באצייכענען
באציעט
באציען
באצירק
באקאנט
באקאנטן
באקאנטסטע
באקאנטע
באקאנטער
באקאנטשאפט
באקוועם
באקומט
באקומען
באקט
באקטעריע
באקטעריעס
באקינגהאמשיר
באקלאגט
באקן
באקס
באקסער
באקעמפט
באקעמפן
באקענט
באקענען
באקרוינט
באר
בארא
באראטן
באראן
באראנאוויטש
באראס
באראק
בארבאראסע
בארג
בארגט
בארגן
בארגקייט
בארגקייטן
בארד
בארדא
בארדיאוו
בארדיאווער
בארדיוב
בארדיטשוב
בארואיגט
בארואיגן
בארוהיגט
בארויבט
בארות
בארטן
בארטנס
בארי
באריכות
באריכט
באריכטן
באריכטעט
בארימט
בארימטן
בארימטע
בארימטער
באריס
באריער
בארירונג
בארירט
בארניוו
בארנעט
בארנשטיין
בארסקי
בארעכטיגט
בארץ
בארצעלאנע
בארקינג
בארקשיר
בארשא
בארשט
באש
באשא
באשאף
באשאפונג
באשאפן
באשאפען
באשוואוירענע
באשולדיגונג
באשולדיגט
באשולדיגן
באשולדינגס
באשולדיקט
באשטאנד
באשטאנדטייל
באשטאנדטיילן
באשטאנען
באשטייט
באשטיין
באשטייען
באשטימט
באשטימטן
באשטימטע
באשטימטער
באשטימען
באשטעטיגונג
באשטעטיגט
באשטעטיגן
באשטעטיקט
באשטעטיקן
באשטעלט
באשטעלן
באשטראפט
באשטראפן
באשיידן
באשיינען
באשיצונג
באשיצט
באשיצן
באשיר
באשלאסן
באשלוס
באשלוסן
באשליסט
באשליסן
באשעוויס
באשעפטיגונג
באשעפטיגט
באשעפטיגן
באשעפטיקט
באשעפעניש
באשעפענישן
באשעפער
באשר
באשריבן
באשרייבונג
באשרייבט
באשרייבן
באתר
בב
בבא
בבחי
בבחינת
בביאת
בבית
בבל
בבלי
בברכות
בברכת
בג
בגד
בגדי
בגדים
בגימ
בגימטרי
בגימטריא
בגשמיות
בד
בדביקות
בדבר
בדברי
בדורו
בדורותיו
בדחן
בדין
בדיקה
בדיקת
בדעה
בדפוס
בדרך
בה
בהירות
בהם
בהמה
בהמות
בהן
בהעלותך
בהר
בו
בוא
בואה
בובער
בוד
בודא
בודאפעסט
בודאפעשט
בודהיזם
בודזשעט
בודק
בודקע
בוזי
בוזעם
בוטשאטש
בוי
בויגן
בויד
בוידעם
בויט
בויך
בוים
בוימווא
בוימל
בוימלגרין
בוימער
בויס
בויעט
בויען
בויער
בוך
בוכטע
בוכשטאב
בוכשטאבן
בולגא
בולגאריע
בולט
בולעטין
בונג
בונד
בוני
בונים
בונם
בונקער
בוס
בוסטער
בוסטערס
בוסן
בוסק
בוענא
בוענאס
בוק
בוקא
בוקאווינא
בוקאווסק
בוקארעסט
בוקארעשט
בוקיער
בוקיערס
בוקן
בור
בורא
בורגנלאנד
בוריקעס
בורמע
בורקינע
בורשטין
בוש
בושה
בושוויק
בז
בזה
בזיווג
בזיון
בזיונות
בזכות
בזמן
בח
בחברותא
בחג
בחדרי
בחה
בחודש
בחור
בחורים
בחי
בחיי
בחייו
בחיים
בחינה
בחינם
בחירה
בחירות
בחלב
בט
בטבע
בטבת
בטוח
בטחון
בטל
בטלית
בטלן
בטלנים
בטעות
בי
ביא
ביאגראפיע
ביאור
ביאורים
ביאכעמיקער
ביאלא
ביאלאג
ביאלאגיע
ביאלאגישע
ביאליסטאק
ביאליק
ביאלע
ביאלער
ביאת
ביב
ביבי
ביבל
ביבליא
ביבליאטעק
ביבער
ביג
ביד
בידו
בידזשא
בידי
בידידות
בידערמאן
ביה
ביהודה
ביהמ
ביום
ביורא
ביוראען
ביותר
ביז
ביזא
ביזאנטישע
ביזאנטישער
ביזט
ביזטו
ביזן
ביזנעס
ביזנעסמאן
ביזנעסער
ביחד
ביחידות
ביט
ביטא
ביטול
ביטלס
ביטע
ביטער
ביטערן
ביטערניש
ביטערע
ביטערער
ביטש
ביי
בייא
בייגט
בייגל
בייגלייטער
בייגן
בייגעווען
בייגעלייגט
בייגעשטאנען
בייגעשטייערט
ביידזשינג
ביידן
ביידע
ביידען
ביידער
בייז
בייזוויליגע
בייזן
בייזע
בייזער
בייזשינג
בייט
בייטא
בייטאג
בייטייך
בייטייכן
בייטל
בייטן
בייטעלע
בייטש
בייטשער
ביילא
ביילאגע
ביילוס
בייליס
ביילע
ביים
ביימער
ביין
ביינא
ביינאכט
ביינוש
בייניש
ביינער
ביינערי
בייסט
בייסן
בייערן
בייקומען
ביירוט
ביישטיין
ביישטייערונגען
ביישטייערן
ביישפ
ביישפיל
ביישפילן
ביך
ביכולת
ביכורים
ביכל
ביכלעך
ביכער
ביל
בילא
בילבא
בילבולים
בילד
בילדונג
בילדינג
בילדער
בילי
ביליא
ביליאן
ביליאנען
ביליאנער
ביליאנערן
ביליג
ביליגע
ביליגער
ביליגערע
ביליזירט
ביליץ
ביליקע
בילס
בילעט
בילעטן
בים
בימה
בימי
בימים
בימינו
בין
בינ
בינא
בינארישע
בינדט
בינדיגער
בינדן
בינה
בינטל
בינטלעך
ביניא
בינע
בינעט
בינען
ביס
ביסאו
ביסט
ביסטו
ביסטריץ
ביסטריצער
ביסל
ביסלעכווי
ביסלעכווייז
ביסן
ביסעל
ביסעלע
ביע
ביעקט
ביצה
ביציקל
ביק
ביקור
ביקס
ביקסן
ביר
בירא
בירגער
בירגערמייסטער
בירגערס
בירגערקריג
בירגערשאפט
בירור
בירושה
בירושלים
בירי
בירמינגהאם
בירנבוים
ביש
בישאף
בישיבה
בישע
בישראל
בית
ביתו
ביתר
בך
בכ
בכבוד
בכדי
בכוונה
בכוח
בכור
בכורה
בכורות
בכורים
בכח
בכל
בכלל
בכן
בל
בלא
בלאג
בלאגס
בלאגער
בלאזט
בלאזן
בלאזשאוו
בלאזשאווער
בלאט
בלאטע
בלאך
בלאק
בלאקירט
בלאקירן
בלב
בלבול
בלהה
בלו
בלוז
בלוט
בלוטיגע
בלוטיקע
בלוטן
בלוי
בלויגרונד
בלויז
בלויזן
בלויזע
בלויע
בלויען
בלויער
בלום
בלומא
בלומבערג
בלומינגבורג
בלומען
בלומענפעלד
בלי
בליט
בליי
בלייב
בלייבט
בלייבן
בלייבנדיק
בלייבען
בלילה
בלימא
בלימי
בלינד
בלינדן
בלינדע
בלינדער
בלינדערהייט
בליען
בליץ
בליצן
בליק
בליקן
בלית
בלע
בלעטל
בלעטלעך
בלעטער
בלעטערער
בלעך
בלעם
בלעמען
בלען
בלעק
בלעקפרייערס
בלער
בלק
בלשון
בלתך
בלױז
בלײ
בם
במדבר
במה
במהרה
במזיד
במילא
במלכות
במציאות
במקום
במשך
בן
בנ
בנדיק
בנו
בנוגע
בנות
בנחל
בני
בניו
בניין
בנים
בנימין
בנימינה
בנימינען
בנין
בנינים
בנמצא
בנס
בנעט
בנציון
בס
בסא
בסדר
בסוד
בסוכה
בסוף
בסטרא
בסך
בספר
בסתר
בע
בעבא
בעבודת
בעברית
בעגין
בעד
בעדואינער
בעדער
בעדפארד
בעדפארדשיר
בעה
בעהמען
בעוה
בעולם
בעומר
בעז
בעזר
בעזרת
בעט
בעטא
בעטל
בעטלער
בעטלערס
בעטן
בעטען
בעי
בעיבי
בעיל
בעין
בעיקינג
בעיקר
בעיר
בעכער
בעל
בעלא
בעלארוס
בעלארוסיש
בעלגיע
בעלגישע
בעלות
בעלז
בעלזא
בעלזער
בעלזשעץ
בעלט
בעלי
בעלנים
בעלעטריסטיק
בעמח
בעמלק
בען
בענג
בענגאל
בענגיס
בענד
בענדער
בענז
בענזין
בענטש
בענטשונג
בענטשט
בענטשן
בעני
בעניטא
בענין
בעניני
בענעט
בענעפיט
בענעפיטן
בענציא
בענק
בענקט
בענקל
בענקלעך
בענקשא
בענקשאפט
בעס
בעסא
בעסאראביע
בעסט
בעסטן
בעסטנס
בעסטע
בעסטער
בעסי
בעסער
בעסערן
בעסערס
בעסערע
בעפא
בעפאר
בעפארן
בעצם
בעק
בעקטאן
בעקישע
בעקן
בעקנהאם
בעקער
בעקעריי
בעקערייען
בעקערלו
בער
בערבעשט
בערג
בערגיק
בערגל
בערגלעך
בערגמאן
בערגן
בערגעלסא
בערגער
בערד
בערדיטשעוו
בערדיטשעווער
בערדל
בערזע
בערט
בערטש
בערטשע
בערי
בעריא
בעריש
בערך
בערכו
בערל
בערלין
בערלינער
בערמאן
בערן
בערנארד
בערנולי
בערני
בערנשטיין
בערס
בערעג
בערעגסאז
בערקאוויטש
בעש
בעשא
בעשאס
בעשענשטיין
בעת
בעתו
בעתן
בפ
בפה
בפועל
בפירוש
בפנימי
בפרט
בפשטות
בצאת
בצד
בציבור
בצלאל
בק
בקדושה
בקהילה
בקודש
בקול
בקי
בקיאות
בקיצור
בקרוב
בקשה
בקשות
בר
ברא
בראד
בראדוויי
בראדוועי
בראדער
בראזיל
בראך
בראכפעלד
בראמלי
בראמפטאן
בראנד
בראנדוויין
בראנדז
בראנפן
בראנפען
בראנקס
בראסלעווער
בראש
בראשית
ברבי
ברבים
ברבנות
ברהם
ברואים
ברוב
ברוגז
ברודער
ברודערס
ברוחניות
ברוטא
ברוטאל
ברויט
ברויך
ברויכט
ברויכן
ברוין
ברוינע
ברויער
ברוך
ברוכ
ברוכל
ברומען
ברונא
ברונעם
ברוס
ברוסט
ברוסטקאסטן
ברוק
ברוקלין
ברור
ברורה
ברחמים
ברי
בריאה
בריאת
בריגאדע
בריגעל
ברידזש
ברידער
בריה
בריוו
בריוון
בריטאניע
בריטיש
בריטישן
בריטישע
בריטישער
בריטן
בריטען
בריטענ
ברייט
ברייטאן
ברייטן
ברייטע
ברייטער
ברייטערן
ברייטקייט
ברייל
בריינגט
בריינגען
בריינדל
ברייען
ברייער
ברייש
ברייתא
בריך
בריליא
בריליאנטן
ברילן
ברים
בריסט
בריסטאל
בריסל
בריסעל
בריסק
בריסקער
בריעה
בריעף
בריף
בריק
בריקא
בריקן
בריקס
ברירה
ברית
בריתי
בריװ
ברך
ברכה
ברכהן
ברכו
ברכות
ברכי
ברכיה
ברכת
ברסלב
ברסלבער
ברעג
ברעגן
ברעגנט
ברעגעס
ברעד
ברעזשאן
ברעזשנעוו
ברעט
ברעטל
ברעטער
ברעכט
ברעכן
ברעמען
ברען
ברענג
ברענגט
ברענגן
ברענגען
ברענדי
ברענט
ברענען
ברענשטאף
ברעסלאווער
ברעסלעווער
ברעקל
ברעקלעך
ברק
ברױט
ברײט
בש
בשאלה
בשבט
בשביל
בשבת
בשבתו
בשה
בשוגג
בשום
בשורה
בשותפות
בשז
בשלום
בשלח
בשלימות
בשם
בשמחה
בשמים
בשן
בשנה
בשנת
בשעה
בשעת
בשעתו
בשעתן
בשר
בת
בתוך
בתוכם
בתולה
בתורה
בתי
בתיה
בתים
בתירא
בתכלית
בתמוז
בתמימות
בתנאי
בתרא
בתשובה
בױגן
בױם
בױען
בײ
בײדע
בײז
בײזן
בײזע
בײם
בײמער
בײנער
ג
גא
גאב
גאבעס
גאהר
גאוה
גאווה
גאווערנאר
גאווערנער
גאולה
גאון
גאונות
גאונים
גאז
גאזאלין
גאזן
גאט
גאטהייט
גאטוויק
גאטליב
גאטס
גאטעסמאן
גאטפריד
גאל
גאלא
גאלאן
גאלאנען
גאלאקסיע
גאלאקסיעס
גאלד
גאלדא
גאלדבערג
גאלדמאן
גאלדן
גאלדע
גאלדען
גאלדענע
גאלדענעם
גאלדענער
גאלדערס
גאלדשטיין
גאלילעא
גאליציאנער
גאליציע
גאלען
גאלעריע
גאלף
גאמא
גאמאל
גאן
גאנג
גאנגעס
גאנז
גאנץ
גאנצ
גאנצן
גאנצנ
גאנצע
גאנצען
גאנצער
גאס
גאסט
גאסטגעבער
גאסן
גאספל
גאר
גאראנטירט
גארבאטשאוו
גארד
גארדאן
גארדיען
גארדן
גארטל
גארטן
גארליץ
גארליצער
גארניט
גארנישט
גארע
גארער
גב
גבאי
גבאים
גבוה
גבוך
גבול
גבורה
גבורות
גבורים
גבי
גביר
גבירים
גבירישע
גבירישער
גבעת
גבעתיים
גבר
גבריאל
גד
גדא
גדול
גדולה
גדולות
גדולי
גדולים
גדי
גדיא
גדלות
גדליה
גדליהו
גדעון
גדר
גהא
גהאנע
גו
גוא
גואל
גואלינו
גואנטאנאמע
גוב
גובערנאטאר
גובערניע
גובר
גוג
גוגל
גוגעל
גווא
גוואטעמאלע
גוואלד
גוונין
גוזר
גוט
גוטמאן
גוטן
גוטס
גוטע
גוטען
גוטעס
גוטער
גוי
גויאישע
גויאישער
גויי
גויים
גוים
גולה
גולם
גולן
גולני
גומע
גומען
גוסטאוו
גוף
גופ
גופא
גופטא
גור
גורבאטשאוו
גורוויץ
גורט
גוריון
גורל
גורם
גורן
גוש
גזירה
גזירות
גזירת
גזל
גזלה
גזלן
גזלנים
גזע
גזר
גזרה
גט
גטן
גטע
גי
גיא
גיב
גיבו
גיבור
גיבורים
גיבט
גיבן
גיבסאן
גיבראלטאר
גיגעבין
גיד
גידעמא
גיהנום
גיהנם
גיוס
גיוסן
גיוסעס
גיזעהן
גיט
גיטא
גיטאר
גיטין
גיטל
גיטעלע
גיטעלען
גיטעלעס
גיטער
גיי
גייגער
גייט
גייטוויי
גייטס
גייטסהעד
גייטסהעדער
גיין
גיינ
גייסט
גייסטו
גייסטיגע
גייסטיק
גייסטיקע
גייסטיקער
גייסטיש
גייסטישע
גייען
גייענדיג
גייענדיק
גייער
גיך
גיכן
גיכע
גיכער
גיכקייט
גילבערט
גילדן
גילדענע
גילדערנע
גילה
גילוי
גילויים
גילטיג
גילטיק
גימ
גימאטריע
גימטריא
גימנא
גין
גינגא
גינזבורג
גינזבערג
גינע
גיסא
גיסט
גיסטרא
גיסן
גיע
גיפ
גיפט
גיפטיק
גיק
גירוש
גירט
גירסא
גיש
גישן
גישע
גישער
גכה
גכז
גל
גלא
גלאבאלע
גלאגאוו
גלאוב
גלאז
גלאט
גלאנץ
גלגול
גלגל
גלו
גלויב
גלויבונג
גלויבט
גלויביגע
גלויבן
גלוסט
גלוסטונג
גלוסטן
גלופ
גלות
גלח
גלחים
גלט
גלי
גליד
גלידער
גליון
גליונות
גליטשן
גליי
גלייב
גלייבט
גלייבן
גלייבען
גליידער
גלייט
גלייטן
גלייך
גלייכונג
גלייכונגען
גלייכט
גלייכן
גלייכע
גלייכען
גלייכער
גלייכצייטיג
גלייכצייטיק
גליך
גליכע
גליל
גלילות
גלינו
גלינע
גליציה
גליק
גליקט
גליקל
גליקליך
גליקלעך
גליקמאן
גליקן
גלית
גלעד
גלעזל
גלעזעלע
גלעזער
גלעזערנע
גלעט
גלען
גלױבן
גלײ
גם
גמ
גמור
גמורה
גמילות
גמליאל
גמרא
גמרות
גן
גנ
גנא
גנב
גנבה
גנבים
גנבענען
גנבױם
גנדיק
גניבה
גניבות
גניזה
גנים
גנעסיע
גנעסיען
גנקייט
גס
גסט
גסטו
גסיסה
גע
געא
געאגראפיע
געאגראפיש
געאגראפישן
געאגראפישע
געאגראפישער
געאורטיילט
געאייגנט
געאייגענט
געאיילט
געאלאגיע
געאמעטריע
געארבייט
געארבעט
געארג
געב
געבא
געבאט
געבאטן
געבאקן
געבארגט
געבארן
געבוי
געבויגן
געבויט
געבויטע
געבויעט
געבוירן
געבוירען
געבוירענע
געבוירענער
געבונדן
געבוקט
געבורט
געבורטן
געבורטס
געבורטסטאג
געבט
געביט
געביטן
געביידע
געביידעס
געבייזערט
געביין
געבילדעט
געבין
געבינדן
געבירטיג
געבלא
געבלאזן
געבליבן
געבליבנ
געבליבען
געבליבענע
געבליט
געבן
געבנדיג
געבעט
געבעטן
געבעטען
געבען
געבענטש
געבענטשט
געבענקט
געבעקס
געבער
געבערג
געבערן
געברא
געבראכט
געבראכן
געברויך
געברויכט
געברויכן
געברענגט
געברענט
געבױגן
געבױט
געבױרן
געג
געגא
געגאנגן
געגאנגען
געגאנגענ
געגאסן
געגט
געגלויבט
געגלוסט
געגלייבט
געגליכן
געגלױבט
געגן
געגנבעט
געגנט
געגנטן
געגנטער
געגעב
געגעבן
געגעבנ
געגעבען
געגען
געגענט
געגענטן
געגענטער
געגעניש
געגענען
געגעסן
געגעסען
געגרא
געגראבן
געגרונטפ
געגרייט
געגרינדט
געגרינדעט
געגרינדעטע
געדא
געדאוונט
געדאווענט
געדאכט
געדאנזשעט
געדאנק
געדאנקן
געדאנקען
געדארפט
געדויערט
געדויערן
געדוכט
געדולד
געדונגען
געדונערט
געדיכט
געדיכטע
געדיכטער
געדיכטקייט
געדינגען
געדינט
געדיע
געדיק
געדעכטע
געדעכעניש
געדענק
געדענקט
געדענקמאל
געדענקן
געדענקען
געדעקט
געדערים
געדערעם
געדרא
געדרונגען
געדרוקט
געדרוקטע
געדרוקטער
געדרייט
געדריקט
געדריקטע
געדרײ
געה
געהא
געהאדעוועט
געהאט
געהאלט
געהאלטן
געהאלטען
געהאלפן
געהאלפען
געהאנגען
געהאנדלט
געהאפט
געהארגעט
געהויבן
געהויבענע
געהט
געהיט
געהיטן
געהיילט
געהיים
געהיימע
געהייסן
געהייסען
געהייצט
געהייראט
געהילף
געהילפן
געהילץ
געהן
געהעכערט
געהען
געהעצט
געהער
געהערט
געהעריג
געהעריגע
געהעריגער
געהעריק
געהעריקן
געהעריקע
געהערן
געהערשט
געהרג
געהרגט
געהרגעט
געהרגעטע
געהױבן
געהײליקט
געהײסן
געו
געוארן
געווא
געוואויגן
געוואוינט
געוואויר
געוואונדערט
געוואונט
געוואונטשן
געוואונטשענע
געוואונען
געוואוסט
געוואוקס
געוואוקסן
געוואלד
געוואלדטאטן
געוואלדיג
געוואלדיגן
געוואלדיגע
געוואלדיגער
געוואלט
געוואן
געוואנדן
געוואנדען
געוואנדערט
געוואקסן
געוואר
געווארט
געווארן
געווארנט
געווארען
געווארענט
געווארפן
געווו
געוווינט
געוווסט
געווידמעט
געוויזן
געוויזען
געוויילט
געוויין
געוויינט
געוויינטליך
געוויינטלעך
געוויינטלעכע
געוויינליך
געוויינלעך
געוויינלעכן
געוויינלעכע
געוויינלעכער
געוויינען
געווייקט
געוויכט
געווינט
געווינס
געווינען
געווינער
געוויס
געוויסט
געוויסן
געוויסע
געוויסער
געוויקס
געוויקסן
געווירץ
געווירצן
געווירקט
געווישט
געוון
געוועב
געוועבן
געוועהן
געוועזן
געוועזען
געוועזענע
געוועזענעם
געוועזענער
געוועלב
געוועלט
געוועלטיגט
געוועלטיגן
געוועלטיגער
געוועלטיקט
געוועלטיקייט
געוועלטיקן
געווען
געווענ
געווענדט
געווענדעט
געווענטליך
געווענליך
געווענליכן
געווענליכע
געווענליכער
געווענלעך
געוועקט
געווער
געווערן
געוען
געז
געזא
געזאגט
געזאלט
געזאמלט
געזאנג
געזאנגען
געזארגט
געזוכט
געזונגען
געזונד
געזונדערט
געזונדערטן
געזונט
געזונטהייט
געזונטן
געזונטע
געזונטער
געזונטערהייט
געזיגט
געזיכט
געזינגען
געזינדיגט
געזינדיקט
געזינדל
געזיצן
געזעגנט
געזעגענען
געזעהן
געזעלשא
געזעלשאפט
געזעלשאפטלעכע
געזעלשאפטן
געזעמל
געזעמלען
געזען
געזענ
געזעסן
געזעסען
געזעסענע
געזעץ
געזעצט
געזעצליך
געזעצן
געזעצען
געחלומט
געחתמעט
געט
געטא
געטאן
געטאנצט
געטאס
געטארט
געטוהן
געטויגט
געטוישט
געטון
געטועהן
געטוען
געטייט
געטיילט
געטליכע
געטליכער
געטליכקייט
געטלעכן
געטלעכע
געטלעכער
געטלעכקייט
געטענה
געטענהט
געטער
געטרא
געטראגן
געטראכט
געטראנק
געטראנקען
געטראפן
געטראפען
געטרויען
געטרונקען
געטריבן
געטריי
געטרייסט
געטרייע
געטרייער
געטריישא
געטריישאפט
געטרעטן
געטרײ
געטשעפעט
געטײט
געי
געיא
געיאגט
געיז
געיט
געיטס
געיעג
געירשנט
געכא
געכאפ
געכאפט
געל
געלא
געלאדענט
געלאזט
געלאכט
געלאנדעט
געלאפן
געלד
געלויבט
געלוינט
געלונגן
געלונגען
געלונגענע
געלונגענער
געלט
געלטליכע
געלטער
געלטפאנד
געליבטער
געליגן
געליטן
געליטענע
געלייגט
געלייזט
געליינט
געלייענט
געלייקנט
געליען
געלן
געלע
געלעבט
געלעגט
געלעגן
געלעגנ
געלעגנהי
געלעגנהייט
געלעגנהייטן
געלעגענהייט
געלעגער
געלעגערס
געלעכטער
געלענק
געלענקען
געלעסטערט
געלער
געלערטע
געלערטער
געלערנט
געלערנטע
געלערנטער
געלערענט
געלױבט
געלײ
געלײגט
געמ
געמא
געמאכט
געמאכטע
געמאלדן
געמאלט
געמאסטן
געמארדעט
געמבלינג
געמוזט
געמוטשעט
געמיט
געמיטער
געמיינדע
געמיינדעס
געמיינזאמע
געמיינזאמער
געמיינט
געמיינע
געמינערט
געמיש
געמישט
געמישטע
געמעגט
געמעלן
געמערט
געמערקט
גען
גענא
גענאסן
גענארט
גענג
גענדז
גענוג
גענוי
גענויגט
גענויע
גענויען
גענויער
גענומען
גענומענ
גענוצט
גענוצטע
גענז
גענזייל
גענטפערט
גענידערט
געניטן
געניטער
גענייט
געניסט
געניסן
געניצט
געניש
גענע
גענעטישע
גענעכטיקט
גענעם
גענענט
גענענען
גענעס
גענער
גענערא
גענעראל
גענעראלן
גענף
גענצליך
גענצלעך
גענױ
גענײ
געס
געסט
געסטראשעט
געסל
געסלעך
געענגט
געענדיגט
געענדיקט
געענדערט
געענטפ
געענטפערט
געענפערט
געעפ
געעפנט
געעפענט
געערלעכט
געפ
געפא
געפאדערט
געפאלגט
געפאלט
געפאלן
געפאלען
געפאנגען
געפאנגענע
געפאנצערטע
געפאסט
געפאר
געפארן
געפארשט
געפונט
געפונען
געפועלט
געפיטערט
געפייניגט
געפייערט
געפיל
געפילט
געפילטע
געפילן
געפינט
געפינען
געפירט
געפלא
געפלאגט
געפלאנט
געפלאנטע
געפלאנצט
געפלויגן
געפסקנט
געפעכט
געפעלט
געפעלן
געפענגעניש
געפענט
געפענקעניש
געפערליך
געפערליכע
געפערלעך
געפראוועט
געפרו
געפרואווט
געפרוירן
געפרייט
געפרעגט
געץ
געצא
געצאלט
געצוואונגען
געצווונגען
געצווינגן
געצווינגען
געצויגן
געציטערט
געצייג
געצייגט
געציילט
געציילטע
געציל
געצילט
געצל
געצן
געצנדינער
געצעלט
געצעלטן
געצערנט
געצױגן
געקא
געקאכט
געקאנט
געקאנטשעט
געקאסט
געקויפ
געקויפט
געקומן
געקומען
געקומענ
געקומענע
געקוקט
געקושט
געקיניגט
געקלא
געקלאגט
געקלאפט
געקלונגען
געקליבן
געקליבענע
געקליידט
געקלעקט
געקלערט
געקעכץ
געקעמפט
געקענט
געקעניגט
געקערט
געקערעוועט
געקרא
געקראגן
געקראכט
געקרוינט
געקריגט
געקריגן
געקרינן
געקױפ
גער
גערא
געראטן
געראטעוועט
געראנגל
גערודער
גערודפ
גערודפט
גערוט
גערויבט
גערויש
גערוך
גערופ
גערופן
גערופען
גערופענע
גערופענער
גערוקט
גערט
גערטנער
גערייכערט
געריכט
געריכטליכע
געריכטן
גערין
געריסן
געריקט
גערירט
גערמא
גערמאנישע
גערן
גערס
גערעגט
גערעדט
גערעדטן
גערעדטע
גערעכט
גערעכטיגקייט
גערעכטיקייט
גערעכטיקײט
גערעכטן
גערעכטע
גערעכטער
גערעכנט
גערעכענט
גערער
גערצא
גערשט
גערשטן
גערױש
געש
געשא
געשאנק
געשאנקן
געשאנקען
געשאסן
געשאפ
געשאפט
געשאפן
געשאצט
געשאצטע
געשווא
געשוואוירן
געשוויגן
געשווינד
געשוויסטער
געשטא
געשטאכן
געשטאלט
געשטאמט
געשטאנען
געשטאנענ
געשטארבן
געשטארבען
געשטארקט
געשטויסן
געשטופ
געשטופט
געשטורעמט
געשטיגן
געשטימט
געשטיצט
געשטעטנער
געשטעל
געשטעלט
געשטעלטע
געשטעלטער
געשטעקט
געשטערט
געשטרא
געשטראפט
געשטרעבט
געשטרױכלט
געשיידט
געשיינט
געשיכטע
געשיכטעס
געשילדערט
געשיצט
געשיקט
געשיר
געשלא
געשלאגן
געשלאסן
געשלאפן
געשלעג
געשלעגן
געשלעכט
געשלעפ
געשלעפט
געשמא
געשמאק
געשמאקע
געשמדט
געשמועסט
געשמייכלט
געשמיסן
געשמעקט
געשניטן
געשעדיגט
געשעדיקט
געשעהט
געשעהן
געשעט
געשעמט
געשען
געשענט
געשענקט
געשעעניש
געשעענישן
געשעפ
געשעפט
געשעפטן
געשעצט
געשפ
געשפאלטן
געשפילט
געשפירט
געשפרייט
געשפרעכן
געשרא
געשרי
געשריב
געשריבן
געשריבען
געשריבענע
געשריגן
געשריי
געשרייען
געשריען
געשרײ
געשװא
געשװיגן
געװא
געװארן
געװו
געװיזן
געװינערין
געװעלבן
געװעלטיקט
געװעלטיקן
געװעלטיקער
געװען
געװױנט
געװײן
געװײנט
גפן
גר
גרא
גראבט
גראבן
גראבע
גראד
גראדואירט
גראדזיסק
גראדזענסקי
גראדזשיסק
גראדנע
גראדע
גראוו
גראוויטאציע
גראוויטי
גראז
גראזן
גראם
גראמאטיק
גראמען
גראס
גראסמאן
גראסערי
גראף
גראפנשאפט
גראפנשאפטן
גרו
גרוב
גרובער
גרוזיניש
גרוזיע
גרוי
גרויזאמע
גרויס
גרויסאיסטערן
גרויסבריטאניע
גרויסווארדיין
גרויסלאנדאן
גרויסמאכטן
גרויסמייסטער
גרויסן
גרויסנארדערן
גרויסע
גרויסען
גרויסער
גרויסקייט
גרויסשטעט
גרונד
גרונט
גרונטלעכע
גרונטפ
גרוס
גרופ
גרופע
גרופעס
גרוש
גרושה
גריבאוו
גריבעס
גריבער
גריג
גריי
גרייווזענד
גרייז
גרייזן
גרייט
גרייטן
גרייטע
גרייכט
גרייכן
גרייס
גרייסן
גרייפן
גריכיש
גריכישן
גריכישע
גריכישער
גריכן
גריכנלאנד
גרים
גרימצא
גרין
גרינבוים
גרינבלאט
גרינבערג
גרינג
גרינגסטע
גרינגע
גרינגער
גרינגערהייט
גרינדונג
גרינדן
גרינדער
גרינדערס
גרינוואלד
גריניטש
גרינלאנד
גרינס
גרינסן
גרינע
גרינעם
גרינער
גרינפעלד
גרינצייג
גריס
גריסט
גריסן
גריף
גריפ
גריפן
גריפע
גריצע
גרמנית
גרע
גרעבער
גרעגאריאנישן
גרעגאריאנישער
גרעיט
גרענד
גרעניץ
גרעניצט
גרעניצן
גרעניצען
גרענעץ
גרענעצט
גרענעצן
גרעסטן
גרעסטע
גרעסטער
גרעסער
גרעסערן
גרעסערע
גרעסערער
גרשום
גרשון
גרױס
גרױסן
גרױסע
גרױסער
גרױסקײט
גרײ
גשא
גשמי
גשמיות
גשר
גשריבן
גת
גײ
גײט
גײן
גײסט
גײען
ד
דא
דאבעליו
דאברהם
דאגה
דאגות
דאגעגן
דאו
דאוונען
דאווענט
דאווענען
דאווער
דאורייתא
דאזיגן
דאזיגע
דאזיגער
דאזיקן
דאזיקע
דאזיקער
דאטא
דאטום
דאטן
דאטנבאזע
דאטע
דאטעבאזע
דאטעס
דאך
דאכט
דאכיל
דאכנער
דאלאר
דאלארן
דאלינא
דאלסטאן
דאלער
דאם
דאמב
דאמבע
דאמבראווא
דאמבראווער
דאמינירט
דאמען
דאמעסטיק
דאן
דאנאלד
דאנען
דאנעצק
דאנערשטאג
דאנערשטיק
דאנציג
דאנציגער
דאנק
דאנקבארקייט
דאנקן
דאנקען
דאס
דאסמאל
דאסקאל
דאפעלט
דאקומענט
דאקומענטארער
דאקומענטירט
דאקומענטן
דאקטאר
דאקטאראט
דאקטוירים
דאקטער
דאקלאנדס
דאקעגן
דאר
דארבי
דארבישיר
דארווין
דארום
דארט
דארטיגע
דארטן
דארטען
דארטפארד
דאריך
דארף
דארפט
דארפן
דארפסט
דארפסטו
דארפען
דאש
דאתרא
דב
דבוק
דבור
דבורה
דבי
דבינה
דביקות
דבר
דברי
דבריו
דברים
דבש
דגוש
דגל
דגש
דה
דהיינו
דו
דוא
דוב
דוביי
דובלין
דובנא
דובעצק
דובער
דוגמא
דוד
דודאים
דודו
דודי
דודין
דודיס
דודל
דודן
דווא
דווארזעץ
דווייט
דווקא
דויד
דויטש
דויל
דויער
דויערט
דויערן
דוכט
דול
דולער
דומ
דומא
דומה
דונאם
דונג
דוניי
דונער
דונערן
דוס
דוסא
דועל
דוצירט
דוצירן
דוצירער
דוקא
דוקט
דוקטן
דוקלא
דוקציע
דור
דורות
דורך
דורכ
דורכאויס
דורכגאנג
דורכגאס
דורכגיין
דורכגייער
דורכגעגא
דורכגעגאנגען
דורכגעלא
דורכגעלעבט
דורכגעמא
דורכגענומען
דורכגעפ
דורכגעפאלן
דורכגעפירט
דורכגײן
דורכדעם
דורכזיכטיג
דורכן
דורכפ
דורכפא
דורכפאל
דורכפאלן
דורכפירן
דורכפירער
דורכפעלער
דורכצופירן
דורכרעדן
דורכשניט
דורכשניטליך
דורכשניטליכע
דורכשניטליכער
דורכשניטלעך
דורכשניטלעכע
דורכשניטלעכער
דורש
דורשט
דושינסקי
דושינסקיא
דז
דזועס
דזמרה
דזש
דזשא
דזשאב
דזשאבס
דזשאו
דזשאמייקע
דזשאן
דזשאנס
דזשאנסאן
דזשאסעף
דזשארדזיע
דזשארדזש
דזשארזש
דזשואיש
דזשוסעפע
דזשורי
דזשורנאל
דזשי
דזשיבוטי
דזשיגאן
דזשיי
דזשיימס
דזשיין
דזשילבערץ
דזשים
דזשין
דזשיקאוו
דזשיקאווער
דזשעז
דזשעט
דזשעי
דזשעימס
דזשענעראל
דזשעף
דזשעק
דזשערבא
דזשערזי
דזשערי
דזשערסי
דזשערעמי
דזשױנט
דחקות
דט
די
דיא
דיאלעקט
דיאלעקטן
דיאמאנט
דיאמאנטן
דיאמעטער
דיאקסייד
דיבוק
דיבור
דיבורים
דיג
דיגן
דיגע
דיגער
דיוויזיע
דיוויזיעס
דיון
דיזל
דיזן
דיזנגאף
דיזני
דיזעל
דיזר
דיי
דייוויד
דייוויס
דייט
דייטש
דייטשיש
דייטשישע
דייטשלא
דייטשלאנד
דייטשלאנדס
דייטשן
דייטשע
דייטשען
דייטשער
דיין
דיינים
דיינמאנד
דיינע
דיינער
דייעט
דייקא
דיך
דיכ
דיכטונג
דיכטונגען
דיכטער
דיכטערין
דיכטערס
דיל
דים
דימונה
דימיטריוס
דימיר
דימענט
דימענסיעס
דין
דינא
דינאוו
דינאווער
דינאסטיע
דינג
דינגונגען
דינגט
דינגען
דינה
דינהלה
דינהלע
דינהלען
דינונגען
דינט
דיני
דינים
דינסט
דינסטאג
דינסטיק
דינסטן
דינע
דינען
דינער
דיסא
דיסטאנץ
דיסטענס
דיסטריקט
דיסטריקטן
דיסלעקסיע
דיסערטא
דיסציפלין
דיסציפלינען
דיסק
דיסקא
דיסקאווערי
דיסקוטירט
דיסקוסיע
דיסקוסיעס
דיסקין
דיסקרימינאציע
דיע
דיעגא
דיעטע
דיעל
דיפ
דיפלאם
דיפלאמאט
דיפלאמאטישע
דיפלאמאטן
דיציא
דיציע
דיק
דיקא
דיקטא
דיקטאטאר
דיקטאטור
דיקן
דיקע
דיקער
דיר
דירה
דירות
דיריגענט
דירעקט
דירעקטא
דירעקטאר
דירעקטירט
דירעקטע
דירעקטער
דיש
דישן
דישע
דישער
דישקי
דישקייט
דכלה
דל
דלא
דלות
דלער
דלעתיד
דם
דמ
דמי
דמיון
דמיטרי
דמיין
דמים
דמיניסטרא
דמש
דמשיחא
דמשק
דן
דנ
דנטום
דני
דניאל
דניאלן
דניעפ
דניעפער
דנע
דס
דסאטמאר
דסקי
דסקער
דע
דעאוס
דעבאטירט
דעבאטע
דעביוטירט
דעברעצין
דעגרי
דעגרייכט
דעגרייכן
דעד
דעה
דעהאן
דעהם
דעוויד
דעוועט
דעוועלא
דעווקע
דעות
דעזיין
דעזיינט
דעט
דעטאל
דעטאלן
דעטרויט
דעי
דעיוויד
דעילי
דעכער
דעל
דעלאטין
דעלאנא
דעלטע
דעלעגא
דעלעגאט
דעלעגאטן
דעלעגאציע
דעם
דעמ
דעמא
דעמאלט
דעמאלטדיגער
דעמאלטס
דעמאלטסדיגער
דעמאלס
דעמאלסט
דעמאלסטיקער
דעמאנסטראציע
דעמאנסטראציעס
דעמאקראט
דעמאקראטיע
דעמאקראטיש
דעמאקראטישן
דעמאקראטישע
דעמאקראטישער
דעמאקראטן
דעמביץ
דעמיע
דעמלט
דען
דענ
דענג
דענווער
דעניס
דעניש
דענישער
דענמא
דענמארק
דענסטמא
דענסמאל
דענע
דענענבורג
דענצמא
דענקט
דענקמא
דענקמאל
דענקען
דענקער
דעס
דעסט
דעסטוועגן
דעסטינאציע
דעסטינאציעס
דעסלער
דעעש
דעעשער
דעפ
דעפארטירט
דעפארטמענט
דעפארטמענטן
דעפוטאט
דעפוטאטן
דעפיניציע
דעפינירט
דעפינירן
דעפיציט
דעפענס
דעפרעסיע
דעצימאל
דעצעמבער
דעק
דעקא
דעקאטע
דעקארט
דעקונג
דעקט
דעקל
דעקלא
דעקלאראציע
דעקלינא
דעקלעראציע
דעקלערט
דעקן
דער
דערב
דערבא
דערבי
דערביי
דערבײ
דערגא
דערגאנגען
דערגייט
דערגיין
דערגרייכונג
דערגרייכונגען
דערגרייכט
דערגרייכן
דערגרײכט
דערדא
דערהא
דערהאלטן
דערהארגעט
דערהויבן
דערהויבענע
דערהויפ
דערהיים
דערהער
דערהערט
דערהערן
דערהערנדיק
דערהרגעט
דערהױבן
דערהײבן
דערווא
דערוואוסט
דערוואקסן
דערוואקסענער
דערווו
דערווי
דערווידער
דערווייזן
דערווייטענס
דערווייטערט
דערווייטערן
דערווייל
דערוויילט
דערוויסן
דערוועגן
דערוועקט
דערוועקן
דערווײ
דערויף
דערום
דערונג
דערופ
דערזא
דערזע
דערזעהן
דערזעט
דערזען
דערזעענדיק
דערזײ
דערט
דערטרא
דערטרונקען
דעריב
דעריבער
דערין
דערינען
דערלא
דערלאזן
דערלאנגט
דערלאנגען
דערלויבט
דערלויבן
דערלויבעניש
דערליידיקן
דערלעבט
דערלעבן
דערמא
דערמאנט
דערמאנטע
דערמאנען
דערמארדעט
דערמיט
דערמעגלעכט
דערמעגלעכן
דערן
דערנא
דערנאך
דערנידערט
דערנע
דערנעבן
דערנעבנדיגע
דערנעם
דערנענטערט
דערנענטערן
דערנעענט
דערנער
דערנערונג
דערפ
דערפא
דערפאלג
דערפאלגרייך
דערפאר
דערפארונג
דערפון
דערפונ
דערפילט
דערפילן
דערפינדן
דערפינדער
דערפל
דערפלעך
דערפער
דערפרייט
דערפרייען
דערצו
דערצויגן
דערצי
דערציאונג
דערצייל
דערציילונג
דערציילונגען
דערציילט
דערציילן
דערציילנ
דערציער
דערצעהלט
דערצערענען
דערצײלט
דערצײלן
דערקלערונג
דערקלערט
דערקלערן
דערקעגן
דערקענט
דערקענטעניש
דערקענען
דערשא
דערשאוויץ
דערשאסן
דערשטוינט
דערשטיקט
דערשטיקן
דערשי
דערשיטערט
דערשיינונג
דערשיינט
דערשינען
דערשלא
דערשמעקט
דערשפ
דערשפירט
דערשפירן
דערשרא
דערשראקן
דערשרעקן
דערשײ
דערװעק
דערװײ
דערױף
דעש
דעת
דעתיקא
דף
דפגרא
דפוס
דפים
דפרקא
דק
דקא
דקדושה
דקהל
דקע
דר
דרא
דראג
דראגס
דראהאביטש
דראהביטש
דראט
דראטן
דראמא
דראמאטורג
דראמאטיש
דראמאטישע
דראמאטישער
דראמע
דראסטיש
דראקלענד
דרב
דרבי
דרבנן
דרוזן
דרויסן
דרויסנדיגע
דרויסנדיקע
דרויסנדיקער
דרוך
דרום
דרומדיק
דרומדיקע
דרומדיקער
דרוק
דרוקט
דרוקן
דרוקער
דרוקעריי
דרוש
דרושים
דרי
דריא
דריווש
דריז
דריזן
דריט
דריטל
דריטן
דריטנס
דריטע
דריטען
דריטער
דריי
דרייא
דריידל
דרייוו
דרייוון
דרייווער
דרייט
דרייסט
דרייסיג
דרייסיגסטער
דרייסיק
דרייען
דרייעק
דרייער
דרייפוס
דרייצן
דרייצנטער
דרייצען
דרינגט
דרינגען
דרינען
דריק
דריקונג
דריקט
דריקן
דריקער
דרך
דרכי
דרכים
דרע
דרעוין
דרעזדן
דרענאזש
דרעס
דרש
דרשה
דרשו
דרשות
דרשן
דרױסן
דרײ
דרײען
דש
דשא
דשטיין
דשמיא
דת
דײ
ה
הא
האב
האבות
האבין
האבן
האבנדיג
האבען
האבענדיג
האבער
האג
האגל
האגער
האדם
האדמה
האדמו
האדסאן
האדעווען
האוואי
האוואנע
האווארד
האוז
האוזינג
האומה
האומות
האוסט
האור
האזינו
האחרון
האט
האטליין
האטליינס
האטן
האטעל
האטעלן
האי
האיטי
האינטרנט
האיש
האל
האלאנד
האלאקאוסט
האלאקאסט
האלאשיץ
האלב
האלבאינדזל
האלבאינזל
האלבן
האלבע
האלבער
האלבערשטאט
האלבערשטאם
האלבקיילעך
האלדז
האלה
האלהים
האלוקות
האלוקי
האלט
האלטן
האלטנ
האלטנדיג
האלטען
האלטער
האליוואד
האליוואוד
האלמנה
האלענדיש
האלענדישן
האלענדישע
האלענדישער
האלענדער
האלפערט
האלפערין
האלפרין
האלץ
האלקין
האלשטאט
האם
האמבורג
האמונה
האמילטאן
האמיתי
האמלעט
האמלעטס
האמעאפאטיע
האמעאפאטישע
האמערסמיט
האמפסטעד
האמצעי
האמת
האן
האנאווער
האנג
האנד
האנדא
האנדל
האנדלט
האנדלן
האנדלס
האנדלען
האנדלער
האנדעלט
האנט
האנטבוך
האנטער
האנטערס
האנטשריפט
האניג
האניפאלי
האנס
האנסלוי
האנשו
האס
האסט
האסטו
האף
האפ
האפט
האפמאן
האפן
האפנונג
האפסבורגער
האפענונג
האפשטיין
האצילות
האצעליס
האק
האקט
האקיידא
האקן
האר
הארא
האראדענקע
האראדענקער
האראלד
הארב
הארבסט
הארבע
הארבער
הארגעט
הארגענען
הארווארד
הארוי
הארט
הארטווארג
הארטי
הארטע
הארטער
הארטפארד
הארטפארדשיר
הארי
הארינגיי
הארלעם
הארמאן
הארמאניע
הארמאנען
הארמי
הארן
הארץ
הארצ
הארצות
הארציגע
הארצים
הארצן
הארצען
הארשאם
האש
האשה
האשעמ
הב
הבא
הבאים
הבדלה
הבורא
הבושם
הבחור
הבטחה
הביטול
הבית
הבל
הבן
הבנים
הבעל
הבעש
הבקר
הברה
הבריאה
הבריות
הברית
הברכה
הבתולה
הג
הגאולה
הגאון
הגאונים
הגבהה
הגדה
הגדול
הגדולה
הגדולים
הגה
הגהות
הגולה
הגומל
הגוף
הגלות
הגלילי
הגם
הגנה
הגנוז
הגפן
הגר
הגרי
הגשמי
הדבר
הדברות
הדברים
הדור
הדורות
הדיבור
הדין
הדלקת
הדם
הדמיון
הדני
הדס
הדסה
הדסהן
הדעת
הדר
הדרך
הדת
ההגדה
ההגנה
ההוא
ההטיות
ההם
הו
הוא
הוגא
הוד
הודאה
הודו
הוה
הוו
הוט
הוטנער
הוי
הויב
הויבט
הויבן
הויז
הויזגעזינד
הויזן
הויט
הויך
הויכלאנד
הויכן
הויכע
הויכער
הויכפונקט
הויכקייט
הויכשולע
הויל
הוילע
הוילער
הויעכע
הויף
הויפ
הויפט
הויפטזעכליך
הויפטזעכלעך
הויפטליניע
הויפטן
הויפטקווארטיר
הויפטקווארטירט
הויפטקווארטירן
הויפטשטא
הויפטשטאט
הויפטשטעט
הויפן
הויפשטאט
הויקער
הוך
הולך
הומא
הומאר
הון
הונא
הונגער
הונגעריג
הונגעריק
הונגעריקע
הונגערן
הונדערט
הונדערטע
הונדערטער
הונט
הוסט
הוסטן
הוסיאטין
הוספות
הוספת
הופער
הוצאה
הוצאות
הוצאת
הורא
הוראגאן
הוראה
הורדוס
הורוויץ
הוריות
הורקנוס
הושע
הושענא
הושענות
הזאת
הזה
הזהב
הזוהר
הזיתים
הזמן
הזמנה
הזמנים
הזקן
החא
החדש
החדשה
החדשים
החודש
החומות
החושן
החי
החיים
החינוך
החכם
החכמה
החלטה
החמה
החנוכה
החסד
החסיד
החסידות
החסידים
החצי
החרדי
החרדים
החרדית
החתן
הט
הטבע
הטהור
הטוב
הטורים
הטל
הי
היא
היברו
היבש
היג
היגן
היגע
היגער
היד
הידרא
הידראגען
היה
היהדות
היהודי
היהודים
היו
היום
היומי
היות
היזק
היחוד
היחודים
היחס
היט
היטב
היטונג
היטל
היטלען
היטלער
היטלעריזם
היטלערן
היטן
היטע
היטען
היטער
היטרוי
היטשין
היי
הייב
הייבורי
הייבט
הייבן
הייבריד
הייד
היידן
היידרא
היידראדזשען
הייוון
הייוועי
הייז
הייזל
הייזער
הייט
הייטס
הייך
הייל
היילונג
היילט
הייליג
הייליגן
הייליגסטער
הייליגע
הייליגען
הייליגער
הייליגקייט
הייליק
הייליקייט
הייליקן
הייליקע
הייליקער
היילן
היילפרין
היים
היימ
היימאן
היימגעקומען
היימיש
היימישן
היימישע
היימישער
היימלא
היימלאנד
היימען
היינאלט
היינו
היינט
היינטיגן
היינטיגע
היינטיגער
היינטיקן
היינטיקע
היינטיקער
היינריך
הייס
הייסט
הייסן
הייסע
הייסען
הייסער
הייעוועי
הייעוועיס
הייפ
הייפיש
הייפישן
הייצונג
הייצט
הייצן
הייקינד
הייראט
הייראטן
הייתי
היכל
היל
הילבערט
הילד
הילוויכט
הילוך
הילולא
הילל
הילס
הילערי
הילף
הילפ
הילצערנע
הים
הימאלייע
הימים
הימין
הימל
הימלישע
הימלע
הימלען
הימלער
הימע
הימעל
הין
הינגעריכט
הינגעריכטעט
הינדא
הינדו
הינדי
הינדל
הינדענבורג
הינזיכט
הינזיכטן
הינט
הינטן
הינטער
הינטערגרונט
הינטערן
הינטערשטער
הינער
הינצו
הינריכטעט
היסוד
היסטא
היסטאריע
היסטאריקער
היסטאריקערס
היסטאריש
היסטארישן
היסטארישע
היסטארישער
היספאנישע
היפ
היפש
היץ
היצונד
היצירה
היצן
היצר
הירדן
הירץ
הירצקא
הירש
הירשל
הירשע
הישועה
הישיבה
הישיבות
הישן
הישר
הישראלי
הית
היתה
היתכן
היתר
הכ
הכבוד
הכהן
הכהנים
הכוכבים
הכולל
הכותל
הכז
הכיפורים
הכל
הכלה
הכלל
הכללי
הכנה
הכנות
הכנסה
הכנסות
הכנסת
הכנת
הכסא
הכפורים
הכרה
הכרם
הכרמל
הכרת
הכשר
הכשרות
הכשרים
הכתוב
הכתר
הכתרה
הל
הלא
הלאומית
הלב
הלבבות
הלואי
הלוואה
הלוואות
הלוואי
הלוי
הלט
הלילה
הלים
הלימוד
הליקוטים
הלך
הלכה
הלכות
הלל
הללו
הלע
הלשון
הם
המאור
המאיר
המבדיל
המבול
המדבר
המדות
המדינה
המדרש
המה
המו
המודיע
המוות
המוחין
המון
המוסר
המועד
המוציא
המושב
המות
המזבח
המזון
המזרח
המחבר
המט
המידות
המים
המינים
המכון
המכפלה
המלאך
המלח
המלך
המלכה
המלכות
המלכים
הממשלה
המן
המנ
המנוחות
המנורה
המספיק
המע
המעלות
המערבי
המעשה
המפורסם
המצאה
המצב
המצוה
המצוות
המצות
המציאות
המקדש
המקובלים
המקום
המשיח
המשך
המשנה
המשניות
המשפחה
המשפט
המת
המתים
הן
הנ
הנאה
הנאות
הנאמנים
הנב
הנבואה
הנביא
הנביאים
הנגיד
הנגינה
הנה
הנהגה
הנהגות
הנהגת
הנהלה
הנותן
הנט
הנים
הניסים
הנני
הנס
הנסתר
הנפש
הנרות
הנשיא
הנשמה
הסבר
הסדר
הסולם
הסופר
הסטו
הסכם
הסכמה
הסכמות
הסעודה
הספד
הספר
הספרייה
הספרים
הסתדרות
הסתלקות
הסתם
הסתר
הסתרה
הסתרות
הע
העב
העבודה
העברי
העברית
העברעאיש
העברעאישן
העברעאישע
העברעאישער
העברעי
העברעיש
העברעישן
העברעישע
העברעישער
העגיענע
העגל
העדה
העובדות
העולה
העולם
העולמי
העולמים
העומר
העזר
העט
העיד
העין
העיר
העכסט
העכסטן
העכסטע
העכסטער
העכער
העכערן
העכערע
העכערער
העל
העלד
העלדישער
העלדן
העלט
העליום
העליון
העליונה
העליונים
העליקא
העליקאפטער
העליקאפטערס
העלמות
העלן
העלע
העלען
העלענע
העלער
העלף
העלפ
העלפאנד
העלפאנדביין
העלפט
העלפן
העלפען
העלפער
העלצער
העם
העמד
העמדל
העמדער
העמילטאן
העמים
העמק
העמקים
הענא
הענגט
הענגיק
הענגן
הענגען
הענד
הענדאן
הענדל
הענדלער
הענט
הענטיק
הענטל
הענטלעך
הענטשא
הענטשקעס
העניא
העניך
הענין
הענינים
הענסאן
הענעך
הענרי
הענריק
העס
העפ
העפט
העפטיגע
העץ
העצמאות
העצן
העצערייען
העק
העקני
העקער
הער
העראלד
הערב
הערבערט
הערה
הערויס
הערונג
הערות
הערט
הערי
הערין
הערינג
העריסאן
הערליך
הערליכן
הערליכע
הערליכער
הערמאן
הערן
הערנדיק
הערנער
הערסט
הערסטו
הערען
הערץ
הערצא
הערצאג
הערצאגשאפט
הערצל
הערצעגאווינע
הערצער
הערש
הערשא
הערשאפט
הערשט
הערשי
הערשל
הערשלס
הערשלען
הערשמאן
הערשן
הערשעל
הערשעלס
הערשעלע
הערשער
הערשקאוויטש
העשיה
העשיל
העשל
הפ
הפוסקים
הפועל
הפורים
הפחות
הפטורה
הפטרה
הפלא
הפלגה
הפליטה
הפנים
הפסוק
הפסוקים
הפסח
הפסק
הפקר
הפרשיות
הצבי
הצדיק
הצדיקים
הצופה
הצופים
הציבור
הציונים
הצלה
הצלחה
הצניעות
הצעיר
הק
הקב
הקבלה
הקברות
הקדוש
הקדושה
הקדושים
הקדמה
הקדמוני
הקדמות
הקדש
הקדשים
הקהילה
הקהילות
הקהל
הקודש
הקטן
הקפה
הקפות
הקץ
הקרבנות
הר
הרא
הראיה
הראשון
הראשונה
הראשונים
הראשי
הרב
הרבה
הרבי
הרבים
הרבני
הרבנים
הרבנית
הרג
הרגעט
הרגען
הרגענען
הרגשים
הרה
הרואה
הרואים
הרובע
הרוגי
הרוח
הרון
הרועים
הרחמים
הרחמן
הרט
הרטע
הרי
הריח
הריין
הרכינס
הרליך
הרמ
הרמב
הרן
הרע
הרען
הרצל
הרצליה
הררי
הרש
הרשב
הרשע
הש
השא
השארת
השבוע
השבועות
השבטים
השבת
השג
השגה
השגות
השגחה
השדה
השדרה
השואבה
השואה
השוחטים
השולחן
השומר
השחר
השחרור
השי
השירים
השכינה
השכל
השכלה
השלום
השלחן
השלישי
השלם
השם
השמאל
השמים
השמשות
השנה
השני
השערה
השערות
השפ
השפעה
השפעות
השקל
השקפה
השקפות
השרון
השתדלות
השתוקקות
השתלשלות
הת
התאחדות
התבודדות
התבוננות
התבטלות
התגלות
התגרות
התוך
התוספות
התורה
התחדשות
התחזקות
התחלה
התחתון
התחתונה
התלהבות
התלויות
התלמוד
התמדה
התנ
התנגדות
התנהגות
התניא
התעוררות
התפילה
התפלה
התפעלות
התפשטות
התקין
התקרבות
התקשרות
התרגשות
התרת
התשובה
הױב
הױז
הױזגעזינט
הױך
הױכן
הױכע
הױערן
הױף
הױפ
הײ
הײב
הײבט
הײבן
הײך
הײכן
הײל
הײליק
הײליקטום
הײליקן
הײליקע
הײליקער
הײליקײט
הײלן
הײם
הײסט
הײסן
הײשעריק
ו
וא
ואה
ואהבת
ואהרן
ואומר
ואות
ואחד
ואחר
ואילך
ואין
ואינו
ואל
ואלו
ואם
ואמר
ואנ
ואני
ואס
ואף
ואק
ואר
וארא
וארן
ואת
ואתה
ואתחנן
וב
ובא
ובין
ובית
ובכל
ובכן
ובליק
ובליקא
ובליקירט
ובן
ובני
ובסוד
ובפ
ובפרט
וברוך
וברכה
ובתמימות
וגו
וגלילה
וגם
וגן
וד
ודאי
ודו
ודור
ודם
ודע
ודעת
וה
והאחים
והבן
והגאולה
והדר
והוא
והוספות
והיא
והיה
והיו
והיינו
והם
והמטיב
והן
והנה
וו
ווא
וואבלאסט
וואג
וואגאנען
וואגן
וואגשאהל
וואגשאל
וואדקע
וואהלין
וואהלינער
וואו
וואוד
וואודל
וואודפארד
וואוהין
וואויוואדעשאפט
וואויל
וואוילזיין
וואוין
וואוינארט
וואוינונג
וואוינט
וואוינען
וואול
וואולטעטיגע
וואוליטש
וואולקאן
וואולקאנען
וואונד
וואונדן
וואונדער
וואונדערט
וואונדערליך
וואונדערליכע
וואונדערלעך
וואונדערלעכע
וואונדערן
וואונט
וואונטש
וואונטשן
וואונען
וואונק
וואוסט
וואוסטן
וואוסטע
וואוסטער
וואוקס
וואזנער
וואט
וואטיקאן
וואטס
וואטערלו
וואטפארד
וואיעוואדעשאפט
וואך
וואכן
וואכנשריפט
וואכעדיגע
וואל
וואלאווע
וואלאווער
וואלאזשין
וואלאזשינער
וואלד
וואלדמאן
וואלה
וואלווס
וואלוטע
וואלוטעס
וואלונטיר
וואלונטירן
וואלט
וואלטאזש
וואלטן
וואלטער
וואלי
וואלין
וואלן
וואלף
וואלפגאנג
וואלפיש
וואלפישן
וואלפסאן
וואלק
וואלקאוויסק
וואלקן
וואלקנס
וואלקענעס
וואן
וואנדער
וואנדערן
וואנואטו
וואנט
וואנעט
וואנען
וואס
וואסארא
וואסלוי
וואסער
וואסערמאן
וואסערן
וואסערע
וואסערפאל
וואסערפאלן
וואסערשטאף
וואספארא
וואפן
וואצלאוו
וואקאל
וואקאלן
וואקאציע
וואקזאל
וואקיום
וואקס
וואקסט
וואקסינאציע
וואקסן
וואקסנדיגע
וואקער
וואר
ווארדן
ווארהייט
ווארום
ווארט
ווארטן
ווארים
ווארימע
ווארימען
ווארימער
וואריקשיר
ווארלד
ווארן
ווארעם
ווארעמע
ווארעמען
ווארעמער
ווארעמקייט
ווארען
ווארענונג
ווארענט
ווארענען
ווארף
ווארפט
ווארפן
ווארצל
ווארצלען
ווארקא
ווארקע
ווארקער
ווארשא
ווארשיינליך
ווארשע
ווארשעווער
וואש
וואשט
וואשינגטאן
וואשן
וודאי
ווו
וווינונג
וווינט
וווינען
וווסט
ווט
ווי
וויא
וויאזוי
וויב
וויבא
וויבאלד
וויג
וויד
ווידאו
ווידוי
ווידיא
ווידיאו
ווידע
ווידעא
ווידעאס
ווידער
ווידערא
ווידעראום
ווידעראמאל
ווידערווילן
ווידערשטאנד
ווידערשפ
ווידר
וויזא
וויזיט
וויזיטן
וויזיע
וויזן
וויזניץ
וויזע
וויזעל
וויזשניץ
וויזשניצער
וויטאל
וויטאמין
וויטאמינען
וויטעבסק
וויטש
וויטשער
וויי
ווייב
ווייבל
ווייבס
ווייבער
וויידל
וויידנפעלד
ווייז
ווייזט
ווייזן
ווייזע
ווייזען
ווייזער
ווייט
ווייטאג
ווייטיק
ווייטיקן
ווייטן
ווייטע
ווייטער
ווייטערדיגע
ווייטערדיקע
ווייטערע
ווייטקייט
ווייך
ווייכווארג
ווייכן
ווייכע
ווייכער
ווייל
וויילז
וויילט
וויילן
וויילס
וויילע
וויילער
וויימאר
וויין
וויינבערג
וויינבערגער
וויינגא
וויינגארטן
וויינט
וויינטרויבן
ווייניג
ווייניגסטנס
ווייניגסטע
ווייניגסטענס
ווייניגער
ווייניק
ווייניקער
וויינעט
וויינען
וויינרייך
וויינשטא
וויינשטאק
ווייס
ווייסבוך
ווייסבלום
ווייסט
ווייסטו
ווייסל
ווייסמאנדל
ווייסן
ווייסע
ווייסען
ווייסער
ווייסרוסלאנד
ווייען
ווייער
ווייץ
ווייצמאן
ווייצן
ווייקן
וויכוח
וויכוחים
וויכטיג
וויכטיגן
וויכטיגסטע
וויכטיגע
וויכטיגער
וויכטיגקייט
וויכטיק
וויכטיקייט
וויכטיקן
וויכטיקסטע
וויכטיקסטער
וויכטיקע
וויכטיקער
וויכע
וויל
ווילא
ווילאנג
ווילבאר
ווילד
ווילדן
ווילדע
ווילדער
ווילהעלם
ווילט
וויליא
וויליאם
וויליאמס
וויליאמסבורג
וויליאמסבורגער
ווילידזש
וויליזש
ווילן
ווילנא
ווילנדיק
ווילנע
ווילנער
ווילסאן
ווילסט
ווילסטו
ווילע
ווילעדזש
ווילען
ווילער
ווילרייק
ווימבלדאן
ווין
ווינד
ווינדאוס
ווינדאס
ווינדזאר
ווינט
ווינטמיל
ווינטן
ווינטער
ווינטערס
ווינטש
ווינטשי
ווינטשן
וויני
וויניצע
ווינסטאן
ווינער
ווינץ
ווינציג
ווינציגער
ווינציק
ווינקל
ווינקלען
ווינקעלעך
וויס
וויסט
וויסטע
וויסן
וויסנדיג
וויסנדיק
וויסנשא
וויסנשאפט
וויסנשאפטלעכע
וויסנשאפטלעכער
וויסנשאפטלער
וויסנשאפטן
וויסע
וויסען
וויסענדיג
וויסענשאפט
וויסקאנסין
וויסקי
וויע
וויעטיש
וויעטישן
וויעטישע
וויעטישער
וויעטן
וויעטנא
וויעטנאם
וויעטנאמעזיש
וויעליטשקא
וויען
וויענער
וויפ
וויפיל
וויפיעל
וויפל
וויץ
וויצן
וויצע
וויק
וויקטא
וויקטאר
וויקטאריע
וויקי
וויקיביבליאטעק
וויקיווערטערבוך
וויקימעדיע
וויקינייעס
וויקיפעדיע
וויקעפעדיע
וויר
ווירדזשיניע
ווירוס
ווירוסן
ווירזשיניע
ווירט
ווירטמבורג
ווירטשא
ווירטשאפט
ווירקונג
ווירקט
ווירקליך
ווירקלעך
ווירקלעכקייט
ווירקן
וויש
ווישט
ווישי
ווישן
ווישניצא
ווישע
ווישעווע
וול
וולא
וולאדימיר
וון
וונא
וונדר
וונט
וונטן
ווניק
וונע
וונען
וונער
ווס
ווסקי
ווסקין
ווע
וועב
וועבארט
וועבזיי
וועבזייט
וועבזייטל
וועבזייטלעך
וועבזײ
וועבסייט
וועבער
וועג
וועגאס
וועגונג
וועגונגען
וועגט
וועגן
וועגנ
וועגעלע
וועגען
וועגענער
וועד
וועדליק
וועהרט
וועזן
וועט
וועטיש
וועטישע
וועטישער
וועטן
וועטער
וועטעראן
וועטערס
וועטשערע
וועילס
וועכטער
וועכנטליך
וועכנטליכע
וועכענטליך
וועכענטליכע
וועל
וועלדער
וועלוול
וועלוועל
וועלט
וועלטליכע
וועלטלעכע
וועלטלעכער
וועלטן
וועלטס
וועלי
וועלין
וועלכן
וועלכע
וועלכען
וועלכעס
וועלכער
וועלן
וועלנ
וועלנדיג
וועלנדיק
וועלס
וועלעכע
וועלעכער
וועלען
וועלף
וועלפעיר
וועלשיש
וועם
וועמבלי
וועמבער
וועמען
וועמענ
וועמענס
וועמעס
ווען
ווענ
ווענד
ווענדונג
ווענדט
ווענדן
ווענוס
ווענט
ווענעדיג
ווענעזועלע
ווענען
ווענעציע
וועס
וועסט
וועסטו
וועסטמינסטער
וועפט
וועק
וועקגיין
וועקגעגא
וועקגעגעבן
וועקגעזעצט
וועקגעלא
וועקגעלייגט
וועקגענומען
וועקגעפ
וועקגעפא
וועקגעקוקט
וועקגעשטעלט
וועקט
וועקטאר
וועקלייגן
וועקן
וועקנעמען
וועקסלען
וועקפ
ווער
ווערא
ווערב
ווערבן
ווערבע
ווערד
ווערדיגער
ווערדן
ווערדע
ווערט
ווערטהיימער
ווערטל
ווערטליך
ווערטלעך
ווערטן
ווערטער
ווערטערבוך
ווערטערביכער
ווערטפולע
ווערים
ווערין
ווערמאכט
ווערמאנט
ווערן
ווערנ
ווערנדיג
ווערנט
ווערנער
ווערסיי
ווערסיע
ווערסיעס
ווערעם
ווערען
ווערצבערגער
ווערק
וועש
ווקע
וושט
ווױנען
ווײ
וז
וזאת
וזה
וזהו
וח
וחומר
וחות
וחכמים
וחסד
וחשבון
וט
וטא
וטהרה
וטסטעפס
וטעה
וטער
וי
ויאמר
ויאמרו
ויבא
ויגל
ויגש
ויד
וידבר
וידוי
וידע
ויהי
ויואל
ויום
ויז
ויזן
ויזע
ויחי
ויט
ויי
וייב
וייג
וייז
וייט
וייטער
וייל
ויין
ויינ
וייס
ויכוח
ויל
וילוס
ויליש
וילישן
וילישע
וילישער
וילך
וילן
וים
וימע
וינ
ויס
ויע
ויען
ויער
ויערים
ויערשע
ויעש
ויפ
ויצא
ויקהל
ויקח
ויקרא
ויר
וירא
ויראה
ויראת
ויש
וישב
וישועה
וישלח
וישם
וישראל
ויתן
ויתקדש
וך
וכ
וכדו
וכדומה
וכו
וכי
וכידוע
וכך
וכל
וכלה
וכמה
וכן
וכנ
ול
ולא
ולוי
ולט
ולילה
ולכן
ולל
ולמה
ולן
ולס
ולע
ולער
ולערע
ולקדושה
ולקײט
ום
ומבוטל
ומה
ומוריד
ומטר
ומי
ומיד
ומל
ומלאה
ומעשים
ומפני
ומצוות
ומצות
ומקהלת
ומשה
ומשיב
ומתן
ון
ונ
ונא
ונאים
ונג
ונגען
ונד
ונו
ונסיל
ונעם
ונען
ונפלאות
ונקט
ונקטן
ונקציע
ונשמע
ונתתי
וס
וסט
וסטע
וסי
וע
ועג
ועד
ועוד
ועט
ועיין
ועל
ועלט
ועלן
וען
ועס
ועק
וער
ועשה
ועשו
ועשרים
ועתה
וף
ופ
וץ
וק
וקים
ור
ורא
וראש
ורב
ורבי
ורג
ורה
ורוח
ורט
ורים
ורל
ורן
ורע
ורעמט
ורפ
וש
ושוב
ושלום
ושלשים
ושם
ושמו
ושמחה
ושמש
ושנים
ושקע
ושריפ
ות
ותמונת
ותן
ותקנות
ותשובות
ז
זא
זאא
זאב
זאבלאטאוו
זאג
זאגאר
זאגט
זאגין
זאגן
זאגנדיג
זאגען
זאגענדיג
זאגער
זאט
זאך
זאכ
זאכן
זאכנ
זאכען
זאל
זאלוינים
זאלונים
זאלט
זאלי
זאליס
זאלן
זאלסט
זאלסטו
זאלען
זאלץ
זאלצבורג
זאלצן
זאלשט
זאמאשטש
זאמביע
זאמד
זאמלונג
זאמלונגען
זאמלט
זאמלן
זאמלען
זאמעלט
זאמען
זאנגען
זאנוויל
זאנע
זאנענפעלד
זאנעס
זאפאסן
זאפארט
זאפט
זאץ
זאצן
זאק
זאקארי
זאקן
זאקס
זאקסן
זארג
זארגן
זארקאווי
זאת
זבולון
זבחים
זגא
זגאל
זגאלן
זה
זהב
זהירות
זהר
זו
זוא
זוגות
זוה
זוהן
זוהר
זוועהיל
זוועהילער
זוטא
זוי
זויבער
זויגער
זויגערס
זויווי
זויל
זוימען
זוינס
זוינע
זויער
זויערשטאף
זויפיל
זוך
זוכה
זוכט
זוכמאשין
זוכן
זוכנדיק
זוכען
זוכעניש
זוכער
זוכװא
זומא
זומער
זומפ
זון
זונ
זונג
זונדל
זונדער
זונדערן
זונדערס
זונדערע
זונדערער
זונה
זונות
זונטאג
זונטיג
זונטיק
זונס
זונען
זוסיא
זופ
זושא
זז
זחא
זחג
זט
זטו
זטן
זטע
זי
זיא
זיב
זיבן
זיבנבערגן
זיבעטן
זיבעטע
זיבעטער
זיבען
זיבעציג
זיבעציק
זיבעצן
זיג
זיגל
זיגמונד
זיגן
זיגע
זיגער
זיד
זידיטשוב
זידיטשובער
זידיטשויב
זידיטשויווער
זידלונג
זידלונגען
זיהן
זיו
זיווג
זיטא
זיטן
זיי
זייגן
זייגער
זייגערווייז
זייגערס
זיידא
זיידל
זיידן
זיידנס
זיידע
זיידען
זיידענע
זיידעס
זייט
זייטיגע
זייטיקן
זייטיקע
זייטיקער
זייטל
זייטלעך
זייטן
זייטען
זייל
זיילן
זיין
זייניקע
זיינס
זיינע
זיינעם
זיינען
זיינער
זייע
זייען
זייענדיג
זייענדיק
זייער
זייערן
זייערס
זייערסן
זייערע
זייערער
זייף
זיך
זיכ
זיכט
זיכן
זיכער
זיכערהייט
זיכערהייטס
זיכערן
זיכערע
זיכערער
זיכערקי
זיכערקייט
זיכערקײט
זיכרון
זיל
זילאנד
זילב
זילבורג
זילבער
זילבערמאן
זילבערנע
זילבערשטיין
זימבאבווע
זימבערגן
זין
זינג
זינגט
זינגן
זינגען
זינגער
זינגערין
זינגערס
זינד
זינדא
זינדיגן
זינדיגע
זינדיק
זינדיקן
זינדיקע
זינדיקער
זינדספא
זינט
זינען
זינקען
זיס
זיסיע
זיסיען
זיסל
זיסן
זיסע
זיסער
זיסקייט
זיע
זיף
זיפ
זיפץ
זיץ
זיצונג
זיצונגען
זיצט
זיציע
זיציעס
זיצן
זיצנדיק
זיצנדיקע
זיצע
זיצען
זיק
זיקן
זיקנ
זיקע
זיקער
זיר
זירא
זירט
זישע
זית
זכ
זכאי
זכה
זכור
זכות
זכותים
זכי
זכיה
זכר
זכרון
זכרונות
זכרונם
זכרי
זכריה
זכרים
זל
זלא
זלאטיפאלי
זלאטשאוו
זלאטשאווער
זלמן
זמירות
זמן
זמני
זמנים
זמר
זן
זנ
זנדיק
זנות
זע
זעאונגען
זעבאר
זעה
זעהט
זעהן
זעהנדיג
זעהסט
זעהען
זעהר
זעונג
זעט
זעטן
זעיר
זעך
זעכציג
זעכציק
זעכצן
זעכצנטער
זעל
זעלב
זעלביגן
זעלביגע
זעלביקן
זעלביקער
זעלבן
זעלבסט
זעלבסטמארד
זעלבסטמערדער
זעלבסטשטענדיג
זעלבסטשטענדיגקייט
זעלבסטשטענדיק
זעלבסטשטענדיקייט
זעלבסשטענדיקייט
זעלבע
זעלבער
זעלבשטענדיג
זעלבשטענדיגע
זעלבשטענדיגקייט
זעלבשטענדיק
זעלבשטענדיקייט
זעלבשטענדיקע
זעלדא
זעלדע
זעלטן
זעלטענע
זעלטענער
זעליג
זעליק
זעלכע
זעלנער
זעמבא
זען
זענ
זענט
זענטא
זענן
זענע
זענען
זענענ
זעס
זעסט
זעסטו
זעען
זעענדיג
זעענדיק
זעער
זעץ
זעצט
זעצן
זעק
זעקל
זעקלעך
זעקס
זעקסטאגיקע
זעקסטאגיקער
זעקסטל
זעקסטן
זעקסטע
זעקסטער
זעקעלע
זער
זערא
זערנע
זערסי
זצ
זצוק
זק
זקן
זקני
זקנים
זר
זרה
זרוע
זרות
זרח
זרחיה
זרע
זרעא
זרעים
זרעך
זש
זשא
זשאב
זשאבאטינסקי
זשאבנא
זשאו
זשאואיש
זשאזעף
זשאן
זשאנסאן
זשאנער
זשאנערא
זשאסעף
זשאק
זשארזש
זשאריק
זשג
זשואיש
זשוליאני
זשומייעל
זשוס
זשוקעס
זשורי
זשוריסטן
זשורנא
זשורנאל
זשורנאליזם
זשורנאליסט
זשורנאליסטן
זשורנאלן
זשי
זשיד
זשיטאמיר
זשיטאמירער
זשיימס
זשימי
זשינקאוו
זשיר
זשירן
זשמיגראד
זשע
זשעי
זשעקסאן
זשערוסאלעם
זשערסי
זױ
זײ
זײט
זײן
זײנע
זײנען
זײער
זײערע
ח
חא
חאדאראוו
חאלאב
חאמאס
חב
חבד
חבורה
חבורות
חביב
חבירו
חבלי
חבקוק
חבר
חברה
חברון
חברונער
חברותא
חברי
חברים
חברת
חג
חגא
חגאות
חגי
חגיגה
חד
חדושי
חדר
חדרה
חדרים
חדש
חדשה
חדשות
חדשים
חה
חו
חוב
חובבי
חובות
חובת
חודש
חוה
חווה
חוות
חוזה
חוזק
חוזר
חוט
חול
חולה
חולון
חולים
חולין
חולם
חומה
חומר
חומש
חומשי
חומשים
חומת
חוסט
חופ
חופה
חוץ
חוצפה
חוק
חוקי
חוקים
חוקר
חוקרים
חוקת
חור
חורב
חורבה
חורבות
חורבן
חורבנות
חורים
חוש
חושד
חושים
חושך
חושן
חושש
חות
חותם
חז
חזון
חזיר
חזירים
חזירל
חזן
חזנות
חזנים
חזנישע
חזק
חזקה
חזקיה
חזקיהו
חזר
חזרה
חזרט
חזרת
חטא
חטאים
חטאינו
חטאת
חטאתי
חי
חיא
חיבור
חיבורים
חיד
חידוש
חידושי
חידושים
חידושן
חידקל
חיה
חיוב
חיוורא
חיונה
חיות
חיזבאלא
חיזוק
חיי
חייא
חייב
חייו
חיים
חייקיל
חייקל
חיל
חילול
חילוק
חילוקי
חילוקים
חינוך
חיפ
חיפה
חיצוני
חיצונים
חית
חכינאי
חכם
חכמה
חכמות
חכמי
חכמים
חכמת
חל
חלב
חלה
חלו
חלום
חלומ
חלומות
חלות
חלילה
חליצה
חלל
חלף
חלפתא
חלק
חלקה
חלקי
חלקים
חלקת
חלש
חלשות
חם
חמ
חמא
חמד
חמדה
חמדת
חמה
חמור
חמלה
חמץ
חמש
חמשה
חן
חנ
חנה
חנוך
חנוכה
חנוכת
חנינא
חנם
חנן
חנניא
חנניה
חס
חסד
חסדא
חסדי
חסדים
חסיד
חסידות
חסידי
חסידים
חסידיש
חסידישן
חסידישע
חסידישער
חסר
חסרון
חסרונות
חפץ
חפצים
חצות
חצי
חצירות
חצר
חק
חקירה
חקירות
חקל
חקרן
חקת
חרב
חרבנות
חרד
חרדי
חרדים
חרדיש
חרדישן
חרדישע
חרדישען
חרדישער
חרוב
חרון
חרוסת
חרותינו
חרטה
חריף
חריפות
חרם
חרמון
חרמות
חרן
חרפ
חשב
חשבון
חשבונות
חשד
חשוב
חשובן
חשובסטע
חשובע
חשובער
חשוון
חשון
חשיבות
חשכות
חשכיות
חשמונאים
חשק
חשש
חת
חתונה
חתונות
חתימה
חתם
חתמ
חתן
חתנים
ט
טא
טאבאק
טאבעלע
טאג
טאגא
טאגבוך
טאגס
טאדזשיקיסטאן
טאהש
טאהשער
טאוב
טאוול
טאון
טאונס
טאט
טאטאלע
טאטן
טאטנ
טאטנהאם
טאטנס
טאטע
טאטען
טאטעס
טאכטער
טאל
טאלאנט
טאלאנטן
טאלאנטפולער
טאליבאן
טאלן
טאלנא
טאלנער
טאלער
טאלק
טאם
טאמאס
טאמאשאוו
טאמי
טאמיל
טאמעס
טאמער
טאמפסאן
טאן
טאנגא
טאנזאניע
טאני
טאנען
טאנץ
טאנצט
טאנצן
טאנק
טאנקן
טאנקען
טאסמאן
טאער
טאפ
טאפלונג
טאפלט
טאפלען
טאקטיק
טאקטיקן
טאקיא
טאקע
טאר
טאראנטא
טארן
טארנא
טארנאפאל
טארנאפאלער
טארניגראד
טארנע
טאש
טאשן
טב
טבא
טבאי
טבול
טביה
טבילה
טבע
טבריה
טבת
טה
טהא
טהו
טהור
טהורה
טהורים
טהרה
טהרות
טהרת
טו
טוא
טואין
טוב
טובדיקע
טובה
טובות
טוביה
טובים
טובל
טובערקולא
טובערקולאז
טוה
טוהט
טוהן
טוהען
טווא
טוויטער
טווערסקי
טוט
טוטינג
טוי
טויב
טויבא
טויבן
טויבע
טויבער
טויג
טויגן
טויזנט
טויזנטער
טויזע
טויזענט
טויזענטע
טויזענטער
טויט
טויטן
טויטע
טויטער
טויע
טויער
טויערן
טויפן
טויש
טוישט
טוישן
טוך
טול
טולוז
טולן
טומאה
טומאת
טומל
טון
טונג
טונגען
טוניס
טוניסיע
טונעיא
טונעיאדעווקע
טונעל
טונעלן
טונקל
טונקעל
טונקעלן
טונקעלע
טונקעלער
טוס
טוסט
טוסטו
טוע
טועה
טועהן
טועם
טוען
טוער
טוערס
טור
טורא
טורבין
טורי
טוריזם
טוריסט
טוריסטן
טוריסק
טורמע
טורמעס
טורן
טורעם
טורעמס
טורעמעס
טורקמעניסטאן
טז
טזעליק
טזעליקן
טזעליקײט
טזעצער
טי
טיא
טיבעט
טיגער
טיהר
טיוב
טיובכחהצחבהצבהתצך
טיודאר
טיוו
טיוון
טיווע
טיווער
טיט
טיטאניק
טיטול
טיטוס
טיטיעוו
טיטל
טיטלען
טיי
טייג
טייוואן
טייוול
טייט
טייטל
טייטלבוים
טייטלען
טייטן
טייטש
טייטשט
טייטשן
טייך
טייכל
טייכן
טייל
טיילאנד
טיילאר
טיילגענומען
טיילווייז
טיילווייזע
טיילונג
טיילט
טייליקט
טייליקן
טיילמא
טיילמאל
טיילן
טיילער
טיים
טיימס
טיין
טייע
טייער
טייערן
טייערסטע
טייערע
טייערער
טייפ
טייפן
טיכא
טיכל
טילא
טים
טימאר
טימיזם
טין
טינט
טיסא
טיסטיק
טיע
טיעם
טיעף
טיעפע
טיף
טיפ
טיפן
טיפסטן
טיפסטע
טיפסטער
טיפע
טיפעניש
טיפענישן
טיפער
טיפקייט
טיצן
טיק
טיקט
טיקן
טיקע
טיקעט
טיקעטס
טיקער
טיר
טירא
טירה
טירזײ
טירט
טירלעך
טירלעכע
טירן
טירנויער
טירת
טיש
טישו
טישטעך
טישל
טישן
טישע
טישער
טישקייט
טל
טלא
טליכע
טלית
טלן
טלעך
טלעכע
טלעכער
טלען
טלײ
טמא
טן
טנ
טנס
טנפא
טס
טספא
טע
טעא
טעאטער
טעאטערס
טעאלאגיע
טעאריע
טעאריעס
טעארעטישע
טעארעם
טעג
טעגא
טעגליך
טעגליכן
טעגליכע
טעגלעך
טעגלעכן
טעגלעכע
טעגס
טעד
טעדי
טעהראן
טעוויע
טעוועט
טעווען
טעות
טעותים
טעט
טעטיג
טעטיק
טעטיקי
טעטיקייט
טעטיקייטן
טעטן
טעטעריווקע
טעטש
טעיפ
טעיפס
טעכטער
טעכנא
טעכנאלאגיע
טעכנאלאגיעס
טעכנאלאגישע
טעכניאן
טעכניק
טעכניקן
טעכניש
טעכנישע
טעכנעלאגיע
טעכץ
טעל
טעלא
טעלז
טעלע
טעלעגרא
טעלעגראם
טעלעגראף
טעלעוויזיע
טעלעוויזשען
טעלעסקאפ
טעלעפ
טעלעפאון
טעלעפאן
טעלעפאנען
טעלעקאמוניקאציע
טעלער
טעם
טעמ
טעמא
טעמבער
טעמז
טעמזלינק
טעמט
טעמי
טעמים
טעמע
טעמען
טעמעס
טעמפ
טעמפל
טעמפעראטור
טעמפעראטורן
טעמפרעאטור
טען
טענאר
טענדלער
טענה
טענהט
טענהן
טענות
טעניו
טעניס
טענע
טענענבוים
טענעסי
טענער
טענעריפע
טענץ
טענצער
טעס
טעסט
טעסטא
טעסטן
טעסלא
טעפ
טעק
טעקס
טעקסאס
טעקסט
טעקסטיל
טעקסטן
טעקסי
טעקסעס
טעקע
טעקעס
טער
טערא
טעראר
טעראריזם
טעראריסט
טעראריסטישע
טעראריסטן
טערהייזער
טערוכע
טערט
טערי
טעריא
טעריטא
טעריטאריע
טעריטאריעס
טערין
טעריע
טערמאדינאמיק
טערמין
טערמינאל
טערמינאלן
טערמינען
טערן
טערניש
טערס
טערעזא
טערק
טערקיי
טערקיש
טערקישע
טערקישער
טערקן
טפ
טפא
טפו
טפחים
טקווא
טקע
טקען
טקעס
טר
טרא
טראגט
טראגיש
טראגישע
טראגישער
טראגן
טראגעדיע
טראגען
טראדיציאנאל
טראדיציאנאלע
טראדיציאנעל
טראדיציאנעלע
טראדיציאנעלער
טראדיציע
טראדיציעס
טראוולקארט
טראון
טראכט
טראכטן
טראם
טראמוויי
טראמלינק
טראמפ
טראן
טראני
טראנס
טראנסמיטירט
טראנסמיסיע
טראנספארט
טראנספארטאציע
טראנספערירן
טראסטי
טראף
טראפ
טראפיק
טראפישע
טראפן
טראץ
טראצדעם
טראק
טראקט
טראקס
טרוג
טרויב
טרויבן
טרוים
טרויער
טרויעריג
טרויעריגע
טרויעריק
טרויעריקער
טרומאן
טרומייט
טרונק
טרונקען
טרופ
טרופן
טרופע
טרוקן
טרוקעניש
טרוקענע
טרוקענעם
טרוקענער
טרי
טריא
טריבונע
טריביון
טריגאנאמעטרישע
טריט
טריי
טרייב
טרייבט
טרייבן
טרייסט
טרייסטן
טרייע
טריליאן
טרינידאד
טרינק
טרינקוואסער
טרינקט
טרינקן
טרינקע
טרינקען
טרינקער
טריסק
טריסקער
טריפ
טריפאלי
טריפה
טריק
טריקעניש
טרע
טרעבלינקע
טרעגער
טרעגערס
טרעט
טרעטן
טרעיד
טרענירונג
טרענירט
טרענירן
טרעף
טרעפ
טרעפט
טרעפן
טרעפען
טרעקינג
טרעקס
טרער
טרערן
טרפון
טרױער
טרײ
טרײסטן
טש
טשא
טשאד
טשאטאם
טשאלנט
טשאפלין
טשארטער
טשארטקאוו
טשארטקאווער
טשארינג
טשארלי
טשארלס
טשחויוו
טשט
טשטא
טשי
טשיא
טשיאנג
טשיילע
טשיינע
טשילטערן
טשילע
טשינג
טשיף
טשיפ
טשיק
טשיקא
טשירי
טשישן
טשישע
טשישער
טשל
טשלא
טשן
טשע
טשעבין
טשעבינער
טשעביריאק
טשעט
טשעטשניע
טשעכאסלאוואקיי
טשעכיי
טשעכיש
טשעכישע
טשעכישער
טשעלא
טשעלסי
טשעמבערליין
טשען
טשעסטער
טשעפ
טשעפטער
טשעפען
טשעפענען
טשעק
טשעקס
טשער
טשערטשיל
טשערנא
טשערנאביל
טשערנאבילער
טשערנאבל
טשערנאבלער
טשערנאוויץ
טשערנאוויצער
טשערנין
טשערעדע
טשערעפאכעס
טשערקאס
טשעשאם
טשעשאנט
טשקא
טשריפ
טװא
טװעגן
טױ
טױב
טױזנט
טױט
טױטן
טױטע
טױער
טױערן
טײ
טײטן
טײל
י
יא
יאג
יאגט
יאגן
יאדער
יאהאן
יאהאנעס
יאהאנעסבורג
יאהו
יאהר
יאהרן
יאהרען
יאו
יאוואראוו
יאווארניקער
יאוש
יאות
יאזעף
יאים
יאיר
יאך
יאכל
יאמ
יאמר
יאן
יאנג
יאנואר
יאנען
יאס
יאסי
יאסיר
יאסלא
יאסעלע
יאפאן
יאפאניש
יאפאנישע
יאפאנישער
יאפאנעזער
יאקאב
יאקאבאוויטש
יאר
יארד
יארדאניע
יארהונדערט
יארהונדערטער
יארן
יארצייט
יארק
יארקער
יארקשיר
יאשיהו
יאשליסק
יאשע
יב
יבא
יבו
יבוא
יביט
יבמות
יבנה
יברכך
יבשה
יג
יגאל
יגו
יגיעה
יגל
יגלט
יגן
יגע
יגער
יד
ידו
ידוע
ידות
ידי
ידיד
ידידי
ידידיה
ידידים
ידיו
ידיים
ידים
ידין
ידיעה
ידיעות
ידן
ידע
ידען
ידעתי
יה
יהא
יהדות
יהו
יהואש
יהודא
יהודה
יהודי
יהודים
יהודית
יהודיתן
יהוה
יהויקים
יהונתן
יהוסף
יהושע
יהי
יהיה
יהיו
יו
יואב
יואל
יואלי
יובילי
יובל
יוגאסלאוויע
יוגנט
יוגנטליכע
יוגנטרוף
יוגענד
יוד
יודא
יודיש
יודישן
יודישע
יודישער
יודישקייט
יודל
יודן
יודנטום
יודנראט
יודע
יודעלע
יודען
יוה
יוו
יוונים
יוחאי
יוחנן
יוחסין
יוטא
יוטוב
יוטיוב
יוטער
יויך
יוכבד
יולי
יוליא
יוליאנישן
יוליאנישער
יוליוס
יום
יומא
יומם
יון
יונג
יונגל
יונגלעך
יונגן
יונגסטע
יונגסטער
יונגע
יונגעל
יונגעלייט
יונגען
יונגער
יונגערהייט
יונגערמא
יונגערמאן
יונגערן
יונגערע
יונגערער
יונגפ
יונגרייז
יונה
יונהן
יוני
יוניאן
יוניאנס
יונייטעד
יונים
יוניקאד
יונתן
יוס
יוסטאן
יוסטיץ
יוסי
יוסין
יוסיפון
יוסל
יוסף
יועזר
יועץ
יופיטער
יוצא
יוצר
יוקיל
יורא
יורד
יורה
יורי
יוריסט
יורם
יורק
יורש
יורשים
יושב
יושע
יושר
יות
יותר
יז
יזו
יזט
יזטו
יזכור
יזרעאל
יח
יחד
יחו
יחוד
יחודא
יחודי
יחודים
יחוס
יחזקאל
יחי
יחיאל
יחיד
יחידה
יחידים
יחל
יט
יטא
יטאל
יטב
יטל
יטלעך
יטן
יטע
יטער
יטערט
יטערן
יטערפ
יי
ייב
ייבי
ייג
ייגל
ייגע
ייד
יידיש
יידישגען
יידישיסט
יידישיסטן
יידישן
יידישע
יידישער
יידישקייט
יידל
יידן
יידנטום
יידע
יידענע
ייו
ייוו
ייווא
ייז
ייזט
ייזן
ייחוס
ייט
ייטב
ייטן
ייטע
ייך
ייכ
ייל
יים
יימ
יין
יינ
יינא
יינגל
יינגלעך
יינגער
יינגערע
יינגערער
יינו
ייניקט
ייס
ייע
ייען
ייער
ייר
יישוב
יישובים
יישר
יך
יכ
יכו
יכול
יכל
יל
ילא
ילד
ילדים
ילדער
ילה
ילו
ילט
ילין
יליפ
ילך
ילם
ילמען
ילן
ילנדיק
ילער
ילקוט
ים
ימ
ימו
ימות
ימי
ימיו
ימים
ימין
ימען
ין
ינ
ינא
ינאי
ינג
ינגער
ינדע
ינו
ינוקא
ינט
יניא
ינס
ינע
ינען
ינער
ינף
ינפ
ינצטער
ינצטערניש
יס
יסא
יסה
יסוד
יסודות
יסודי
יסורים
יסט
יסטא
יסטו
יסטישע
יסל
יסע
יע
יעב
יעגער
יעדן
יעדע
יעדעם
יעדען
יעדעס
יעדער
יעדערן
יעדערס
יעדערער
יעו
יעווגעני
יעטוועדער
יעטװעדער
יעל
יעלה
יעלון
יעלצין
יעמא
יען
יענטא
יענטע
יענס
יענע
יענעם
יענעמ
יענעמס
יענער
יענקי
יענקל
יענקלי
יעס
יעסע
יעצט
יעצטיגע
יעצטיגער
יעקב
יעקבן
יעקבס
יעקבסאן
יעקט
יער
יעראסלאוו
יעריג
יעריגן
יעריגע
יעריגער
יערליך
יערליכן
יערליכע
יערן
יעשה
יף
יפ
יפה
יפו
יפת
יפתח
יץ
יצ
יצא
יצה
יצו
יצחק
יצחקן
יציאת
יציעלע
יציר
יצירה
יצירט
יצירן
יצל
יצן
יצר
יק
יקא
יקו
יקום
יקותיאל
יקיר
יקן
יקע
יקעס
יקער
יקר
יר
ירא
יראה
יראו
יראים
יראת
ירבו
ירבעם
ירדן
ירו
ירוחם
ירונג
ירוש
ירושה
ירושלים
ירושלימ
ירושלימער
ירושלמי
ירחם
ירחמיאל
ירט
ירטן
ירטע
יריא
יריד
ירידה
ירידות
יריחו
ירמי
ירמיה
ירמיהו
ירמע
ירן
ירער
ירערס
ירצה
ירקות
ירש
ירשט
ירשטן
ירשענען
יש
ישא
ישו
ישוב
ישובים
ישובניק
ישועה
ישועות
ישורון
ישות
ישט
ישי
ישיב
ישיבה
ישיבות
ישיבת
ישיר
ישכר
ישמח
ישמעאל
ישן
ישע
ישעי
ישעיה
ישעיהו
ישער
ישץ
ישר
ישרא
ישראל
ישראלדיגע
ישראלדיקן
ישראלדיקע
ישראלדיקער
ישראלי
ישראלים
ישראלישע
ישראלישער
ישראלס
ישרה
ישרים
יששכר
ישתבח
ית
יתברך
יתגדל
יתד
יתו
יתום
יתומים
יתן
יתר
יתרו
יתרון
ך
כ
כא
כאאס
כאטש
כאטשיג
כאטשע
כאילו
כאליף
כאליפאט
כאמאס
כאן
כאפ
כאפט
כאפן
כאפעז
כאר
כאראקטער
כאראקטערן
כארירי
כארקאוו
כאשר
כב
כבד
כבוד
כבודו
כביכול
כביש
כבר
כג
כגויים
כגעגא
כגעיא
כד
כדאי
כדורי
כדי
כדע
כדעם
כה
כהונה
כהיום
כהלכה
כהן
כהנא
כהנים
כהנעמאן
כו
כוהן
כווא
כוואליע
כוואליעס
כוונה
כוונות
כוח
כוחות
כוכב
כוכבא
כוכבי
כולה
כולו
כולל
כוללים
כולם
כולנו
כומעיני
כונג
כוס
כוסות
כוסיין
כוסעין
כופר
כופרים
כור
כורש
כות
כותל
כז
כזית
כח
כחות
כט
כטא
כטונג
כטונגען
כטיגע
כטיגקייט
כטיק
כטיקן
כטיקע
כטיקער
כטל
כטן
כטס
כטע
כטער
כטערל
כטערס
כי
כיא
כיבוד
כידוע
כיוון
כיזבאלא
כיזבאללא
כיכר
כים
כינוס
כינע
כינעזיש
כינעזישע
כינעזישער
כינעזער
כיפ
כיפור
כיצד
כיקע
כירורג
כירורגיע
כישוף
כיתה
כיתות
כיתים
כך
ככל
ככר
כל
כלאים
כלאר
כלב
כלה
כלום
כלומר
כלומרשט
כלי
כלים
כלל
כללי
כללים
כלערליי
כלפי
כמא
כמה
כמו
כמוך
כמות
כמים
כמעט
כמעלניצקי
כמעלניק
כן
כנ
כנגד
כנדיק
כנסיה
כנסת
כנען
כנענים
כנפי
כנרת
כס
כסא
כסדר
כסדרן
כסט
כסטו
כסלו
כסליו
כסף
כע
כעזבאלא
כעט
כעלם
כעמיע
כעמיקאל
כעמיקאלן
כעמיקאלע
כעמיקער
כעמישן
כעמישע
כעמישער
כען
כענטשין
כענע
כענער
כעס
כער
כערן
כף
כפ
כפא
כפור
כפי
כפירה
כפר
כפרה
כפרות
כץ
כצי
כציק
כצען
כקייט
כר
כרא
כראם
כריין
כריסטיאן
כריתות
כרך
כרכים
כרם
כרמיאל
כרמל
כרמלית
כרת
כש
כשדים
כשורה
כשם
כשר
כשרונות
כשרות
כשרע
כת
כתב
כתבה
כתבי
כתבים
כתבתי
כתוב
כתובות
כתובים
כתות
כתיב
כתיבת
כתר
כײ
ל
לא
לאאס
לאבאראטאריע
לאבין
לאבראדאר
לאברהם
לאגיק
לאגע
לאגער
לאגערן
לאדונג
לאדזש
לאדזשער
לאדי
לאדינא
לאדם
לאדן
לאדען
לאה
לאהלע
לאהן
לאו
לאווי
לאומי
לאוער
לאור
לאז
לאזונג
לאזט
לאזן
לאזען
לאזער
לאחים
לאחר
לאט
לאטיין
לאטייניש
לאטיינישן
לאטיינישע
לאטיינישער
לאטעריע
לאטעריעס
לאי
לאיעוו
לאך
לאכול
לאכט
לאכן
לאל
לאלתר
לאם
לאמיר
לאמפ
לאמר
לאן
לאנג
לאנגזאם
לאנגיעריגער
לאנגן
לאנגע
לאנגען
לאנגער
לאנד
לאנדא
לאנדאן
לאנדאנער
לאנדווירטשאפט
לאנדונג
לאנדן
לאנדשאפט
לאנטש
לאנצהוט
לאנצהוטער
לאנקא
לאס
לאסט
לאפאש
לאפיאן
לאץ
לאק
לאקאל
לאקאלן
לאקאלע
לאקאלער
לאקאמאטיוו
לאקאמאטיוון
לאקאציע
לאקהיד
לארד
לארדן
לארענס
לארענץ
לארץ
לב
לבא
לבב
לבבך
לבדו
לבו
לבוא
לבוש
לבושי
לבושים
לבט
לבטלה
לבטן
לבי
לבישת
לבית
לבן
לבנה
לבנון
לבנות
לבני
לבע
לבער
לבערט
לברכה
לג
לגא
לגאולה
לגבי
לגוי
לגט
לגלות
לגמרי
לגן
לגנדיק
לגע
לגעמיין
לגעמיינע
לגעמיינעם
לגעמיינער
לגערט
לגערן
לד
לדא
לדבר
לדוגמא
לדוד
לדון
לדור
לדורות
לדז
לדי
לדין
לדיק
לדיקע
לדיקער
לדן
לדע
לדען
לדענע
לדענער
לדעס
לדעת
לדרך
לדרע
לה
להבדיל
להדליק
להוראה
להיות
להיפ
להכעיס
להלכה
להם
להניח
לו
לוא
לואי
לואיזיאנא
לואיס
לואישעם
לובאוויטשער
לובלין
לובלינער
לוג
לוד
לודוויג
לודמיר
לווא
לווי
לוויה
לוויות
לוזי
לוזין
לוזיס
לוח
לוחות
לוחם
לוט
לוטאן
לוטע
לוטער
לוי
לויב
לויבט
לויבן
לויד
לויה
לויז
לויט
לויטן
לויטעט
לויטער
לויטערן
לויטערע
לויטערער
לויים
לויכטן
לוין
לוינט
לוינען
לויס
לויער
לויערס
לויף
לויפ
לויפט
לויפן
לויפען
לויפער
לולב
לום
לומדות
לומדים
לומען
לומר
לומרשט
לונג
לונגן
לונגען
לונד
לוס
לוסט
לוסטיג
לוסטיק
לופ
לופט
לופטליניע
לופטליניעס
לופטמאשין
לופטן
לופטפלאט
לופטפעלד
לופטפעלדער
לופטקילער
לופטקילערס
לוצים
לוציע
לוצלונג
לוצלים
לוצלימ
לוצלינג
לוצערן
לוצק
לוצקער
לוקסוס
לוקסעמבורג
לורא
לוריא
לז
לזא
לזה
לזכר
לח
לחבירו
לחברו
לחי
לחיים
לחכמי
לחלוטין
לחם
לחקר
לחשבון
לחתנים
לט
לטא
לטובה
לטובת
לטונג
לטישן
לטמא
לטן
לטנדיק
לטס
לטסט
לטע
לטענע
לטענעם
לטענער
לטער
לטערן
לטערס
לי
ליא
ליאדי
ליאון
ליאלקע
ליאן
ליב
ליבא
ליבהא
ליבהאבער
ליבט
ליבי
ליביע
ליבן
ליבע
ליבער
ליבעראל
ליבעראלן
ליבעראלע
ליבעראלער
ליבערטי
ליבעריע
ליבערמאן
ליבערשט
ליבשא
ליבשאפט
ליג
ליגא
ליגט
ליגל
ליגלען
ליגן
ליגנדיק
ליגנט
ליגנער
ליגע
ליגען
ליגענט
ליד
לידא
לידז
לידי
לידער
ליה
ליהודים
ליובאוויטש
ליובאוויטשער
ליווארנא
ליווינגסטאן
ליווערפול
ליום
ליז
ליזא
ליזירט
ליזירן
ליזם
ליזשענסק
ליט
ליטא
ליטאני
ליטווא
ליטוואק
ליטוואקעס
ליטוויש
ליטווישן
ליטווישע
ליטווישער
ליטיק
ליטיקער
ליטיש
ליטישע
ליטישער
ליטע
ליטעט
ליטער
ליטערא
ליטעראטור
ליטערארישע
ליטפ
ליטװא
ליי
לייב
לייבאוויץ
לייבאר
לייבוש
לייבי
לייביש
לייבל
לייבן
לייבניץ
לייבעלע
לייג
לייגט
לייגן
לייגען
לייד
ליידט
ליידיג
ליידיגן
ליידיגע
ליידיק
ליידיקונג
ליידיקט
ליידיקן
ליידיקע
ליידן
ליידע
ליידען
ליידער
לייוו
לייוונט
לייזונג
לייזן
לייזער
לייט
לייטן
לייטנער
לייטע
לייטען
לייטער
לייכט
לייכטן
לייכטע
לייכטער
ליילעך
ליים
ליין
ליינט
ליינען
ליינער
לייסענס
לייע
לייען
לייענט
לייענען
לייענער
לייף
לייפ
לייפער
לייפציג
לייצע
לייצעס
לייק
לייקוואד
לייקוואוד
לייקנט
לייקענט
לייקענען
לייקענער
לייש
ליך
ליכוד
ליכט
ליכטיג
ליכטיגע
ליכטיגקייט
ליכטיק
ליכטיקייט
ליכטיקע
ליכטל
ליכטנשטיין
ליל
לילא
לילה
לילע
לים
לימא
לימאנאוו
לימבאו
לימוד
לימודי
לימודים
לימעניק
לימענע
לין
לינא
לינג
לינגוויסט
לינגוויסטיק
לינגרא
לינדז
לינדנווא
לינדע
לינדערן
לינוקס
לינז
ליניע
ליניעס
לינס
לינסק
לינסקער
לינע
לינען
לינער
לינץ
לינק
לינקאלן
לינקן
לינקס
לינקע
לינקען
לינקער
ליס
ליסא
ליסבאן
ליסט
ליסטא
ליסטישע
ליסטישער
ליסטן
ליסטע
ליסטעס
ליע
ליעב
ליעד
ליעדער
ליעזש
ליען
ליעניש
ליעס
ליעקב
ליער
ליפ
ליפא
ליפאלד
ליפט
ליפטן
ליפמאן
ליפן
ליפערן
ליפשיץ
ליציא
ליציי
ליציע
ליצלן
ליצמאן
ליצנות
ליק
ליקו
ליקווידא
ליקווידירט
ליקווידירן
ליקוט
ליקוטי
ליקוטים
ליקוי
ליקן
ליקע
ליקעס
ליקער
ליר
לירט
לירטע
לירן
ליש
לישב
לישע
לישער
לישראל
ליתן
לך
לכ
לכא
לכאורה
לכבוד
לכבודו
לכה
לכו
לכל
לכם
לכן
לכע
לכת
לכתוב
לכתחילה
לל
ללא
ללים
ללמוד
לם
למא
למאור
למד
למדן
למדנים
למה
למזון
למטה
למי
למיד
למידי
למידים
למך
למלחמה
למלך
למנה
למנצח
למספרם
למע
למעלא
למעלה
למען
למעשה
למקום
למשה
למשל
לן
לנ
לנגדי
לנדא
לנו
לנט
לניק
לניקי
לנער
לנפא
לנפשך
לס
לסוף
לסט
לסטו
לסמוך
לספר
לע
לעא
לעאן
לעאנארדא
לעאנע
לעאפאלד
לעב
לעבא
לעבאוויטש
לעבאנעזער
לעבוד
לעבט
לעבין
לעבן
לעבנ
לעבנס
לעבנסשטייגער
לעבעדיג
לעבעדיגן
לעבעדיגע
לעבעדיגער
לעבעדיק
לעבעדיקן
לעבעדיקע
לעבעדיקער
לעבען
לעבענס
לעבער
לעג
לעגא
לעגאל
לעגאלע
לעגאלער
לעגט
לעגיסלאטור
לעגיע
לעגן
לעגענדארער
לעגענדע
לעגענדעס
לעד
לעדער
לעדערנע
לעהבן
לעוו
לעווא
לעווי
לעווין
לעוועט
לעולם
לעומר
לעז
לעזונג
לעזן
לעזער
לעט
לעטא
לעטיש
לעטלאנד
לעיבאר
לעיזער
לעיני
לעיק
לעיקוואד
לעיקוואוד
לעיקס
לעך
לעכאוויטשער
לעכט
לעכטיגקייט
לעכער
לעל
לעלאוו
לעלאווער
לעם
לעמ
לעמא
לעמבערג
לעמבערגער
לעמל
לעמען
לעמענס
לעמער
לעמפ
לעמפערט
לען
לענא
לענג
לענגאויס
לענגסטע
לענגסטער
לענגער
לענגערן
לענגערע
לענגערער
לענדא
לענדן
לענדער
לענט
לענטשער
לענין
לענינגרא
לעניני
לענע
לענער
לעס
לעסאטא
לעסטינע
לעסטינער
לעסטער
לעפ
לעפל
לעפעל
לעפקאוויטש
לעצט
לעצטיגע
לעצטן
לעצטנס
לעצטע
לעצטענס
לעצטער
לעצטערע
לעצמו
לעצער
לעק
לעקט
לעקטאר
לעקטן
לעקטער
לעקל
לעקן
לעקס
לעקסא
לעקסיקא
לעקסיקאן
לעקעך
לעקציע
לעקציעס
לער
לערי
לערך
לערליי
לערלײ
לערן
לערנונגען
לערנט
לערנען
לערנער
לערע
לערענט
לערענן
לערעס
לערער
לערערין
לערערס
לערײ
לעשות
לעשט
לעשן
לעשער
לעת
לעתיד
לף
לפ
לפא
לפט
לפי
לפן
לפני
לפניו
לפניך
לפנים
לפעלים
לץ
לצדינג
לצדיק
לצורך
לציון
לצייט
לצים
לצן
לצע
לצעירים
לק
לקא
לקבורה
לקבל
לקוטי
לקולא
לקח
לקחת
לקט
לקין
לקיש
לקלא
לקן
לקנס
לקס
לקע
לקען
לקעס
לקער
לקראת
לראות
לראשך
לרעך
לרצון
לרשעים
לש
לשאול
לשבת
לשה
לשון
לשונות
לשלום
לשם
לשמה
לשמוע
לשמים
לשע
לשער
לשקײט
לתודה
לתורה
לתלמיד
לתפילה
לתרופה
לתשובה
לתת
לױב
לױבט
לױבן
לױט
לױטער
לױן
לױפ
לײ
לײב
לײג
לײגט
לײגן
לײדיק
לײם
לײן
לײש
ם
מ
מא
מאא
מאביל
מאביליזירט
מאגאזין
מאגאזינען
מאגדעבורג
מאגלניצא
מאגלעוו
מאגן
מאגנאט
מאגנאטישע
מאגנאטן
מאגנעט
מאגנעטישע
מאגעלאן
מאד
מאדאגאסקאר
מאדזשיץ
מאדזשיצער
מאדים
מאדנע
מאדע
מאדעל
מאדעלן
מאדעלקע
מאדערן
מאדערניזירטע
מאדערנע
מאדערנעם
מאדערנער
מאדערענע
מאדריד
מאה
מאהל
מאוד
מאונט
מאונטענס
מאור
מאורות
מאורי
מאות
מאזאמביק
מאזעס
מאט
מאטאר
מאטארן
מאטי
מאטיוו
מאטיוון
מאטיל
מאטל
מאטעלע
מאטעמאטיק
מאטעמאטיקער
מאטעמאטישע
מאטעמאטישער
מאטעריאל
מאטעריאלן
מאטעריע
מאטערסדארף
מאטריאל
מאטריאלן
מאי
מאיא
מאיאריטעט
מאיר
מאירות
מאירל
מאירלען
מאירן
מאך
מאכ
מאכט
מאכטן
מאכטפול
מאכטפולע
מאכל
מאכלים
מאכמעס
מאכן
מאכנ
מאכנדיג
מאכניווקא
מאכניווקער
מאכען
מאכער
מאל
מאלאווי
מאלאטאוו
מאלאריע
מאלדאוויע
מאלדאווע
מאלטא
מאלי
מאלייזיע
מאלל
מאלן
מאלעקול
מאלעקולן
מאלער
מאלעריי
מאלערייען
מאלפעס
מאלצייט
מאלצייטן
מאמין
מאמינים
מאמע
מאמען
מאמענט
מאמענטום
מאמענטן
מאמעס
מאמר
מאמרי
מאמרים
מאן
מאנ
מאנא
מאנאט
מאנאטליכע
מאנאטן
מאנאפאל
מאנאקא
מאנאר
מאנארך
מאנארכיע
מאנגאליי
מאנגאלישע
מאנגל
מאנדאט
מאנדאטן
מאנדל
מאנדלבוים
מאנדלען
מאנהעטן
מאנהעטען
מאנומענט
מאנטאג
מאנטגאמערי
מאנטיג
מאנטיפיארי
מאנטיק
מאנטל
מאנטלען
מאנטענעגרא
מאנטעפיורי
מאנטריאל
מאנטרע
מאנטרעאל
מאנטשעסטער
מאני
מאנכע
מאנס
מאנסטער
מאנסי
מאנצביל
מאנרא
מאנרוי
מאנשאפט
מאס
מאסא
מאסאטשוסעטס
מאסיווע
מאסן
מאסנאמען
מאסע
מאסק
מאסקאוויטש
מאסקווע
מאסקווער
מאסקע
מאסקעווע
מאפיא
מאפע
מאפעס
מאצארט
מאקאווא
מאקאווע
מאקאווער
מאקאראוו
מאקס
מאקסוועל
מאקסימום
מאקעדאניע
מארא
מאראטאן
מאראל
מאראלישע
מאראנץ
מאראנצן
מאראקא
מארגארעט
מארגן
מארגנשטערן
מארגען
מארד
מארדן
מארווין
מארט
מארטין
מארטש
מארי
מאריא
מאריך
מארילעס
מארינען
מאריס
מארלעבאן
מארמארא
מארמאראש
מארס
מארסיי
מארץ
מארק
מארקאוויטש
מארקוס
מארקן
מארקס
מארקעט
מארקער
מארש
מארשאל
מארשירט
מאשין
מאשינען
מאשינערי
מאשקאוויטש
מאת
מב
מבא
מבאר
מבוא
מבואר
מבול
מבורג
מבטיח
מבטל
מבי
מביא
מבייש
מבין
מבינא
מבינים
מבינירטער
מביע
מבית
מבן
מבע
מבערג
מבקר
מברכה
מברסלב
מברר
מבשר
מג
מגדולי
מגדים
מגדל
מגולגל
מגיד
מגידי
מגיה
מגייר
מגילה
מגילות
מגילת
מגיפה
מגלה
מגן
מגע
מגפ
מגפה
מד
מדב
מדבק
מדבר
מדבריות
מדה
מדור
מדות
מדי
מדין
מדינה
מדינות
מדינת
מדליקין
מדע
מדקדק
מדרגה
מדרגות
מדריגה
מדריגות
מדריך
מדרך
מדרש
מדרשי
מדרשים
מדת
מה
מהדורה
מהדורת
מהדרין
מהומה
מהות
מהימנא
מהלך
מהללאל
מהם
מהנה
מהר
מהרה
מהרי
מהרצ
מהרש
מו
מוא
מואב
מובהק
מודה
מודים
מודיע
מודיעין
מוה
מוהל
מוהר
מווי
מווילנא
מוותר
מוז
מוזט
מוזיאון
מוזיי
מוזייען
מוזיק
מוזיקא
מוזיקאלישע
מוזיקאנט
מוזיקער
מוזיקפילם
מוזן
מוזעאום
מוזען
מוזשיק
מוח
מוחה
מוחות
מוחין
מוחל
מוחמד
מוט
מוטי
מוטער
מוטערס
מוטערשפראך
מוטװיליקע
מויד
מויז
מויל
מויער
מויערל
מויערן
מוכאמאד
מוכאמעד
מוכר
מולד
מולטי
מום
מומביי
מומחה
מומחים
מומע
מונג
מוניזם
מוניסטישע
מוניסטישער
מוניסטן
מוניציפאליטעט
מוניציפאליטעטן
מוניקא
מונק
מונקאטש
מונקאטשער
מוסאליני
מוסד
מוסדות
מוסולמענער
מוסטער
מוסטערן
מוסיף
מוסלמענער
מוסלעמענער
מוסף
מוסקל
מוסקלן
מוסקלען
מוסר
מועד
מועדים
מועצת
מופ
מופת
מופתים
מוצ
מוצא
מוצאי
מוציא
מוקדון
מוקדם
מוקדנ
מוקצה
מור
מורא
מוראדיג
מוראדיגע
מוראדיק
מורגייט
מורד
מורדים
מורה
מורי
מורשת
מושב
מושל
מושקא
מושקאט
מות
מותר
מז
מזאה
מזבח
מזבחות
מזה
מזוזה
מזוזות
מזומן
מזונות
מזידיטשוב
מזיק
מזכה
מזכיר
מזל
מזלות
מזמור
מזמורים
מזנה
מזרח
מזרחדיק
מזרחדיקן
מזרחדיקע
מזרחדיקער
מזרחי
מח
מחאה
מחבר
מחברים
מחדש
מחה
מחויב
מחוייב
מחוץ
מחות
מחותן
מחותנים
מחזור
מחזיק
מחזיקי
מחזיר
מחזק
מחיה
מחייב
מחילה
מחיצה
מחיצות
מחלה
מחלוקה
מחלוקת
מחלות
מחליט
מחלל
מחמיר
מחמת
מחנה
מחנות
מחנך
מחנכים
מחצית
מחרוזת
מחרים
מחשבה
מחשבות
מחשיב
מט
מטבע
מטבעות
מטה
מטהר
מטות
מטמא
מטן
מטע
מטעם
מטער
מטערן
מטרה
מטריח
מי
מיא
מיאוס
מיאוסע
מיאמי
מיאנמאר
מיגליך
מיד
מידה
מידות
מידיא
מידיע
מידלאנד
מידלאנדס
מידע
מידת
מיה
מיוחד
מיוחס
מיום
מיז
מיזורי
מיזרח
מיט
מיטא
מיטאג
מיטאלאגיע
מיטאמאל
מיטגיין
מיטגליד
מיטגלידער
מיטגלידערשאפט
מיטגעברא
מיטגעברענגט
מיטגעגא
מיטגעהאלטן
מיטגעטיילט
מיטגעמאכט
מיטגענומען
מיטגעפ
מיטגעקומען
מיטה
מיטהאלטן
מיטווא
מיטוואך
מיטינג
מיטל
מיטלאלטער
מיטלייד
מיטלן
מיטלען
מיטלענדישן
מיטלענדישער
מיטלער
מיטלשול
מיטלשולע
מיטן
מיטנ
מיטנעמען
מיטע
מיטעט
מיטעל
מיטעלע
מיטעלער
מיטען
מיטשעם
מיי
מייאש
מייבאק
מיידאן
מיידל
מיידלעך
מיידעל
מיידעלע
מייז
מייזליש
מייזעלס
מייחד
מייל
מיילך
מיילן
מיילס
מיילעך
מיילער
מיין
מיינ
מיינונג
מיינונגן
מיינונגס
מיינונגען
מיינט
מיינס
מיינסט
מיינסטו
מיינסטן
מיינסטנס
מיינע
מיינען
מיינענדיג
מיינענדיק
מיינער
מיינץ
מייסד
מייסטנס
מייסטענס
מייסטער
מייעץ
מייער
מייק
מייקל
מייקראסאפט
מיישב
מיך
מיכ
מיכא
מיכאיל
מיכאל
מיכה
מיכל
מיכלס
מיכלען
מיל
מילא
מילאן
מילגרוים
מילד
מילדע
מילה
מילטאן
מילי
מיליא
מיליאן
מיליאנען
מיליאנער
מיליארד
מיליטער
מיליטעריש
מיליטערישן
מיליטערישע
מיליטערישער
מיליטערן
מילימעטער
מיליע
מיליעס
מיליציא
מיליציע
מילך
מילכיגס
מילכיגע
מילכיקס
מילכיקער
מילן
מילער
מים
מין
מינ
מינא
מינאריטעט
מינאריטעטן
מינג
מינדל
מינדסט
מינדסטן
מינדסטע
מינדסטער
מינדעסטע
מינדערהייט
מינדערסטן
מינה
מינוט
מינוטן
מינוס
מינות
מינט
מיני
מינים
מינימאלע
מינימום
מיניסטא
מיניסטאר
מיניסטארן
מיניסטער
מיניסטעריום
מיניסטערס
מינכן
מינכען
מינס
מינסטער
מינסק
מינסקער
מינע
מינענ
מינעס
מינעסאטע
מינעראל
מינעראלן
מינעריי
מינץ
מיס
מיסא
מיסט
מיסטער
מיסטעריע
מיסטעריעזע
מיסיא
מיסיאנערן
מיסיל
מיסילס
מיסיסיפי
מיסיע
מיסיעס
מיע
מיעוט
מיען
מיעקב
מיצע
מיק
מיקא
מיקויעכ
מיקי
מיקרא
מיקראסקאפ
מיר
מירא
מירון
מירט
מירל
מירן
מירער
מיש
מישאל
מישב
מישט
מישטיינס
מישיגן
מישיגען
מישן
מישע
מישעל
מישער
מישקאלץ
מישראל
מישרים
מיתה
מיתות
מיתת
מכ
מכאן
מכבד
מכבי
מכה
מכוון
מכוח
מכון
מכות
מכח
מכילתא
מכיר
מכירה
מכל
מכניע
מכפ
מכפר
מכשול
מכשיר
מכשירין
מכשף
מכת
מכתב
מכתיר
מל
מלא
מלאך
מלאכה
מלאכות
מלאכי
מלאכים
מלבדו
מלבוש
מלבושים
מלבי
מלוה
מלוכה
מלוכות
מלוכישער
מלונג
מלונגען
מלח
מלחמה
מלחמות
מלחמת
מלט
מלטע
מליץ
מלך
מלכ
מלכא
מלכה
מלכויות
מלכות
מלכותו
מלכי
מלכיאל
מלכיות
מלכים
מלכנו
מלכס
מלמד
מלמדים
מלמטה
מלמעלה
מלען
מלקות
מלשון
ממון
ממונה
ממונות
ממזר
ממילא
ממך
ממלא
מממממממממממממממממממממממממממממממממממממממממממממממממממממממממממממממממממממממממממממממממממממממממממממממממממממממממממממממממממממממממממממממממממממממממממממממממממ
ממנה
ממנו
ממני
ממעל
ממעמקים
ממצרים
ממש
ממשות
ממשיך
ממשלה
ממתיק
מן
מנ
מנגן
מנדב
מנדל
מנדר
מנהג
מנהגי
מנהגים
מנהיג
מנהיגים
מנהל
מנהלים
מנו
מנובל
מנוחה
מנוחת
מנוט
מנורה
מנורת
מנות
מנחה
מנחות
מנחם
מנחת
מני
מנין
מנינים
מנצח
מנשה
מס
מסאטמאר
מסבורג
מסביר
מסדר
מסוגל
מסודר
מסוכן
מסור
מסורה
מסורת
מסחר
מסטערדא
מסי
מסיבה
מסיבות
מסיים
מסילת
מסיני
מסירה
מסירות
מסירת
מסית
מסכ
מסכים
מסכת
מסכתא
מסכתות
מסמיך
מסעות
מסעי
מספיד
מספינקא
מספר
מסר
מסת
מסתם
מסתמא
מע
מעביר
מעבל
מעבר
מעג
מעגא
מעגט
מעגל
מעגליך
מעגליכע
מעגליכקייט
מעגליכקייטן
מעגלעך
מעגלעכקי
מעגלעכקייט
מעגלעכקייטן
מעגן
מעגסט
מעדא
מעדאל
מעדאלן
מעדזשע
מעדיע
מעדיצין
מעדיצינישע
מעדיצינישער
מעדיצינען
מעדיקא
מעדיקאמענטן
מעדיקל
מעדעצין
מעדעצינען
מעהר
מעהרן
מעוברת
מעולם
מעורר
מעות
מעזריטש
מעזריטשער
מעזשביזש
מעזשביזשער
מעט
מעטא
מעטאד
מעטאדן
מעטאל
מעטאלן
מעטער
מעטפארמין
מעטרא
מעטראפאליטאן
מעטראפאליטאנע
מעטראפאליטען
מעטריק
מעטשעט
מעיאר
מעיד
מעיין
מעיל
מעילה
מעין
מעכא
מעכאניזם
מעכאניק
מעכאנישע
מעכאנישער
מעכב
מעכטיגסטע
מעכטיגע
מעכטיגער
מעכל
מעל
מעלא
מעלבארן
מעלדונג
מעלדונגען
מעלדט
מעלדן
מעלה
מעלות
מעליץ
מעליצער
מעלעך
מעלצער
מעם
מעמבער
מעמבערס
מעמבערשיפ
מעמד
מען
מענ
מענדא
מענדי
מענדיל
מענדל
מענדלאוויטש
מענדלסאן
מענדעלע
מענוווינונג
מענזל
מענט
מענטא
מענטן
מענטש
מענטשהייט
מענטשליכן
מענטשליכע
מענטשליכער
מענטשלעך
מענטשלעכן
מענטשלעכע
מענטשלעכער
מענטשן
מענטשנ
מענטשנס
מענטשנקינד
מענטשנקינדער
מענטשען
מענער
מענש
מענשט
מענשטן
מענשן
מענשען
מעס
מעסאפאטאמיע
מעסט
מעסטונג
מעסטן
מעסטער
מעסעדזש
מעסעדזשעס
מעסער
מעסערס
מעץ
מעקא
מעקלער
מעקן
מעקנעס
מעקסיקא
מעקסיקאנער
מעקסיקע
מעקעין
מער
מערא
מערב
מערבדיק
מערבדיקן
מערבדיקע
מערבדיקער
מערבי
מערדער
מערדערס
מערה
מערהייט
מערט
מערטאן
מערי
מעריב
מערידיאן
מערידיאנען
מערילענד
מעריקא
מעריקע
מערכה
מערכות
מערכת
מערן
מערניט
מערס
מערסט
מערסטן
מערסטנטייל
מערסטנס
מערסטע
מערסטענס
מערסטער
מערער
מערערע
מערץ
מערצא
מערצאל
מערצעדעס
מערק
מערקונג
מערקונגען
מערקור
מערקזא
מערקט
מערקן
מערת
מעש
מעשה
מעשהלעך
מעשונע
מעשי
מעשיות
מעשים
מעשענע
מעשר
מעשרות
מעת
מף
מפ
מפא
מפורסם
מפורש
מפורשים
מפטיר
מפי
מפלה
מפני
מפסיק
מפעל
מפקיר
מפרנס
מפרסם
מפרש
מפרשים
מפתח
מפתחות
מצב
מצבה
מצבות
מצבים
מצד
מצדה
מצה
מצוה
מצווה
מצוות
מצורע
מצות
מציאה
מציאות
מצייר
מציל
מציעא
מציצה
מצליח
מצמצם
מצער
מצר
מצרי
מצריים
מצרים
מצרף
מצת
מקארלין
מקבל
מקדים
מקדיש
מקדש
מקואות
מקובל
מקובלים
מקוה
מקוואות
מקווה
מקויים
מקוים
מקום
מקומו
מקומות
מקור
מקורב
מקורבים
מקורות
מקורים
מקושר
מקח
מקייט
מקיים
מקלט
מקנא
מקפיד
מקץ
מקצועות
מקרא
מקרב
מקריב
מקשר
מר
מרא
מראה
מראות
מרבה
מרביץ
מרגיש
מרגליות
מרגלים
מרגלית
מרדכי
מרה
מרו
מרומז
מרור
מרחם
מרחץ
מרחק
מרחקים
מרחשון
מרידה
מרים
מרכבה
מרכז
מרמז
מרן
מרע
מרת
מש
משא
משב
משביע
משגיח
משגיחים
משדך
משה
משהו
משהן
משהס
משוגע
משוגעים
משוגענעם
משוגענער
משוגעת
משולח
משולם
משולשת
משום
משומד
משונה
משורר
משוררים
משי
משיב
משיג
משיח
משיחן
משך
משכ
משכון
משכונות
משכיל
משכילים
משכן
משכנות
משל
משלוח
משלי
משלים
משמח
משמחי
משמע
משמעות
משמעותדיקייט
משמרת
משמש
משנה
משניות
משנת
משער
משפ
משפחה
משפחות
משפחת
משפט
משפטים
משפיע
משקה
משרד
משרת
משרתים
משתדל
משתה
משתוקק
משתתף
מת
מתבונן
מתגבר
מתוך
מתחת
מתי
מתיא
מתיבתא
מתים
מתיר
מתמיד
מתן
מתנגד
מתנגדים
מתנה
מתנות
מתנחל
מתנחלים
מתנת
מתפ
מתפלל
מתפללים
מתקן
מתתיהו
מױל
מױער
מױערן
מײ
מײדל
מײן
מײנט
ן
נ
נא
נאבעל
נאד
נאדווארנא
נאדווארנער
נאדל
נאה
נאווהארדאק
נאווהארדאקער
נאוויגאציע
נאווע
נאוועמבער
נאות
נאז
נאט
נאטא
נאטור
נאטורליך
נאטורליכע
נאטיווע
נאטירליך
נאטירלעך
נאטירלעכן
נאטירלעכע
נאטירלעכער
נאטריום
נאים
נאך
נאכ
נאכאלץ
נאכאמאל
נאכאנאנד
נאכאנאנדיגע
נאכגיין
נאכגעבן
נאכגעגאנגען
נאכגעגעבן
נאכגעלאזט
נאכגעמאכט
נאכגעמאכטע
נאכגעפאלגט
נאכדעם
נאכהער
נאכט
נאכטאן
נאכטמאל
נאכטס
נאכמאכן
נאכמיטאג
נאכמער
נאכן
נאכנישט
נאכער
נאכפאלגן
נאכפאלגנדיג
נאכפאלגענדע
נאכפאלגער
נאכצומאכן
נאמיביע
נאמינאציע
נאמינירט
נאמן
נאמען
נאמר
נאן
נאנט
נאנטן
נאנטע
נאנטער
נאנטקייט
נאנטשאפט
נאס
נאסע
נאסער
נאענט
נאענטע
נאפאלי
נאפאלעאן
נאפט
נאצי
נאציאנאל
נאציאנאליזם
נאציאנאליסטן
נאציאנאלן
נאציאנאלע
נאציאנאלער
נאציס
נאצישע
נאקעט
נאר
נאראלער
נארד
נארדערן
נארוואס
נארוועגיע
נארוועגיש
נארוועגישער
נארט
נאריש
נארישע
נארישקייטן
נארמאל
נארמאלן
נארמאלע
נארמאלער
נארעלע
נב
נבו
נבואה
נבואות
נבוכ
נבוכדנאצר
נבוכדנצר
נבוכים
נבון
נבט
נביא
נביאות
נביאי
נביאים
נבלה
נבליק
נברא
נג
נגא
נגב
נגד
נגווי
נגון
נגזא
נגט
נגיא
נגיד
נגידים
נגיין
נגינה
נגל
נגלא
נגלה
נגלעך
נגלען
נגמײ
נגן
נגסט
נגסטן
נגסטער
נגע
נגעא
נגעבויגן
נגעבן
נגעברא
נגעברײט
נגעגא
נגעגעבן
נגעגרייט
נגעהא
נגעהויב
נגעהויבן
נגעהויבנ
נגעהויבען
נגעהערט
נגעהױבן
נגעווא
נגעוויזן
נגעזא
נגעזען
נגעזעענע
נגעזעצט
נגעטא
נגעטרא
נגעים
נגעכא
נגעלא
נגעלייגט
נגעמא
נגען
נגענהי
נגענהייט
נגענומען
נגענומענע
נגענע
נגענעם
נגענשא
נגעפ
נגעפא
נגעפירט
נגעצויגן
נגעצונדן
נגעקומען
נגעקומענע
נגעקוקט
נגעקלא
נגעקליבן
נגעקערט
נגער
נגערופ
נגערופן
נגערופנ
נגערוקט
נגערטנער
נגערירט
נגערן
נגערע
נגערעדט
נגערעכנט
נגערער
נגעשא
נגעשטא
נגעשטויסן
נגעשטעלט
נגעשטעלטע
נגעשלא
נגעשלונגען
נגעשפ
נגעשריבן
נגעװא
נגעװיזן
נגרעס
נגײן
נד
נדא
נדב
נדבה
נדבות
נדבר
נדה
נדוי
נדז
נדזשבא
נדזשעט
נדזשען
נדחה
נדי
נדיג
נדיגט
נדיגע
נדידא
נדיק
נדיקע
נדיקײט
נדיר
נדל
נדלונג
נדלונגען
נדלט
נדלען
נדלער
נדן
נדס
נדע
נדענק
נדער
נדערהא
נדערט
נדערן
נדערנס
נדערס
נדערע
נדערער
נדערש
נדערשמא
נדר
נדרא
נדרוק
נדרי
נדרים
נדשא
נה
נהא
נהויב
נהיה
נהייב
נהייבן
נהייבנדיק
נהנה
נהענגער
נהר
נהרדעא
נהריה
נהײב
נו
נוא
נוארק
נוגנט
נוגע
נודע
נוהג
נווא
נווה
נוווינער
נוועזנהייט
נווײ
נוטה
נוטריקון
נוי
נויט
נויטיג
נויטיגט
נויטיגע
נויטיק
נויטיקן
נויטיקע
נויטן
נול
נולד
נומ
נומען
נומער
נומערן
נון
נונג
נונגען
נוס
נוסח
נוסחאות
נוסקריפ
נועם
נוף
נוץ
נוצט
נוצן
נוצנדיג
נוצען
נוק
נוקבא
נוקלעארע
נוקם
נור
נורא
נוראים
נוראימדיקע
נושא
נושאי
נושאים
נות
נותן
נז
נזא
נזהר
נזיקין
נזיר
נזע
נזען
נזעצן
נזר
נח
נחום
נחומען
נחל
נחלה
נחלת
נחמדים
נחמה
נחמהקע
נחמיה
נחמן
נחמני
נחס
נחש
נחת
נט
נטא
נטהא
נטווא
נטוויקלונג
נטוויקלט
נטורי
נטי
נטיגן
נטיגע
נטיה
נטייל
נטיילגענומען
נטילת
נטין
נטינענט
נטיסעמיטיזם
נטיפ
נטיק
נטיקן
נטיקע
נטישן
נטישע
נטל
נטלא
נטלויף
נטלויפ
נטלויפן
נטלעכט
נטלען
נטלױפ
נטן
נטע
נטער
נטערט
נטעריי
נטערן
נטפ
נטפע
נטצײ
נטקעגן
נטרא
נטרונא
נטרונען
נטרונענע
נטרינונג
נטרינען
נטרינקען
נטשא
נטשוויגן
נטשיק
נטשלא
נטשע
ני
ניא
ניאגארא
ניג
ניגון
ניגוני
ניגונים
ניגע
ניגעריע
ניד
נידער
נידערט
נידעריג
נידעריגסטע
נידעריגע
נידעריגער
נידעריגערע
נידעריק
נידעריקן
נידעריקע
נידעריקער
נידערלאנדן
נידערמאן
נידערן
נידריג
נידריגסטע
נידריגע
נידריגער
ניו
ניובורג
ניובערג
ניווא
ניוז
ניוטאן
ניוס
ניורא
ניזא
ניזירט
ניזם
ניזמען
ניזשער
ניחא
ניט
ניטא
ניטאמאל
ניטל
ניי
נייגונג
נייגן
נייגעריג
נייהויז
נייהעם
נייט
נייטיג
נייטיק
נייטיקט
נייטיקן
נייטיקע
נייטרא
נייטראל
נייטראלע
נייטראנען
ניימאן
ניין
ניינטן
ניינטע
ניינטער
ניינציג
ניינציק
ניינצן
נייס
נייע
נייעה
נייעם
נייען
נייעס
נייער
נייפונדלאנד
ניישטאט
ניישלאס
ניכט
ניכטער
ניכטשע
ניל
נילוס
נים
נימ
נימא
נימער
נינו
נינטענדא
ניס
ניסט
ניסטן
ניסי
ניסים
ניסן
ניע
ניעס
ניפ
ניץ
ניצוה
ניצול
ניצוץ
ניצט
ניצן
ניצנדיק
ניק
ניקא
ניקאטין
ניקאלא
ניקאלאס
ניקאליי
ניקאלשבורג
ניקאלשבורגער
ניקאראגוא
ניקט
ניקי
ניקל
ניקן
ניקסאן
ניקעלסבורג
ניקעס
ניקש
ניר
נירבאטור
נירט
נירן
נירנבערג
נירעדהאז
ניש
נישט
נישטא
נישטיק
נישטיקע
נישטיקײט
נישן
נישע
נישער
נישקא
נישקשה
ניתבע
נכא
נכון
נכונים
נכלל
נכשל
נלא
נמא
נמשך
נמשל
נן
ננא
ננעמען
נס
נסא
נסט
נסטא
נסטו
נסטע
נסטרא
נסטרוקציע
נסיון
נסיונות
נסים
נסיעה
נסיעות
נסן
נסערווא
נספ
נסקריפ
נסת
נסתלק
נסתר
נע
נעא
נעאלאגן
נעבאך
נעבן
נעבעך
נעבעכ
נעבען
נעגא
נעגאטיוו
נעגאטיווע
נעגאטיווער
נעגל
נעהמט
נעהמען
נעוואדא
נעוויל
נעוועט
נעט
נעטוואורק
נעטווארק
נעטיק
נעטן
נעיווי
נעילה
נעיעלמער
נעישאנס
נעכט
נעכטיקן
נעכטיקע
נעכטיקער
נעכטן
נעל
נעלם
נעלן
נעלסאן
נעלע
נעלער
נעם
נעמ
נעמא
נעמט
נעמי
נעמליך
נעמלעך
נעמן
נעמען
נעמענ
נען
נענ
נענדיק
נענטסטע
נענטער
נענע
נענש
נעס
נעסט
נעסטן
נעסטער
נעסי
נעענטער
נעפ
נעפאל
נעפטון
נעפל
נעפע
נעץ
נעצווערק
נעצן
נעצװערק
נעקסטן
נעקסטע
נעקסטער
נעקרא
נער
נערוו
נערוון
נערווען
נערישע
נערן
נערקענט
נערשטיק
נעשא
נעשאנעל
נעשה
נעשכיז
נפ
נפא
נפטר
נפילה
נפילות
נפירער
נפלא
נפלאות
נפליקט
נפן
נפקא
נפש
נפשו
נפשות
נפשי
נפשך
נפתלי
נץ
נצביל
נצבילן
נצבים
נצו
נצוהערעניש
נצויזיש
נצויזישע
נצח
נצחון
נצחונות
נצחיות
נצט
נצי
נציג
נצינדן
נציע
נציק
נציקסטן
נציקער
נצן
נצע
נצעלא
נצער
נצערט
נצפרי
נצרת
נק
נקא
נקב
נקבה
נקבות
נקו
נקודה
נקודות
נקום
נקומען
נקומענדיק
נקוקן
נקורס
נקט
נקי
נקיבה
נקיות
נקל
נקלא
נקמה
נקמות
נקן
נקס
נקע
נקעלע
נקען
נקער
נקפורט
נקפורטער
נקרא
נקריי
נקרייך
נקרײ
נקרײך
נר
נראה
נרופ
נרות
נרירן
נרן
נש
נשא
נשטא
נשיא
נשיאות
נשיאים
נשיל
נשים
נשלא
נשמה
נשמות
נשמע
נשמת
נשמתו
נשע
נשפ
נשפע
נשתנה
נת
נתגלה
נתחבר
נתיב
נתיבות
נתמנה
נתן
נתנאל
נתניה
נתניהו
נתעורר
נתפעל
נתקרב
נתתי
נװײ
נױט
נײ
נײן
ס
סא
סאבאלטש
סאביבאר
סאדאט
סאדאיסטערן
סאדאם
סאדארק
סאדיגורא
סאדיגורער
סאדע
סאדערן
סאהארא
סאו
סאודי
סאודיע
סאוויעט
סאוויעטישע
סאוויעטן
סאוועט
סאוועטישע
סאוועטישער
סאוועטן
סאווראן
סאוט
סאטאן
סאטורן
סאטמאר
סאטמארע
סאטמארער
סאטמערער
סאטעליט
סאטעליטן
סאטענד
סאיז
סאך
סאכ
סאכאטשאוו
סאכאטשאווער
סאלא
סאלאווייטשיק
סאלאמאן
סאלאנט
סאלאנטער
סאלאניקי
סאלדאט
סאלדאטן
סאלדאטען
סאלוואדאר
סאלי
סאליד
סאליוואן
סאמאליע
סאמארקאנד
סאמועל
סאמע
סאמעט
סאן
סאנוק
סאנט
סאנטא
סאנטיאגא
סאניק
סאנסקריט
סאנקט
סאנקציעס
סאסאוו
סאסאווער
סאסנאווצע
סאסעקס
סאפטוועיר
סאפיסטיקירטע
סאפיע
סאפרין
סאציאל
סאציאלאגיע
סאציאליזם
סאציאליסטישע
סאציאליסטישער
סאציאלע
סאציאלער
סאקאלאוו
סאקס
סאראיעווא
סאראצקין
סארט
סארטן
סארי
סאשא
סאשע
סב
סבא
סביבה
סברא
סברה
סג
סגולה
סגולות
סגל
סגן
סד
סדא
סדום
סדר
סדרה
סדרות
סדרי
סדרים
סה
סו
סוב
סוביעקט
סובמארינען
סובסטא
סובסטאנטיוו
סובסטאנטיוון
סובסטאנץ
סובסטאנצן
סוגיא
סוגיות
סוד
סודאן
סודות
סווא
סוואזילאנד
סווענטיסלא
סוחר
סוחרים
סוטה
סויע
סוכ
סוכה
סוכות
סולטא
סולטאן
סוליימאן
סולת
סומך
סומע
סומעס
סון
סונדערלאנד
סוני
סוניס
סועץ
סוף
סופ
סופליי
סופלייס
סופלייען
סופער
סופר
סופרים
סוצקעווער
סוק
סוקים
סוקסעס
סוקסעספול
סוקסעספולע
סור
סורא
סורינאם
סורפרייז
סז
סזע
סזעלבע
סח
סחורה
סחורות
סט
סטא
סטאביל
סטאבילע
סטאדיאן
סטאדיום
סטאטוס
סטאטוע
סטאטיסטיק
סטאטיסטיקס
סטאלין
סטאלינער
סטאמבול
סטאמפארד
סטאן
סטאנדארט
סטאנדארטן
סטאנדארטע
סטאניסלאוו
סטאנמאר
סטאנציאנירט
סטאנציע
סטאנציעס
סטאפ
סטאק
סטאקס
סטאר
סטארטפאס
סטו
סטוארט
סטודיא
סטודיאס
סטודענט
סטודענטן
סטוטשין
סטוטשינער
סטוך
סטוכער
סטי
סטיוו
סטיוון
סטיווען
סטיווענידזש
סטייטש
סטייל
סטייפלער
סטיל
סטילן
סטים
סטיע
סטיק
סטיקע
סטישע
סטן
סטע
סטעזשקע
סטעטן
סטעיט
סטעיטמענט
סטעיטמענטס
סטעיטס
סטעך
סטעליע
סטען
סטענלי
סטעפ
סטעפאן
סטער
סטקע
סטרא
סטראזשניץ
סטראטעגיע
סטראטעגישע
סטראטפארד
סטראפקאוו
סטראפקאווער
סטראשעט
סטרונע
סטרונעס
סטרוקטור
סטרוקטורן
סטרי
סטריזשעוו
סטריזשעווער
סטריט
סטרייק
סטריקאוו
סטריקאווער
סטרעטין
סטרעליסק
סטײ
סי
סיא
סיאטל
סיבה
סיבות
סיביר
סיג
סיגוט
סיגוטער
סיגנא
סיגנאל
סיגנאלן
סיגעט
סיגעטער
סידור
סידורים
סידי
סידני
סידקאפ
סיוון
סיום
סיון
סיט
סיטוא
סיטואציע
סיטואציעס
סיטי
סיטיזענס
סיי
סייד
סיידן
סייווי
סייז
סייט
סייטס
סיים
סיין
סייענטיסטן
סייענס
סייעתא
סייפער
סיירת
סיכא
סילווער
סילי
סיליציום
סימא
סימאן
סימבא
סימבאל
סימבאליזירט
סימבאליזירן
סימבאלן
סימו
סימן
סימנים
סימעטריע
סימפ
סימפא
סימפאטיקער
סימפאניע
סימפאניעס
סימפטאמען
סינ
סינא
סינאגאג
סינגאפור
סינגל
סינגלען
סינדערעלא
סינדראם
סינוס
סיני
סינעגאל
סיסאפ
סיסטעם
סיסטעמען
סיסטערס
סיסי
סיע
סיערע
סיפ
סיפור
סיפורי
סיפורים
סיציליע
סיק
סיקן
סיקער
סיקרעט
סיר
סירא
סירט
סיריע
סירישע
סירן
סירקיל
סירקילס
סך
סכום
סכומים
סכך
סכנה
סכנות
סכנת
סכסוך
סל
סלא
סלאבאדקע
סלאבאדקער
סלאגאן
סלאוואקיי
סלאוואקיש
סלאוואקישע
סלאוויטא
סלאווישע
סלאוועניע
סלאוועניש
סלאנים
סלאנימער
סלה
סלוצק
סליחה
סליחות
סלייד
סם
סמ
סמא
סמארט
סמבטיון
סמיט
סמיכה
סמיכת
סמך
סמערף
סמערפ
סן
סנ
סנא
סנדק
סנדר
סנדרן
סנדרס
סנה
סנהדריה
סנהדרין
סנחריב
סס
סע
סעגא
סעדיה
סעודה
סעודות
סעודת
סעוון
סעוונאקס
סעזא
סעזאן
סעזאנען
סעט
סעטעלייטס
סעילס
סעינט
סעיף
סעיפים
סעל
סעליולער
סעליש
סעלע
סעלען
סעלעקציע
סעלפאון
סעם
סעמיטישע
סעמינא
סעמינאר
סען
סענא
סענאט
סענאטאר
סענאטארן
סענאטור
סענדי
סענדלער
סענדער
סענדערל
סענדערלס
סענדערלען
סענדערלענ
סענדר
סענט
סענטער
סענסארס
סענע
סענעגאל
סעס
סעסיע
סעפ
סעפטעמבער
סעקולערע
סעקולערער
סעקונדן
סעקונדע
סעקונדעס
סעקטאר
סעקטארן
סעקטע
סעקיוריטי
סעקס
סעקסואל
סעקסואלע
סעקרעטא
סעקרעטאר
סער
סערביע
סערביש
סערדצע
סערוויס
סערוויסעס
סערווירט
סערווירן
סעריע
סעריעס
סערל
סערן
סערע
סערעט
סערעטער
סף
ספ
ספא
ספארט
ספארטלער
ספארטן
ספה
ספורי
ספי
ספיד
ספינקא
ספינקער
ספיצער
ספיקות
ספיקער
ספיר
ספירה
ספירות
ספירת
ספעיס
ספעציאליזירט
ספעציאליסט
ספעציעל
ספעציעלן
ספעציעלע
ספעציעלער
ספעציפישע
ספעקטאר
ספערע
ספק
ספקות
ספר
ספרא
ספרד
ספרדי
ספרדים
ספרדישן
ספרדישע
ספרדישער
ספרי
ספרים
ספרינג
ספרינט
סצענאר
סצענע
סצענעס
סק
סקא
סקאהל
סקאטישע
סקאטישער
סקאטלאנד
סקאטש
סקאלע
סקאנדאל
סקאשע
סקווירא
סקווירער
סקווע
סקווער
סקווערער
סקול
סקולס
סקולען
סקולענער
סקולפ
סקולפטאר
סקולפטור
סקורטס
סקי
סקעדזשועל
סקעלעט
סקער
סקרין
סקריפ
סר
סרא
סרולי
סרולין
סרוליס
סרוסיש
סרוסישן
סרוסישער
סרוסלא
סרי
סת
סתימאה
סתירה
סתירות
סתם
סײ
ע
עא
עאיק
עב
עבד
עבדאללה
עבדות
עבדי
עבדים
עבודה
עבודות
עבודת
עבי
עבירה
עבירות
עבר
עברוא
עברי
עברית
עג
עגא
עגונה
עגונות
עגיפ
עגיפטישע
עגיפטישער
עגיפטן
עגל
עגלה
עגמת
עגנון
עד
עדא
עדגא
עדה
עדו
עדווא
עדווארד
עדות
עדותיך
עדזשווער
עדי
עדיות
עדיטאריעל
עדים
עדינבורג
עדיע
עדלשטיין
עדמאנטאן
עדמונד
עדן
עדס
עדעמס
עדער
עדערט
עדערן
עדת
עה
עהו
עהם
עהנגליש
עהר
עהרליך
עהרנפעלד
עהרע
עו
עובד
עובדי
עובדיה
עובר
עוד
עוה
עוו
עווא
עוואו
עוואלוציע
עוולה
עוולות
עוונות
עווענטועל
עוועניו
עווערעסט
עוז
עוזיאל
עוזר
עול
עולה
עולות
עולים
עולם
עולמות
עומד
עומר
עון
עונג
עונש
עוסק
עוף
עופ
עופות
עוקצין
עוקר
עור
עורך
עושה
עושים
עושר
עז
עזאי
עזה
עזו
עזות
עזיע
עזר
עזרא
עזרה
עזריאל
עזריה
עזרת
עח
עט
עטא
עטאנאל
עטווא
עטוואס
עטיאפיע
עטיט
עטייה
עטיל
עטיק
עטישער
עטל
עטליכע
עטלעכע
עטן
עטנישע
עטס
עטע
עטער
עטערבורג
עטערדיקע
עטר
עטרות
עטרת
עטש
עי
עיבור
עידס
עיה
עיון
עיטש
עיי
עיין
עיל
עילאה
עילאי
עילאין
עילוי
עילית
עים
עין
עיני
עיניו
עינים
עיקבתא
עיקר
עיקרי
עיקרים
עיר
עירוב
עירובין
עירך
עירליין
עירליינס
עירפארט
עך
עכ
עכו
עכט
עכטן
עכטע
עכטער
עכשיו
על
עלא
עלבע
עלד
עלדז
עלדער
עלה
עלול
עלות
עלזא
עלט
עלטסטן
עלטסטע
עלטסטער
עלטער
עלטערן
עלטערע
עלטערען
עלטערער
עלי
עליאט
עליה
עליהם
עליו
עליון
עליות
עליזא
עליזאבעט
עליטע
עליך
עליכם
עליכמס
עלילת
עלים
עלימינירט
עלימינירן
עלינו
עליס
עליע
עלישע
עלית
עלמא
עלמין
עלן
עלנבויגן
עלנט
עלע
עלעך
עלעמענט
עלעמענטא
עלעמענטארע
עלעמענטן
עלען
עלעפאנט
עלעקטרא
עלעקטראמאגנעטיזם
עלעקטראמאגנעטישע
עלעקטראן
עלעקטראניק
עלעקטראניש
עלעקטראנישע
עלעקטראנישער
עלעקטראנען
עלעקטריע
עלעקטריציטעט
עלעקטריק
עלעקטרישן
עלעקטרישע
עלעקטרישער
עלער
עלערדיקער
עלערן
עלף
עלפ
עלפטן
עלפטער
עלץ
עלצטע
עלצטער
עלקא
עלקוש
עלקער
עלקערונג
עלשט
עלשן
עם
עמ
עמא
עמאר
עמבארגא
עמבער
עמו
עמוד
עמודים
עמוירדזשענסי
עמון
עמוס
עמטליך
עמטליכער
עמי
עמיגרירט
עמיל
עמיצן
עמיצער
עמיר
עמיראטן
עמך
עמלק
עמנואל
עמע
עמעס
עמעצן
עמעצנס
עמעצער
עמער
עמערגענץ
עמערשאם
עמפייער
עמק
עמרם
ען
ענ
ענג
ענגיל
ענגלא
ענגלאנד
ענגלארד
ענגליש
ענגלישן
ענגלישע
ענגלישער
ענגלענדער
ענגע
ענגעניש
ענגער
ענגקייט
ענגשא
ענגשאפט
ענד
ענדגילטיגע
ענדונג
ענדזשין
ענדי
ענדיגט
ענדיגן
ענדיק
ענדיקט
ענדיקן
ענדליך
ענדליכע
ענדלעך
ענדע
ענדעט
ענדערונג
ענדערונגען
ענדערט
ענדערן
ענדערש
ענדרו
ענו
ענוה
ענווה
ענווייראמענט
ענונג
ענזימען
ענט
ענטהאלט
ענטן
ענטסטע
ענטע
ענטעבע
ענטער
ענטפ
ענטפער
ענטפערט
ענטפערן
ענטפערס
ענטפערען
ענטקייט
ענטראפיע
עני
עניו
עניוות
עניין
עניינים
ענין
עניני
ענינים
עניקט
עניש
ענישן
ענית
ענליך
ענליכע
ענלעך
ענלעכע
ענן
עננו
ענס
ענע
ענעם
ענען
ענער
ענערגיע
ענפארסמענט
ענפילד
ענץ
ענצטער
ענציקלא
ענציקלאפעדיע
ענק
עס
עסא
עסט
עסטונג
עסטונגען
עסטיווא
עסטיקט
עסטלא
עסטלאנד
עסטן
עסטע
עסטעיט
עסטער
עסטרייך
עסטרייכישן
עסטרייכישע
עסטרייכישער
עסטרייכער
עסטרײ
עסיד
עסייען
עסימיזם
עסיע
עסיק
עסן
עסנ
עסנווא
עסנווארג
עסען
עסענווארג
עסעקס
עסער
עספ
עספעראנטא
עסק
עסקאלאטאר
עסקים
עסקן
עסקנות
עסקנים
עע
עף
עפ
עפאכע
עפו
עפולה
עפיזאד
עפיזאדן
עפינג
עפל
עפן
עפנט
עפען
עפענונג
עפענט
עפענען
עפעס
עפעקט
עפעקטיוו
עפעקטירט
עפעקטירן
עפעקטן
עפר
עפשטיין
עפשער
עץ
עצ
עצבות
עצה
עצהט
עצהן
עצום
עצות
עצי
עציון
עצים
עציעל
עציעלע
עצם
עצמאי
עצמו
עצמות
עצמי
עצרת
עצת
עק
עקא
עקאנאמיסט
עקאנאמיסטן
עקאנאמיע
עקאנאמיעס
עקאנאמיק
עקאנאמיש
עקאנאמישן
עקאנאמישע
עקאנאמישער
עקב
עקביא
עקד
עקו
עקוואדאר
עקוואטאר
עקוואטארישע
עקוויפמענט
עקזיסטירט
עקזיסטירן
עקזיסטענץ
עקזעמפ
עקזעמפלארן
עקזעקוטיוו
עקזעקיוטיוו
עקזעקיוטיווע
עקט
עקטן
עקיבא
עקידת
עקל
עקן
עקס
עקסאן
עקסטער
עקסטערע
עקסטרע
עקסטרעם
עקסטרעמיסטן
עקסטרעמע
עקסטרעמער
עקסטשעינדזש
עקסידענט
עקסידענטן
עקסעקוטיוו
עקספ
עקספארט
עקספארטירט
עקספארטירן
עקספארטירער
עקספערט
עקספערטן
עקספערימענטן
עקספרעס
עקעלע
עקענאמיע
עקענאמישע
עקראן
עקרה
עקשטיין
עקשן
עקשנות
ער
ערא
עראפלאן
עראפלאנען
ערב
ערבוס
ערבות
ערבי
ערבית
ערג
ערגסטן
ערגסטע
ערגעץ
ערגעצ
ערגער
ערגערן
ערגערע
ערד
ערדיקע
ערדישע
ערדל
ערדציטערניש
ערדציטערנישן
ערהאלטן
ערהעלדן
ערו
ערוב
ערוגת
ערווא
ערוואקסענע
ערוואקסענער
ערווארבן
ערווארט
ערווארטעט
ערוויילט
ערווין
ערוועלט
ערוועלן
ערוועקן
ערוות
ערוך
ערונג
ערוץ
ערזא
ערזענלעכקייט
ערזעצט
ערזעצן
ערט
ערטל
ערטן
ערטער
ערטשע
ערי
עריא
עריות
ערין
עריע
עריק
ערירן
ערך
ערכין
ערל
ערלה
ערלוי
ערלויבט
ערלויבן
ערלויבעניש
ערלויער
ערליי
ערליך
ערליכן
ערליכע
ערליכער
ערליכקייט
ערלעדיגט
ערלעדיגן
ערלעך
ערלעכן
ערלעכע
ערלעכער
ערלעכקײט
ערלעס
ערמא
ערמעגליכט
ערמעגליכן
ערן
ערנא
ערני
ערנסט
ערנסטן
ערנסטע
ערנסטער
ערנע
ערנעסט
ערס
ערסא
ערע
ערעצ
ערער
ערפ
ערפאלג
ערפארונג
ערפארט
ערפילט
ערפילן
ערפינדונג
ערפינדונגען
ערפינדן
ערפינדער
ערפעקטום
ערציאונג
ערצייגט
ערצייגן
ערציילונג
ערציילונגען
ערציק
ערקלערונג
ערקלערט
ערקלערן
ערשט
ערשטא
ערשטוינט
ערשטן
ערשטנס
ערשטע
ערשטען
ערשטער
ערשיינונג
ערשיינט
ערשיינען
ערשינען
עש
עשה
עשו
עשיה
עשיו
עשין
עשיר
עשירות
עשירים
עשני
עשר
עשרה
עשרת
עת
עתה
עתיד
עתיק
עתיקא
ף
פ
פא
פאביע
פאבליק
פאבלישינג
פאבריצירונג
פאבריצירט
פאבריצירן
פאבריק
פאבריקאנט
פאבריקאציע
פאבריקן
פאגראם
פאגראמען
פאד
פאדאליע
פאדווא
פאדינגטאן
פאדעם
פאדערט
פאדערן
פאדערשטע
פאה
פאהאד
פאהרן
פאווארסקי
פאוויאט
פאוועל
פאוינט
פאול
פאולא
פאום
פאוסט
פאוער
פאוערבאל
פאזיטיוו
פאזיטיווע
פאזיטיווער
פאזיציע
פאזיציעס
פאזע
פאזעל
פאזען
פאזעס
פאטא
פאטאגראפיע
פאטאגראפירט
פאטאך
פאטאליטעטן
פאטאלער
פאטאקי
פאטני
פאטענט
פאטענץ
פאטער
פאטערס
פאך
פאל
פאלאדזשי
פאלאנגען
פאלאנע
פאלאץ
פאלאק
פאלאקן
פאלגט
פאלגן
פאלגנד
פאלגנדיק
פאלגנדע
פאלגענד
פאלגענדע
פאלוס
פאלט
פאלטאווע
פאלטש
פאלטשע
פאליטיק
פאליטיקאנט
פאליטיקאנטן
פאליטיקער
פאליטיש
פאליטישן
פאליטישע
פאליטישער
פאלינאם
פאליסטינער
פאליסי
פאליסיס
פאליציאנט
פאליציאנטן
פאליציי
פאללאק
פאלם
פאלן
פאלס
פאלסבורג
פאלען
פאלעסטין
פאלעסטינע
פאלעסטינער
פאלק
פאלקלאנד
פאלקס
פאלש
פאלשן
פאלשע
פאלשער
פאלשקייט
פאמיליע
פאמיליעס
פאמעראניע
פאמפ
פאמפאיוס
פאמפע
פאן
פאנאוועזש
פאנאוועזשער
פאנאטישע
פאנאמא
פאנגט
פאנגען
פאנגער
פאנד
פאנטאזיע
פאנטאסטישע
פאנטן
פאניק
פאנעט
פאנצער
פאנקראס
פאס
פאסא
פאסאזשיר
פאסאזשירן
פאסט
פאסטוך
פאסטן
פאסטער
פאסיג
פאסיגע
פאסיל
פאסיפיק
פאסיק
פאסירונג
פאסירונגען
פאסירט
פאסירן
פאסן
פאספארט
פאסקאוויץ
פאעזיע
פאפ
פאפא
פאפולאציע
פאפולער
פאפולערן
פאפולערסטע
פאפולערע
פאפולערער
פאפיר
פאפיראסן
פאפירן
פאפירענע
פאפער
פאציענט
פאציענטן
פאציפיק
פאציפישן
פאציפישער
פאקולטעט
פאקט
פאקטאר
פאקטארן
פאקטבוך
פאקטיש
פאקטישע
פאקטישער
פאקטן
פאקיסטאן
פאקן
פאקס
פאקשיווניץ
פאר
פארא
פאראגוויי
פאראד
פאראדיי
פאראדיע
פאראדע
פאראויס
פאראורזאכט
פאראורטיילט
פאראיבער
פאראיין
פאראייניגונג
פאראייניגט
פאראייניגטן
פאראייניגטע
פאראייניגן
פאראייניקונג
פאראייניקט
פאראייניקטע
פאראייניקן
פאראלעל
פאראמעטערס
פאראן
פאראנטווארטליך
פאראנטווארטליכט
פאראנטווארטליכקייט
פאראנטווארטלעך
פאראנען
פארארדענט
פארב
פארבאט
פארבאטן
פארבאנד
פארבונדן
פארביי
פארבינדונג
פארבינדונגן
פארבינדונגען
פארבינדט
פארבינדן
פארבינדען
פארבליבן
פארבליבענע
פארבלייבט
פארבלייבן
פארבן
פארבס
פארבעטן
פארבעסערט
פארבעסערן
פארבראכט
פארברייטערט
פארברייטערן
פארברעך
פארברעכן
פארברעכנס
פארברעכער
פארברענגט
פארברענגן
פארברענגען
פארברענט
פארברענען
פארגאנגנהייט
פארגאנגענהייט
פארגאנגענע
פארגאנגענעם
פארגאסן
פארגייער
פארגלייך
פארגלייכן
פארגעזעצט
פארגעלייגט
פארגעניגן
פארגעס
פארגעסט
פארגעסן
פארגעסען
פארגעקומען
פארגעשטעלט
פארגעשלאגן
פארגעשריטן
פארגעשריטענע
פארגרינגערן
פארגרעסערט
פארגרעסערן
פארד
פארדאכט
פארדאמט
פארדאנקען
פארדארבן
פארדייאונג
פארדייען
פארדינט
פארדינסט
פארדינסטן
פארדינען
פארדינער
פארדעכטיגט
פארדעכטיגטן
פארדעכטיגטער
פארדעם
פארדעקט
פארדרייט
פארדרייען
פארהאלטן
פארהאן
פארהאנג
פארהאנדלונגען
פארהאנדלען
פארהאנדלער
פארהאנען
פארהוילן
פארהייראט
פארהעלטעניש
פארהער
פארהערט
פארהערן
פארווא
פארוואונדעט
פארוואונדעטע
פארוואלטונג
פארוואלטעט
פארוואלטער
פארוואנדלט
פארוואנדלען
פארוואנדעלט
פארוואס
פארווארד
פארווארט
פארווונדעט
פארווונדעטע
פארוויילונג
פארווערטס
פארויס
פארום
פארומס
פארזאמלונג
פארזאמלט
פארזאמלטע
פארזארג
פארזארגונג
פארזארגט
פארזארגן
פארזוך
פארזוכט
פארזיכטיג
פארזיכערונג
פארזיכערט
פארזיכערן
פארזיצער
פארזעצונג
פארט
פארטא
פארטאגס
פארטאל
פארטאן
פארטוגאל
פארטוגעזיש
פארטוגעזישע
פארטוגעזישער
פארטי
פארטיג
פארטיגע
פארטיזאנער
פארטיזאנערס
פארטיי
פארטיידיגונג
פארטיידיגונגס
פארטיידיגן
פארטיידיקונג
פארטיידיקונגס
פארטיידיקן
פארטייטשט
פארטיילט
פארטייען
פארטיליגט
פארטיליגן
פארטיפט
פארטיפן
פארטיק
פארטן
פארטראגן
פארטראכט
פארטריבן
פארטרייבט
פארטרייבן
פארטרעט
פארטרעטן
פארטרעטער
פאריז
פאריין
פארייניקטע
פאריסאוו
פאריסאווער
פארכאפונג
פארכאפט
פארכאפטע
פארכאפן
פארכאפער
פארכט
פארכטן
פארלא
פארלאג
פארלאזט
פארלאזן
פארלאזען
פארלאמענט
פארלאמענטארע
פארלאנג
פארלאנגט
פארלאנגן
פארלאנגען
פארלארענע
פארלאשן
פארלויבט
פארלויף
פארלוירן
פארלוירענע
פארלוסט
פארלוסטן
פארליבט
פארלייגט
פארלייגן
פארלימענט
פארלירט
פארלירן
פארלענגערונג
פארלענגערט
פארלענגערן
פארלענדן
פארלעצט
פארלעצן
פארלערנען
פארלעשן
פארם
פארמאגט
פארמאגן
פארמאט
פארמאטן
פארמאכט
פארמאכטע
פארמאכן
פארמאלע
פארמאסטן
פארמיטאג
פארמיטל
פארמיטלען
פארמיידט
פארמיידן
פארמינג
פארמינערט
פארמינערן
פארמירט
פארמירן
פארמישט
פארמל
פארמעגן
פארמען
פארמעסט
פארמעסטן
פארמער
פארמערונג
פארמערט
פארמערן
פארמערס
פארן
פארנאגראפיע
פארנאכט
פארנומען
פארנומענסטע
פארנומענע
פארנוצט
פארנט
פארניכטונג
פארניכטונגס
פארניכטן
פארניכטעט
פארנעם
פארנעמט
פארנעמען
פארס
פארע
פארעכטן
פארעכנט
פארעכענט
פארעם
פארעמען
פארען
פארענדיגט
פארענדיגן
פארענדיקט
פארענדיקן
פארענדערט
פארענהייט
פארענט
פארענטפערט
פארענטפערן
פארעסט
פארעפנטליכט
פארעפנטלעכט
פארערגערט
פארפאלן
פארפאלק
פארפאסט
פארפאסן
פארפאסער
פארפירט
פארפירן
פארפלייצונג
פארפלייצונגען
פארפלייצט
פארפלייצן
פארפליכטעט
פארפעלט
פארפעסטיקונג
פארפרוירן
פארפרוירענע
פארצווייגטע
פארצווייפעלט
פארצייטישע
פארצייטנס
פארצייכנט
פארציילט
פארציילן
פארק
פארקוועי
פארקויף
פארקויפט
פארקויפן
פארקויפען
פארקויפער
פארקומען
פארקינג
פארקלענערט
פארקן
פארקער
פארקערט
פארקערטע
פארקערטער
פארראכטן
פאררופן
פאררעטער
פאררעכטן
פאררעכנט
פאררעכענט
פארש
פארשאפט
פארשאפן
פארשוואונדן
פארשווינדן
פארשוין
פארשונג
פארשונגען
פארשט
פארשטאט
פארשטאטישע
פארשטאטישער
פארשטאנד
פארשטאנען
פארשטארקט
פארשטארקן
פארשטיי
פארשטייט
פארשטיין
פארשטייען
פארשטייער
פארשטעהט
פארשטעהן
פארשטעט
פארשטעלונג
פארשטעלונגען
פארשטעלט
פארשטעלן
פארשטענדליך
פארשטענדעניש
פארשטערקערט
פארשטערקערן
פארשידנארטיגע
פארשידענע
פארשיידענע
פארשיקט
פארשלאג
פארשלאגן
פארשלאסן
פארשן
פארשעמט
פארשעמען
פארשער
פארשערס
פארשפ
פארשפארט
פארשפארן
פארשפראכן
פארשפרייט
פארשפרייטונג
פארשפרייטן
פארשפרייטע
פארשפרייטער
פארשריבן
פארשריט
פארשרייבן
פארשריפטן
פאשיסטישע
פאשקאן
פאשקעווילן
פב
פג
פגל
פגם
פגעגעבן
פגעווא
פגעפ
פד
פדיון
פה
פו
פובליצירט
פובליק
פובליקירט
פובליקע
פוגם
פוהל
פוט
פוטבא
פוטבאל
פוטין
פוטער
פוטש
פויבסט
פויגל
פויגלען
פויזן
פויל
פויליש
פוילישן
פוילישע
פוילישער
פוילן
פוילע
פוילקייט
פוינטס
פויסט
פויער
פויערן
פויק
פויקן
פול
פולווער
פולין
פולן
פולנאה
פולע
פולער
פולקאם
פולקאמע
פולשטענדיג
פון
פונ
פונא
פונג
פונדא
פונדאמענט
פונדאמענטאלע
פונדאסניי
פונדאציע
פונדעסטוועגן
פונדערווייטנס
פונווא
פונט
פונם
פונעם
פונעמ
פונק
פונקט
פונקטליך
פונקטליכע
פונקטלעך
פונקטן
פונקען
פונקציאנירט
פונקציאנירן
פונקציע
פונקציעס
פוס
פוסבאל
פוסגייער
פוסט
פוסק
פוסקים
פועל
פועלי
פועלן
פופציג
פופציק
פופצן
פופצנטער
פופצען
פוקס
פור
פורים
פורת
פושקע
פז
פח
פחד
פחדים
פחדך
פחת
פט
פטור
פטיילונג
פטירה
פטליכע
פטלעך
פטלעכע
פטמא
פטן
פטע
פטער
פטר
פי
פיא
פיאות
פיאניסט
פיאנע
פיאנער
פיאנערן
פיבער
פיגור
פיגורן
פידל
פידלער
פידעל
פיה
פיהל
פיהלט
פיהר
פיהרט
פיהרע
פיהרער
פיו
פיוט
פיוטים
פיזיאלאגיע
פיזיק
פיזיקער
פיזיש
פיזישע
פיזישער
פיט
פיטא
פיטאגאראס
פיטסבורג
פיטער
פיטערבארא
פיי
פייביש
פייגא
פייגל
פייגע
פייגעלע
פייגעלעך
פייוו
פייוויל
פייוויש
פייוול
פייטן
פייכט
פייכטע
פייכטקייט
פייכקייט
פייל
פיילן
פיין
פיינד
פיינט
פייניגן
פיינע
פיינעם
פיינער
פיינשטיין
פייסבוק
פייסל
פייע
פייער
פייערדיגע
פייערדיגער
פייערונג
פייערט
פייערן
פייפן
פייש
פיל
פילא
פילאדעלפיע
פילאזאף
פילאזאפיע
פילאט
פילאטן
פילאנטראפ
פילאסאף
פילאסאפיע
פילאסאפישע
פילאסאפן
פילאפ
פילו
פילט
פיליפ
פיליפינען
פילם
פילמען
פילן
פילע
פילעק
פילפאכיג
פילץ
פילצאליגע
פין
פינא
פינאנץ
פינאנציעל
פינאנציעלע
פינאנציעלער
פינאנצירט
פינאנצירן
פינגער
פינחס
פינט
פינטל
פינטלעך
פינטעלע
פינטער
פינטשלי
פינלא
פינלאנד
פינסטע
פינסטער
פינסטערניס
פינסטערניש
פינסטערע
פינסק
פינעם
פינעף
פינף
פינפט
פינפטן
פינפטע
פינפטער
פינצטער
פינצטערניש
פינצטערע
פינצטערער
פינק
פינקי
פינקל
פיס
פיסטאן
פיסל
פיסלעך
פיע
פיעטרקאוו
פיעל
פיעס
פיער
פיץ
פיצא
פיציר
פיצירן
פיקא
פיקאדילי
פיקטיווע
פיקטיווער
פיקסאר
פיקציע
פיר
פיראמיד
פיראמידן
פירגעשטעלט
פירוד
פירונג
פירונגען
פירוש
פירושים
פירות
פירט
פירמע
פירמעס
פירן
פירנדיג
פירנדע
פירס
פירען
פירענצע
פירער
פירערס
פירערשא
פירערשאפט
פירשט
פירשטן
פיש
פישל
פישן
פישע
פישער
פישעריי
פל
פלא
פלאג
פלאגט
פלאגן
פלאזשע
פלאט
פלאטא
פלאטע
פלאטעס
פלאטערל
פלאטפארמע
פלאך
פלאכן
פלאכע
פלאם
פלאמבינג
פלאמען
פלאן
פלאנדערן
פלאנט
פלאנירונג
פלאנירט
פלאנירטע
פלאנירן
פלאנעט
פלאנעטן
פלאנען
פלאנץ
פלאנצונגען
פלאנצט
פלאנצן
פלאסטיק
פלאץ
פלאצירט
פלאצק
פלארידא
פלארידע
פלאש
פלה
פלוג
פלוטאן
פלוין
פלוינען
פלומעניק
פלוני
פלוס
פלוסט
פלוצים
פלוצלונג
פלוצלינג
פלי
פליאה
פליג
פליגל
פליגלן
פליגלען
פליגן
פליגע
פליגער
פליגערס
פליט
פליטים
פלייט
פלייטס
פלייסיג
פלייער
פלייצעס
פלייש
פליישיקס
פליכט
פליכטן
פלינק
פליסט
פליסיג
פליסיגע
פליסיגקייט
פליסיקייט
פליסן
פליען
פליעס
פליפארט
פליפעלד
פלמ
פלע
פלעג
פלעגט
פלעגן
פלעטבוש
פלעמיש
פלענום
פלענט
פלענטס
פלענער
פלעצער
פלעק
פלעשל
פלעשעל
פלעשער
פלפול
פלשתים
פן
פנ
פנו
פנחס
פני
פניו
פנים
פנימי
פנימיות
פנימער
פנעמען
פנקס
פס
פסגת
פסול
פסוק
פסוקי
פסוקים
פסח
פסחים
פסיכאלאג
פסיכאלאגיע
פסיכאלאגישע
פסיקתא
פסל
פסעוודאנים
פסק
פסקי
פסקים
פסקענט
פע
פעברוא
פעברואר
פעד
פעדעם
פעדעפייל
פעדער
פעדעראלן
פעדעראלע
פעדעראלער
פעדעראציע
פעדערן
פעדרא
פעהלט
פעולה
פעולות
פעט
פעטנס
פעטס
פעטע
פעטער
פעטערבורג
פעטראגראד
פעיסבוק
פעל
פעלד
פעלדהיים
פעלדז
פעלדמאן
פעלדער
פעלז
פעלט
פעלים
פעליקס
פעלן
פעלער
פעלערן
פעלץ
פעלקער
פעלקערונג
פעמים
פען
פענאמען
פענאמענען
פענונג
פענח
פעני
פעניס
פענס
פענסטער
פענסטערס
פענסילוועניע
פענסיע
פענע
פענעם
פענענקו
פענער
פענצטער
פעס
פעסא
פעסט
פעסטגעשטעלט
פעסטונג
פעסטונגען
פעסטיוואל
פעסטיוואלן
פעסטן
פעסטע
פעסטער
פעסטקייט
פעסטשטעלן
פעסיא
פעסיל
פעסל
פעסלעך
פעסער
פעפער
פעקל
פעקלעך
פער
פעראן
פעראנען
פערד
פערדינאנד
פערו
פערז
פערזא
פערזאן
פערזאנען
פערזעליכקייטן
פערזענליך
פערזענליכן
פערזענליכע
פערזענליכער
פערזענליכקייט
פערזענליכקייטן
פערזענלעך
פערזענלעכן
פערזענלעכע
פערזענלעכער
פערזענלעכקייט
פערזענלעכקייטן
פערט
פערטל
פערטן
פערטע
פערטער
פערי
פעריאד
פעריאדישע
פעריאדישער
פעריאדן
פעריאדע
פעריל
פערל
פערלאוו
פערמא
פערסיע
פערסיש
פערסישן
פערסישע
פערסישער
פערספעקטיוו
פערעס
פערציג
פערציק
פערצן
פערצנטער
פערצען
פעשט
פפ
פקודי
פקודיך
פקייט
פר
פרא
פראבירט
פראבירן
פראבלעם
פראבלעמן
פראבלעמען
פראבע
פראבעס
פראג
פראגן
פראגע
פראגעס
פראגער
פראגראם
פראגראמירן
פראגראמען
פראדוצירט
פראדוצירן
פראדוצירער
פראדוקט
פראדוקטן
פראדוקטען
פראדוקציע
פראדוקציעס
פראדיל
פראדעצור
פראדעש
פראהבישט
פראהבישטש
פראווינץ
פראווינציאלע
פראווינצן
פראוועט
פראווען
פראזע
פראטאן
פראטאנען
פראטאקאל
פראטעין
פראטעסט
פראטעסטאנטן
פראטעסטירט
פראטעסטירן
פראטעסטירער
פראטעסטן
פראטעקטאראט
פראיעקט
פראיעקטן
פראכט
פראכטפולע
פראמינענטע
פראמינענטער
פראנט
פראנטן
פראנס
פראנסיס
פראנסיסקא
פראנץ
פראנצויזיש
פראנצויזישן
פראנצויזישע
פראנצויזישער
פראנצויזן
פראנציסקא
פראנק
פראנקפורט
פראנקפורטער
פראנקרייך
פראסט
פראסטע
פראפ
פראפאגאנדע
פראפארציאנעל
פראפארציע
פראפיט
פראפעגאנדע
פראפעסאר
פראפעסארן
פראפעסיאנאלע
פראפעסיאנעלע
פראפעסער
פראפערטי
פראצעדור
פראצעדורן
פראצענט
פראצענטן
פראצעס
פראצעסאר
פראצעסירט
פראצעסן
פראקוראר
פראקטיצירט
פראקטיצירן
פראקטיק
פראקטיש
פראקטישע
פראקלאמירט
פראקלאמירן
פראקציע
פראקציעס
פרדס
פרה
פרו
פרואוו
פרואוון
פרובירט
פרובירן
פרוג
פרוטה
פרוטות
פרוי
פרויד
פרויען
פרוכט
פרוכטן
פרום
פרומא
פרומע
פרומען
פרומער
פרומקייט
פרוש
פרושים
פרחיה
פרט
פרטי
פרטים
פרטית
פרי
פריד
פרידזשידער
פרידלענדער
פרידמאן
פרידמן
פרידן
פרידריך
פריה
פריהע
פריהער
פריוואט
פריוואטיזירט
פריוואטן
פריוואטע
פריוואטער
פריוואטקייט
פריז
פריזן
פריי
פרייד
פריידא
פרייהייט
פרייז
פרייזן
פרייט
פרייטאג
פרייטיג
פרייטיק
פרייליך
פרייליכע
פרייליכער
פרייליכקייט
פריילעך
פריילעכע
פריימערי
פריימעריס
פריינד
פריינט
פריינטליך
פריינטשאפט
פרייס
פרייסן
פרייע
פרייען
פרייער
פרילינג
פרימא
פרימארגן
פרינץ
פרינציפ
פרינציפאליטעט
פרינציפן
פרינצעסין
פריסטיק
פריע
פריעד
פריעדמאן
פריער
פריערדיגן
פריערדיגע
פריערדיגער
פריערדיק
פריערדיקן
פריערדיקע
פריערדיקער
פריערט
פריץ
פרירן
פריש
פרישוואסער
פרישות
פרישטאג
פרישן
פרישע
פרישער
פרנס
פרנסה
פרס
פרע
פרעג
פרעגט
פרעגן
פרעגען
פרעדיגן
פרעדעריק
פרעה
פרעהן
פרעזידענט
פרעזידענטליכע
פרעזידענטן
פרעזידענטשאפט
פרעמד
פרעמדן
פרעמדע
פרעמדער
פרעמיע
פרעמיער
פרעמישלא
פרעמישלאן
פרעמישלאנער
פרענק
פרענקל
פרענקלין
פרעס
פרעסט
פרעסע
פרעש
פרעשבורג
פרעשבורגער
פרץ
פרצוף
פרצופים
פרק
פרקי
פרקים
פרשה
פרשיות
פרשיסחא
פרשת
פרת
פרײ
פשוט
פשוטה
פשוטן
פשוטע
פשוטער
פשט
פשטות
פשטים
פשיסחא
פשעווארסק
פשעווארסקער
פשעמישל
פשרה
פשרות
פתח
פתחי
פױלן
פײ
ץ
צ
צא
צאל
צאלט
צאלן
צאם
צאמגעשטעלט
צאן
צאנז
צאנזער
צאר
צארן
צאת
צב
צבא
צבאות
צבור
צבי
צביה
צג
צד
צדדים
צדוק
צדוקים
צדיק
צדיקי
צדיקים
צדיקת
צדק
צדקה
צדקות
צדקיהו
צדקנו
צה
צהל
צו
צואה
צובא
צובאקומען
צוביסלעך
צובראכן
צובראכענע
צוברעכט
צוברעכן
צוברענגען
צוג
צוגא
צוגאב
צוגאנג
צוגיין
צוגלייך
צוגן
צוגעבונדן
צוגעבונדען
צוגעבינדן
צוגעבן
צוגעברענגט
צוגעגא
צוגעגאנגען
צוגעגעבן
צוגעגרייט
צוגעדעקט
צוגעהא
צוגעהאלפן
צוגעהערט
צוגעהערן
צוגעוואוינט
צוגעזא
צוגעזאגט
צוגעזען
צוגעטיילט
צוגעטרא
צוגעכאפט
צוגעלא
צוגעלאזט
צוגעלייגט
צוגעמא
צוגעמאכט
צוגענומען
צוגעפ
צוגעפא
צוגעפאסט
צוגעצויגן
צוגעקומען
צוגעקוקט
צוגערעדט
צוגעשטא
צוגעשטאנען
צוגעשטימט
צוגעשטעלט
צוגעשיקט
צוגעשלא
צוגעשריבן
צוגרייטונג
צוגרייטן
צודעק
צודעקן
צוה
צוהא
צוהעלפן
צוהערן
צוהערער
צווא
צוואה
צוואנג
צוואנגס
צוואנציג
צוואנציגסטן
צוואנציגסטער
צוואנציק
צווי
צוויבל
צוויטע
צוויטער
צוויי
צווייא
צווייג
צווייגן
צווייגענהאפט
צווייט
צווייטן
צווייטנס
צווייטע
צווייטען
צווייטענס
צווייטער
צווייען
צווילינג
צווינגט
צווינגן
צווינגען
צווישן
צווישנ
צווישנשטעט
צווישע
צווישען
צוועלף
צוועלפטער
צוועק
צוועקן
צוזא
צוזאג
צוזאגן
צוזאם
צוזאמגענומען
צוזאמגעשטעלט
צוזאמן
צוזאמען
צוזאמענגענומען
צוזאמענגעפאלן
צוזאמענגעקומען
צוזאמענגעשטעלט
צוזאמענהאנג
צוזאמענפאל
צוזאמענפלוס
צוזאמענשטעל
צוזאמענשטעלן
צוזאמשטעל
צוזען
צוזעענדיק
צוטא
צוטאג
צוטאגס
צוטאן
צוטיילט
צוטיילן
צוטרוי
צוטריט
צוטרעטן
צויבער
צויי
צוים
צוימען
צולא
צולאכט
צוליב
צוליבן
צולייגן
צוליעב
צולעצט
צום
צומ
צומא
צומאכן
צומאל
צומאלן
צומארגנס
צומישט
צונא
צונאכט
צונאכטס
צונאמי
צונאמען
צונג
צונגען
צונד
צונויף
צונויפ
צונויפגעקומען
צונויפגעשטעלט
צונזער
צוניץ
צונישט
צונעמען
צונױפ
צוע
צוערשט
צופ
צופא
צופאל
צופארן
צופוס
צופיל
צופיס
צופעליק
צופרי
צופרידן
צופרידנהייט
צוצוגרייטן
צוצוקומען
צוצושטעלן
צוציען
צוקא
צוקומען
צוקונפ
צוקונפט
צוקוקן
צוקוקער
צוקלאפט
צוקער
צוקערמאן
צור
צורה
צוריסן
צוריק
צוריקגיין
צוריקגעבן
צוריקגעגאנגען
צוריקגעגעבן
צוריקגעפארן
צוריקגעצויגן
צוריקגעקומען
צוריקגעקערט
צוריקגעשטעלט
צוריקגעשיקט
צוריקהאלטן
צוריקצוהאלטן
צוריקציען
צוריקקומען
צוריקקער
צוריקקערן
צוריקשטעלן
צורירן
צורעדן
צורת
צושויער
צושטא
צושטאנד
צושטיין
צושטימונג
צושטעלן
צושטערט
צושטערן
צושיקן
צושלא
צושפ
צושפרייט
צז
צח
צט
צטע
צי
ציא
ציאונג
ציאונגען
ציאנא
ציב
ציבור
ציבעלע
ציג
ציגא
ציגארעטל
ציגארעטן
ציגיינער
ציגל
ציגלען
ציגן
ציגעלע
צידון
ציהט
ציהל
ציהען
ציוויליזאציע
ציוויליזאציעס
ציווילע
ציווילער
ציון
ציונ
ציונות
ציוני
ציוניזם
ציונים
ציוניסט
ציוניסטישן
ציוניסטישע
ציוניסטישער
ציוניסטן
ציור
ציט
ציטא
ציטירט
ציטירן
ציטער
ציטערט
ציטערן
ציטערניש
ציטרוס
ציי
צייגט
צייגן
צייט
צייטווארט
צייטווייליג
צייטווייליגע
צייטווייליגער
צייטווערטער
צייטונג
צייטונגן
צייטונגען
צייטלין
צייטן
צייטנס
צייטע
צייטען
צייטשריפט
צייכן
צייכנט
צייכנס
צייכענונג
צייכענונגען
צייכענט
צייכענען
ציילונג
ציילט
ציילן
ציין
ציינדלעך
ציינער
ציל
צילט
צילינדער
צילן
צים
צימבלען
צימעס
צימער
צימערל
צימערמאן
צימערן
צימצום
צין
צינד
צינדט
צינדן
צינק
ציס
ציע
ציעט
ציען
ציעס
ציעשינאוו
ציפ
ציפורה
ציפורי
ציפער
ציפערן
ציץ
ציצית
ציק
ציקל
ציקליין
ציר
צירונג
צירוף
צירט
ציריך
צירל
צירן
צירקולאציע
צירקולירט
צירקולירן
צירקוס
צירקע
צישע
צל
צלם
צמח
צן
צניעות
צע
צעביסלעך
צעברא
צעבראכן
צעבראכענע
צעברעכט
צעברעכן
צעגא
צעגיין
צעדערבוים
צעדערן
צעהא
צעהלים
צעהן
צעווא
צעווארפן
צעוויינט
צעטאן
צעטומלט
צעטיילונג
צעטיילט
צעטיילן
צעטל
צעטליך
צעטלעך
צעטלען
צעטרא
צעטרעטן
צעטײלן
צעך
צעל
צעלא
צעלאזט
צעלזיוס
צעלן
צעלסיוס
צעמישט
צעמענט
צען
צענדליגע
צענדליגער
צענדליקע
צענדליקער
צענזוס
צענזור
צענט
צענטל
צענטן
צענטע
צענטער
צענטערן
צענטערס
צענטרא
צענטראל
צענטראלבאנק
צענטראלן
צענטראלע
צענטראלער
צעס
צעסן
צעפ
צעפאלן
צער
צערודערט
צעריסן
צערעמא
צערעמאניע
צערעמאניעס
צערענען
צערעס
צערײ
צעשא
צעשטערונג
צעשטערט
צעשטערן
צעשיידט
צעשיידן
צעשיקונג
צעשפ
צעשפאלטן
צעשפרייט
צעשפרייטן
צפ
צפו
צפון
צפונדיק
צפונדיקן
צפונדיקע
צפונדיקער
צפורה
צפיר
צפניה
צפנת
צפת
צקא
צקע
צר
צרה
צרו
צרות
צרי
צריך
צרים
צרעת
צװא
צװו
צװישן
צװעלף
צװײ
צװײטן
צװײטער
צײ
צײט
צײכן
צײכנס
צײכענען
צײן
ק
קא
קאאליציע
קאאפעראציע
קאארדינאטן
קאבינע
קאבינעט
קאבל
קאברין
קאברינער
קאד
קאדענץ
קאהל
קאהן
קאוד
קאודס
קאוויד
קאוונע
קאוונער
קאווע
קאווקאז
קאונטי
קאונטיס
קאונסיל
קאזאכסטאן
קאזאקן
קאזמיר
קאזשניץ
קאזשניצער
קאטאלאניע
קאטאליקן
קאטאסטראפע
קאטאר
קאטוילישע
קאטוילישער
קאטלער
קאטעגאריע
קאטעגאריעס
קאטפארד
קאידא
קאידע
קאך
קאכט
קאכן
קאל
קאלאמבוס
קאלאמביע
קאלאמיי
קאלאמייע
קאלאניסטן
קאלאניע
קאלאניעס
קאלאראדא
קאלאריס
קאלאשיץ
קאלב
קאלבאסאוו
קאלוב
קאלוואריע
קאלום
קאלומבוס
קאלומביע
קאלומניסט
קאלוש
קאלט
קאלטן
קאלטע
קאלטער
קאליום
קאלין
קאלינג
קאליסקער
קאליע
קאליפארניע
קאליר
קאלירט
קאלירטע
קאלירן
קאליש
קאלס
קאלע
קאלעדזש
קאלעוו
קאלעווער
קאלעזש
קאלענדאר
קאלענדער
קאלעקציע
קאלציום
קאלקולוס
קאם
קאמא
קאמאן
קאמאנד
קאמאנדא
קאמאנדיר
קאמאנוועלט
קאמאנס
קאמארנא
קאמארנער
קאמבאדיע
קאמבינאציע
קאמדן
קאמוניזם
קאמוניסט
קאמוניסטיש
קאמוניסטישן
קאמוניסטישע
קאמוניסטישער
קאמוניסטן
קאמוניקאציע
קאמיוניטי
קאמיוניקאציע
קאמיוניקירן
קאמיטע
קאמיטעט
קאמיל
קאמינעצקי
קאמינקא
קאמיסיע
קאמיקס
קאמיקער
קאמישע
קאמישער
קאמעדיע
קאמעניץ
קאמער
קאמעראן
קאמעראס
קאמערון
קאמערן
קאמערע
קאמערעס
קאמערץ
קאמערציאלע
קאמף
קאמפ
קאמפאזיטאר
קאמפאזיטארן
קאמפאזיציע
קאמפאזיציעס
קאמפאזירט
קאמפאני
קאמפאניס
קאמפאנענטן
קאמפוס
קאמפיוטער
קאמפיוטעריי
קאמפיוטערס
קאמפיין
קאמפיינען
קאמפליצירט
קאמפליצירטע
קאמפלעקס
קאמפלעקסע
קאמפן
קאמפס
קאמפענסאציע
קאמפף
קאן
קאנאדא
קאנאדישע
קאנאדישער
קאנאדע
קאנאדער
קאנאל
קאנאלן
קאנאן
קאנג
קאנגא
קאנגרעס
קאנגרעסמאן
קאנדידאט
קאנדידאטן
קאנדידירט
קאנוויאר
קאנווענשאן
קאנווענשאנס
קאנט
קאנטאן
קאנטאקט
קאנטינענט
קאנטינענטן
קאנטיס
קאנטע
קאנטעקסט
קאנטער
קאנטערטעראריזם
קאנטראווערסיאלע
קאנטראווערסיע
קאנטראל
קאנטראלירט
קאנטראלירן
קאנטראסט
קאנטראקט
קאנטראקטן
קאנטרי
קאני
קאניאק
קאניוגאציעס
קאנינג
קאניעווסקי
קאנסאל
קאנסאנאנט
קאנסאנאנטן
קאנסול
קאנסומער
קאנסטאנטין
קאנסטיטוציע
קאנסטרוקציע
קאנסענסוס
קאנסעפסיאן
קאנסערוואטיוו
קאנסערוואטיוון
קאנסערוואטיווע
קאנסערוואטיווער
קאנסערוועטיוו
קאנסערוועטיווער
קאנעטיקוט
קאנעטיקעט
קאנען
קאנעקט
קאנער
קאנערי
קאנפארענץ
קאנפליקט
קאנפליקטן
קאנפערענץ
קאנפערענצן
קאנצלער
קאנצעטרירט
קאנצענטראציע
קאנצענטרירט
קאנצעסיע
קאנצעפט
קאנצערט
קאנצערטן
קאנקורירן
קאנקורענט
קאנקורענץ
קאסאוו
קאסאווער
קאסאן
קאסאנער
קאסוב
קאסט
קאסטא
קאסטומס
קאסטומער
קאסטומערס
קאסטיליע
קאסטן
קאסטנער
קאסטקא
קאסטרא
קאסינאס
קאסמאס
קאסע
קאסעוויצקי
קאסעטע
קאסעטעס
קאספישן
קאפ
קאפי
קאפיטאל
קאפיטאליזם
קאפיטאליסטישע
קאפיטאן
קאפיטל
קאפיטלעך
קאפיטלען
קאפיטשניץ
קאפיל
קאפיס
קאפיעס
קאפירן
קאפל
קאפלאן
קאפלמאן
קאפע
קאפעין
קאפעליע
קאפעלע
קאפערניק
קאפף
קאץ
קאצעט
קאצק
קאצקער
קאקא
קאקאא
קאקטעיל
קאקפאסטערס
קאר
קאראבטשעווסקי
קאראל
קאראליינע
קאראנאווירוס
קאראס
קארבאהידראטן
קארבאן
קארבן
קארגא
קארגע
קארגער
קארד
קארדאבע
קארדיף
קארדס
קארו
קארופציע
קארט
קארטא
קארטאפל
קארטל
קארטלעך
קארטן
קארטעס
קארטער
קארטשין
קארידאר
קאריסטשאוו
קאריערע
קאריץ
קאריצער
קארל
קארליבאך
קארלין
קארלינער
קארליק
קארלסבורג
קארן
קארנוואל
קארניצער
קארניש
קארנער
קארנרייך
קארס
קארסיקע
קארעא
קארעליץ
קארעע
קארפאטארוס
קארפאטן
קארפאראציע
קאשוי
קאשויער
קאשמיר
קאשע
קב
קבוצה
קבורה
קביעות
קבל
קבלה
קבלות
קבלת
קבצן
קבצנים
קבר
קברי
קברים
קג
קגע
קד
קדוש
קדושה
קדושות
קדושים
קדושת
קדימה
קדיש
קדישא
קדמון
קדש
קדשו
קדשי
קדשים
קדשך
קדשנו
קה
קהא
קהילה
קהילות
קהילת
קהל
קהלה
קהלות
קהלת
קו
קוא
קואווייט
קוב
קובא
קובי
קובע
קובץ
קובר
קוגל
קודם
קודש
קודשא
קוה
קווא
קוואדראט
קוואדראטישע
קוואדראטצאל
קוואל
קוואליטעט
קוואלן
קוואנטום
קוואנטיטעט
קוואנטיטעטן
קוואנטן
קווארטאל
קווארטין
קווארטיר
קווארטל
קוויבעק
קוויבעקער
קוויטל
קוויטלעך
קוויטקא
קווין
קווינס
קוועטש
קוועטשט
קוועלער
קוועקזילבער
קוזין
קוזינע
קויל
קוילן
קוילנשטאף
קוים
קוימען
קויף
קויפ
קויפט
קויפמאן
קויפן
קויפען
קויפער
קוישל
קוכן
קול
קולא
קולבא
קולות
קולט
קולטור
קולטוראלע
קולטורן
קולטורעלע
קולטורעלער
קולטיווירט
קולטעט
קום
קומה
קומט
קומין
קוממיות
קומן
קומסט
קומסטו
קומען
קומענ
קומענדיג
קומענדיגן
קומענדיגע
קומענדיק
קומענדיקן
קומענדיקע
קומענדיקער
קומענט
קומענטן
קומער
קונדן
קונה
קונטרס
קונטרסים
קונים
קונסט
קונסטן
קונץ
קונצן
קוס
קופ
קופער
קופערנע
קופת
קוק
קוקורוזע
קוקט
קוקן
קוקנדיק
קוקען
קורא
קוראזש
קורארט
קורבן
קורדיש
קורדן
קורט
קורלא
קורלענדער
קורס
קורסן
קורץ
קורצן
קורצע
קורצער
קוש
קושט
קושטא
קושן
קושנער
קז
קזא
קח
קט
קטא
קטאר
קטו
קטוירים
קטורת
קטז
קטיא
קטיוו
קטיוויטעטן
קטיוויסט
קטיווע
קטיף
קטיק
קטיש
קטלא
קטן
קטנה
קטנות
קטניות
קטע
קטער
קטערן
קטריסע
קי
קיא
קיב
קיבול
קיבוץ
קיבוצים
קיג
קיד
קידוש
קידושין
קיו
קיוויאשדער
קיום
קיז
קיח
קיט
קיטוב
קיטל
קיטלען
קיי
קייאמישע
קייזער
קייט
קייטל
קייטן
קיילעך
קיין
קיינ
קיינמא
קיינמאהל
קיינמאל
קיינע
קיינעם
קיינעמס
קיינער
קייסער
קיירא
קיך
קיכל
קיכן
קיל
קילא
קילאגראם
קילאמעטער
קילבערן
קילט
קילן
קילער
קים
קין
קינא
קינאה
קינג
קינגן
קינגס
קינגסטאן
קינד
קינדהייט
קינדווייז
קינדליין
קינדס
קינדע
קינדער
קינדערגארטן
קינדערהיים
קינדערישע
קינדערלעך
קינדערס
קינדערשע
קינדר
קינות
קיניג
קיניגל
קיניגן
קיניגרײ
קינס
קינסטלער
קינסטלערישע
קינסטלערישער
קינסטלערס
קיסטא
קיסקא
קיסר
קיעוו
קיעווער
קיץ
קיצור
קירא
קירגיזסטאן
קירוב
קירט
קירי
קירך
קירכע
קירכעס
קירן
קירצער
קישן
קישקע
קישקעס
קכ
קכא
קכב
קכג
קכד
קכה
קכו
קכז
קכח
קכט
קל
קלא
קלאב
קלאגט
קלאגן
קלאגע
קלאגעס
קלאוויאטור
קלאמערן
קלאנג
קלאנגען
קלאס
קלאסיפיקאציע
קלאסישע
קלאסישער
קלאסן
קלאסנא
קלאפ
קלאפהאם
קלאפט
קלאפן
קלאר
קלארא
קלארן
קלארע
קלארער
קלארק
קלארקייט
קלב
קלג
קלד
קלה
קלו
קלוב
קלוג
קלוגן
קלוגע
קלוגער
קלוגשא
קלוגשאפט
קלויבט
קלויבן
קלויז
קלויזנבורג
קלויזנבורגער
קלויזענבורג
קלויזענבורגער
קלויסטער
קלונימוס
קלז
קלח
קלט
קלי
קליגער
קליוולאנד
קלייבט
קלייבן
קלייד
קליידונג
קליידל
קליידע
קליידער
קלייט
קלייטן
קליין
קליינווארדיין
קלייניגקייט
קלייניקייט
קלייניקייטן
קליינמאן
קליינע
קליינעם
קליינער
קלימא
קלימאט
קלימאטן
קלימאקס
קלינגט
קלינגען
קלינטאן
קליענט
קליענטן
קליפ
קליפס
קללה
קללות
קלמיש
קלמן
קלע
קלעזמער
קלעם
קלען
קלענסטן
קלענסטע
קלענסטער
קלענער
קלענערן
קלענערע
קלענערער
קלעפ
קלעצער
קלעצקין
קלעקן
קלער
קלערט
קלערן
קלײ
קלײד
קלײדער
קלײן
קלײנע
קמ
קמא
קמב
קמג
קמד
קמה
קמו
קמז
קמח
קמט
קמיעות
קמץ
קן
קנ
קנא
קנאבל
קנאה
קנאות
קנאי
קנאים
קנאפע
קנה
קנופ
קנז
קנט
קני
קניא
קניה
קנייטשן
קנין
קניען
קניפ
קנס
קנע
קנעטן
קנעכט
קנעכטשא
קנעכטשאפט
קנעפ
קנעפל
קנעפלעך
קס
קסא
קסו
קסט
קסישע
קסל
קסלען
קסן
קסע
קסעלרא
קסענע
קסער
קספא
קע
קעא
קעג
קעגן
קעגנאיבער
קעגנגעשטעלט
קעגנווא
קעגנזאץ
קעגנער
קעגנערס
קעגנערשאפט
קעגנשטעל
קעגנשטעלן
קעגען
קעגענער
קעד
קעווין
קעז
קעט
קעטן
קעטסקיל
קעטסקילס
קעטע
קעטקײט
קעי
קעיס
קעיר
קעכערין
קעל
קעלבל
קעלבער
קעלווין
קעלט
קעלטער
קעלי
קעלם
קעלן
קעלער
קעלץ
קעמברידזש
קעמברידזשיר
קעמל
קעמלען
קעמערלעך
קעמפ
קעמפט
קעמפן
קעמפס
קעמפער
קען
קענ
קענזינגטאן
קענזעס
קענט
קענטאקי
קענטיש
קענטעניש
קענטענישן
קעניג
קעניגין
קעניגליכע
קעניגלעכן
קעניגלעכע
קעניגלעכער
קעניגן
קעניגסבערג
קעניגרייך
קעניגרייכן
קעניע
קענן
קענסט
קענסטו
קענסער
קענע
קענעדי
קענען
קענענ
קענענדיג
קענער
קעס
קעסט
קעסטל
קעסטלעך
קעסל
קעפ
קעפל
קעפלער
קעץ
קעצעלע
קער
קערא
קערט
קערי
קערל
קערלער
קערן
קערנדל
קערנדלעך
קערעווען
קערעסטיר
קערעסטירער
קערער
קערפ
קערפער
קערפערס
קערפערשאפט
קעש
קעשענע
קעשענעוו
קעשענעס
קפ
קפט
קץ
קצ
קצב
קצבים
קצות
קצח
קציע
קציעס
קציר
קצענט
קר
קרא
קראאטיע
קראאטיש
קראון
קראים
קראך
קראכט
קראלי
קראמאטי
קראמוועל
קראן
קראנק
קראנקהייט
קראנקהייטן
קראנקייט
קראנקייטן
קראנקן
קראנקע
קראנקען
קראנקער
קראס
קראפ
קראפט
קראפטן
קראצער
קראקא
קראקסלי
קראקע
קראקעווער
קרב
קרבן
קרבנות
קרו
קרוב
קרובים
קרוג
קרוז
קרוידן
קרויז
קרוין
קרוינהייטס
קרוינען
קרויס
קרום
קרומע
קרח
קרחה
קרי
קריאה
קריאת
קריג
קריגט
קריגל
קריגן
קריגס
קריגען
קריגעריי
קריגערייען
קריה
קריות
קריזיס
קריטיק
קריטיקירט
קריטיקירן
קריטיקירער
קריטיקער
קריטיש
קריטישע
קריי
קרייז
קרייזן
קרייזער
קריינצי
קרייסלער
קרייץ
קרייצבאן
קרייצצוג
קריית
קריכט
קריכן
קרים
קרימינאלן
קרימינאלע
קרימער
קריס
קריסט
קריסטא
קריסטאל
קריסטאפער
קריסטיאן
קריסטליכן
קריסטליכע
קריסטליכער
קריסטלעכע
קריסטלעכער
קריסטן
קריסטנטום
קריסטען
קריעה
קריעת
קריפ
קריצן
קרית
קרן
קרעדיט
קרעדיטארס
קרעטשמע
קרעטשמער
קרעטשניף
קרעטשענעוו
קרעטשענעווער
קרעכץ
קרעכצן
קרעמניץ
קרעמער
קרעניץ
קרענק
קרעפ
קרעפט
קרעפטן
קרעפס
קרקע
קרתא
קרױן
קרײ
קשא
קשאנאוו
קשאנאווער
קשה
קשות
קשיא
קשיה
קשיות
קשר
קשרים
קװא
קױלן
קױפ
קײ
קײטן
קײן
קײנער
ר
רא
ראב
ראבאט
ראביי
ראבין
ראבינאוויטש
ראבינאוויץ
ראבינאט
ראבינער
ראבערט
ראג
ראד
ראדאמישל
ראדאמסק
ראדאמסקער
ראדאשיץ
ראדוויל
ראדזין
ראדזינער
ראדזשער
ראדיא
ראדיאו
ראדיאציע
ראדיוס
ראדין
ראדיקאלע
ראדני
ראדעם
ראה
ראו
ראובן
ראוד
ראודס
ראוויץ
ראוונע
ראוונער
ראוי
ראויס
ראומרײניקט
ראזוואדאוו
ראזוואדאווער
ראזלא
ראזנבוים
ראזנבלאט
ראזנבערג
ראזנפעלד
ראזע
ראזענבוים
ראזענבלאט
ראזענבלום
ראזענבערג
ראזענפעלד
ראזענקראנץ
ראזשינקעס
ראזשישטש
ראט
ראטאציע
ראטגעבער
ראטה
ראטטענבערג
ראטן
ראטנבערג
ראטנפארבאנד
ראטע
ראטעוועט
ראטעווען
ראטענבערג
ראטעס
ראטערדאם
ראטשילד
ראי
ראיאט
ראיאטן
ראיאטען
ראיאן
ראיאנען
ראיאנראט
ראיה
ראיות
ראייניגטע
ראייניקט
ראייניקטע
ראינטערעסירט
ראינטערעסירטע
ראיעל
ראיתי
ראך
ראכט
ראל
ראלי
ראלע
ראלעס
ראם
ראמא
ראמאן
ראמאניסט
ראמאנען
ראמאעלד
ראמידיוס
ראמעא
ראמעל
ראמען
ראמעניע
ראן
ראנאלד
ראנג
ראנד
ראס
ראסיזם
ראסע
ראפ
ראפאפארט
ראפשיץ
ראפשיצער
ראציאנאלע
ראצפערט
ראק
ראקי
ראקלענד
ראקעט
ראקעטן
ראש
ראשו
ראשון
ראשונה
ראשונים
ראשי
ראשית
ראשקאוו
ראײניקטע
רב
רבא
רבה
רבו
רבונדן
רבונו
רבות
רבותי
רבותינו
רבט
רבי
רביה
רביטן
רביי
רביים
רבים
רבין
רבינ
רבינדונג
רבינדונגען
רבינדן
רבינו
רבינס
רביס
רביסטעווע
רביעי
רביצין
רבישע
רבל
רבלא
רבליבן
רבלייבן
רבן
רבנו
רבנות
רבני
רבנים
רבנישע
רבנישער
רבנן
רבס
רבסט
רבע
רבעט
רבעטלא
רבעטן
רבעטער
רבענע
רבעס
רבער
רבקה
רברא
רברעך
רברעכן
רברעכנס
רברעכער
רברענגען
רברענט
רברענען
רבש
רבתי
רבײ
רג
רגא
רגום
רגט
רגייט
רגינען
רגיסן
רגל
רגלי
רגליווערט
רגלים
רגלעטן
רגלײ
רגן
רגנ
רגנס
רגע
רגעבן
רגעדענקט
רגעזעצט
רגעים
רגעלייגט
רגעניגן
רגעניש
רגענע
רגעס
רגעסט
רגעסן
רגעקומען
רגער
רגעשטעלט
רגרייט
רגרינגערן
רגײט
רד
רדא
רדזש
רדיגע
רדינט
רדינסט
רדינסטן
רדינען
רדיפות
רדן
רדנט
רדס
רדע
רדעט
רדען
רדענונג
רדעקט
רדעקן
רדער
רדרא
רדרוס
רדרייט
רה
רהא
רהונדערט
רהם
רהמען
רהן
רהע
רהױלן
רו
רואה
רואווט
רואוון
רואיג
רואיגע
רואיק
רואיקט
רואיקן
רוב
רובאשקין
רובט
רובין
רובינשטיין
רובירט
רובירן
רובל
רובע
רובעל
רודאלף
רודי
רודניק
רודניקער
רודער
רודף
רודפ
רוה
רוהט
רוהיג
רוהר
רווא
רוואונדערט
רווו
רווחים
רוויי
רווע
רוועס
רווערטס
רוז
רוזעוועלט
רוזשין
רוזשינער
רוח
רוחות
רוחמה
רוחני
רוחניות
רוט
רוטה
רוטע
רוטעס
רוי
רויב
רויבן
רויבער
רויבעריי
רויז
רויזא
רויזי
רויזן
רויט
רויטלעך
רויטמאן
רויטן
רויטע
רויטער
רויטערס
רויך
רויכערן
רויכערער
רוים
רוימישן
רוימישע
רוימישער
רוימען
רוימער
רויס
רויסבא
רויסברענגען
רויסגא
רויסגיין
רויסגייענדיק
רויסגע
רויסגעבן
רויסגעבער
רויסגעברא
רויסגעגא
רויסגעגעבן
רויסגעווא
רויסגעוויזן
רויסגעזא
רויסגעזען
רויסגעטרא
רויסגעכא
רויסגעלא
רויסגענומען
רויסגעפ
רויסגעפא
רויסגעצויגן
רויסגעקומען
רויסגעקוקט
רויסגערופ
רויסגערופן
רויסגערוקט
רויסגעריסן
רויסגערעדט
רויסגעשטעלט
רויסגעשיקט
רויסווא
רויסווייזן
רויסזא
רויסטרא
רויסטרייבן
רויסטרעטן
רויסלא
רויספ
רויסצוגיין
רויסצוגעבן
רויסציען
רויסקומען
רויסרופן
רויע
רויעך
רויען
רויף
רויפ
רויפגיין
רוירן
רוירענע
רויש
רוך
רוכט
רוכפ
רוכת
רום
רומא
רומגעגא
רומגענומען
רומגעקוקט
רומגערינגלט
רומז
רומיקע
רוממה
רומע
רומען
רומעניע
רומעניש
רומענישן
רומענישע
רומענישער
רומער
רומפא
רון
רונג
רונגען
רונד
רונדל
רונדע
רונטער
רוני
רוס
רוסא
רוסיש
רוסישן
רוסישע
רוסישער
רוסלא
רוסלאנד
רוסלענדישע
רוסלענדישער
רוסן
רועה
רועים
רוען
רוף
רופ
רופא
רופט
רופן
רופען
רוצח
רוצחים
רוק
רוקח
רוקט
רוקן
רוש
רושם
רות
רז
רזא
רזיכטיק
רזיכערט
רזיכערן
רזינדיקט
רזיצער
רזע
רזעצט
רזעצן
רח
רחבעם
רחוב
רחובות
רחום
רחוקים
רחידושט
רחל
רחלען
רחם
רחמה
רחמי
רחמים
רחמיסטריווקא
רחמיסטריווקער
רחמנא
רחמנות
רט
רטא
רטה
רטומים
רטז
רטי
רטיג
רטיגע
רטיזא
רטיי
רטייען
רטיליקט
רטיליקן
רטים
רטיק
רטיקט
רטיקל
רטיקלען
רטיקן
רטיקע
רטיקער
רטיקײט
רטיר
רטירט
רטל
רטלעך
רטן
רטנדיק
רטע
רטער
רטקע
רטרא
רטרויען
רטריב
רטריבן
רטריבענע
רטריקנט
רטרעט
רטרעטן
רטרעטער
רטרײ
רטשעפ
רטײ
רי
ריא
ריאל
ריב
ריבאטוטש
ריבית
ריבניץ
ריבענטראפ
ריבער
ריבערגעגא
ריבערגעפא
ריבערגעשפ
ריבערגײן
ריגא
ריגינא
ריגינעל
ריגל
ריגליץ
ריגלען
ריגע
ריד
רידא
רידן
ריוו
ריווא
ריווח
ריווילעגיע
ריוולין
ריווע
ריווען
ריווער
ריווערדעיל
ריופ
ריז
ריזא
ריזיגן
ריזיגע
ריזיגער
ריזינער
ריזיקע
ריזן
ריזער
ריח
ריחות
ריטלעך
ריטעט
ריטעיל
ריטעם
ריטער
ריטשא
ריטשארד
ריטשמאנד
ריי
רייבן
רייבערייען
רייגען
רייד
ריידן
ריידען
רייז
רייזיל
רייזל
רייזן
רייזע
רייזען
רייזעס
רייט
רייטן
רייטע
רייטער
רייך
רייכטום
רייכן
רייכסגעלט
רייכסטא
רייכסטאג
רייכסטע
רייכסטער
רייכע
רייכער
רייכערן
רייכקייט
ריילעך
ריין
ריינ
ריינבא
ריינגא
ריינגט
ריינגיין
ריינגע
ריינגעברא
ריינגעגא
ריינגעוואשן
ריינגעטרא
ריינגעכא
ריינגעלא
ריינגעלייגט
ריינגעמישט
ריינגען
ריינגעפ
ריינגעפא
ריינגעקומען
ריינגעקוקט
ריינגערעכנט
ריינגעשטעלט
ריינהאם
ריינווא
רייניגט
רייניגן
רייניקטע
רייניקן
ריינכא
ריינלא
ריינלייגן
ריינמאן
ריינע
ריינעם
ריינער
ריינקומען
ריינקומענדיק
ריינקוקן
ריינקייט
ריינשטעלן
רייס
רייסט
רייסליפ
רייסן
רייע
רייען
רייף
רייפן
רייץ
רייצא
רייצן
ריישא
ריישע
ריישער
ריכווא
ריכווערטער
ריכט
ריכטונג
ריכטונגען
ריכטיג
ריכטיגן
ריכטיגע
ריכטיגער
ריכטיק
ריכטיקן
ריכטיקע
ריכטיקער
ריכטן
ריכטעט
ריכטער
ריל
ריליא
רילינג
רים
רימ
רימא
רימאן
רימאנאוו
רימונג
רימט
רימטע
רימטער
רימע
רימען
רימער
רין
רינא
רינג
רינגט
רינגל
רינגלט
רינגלען
רינגס
רינגען
רינד
רינדער
רינט
רינען
רינץ
רינציפ
רינצעסין
ריס
ריסט
ריסטא
ריסטן
ריסטער
ריסע
ריע
ריעל
ריעס
ריער
ריערדיקן
ריערדיקע
ריערע
ריף
ריפ
ריפן
ריץ
ריצט
ריצים
ריצישע
ריק
ריקא
ריקי
ריקל
ריקן
ריקע
ריקער
ריקצוג
ריר
רירט
רירן
ריש
רישא
רישן
רישע
רישער
רישקי
רישקייט
רך
רכ
רכא
רכט
רכטיגקייט
רכטיק
רכטיקייט
רכטיקע
רכטן
רכיוו
רכילות
רכן
רל
רלא
רלוירן
רלוירנקייט
רלוירע
רלוירענע
רלז
רלי
רליבט
רליי
רלייגן
רלין
רלירט
רלירן
רלס
רלענגערן
רלענדט
רלענדן
רם
רמ
רמא
רמב
רמה
רמון
רמות
רמז
רמזים
רמח
רמט
רמי
רמיטל
רמיטלס
רמיטן
רמיי
רמלה
רמע
רמעג
רמעגלעכע
רמעגן
רמען
רמעס
רמת
רמײ
רן
רנ
רנא
רנדיק
רנומען
רנח
רנט
רני
רניט
רניע
רנישט
רנס
רנסה
רנע
רנעם
רנעמט
רנעמען
רס
רסא
רסג
רסקי
רע
רעא
רעאגירט
רעאגירן
רעאישע
רעאליטעט
רעאלע
רעאקציע
רעאקציעס
רעב
רעביסטעווע
רעביצין
רעביצען
רעבעלן
רעבעצין
רעג
רעגולאציעס
רעגולירט
רעגולירן
רעגולער
רעגולערע
רעגט
רעגיא
רעגיי
רעגיסטרירט
רעגירונג
רעגירונגן
רעגירונגס
רעגירונגען
רעגירט
רעגירן
רעגן
רעגנבויגן
רעגנט
רעגנס
רעגענט
רעגענען
רעד
רעדא
רעדאגירט
רעדאקטאר
רעדאקטירט
רעדאקטער
רעדאקציע
רעדברידזש
רעדוצירט
רעדוצירן
רעדט
רעדינג
רעדל
רעדלעך
רעדן
רעדנדיגע
רעדנדיקע
רעדנדע
רעדנער
רעדסטו
רעדע
רעדען
רעדעס
רעדער
רעדערס
רעה
רעהו
רעהן
רעהס
רעוא
רעווא
רעוואלוציאנער
רעוואלוציע
רעוואלט
רעוואלטירן
רעוויאו
רעוועט
רעות
רעזא
רעזאלוציע
רעזארט
רעזולטא
רעזולטאט
רעזולטאטן
רעזיגנאציע
רעזיגנירט
רעזיגנירן
רעזידענט
רעזעגנירט
רעזענטירט
רעזערוו
רעזערוואר
רעזערוון
רעזשים
רעזשימען
רעזשיסאר
רעזשיסירט
רעט
רעטא
רעטונג
רעטונגס
רעטינע
רעטן
רעטעך
רעטעניש
רעי
רעיא
רעיגן
רעיגען
רעיון
רעיונות
רעילראוד
רעים
רעך
רעכט
רעכטיקט
רעכטן
רעכטס
רעכטע
רעכטער
רעכטפ
רעכיל
רעכן
רעכנט
רעכנען
רעכענונג
רעכענט
רעכענען
רעכער
רעלאטיוו
רעלאטיוויטעט
רעליגיע
רעליגיעז
רעליגיעזן
רעליגיעזע
רעליגיעזער
רעליגיעס
רעלסן
רעלע
רעם
רעמ
רעמא
רעמאוט
רעמד
רעמדן
רעמדע
רעמדער
רעמט
רעמיע
רעמיער
רעמס
רעמע
רעמעדי
רעמעלייט
רעמען
רעמער
רעמקייט
רען
רענא
רענדא
רענדיקט
רענדיקן
רענדעל
רענט
רענטגען
רענטפ
רענטפערט
רענן
רעננה
רענע
רענעם
רענען
רענעסאנס
רענער
רעס
רעסורסן
רעסט
רעסטא
רעסטאראן
רעסטוראנט
רעסטוראנטן
רעסטירט
רעסן
רעסע
רעסעסיע
רעספ
רעספעקט
רעפ
רעפא
רעפארט
רעפארטער
רעפארם
רעפארמירט
רעפארמען
רעפארמער
רעפובליק
רעפובליקאנער
רעפובליקן
רעפוטאציע
רעפנטלעכט
רעפערענדום
רעפראדוקציע
רעפרעזענטירט
רעפרעזענטירן
רעץ
רעצעפ
רעצעפט
רעצעפטן
רעקא
רעקאמענדירט
רעקארד
רעקארדירונג
רעקארדירט
רעקארדירן
רעקארדירער
רעקארדס
רעקל
רעקלא
רעקלאמעס
רער
רערלעך
רערן
רעש
רעשט
רעשטלעך
רף
רפ
רפא
רפאל
רפו
רפואה
רפואות
רפט
רפירט
רפירן
רפן
רפע
רפער
רץ
רצ
רצא
רצה
רצו
רצוא
רצון
רצוקן
רצט
רציחה
רציחות
רצייכנט
רציע
רציק
רציקע
רצל
רצלען
רצמא
רצן
רצע
רצער
רצערט
רצערן
רצײ
רק
רקא
רקויף
רקויפ
רקויפט
רקויפן
רקומען
רקט
רקייט
רקיש
רקישן
רקלע
רקן
רקס
רקסטע
רקע
רקער
רקערט
רקערן
רקױפ
רקײט
ררא
ררוקט
רריכטן
ררע
ררעכנט
רש
רשא
רשב
רשה
רשו
רשווא
רשוואונדן
רשווינדן
רשוין
רשוינען
רשונג
רשונגען
רשות
רשט
רשטא
רשטיי
רשטייט
רשטיין
רשטייען
רשטייענדיק
רשטייער
רשטייערס
רשטע
רשטעלונג
רשטעלונגען
רשטעלט
רשטעלן
רשטענדלעך
רשטעקט
רשטערט
רשטערן
רשטױסן
רשטײט
רשטײן
רשי
רשידן
רשידענע
רשיידן
רשיידענע
רשימה
רשיקט
רשלא
רשמא
רשן
רשניטן
רשנײ
רשע
רשעווער
רשעות
רשעי
רשעים
רשעמט
רשען
רשער
רשפ
רשריב
רשריבן
רשװעכט
רשײ
רשײדענע
רת
רװא
רװיסט
רװיסטן
רװעלקט
רױ
רױב
רױבן
רױך
רױס
רױסגעגא
רױסגעלא
רױסגענומען
רױסגעפ
רױסגעצױגן
רױסגעשיקט
רױסגײן
רױסלא
רױסצי
רױף
רױפ
רײ
רײד
רײט
רײטן
רײלעך
רײן
רײניקן
רײנע
רײנעם
רײען
ש
שא
שאגאל
שאד
שאדן
שאדנס
שאו
שאול
שאט
שאטל
שאטלאנד
שאטן
שאין
שאינו
שאך
שאכטל
שאכטלעך
שאכשפיל
שאל
שאלה
שאלות
שאלעכץ
שאלת
שאמר
שאן
שאנד
שאנדע
שאני
שאנכאי
שאנכיי
שאנס
שאנסן
שאסיי
שאסייען
שאף
שאפ
שאפונג
שאפט
שאפינג
שאפן
שאפנהויער
שאפע
שאפען
שאפער
שאפראן
שאץ
שאצט
שאצן
שאצער
שאק
שאקאלאד
שאקירט
שאקלט
שאקלען
שאר
שארית
שארל
שארף
שארפן
שארפע
שארפער
שארר
שאת
שב
שבא
שבו
שבוע
שבועה
שבועות
שבות
שבח
שבחי
שבחים
שבט
שבטי
שבטים
שבין
שביעי
שביעית
שבירת
שבכל
שבכתב
שבע
שבעה
שבעים
שבעל
שבער
שבערן
שבערס
שבעת
שברים
שבשמים
שבת
שבתדיקן
שבתדיקע
שבתי
שבתים
שד
שדה
שדוד
שדוך
שדי
שדים
שדכן
שדרות
שה
שהוא
שהחיינו
שהיא
שהיה
שהיו
שהכל
שהם
שו
שוא
שואה
שואל
שוב
שובה
שובערט
שוה
שוהל
שוהלן
שווא
שוואב
שוואגער
שוואגערס
שוואך
שוואכן
שוואכע
שוואכער
שוואכערע
שוואכקייט
שוואמען
שוואנגערן
שווארץ
שווארצן
שווארצע
שווארצער
שווי
שוויגער
שוויי
שווייג
שווייגט
שווייגן
שווייגנדיק
שווייגנדיקער
שווייס
שווייץ
שווייצער
שווים
שווימט
שווימען
שווימער
שווינדל
שווינדלער
שווינדלערייען
שוויץ
שוויצן
שווע
שוועבל
שוועבן
שוועבעלעך
שוועגערין
שוועדיש
שוועדישן
שוועדישע
שוועדישער
שוועדן
שוועל
שוועלן
שוועמל
שוועסטער
שוועסטערס
שוועקי
שווער
שווערד
שווערדן
שווערט
שוועריגקייטן
שווערין
שוועריקי
שוועריקייט
שוועריקייטן
שווערן
שווערס
שווערסטע
שווערע
שווערער
שוחד
שוחט
שוחטים
שוט
שוטה
שוטע
שוטער
שוי
שויבן
שוידערליכע
שוים
שוין
שוינ
שויס
שוישפיל
שוישפילער
שויתי
שוך
שול
שולד
שולדיג
שולדיק
שולדיקט
שולדיקן
שולדיקער
שולחן
שולט
שולמא
שולמית
שולן
שולע
שולעס
שום
שומע
שומער
שומר
שומרון
שומרי
שומרים
שונא
שונאי
שונאים
שונג
שונים
שוסטער
שוע
שופ
שופט
שופטים
שופר
שופרות
שוץ
שור
שורה
שורות
שורש
שושן
שושנה
שושנת
שות
שותף
שותפות
שותפים
שחוק
שחור
שחורה
שחט
שחיטה
שחרית
שט
שטא
שטאב
שטאדט
שטאט
שטאטישן
שטאטישע
שטאטישער
שטאטן
שטאטס
שטאטראט
שטאל
שטאלץ
שטאם
שטאמט
שטאמען
שטאנד
שטאנדפונקט
שטאף
שטאפל
שטאפלן
שטאפלען
שטאק
שטאקהאלם
שטאקן
שטארבט
שטארבן
שטארבען
שטארק
שטארקט
שטארקייט
שטארקן
שטארקע
שטארקער
שטו
שטוב
שטוביקע
שטובן
שטודיום
שטודיע
שטודיעס
שטודירט
שטודירן
שטויב
שטויבער
שטויס
שטויסט
שטויסן
שטול
שטום
שטומע
שטומען
שטומער
שטומפיקער
שטונדן
שטונדע
שטופ
שטופט
שטופן
שטורם
שטורמישע
שטורעם
שטורעמען
שטותים
שטח
שטחים
שטי
שטיבל
שטיבלעך
שטיבעלע
שטיבער
שטיגן
שטיוול
שטיי
שטייג
שטייגט
שטייגן
שטייגע
שטייגער
שטייט
שטיין
שטיינ
שטיינבערג
שטיינזאלץ
שטיינמאן
שטיינמעץ
שטיינעמאן
שטיינער
שטיינערנע
שטיינשנײ
שטייען
שטייענדיג
שטייענדיק
שטייענדיקע
שטייער
שטייערן
שטייף
שטייפע
שטיל
שטילן
שטילע
שטילער
שטילערהייט
שטילקי
שטילקייט
שטילשטאנד
שטים
שטימונג
שטימונגען
שטימט
שטימטן
שטימטע
שטימטער
שטימע
שטימען
שטימעס
שטיף
שטיפ
שטיץ
שטיצט
שטיצן
שטיצע
שטיצער
שטיק
שטיקל
שטיקלעך
שטיקעל
שטיקער
שטן
שטע
שטעג
שטעגן
שטעהט
שטעט
שטעטיקט
שטעטל
שטעטלעך
שטעטעל
שטעטעלע
שטעך
שטעכט
שטעכן
שטעל
שטעלונג
שטעלונגען
שטעלט
שטעלן
שטעלע
שטעלעס
שטעלער
שטעמפ
שטענדיג
שטענדיגע
שטענדיק
שטענדיקן
שטענדיקע
שטענדיקער
שטענדער
שטעפאנעשט
שטעקט
שטעקן
שטעקנס
שטעקען
שטער
שטערונג
שטערונגען
שטערט
שטערן
שטערנ
שטערנא
שטערנבוך
שטערנבערג
שטערנס
שטערנפעלד
שטערען
שטערקסטע
שטערקסטער
שטערקער
שטערקערע
שטר
שטרא
שטראוס
שטראז
שטראל
שטראלונג
שטראלן
שטראם
שטראמט
שטראמען
שטראסבורג
שטראף
שטראפן
שטרוי
שטרי
שטרייט
שטרייטן
שטריימל
שטרייף
שטריך
שטריכן
שטריק
שטריקל
שטרעבונג
שטרעבט
שטרעבן
שטרעמונג
שטרענג
שטרענגע
שטרענגער
שטרעק
שטרעקע
שטרעקעס
שטרױ
שטרױכלונג
שטרײ
שטשא
שטױב
שטײ
שטײגער
שטײט
שטײן
שטײנער
שטײען
שי
שיאטן
שידוך
שידוכים
שיהא
שיהיה
שיח
שיחות
שיחת
שיט
שיטה
שיטות
שיטת
שיי
שייד
שיידט
שיידן
שיידע
שייטל
שייך
שייכות
שיין
שיינא
שיינבערג
שיינדיל
שיינדל
שיינהייט
שיינט
שיינע
שיינעם
שיינען
שיינער
שיינפעלד
שיינצי
שיינקי
שיינקייט
שייקספיר
שיך
שיכ
שיכון
שיכור
שיכט
שיכטן
שיכטע
שילד
שילדן
שילדערונג
שילדערונגען
שילדערט
שילדערן
שילה
שילט
שילינג
שילער
שים
שימוש
שין
שינאה
שינאווא
שינאווער
שינגטא
שינדלער
שינוי
שינען
שינעס
שיסט
שיסטישן
שיסל
שיסן
שיסער
שיסעריי
שיעור
שיעורי
שיעורים
שיער
שיף
שיפ
שיפל
שיפן
שיץ
שיצונג
שיצט
שיצן
שיק
שיקא
שיקאגא
שיקזאל
שיקט
שיקן
שיקע
שיקען
שיר
שיראק
שירה
שירי
שיריים
שירים
שירעם
שירת
שיש
שך
שכ
שכב
שכונת
שכחה
שכינה
שכינות
שכינים
שכירות
שכל
שכם
שכן
שכנ
שכנא
שכנות
שכנותדיקע
שכנים
שכר
שכרו
של
שלא
שלאגט
שלאגן
שלאכט
שלאכטן
שלאנג
שלאנגען
שלאס
שלאף
שלאפט
שלאפן
שלאפען
שלאק
שלב
שלהבת
שלו
שלוחים
שלום
שלומי
שלומציון
שלוס
שלוש
שלושים
שלח
שלחן
שלטונות
שלי
שליא
שליח
שליחות
שליחים
שליט
שליטה
שליים
שלייער
שלייף
שלייפן
שלים
שלימה
שלימות
שלימזל
שלינגט
שלינגען
שליסט
שליסל
שליסן
שלישי
שלך
שלם
שלמה
שלמים
שלנו
שלע
שלעגער
שלעזינגער
שלעזיע
שלעכט
שלעכטיקײט
שלעכטן
שלעכטס
שלעכטסטוער
שלעכטע
שלעכטער
שלענג
שלעסער
שלעפ
שלעפט
שלעפן
שלעק
שלש
שלשה
שלשים
שלײ
שלײפ
שם
שמ
שמא
שמאי
שמאל
שמאלע
שמאלער
שמאלץ
שמד
שמו
שמוא
שמואל
שמואליקל
שמואליקלען
שמואלעוויטש
שמונה
שמוע
שמועה
שמועות
שמועס
שמועסט
שמועסן
שמוץ
שמוציג
שמוציגע
שמוציקע
שמור
שמות
שמח
שמחה
שמחות
שמחת
שמי
שמידט
שמיה
שמיטה
שמייכל
שמייכלט
שמייכלען
שמייכעלע
שמים
שמיני
שמיץ
שמיר
שמירה
שמירט
שמירן
שמירת
שמך
שמן
שמע
שמעון
שמעוני
שמעיה
שמעלצער
שמעלקא
שמעלקע
שמעק
שמעקט
שמעקן
שמעקעדיקע
שמערל
שמערצן
שמעתי
שמריהו
שמש
שמשון
שמשים
שן
שנ
שנא
שנאה
שנאמר
שנאת
שנה
שנו
שנור
שני
שניאור
שניאורסאהן
שניאורסאן
שניט
שניטן
שניטענע
שניי
שנייבאלג
שניידט
שניידן
שניידער
שנייט
שנייען
שנים
שניצלער
שנירל
שנעל
שנעלן
שנעלסטע
שנעלע
שנעלער
שנעלקייט
שנעעבאלג
שנת
שנתחלפו
שנײ
שס
שע
שעדיגן
שעדיקן
שעדליך
שעדליכע
שעדליץ
שעה
שעהן
שעהנע
שעהנפעלד
שעהען
שעות
שעח
שעט
שעיעד
שעיר
שעירס
שעכט
שעכטן
שעכטער
שעל
שעלדאן
שעלטן
שעלי
שעלמן
שעם
שעמט
שעמען
שען
שענדישאוו
שענדלעכקײט
שענסטע
שענער
שענפילד
שענק
שענקט
שענקען
שענקער
שעף
שעפ
שעפטיקט
שעפילד
שעפן
שעפעטיווקע
שעפעניש
שעפער
שעפערדס
שעצונג
שעצן
שעק
שער
שערט
שערטער
שערי
שערים
שערן
שעשה
שעת
שפ
שפא
שפאט
שפאלט
שפאלטן
שפאלער
שפאן
שפאניע
שפאניש
שפאנישן
שפאנישע
שפאנישער
שפאס
שפאצירט
שפאצירן
שפארט
שפארן
שפב
שפורן
שפחה
שפי
שפיאן
שפיאנאזש
שפיאנען
שפיגל
שפיגלט
שפיגלען
שפיטא
שפיטאל
שפיטעלער
שפיטץ
שפייז
שפייזן
שפיל
שפילט
שפילכלעך
שפילן
שפילער
שפילעריי
שפינאזא
שפיץ
שפיצן
שפיצער
שפיקאוו
שפירא
שפירט
שפירן
שפל
שפלות
שפלינטער
שפע
שפעהטער
שפעט
שפעטע
שפעטער
שפעטערדיגע
שפעטערדיגער
שפעטערדיקע
שפעטערע
שפר
שפרא
שפראך
שפראכיגע
שפראכיגער
שפראכן
שפרה
שפרייט
שפרינגט
שפרינגען
שפרינצא
שפת
שפתי
שצ
שצא
שצד
שקא
שקאפ
שקיעה
שקל
שקלא
שקלאוו
שקלאפן
שקלאפעריי
שקלים
שקע
שקעס
שקצים
שקר
שקרים
שר
שרא
שרגא
שרה
שרויף
שרויפן
שרון
שרי
שריב
שריבן
שריט
שריי
שרייאן
שרייב
שרייבונג
שרייבונגען
שרייבט
שרייבן
שרייבען
שרייבער
שרייבערין
שרייבערס
שרייבר
שרייט
שרייע
שרייען
שרים
שריפ
שריפה
שריפט
שריפטן
שריפטשטעלער
שרע
שרעבי
שרעדינגער
שרעק
שרעקט
שרעקליך
שרעקליכן
שרעקליכע
שרעקליכער
שרעקלעך
שרעקלעכע
שרעקלעכער
שרעקן
שרף
שרפה
שרץ
שרצים
שרשרת
שרת
שרײ
שש
ששה
ששון
ששים
ששת
שת
שתדלן
שתדלנות
שתי
שתיה
שתים
שװא
שװעל
שװעלן
שװעסטער
שװער
שװערד
שװערן
שװערע
שװערער
שװײ
שױן
שױנען
שײ
שײדונג
שײדן
שײן
שײנע
שײנקײט
ת
תאוה
תאווה
תאוות
תאומים
תאכל
תאמר
תב
תבא
תבוא
תבואה
תבואות
תביעה
תבל
תבשילין
תהום
תהי
תהיה
תהיו
תהילים
תהלים
תו
תואר
תובע
תוך
תוכחה
תוכן
תולדות
תולה
תולעת
תומכי
תומר
תונו
תוס
תוספות
תוספתא
תועבה
תופס
תוצאה
תוקע
תורה
תורות
תורת
תורתו
תושב
תושבים
תזריע
תחום
תחיה
תחיית
תחילת
תחינה
תחינות
תחינת
תחית
תחנה
תחנון
תחת
תי
תיבה
תיבות
תיה
תיכף
תים
תימן
תיקון
תיקוני
תיקונים
תירוץ
תירוצים
תכ
תכלית
תכלת
תכריכים
תל
תלוי
תלמוד
תלמי
תלמיד
תלמידי
תלמידים
תלפיות
תם
תמ
תמוז
תמונה
תמונות
תמורה
תמיד
תמים
תמימה
תמימות
תמימים
תמכין
תמצית
תמר
תן
תנ
תנא
תנאי
תנאים
תנו
תנחומא
תניא
תס
תע
תעלומה
תענוג
תענית
תעניתים
תעשה
תפ
תפארת
תפוז
תפילה
תפילות
תפילין
תפילת
תפיסה
תפלה
תפלות
תפלין
תפלת
תפקיד
תצ
תצא
תצוה
תק
תקוה
תקווה
תקון
תקופה
תקופות
תקופת
תקט
תקי
תקיעה
תקיעות
תקיעת
תקכ
תקל
תקמ
תקנ
תקנה
תקנות
תקס
תקע
תקעו
תקפ
תקצ
תר
תרגום
תרדיון
תרו
תרומה
תרומות
תרועה
תרח
תרט
תרי
תרכ
תרל
תרמ
תרנ
תרס
תרע
תרפ
תרצ
תש
תשא
תשובה
תשובות
תשובת
תשט
תשי
תשכ
תשל
תשליך
תשמ
תשנ
תשס
תשע
תשעה
תשפ
תשצ
תשרי
תת
תתאה
תתכ
תתן
תתפ
תתק
תתקס
תתקצ
װ
װא
װאו
װאס
װו
װוינער
װט
װי
װידער
װידערס
װידערשפ
װיזן
װיל
װילט
װילן
װילסט
װילסטו
װינט
װינציק
װינקל
װינקלען
װיסט
װיסטעניש
װיסן
װיסנשא
װיפ
װיקיפ
װיקיװערטערבוך
װן
װנט
װע
װעבזײ
װעג
װעגן
װעט
װעכטער
װעל
װעלט
װעלכן
װעלכע
װעלכער
װעלן
װעמבער
װעמען
װען
װעסט
װעסטו
װעק
װעקגעגא
װעקגעלא
װעקגענומען
װעקגעצױגן
װעקגעשיקט
װעקגעװא
װעקגײן
װעקלא
װער
װערט
װערטער
װערמילרױט
װערן
װערק
װױל
װױנונג
װױנט
װױנען
װױנער
װײ
װײטא
װײנען
װײס
װײסט
װײסן
װײץ
ױגל
ױגלען
ױלן
ײ
ײדן
׳
״
،
ا
ب
بن
ة
ج
د
ر
س
ف
ل
م
ن
ه
ي
َ
ُ
ِ
ّ
ْ
ٓ
ٔ
ٕ
ं
क
ग
ज
त
द
न
प
म
य
र
ल
श
स
ह
़
ा
ि
ी
ु
ू
े
्
ং
দ
ব
র
ল
া
্
ા
க
ம
ா
ி
ு
ை
்
్
구역
​
‌
‍
‎
‏
‐
–
—
―
‘
’
‚
‛
“
”
„
‟
•
…
‪
‫
‬
′
″
⁡
€
ℏ
№
ℜ
←
→
↓
↔
↤
↦
↰
↱
↷
⇒
∈
∑
−
∓
∗
∘
∞
∧
∫
≈
≤
≥
⋅
⋯
③
④
⑦
■
☉
⟨
⟩
⯓
⸗
⺀
⺄
⺆
⺈
⺊
⺌
⺕
⺝
⺸
⺼
⿰
⿱
⿲
⿳
⿴
⿵
⿶
⿷
⿸
⿹
⿺
⿻
〢
は
゙
゚
イ
カ
コ
ト
ホ
ユ
ラ
ル
ン
ー
ㅅ
ㅌ
ㅗ
ㅛ
㇁
㇂
㇄
㇇
㇈
㇉
㇓
㐁
㐄
㐅
㐌
㐫
㐬
㐭
㐮
㐱
㑒
㒵
㒸
㒼
㓁
㓞
㔾
㕛
㕣
㖾
㘝
㚅
㚇
㚔
㚘
㝉
㝡
㝴
㝵
㞋
㞢
㞷
㠩
㠭
㠯
㡀
㡭
㡿
㢲
㢴
㣇
㣺
㥯
㪅
㫄
㫐
㫒
㫺
㬅
㬎
㬥
㬰
㲋
㳄
㷠
㸒
㸚
㸦
㼌
㼲
㽞
㿟
䀠
䂞
䍃
䏍
䒑
䖍
䖒
䖝
䖵
䙴
䚻
䜌
䝿
䡛
䧹
䪞
一
丁
丂
七
丄
丅
丆
万
丈
三
上
下
丌
不
与
丏
丐
丑
专
且
丕
世
丘
丙
业
东
丞
丢
丣
两
严
並
丨
丩
个
丫
丬
中
丮
丰
丱
串
丵
丶
丷
丸
丹
为
主
丽
丿
乀
乂
乃
久
乆
乇
么
义
之
乌
乍
乎
乏
乐
乑
乔
乖
乗
乘
乙
乚
乛
乜
九
乞
也
习
乡
乳
乾
亀
亅
了
亇
予
争
事
二
亍
于
亏
亐
云
互
亓
五
井
亘
亚
亜
亞
亟
亠
亡
亢
交
亥
亦
产
亨
亩
享
京
亭
亮
亯
亰
亲
亳
亶
亷
人
亻
亼
亾
仁
今
介
仌
从
仐
仑
仒
仓
仕
他
付
仝
代
令
以
任
企
伊
伏
伐
休
会
伯
但
位
何
佘
余
作
佥
使
來
侈
侌
侖
侯
侵
便
保
俞
信
修
倉
倍
候
倠
備
僉
僕
儿
兀
允
兂
元
兄
充
兆
兇
先
光
兊
克
兌
免
兑
兒
兓
兔
党
兜
兟
入
全
兩
兪
八
公
六
兮
兰
共
关
兵
其
具
典
兹
兼
冀
冂
冃
冄
内
冈
冉
冊
冋
册
再
冎
冏
冐
冒
冓
冖
冗
冘
军
农
冝
冡
冥
冫
冬
冷
几
凡
凢
凵
凶
凷
凸
凹
出
函
凾
刀
刁
刂
刃
刄
刅
分
切
刍
刑
刕
刖
列
刘
则
初
別
利
别
到
制
刺
則
削
剌
前
剡
剽
劉
力
功
加
劦
助
劫
劳
劵
勃
勇
勉
勒
動
務
勞
勤
勹
勺
勻
勾
勿
匀
匂
包
匆
匈
匊
匋
匍
匕
化
北
匚
匝
匡
匪
匱
匸
匹
区
医
匽
匿
區
十
卂
千
卄
卅
卆
升
午
卉
半
卌
华
卑
卒
卓
单
卖
南
卜
卝
卞
占
卡
卢
卣
卤
卦
卩
卪
卬
卯
印
危
即
却
卵
卷
卸
卻
厂
厃
厄
历
厈
厉
厌
厓
厘
厚
原
厤
厥
厨
厭
厲
厶
厷
厸
去
厼
厽
叀
参
參
叅
又
叉
及
友
双
反
叐
发
叒
叔
叕
取
受
叚
叜
叟
口
古
句
另
叩
只
召
可
台
叱
史
右
叵
号
司
叹
吂
各
吅
合
吉
吊
吋
同
名
后
吏
向
吕
君
吝
吞
否
含
启
吳
吴
吹
吾
呂
呆
呈
告
员
呙
周
命
咅
和
咎
咠
咢
咨
咸
咼
哀
品
哉
員
哥
哲
唐
商
啇
問
啚
啬
啻
善
喜
喬
單
喿
嗇
噩
嚴
囊
囗
囘
囙
囚
四
回
囟
因
囧
囬
困
囱
囷
固
国
圂
圅
國
圍
圓
土
圡
圣
圥
在
圭
地
圶
圼
坐
坒
坚
坴
垂
垔
垚
埀
埋
城
域
埶
執
基
堂
堅
堆
堇
堯
塞
墨
壘
士
壬
壯
声
壳
壴
壹
壺
壽
夂
处
夅
夆
备
夊
夋
夌
复
夏
夒
夕
外
夗
夘
多
夜
夢
大
夨
天
太
夫
夬
夭
央
失
夲
头
夷
夸
夹
夻
夾
奂
奄
奇
奈
奉
奎
奏
奐
契
奓
奔
奚
奞
奠
奢
奥
奭
女
奴
奻
好
如
妄
妙
妟
妥
妻
妾
姑
委
姜
威
娄
婁
婴
嬰
嬴
子
孑
孔
孕
孖
字
存
孚
孛
孝
孟
季
孤
学
孫
孱
學
宀
宁
宂
它
宅
宇
守
安
宋
完
宏
宓
宗
官
定
宛
宜
宝
客
宣
室
宮
宰
害
家
容
宾
宿
寄
寅
密
富
寒
察
寧
審
寫
寬
寮
寸
对
寺
寻
寽
対
寿
封
尃
射
将
將
專
尉
尊
尋
尌
對
小
少
尒
尓
尔
尖
尗
尚
尞
尢
尣
尤
尧
尨
尭
就
尸
尹
尺
尻
尼
尽
尾
尿
局
居
屈
屋
屎
屏
屑
展
屖
屚
属
屠
屡
屬
屮
屯
屰
山
屵
屾
岁
岂
岑
岡
岩
岳
岸
峯
島
崇
崑
崔
崖
崙
崩
嵬
嶲
巂
巛
川
州
巟
巠
巢
巤
工
左
巧
巨
巩
巫
差
己
已
巳
巴
巷
巸
巽
巾
巿
帀
市
布
希
帚
帛
帝
带
師
席
帶
常
干
平
年
幵
并
幷
幸
幺
幻
幼
幽
幾
广
広
庄
床
底
店
庚
府
度
庫
庭
庶
康
庸
廉
廌
廛
廣
廩
廴
延
廷
建
廾
廿
开
弁
弃
弄
弇
弋
式
弓
弔
引
弗
弘
弜
弟
弥
弦
弱
張
強
强
彊
彌
彎
彐
彑
当
彔
录
彖
彗
彡
形
彥
彦
彧
彭
彳
役
彼
往
待
律
徒
得
徙
從
復
微
徵
心
忄
必
忌
忍
志
忝
忠
忩
快
念
忽
忿
思
怠
急
怱
恆
恒
恩
恭
息
悉
患
悤
悲
悶
惠
惡
惢
愁
愈
意
愛
感
慈
慧
慮
憂
憲
應
戀
戈
戉
戊
戋
戌
戍
戎
成
我
戒
戔
或
戚
戠
戢
截
戲
戶
户
戹
戼
戾
房
所
扁
扇
手
扌
才
打
托
执
承
折
拉
拜
拿
掌
推
提
摩
支
攴
攵
收
攸
改
放
政
敄
敏
敕
敖
敗
敝
敞
敢
散
敦
敫
敬
数
敷
數
斂
文
斉
斊
斗
斤
斥
斩
斬
斯
新
方
於
施
斿
旁
旋
族
无
旡
既
旣
日
旦
旧
旨
早
旬
旱
旲
时
旾
昆
昇
昌
昍
明
昏
易
昔
昗
昜
星
春
昬
是
昱
昴
昷
時
晃
晋
晏
普
景
晶
智
暑
暴
曇
曩
曰
曲
曳
更
曷
書
曹
曼
曾
替
最
朁
會
月
有
朋
服
朔
朕
朗
望
朝
木
朩
未
末
本
札
朮
术
朱
朵
朶
朿
杀
杏
杜
束
条
来
東
杲
杳
松
析
林
枚
果
枝
枲
枼
某
柔
查
柬
柰
柴
栗
株
桀
桑
桼
梁
條
梟
梨
棘
棠
棥
森
楚
業
楽
榮
樂
樊
欠
次
欣
欮
欲
欶
欽
款
歆
歇
歛
止
正
此
步
武
歨
歪
歮
歯
歰
歲
歴
歷
歸
歹
歺
死
殳
段
殷
殸
殹
殺
殻
殿
毋
毌
母
每
毒
比
毕
毚
毛
毳
氏
氐
民
气
氣
水
氵
氶
氷
永
氺
氾
求
汝
汞
江
沃
沓
沙
沝
泉
法
波
泣
泥
泰
洛
洪
活
派
流
浦
浪
浮
淡
淮
清
渚
渠
湯
滿
漸
灣
火
灬
灭
灰
灵
灷
炅
炎
炏
炗
炙
炭
為
烈
烏
烝
焉
無
焦
焱
然
煞
熊
熏
燕
營
燮
爪
爫
爭
爯
爰
爱
爲
爵
父
爻
爽
爾
爿
片
牙
牚
牛
牜
牟
牢
牧
牪
牽
犀
犬
犭
犮
狂
狄
狊
独
狺
猋
猒
猪
献
獻
玄
率
玉
王
玟
玨
珎
班
琴
瑟
瑩
瓜
瓦
甘
甚
生
産
用
甫
甬
田
由
甲
申
电
甶
男
甸
甹
画
甾
畀
界
畏
畐
留
畜
畟
畢
畧
畨
番
畫
異
畱
當
畺
畾
疊
疋
疌
疑
疒
疾
癶
癸
癹
登
發
白
百
皀
皃
的
皆
皇
皋
皐
皕
皮
皷
皿
盃
盆
盇
盈
益
盍
盎
监
盒
盖
盛
盡
監
盤
盧
目
直
相
盾
省
眇
眉
看
眔
眞
真
眷
眼
眾
着
睘
睪
睿
瞏
瞢
瞿
矍
矛
矞
矢
矣
知
矦
短
石
破
碎
磊
磨
示
礻
礼
社
祟
票
祭
禀
禁
禸
禹
禺
离
禽
禾
禿
秀
秃
秉
秋
科
秝
秦
移
稟
穀
穌
穴
究
穹
空
穿
突
窄
窒
立
竒
竜
竝
竟
章
童
竹
笑
笠
筆
等
答
箕
算
箴
節
篤
篭
米
粉
粛
粟
粤
粦
粲
糞
糸
糹
系
約
納
素
索
紫
累
細
絜
絫
絲
維
綿
縣
繇
纍
纟
缶
网
罒
罔
罕
罗
罙
罡
罢
罪
署
罷
羅
羊
羌
羍
美
羔
羕
羗
羞
羡
羣
群
義
羲
羸
羽
翁
翏
習
翕
翟
翠
翼
老
耂
考
者
耆
而
耎
耑
耒
耳
耴
耶
耷
聂
聊
聖
聚
聶
聿
肀
肃
肅
肉
肖
肙
肥
肩
肯
育
肴
胃
背
胡
胥
能
脊
脩
膚
臣
臤
臧
自
臬
臭
臯
臱
至
致
臺
臼
臽
臾
臿
舀
舂
舄
與
興
舉
舌
舍
舛
舜
舞
舟
般
艮
良
色
艸
艹
艾
芒
芔
芬
芮
花
芳
芺
芻
苔
苗
苟
若
苦
英
茶
茸
荅
草
荒
荣
荼
莆
莧
莫
莽
菆
菊
菐
華
萬
落
葉
著
葛
董
葵
蒙
蒦
蒼
蓋
蓬
蓺
蔑
蔡
蕉
蕭
薄
薛
薦
薰
藍
藏
藥
蘭
虍
虎
虐
虒
虔
處
虖
虗
虘
虚
虛
虜
虞
虫
虽
蚤
蚩
蜀
蜜
蟲
蠡
血
行
衍
衛
衣
衤
表
衮
衰
袁
袞
褭
褱
襄
襾
西
覀
要
覃
見
規
覓
覧
親
覽
见
角
解
言
訁
訇
計
詹
誩
諸
讠
谷
豆
豈
豊
豐
豕
豖
豙
象
豦
豩
豪
豸
貇
貝
貞
貟
負
貢
貧
貪
貫
責
貳
貴
買
費
賁
資
賈
賏
賓
賔
賛
賞
賢
賣
質
賴
贊
贝
贡
责
贯
贲
贵
赖
赞
赤
赦
走
越
足
路
蹇
身
躬
車
軍
軎
軟
輦
车
辛
辜
辟
辥
辰
辱
農
辵
辶
边
达
过
近
连
迷
追
退
送
逆
逐
通
速
造
逢
連
逮
進
遀
遂
過
道
達
遣
適
遷
遺
邊
邑
邕
那
邦
邪
郎
郡
部
郭
都
鄉
酉
酋
配
酓
釆
采
里
重
野
量
金
釒
錢
钅
長
镸
长
門
閃
閉
開
閏
閑
閒
間
閔
閵
閻
闌
门
间
闷
阑
阜
阝
阿
降
陳
隆
隊
隋
隡
隨
隱
隶
隹
隺
隻
隼
隽
难
雀
雁
集
雈
雋
雍
雐
雔
雙
雚
雜
雝
離
難
雨
雩
雪
雲
零
雷
需
霍
霜
霝
霞
霸
靈
靑
青
非
靡
面
靣
革
韋
韦
韭
韯
韱
音
頁
頃
項
須
頗
頡
頻
顛
页
風
风
飛
飞
食
飠
養
饣
首
香
馬
馮
駦
马
骨
高
髟
鬥
鬯
鬲
鬼
魚
魯
鮮
鱼
鲁
鳥
鳳
鸟
鹵
鹿
麃
麗
麥
麦
麻
黃
黄
黍
黎
黑
黒
黨
黹
黽
黾
鼎
鼓
鼠
鼻
齊
齋
齐
齒
齿
龍
龙
龜
龟
龠
龰
龱
龴
龵
龶
龷
龸
龹
꞉
者
艹
﻿
？
￼
�
🜨
𠀁
𠀃
𠀆
𠀉
𠀎
𠀐
𠁁
𠁣
𠂆
𠂇
𠂈
𠂉
𠂊
𠂋
𠂎
𠂒
𠂔
𠂛
𠂡
𠂢
𠂤
𠂬
𠂭
𠂹
𠃊
𠃋
𠃌
𠃍
𠃎
𠃑
𠃓
𠃔
𠃜
𠄌
𠄎
𠄠
𠄢
𠆢
𠆥
𠇍
𠈌
𠌵
𠓜
𠔉
𠔥
𠔼
𠔽
𠔿
𠕀
𠕁
𠕋
𠘧
𠘨
𠙻
𠙼
𠚏
𠚒
𠚤
𠚪
𠣏
𠤎
𠤕
𠥓
𠦄
𠦑
𠦝
𠧒
𠧗
𠧪
𠩺
𠪚
𠫓
𠫔
𠫤
𠬛
𠬝
𠬞
𠬢
𠬤
𠬶
𠮛
𠮦
𠮷
𠯑
𠱠
𠳮
𠷎
𡈼
𡉀
𡉵
𡌥
𡍮
𡏳
𡕒
𡕩
𡕰
𡖅
𡗗
𡗜
𡘆
𡘤
𡧱
𡨄
𡩧
𡬠
𡭽
𡰣
𡰥
𡰪
𡰯
𡰱
𡷈
𡸁
𡿨
𡿩
𡿪
𡿺
𢀖
𢀛
𢀩
𢁙
𢆉
𢆰
𢆶
𢇁
𢇇
𢉖
𢌬
𢌿
𢏚
𢑑
𢑚
𢖻
𢙣
𢛳
𢦏
𢦒
𢧵
𢼄
𢾕
𣁋
𣄼
𣅀
𣅽
𣍘
𣎳
𣎵
𣏋
𣏼
𣗥
𣥂
𣥖
𣦵
𣦼
𣧄
𣪊
𣪠
𣬉
𣳾
𣶒
𤇾
𤊽
𤐫
𤓰
𤔔
𤕨
𤣩
𤰇
𤰔
𤰞
𤴓
𤴔
𤽄
𥁑
𥁕
𥃦
𥃩
𥃭
𥇡
𥑟
𥘅
𥘈
𥝢
𥫗
𥱡
𦈢
𦉪
𦉬
𦉼
𦍌
𦍒
𦎧
𦐇
𦓔
𦔮
𦘒
𦙃
𦚏
𦣝
𦣞
𦣻
𦥑
𦥔
𦥯
𦨉
𦭝
𦰩
𧆞
𧈧
𧘇
𧰨
𧴪
𧴮
𧵩
𧾷
𨸏
𨾴
𩙿
𩠐
𩫏
𩵋
𪉷
𪜀
𪟽
𪠲
𪩲
𫇦
𫔭
𫜸
𫝀
𫠣
𫠩
𫢉
𫥞
𫩏
𫩠
𫪡
𫲽
𫶧
𬀷
𬐘
𬗌
𬙙
𬛸
𬜯
𬟩
𬯁
𬴘
𬺻
𬼉
𬼖
𭀰
𭁈
𭁨
𭅰
𭑈
𭕄
𭗼
𭤨
𭥫
𭻾
𮅕
𮊿
𮍌
𮍏
𮓗
𮥼
𮧮
廾
𰀁
𰀄
𰀈
𰀉
𰀕
𰀠
𰀡
𰀢
𰀪
𰁜
𰃮
𰆊
𰆘
𰋙
𰕎
𰢴
𰧭
𰯲
00--
01--
02--
03--
04--
05--
06--
07--
08--
09--
37--
40--
41--
42--
44--
45--
46--
47--
48--
49--
50--
51--
52--
53--
54--
55--
56--
57--
58--
59--
60--
61--
63--
64--
65--
66--
68--
75--
76--
77--
78--
79--
80--
81--
82--
84--
86--
90--
91--
94--
96--
a--
ab--
ac--
act--
ad--
afr--
al--
am--
an--
app--
ar--
ara--
as--
astro--
at--
au--
b--
ba--
bar--
be--
ber--
bi--
bloom--
bo--
bor--
bos--
br--
bro--
bu--
c--
ca--
can--
car--
ch--
cha--
char--
cit--
cl--
co--
col--
com--
commu--
con--
cu--
d--
da--
de--
di--
dis--
divi--
do--
dr--
dre--
du--
e--
ed--
ef--
ek--
el--
ele--
emp--
en--
eng--
er--
es--
eu--
ev--
exp--
ey--
f--
fe--
fem--
fin--
fo--
fr--
fri--
fu--
g--
gar--
ge--
geog--
geogra--
glo--
go--
gra--
gre--
gu--
h--
ha--
ham--
har--
he--
heb--
her--
ho--
hon--
i--
im--
in--
inter--
ir--
is--
j--
ja--
je--
jo--
ju--
k--
ka--
ki--
kil--
ko--
l--
la--
lat--
le--
li--
lin--
lingu--
lite--
lo--
lu--
m--
ma--
mag--
mal--
mar--
me--
mil--
min--
mo--
mon--
mos--
mu--
munic--
my--
n--
na--
ne--
ni--
nis--
no--
o--
olymp--
op--
or--
orig--
p--
pa--
para--
pe--
ph--
phil--
pho--
phy--
pi--
pla--
po--
polit--
pr--
pra--
pre--
pu--
pur--
put--
q--
r--
ra--
re--
riv--
ro--
ru--
s--
sa--
sat--
sch--
se--
sec--
sev--
sh--
sha--
si--
so--
sour--
st--
ste--
stu--
su--
t--
ta--
te--
tele--
ter--
territ--
th--
to--
tour--
tra--
trans--
tre--
tu--
tur--
u--
un--
univ--
up--
ur--
us--
v--
ven--
ver--
vi--
vil--
vo--
w--
wa--
wal--
we--
wil--
wo--
writ--
x--
y--
z--
za--
ı--
π--
а--
ав--
ак--
алексан--
ан--
б--
бо--
бр--
бра--
бу--
буд--
бы--
в--
ве--
ви--
воз--
возра--
вы--
г--
газен--
гла--
го--
д--
да--
де--
до--
дѣ--
е--
евр--
жарг--
же--
з--
зем--
значи--
и--
ид--
к--
ка--
каж--
ков--
кр--
л--
ли--
лю--
люб--
любо--
м--
ма--
ме--
мо--
моло--
му--
мѣ--
н--
на--
наш--
не--
нек--
ни--
но--
нѣ--
нѣк--
о--
обр--
общ--
обще--
од--
ос--
от--
п--
пе--
пер--
пере--
по--
послед--
пр--
пра--
празд--
пред--
про--
произ--
пу--
пѣс--
р--
ра--
равви--
раввин--
раз--
ро--
ру--
русск--
ря--
с--
са--
сбор--
св--
се--
ск--
ска--
сл--
сле--
сло--
слу--
случ--
слѣд--
со--
совершен--
содер--
ст--
ста--
стви--
сущест--
сы--
т--
та--
творче--
тек--
тр--
тѣ--
у--
указа--
усл--
уче--
ф--
х--
ча--
чер--
чи--
ш--
ша--
шк--
э--
яз--
язы--
אא--
אב--
אבא--
אבד--
אבזער--
אבי--
אבר--
אג--
אד--
אדור--
אדיק--
אדמיני--
אדר--
אדריא--
אה--
אהיימ--
אהינ--
אהער--
או--
אוו--
אוואק--
אוויולע--
אוועק--
אוי--
אויב--
אויס--
אויסב--
אויסגע--
אויסנו--
אויסער--
אויסצו--
אויפ--
אויפגע--
אויפצו--
אומ--
אומבא--
אומגע--
אומגעה--
אומזי--
אונ--
אונטער--
אופ--
אוקלי--
אור--
אז--
אזיא--
אח--
אחי--
אט--
אטא--
אי--
איב--
איבער--
איבערצו--
איד--
אידענטיפ--
איז--
איזא--
איי--
אייב--
איידל--
אייזענ--
איינ--
איינגע--
איינצו--
איינצל--
איל--
אימ--
אימפ--
אינ--
אינג--
אינדי--
אינדענטיפ--
אינדער--
אינו--
אינטעג--
אינטעל--
אינטענס--
אינטער--
אינע--
איס--
איר--
אכ--
אל--
אלא--
אלד--
אלו--
אלט--
אלי--
אלע--
אלצ--
אלק--
אמ--
אמא--
אמו--
אמט--
אמת--
אנ--
אנא--
אנגע--
אנגעש--
אנדא--
אנו--
אנווע--
אנווענד--
אנט--
אנטי--
אני--
אנידער--
אנע--
אנצו--
אנש--
אס--
אסאציא--
אסט--
אסימי--
אפ--
אפארט--
אפגעש--
אפט--
אפטיי--
אפי--
אפנ--
אפע--
אפענס--
אפצו--
אפצור--
אפשטאמל--
אצ--
אק--
אקופ--
אקט--
אקס--
אר--
ארא--
אראפ--
אראפצו--
ארגא--
ארגע--
ארד--
ארויס--
ארויסצו--
ארויפ--
ארומ--
ארט--
ארי--
אריבער--
אריינ--
אריינג--
אריינגעד--
אריינגעק--
אריינט--
אריינצו--
ארכע--
ארמענ--
אש--
את--
אױ--
אױב--
אױס--
אױסלײ--
אײ--
ב--
בא--
באב--
באד--
באדאר--
באהא--
באט--
באטיט--
באיינ--
באל--
באמ--
באמבאד--
באמבארד--
באס--
באפ--
באקו--
באקווע--
באקוועמליכ--
באר--
בארו--
בארוה--
בארטנ--
בארעכ--
באש--
באשא--
באשול--
באשעפ--
בב--
בג--
בד--
בה--
בהת--
בו--
בוי--
בוכאר--
בוק--
בור--
בוש--
בז--
בח--
בט--
בי--
ביא--
ביז--
ביי--
בייז--
ביל--
בינ--
ביס--
ביר--
בכ--
בל--
בלא--
בלו--
בלוט--
בלי--
בלע--
במ--
במח--
בנ--
בני--
בס--
בע--
בעד--
בעה--
בעז--
בעט--
בעטהא--
בעי--
בעל--
בענק--
בעס--
בעצ--
בעק--
בער--
בערעז--
בעשענ--
בפ--
בק--
בר--
ברא--
בראד--
בראנס--
ברו--
ברוכ--
ברונ--
ברי--
ברסל--
ברענ--
ברענע--
ברעס--
בש--
בת--
בױ--
בײ--
ג--
גא--
גאג--
גאט--
גאל--
גאלד--
גאנצ--
גאר--
גב--
גד--
גו--
גוז--
גוט--
גוי--
גור--
גט--
גי--
גיב--
גיגא--
גיט--
גיי--
גייסט--
גיש--
גל--
גלא--
גלו--
גלי--
גמ--
גנ--
גע--
געא--
געאלא--
געאמעט--
געב--
געבא--
געג--
געה--
געהא--
געו--
געווא--
געז--
געזעג--
געזעצ--
געט--
געי--
געל--
געלע--
געמ--
געניט--
גענע--
געס--
געפ--
געפא--
געקו--
געקי--
געקע--
גער--
גערײ--
געש--
געשטא--
געשעה--
געשפ--
געװי--
גר--
גרא--
גרויס--
גריי--
גרינ--
גרע--
גײ--
ד--
דא--
דאו--
דאמיני--
דאמפ--
דאר--
דב--
דה--
דו--
דוא--
דוב--
דור--
דורכ--
דז--
דזש--
דזשא--
דזשונ--
דזשי--
די--
דיא--
דיג--
דיי--
דיל--
דימענ--
דינע--
דיפ--
דיק--
דל--
דמ--
דמי--
דנ--
דני--
דע--
דעד--
דעט--
דעל--
דעמ--
דעמא--
דענ--
דענאמי--
דעס--
דעפ--
דעק--
דער--
דערפ--
דערפינ--
דק--
דר--
דרא--
דרויס--
דרי--
דריי--
דרע--
דרש--
דש--
דת--
דײ--
ה--
הא--
האב--
האו--
האח--
האט--
האל--
האלאוקא--
האלאק--
האלב--
האס--
האפ--
האק--
האר--
הארא--
האש--
הב--
הבט--
הג--
הדי--
הו--
הוי--
הויפ--
הויפט--
הומא--
הז--
הח--
הט--
הי--
היג--
היו--
היט--
היי--
הייד--
הייל--
היימ--
היל--
הינקע--
היספא--
היפ--
הכ--
הל--
הלב--
המ--
המב--
המו--
המז--
המנ--
המס--
המע--
המפ--
המש--
המת--
הנ--
הע--
העב--
העל--
העלט--
העלע--
העמפ--
העק--
הער--
הערש--
הפ--
הק--
הר--
הש--
השי--
הת--
הױ--
הײ--
הײב--
ו--
וא--
ואר--
וב--
ובלי--
וד--
וה--
וו--
ווא--
וואו--
וואכנ--
וואכע--
וואל--
וואנדא--
וואר--
ווארט--
וואריא--
ווו--
ווי--
וויא--
ווידער--
וויזו--
וויי--
וויל--
ווילא--
ווינס--
וויקי--
וויר--
ווע--
וועג--
וועט--
וועל--
וועלט--
וועק--
ווער--
וז--
וח--
וט--
וי--
ויס--
ויר--
וירוש--
וכ--
ול--
ומ--
ומל--
ונ--
וס--
וע--
ופ--
וצו--
וק--
ור--
וש--
ות--
ז--
זא--
זאאלא--
זאג--
זאכ--
זאל--
זו--
זונ--
זי--
זיב--
זיג--
זיד--
זידיט--
זיי--
זינג--
זיס--
זיצ--
זל--
זלא--
זנ--
זע--
זעגל--
זעה--
זעל--
זעלבס--
זעלבסט--
זענ--
זק--
זר--
זש--
זשא--
זשי--
זשע--
זױ--
זײ--
ח--
חא--
חב--
חד--
חו--
חז--
חי--
חיי--
חל--
חמ--
חנ--
חס--
חק--
חרס--
חת--
ט--
טא--
טאג--
טאט--
טאל--
טאפ--
טאר--
טאש--
טב--
טה--
טו--
טוא--
טוי--
טויט--
טויש--
טול--
טומל--
טור--
טי--
טיט--
טיי--
טיפ--
טיר--
טל--
טנ--
טע--
טעא--
טעט--
טעל--
טעלע--
טעמע--
טעפ--
טעק--
טער--
טפ--
טר--
טרא--
טראגע--
טראנזא--
טראנס--
טרו--
טרי--
טרע--
טרעפ--
טש--
טשא--
טשי--
טשע--
טײ--
טײטל--
יא--
יאג--
יאמ--
יאפא--
יאפאנע--
יאר--
יארצע--
יב--
יג--
יד--
יהו--
יו--
יונג--
יוני--
יוס--
יוסטי--
יז--
יח--
יט--
יי--
ייד--
יינ--
יכ--
יל--
ימ--
ינ--
ינט--
ינקט--
יס--
יע--
יער--
יפ--
יצ--
יק--
יר--
יש--
ית--
כ--
כא--
כאפ--
כב--
כג--
כד--
כה--
כו--
כח--
כט--
כי--
כל--
כנ--
כס--
כסדר--
כע--
כעז--
כער--
כפ--
כר--
כרא--
כרוש--
כש--
כת--
ל--
לא--
לאו--
לאז--
לאט--
לאי--
לאנג--
לאנד--
לאסט--
לאק--
לב--
לבנו--
לג--
לד--
לדי--
לה--
להו--
להת--
לו--
לוג--
לוי--
לויב--
לויפ--
לופ--
לופט--
לז--
לח--
לט--
לי--
ליא--
ליב--
ליד--
ליז--
ליט--
ליי--
לייט--
לימיט--
לינק--
ליס--
ליע--
ליפ--
ליצ--
ליר--
לכ--
לל--
למע--
לנ--
לס--
לע--
לעא--
לעב--
לעבנ--
לעבנס--
לעג--
לעז--
לעט--
לעכ--
לעמ--
לענדל--
לעפ--
לעק--
לער--
לפ--
לצ--
לק--
לקס--
לש--
לױ--
לײ--
מ--
מא--
מאד--
מאזא--
מאט--
מאכ--
מאל--
מאנ--
מאנוס--
מאס--
מארא--
מארי--
מאשי--
מב--
מבי--
מבע--
מבק--
מג--
מד--
מה--
מו--
מוט--
מוני--
מוניציפ--
מוסולמע--
מור--
מז--
מח--
מט--
מטע--
מי--
מיד--
מיט--
מיטא--
מיטל--
מיי--
מיל--
מינ--
מיס--
מיסט--
מיקא--
מיקרא--
מיר--
מיש--
מכ--
מל--
מלו--
ממ--
ממע--
מנ--
מס--
מע--
מעדו--
מעדיצי--
מעט--
מעטא--
מעכא--
מעל--
מענ--
מעס--
מעקד--
מער--
מערב--
מערק--
מפ--
מצו--
מקו--
מקט--
מר--
מש--
משיח--
מת--
מײ--
ן--
נ--
נא--
נאד--
נאווא--
נאז--
נאט--
נאכ--
נאס--
נאר--
נארד--
נארט--
נב--
נברע--
נג--
נגע--
נד--
נדז--
נדי--
נדע--
נדער--
נה--
נו--
נווייז--
נווע--
נוי--
נויט--
נומ--
נוס--
נוק--
נז--
נח--
נט--
נטויש--
נטי--
נטיסע--
נטל--
נטע--
ני--
ניג--
ניד--
נידער--
ניו--
ניט--
ניי--
נימ--
ניס--
ניע--
ניצ--
ניק--
ניר--
נמ--
נס--
נע--
נעאלא--
נעגעט--
נעט--
נעמ--
נענ--
נעס--
נער--
נפ--
נצ--
נצו--
נצי--
נצייז--
נצל--
נצע--
נצענט--
נצױ--
נק--
נקו--
נר--
נש--
נשטע--
נשיקע--
נת--
נײ--
ס--
סא--
סאו--
סאט--
סב--
סג--
סד--
סו--
סואוו--
סוב--
סופער--
סור--
סט--
סטא--
סטו--
סטי--
סטימו--
סטע--
סי--
סיט--
סיי--
סינ--
סיסטע--
סיק--
סיר--
סכע--
סל--
סלא--
סמ--
סנ--
סע--
סעגמ--
סעט--
סעל--
סענסיט--
סער--
ספ--
ספא--
ספי--
ספעצי--
סק--
סקא--
סקאנדינא--
סקי--
סקערנע--
סר--
סת--
עב--
עג--
עד--
עדווערטייז--
עדי--
עהר--
עו--
עוו--
עז--
עט--
עטיא--
עטער--
עי--
עיקר--
עיר--
עכ--
על--
עלט--
עלע--
עלעקט--
עלעקטריפ--
עמ--
עמא--
עמי--
ענ--
ענד--
ענט--
עני--
ענלע--
עס--
עסט--
עפ--
עפידע--
עצ--
עצי--
עק--
עקו--
עקזיס--
עקט--
עקס--
עקספ--
עקספערי--
ער--
ערא--
ערב--
ערג--
ערד--
ערו--
ערזענ--
ערזענלי--
ערי--
ערל--
ערס--
ערע--
ערפ--
ערשט--
עש--
עת--
פ--
פא--
פאד--
פאטא--
פאטע--
פאל--
פאלקס--
פאנא--
פאנטא--
פאס--
פאפ--
פאר--
פארא--
פארב--
פארגע--
פארד--
פארט--
פארלע--
פארמא--
פארמו--
פארע--
פארצו--
פארק--
פארש--
פארשט--
פארשיד--
פארשידע--
פאשקע--
פג--
פגעד--
פה--
פו--
פובלי--
פול--
פונ--
פור--
פז--
פט--
פי--
פיא--
פיו--
פיזיק--
פיט--
פיי--
פייאי--
פייער--
פיל--
פיליז--
פינק--
פיס--
פיע--
פיר--
פיש--
פל--
פלא--
פלאנע--
פלי--
פלע--
פנ--
פס--
פסח--
פסיכיא--
פע--
פעד--
פעט--
פעל--
פעלד--
פעס--
פער--
פפ--
פר--
פרא--
פראגרא--
פראדוצי--
פראטע--
פראפ--
פרו--
פרוביר--
פרי--
פריי--
פרימ--
פרס--
פרע--
פרעה--
פרענט--
פשט--
צ--
צא--
צאמגע--
צאמש--
צאר--
צדק--
צו--
צוג--
צוגעב--
צוגעש--
צוה--
צווע--
צוועל--
צוזא--
צוזאמ--
צוזאמגע--
צוזאמענ--
צוזע--
צומ--
צונויפ--
צוע--
צופ--
צור--
צוריק--
צי--
ציט--
ציי--
צייט--
צימ--
ציע--
ציר--
צל--
צע--
צעל--
צענטימ--
צעפ--
צער--
צעשמע--
צעשפ--
צפ--
צפו--
צר--
צװי--
צײ--
ק--
קא--
קאארד--
קאארדינ--
קאבאל--
קאד--
קאזאכ--
קאטא--
קאטוי--
קאל--
קאלט--
קאלינ--
קאלע--
קאמבי--
קאמפ--
קאנא--
קאנדי--
קאנו--
קאנווענצי--
קאנס--
קאנסטיטו--
קאנסטיטוציא--
קאנסעקווע--
קאנסערו--
קאנספ--
קאנפ--
קאנפיס--
קאנצע--
קאנקו--
קאפ--
קאר--
קאראאיב--
קארבא--
קאריב--
קב--
קבצ--
קד--
קדמו--
קו--
קוואליפ--
קווע--
קול--
קומע--
קונ--
קוס--
קוק--
קוש--
קט--
קטו--
קי--
קיו--
קיי--
קיילע--
קינס--
קלא--
קלאסיפ--
קלוג--
קלי--
קליינ--
קליינפ--
קלינגע--
קלע--
קמ--
קנ--
קני--
קס--
קע--
קעג--
קעגנז--
קעט--
קעל--
קענ--
קעפ--
קער--
קפ--
קצ--
קר--
קרא--
קרו--
קרי--
קריי--
קרעטש--
קױ--
קײ--
ר--
רא--
ראב--
ראגאט--
ראד--
ראדזי--
ראדיא--
ראו--
ראזנ--
ראזע--
ראחמיסט--
ראט--
ראי--
ראמא--
ראמענ--
ראס--
ראק--
רב--
רבו--
רבי--
רביי--
רבל--
רברע--
רג--
רגנ--
רגע--
רד--
רדע--
רה--
רו--
רוב--
רוז--
רוט--
רוי--
רויס--
רויסגע--
רויפ--
רומ--
רומגע--
רומנ--
רופ--
רז--
רזיכ--
רזינ--
רח--
רט--
רטו--
רטונ--
רטי--
רטיי--
רטע--
רי--
ריב--
ריבער--
ריד--
ריז--
ריי--
רייד--
רייט--
ריינ--
רימ--
ריס--
ריר--
רכ--
רל--
רלי--
רמ--
רמול--
רמי--
רמע--
רנ--
רנט--
רני--
רס--
רע--
רעא--
רעב--
רעג--
רעגימ--
רעד--
רעזיס--
רעט--
רעי--
רעכט--
רעמ--
רעמד--
רענ--
רעסיי--
רעפ--
רעפא--
רעפטי--
רעפרע--
רעקא--
רעקרו--
רער--
רפ--
רצ--
רצו--
רצייכ--
רצע--
רק--
רקע--
ררע--
רש--
רשו--
רשט--
רשי--
רשייד--
רשע--
רשפ--
רױ--
רױס--
רײ--
ש--
שא--
שאד--
שאט--
שאל--
שאפ--
שאק--
שאקיר--
שאר--
שב--
שד--
שה--
שו--
שווא--
שווע--
שוי--
שול--
שחי--
שט--
שטא--
שטאל--
שטו--
שטי--
שטיינ--
שטע--
שטער--
שטױ--
שטײ--
שי--
שיט--
שיי--
שיכ--
שיפ--
שכ--
של--
שלא--
שלו--
שלי--
שלע--
שמ--
שמא--
שמו--
שמי--
שמע--
שנ--
שנא--
שניי--
שע--
שעל--
שעפ--
שער--
שפ--
שפא--
שפי--
שפע--
שפר--
שפרא--
שר--
שרעק--
שש--
שת--
שװע--
שױ--
ת--
תב--
תהל--
תו--
תי--
תכ--
תל--
תמ--
תנ--
תע--
תפ--
תק--
תר--
תש--
תשמ--
תת--
װ--
װו--
װי--
װידמ--
װיל--
װע--
װעג--
װעק--
װער--
װױ--
װײ--
ױ--
ײ--
ال--
--0
--00
--1
--17
--2
--28
--3
--33
--4
--5
--56
--6
--61
--67
--7
--78
--8
--806
--89
--9
--a
--ad
--ak
--al
--am
--an
--ar
--ard
--ary
--as
--ate
--ation
--au
--b
--ble
--c
--cal
--ce
--ceae
--ch
--ck
--ct
--ction
--ctions
--d
--de
--ds
--e
--eae
--ed
--ef
--ek
--el
--en
--ent
--er
--ern
--ers
--es
--ess
--est
--et
--ey
--f
--ft
--g
--ga
--ge
--gs
--gue
--gy
--h
--ham
--har
--i
--ia
--ial
--ian
--ic
--ica
--ical
--ich
--ics
--id
--ie
--ies
--ig
--ik
--il
--im
--in
--ing
--ion
--is
--ism
--ist
--ity
--ive
--j
--k
--ke
--l
--la
--ld
--le
--lf
--ll
--lm
--ln
--logue
--ls
--lt
--ly
--lık
--m
--ma
--mon
--n
--na
--nce
--nd
--ne
--ner
--ng
--ni
--ning
--nk
--ns
--nt
--o
--ok
--ol
--om
--omy
--on
--or
--ory
--p
--pe
--phy
--q
--r
--ra
--ral
--rd
--re
--res
--rg
--ria
--rl
--rn
--rry
--rs
--rt
--ry
--s
--se
--sh
--son
--ss
--st
--t
--ta
--tary
--te
--ted
--ter
--th
--ti
--tion
--tions
--to
--ton
--try
--ts
--ty
--u
--ub
--ue
--um
--us
--ution
--v
--val
--ve
--ver
--vo
--w
--wn
--x
--xt
--y
--ys
--z
--ze
--ın
--ıs
--α
--ς
--а
--аи
--ан
--ать
--ах
--б
--в
--ва
--вать
--ве
--вие
--вич
--во
--ву
--вѣ
--г
--гда
--го
--д
--да
--ду
--дъ
--ды
--дѣ
--е
--еи
--ет
--етъ
--и
--ие
--им
--ить
--к
--ка
--ки
--ко
--кои
--ку
--л
--ла
--леи
--ло
--лось
--м
--ма
--ми
--му
--мъ
--н
--ние
--но
--ного
--нои
--ны
--ные
--ныи
--ныхъ
--ныя
--ніе
--нія
--о
--ов
--ого
--ои
--ом
--омъ
--орых
--орыхъ
--р
--ра
--с
--ск
--ство
--сти
--сть
--сь
--ся
--т
--та
--тъ
--ть
--у
--х
--хъ
--ца
--чь
--ъ
--ы
--ые
--ыи
--ымъ
--ь
--ья
--ю
--я
--іи
--ѣ
--א
--אג
--אגיע
--אד
--אדע
--אה
--או
--אוו
--אווא
--אוויטש
--אווסקי
--אווער
--אונג
--אז
--אט
--אטאר
--אטיוו
--אטן
--אטע
--אטשי
--אי
--איש
--אישע
--אך
--אכט
--אכץ
--אל
--אליזם
--אלן
--אלע
--אלער
--אם
--אמע
--אמען
--אן
--אנג
--אנד
--אנט
--אנטע
--אנישע
--אנישער
--אנס
--אנסקי
--אנען
--אנער
--אנץ
--אנקן
--אס
--אף
--אפ
--אפעדיע
--אציע
--אציעס
--אק
--אקט
--אר
--ארד
--ארט
--ארי
--ארישע
--ארן
--ארס
--ארע
--ארער
--אש
--את
--ב
--בא
--באליזם
--באר
--בארן
--בארע
--בה
--בו
--בורג
--בורי
--בות
--בט
--בי
--ביץ
--בך
--בל
--בלי
--בן
--בע
--בעל
--בער
--בערג
--בר
--בײ
--ג
--גא
--גאנג
--גה
--גון
--גונג
--גוס
--גות
--גט
--גייער
--גים
--גיסונג
--גיע
--גיעס
--גל
--גלעכע
--גן
--גנ
--גנס
--גס
--גע
--געגא
--געזא
--געלא
--גען
--געפ
--געפא
--גער
--גרא
--גראפיע
--גײער
--ד
--דא
--דאם
--דאן
--דאר
--דה
--דו
--דות
--דט
--די
--דיג
--דיגן
--דיגע
--דיגער
--דיום
--דין
--דיע
--דיען
--דיק
--דיקט
--דיקן
--דיקע
--דיקער
--דל
--דליך
--דלעך
--דן
--דנ
--דנא
--דנט
--דס
--דע
--דען
--דער
--דת
--ה
--הא
--האד
--האם
--הג
--הו
--הט
--הי
--היט
--הייט
--הל
--הלן
--הם
--המ
--הן
--הע
--הען
--הערט
--הר
--ו
--וא
--ואלע
--ואן
--וב
--וג
--וגע
--וד
--ודה
--וה
--וו
--ווא
--ווי
--ווייז
--וון
--ווע
--ווער
--ווקא
--ווײ
--וז
--וט
--וי
--ויגן
--וימט
--וין
--וינען
--וינער
--ויס
--ויף
--ויץ
--וך
--וכע
--ול
--ום
--ומ
--ומט
--ומס
--ומען
--ומפ
--ון
--ונ
--ונג
--ונגן
--ונגען
--ונה
--ונט
--וני
--ונים
--ונענ
--וס
--וסקי
--וע
--ועז
--ועי
--ועים
--ועל
--ועלע
--וענט
--וער
--וף
--ופ
--ופן
--וצע
--וק
--וקט
--וקן
--ור
--ורי
--וש
--ושא
--ות
--וײ
--ז
--זא
--זאגט
--זאגן
--זאהן
--זאם
--זאמט
--זאן
--זאציע
--זד
--זה
--זו
--זוכט
--זט
--זי
--זיין
--זיכט
--זים
--זיע
--זירן
--זיש
--זל
--זם
--זן
--זנא
--זע
--זען
--זעצט
--זער
--זש
--זשאד
--ח
--חה
--חון
--חט
--חי
--חים
--חר
--ט
--טא
--טאן
--טאק
--טאר
--טארן
--טה
--טו
--טוועגן
--טוישט
--טור
--טי
--טיגט
--טייל
--טילט
--טימע
--טינג
--טיק
--טיש
--טל
--טליכע
--טן
--טס
--טע
--טעט
--טען
--טעס
--טער
--טערט
--טרא
--טריבן
--טש
--טת
--טײ
--י
--יא
--יאיש
--יאל
--יב
--יבן
--יבער
--יג
--יגונג
--יגט
--יגן
--יגס
--יגע
--יגען
--יגער
--יגקייט
--יד
--ידזש
--יה
--יהל
--יהם
--יהרט
--יו
--יוו
--יוון
--יווע
--יווער
--יום
--יות
--יז
--יזאציע
--יזירט
--יזירן
--יזם
--יזשפולע
--יט
--יטם
--יטן
--יטעט
--יטש
--יטשט
--יי
--ייט
--ייל
--יים
--יין
--יינט
--ייס
--ייען
--ייפל
--ייצט
--יך
--יכט
--יכטן
--יכי
--יכן
--יכע
--יכער
--יל
--ילט
--ילן
--ילף
--ים
--ימט
--ימס
--ימער
--ין
--ינג
--ינגטאן
--ינגלעך
--ינגען
--ינד
--ינה
--ינו
--ינט
--יני
--ינס
--ינסקי
--ינע
--ינען
--ינקע
--יס
--יסט
--יסטיש
--יסטישע
--יסטן
--יסטען
--יסי
--יסן
--יסק
--יע
--יעט
--יען
--יעס
--יער
--יף
--יפ
--יפן
--יץ
--יצט
--יציע
--יצע
--יצער
--יצקי
--יק
--יקונג
--יקט
--יקי
--יקייט
--יקל
--יקן
--יקס
--יקע
--יקער
--יקײט
--יר
--ירט
--ירטע
--ירן
--ירער
--יש
--ישן
--ישע
--ישער
--ית
--יתא
--ך
--כ
--כא
--כאוו
--כאפן
--כדײ
--כה
--כט
--כטן
--כטען
--כי
--כיג
--כין
--כיק
--כך
--כל
--כלעך
--כלען
--כלער
--כם
--כן
--כנ
--כס
--כע
--כען
--כער
--כפ
--כץ
--כת
--ל
--לא
--לאג
--לאגיע
--לאגן
--לאז
--לאך
--לאנד
--לאפן
--לאר
--לבט
--לד
--לה
--לו
--לות
--לט
--לטן
--לי
--ליזם
--לייגט
--לייגן
--לייט
--ליך
--ליכן
--ליכסטע
--ליכע
--ליכער
--לין
--לינ
--ליע
--ליץ
--ליקן
--ליש
--לישן
--לך
--לם
--לן
--לנ
--לס
--לע
--לעבונג
--לעבט
--לעט
--לעך
--לעכ
--לעכן
--לעכע
--לעכער
--לען
--לעס
--לער
--לצן
--לת
--לײ
--ם
--מ
--מא
--מאכט
--מאל
--מאן
--מאר
--מב
--מד
--מה
--מו
--מוד
--מון
--מוס
--מט
--מי
--מיק
--מיר
--מיש
--מישן
--מך
--מל
--מלעך
--מם
--מן
--מס
--מסטע
--מסקי
--מע
--מען
--מענט
--מעס
--מעקט
--מער
--מפ
--מצא
--מר
--מת
--מײ
--ן
--נ
--נא
--נאוו
--נאל
--נאלע
--נאם
--נב
--נבוים
--נבורג
--נבערג
--נג
--נגט
--נגיע
--נגל
--נגן
--נגס
--נגען
--נגענ
--נד
--נדיג
--נדיק
--נדן
--נדע
--נדעט
--נדעלט
--נה
--נו
--נוב
--נומענע
--נונג
--נז
--נזי
--נט
--נטא
--נטום
--נטן
--נטס
--נטע
--נטש
--ני
--ניו
--ניום
--נים
--נימען
--נין
--נינג
--ניס
--ניע
--ניצא
--ניק
--ניש
--נישע
--נך
--נלי
--נם
--נן
--נס
--נסאן
--נסק
--נסקי
--נע
--נעט
--נעם
--נעמונג
--נעמען
--נעמער
--נען
--נענ
--נעס
--נער
--נערט
--נפ
--נפעלד
--נץ
--נצן
--נק
--נקא
--נקט
--נקייט
--נר
--נשא
--נת
--ס
--סא
--סאהן
--סאן
--סבורג
--סון
--סט
--סטו
--סטן
--סטנס
--סטע
--סטער
--סי
--סין
--סיס
--סל
--סלט
--סלען
--סן
--סע
--סען
--סענע
--סער
--ספ
--סק
--סקא
--סקי
--סקעט
--סר
--סרט
--ע
--עא
--עב
--עבן
--עג
--עגן
--עד
--עדט
--עה
--עו
--עוו
--עווען
--עות
--עז
--עזעצט
--עזש
--עט
--עטא
--עטי
--עטיגט
--עטן
--עטע
--עי
--עך
--עכ
--עכל
--עכן
--עכנט
--עכע
--עכער
--עכץ
--עכקי
--על
--עלט
--עלן
--עלס
--עלע
--עלעך
--עם
--עמט
--עמן
--ען
--ענ
--ענאן
--ענדיג
--ענדיק
--ענט
--ענטפ
--עניש
--ענס
--ענע
--ענעם
--ענער
--ענץ
--עס
--עענע
--עף
--עפ
--עץ
--עצקי
--עק
--עקן
--ער
--ערא
--ערט
--ערי
--ערייען
--ערישע
--ערן
--ערס
--ערע
--עת
--ף
--פ
--פא
--פאל
--פאלן
--פאן
--פאס
--פארד
--פארן
--פה
--פול
--פולע
--פות
--פט
--פי
--פילד
--פים
--פין
--פינג
--פיע
--פיק
--פיקס
--פירן
--פיש
--פך
--פל
--פלט
--פן
--פנט
--פס
--פע
--פעלד
--פען
--פער
--פש
--פת
--ץ
--צ
--צא
--צה
--צו
--צוג
--צוטרא
--צולאזן
--צופ
--צופירן
--צורייסן
--צות
--צט
--צי
--צייג
--צייט
--ציע
--צל
--צן
--צנ
--צע
--צען
--צער
--צק
--צקי
--צר
--צת
--צױגן
--צײ
--ק
--קא
--קאוו
--קאט
--קאטן
--קאם
--קב
--קה
--קו
--קום
--קומען
--קונג
--קות
--קט
--קי
--קיי
--קייט
--קייטן
--קינד
--קל
--קלט
--קליבן
--קלייב
--קם
--קן
--קנ
--קס
--קסיד
--קסן
--קע
--קען
--קעס
--קער
--קערט
--קף
--קרא
--קש
--קשן
--קת
--קײ
--קײט
--ר
--רא
--ראוו
--ראט
--ראטן
--ראכן
--ראל
--ראס
--ראציע
--רב
--רבן
--רג
--רגן
--רגענס
--רד
--רה
--רהייט
--רו
--רוג
--רוימט
--רום
--רוף
--רופ
--רופן
--רט
--רטן
--רטע
--רי
--ריבען
--ריבענע
--רידזש
--ריה
--ריט
--רייך
--רייכע
--ריך
--ריכט
--ריע
--ריק
--ריש
--רישע
--רך
--רמירן
--רמס
--רן
--רס
--רע
--רעד
--רעדן
--רעך
--רעכט
--רען
--רעף
--רער
--רף
--רץ
--רש
--רת
--רתי
--רײ
--ש
--שא
--שאפט
--שאפטן
--שג
--שה
--שו
--שונג
--שט
--שטא
--שטן
--שטע
--שטעקט
--שי
--שייד
--שין
--שיף
--שיץ
--שיק
--שיר
--שלא
--שלאג
--שן
--שניטן
--שע
--שעוו
--שעט
--שען
--שענס
--שעס
--שער
--שפ
--שפט
--שקע
--שר
--שת
--ת
--תא
--תה
--תו
--תח
--תי
--תך
--תם
--תן
--װ
--װא
--ױ
--ױט
--ױל
--ױם
--ײ
--ײט
--ײן
--ײנט
--د
