!
"
#
##0
##1
##10
##11
##12
##13
##14
##15
##16
##17
##18
##19
##2
##20
##21
##22
##23
##24
##25
##26
##27
##28
##29
##3
##30
##31
##32
##33
##34
##35
##36
##37
##38
##39
##4
##40
##41
##42
##43
##44
##45
##46
##47
##48
##49
##5
##50
##51
##52
##53
##54
##55
##56
##57
##58
##59
##6
##60
##61
##62
##63
##64
##65
##66
##67
##68
##69
##7
##70
##71
##72
##73
##74
##75
##76
##77
##78
##79
##8
##80
##81
##82
##83
##84
##85
##86
##87
##88
##89
##9
##90
##91
##92
##93
##94
##95
##96
##97
##98
##99
$
%
&
'
(
)
*
+
,
-
.
/
0
00
000
003
01
02
021
028
03
030
034
04
042
049
05
051
055
059
06
061
069
07
079
08
080
082
085
09
092
093
095
097
1
10
100
1000
10000
1001
1002
1003
1004
1005
1006
1007
1008
1009
101
1010
1011
1012
1013
1014
1015
1016
1017
1018
1019
102
1020
1021
1022
1023
1024
1025
1026
1027
1028
1029
103
1030
1031
1032
1033
1034
1035
1036
1037
1038
1039
104
1040
1041
1042
1043
1044
1045
1046
1047
1048
1049
105
1050
1051
1052
1053
10539
1054
1055
1056
1057
1058
1059
106
1060
1061
1062
1063
1064
1065
1066
1067
1068
1069
107
1070
1071
1072
1073
1074
1075
1076
1077
1078
1079
108
1080
1081
1082
1083
1084
1085
1086
1087
1088
1089
109
1090
1091
1092
1093
1094
1095
1096
1097
1098
1099
11
110
1100
11007
1101
1102
11021
1103
1104
1105
1106
1107
1108
1109
111
1110
1111
1112
1113
1114
1115
1116
1117
1118
1119
112
1120
1121
1122
1123
1124
1125
1126
1127
1128
1129
113
1130
1131
1132
1133
1134
1135
1136
1137
1138
1139
114
1140
1141
1142
1143
1144
1145
1146
1147
1148
1149
115
1150
1151
1152
1153
1154
1155
1156
1157
1158
1159
116
1160
1161
1162
1163
1164
1165
1166
1167
1168
1169
117
1170
1171
1172
1173
1174
1175
1176
1177
1178
1179
118
1180
1181
1182
1183
1184
1185
1186
1187
1188
1189
119
1190
1191
1192
1193
1194
1195
1196
1197
1198
1199
12
120
1200
12000
1201
1202
1203
1204
1205
1206
1207
1208
1209
121
1210
1211
1212
1213
1214
1215
1216
1217
1218
1219
122
1220
1221
1222
1223
1224
1225
1226
1227
1228
1229
123
1230
1231
1232
1233
1234
1235
1236
1237
1238
1239
124
1240
1241
1242
1243
1244
1245
1246
1247
1248
1249
125
1250
1251
1252
1253
1254
1255
1256
1257
1258
1259
126
1260
1261
1262
1263
1264
1265
1266
1267
1268
1269
127
1270
1271
1272
1273
1274
1275
1276
1277
1278
1279
128
1280
1281
1282
1283
1284
1285
128553845
128553874
128553913
128553951
128553989
128554094
1286
1287
1288
1289
129
1290
1291
1292
1293
1294
1295
1296
1297
1298
1299
13
130
1300
1301
1302
1303
1304
1305
1306
1307
1308
1309
131
1310
1311
1312
1313
1314
1315
1316
1317
1318
1319
132
1320
1321
1322
1323
1324
1325
1326
1327
1328
1329
133
1330
1331
1332
1333
1334
1335
1336
1337
1338
1339
134
1340
1341
1342
1343
1344
1345
1346
1347
1348
1349
135
1350
1351
1352
1353
1354
1355
1356
1357
1358
1359
136
1360
1361
1362
1363
1364
1365
1366
1367
1368
1369
137
1370
1371
1372
1373
1374
1375
1376
1377
1378
1379
138
1380
1381
1382
1383
1384
1385
1386
1387
1388
1389
139
1390
1391
1392
1393
1394
1395
1396
1397
1398
1399
14
140
1400
1401
1402
1403
1404
1405
1406
1407
1408
1409
141
1410
1411
1412
1413
1414
1415
1416
1417
1418
1419
142
1420
1421
1422
1423
1424
1425
1426
1427
1428
142857
1429
143
1430
1431
1432
1433
1434
1435
1436
1437
1438
1439
144
1440
1441
1442
1443
1444
1445
1446
1447
1448
1449
145
1450
1451
1452
1453
1454
1455
1456
1457
1458
1459
146
1460
1461
1462
1463
1464
1465
1466
1467
1468
1469
147
1470
1471
1472
1473
1474
1475
1476
1477
1478
1479
148
1480
1481
1482
1483
1484
1485
1486
1487
1488
1489
149
1490
1491
1492
1493
1494
1495
1496
1497
1498
1499
15
150
1500
1501
1502
1503
1504
1505
1506
1507
1508
1509
151
1510
15106
1511
1512
1513
1514
1515
1516
1517
1518
1519
152
1520
1521
1522
1523
1524
1525
1526
1527
1528
1529
153
1530
1531
1532
1533
1534
1535
1536
1537
1538
1539
154
1540
1541
1542
1543
1544
1545
1546
1547
1548
1549
155
1550
1551
1552
1553
1554
1555
1556
1557
1558
1559
156
1560
1561
1562
1563
1564
1565
1566
1567
1568
1569
157
1570
1571
1572
1573
1574
1575
1576
1577
1578
1579
158
1580
1581
1582
1583
1584
1585
1586
1587
1588
1589
159
1590
1591
1592
1593
1594
1595
1596
1597
1598
1599
16
160
1600
1601
1602
1603
1604
1605
1606
1607
1608
1609
161
1610
1611
1612
1613
1614
1615
1616
1617
1618
1619
162
1620
1621
1622
1623
1624
1625
1626
1627
1628
1629
163
1630
1631
1632
1633
1634
1635
1636
1637
1638
1639
164
1640
1641
1642
1643
1644
1645
1646
1647
1648
1649
165
1650
1651
1652
1653
1654
1655
1656
1657
1658
1659
166
1660
1661
1662
1663
1664
1665
1666
1667
1668
1669
167
1670
1671
1672
1673
1674
1675
1676
1677
1678
1679
168
1680
1681
1682
1683
1684
1685
1686
1687
1688
1689
169
1690
1691
1692
1693
1694
1695
1696
1697
1698
1699
17
170
1700
1701
1702
1703
1704
1705
1706
1707
1708
1709
171
1710
1711
1712
1713
1714
1715
1716
1717
1718
1719
172
1720
1721
1722
1723
1724
1725
1726
1727
1728
1729
173
1730
1731
1732
1733
1734
1735
1736
1737
1738
1739
174
1740
1741
1742
1743
1744
1745
1746
1747
1748
1749
175
1750
1751
1752
1753
1754
1755
1756
1757
1758
1759
176
1760
1761
1762
1763
1764
1765
1766
1767
1768
1769
177
1770
1771
1772
1773
1774
1775
1776
1777
1778
1779
178
1780
1781
1782
1783
1784
1785
1786
1787
1788
1789
179
1790
1791
1792
1793
1794
1795
1796
1797
1798
1799
18
180
1800
1801
1802
1803
1804
1805
1806
1807
1808
1809
181
1810
1811
1812
1813
1814
1815
1816
1817
1818
1819
182
1820
1821
1822
1823
1824
1825
1826
1827
1828
1829
183
1830
1831
1832
1833
1834
1835
1836
1837
1838
1839
184
1840
1841
1842
1843
1844
1845
1846
1847
1848
1849
185
1850
1851
1852
1853
1854
1855
1856
1857
1858
1859
186
1860
1861
1862
1863
1864
1865
1866
1867
1868
1869
187
1870
1871
1872
1873
1874
1875
1876
1877
1878
1879
188
1880
1881
1882
1883
1884
1885
1886
1887
1888
1889
189
1890
1891
1892
1893
1894
1895
1896
1897
1898
1899
19
190
1900
1901
1902
1903
1904
1905
1906
1907
1908
1909
191
1910
1911
1912
1913
1914
1915
1916
1917
1918
1919
192
1920
1921
1922
1923
1924
1925
19256
19259
1926
1927
1928
1929
193
1930
1931
1932
1933
1934
1935
1936
1937
1938
1939
194
1940
1941
1942
1943
1944
1945
1946
1947
1948
1949
195
1950
1951
1952
1953
1954
1955
1956
1957
1958
1959
196
1960
1961
1962
1963
1964
1965
1966
1967
1968
1969
197
1970
1971
1972
1973
1974
1975
1976
1977
1978
1979
198
1980
1981
1982
1983
1984
1985
1986
1987
1988
1989
199
1990
1991
1992
1993
1994
1995
1996
1997
1998
1999
2
20
200
2000
20000
2001
2002
2003
2004
2005
2006
2007
20075
2008
20088
2009
201
2010
2011
2012
2013
2014
2015
2016
2017
2018
2019
202
2020
2021
2022
20227
20240
20247
2026
20272
203
20305
20317
20350
20371
204
20440
205
206
207
208
2083
2087
2089
209
2099
21
210
2100
211
2111
2113
212
2121
2129
213
2131
2137
214
2141
2143
215
2153
216
2161
217
2179
218
219
22
220
2200
2203
2207
221
2213
222
2221
223
2237
2239
224
2243
225
2251
226
2267
2269
227
2273
228
2281
2287
229
2293
2297
23
230
2309
231
2311
232
233
2333
2339
234
2341
2347
235
2351
2357
236
237
2371
2377
238
2381
2383
2389
239
2393
2399
24
240
2400
241
2411
2417
242
2422
2423
243
2437
244
2441
2443
2447
245
2459
246
2467
247
2473
2477
248
249
25
250
2500
2503
251
252
2521
253
2531
2539
254
2543
2549
255
2551
2557
256
257
2579
258
259
2591
2593
26
260
2609
261
2617
262
2621
263
2633
264
26459
2647
265
2657
2659
266
2663
267
2671
2677
268
2683
2687
2689
269
2693
2699
27
270
2707
271
2711
2713
2719
272
2729
273
2731
274
2741
2749
275
2753
276
2767
277
2777
278
2789
279
2791
2797
28
280
2800
2801
2803
281
2819
282
283
2833
2837
284
2843
285
2851
2857
286
2861
287
2879
288
2887
289
2897
29
290
2903
2909
291
2917
292
2927
293
2939
294
295
2953
2957
296
2963
2969
297
2971
298
299
2999
3
30
300
3000
301
302
303
304
305
306
307
308
309
31
310
311
312
313
314
315
316
317
318
319
32
320
321
322
323
324
325
326
327
328
329
33
330
33012
331
332
333
334
335
336
337
338
339
34
340
34027
34075
341
342
343
344
345
346
347
348
349
35
350
3500
351
3519
352
353
354
355
356
357
358
359
36
360
361
362
363
364
36446
365
366
367
368
3684
369
37
370
371
372
373
374
375
376
377
378
379
38
380
381
382
383
384
385
386
387
388
389
39
390
391
392
393
394
395
396
397
398
399
4
40
400
4000
40000
401
402
403
404
405
406
407
408
409
41
410
411
412
413
4138
414
415
4158
416
4168
417
418
419
42
420
421
4217
422
423
424
425
426
427
428
429
43
430
431
432
433
434
435
436
437
438
439
44
440
441
442
443
444
445
446
447
448
449
45
450
450867
451
452
453
454
455
456
457
458
459
46
460
461
462
463
464
465
465171
466
466056
467
468
469
47
470
471
472
473
474
475
476
477
478
479
48
480
481
482
483
484
485
486
487
488
489
4894342
49
490
491
492
493
494
495
496
497
498
499
4999
5
50
500
5000
50000
501
502
503
5037
504
5043
505
50567
50568
50570
50575
506
507
5071
508
509
51
510
511
512
513
514
515
516
517
518
519
52
520
521
522
523
524
525
526
527
528
529
53
530
531
532
533
534
535
536
537
538
539
54
540
541
542
543
544
545
546
547
548
549
55
550
551
55180
55189
552
553
554
555
556
557
558
559
56
560
561
562
563
564
565
566
567
568
569
57
570
571
572
573
574
575
576
577
578
579
58
580
581
582
583
584
585
586
587
588
589
59
590
591
592
593
594
595
596
597
598
599
6
60
600
601
602
603
6037
604
605
606
607
608
6089
609
61
610
611
612
613
614
615
616
617
618
619
62
620
621
622
623
624
625
6251
626
6265
6266
627
628
6282
629
6299
63
630
6302
631
632
633
634
635
636
637
638
639
64
640
641
642
6427
643
644
645
646
647
648
649
65
650
651
652
653
654
654706
655
656
657
658
659
66
660
661
662
663
664
665
66555121
666
667
668
669
67
670
671
672
673
674
675
676
677
678
679
68
680
681
682
683
684
685
686
687
688
689
69
690
691
6917
692
693
694
6947
695
696
697
698
699
7
70
700
70013
70014
701
702
703
7031
704
705
706
707
708
709
71
710
711
712
713
714
715
7155
716
717
718
719
72
720
721
722
723
724
725
726
727
728
729
73
730
731
732
733
734
735
736
737
738
739
74
740
741
742
743
74321
744
7448
745
746
747
748
749
75
750
751
752
753
754
755
756
757
758
759
76
760
761
762
763
764
765
766
767
768
769
77
770
771
772
773
774
775
776
777
778
779
78
780
781
782
783
784
785
786
787
788
789
79
790
7907
791
792
793
7937
794
795
796
797
798
799
8
80
800
8000
801
802
803
804
805
806
807
808
809
81
810
811
812
813
814
815
816
817
818
819
82
820
821
822
823
824
825
826
827
828
829
83
830
831
832
833
834
835
836
837
838
839
84
840
841
842
843
8430
844
845
846
847
848
849
85
850
851
852
853
854
855
856
857
858
859
86
860
861
862
863
864
865
866
867
86771
868
869
87
870
871
872
873
874
875
876
877
878
879
88
880
881
882
883
884
885
886
887
888
889
89
890
891
892
893
894
895
896
897
898
899
9
90
900
9000
901
902
903
904
905
9050
9059
906
907
908
909
91
910
911
912
913
914
915
916
917
918
919
92
920
921
922
923
924
925
926
927
928
929
93
930
931
932
933
934
935
936
937
938
939
94
940
941
942
943
944
945
946
947
948
949
95
950
951
952
953
954
955
956
957
958
959
96
960
961
962
963
964
965
966
967
968
969
97
970
971
972
973
974
975
976
977
978
979
98
980
981
982
983
984
985
986
987
988
989
99
990
991
992
993
994
995
996
997
998
999
:
;
<
=
>
?
@
\
^
_
`
a
aa
aan
ab
abadi
abando
abas
abasi
abasta
abate
abba
abbaco
abbas
abbati
abbiamo
abbott
abdelmajid
abe
abel
abend
aberforth
abete
abici
abidine
abita
abitant
abitasio
abite
abiti
abito
abr
abraham
abraxas
abre
abreviasio
abrevie
abril
abro
absit
absurdum
abte
abule
abunda
ac
aca
acade
acadime
accordi
accorsi
accreditato
ace
acessado
ach
achille
aco
acqua
acque
acre
acse
acsi
act
acta
actio
actus
acu
acua
ad
ada
adalberto
adam
adatame
adate
adciarasioun
add
adda
addio
ade
adecagone
adelmo
adiaza
adige
adiritu
adiritura
adizia
adl
adla
adme
ado
adolfo
adorasio
adrauva
adrauven
adre
adria
adriano
adritu
adruve
adsa
adu
adulatio
aduna
adurasio
adve
adversus
advinte
ae
aedilis
aemilia
aequo
aere
aerei
aeroge
aeroplani
aeropo
aes
aestivum
aevi
afa
afe
affaires
affo
afinche
afite
aflue
afluent
afra
afre
africa
african
afriche
afrikaans
afrikaner
afro
afront
afrunte
after
ag
aga
agata
age
agen
agendo
agenore
agense
agepe
ager
agere
ageti
agetif
aggiunta
agh
agi
agit
agitur
agl
agli
agne
agnesi
ago
agone
agostinelli
agostini
agostinia
agostino
agra
agre
agri
agricoltura
agricultu
agrigento
agro
agu
aguas
aguila
aguste
ai
aie
aik
aimonetti
ain
ainten
air
aires
aiu
aiuta
aiutami
aj
aja
ajo
ajute
al
ala
alaba
alagna
alagoas
alasia
alastor
alauda
alba
albanais
albanese
albani
albaredo
albareto
albas
albeggiani
albero
alberoni
albert
alberti
albertini
albertino
alberto
albicocca
albine
albino
albo
albornoz
albrecht
album
albus
alco
alcune
alcuni
alda
aldo
ale
alecto
alee
alegre
alessandro
alessio
alevame
alex
alexandre
alexandria
alfabe
alfabet
alfio
alfo
alfonso
alfredo
alga
alge
algebra
alghe
algna
ali
aliansa
alias
alice
aliena
alienum
alighieri
alii
aliis
alikovo
alime
alimenta
alimente
aliot
aliquid
alis
aliter
aliud
alive
all
alla
alle
allegri
allende
allo
allock
allora
alma
almansi
alme
alo
alonso
alora
alpe
alpi
alps
already
alse
alt
alta
alte
altera
altercatio
alteri
alterius
alterna
altius
alto
altr
altra
altre
altri
altrimenti
altro
altrove
alura
aluvio
alvado
alve
alveo
alveula
am
ama
amaldi
amapa
amare
amaro
amaso
amato
amaturo
amazame
amazonas
ambi
ambiente
ambij
ambijnt
ambisio
ambro
amda
ame
amedeo
amelia
ament
amercia
america
american
americana
ami
amica
amice
amici
amicis
amicitia
amico
amicos
amicum
amicus
aministrado
aministrasio
aministrati
aministrazia
aministre
amintore
amire
amleto
amo
amodeo
amor
amore
amoroso
amos
amour
amours
amsterdam
amycus
amza
amzu
an
ana
anaborare
ananindeua
anastasija
anastasio
anatomi
anc
anca
anch
ancha
anche
anco
ancora
ancouna
and
anda
andada
andame
andand
andar
andare
andava
ande
ando
andorra
andra
andrade
andre
andrea
andreevic
andreoli
andreotti
andrew
andro
andromeda
andry
ane
anfiteatro
angela
angeles
angeli
angelina
angelo
angilberga
angiolo
angiul
anglica
angola
angole
ani
anima
animae
animagus
animale
animali
animati
animation
anime
animo
animum
anita
aniversa
ann
anna
anni
annibale
anno
annos
annum
annus
annusare
ano
ans
anselmo
ansia
ant
ante
antelami
anterio
anthony
anti
antica
antiche
antichita
antichite
antico
antig
antiga
antigh
antipe
antiquo
anto
antonelli
antonini
antonio
antropologia
anunciasio
anva
anve
anvo
any
anzo
anzola
ao
aosta
ap
apare
aparecida
aparisio
apartame
apartheid
ape
apene
apenin
aplicazia
apo
apollinare
apolo
apologeticus
apologia
apostolica
apparentscha
appartenenti
appassionata
appenne
appennino
apple
appoggio
apri
aprile
apruve
apu
apua
apuge
apuntame
aqua
aque
aquila
aquisgrana
ar
ara
arabella
arabir
aracaju
araguari
arara
arau
arazzi
arba
arbe
arbitrio
arbitrium
arble
arc
arca
arcais
arcano
arcgno
arcgnusu
arche
archeolo
archeologia
archeologici
archiepiscopus
archiginnasio
archime
archite
architeto
architettura
architetu
architre
archive
archivio
arcia
arciame
arcidiocesi
arcimatto
arcive
arcli
arco
arcturus
arcu
arcua
arcule
arcurda
arcurde
arda
ardo
arduino
are
area
areb
arena
areste
arev
arezzo
arfa
arfe
arg
argenta
argento
argentum
argi
argna
argnusu
argoli
args
argsmw
argsself
argume
arguments
argumentum
argus
ari
aria
ariana
ariani
arias
ario
ariolas
ariosto
aristo
arivada
arivara
arive
arle
arles
arlo
arma
armagni
armando
armani
arme
armes
armis
armstrong
arnaboldi
arno
arnobio
arnuva
arnuvame
arnuve
aro
arpo
arpu
arpurte
arr
array
arrianorum
arrigo
arrivano
arroio
ars
arsa
arse
arsene
arsenius
arsipre
arsive
arso
arspte
art
arta
arte
artem
artes
arthur
arti
article
articoli
articolidiqualita
articul
articula
articule
artifice
artifizie
artigia
artigiane
artigianelli
artiliere
artis
artista
artistica
artium
arto
artra
arts
arturne
arturo
arve
arvensis
arvi
arvis
arvre
arz
arza
arze
arzela
arznadu
as
asa
asalte
aschi
ascoli
ascolini
ascue
ase
asedie
asemble
ashikawa
asi
asia
asicure
asinus
asio
asion
asiste
aso
asociasio
asp
aspe
aspera
aspeta
asprament
asptar
asque
ass
assisi
associac
associazione
assomec
assunta
ast
asta
aster
asteroid
astoria
astra
astro
astrono
astronomi
astronomia
astrunumi
asu
asunsio
asve
at
ata
atach
atache
atais
atar
ate
atensio
atenzia
ater
ati
ativite
atla
atle
atleta
atletica
ato
atora
atourna
atque
atra
atrave
atraversa
atraverse
atre
atri
attilio
atto
attoni
attraverso
attribuzione
attuale
atu
atualme
atura
au
auctoritas
audacia
audi
audrey
auf
auguri
augusta
augusti
augustini
augustino
augusto
augustus
aur
aurelio
auri
auro
aurora
aurum
aus
austra
australis
austri
austria
aut
auta
autem
auto
automaticamente
autori
autorite
autostre
autou
autu
av
ava
avair
avanti
avanzi
avanzini
avati
ave
avec
avend
avenden
avendo
avenime
avenimeint
aver
avere
aversa
avery
avet
aveva
avevo
avg
avgo
avi
avieno
avintu
aviva
avme
avo
avra
avre
avri
avro
avstri
avstria
avto
avtogue
avton
avtorite
avtostre
avtu
avu
avventura
avvenuti
avvi
avxije
avzije
awards
az
aza
aze
azeglio
azerbaigia
azia
azie
azienda
azio
azzardaa
azzo
azzone
azzurro
b
ba
bab
baba
babanulugi
baca
bacaje
bacca
baccalaureus
baci
bacio
bad
bade
baga
bagate
baghe
bagman
bagne
bagno
bagutti
baha
bahia
bai
bain
bala
balado
balanza
balanzune
balchio
baldassarre
baldi
baldini
bale
balestri
balilla
balletti
balo
baloun
balsamus
bambe
bambina
bambino
banana
banca
banchieri
band
banda
bande
bandeira
bandi
bandiera
bando
bandune
bantu
bantustan
bar
bara
barack
barate
barba
barbara
barbarossa
barbiane
barbieri
barbo
barca
bardasson
bardot
barelli
bargetana
bari
bariansa
bariju
barilla
barilli
barise
barlumen
baro
baron
barone
baroni
barozzi
barra
barsotti
bartali
bartno
barto
bartoli
bartolomeo
barty
bas
basa
basame
basc
base
baseball
baseindex
basilica
basilio
basin
basket
basrile
bass
bassa
bassani
bassi
basso
basta
bastio
bat
bata
batalie
bate
batesta
bath
bathilda
bati
batista
battista
battisti
batu
bavare
baviera
baz
bazar
bb
bbc
bbel
bber
bbil
bbit
bblica
bblich
bbol
bbra
bbri
bde
be
bea
beach
beal
beat
beata
beatae
beati
beatles
beatri
beatrice
beatus
beauxbatons
bec
beccaria
becchi
bech
bedo
bee
beery
bei
bel
bela
bele
belga
beli
belinelli
bell
bella
bellacchi
bellatrix
belli
bellini
bello
bellocchio
bellotti
bellum
belo
belriguardo
belrigue
beltrami
belvedere
bemporad
ben
benassi
bene
benede
benedete
benedetti
benedetto
benefato
benefe
beneficium
benevento
benevolentiae
benincasa
benjamin
benni
bentivoglio
bento
benzi
beppe
ber
berardinis
berbara
bergama
bergamo
bergomum
beri
berle
berli
berlin
berlinguer
berlusconi
bernard
bernardi
bernardino
bernardo
bernini
bersaglio
bersani
berte
bertha
berti
bertini
bertlame
bertoli
bertolucci
berzolari
bes
best
bestia
bet
betha
bettazzi
betti
bettini
bettino
bettola
bettoli
bev
bgh
bi
bia
bianc
bianca
biancani
bianchi
bianco
biane
bibia
bibliote
biblioteca
bibliugrafi
bibliugrafia
bibliuteca
bicchiere
bice
bicicle
bicicletta
bidone
bie
bien
big
bigas
bigletters
bignardi
bil
bila
bili
bilietere
bill
billy
bina
binns
bio
biografia
biolo
biologia
biondelli
birbon
birbunada
birichin
birra
bis
biscoito
bisesti
bisma
biso
bisogn
bisogna
bist
bistia
bit
bite
biuda
biugra
biugrafi
biugrafia
bix
bixit
bizante
black
blaise
blanche
blanco
blaserna
blat
blazza
ble
blic
blica
blich
blichi
blis
blo
blog
blu
blue
bmg
bo
boa
bob
bobo
bocca
boccaccio
boccia
boccoli
bocelli
bochotnica
bode
boe
boggio
boi
boiardo
boie
boken
bolesatina
boletus
bolla
bollettino
bollito
bollitura
bolo
bologna
bolognese
bolognini
bolsonaro
bolzano
bom
boma
bombe
bombelli
bompiani
bon
bona
bonaccolsi
bonacini
bonaparte
bonaventura
boncompagni
bondeno
bondi
bones
bongi
boni
bonifacio
bonifica
bonificazione
bonifiche
bonis
bonito
bono
bononi
bononia
bonorum
bonte
bonum
bonus
book
booktime
boolean
borbo
borbone
borboni
bord
bordella
border
bordiga
borelli
borg
borgatti
borghetto
borgnine
borgo
borragine
borromeo
borso
bortolotti
bosch
bosco
bot
bota
botafogo
botanica
bottazzi
botte
bottoni
botucatu
boun
bouregh
box
boys
br
bra
braga
braganc
brambilla
branco
bras
brasgilia
brasiglia
brasigliana
brasil
brasileiras
brasilia
brasilian
brasiliana
brass
braz
brazil
brazzi
bre
break
bregh
bremen
brennero
brera
bres
brescia
brese
breve
brevia
breviarium
brevis
bri
bria
brian
bric
brica
brich
brichi
briciole
bricunadi
briga
briganta
brigitte
bris
brisa
brita
british
brixa
brixellum
bro
broderick
brodus
brothers
brown
bru
bruche
brugna
brugne
brule
brumadinho
brunacci
bruni
bruno
brus
bruse
brut
bruta
bruto
brutta
bryce
bs
bsida
bu
buarque
bubie
buce
buche
bucio
buderio
budrio
budrione
bueno
buenos
bufe
buffa
bughe
buglion
buie
buje
bula
bule
bulgnais
bulgnaisa
bulgnaix
bulgnaixa
bulgne
bulgni
bulgnis
buli
bulivia
bullettino
bulo
buloagna
bulogna
bulstrode
bulugna
bulugne
bulza
bumb
bumbe
bumpo
bunbarde
bunda
bundana
bunde
bune
bunifiche
buon
buona
bura
burali
burattini
burbage
burde
bure
burgatti
burgh
burghe
burir
burke
burro
bus
busca
business
but
buta
butaa
butaig
bute
butterfly
buve
bw
bxoagn
c
ca
cabassi
cabo
cabrini
caca
caccianino
cachoeira
caconde
cada
cadavere
cade
cadelbo
cadent
cadogan
caelum
caesar
caesaris
caetano
cafe
caghe
cagliari
cagno
caia
cains
caio
cairo
caius
cal
cala
calabria
calamo
calanda
calandrelli
calapso
calatrava
calcagnini
calcio
calcole
caldwell
cale
calenda
calendari
calendario
calende
califo
calindri
call
called
calmo
calo
caloprese
calsado
caltanise
calumniae
calva
calvaire
calzett
camargo
cambare
cambi
cambia
cambiame
cambie
cambridge
came
camera
cami
camillo
camilo
camina
caminata
camino
camira
camp
campa
campagna
campagne
campagno
campagnu
campana
campane
campani
campanile
campano
camparmord
campe
campgaja
campi
campinas
campio
campionati
campione
campo
campos
campus
camugna
can
cana
canada
canade
canaji
canal
canale
canbiasioun
canbiazia
canbie
canc
candi
candide
candido
cane
canis
cano
canoa
canon
canonici
canosia
canossa
canp
canpa
canso
cant
canta
cantant
cantanta
cantanti
cantauto
cante
canti
canticorum
canto
cantoni
cantra
cantuna
canzo
canzone
canzoni
cap
capa
capacite
cape
capel
capella
capelli
capi
capir
capit
capita
capital
capitala
capitali
capite
capitole
capixaba
caple
caplo
caporal
cappella
cappello
cappucinorum
capra
caprioglio
capua
capuse
caput
capuzzi
car
cara
carara
carate
caratere
carateris
caratinga
carattere
caratteri
carbo
carbune
cardano
carde
cardina
cardine
cardoso
care
carghe
carico
caritas
carite
carl
carla
carli
carlini
carlo
carlos
carlotta
carmen
carmi
carmigna
carmignano
carmina
carmine
carmo
carmona
carnava
carnaval
carne
carneve
carnua
caro
carolina
carosello
carpane
carpe
carpi
carpigiani
carpigiano
carpineti
carpne
carps
carracci
carrara
carri
carrow
carsinte
carso
carstian
carsuda
carta
carte
cartier
carto
cartoni
carucci
carvie
cas
casa
casadei
casale
casalgra
casamatti
casanova
casaroli
casca
casche
caschiel
case
caselle
caselli
casi
casia
casle
caso
casola
casos
casotti
cassiano
cassio
casta
castagne
castalno
caste
castel
castelda
castelgeru
castelgerundo
castelli
castello
castelno
castelnovo
castelnuovo
castelvetri
castelvetro
casti
castiglione
castio
castiraga
castla
castlara
casto
castoldi
castra
castrum
casus
cat
cata
catado
catala
catalan
cataldi
cataldo
catalo
catania
catarina
cate
catedra
catedre
categore
categori
categoria
category
catellani
catere
caterina
catetinho
catherine
catholic
cati
cato
cattaneo
cattedrale
cattermole
causa
caute
cava
cavacu
cavale
cavalere
cavalieri
cavallotti
cavalo
cavat
cavce
cave
caverio
cavi
cavia
cavo
cavri
cavs
caz
caze
cazzullo
cc
cca
ccfr
cch
cchi
ccia
ccol
ccuel
cd
cdot
ce
ceara
ceca
ceccati
ceci
cecio
cecioni
cedo
cedu
cefet
celare
cele
celebrasio
celebre
celso
celti
cen
cena
cenoma
cenomani
censor
censores
center
cento
centrale
centre
centro
centum
centuriasio
cepit
cera
cercare
cercignani
cere
cerreto
certa
certaldo
certame
certi
certifiche
cerulli
cervaro
cervi
cervia
cervignano
ces
cesa
cesar
cesare
cesarea
cesari
cese
cesule
ceteris
cetra
ceva
cfr
cgd
cgno
cgnosso
cgnu
cgnuse
cgnusi
cgnuso
cgnusso
cgnussu
cgnusu
ch
cha
chains
chambre
chant
chapada
charity
charles
charlie
chascho
chaumie
che
chebe
check
checktype
chel
chen
cheplo
cher
cherna
chersu
chev
chi
chia
chiamasi
chiappini
chiara
chico
chie
chierici
chiesa
chiesi
chii
chil
chile
chilla
chilo
chimica
chin
china
chini
chioggia
chips
chita
chitara
chitari
chiunque
chowla
chris
christi
christian
christiana
christmas
christo
christum
christus
chronica
chronicon
chunks
ci
cia
ciaca
ciacarad
ciacarada
ciacare
cialme
ciama
ciaman
ciamava
ciame
ciameda
ciamen
ciameva
cianche
ciani
ciano
ciapa
ciape
ciari
ciaschidu
ciase
ciavvd
cibeno
cicero
cichi
cid
cidade
cie
ciel
cieli
cielo
ciffri
cigarini
cil
cila
cile
ciliegia
cima
cimi
cina
cinais
cine
cinema
cinematogra
cinghie
cinodapistoia
cinquini
cinzia
cio
cioe
cioppa
cipr
cipri
cipriano
circa
circo
circolasio
circole
circondario
circoscrisio
circostanze
circunda
circunde
circunvalasio
circuscrisio
circuvalasio
ciro
cis
cisa
cisalpe
cisalpina
cisco
cispada
cispadana
cita
citade
citasio
citato
cite
cito
citta
cittadino
cittaditalia
city
ciu
ciuva
cive
cives
civi
civil
civile
civilis
civilte
civis
civita
civitas
ck
cl
cla
clamo
clarissimi
clarissimus
clasic
clasificazia
clasifiche
classe
classico
claude
claudia
claudiano
claudio
cle
clemente
clerici
cli
clie
clima
clime
clo
club
clumbe
cm
cma
cmanda
cmande
cme
cminsa
cminse
cminze
cmo
cmoin
cmon
cmu
cmud
cn
cnaeus
cnusu
co
coal
coala
cobar
cod
codazzi
codex
codice
codso
coelho
coelum
cogito
cognatio
cogniti
cognugasioun
cognugazia
cohen
coi
col
cola
colaborasio
cole
colegame
colege
coleghe
colesio
coli
colin
coll
collalto
collection
collega
collegame
collegamenti
collegio
collegium
colleoni
colli
collina
collo
colo
colombo
coloni
colonia
coloniae
colonis
coloo
color
colore
colori
coloro
colosseo
colp
coltivasio
coltive
columbia
com
coma
comacchio
combats
come
comerce
comes
comessatti
comi
comic
comisio
comitialibus
comm
comme
commemoratio
commentari
commentarii
commentarius
commenti
commento
commissario
commissione
commonitorium
commons
commune
communi
communis
como
compa
comple
completame
compone
componere
comportamenti
comportamento
compos
composti
compraa
computer
comu
comun
comunale
comune
comuni
comunicasio
comuniepaesi
comunita
comunite
con
conce
conceic
concepcio
concerto
concordia
condicio
condita
conditam
cone
coneti
conf
confalonieri
confere
confessor
congiunzione
congregatio
congress
coniugi
conjugi
cono
conors
conoscere
conosciuto
conoscono
conose
conplemaint
conquista
conquiste
conscientia
conse
consegue
consensus
consenzio
consequentia
conservare
conservato
considere
consiglio
consiliarius
consilium
consistere
console
consoli
consona
consonanti
consorzio
constantium
consul
consularis
consulatu
consulatum
consules
consulto
consultum
cont
conta
contadini
contadino
contagem
contare
contarino
conte
conti
continuando
continve
contra
contraria
contrariis
contro
controle
contuti
convi
convolvulus
conza
coo
coop
cooperativa
cooperativo
copacabana
coperati
coppa
copparo
coppi
copy
cor
coram
corde
cordis
core
corea
corege
corel
corele
coremas
corneliano
cornelio
cornelius
coro
corografia
coroli
corona
coronedi
corp
corpo
corpore
corpus
corradi
corrado
corre
correa
correggio
correlate
correnti
correspondance
corriere
corrisponde
corsari
corsini
corso
corta
corte
corti
corv
corvo
corvonero
cos
cosa
cosi
cosimo
cosma
coss
costa
costabo
costantino
costanza
coste
costitue
costitui
costitusio
costre
costrui
costruir
costrusio
costrusioun
costruti
costruzio
coun
count
cours
cozi
cqua
cra
crabbe
craig
crani
crataegus
crauda
cravo
cre
creasio
creatu
creature
crede
credo
cree
creevey
cremaschi
cremo
cremona
cremone
cremonini
cremu
crepidam
crescit
crese
crespo
crest
crevalco
cri
crie
crimen
crimine
crine
cris
crist
crista
cristalina
cristia
cristiana
cristiane
cristina
cristo
cristoforo
critica
crj
cro
croce
cromazio
cron
cronaca
crostolo
crouch
cru
crua
crucife
crucis
crus
crusiata
crustulus
cruz
cs
cse
cu
cua
cuba
cubata
cuc
cuce
cucina
cucu
cucurbita
cudghi
cudo
cue
cuel
cugne
cugni
cugno
cugnu
cugnuga
cugnugasio
cugnusi
cui
cuiaba
cuique
cuius
cul
cula
cule
culeg
culegame
culeghe
culi
cullegami
culme
culo
culpa
cultiva
cultivasio
cultive
cultu
cultura
culturale
culturapopolare
culture
culu
culuniza
culura
cum
cuma
cumancia
cumba
cumbatime
cumbatu
cumbi
cumbine
cume
cumi
cumince
cumincia
cumisa
cumisio
cumite
cumitess
cumo
cumoin
cumpa
cumpagn
cumpagna
cumpagne
cumpagni
cumpari
cumpete
cumpi
cumpime
cumple
cumpleme
cumplete
cumpliche
cumpo
cumpos
cumpre
cumprenso
cumprume
cumpurtar
cumpus
cumu
cumun
cumune
cumunicasio
cumunista
cumunita
cumunite
cun
cunbinazia
cunce
cuncentre
cuncert
cuncesio
cunclo
cunco
cuncurde
cunda
cundisio
cundisiune
cundo
cunduto
cunfe
cunfein
cunfere
cunferme
cunfese
cunfi
cunfin
cunfina
cunfrate
cunfro
cunfru
cunfurmasio
cunfus
cungiuntif
cungnugasio
cungnusi
cungre
cungresua
cuno
cunpa
cunpagn
cunpagna
cunpartimaint
cunpartime
cunpaust
cunple
cunpra
cunpunima
cunpurte
cunque
cunquist
cunquista
cunquiste
cunsa
cunsacra
cunsacre
cunse
cunsegue
cunservatori
cunsgne
cunsi
cunsiderasio
cunsidere
cunsidre
cunsilie
cunso
cunsolars
cunsorsie
cunsularas
cunsulasion
cunsuna
cunsunant
cunta
cuntade
cunte
cuntenido
cuntina
cuntinve
cunto
cuntra
cuntraste
cuntre
cuntro
cunume
cunusi
cunve
cunvi
cunvinsio
cunze
cuore
cuperus
cupio
cupola
cur
cura
curat
curator
curavit
curbastro
curbe
curdge
curdo
cure
curi
curia
curiae
curido
curio
curios
curiosite
curitiba
curiusita
curne
curni
curo
curona
current
curriculum
currunt
curs
curt
curta
curte
curti
curtmagiu
curuc
cus
cusainsa
cusano
cusche
cuscogna
cuse
cusna
cuspet
custe
custo
custos
custre
custru
custrui
cuthbert
cuvenij
cva
cvi
cvr
cygnus
cza
d
da
dabo
daca
dacve
dagl
dagli
dagne
dagno
dai
daint
daj
dal
dala
dali
dall
dalla
dalle
dama
damaso
dame
damia
damnatio
dan
dance
dancing
dand
dane
daniel
daniela
daniele
danni
danno
dans
dansa
dant
dante
danti
daolio
daperto
daquadu
dar
dara
dare
darev
daria
dario
das
dasco
dascumpari
dascure
dascuri
dasdaa
daspare
daspoch
dasprada
dasprandos
dastaca
dat
data
database
dataset
date
datemi
dato
datum
datur
dava
davanti
david
davide
davis
davoli
davs
day
dc
dciarasioun
dd
ddd
dden
dder
ddi
ddor
de
dean
debeatur
debet
debetur
deble
debo
debora
decade
decagone
decca
dece
decet
deci
decime
decis
decius
declinasioun
deco
decode
decorasio
decorati
decore
decre
decreto
decuma
decurio
decurionum
dedalus
dedica
dedicavit
dediche
dedicheda
dedit
dedso
deepcopy
defa
default
deficit
defines
defini
definitivama
definitivame
definizio
defunti
degh
degli
degn
dei
deimos
dein
deinter
dej
del
dela
delacour
dele
deleghe
delicate
delinqueint
dell
della
delle
dello
delrio
dem
demarczyk
dembowski
democra
demucra
demucrasi
demugrafia
den
dennis
densite
dente
dento
dentor
dentro
denuminazia
denunsiargh
deo
departamento
depo
deposizione
depute
der
derive
derogat
derosa
derwent
des
desco
descri
description
descrisio
descuve
desdass
desfa
desgrassi
desiderio
despe
desprada
destine
destra
desvi
det
determinati
determinatif
detta
detto
deum
deus
dev
deve
deviazione
devo
dexter
dezi
df
dg
dga
dge
dgi
dgiva
dgnite
di
dia
diacono
diacre
diaframma
diala
dialatt
diale
dialet
dialete
dialett
dialettale
dialetti
dialetto
dialettologia
diama
diamante
diamantina
diamond
diario
diavolo
dice
dicere
dicevi
dich
dichi
dichia
dichiarasio
dichiarazioni
dichiare
dicia
dicit
dicono
dictaminis
dictum
die
diebus
dieci
diego
diem
diemi
dien
dies
diete
difa
difais
difare
dife
difensi
difera
difere
difesa
difeti
difficile
dificulte
difu
difus
difusa
digestio
diggory
digh
digite
dignite
dignus
dii
diis
dil
dilys
dima
dimensia
dimensio
dimisio
dimmi
dimo
dimondi
dimustrati
dimustre
din
dini
dino
dinto
dintu
dio
dioces
diocesi
dioecesis
dione
dionigi
dipartime
dipartimento
dipe
dipende
dipendi
diplo
diploma
dippet
dir
diragh
diramasio
dire
direc
diresio
diret
diretame
direti
direto
direttamente
diri
dirigi
diritti
diritto
diro
dis
disa
disambigua
disc
dischi
disco
discografica
discogreve
discorso
discugrafi
discugrafia
discusio
dise
disgnado
disgne
disgrasia
disney
disocupasio
disparasion
dispari
dispiaser
dispre
dispus
disputandum
diss
disse
dissertatio
dissolvi
dista
distacame
diste
disti
distinzia
distre
distrito
distru
distrusioun
dit
dita
ditado
ditatu
dito
ditongh
diu
dive
diventato
diversame
diversite
divi
divide
dividi
divina
divinae
divino
divis
divisa
divisia
divisio
divitiae
divitias
divulgasio
divus
divusio
dix
dixit
diz
dizionario
dizione
dj
dl
dla
dle
dma
dmanda
dmande
dmandi
dme
dmej
dna
do
doap
dobby
doc
doces
doctor
doctrina
docume
document
documentasio
documentation
documente
dodecagone
dodice
doge
dolciastro
dolo
dolores
dom
dome
domenichino
domenico
domi
domine
domini
domino
dominus
domo
domum
domus
don
dona
donati
donato
donca
donec
dong
donizone
donna
donne
donnino
dono
donum
dop
dopa
dopgue
dopi
dopmezde
dopo
dopu
dor
dorando
dordoni
dormi
dos
dosso
dou
douard
dounca
dova
dove
dovere
downs
dr
dra
draco
draint
drama
dramatu
dre
dree
dres
dresda
dri
dric
dritt
dro
drogueria
drova
drove
drua
drue
drugare
drugolo
druva
druve
ds
dsca
dscoar
dscoarar
dscue
dscuvrida
dsfe
dsi
dtirol
du
dua
dube
duc
duca
ducci
duce
duces
duche
ducume
dudley
due
duetto
dugaro
dulce
dulcis
dum
dumbledore
dume
dumi
dumont
dunaree
dunasio
dune
duo
duomo
dupiado
dupl
duplex
dur
dura
durante
dure
duri
durmi
durmstrang
duro
dursley
dus
duta
dute
duto
dutu
duture
duv
duve
duvi
duvu
dv
dva
dvanta
dvd
dve
dveinta
dvi
dvinta
dvintara
dvinte
dvintera
dvinto
dx
dze
dzvilop
e
ea
eadem
earth
ebra
ebre
ec
ecc
ecce
eccl
ecclesia
ecclesiae
ecclesiam
ecclesiastica
ecezia
ech
eclano
econo
economi
economia
ecuador
ecuno
ecunumia
ecz
ed
eda
edda
ede
edgar
edgardo
edic
edifi
edile
edisio
edito
editora
editore
editorial
edizioni
edl
edla
edoardo
edu
educac
educasio
efe
efimov
efsa
eg
ege
egh
egi
egisia
egit
egl
egli
egn
ego
egregius
ehi
ei
eileen
ein
einaudi
eine
eira
eis
eius
eiusdem
ej
el
ela
elande
ele
elega
eleme
elemente
elementi
elemento
elements
elena
elenche
eleonora
elesio
eletore
eletro
elettrochock
elettronica
elez
elezio
eli
elia
elide
elio
elis
elisabetta
eliseu
ella
else
elseif
elt
elvira
em
emanuele
embriulugi
eme
emeja
emi
emia
emiglia
emiglie
emijan
emijana
emilia
emiliana
emiliano
emilie
emilio
emma
emmeline
emosio
empi
en
enadecagone
enagone
enc
enciclupedia
enclave
enctype
end
endecagone
enea
eneide
energi
engenharia
english
enim
enko
enn
ennemond
ennio
eno
enri
enrico
enriques
ensa
enta
entasio
ente
entra
entrada
entre
enza
enzo
eodem
ep
ephemeris
epis
episcopo
episcopus
episcupa
episo
epistolario
epistula
epistulae
epitaciola
epitome
epo
eq
equ
equato
equazia
equazio
eques
equivoci
er
era
eran
erat
erba
erbe
erbologi
erbulugi
erce
ercole
ere
eredita
eredite
eren
erere
ergo
eric
erie
erika
eris
erit
erl
ermanno
ernest
ernesto
ernie
ero
eroti
error
errore
errors
ert
es
esa
esagerare
esattamente
escape
escapepattern
escola
ese
esempi
eser
eslamasio
eslamati
esodo
espansio
espe
especial
espi
espirito
espre
espresio
espus
essa
esse
essend
esserci
essere
essi
est
esta
estado
estate
este
estee
estense
estensi
esteren
esterni
esthe
esti
esto
estrarre
estre
estremi
estudos
et
eta
etadecagone
etagone
etc
ete
eter
etherington
etiam
etimologi
etimologia
etnografia
etra
etri
etro
etrosch
ettore
eucherio
eucli
euclide
euclidea
eufo
eugenio
eulalia
eulero
euro
eurobeat
europa
europe
europea
eurostar
eusebio
eustachio
ev
eva
evagrio
evangelista
evangelium
evans
eve
eventi
eventuale
everard
evide
evite
evro
evropa
evrope
ewa
ex
exainpi
example
exceptio
excusat
exempla
exire
experimentum
experiri
explanatio
expositio
expositiones
ext
extension
extra
extramore
eye
ez
ezio
f
fa
faa
faba
fabbri
fabbrica
fabbrico
faber
fabio
fabra
fabrega
fabricasio
fabriche
fabrizio
fabula
faccio
face
facebook
facere
facette
faceva
facie
faciendo
faciendum
facilite
facilme
facis
facit
faciunt
facolte
facto
factum
faculdade
facultati
faculte
fadara
fadi
fadiga
faenza
fafa
fag
faga
faghe
fagnano
fairum
fais
faith
fala
falk
false
fam
fama
famajja
famam
fame
fames
fami
famiglia
famija
familia
family
famo
famous
famu
famusa
fan
fancelli
fanfani
fange
fann
fano
fanta
fante
fanti
fantoni
far
fara
faragh
farde
fardella
fare
farini
farli
farmace
farmaci
farne
farnese
farroupilha
farve
fas
fasa
fasandghen
fase
fasi
fasio
faso
fassenda
fat
fata
fati
fato
fatt
fatta
fatti
fatto
fattori
fatu
faura
faustino
fausto
faustum
fava
favan
favo
favra
favure
favuri
fazzari
fc
fe
febre
fecero
fecerunt
fecit
fedde
fede
fedelte
federa
federal
federasio
federe
federi
federico
federigo
fein
feira
fel
felghe
feli
felice
felix
fellegara
felsi
feltrein
feltrino
fem
femina
femini
feminil
femme
femmina
femminile
femminili
fen
fenice
feno
fer
fera
ferare
feras
ferdinando
fere
fergola
feriundo
fermat
ferme
fermentasio
fernand
fernandel
fernando
ferove
ferovi
ferovia
ferrando
ferrante
ferrara
ferrarese
ferrari
ferrarini
ferraroni
ferre
ferreira
ferrero
ferro
ferrovie
ferruccio
ferruzzi
feruvi
ferve
fervet
fes
festa
feste
festege
festiva
festival
festivite
festo
fetta
feude
fevdata
ffi
ffri
fi
fia
fiaa
fiaba
fianc
fiat
fibonacci
fic
fica
fich
fichi
ficia
ficialme
fico
fiction
fide
fidei
fidelis
fides
fido
fiduciae
field
fiera
fieri
fieva
fievan
fig
figaro
figg
figlia
figlio
figu
figura
figure
fil
fila
filch
file
fili
filiberto
filippo
filius
film
filmugrafi
filo
filos
filosofi
filosofia
filus
fin
fina
finale
finali
finalme
finansia
finansiame
finansie
finanzie
find
fine
finem
fines
finestra
finestre
fini
finira
finire
finla
fino
finzi
fio
fiom
fioo
fior
fiordaliso
fiore
fiorella
fiorenzo
fiorisa
fiorone
fire
firenze
firma
firme
firmico
first
fis
fise
fisica
fisich
fisico
fiss
fit
fiu
fiule
fium
fiuma
fiume
fiumm
fiura
fiure
fiuridu
fiurinso
fiurinte
fivisa
fjo
fla
flag
flamen
flauti
fle
fleur
flint
flitwick
flo
floor
flora
flores
floresta
fne
fnestre
fni
fo
fog
fogliani
fogliano
foij
foj
foja
foji
folbal
folk
folklore
fomentada
fonda
fondasio
fonde
fonit
fonovisa
fonseca
fontana
fontanesi
foo
football
for
fora
ford
fore
forest
forma
formaggio
formaj
formasio
format
formatinlanguage
formatmessage
forme
formi
fornaciari
forno
foro
forsa
forse
forsi
fort
fortaleza
forte
fortebraccio
fortes
fortescue
forti
fortificasio
fortifiche
fortitudo
fortuna
fortunae
fortunato
fortune
forum
forza
fossa
fossan
fosse
fosso
fossoli
fossombroni
foto
fotogra
fotografe
fotografi
fotografia
found
foundation
fourma
fourmi
fox
fr
fra
fracci
fradda
frade
fradej
frame
fran
franc
franca
france
frances
francesa
francesca
francesch
francesco
francez
franch
franchi
francia
francisco
franco
frank
fransa
fransaix
franse
franz
franza
franzais
franzi
frara
frare
fras
frasino
frasio
frasion
frate
fratelli
fratello
frater
frati
fratrum
frattini
fraxe
frazia
frazio
fre
fred
freque
frequente
fri
fria
frica
fridwulfa
friedrich
frigna
frignano
frinia
frio
fritz
fro
from
fronte
frott
fru
fructus
frunte
fruntespe
frunti
frut
fruta
frutt
fu
fuggire
fughe
fugo
fugu
fuit
fuja
fule
fuma
fume
fumetto
fumus
fun
function
functions
functus
funda
fundac
fundado
fundame
fundamentali
fundamente
fundasio
fundazia
funde
fundo
fune
funky
funsio
funsiona
funsione
funta
funtana
funzia
funzione
funzioni
fuochi
fuoco
fuori
fura
furaste
furasti
fure
furen
furio
furle
furma
furmain
furman
furmasio
furme
furmi
furminto
furmnte
furne
furni
furno
furor
furte
furtificasio
furtifiche
furto
furtu
furtune
fus
fuscre
fuse
fusignano
fusione
fuso
fuss
futu
futugrafi
futugrafii
futuro
fœura
g
ga
gabe
gaber
gabriel
gabriele
gabriella
gabrielle
gabriotto
gacy
gadu
gaetana
gaetano
gaiamens
gaio
gaje
gal
gala
galaix
galatea
gale
galeazzo
galere
galeri
gali
galilei
galileo
gall
galleria
galli
gallia
gallo
galo
galva
galvani
gama
gambo
game
gan
ganba
gandolfe
gangemi
gar
gara
garanti
garantiss
garfagna
garfagnana
garibaldi
garibe
garo
garrick
gas
gasa
gaspare
gasparini
gasparo
gaston
gat
gata
gati
gatta
gatto
gaudenzio
gaudio
gaunt
gauss
gava
gaza
gaze
gazza
gazzata
gdzie
ge
gebbia
gellert
gemele
gemma
gen
gene
genera
general
generalis
generalme
generasio
genere
generis
genero
genesi
genio
genite
genito
genius
gennaio
genoa
gens
genta
gente
gentibus
gentium
genua
genus
geo
geogra
geografe
geografi
geografia
geolo
geome
geometri
geometria
geometrie
georg
george
georges
ger
gera
gerais
geral
germa
germain
germania
gerolamo
ges
geschichte
geso
gessi
gesta
gestarum
gesti
gestio
gestire
gesto
gesu
gesve
get
getboolean
getcurrentframe
getletters
getparameters
getparent
geugra
geugrafia
geugrafica
geurgrafica
gg
gga
gghet
ggin
gglia
ggn
ggna
gh
gha
ghe
ghel
ghen
gher
gherardini
gherardo
gheru
ghesa
ghestan
ghetaldi
ghi
ghiarde
ghibele
ghibellini
ghirardini
ghirlande
ghli
gi
gia
giacinto
giacomo
gialde
giallo
giambattista
giambelli
gian
giancarlo
giandi
gianfranco
gianni
giano
giapo
giapune
giarde
giaro
giase
giavare
giavelo
giaze
gic
gica
gich
gichi
giga
gige
gigi
gii
gil
gilberto
gilda
gilderoy
gin
gina
ginge
gini
ginny
gino
gint
ginta
gio
gioco
gioele
gioran
giordani
giordano
giorgia
giorgio
giorn
giornalismo
giornate
giorni
giorno
giosue
giovan
giovane
giovanni
giovannino
giove
giovede
gir
giramondo
gire
girl
giro
girolamo
gita
giu
giua
giude
giudi
giudiche
giudici
giuie
giulia
giulian
giuliana
giuliano
giulio
giumetri
giurame
giurisdisio
giurisprude
giurna
giurnale
giurnali
giurnalista
giurne
giuseppe
giuseppina
giuste
giustisia
giusto
giuvide
given
gje
gl
glace
gladio
gli
glia
glian
gliana
glo
glorenza
gloria
gloriam
glure
glurns
gmatch
gmiti
gn
gna
gnanc
gnanch
gnara
gne
gnen
gnent
gni
gnia
gnii
gnint
gninta
gnir
gnira
gnire
gnit
gniva
gno
gnoasar
gnoasr
gnol
gnu
gnuche
gnuda
gnudi
gnugan
gnussu
go
goffredo
gofredo
goia
gola
goli
gon
gonci
gone
gonzaga
gor
gora
gordini
gordon
gorini
goti
gotich
gotico
gov
governatore
governo
govi
goyle
gra
gradasio
grade
grafi
grafie
grafo
gragna
grama
gramatica
gramegna
grammatica
grammatici
gran
grana
grand
granda
grande
grandes
grandi
grandio
grandissim
granduche
grane
granger
grano
grant
gras
grasa
grasia
grass
grasso
grata
gratan
gratars
gratia
gratias
grawp
grazia
gre
great
greatest
greca
grech
greco
green
greengrass
gref
gregge
grego
gregoria
gregorian
gregorio
gregorovich
greguria
gregurian
greppi
grey
gri
grifondoro
grigia
grigio
grindelwald
gringoire
grinta
griphook
gris
grischun
griselda
griz
grize
gro
grop
gropp
groppi
groppo
gros
grossi
grosso
grothendieck
groups
gru
grubbly
gruber
grup
grupe
gruppo
gsub
gta
gu
gua
guada
guadagne
gualte
gualtiere
gualtieri
guarda
guarde
guardia
guareschi
guarido
guarini
guas
guascogna
guasta
guastale
guastalla
guastallese
guaste
gubbio
guccini
gue
guelfi
guelfo
guera
guerna
guerra
guerze
gufred
guglielmini
guglielmo
guglio
gui
guicciardini
guida
guide
guido
guidotti
guinte
gula
gule
gunfalo
guns
gur
gure
gurguns
guri
gusta
gustass
gustess
gustibus
gusto
gutta
gutturnio
guve
guyana
gv
gva
gve
gvernado
gverne
gvit
h
ha
habe
habeas
habemus
habent
habere
habet
habetur
habitat
hac
haec
hagrid
hai
half
hamburger
hamilton
han
hand
hann
hannah
hanno
har
hardini
harper
harry
harshad
hasselblad
hava
have
hawaii
he
hebe
hebraicorum
heegner
hej
henri
henry
hepzibah
her
herberia
herbert
heres
hermann
hermione
herna
hertogenbosch
hic
hierarchy
hieronymus
hii
hilbert
his
histo
historia
history
hits
ho
hoa
hoc
hogwarts
hokey
holstein
home
homine
hominem
homines
homini
hominibus
hominis
homo
hon
honorii
hooch
hopkirk
hora
horace
horizonte
horto
hostem
hot
howard
htm
html
http
https
hugo
humani
humberto
hume
hunter
huset
hyerosolimitanum
hymni
hyperion
i
ia
iam
iama
iame
iana
ibge
ibi
ibidem
ibirapuita
ibis
ibn
ic
ica
ice
ich
iche
ici
id
ida
ide
idea
idealme
idee
idem
identical
identici
idi
idio
idla
ido
idra
ie
ien
ier
iess
iesus
if
iga
igl
igli
iglia
ign
ignazio
ignis
ignorantia
ignore
ignotus
igor
igreja
iguac
ii
iii
ij
il
ila
ilario
ildebrando
ile
ilhe
ili
ilia
ilj
ill
ille
illis
illo
illustribus
ilumine
ilus
im
ima
imacole
image
imagine
imago
imazine
imbambii
imbar
imbastardi
imbli
imbusche
imdb
imigra
imigrazia
imitasio
immagine
immanuel
imo
imp
impa
impalcadu
impantaname
impar
imparand
impare
imparente
imparfe
imparinte
impe
imper
imperada
imperado
imperadour
imperati
imperato
imperator
imperfetto
imperiali
imperie
imperio
imperium
impgne
impi
impia
impiante
impidi
impie
impiegati
impieghe
impini
impo
importa
importansa
important
importante
importe
impossibilia
imposta
impr
impre
imprendito
impresa
impresio
impruvi
impune
impurta
impurtant
impurtanta
impurtanti
impuse
impussebli
in
ina
inamure
inans
inau
inaugu
inauguracion
inaugure
inavgurasio
inavgure
inc
inca
incantatore
incante
incanto
incariche
incau
incavadu
ince
incerta
inch
inci
incia
incis
includemetatable
inco
incollare
incontr
incontra
incontri
incora
incredibili
incro
incu
incuati
incula
inculare
incumbit
incumince
incuntra
incuntre
incurunasio
incurune
ind
inda
inde
indebli
indemoniati
indentazione
independe
indeterminati
indeterminatif
index
indi
india
indic
indica
indicati
indicatif
indicato
indice
indiche
indici
indios
indipende
indipendenti
indire
indiriss
indo
indoeurope
indoeuropee
indoeuropei
indolent
indov
indovv
indre
indree
indri
indu
indua
industrialis
industrie
ine
infa
infanzia
inferio
inferiore
inferiori
inferis
inferme
infi
infin
infini
influ
influa
influenze
info
infobox
informa
informasio
informatica
infra
infurmasio
inga
ingegneri
ingegneria
inghilte
ingigne
ingiuria
inglais
inglaix
ingle
inglese
ingrandi
ingre
ingresso
ingua
ini
iniuria
iniziale
iniziali
inizialmente
inluminasio
inno
inpare
inparente
inpe
inperada
inpurta
inpurtant
inpurtanta
inpurtanti
inpurtanza
input
ins
insa
insamm
inscre
inse
insegn
insegnadi
insen
inserire
insert
insgna
insgnameint
insgnaram
insgne
insi
insieme
insnie
insnieri
inso
inson
insonia
inspire
institusioun
institutiones
instituto
insu
insult
int
inta
intaje
intant
intar
intarsie
inte
inteligi
inten
intensio
inter
intercity
intere
interesa
interese
internasione
internasiune
internazionale
internazione
internaziune
interne
internet
interpretatio
interpretazione
interprete
intersiadu
interugati
interva
interve
intervi
intervista
interviste
inti
intinimo
intitule
into
intorno
intr
intra
intranxitif
intre
intric
intunasio
intus
inundasio
invaria
invarie
invas
invasia
invasio
inve
invece
inveci
invectivae
invenit
invensio
invente
invento
inverne
investidu
investime
invicive
invicto
invictus
invide
invie
invisti
invistidu
invoke
inz
inza
inzaghi
inzg
inzgnari
inzgne
io
iob
iod
iommla
iotti
ip
ipa
ipairs
ipod
ipotenu
ipotesi
ippolito
ipsa
ipse
ipso
ipsum
ipv
ir
ira
iran
irc
irca
irch
ird
irda
iregh
iregule
ireneo
ires
iri
irla
irlande
irma
irne
is
isa
isaac
isabella
isbn
iscre
iscreta
iscri
ise
isi
isio
iso
isola
isor
ispe
ispire
israel
ist
ista
istass
iste
ister
isti
istitu
istitui
istitusio
istituto
istituzio
istra
istrusio
istruzione
isula
it
ita
itabuna
itado
itaglia
itaglian
itagliana
itaglie
itaja
itajan
itajana
italia
italian
italiana
italiane
italiani
italiano
italiche
italici
italie
italja
italjan
italo
italy
itaparica
ite
item
iterator
iti
itinerarium
itu
iu
iubet
iudex
iudicata
iudicis
iulugi
iura
iure
iuris
ius
iustitia
iustitiam
iuvat
iv
iva
ivan
ivanov
ivi
ix
iŋ
j
ja
jacarezinho
jack
jacobina
jacopo
jacques
jae
jag
jair
jam
jambon
james
jan
jana
jane
janeiro
jannacci
japonese
jardim
jazz
je
jean
jelena
jeremy
jestem
jesu
jesus
ji
jim
jimmy
jj
jja
jo
joa
joan
joe
johann
johannes
john
johnny
johnson
joinville
jolly
jonathan
jones
jopek
jorge
jorkins
jornal
jose
joseph
journal
jovi
jpeg
jpg
jr
json
ju
juan
judas
judicium
juke
jules
julius
jura
juris
jus
juse
justadu
juste
justin
juta
jute
k
ka
kalendas
kant
karkaroff
karl
kendra
kennedy
kettleburn
key
kg
khanh
ki
kiki
kilo
kimbra
king
kingsley
kiss
km
kmq
knapp
ko
koine
konstantin
kora
korsakov
kova
krako
kreacher
ku
kv
kw
kɲu
l
la
labor
labore
lacoste
lada
lade
ladro
ladu
lady
lae
laedit
lag
lagastre
lago
lagrange
laingua
laingv
lajeado
lake
lakes
lakhal
lama
lamberto
lamborghini
lambro
lambrusco
lamo
lan
lana
lanburghe
land
landi
lang
langobardorum
langua
language
languv
lanse
lanze
lapi
lapidem
lapillo
lar
largame
larghe
lario
larione
las
lasa
lase
lasse
lasso
lat
lata
late
latein
latena
latere
latet
lati
latina
latino
latte
laude
laudibus
laura
laurea
lauro
laus
lav
lava
lavachie
lave
lavender
lavo
lavorare
lavorasio
lavore
lavoro
lavour
lavu
lavurasio
lavure
lavuri
lavurir
laz
lazareno
lazzaro
lb
lba
lber
lbum
lc
lca
lch
lcher
lchi
lcol
ld
lda
ldi
ldica
ldich
ldichi
ldu
le
lea
leader
lebra
leda
lee
leeuwarden
left
leg
lega
legatus
lege
legem
leges
legge
leggenda
leggera
leggere
leggi
legh
legi
legibus
legio
legis
legit
legna
legno
lego
legum
lei
leker
lelio
lem
lemiso
len
lengua
lenin
lentini
leo
leon
leonardo
leone
leoni
leonida
leopardi
lepidi
lepido
lepri
lera
les
lestrange
leter
letera
leteradu
leteratu
letere
letras
lett
letter
lettera
letteratura
lettere
letto
lettra
lettradu
lettres
letu
lev
levado
levante
levi
levis
levo
lex
lezioni
lf
lfia
lg
lga
lgebra
lgi
lgio
li
lia
lib
libarta
libarte
libbatius
libellus
libens
liber
libera
liberasio
liberazio
libere
liberi
libero
liberta
libertas
liberte
liberum
libra
libraryutil
libri
libris
libro
libros
lic
lica
lice
licentiatus
licet
lich
lichi
licitum
lid
lida
lide
liechtenstein
liee
life
liga
ligabue
ligam
ligame
ligamm
lighe
light
ligo
ligonchio
ligu
liguri
liguria
lila
liliana
lilli
lily
lima
limine
limite
limone
limoni
limoux
lin
lina
lincoln
line
linea
linegrey
lines
lingua
lingue
linguestga
lingui
linguistica
linhares
link
linnaeus
lino
lio
lione
lionel
liquet
liquido
lira
lirica
lisa
lisandria
list
lista
liste
lit
lita
lite
litem
liti
litteram
litteras
litu
litua
liu
liute
live
livello
livio
livraga
liwe
lix
liz
lj
lja
ll
lla
llda
ller
lli
llica
lls
lm
lma
lmer
lo
loaddata
loca
local
localite
locca
loche
loco
locorum
locus
lod
lodi
lodigiano
lodigraf
lodo
lodovico
lodve
log
logarithmorum
logo
lombard
lombarda
lombardia
lombardo
lomellina
london
londra
long
longa
longanesi
longbottom
longe
longobe
lontan
loo
lor
loredana
lorenzo
loreto
loria
loris
loro
los
lota
lotaringia
louis
louise
lour
lourdes
lov
love
lovegood
loyola
lp
lpa
lpi
lpj
ls
lsa
lsi
lt
lta
ltem
lten
lti
ltic
ltica
ltich
ltim
ltma
ltmi
ltum
lu
lua
lublin
luca
lucalite
lucati
lucca
luce
lucera
luceria
luche
luciani
luciano
lucie
lucifero
lucille
lucio
lucius
lucrezia
ludmilla
ludo
ludovico
luds
ludus
ludwig
lug
lugh
lughe
lugo
lui
luiggia
luigi
luigia
luis
luisa
luj
lula
lum
lumacorno
lumba
lumbardi
lumbardia
lumbe
lume
lumine
luna
lunbardi
lunbardie
lunbardo
lunbe
lune
lunede
lung
lunga
lungazza
lunghe
lunghezza
lunghi
lungo
lungube
lunigia
lunigiana
lunta
lunte
luoghi
luogo
lupi
lupin
lupo
lupus
lura
lure
lus
lusare
luse
lusembu
lussembu
lute
lutezio
luther
lux
luza
luzi
luzoo
luzzara
lv
lva
lver
lvio
lza
m
ma
mac
macao
macapa
maceio
macgregor
machi
macio
macmillan
macnair
macrobio
mad
madam
madama
madame
madison
mado
madonna
madrid
madure
maeste
mafalda
maffei
mag
maga
magas
magg
maggi
maggio
maggior
maggiore
magi
magia
magiche
magio
magis
magister
magistre
magistris
magiu
magiura
magn
magna
magnae
magname
magnamo
magnani
magnaro
magne
magni
magnificat
magno
magnus
mago
magon
magre
magreda
mai
maie
mail
main
maio
maior
maiora
maiorem
maj
maja
major
mal
mala
malaguzzi
malate
malati
malatia
malchiodi
malcolm
malcontenta
male
malfoy
mali
malo
malorum
malpi
malpighi
malta
malte
maltraversi
malum
malvestiti
mammeta
man
manara
manare
manaus
manc
manca
mancas
manch
manche
mand
manda
mande
mandela
mandga
mandi
mandy
mane
manera
manet
manfredi
manfredini
mangero
mangi
mangia
mangiala
mangiali
mangialo
mangiamo
mangiano
mangiato
mangiavo
mangio
manha
mani
manibus
manifesta
manifestasio
manlio
mannoia
mano
manse
manson
mante
mantgni
mantgnime
mantgnu
mantgu
manti
mantova
mantovani
mantovano
mantua
mantv
mantva
manu
manual
manuel
manus
manzo
manzoni
map
mapa
mar
mara
marabe
maranesi
marango
maranha
marani
maravilha
marca
marcello
marchbanks
marche
marchelli
marches
marchese
marchesi
marchetti
marchi
marchize
marci
marcia
marco
marcolongo
marconi
marcus
mare
marein
marescotti
marge
margherita
mari
maria
mariae
mariangela
marianna
mariano
maricotinha
marie
mariele
marilyn
marina
maringa
marino
mario
marito
mariæ
mark
marlene
marmiro
marmo
maro
marola
maron
mars
marse
marte
martede
marti
martin
martini
martino
martyr
maru
maruche
marvolo
marxi
mary
marzabo
marziano
marzie
mas
masa
masara
masc
mascherpa
maschi
maschil
mase
masinsa
masmame
mason
masone
massa
massimiano
massimiliano
massimino
massimo
mastrofini
match
mate
mateina
matema
matematica
mater
materia
materie
materno
mateus
math
mathbb
matia
matieri
matlosa
mato
matribus
matrimo
matriz
matt
matta
mattarella
mattek
matteo
matthaeum
mattina
matulaitis
matutina
mau
maud
maurisia
maurizio
mauro
maurolico
maurt
mavre
max
maxima
maxime
maximo
maximum
maximus
may
maz
maza
maze
mazurka
mazza
mazzolari
mazzoni
maɲ
mb
mba
mbar
mber
mbi
mbia
mbian
mbien
mbit
mbol
mbra
mbren
mbri
mbul
mcdonald
mcgonagall
mcgranitt
mcguffin
mckinnon
mda
me
mea
meca
mecum
medaglia
media
mediasio
mediawiki
medici
medicina
medico
medicus
medieva
medieve
medio
medioe
medioeve
mediterraneo
mediue
meds
medze
mega
mei
meint
meinter
meix
mej
mel
mela
melania
melara
melato
meleagris
meleti
meli
melior
meliora
melius
melloni
melocio
meloni
member
memento
meminisse
memo
memoria
memoriae
memoriam
memorie
memoriæ
men
mena
menabrea
menc
mendes
menga
meno
menotti
mens
mensa
mensis
ment
mentis
mentre
menu
mer
merca
mercanse
mercato
merce
merco
mercury
merenda
merenti
meridia
meridiem
meridione
meridiuna
meridiune
merisi
merite
merito
merla
merladu
merle
merobaude
mersenne
mes
mesi
mesico
mesola
mess
message
messaggio
messico
messina
mestiere
met
meta
metal
metallica
metar
mete
meter
metheny
meti
meto
metr
metradu
metras
metre
metri
metris
metro
metropolis
metropolitan
metropolitana
metropolite
metrupulitana
metrupulite
metud
metuit
meu
mexico
mez
meza
mezano
mezde
mezzadri
mezzanotte
mezzofanti
mezzogiorno
mg
mi
mia
mian
mic
mica
mich
michael
miche
michelangelo
michele
michelsen
michi
michigan
mico
mie
miga
miglia
migliarina
miglio
migrasio
miguel
mihi
mil
mila
milan
milane
milanesa
milani
milano
mile
milena
miles
milian
milio
miliore
milita
militaris
milite
militer
militum
milje
mill
mille
millicent
milva
milvio
min
mina
minace
minas
mine
minecraft
mineo
minera
minere
minerva
minga
mingardi
minghe
minghetti
minh
mini
miniadu
miniatura
minice
minimo
ministe
ministerie
minor
minore
minorum
minozzo
minu
minus
minuteria
minuti
minuto
mio
mir
mira
mirabe
miracoli
miragoli
miranda
mirandule
mirandules
mirbeau
mire
mirtilla
mis
misa
misco
mise
misera
miseria
misio
misiuna
misiune
miss
missa
missing
missionarius
missouri
miste
mistu
misura
mit
mita
mite
mithrae
miti
mitu
mixur
mja
mje
mli
mm
mma
mmen
mmer
mmi
mmla
mna
mne
mni
mno
mo
moaning
moccia
mod
moda
mode
modena
modenese
modere
moderen
modesto
modna
modo
modonesi
module
modules
modulo
modus
moglia
moglie
moire
mole
moles
molie
molino
mollica
molly
molokai
molt
molti
molto
mome
mona
monaci
monaco
monari
mond
mondadori
mondi
mondiali
mondie
mondine
mondo
moneda
monetta
monica
monicelli
monnier
mons
monsignor
monsignore
monster
mont
montanari
montanelli
monte
montepulciano
montericco
montes
monti
monume
monumente
monumentum
moo
moody
moore
mora
moraes
morandi
more
mores
mori
moribus
morituri
mors
mort
morte
mortem
morti
mortibus
mortis
morus
motiv
moto
motociclismo
motozicla
mount
moura
movie
moviola
moz
mozart
mp
mpa
mpar
mpi
mpit
mpla
mpo
mpra
mrp
mrs
msg
msgkey
mt
mte
mu
mubi
mucajai
muccino
muce
muda
mude
mudifiche
mudle
mudne
muerte
mugna
muime
muja
muje
mulate
mulciber
mule
muli
mulier
muline
mulino
multa
multi
multos
muma
mume
mument
munasti
mundari
mundi
mundia
mundie
mundo
mundus
mune
mungo
munice
munici
municipal
municipe
municipio
municipium
munize
munsgno
munt
munta
muntagna
muntane
muntaro
muntca
muntchiaro
munte
muntfalco
muntfiure
muntfiurein
muntlo
muntre
muntve
muntza
muntze
munu
munume
munz
mup
mura
muradu
muratori
mure
murfa
muri
muro
mursia
murte
mus
musc
muscas
muse
museo
museum
music
musica
musice
musiche
musichiere
musicista
mussole
mussolini
mustass
mustre
mutandis
mutant
mutantur
mutatis
muti
mutina
muto
muvime
muvma
muvme
muzica
mw
my
myrtle
mysteriis
mza
n
na
nacional
nada
nade
nadia
nadine
nagini
naif
naigher
naiv
nal
nam
name
names
nan
nane
nanna
napolea
napoleo
napoleon
napoli
napolitano
napulita
nar
narada
narcissa
nardi
nas
nasa
nasalli
nasce
nascere
nascondiglio
nase
naser
nasi
nasio
nasione
nasioun
nasiuna
nasiune
nassu
nasu
natal
natale
natalia
natalis
nate
nati
natif
national
nationale
nativite
nato
natu
natum
natura
naturale
naturalme
nature
natus
nauva
nave
naviga
naviglietto
nazario
nazi
nazia
nazio
nazionale
nazionali
nazione
naziune
nb
nba
nber
nbria
nc
nca
ncen
nch
nchen
nchez
nchi
nci
ncia
ncias
ncip
nco
nd
nda
ndar
ndataset
nde
ndech
ndel
nden
nder
ndes
ndga
ndi
ndia
ndic
ndid
ndida
ndla
ndra
ndres
ndria
ndrom
ne
nea
nec
neca
necesa
necese
necesite
necessarium
necesse
necessitas
necessitate
nefastus
neghe
negli
nego
negri
nei
neil
nel
nell
nella
nelle
nelson
nema
nemi
neminem
nemini
nemo
nen
nencini
neo
neos
nepos
neptunus
neque
ner
neri
nero
nescio
nescis
nessuno
net
network
nev
neves
nevicati
neville
nevrolo
new
news
newt
newton
nf
ng
nga
ngel
ngh
nghev
nghi
ngi
ngiul
ngol
ngua
ngui
ngul
ngv
ngva
ngvi
nh
nha
ni
nia
niant
nibbiano
nibia
nic
nica
niccolo
nicea
niceta
nich
nichi
nicholas
nick
nicola
nicolas
nicolini
nicolo
nie
niebo
nietzsche
nifica
nigel
nigellus
niger
night
nigo
nigra
nigri
nihil
nik
nikolaj
nil
nilde
nim
nima
nimatullah
nime
nimium
nina
ninfadora
nini
ninna
nino
ninsu
nio
nis
nise
nisi
nisia
nissuna
nisu
nitero
niversita
nl
nmax
nmin
nn
nna
nnd
nnda
nnder
nndi
nndich
nnen
nni
nnia
nno
nnt
no
noam
nob
nobbligatori
nobel
nobilis
nobilte
nobis
nocet
nodo
noe
noemi
nogueira
noi
noia
noisbn
nol
nola
nole
noli
nom
noma
nomadi
nomar
nomatch
nome
nomen
nomi
nomin
nomina
nominata
nominati
nomine
nomm
non
nondum
nord
nordeste
norma
normale
normalme
normanno
norme
norris
norte
nos
nossa
nost
nostar
noster
nostra
nostrae
nostri
nostris
nostro
not
nota
note
noti
notitia
notoc
notre
nott
notte
notu
nou
nov
nova
novara
novaro
nove
novecento
noventa
novi
novo
novse
novum
novza
nozze
np
nper
npi
ns
nsa
nsen
nsi
nsia
nsin
nso
nsol
nt
nta
ntan
ntar
ntava
nte
nten
nter
ntes
nti
nto
ntr
ntra
ntre
ntren
ntriona
ntua
ntva
ntvo
nu
nua
nuceria
nuclee
nuda
nudado
nue
nueva
nulla
nullo
nullum
nullus
num
numa
number
numbers
numera
numerals
numerati
numere
numeri
numero
numi
numida
numina
numine
nummus
numquam
nunc
nuova
nuove
nuovi
nuovo
nuptiis
nurma
nurme
nus
nute
nuti
nuva
nuvale
nuve
nuvite
nuvole
nva
nya
nymphadora
nz
nza
nzel
nzer
nzi
nzia
o
oak
ob
obama
obiit
obiter
obitu
oblati
oblu
obtorto
oc
ocasio
occhio
occupatemi
occupe
ocidente
octave
octavio
octo
oculi
ocupasio
ocupe
od
oddi
odi
odia
odium
odo
odoardo
oeste
of
ofe
officium
ofi
ogden
oggi
ogni
oh
ojabo
ol
ola
olanda
olande
old
ole
olet
olga
olho
oli
olim
olinda
olindina
olivander
oliver
olivetti
olmo
oltre
olympe
om
ombra
ombrello
omelie
omen
omne
omnes
omnia
omnibus
omnis
omnium
on
ona
onda
onde
ondina
ondule
one
online
onna
onofrio
onop
onore
onorevole
onorio
ontario
onu
onv
oo
op
ope
opera
operazione
opere
opes
opi
opo
oportet
oppure
optimo
optimus
optional
opus
opv
or
ora
oratio
oratorio
orazio
orbis
orche
orchestra
ord
ordan
ordinata
ordine
ordo
ore
orecchio
oreficeri
oreiro
oreste
org
organis
organizaz
orie
oriente
orietta
orig
origargs
origene
originale
origine
orion
orizzonte
orl
orland
orlando
ornamentum
oro
orosio
orse
orsi
orto
ortodo
orvieto
orvoloson
os
osasco
osbourne
oscar
oscu
oscure
ose
osi
ospede
ospidale
ospite
ossa
ot
otadecagone
otae
otagone
otello
otgnu
other
oto
otse
ottavio
otto
ottobono
ottone
ottorino
otza
ou
ouns
ounsa
our
oura
ourden
out
ova
ove
ovest
ovidio
ovo
ozzy
p
pa
pablo
pace
pacem
paciano
pacife
paciock
pacta
pactum
pada
padagna
padan
padana
padania
pade
pado
padoa
padova
padra
padre
padro
padrone
padrune
padu
padusa
pae
paes
paese
pag
paga
pagame
paganos
page
pagg
paghe
pagina
pagliani
pai
pairs
pais
paja
pajais
pajaix
paji
pajo
pal
pala
palace
palas
palasi
palata
palatina
palazzi
palazzo
pale
palermo
paletnologia
palha
pali
palio
palladio
palo
palto
paltrinieri
palude
pan
panaro
pandora
pane
panegirico
panem
panettiere
panizzi
panno
panorama
pansa
panta
pantanal
pantano
panura
panurama
panvinio
paola
paolino
paolo
papa
papanti
pape
papi
par
para
paradi
paradise
paradiso
paradisus
parado
parago
paraguay
parai
parale
param
parameter
parameters
parametri
parametro
paramorder
params
parana
parc
parche
parco
pardo
pardrev
pare
parenti
pares
parfe
parfes
parfi
pari
paribus
parigi
parinte
paris
parit
park
parla
parlad
parlame
parlamente
parlan
parlare
parlari
parle
parma
parmense
parmigiana
parmigiano
paro
parochie
parol
parola
parole
paroli
parpagne
parrocchia
parrocchiale
pars
parsialme
parsian
parsie
parsixa
parso
parson
parsona
parsoni
parsouna
parsu
parsuna
parsune
part
parta
parte
partecipasio
partem
partezipe
parti
partice
participac
particolare
particole
particularita
particularme
particule
partigia
partir
partire
partisi
partiti
partitiv
partixe
partu
partugal
paruche
parva
parvo
parzialmente
pas
pasa
pasapo
pasate
pascal
pascoli
pase
pasege
pasi
pasiensa
pasio
pasiune
pasolini
pasqua
pasquale
pasqualino
passaggio
passando
passare
passato
passe
passed
passerino
passio
passion
passo
passus
past
pasta
pasto
pastu
pat
pata
pater
pati
patida
patientia
patil
patres
patria
patriae
patricia
patrie
patrimo
patrio
patro
patronus
pattern
pau
pauca
paul
pauli
paulino
paulista
paulo
paulone
paupertas
paura
pavaglio
pavaix
pavanais
pavarotti
pave
pavese
pavi
pavia
pavime
paviro
pavo
pax
paŋ
pc
pci
pco
pd
pdu
pe
peano
pearl
peccato
pecel
pecorara
pecori
pectore
pecunia
pedago
pedagogi
pede
pedes
pedro
pee
peel
peggio
pegn
pegre
pej
pelagrinagg
pelchse
pelegre
pelegrinagg
pelegrinazz
pelgre
pella
pelle
pellegrino
pen
pende
penelope
peni
penite
pensa
pensare
pense
pensio
pensione
pentadecagone
pentagone
penultimo
pepo
pepoli
peppone
per
pera
perche
percival
perco
percy
perde
perdere
pere
pereat
perego
pereira
perfe
performance
peri
peria
periculo
perie
perifere
periferi
perio
perit
perma
permane
perme
permeti
pernambuco
pero
perpetua
pers
persecutor
perso
persona
personae
personalme
persone
persuna
persune
persute
pert
perta
pertini
peru
pes
pesca
pessoa
peter
petitot
petnadu
petra
petrarca
petro
petrus
pettigrew
pettini
petunia
peverell
pez
pezzo
ph
phan
phanie
phaseolus
phil
philips
philosophiæ
phineas
phobos
phoenix
photographer
photographie
php
phrasal
pi
pia
piace
piacentino
piacenza
piae
pian
piana
piane
piani
pianide
piano
pianta
piante
pianti
pianto
pianu
pianura
pianzend
pias
piasa
piase
piasinte
piatti
piaui
piaxair
piaza
piazza
pic
pica
pical
picchetto
picchio
piccino
piccole
piccoli
piccolo
pice
pich
pico
picol
picos
pida
pidi
pido
pie
piema
piemont
piemonte
piemount
piemuntais
piena
pieno
pier
pierangelo
pieri
pierluigi
piero
pieroni
pierre
piers
piete
pietra
pietri
pietro
pieve
pighe
pigr
pila
pilastre
pilatus
pillai
pilo
pin
pina
pince
pincherle
pine
pingitore
pingu
pingui
pino
pinsa
pinse
pinso
pio
pios
pioto
piove
pippa
pira
piramide
pirro
pist
piste
pisto
pistoia
pistoiese
pisu
pit
pita
pito
piton
pitour
pittura
pitu
piture
piu
pius
piuttosto
piva
pivpe
pixinguinha
pizzetti
pje
pl
pla
placentia
placet
plachi
placido
plain
plana
planetary
plank
plata
platinum
plato
plaudite
plauto
plava
plaza
pld
ple
plebisi
plebs
pli
plica
plo
plu
plura
plure
plus
pm
png
po
poca
poch
poche
pochi
poco
pode
podeste
podestere
podesteria
poe
poena
poes
poesi
poesia
poeta
poezi
poezii
poggi
poggio
poi
point
pol
pole
poletti
poli
polibio
poligone
polinago
polis
politica
polkiss
pollo
pollux
polo
polonia
polygram
poma
pomerio
pomfrey
pomona
pompeia
ponendum
ponente
pont
ponte
pontifex
pontino
pontormo
pooh
pop
popolare
popolasio
popolazia
popole
popolo
poppy
popular
populasio
populasioun
populazia
popule
populi
populus
populusque
pori
port
porta
portame
portava
portela
portinari
portmagio
porto
portoghe
porzein
porzio
pos
posio
posizionale
posizione
possa
posse
possono
possumus
post
poste
posterior
posto
postule
posuit
potamio
pote
potere
potest
potestas
potestate
poteva
potrebbe
potter
pour
pove
poves
povra
pozzetto
pozzi
pp
ppa
ppen
ppi
ppic
pr
pra
prabhala
pradare
prade
praecepta
praefectus
praeses
praetor
praga
praia
prampolini
prampule
prams
pramsa
pramza
pramzan
prandium
pratar
prati
pratica
praticame
prato
pratt
pre
precede
preci
precis
precisato
precisio
preda
prede
prefasio
prefe
prefere
preferi
prefete
prefetu
prefix
pregh
preghie
prego
prem
prema
premave
premi
prendere
preocupe
prepara
preparasio
prepare
prepe
preposizio
prepus
prepute
prepuxisioun
pres
presapo
presbite
presbitero
presbyter
prese
presensa
presente
presenza
presida
preside
presidensia
presidente
presio
presso
prete
pretende
preto
prev
prevale
preve
prewett
prezi
prezio
pri
pria
pricipe
pridie
priest
prigna
prim
prima
primavera
prime
primeiro
primi
primiti
primm
primma
primo
primum
primus
prince
princi
principa
principalme
principato
principe
principi
principia
prinse
prinsi
prinsipa
prinsipe
prinsipiand
prinsipie
prinze
prinzipe
priscilliano
prius
prive
privile
privilegium
pro
proba
probabilite
probabilme
probatio
proble
problemi
proce
procesio
procul
procurator
prodest
prodi
prodo
produ
produsio
produto
produzia
prof
profesa
profeso
profesore
professor
profondame
proge
progete
progra
progresso
proibito
promessi
promissa
promo
propaganda
properiete
propi
propo
propos
propraetor
propri
propria
proprieta
propriete
proprio
proprium
prosperite
prospero
prossimo
protagonisti
prote
protesio
protezia
prove
provi
provincia
provinciale
proximus
pru
pruba
prubabilme
pruble
prublema
pruclama
pruclame
prudente
prudenzio
prudo
prudu
prudusio
pruduti
pruduto
prufesu
prufi
prufita
pruge
prugeta
prugete
prugna
prugra
prui
pruibi
prume
prumo
pruno
prunom
prunu
prununcia
prupo
pruprieta
prutagone
prute
prutesio
prutesta
pruteto
pruve
pruveins
pruveinsa
pruveinsia
pruvenza
pruvi
pruvince
pruvinci
pruvincia
pruvinza
pruvis
pruze
psa
psalmos
psalmus
pscaro
pse
psess
pseudo
psichia
psichiatri
psico
psicolo
psicologi
psicologia
psiss
psl
pt
ptro
pu
pub
publica
publicasio
publice
publiche
publicite
publico
publicus
publio
publius
puc
puccini
puctin
pue
puer
pueta
puete
puge
pugne
pui
puia
puiane
pul
pula
pule
puli
pulisi
pulizi
pulmo
pulo
punisio
punitur
puno
punt
punta
puntata
punte
puntege
puntno
puo
pupi
pupo
pupulasio
pur
puratta
purdghe
pure
purr
purta
purtador
purte
purtghe
purto
purtro
purtughe
purtughes
pus
pusa
puse
pusesi
pusi
pusibilite
pusio
pusisio
pusiso
pusizia
puspe
pussebli
pussio
puta
pute
puti
putina
putlet
puve
puvi
puvre
puz
puławy
px
pzule
q
qeurie
qu
qua
quace
quaciadu
quaderni
quadra
quadre
quae
quaestiones
quaestor
quai
qual
qualch
qualcosa
quale
quali
qualis
qualita
qualite
quall
qualla
qualli
quam
quand
quanda
quando
quant
quanta
quanti
quantite
quanto
quantum
quara
quaranta
quarcio
quaro
quarte
quarter
quarti
quartie
quartier
quasi
quasst
quassta
quassti
quatar
quater
quaterse
quato
quatre
quattro
quattuor
que
queen
quei
quej
quel
quela
quelchidu
queldo
queli
quella
quelli
quello
quem
querce
quercus
quere
queriaghi
querie
querso
query
querza
quesche
quest
questa
questi
questo
queydon
qui
quia
quibus
quid
quidquid
quiescat
quii
quila
quili
quindi
quinquennalis
quinta
quirinus
quirites
quirrell
quis
quische
quisque
quiste
quisti
quistio
quistioun
quistiune
quitanda
quo
quod
quoque
quum
qvist
r
ra
rab
rabastan
raben
rabia
rabitti
raccomanda
raco
racu
radc
radchenko
radi
radio
radiogaga
radwan
rafael
rafe
raffaele
raffaello
raga
ragaso
ragazo
ragazze
ragazzi
ragazzo
raggn
ragio
ragusa
rai
raid
raighel
raigla
raine
rajna
ral
ram
ramblers
rame
rami
ramo
rams
ramusani
ran
rana
ranci
range
rangone
rangoni
rant
rapisco
rapo
rapres
rapresenta
raptor
rapu
rar
rara
raro
ras
rasa
rase
raso
rason
rasta
rastara
ratio
rato
ravanna
rave
ravenna
raxoun
raz
raziune
razza
razze
rb
rba
rbara
rber
rbi
rbia
rbis
rbol
rc
rca
rch
rchi
rci
rcia
rcio
rcit
rcol
rd
rda
rdan
rde
rdegh
rden
rder
rdg
rdi
rdia
rdin
rdoba
re
rea
reale
realta
realte
reasio
reazio
reb
rebus
rec
reci
recife
recite
recla
reco
record
records
recte
recu
red
reda
redibis
reductio
ree
refere
reference
referendum
refon
reg
rega
regale
regalo
regazzi
rege
reggia
reggiana
reggiane
reggiani
reggiano
reggio
regh
regi
regia
regina
reginald
regio
region
regionale
regione
regioniditalia
regioun
regis
regista
registrasio
registrazioni
registre
regium
regiune
regna
regne
regno
regola
regolame
regolatore
regole
regre
regula
regulares
regule
regulus
rei
reipublicae
rel
relasio
relati
relationes
relativite
relazia
religia
religio
religione
religiu
rem
rembrandt
remesiana
remin
remne
remoto
remus
ren
renato
rende
rendi
rendina
rene
reni
reno
rent
renzo
rep
repe
reperto
repetitions
replace
repo
repoblica
report
repu
repubblica
republic
republica
requiescat
require
rer
rerum
res
reset
resi
residenza
resiste
resp
respi
respighi
responsa
responsiones
resta
restarve
restaurasio
restavre
reste
result
ret
reta
rete
reticolo
reto
retro
return
returns
reus
rev
reverendus
reverentia
revista
rex
rez
rezo
rfen
rg
rga
rgh
rghem
rghen
rghi
rgia
rgin
rgna
rgum
rhetorica
ri
ria
rialto
rias
riba
ribelle
ric
rica
riccardo
riccati
ricci
rice
ricerca
ricevu
rich
riche
richi
richie
ricky
rico
ricorar
ricordi
ricordo
ricostrusio
ricota
ricu
rida
riddle
ride
ridere
ridi
rido
ridolini
ridono
rie
riea
rielaborazione
riez
rifa
riferima
riferime
rifiute
riflesi
rifo
rifu
rifurme
rifurnime
rifurse
riga
righi
right
rigua
rigue
riguro
rile
rilie
rimskij
rimuovera
rin
rinaldi
rinaldo
rinascimente
rinasima
rinasime
rinasimente
rinfo
rinfurse
ringado
rino
rinunsiarev
rio
ripare
ripe
ripo
ripre
ris
risaname
rise
riserva
riserve
risi
riso
risorgime
rispe
rispete
rispo
rispondi
ristic
ristocra
ristora
risu
risulta
risulte
rit
rita
ritgnu
riti
ritire
rito
ritorna
ritornare
ritorno
ritra
ritratti
riu
riuni
riunio
riva
rivalta
rive
rivincita
rivista
rivisti
rivo
rivolusio
rivoluzione
rivulusio
rizzoli
rj
rla
rlen
rli
rlu
rma
rme
rmel
rmen
rmi
rmia
rmin
rn
rna
rnen
rni
rnita
ro
roama
rob
roba
robert
roberta
roberti
roberto
robin
robo
robur
roca
rocca
rocchetta
roch
rock
rode
rodin
rodolfo
rodolphus
rodoreda
roger
rogna
rogoredo
rolanda
role
rolenda
rolf
rolini
roll
rolo
rom
roma
romae
romagna
romam
roman
romana
romani
romano
romanorum
romanum
romanus
romanzo
romolo
ron
ronald
roncadella
roncalli
rondo
rookwood
roraima
ros
rosa
rosanna
rosario
rose
rosier
rosina
rosmerta
rossa
rossano
rosse
rossella
rossi
rossia
rosso
rossonoemi
rota
roto
rotond
rotonda
rotta
roussef
rouxinol
rova
rovazzi
rovereto
row
rowling
rp
rpignan
rr
rra
rren
rrer
rri
rrt
rs
rsa
rsen
rsga
rsi
rsia
rsna
rt
rta
rte
rten
rti
rtir
rtsi
ru
rub
rubbiera
rube
rubeus
rubiere
rubini
rubo
ruffini
rufio
rufus
ruga
ruggeri
ruig
ruigh
ruini
rum
ruma
rumagna
rumagno
rumagnu
rumana
rumani
rumantsch
rumanza
rume
runcade
runco
runcorn
rure
rus
rusa
rusca
ruse
russo
rutilio
ruto
ruv
ruveraid
ruvi
ruvine
rv
rva
rvi
ryba
rz
rza
rzen
rzoo
s
sa
sabbione
sabio
sac
sacc
saccheri
sacer
sacerdos
sache
sacra
sacrame
sacrati
sacred
sacrife
sacrum
sacræ
sacu
sacze
saepe
safre
saga
saggio
sagra
sagre
sagreste
sagri
sai
sainper
sainplis
sains
sainsa
saint
sal
sala
salade
salame
salde
sale
salerno
salghe
sali
salimbene
salis
salo
sals
salta
salte
saltini
salto
salu
salus
salutant
salute
salutem
salutis
salva
salvado
salvador
salvara
salvare
salvate
salvaterra
salvatore
salve
salviano
salvo
sambro
samperi
samu
samuel
san
sana
sanbu
sancta
sancti
sanctissimus
sancto
sanctorum
sanctus
sanctæ
sandbox
sandro
sands
sanfi
sanghev
sanguineti
sanguinis
sanite
sanitizedataset
sannia
sanremo
sant
santa
santana
santarca
sante
santi
santiago
santifiche
santii
santini
santo
santos
santra
santu
santua
santue
santva
sanvitale
sap
sapere
sapiens
sapientia
sapore
sar
sara
sarago
sarda
sarde
sare
sarni
saro
sars
sartoretti
sartori
sarturi
sarve
sarvi
sarvito
saso
sasol
sass
sasso
satana
satanas
sate
satis
satta
satu
saturn
sau
sava
savair
save
savena
savend
savignano
savii
savo
savoia
savu
saxofone
saxophone
sał
saɫ
sbase
sbde
sbo
sbol
sbraghe
sc
sca
scabior
scadu
scajo
scala
scalo
scamander
scamandro
scampe
scandia
scandiane
scandiano
scandina
scandinavia
scans
scanse
scapa
scape
scar
scarp
scarpis
scarple
scarte
scaruffi
scave
scavi
scavs
sce
scgnusu
sch
scha
sche
scheda
schenoni
schev
schi
schifanoia
schinella
schise
schleswig
scho
school
schulich
schurer
sci
scia
scie
scienti
scientia
scienza
scienze
scienzedellaterra
scipione
scis
sciurus
sco
scol
scola
scolastica
scoli
scomo
scor
scorpius
scorso
scov
scozzesi
scra
scre
scret
screti
scri
scribit
scribunto
scrimgeour
scripta
scriptum
scrit
scrita
scriti
scrito
scritora
scritt
scritto
scritu
scrive
scrivi
scro
scu
scud
scude
scue
sculado
scule
sculpi
sculto
scultu
scum
scumpari
scunfe
scupie
scur
scurde
scuriase
scurta
scurte
scutma
scutmai
scutmaj
scuv
sdassdass
se
sebastia
sebastian
sebastiano
sec
seca
secchia
secco
seco
secol
secole
secoli
secolo
second
seconda
secondo
secret
secul
sed
seda
sede
sedulio
see
seen
segnale
segne
segni
segno
segre
segregazio
segreta
segui
segunda
segve
segvi
sei
seichel
seider
seign
seintestasio
sel
selesione
self
selton
selva
sem
sema
sembre
seme
semel
semina
semipri
semper
semplice
sempliceme
sempre
sen
sena
senado
senatus
send
sene
senegiado
senhora
senior
seno
sensa
sensu
sent
sente
sententia
sententiae
sentenze
sentido
sentii
sentime
sentiment
sentimento
sentre
senza
seoul
separasio
separatore
separe
sepolcar
sepolcr
sepolcro
sepp
septem
septima
sepu
sepulcher
sepultus
seque
sequenza
sequestre
sequitur
ser
sera
serafini
serafino
serc
serche
sere
serena
serenade
sergio
sergipe
serie
sermones
serni
sero
serpe
serpeverde
serra
sert
sertun
servanda
serve
servel
servi
servio
serviro
servito
servitus
servus
ses
sese
sesio
sessi
sesso
sesto
sesualite
sesue
set
seta
sete
setentrio
setentrione
setentriuna
setentriune
setimane
setmetatable
seto
setse
setta
sette
settebellezze
settentrione
setti
settimana
setza
seu
severi
severo
severus
sex
sexto
sfalse
sfe
sfi
sfighe
sfile
sfiorisci
sfo
sforza
sfr
sfrutame
sfrute
sfugaras
sfugava
sghe
sghira
sgna
sgne
sgno
sgnor
sgnora
sgnour
sgnu
sgnure
sgnuri
sgnurina
sgradevole
shacklebolt
shift
show
showgirl
si
sia
siamo
sibe
sibi
sic
sica
sice
sich
sici
sicilia
sicista
sicu
sicurame
sicure
sicut
sid
sidonio
sie
siena
siensie
siente
sierra
sigare
sigismondo
signal
signe
significa
significati
significhe
signo
signora
signori
signorini
sigula
sij
sikh
sil
sila
silent
silente
siliprandi
silo
silva
silvano
silvanus
silveira
silvia
silvio
sim
sima
simbul
simi
simil
simite
simmaco
simon
simona
simoncelli
simone
simpson
simpsons
simul
sin
sinc
sinchse
sincse
sindache
sine
sing
singles
singol
singula
sinister
sinistra
sino
sinqua
sinsie
sintagma
sinte
sinti
sintu
sintune
sinzie
sio
sion
sipa
sir
sira
siracusa
sirani
sire
sirius
siro
sis
sista
sistamma
siste
sistema
sistemasio
sisteme
sistemi
sit
sita
sitade
site
sito
sitt
situ
situa
situasio
situazia
situe
situs
siu
sive
siza
ska
skeeter
ski
skid
sla
slarghe
slughorn
slunghe
sluve
sm
sma
smana
sme
smerce
smergland
smith
smo
smrl
smuts
sn
sna
snape
snsp
so
soares
soata
soc
soce
socete
social
sociale
sociali
socie
societa
societas
societe
society
socio
sociologi
sociologia
soco
socua
socuant
socuanti
sodoma
sof
soffrito
sofr
softbol
soge
sognare
sogno
sol
sola
solament
soldato
soldi
sole
soli
solis
solit
solitario
soliti
solito
solmi
solo
solum
solus
soluzio
solvit
somaglia
sommaja
son
song
sonia
sono
sont
sony
sophie
sopra
soprano
soprato
soqua
soquant
soquanti
sora
soragna
sorbara
sorella
sorelle
sorriso
sorti
sospetta
sostanze
sostgnu
sostituito
sot
sotera
sotpa
sott
sotto
sottostringa
soul
soura
source
south
souza
sovie
sovra
sovrapio
sovrato
sovrintende
soziali
soziete
sp
spa
spache
spaggna
spaggno
spagna
spagno
spalazzi
spale
spali
spallanzani
spano
spare
sparecchiero
sparecchio
spari
sparpagne
sparseconcat
sparti
spartisio
spase
spass
spavinto
spazi
spe
spece
special
speciali
specialis
specialite
specialme
specie
specificato
spedale
sper
spera
speransa
sperij
spes
speso
speta
spetacole
spetacule
spetado
spete
spettacolo
spi
spia
spiaggia
spiando
spiane
spie
spiegasio
spieghe
spina
spirito
spiritu
sple
spo
spoleto
spongebob
sport
sposi
sposo
sprite
sprolo
sprout
spurti
spus
spusa
spuse
spusta
spustame
spuste
spzie
squa
squace
squadre
squallor
squarepants
sque
sqva
sr
sra
sre
sregh
srel
sres
srl
ss
ssa
ssanta
ssaro
ssc
ssca
ssch
sschet
sscuv
ssel
ssen
sser
ssi
ssia
ssica
ssima
ssita
ssma
sst
ssta
sstic
sstica
sstra
sstri
sstria
st
sta
staa
stab
stabili
stabli
stablidu
stabunt
stache
stada
stadio
staffieri
stagio
stagionadu
stagioni
stagiune
stalin
stampa
stampe
stan
standard
stanley
star
stara
stare
starlu
start
stasio
stat
stata
statale
state
stati
stato
statu
status
statuta
statve
stazia
ste
steda
stefano
stel
stella
stema
stemma
sten
steno
ster
stesso
sti
stia
stianche
stic
stica
stich
stichi
stie
stij
stil
stili
stima
stime
stinde
stio
stiradu
stival
stla
stma
stmana
sto
stol
stome
stor
stora
storia
storica
storicamaint
storiche
storici
storico
storie
str
stra
strabone
strache
strada
strade
stradle
strai
stral
stramna
straordina
stras
strate
stratico
stre
streda
stregna
strelle
stremne
strenna
stretame
stretto
stri
stria
striche
strinati
strine
string
stringa
stringhe
stro
strolghe
strova
stru
strulghe
strume
strumentale
strussiaa
strutu
stu
stucada
stude
studi
studia
studie
studio
studiorum
stuf
stul
stultum
stupe
sturmtruppen
su
sua
suae
suam
suardi
suave
sub
sube
subeintre
subi
subit
substr
success
successi
successivi
successo
suce
sucede
sucesio
suci
suckow
suco
sud
suda
sudafrica
sudeste
sudisfasion
sudisio
sue
suf
sufa
sufe
sufi
sufrir
suge
sughe
sui
suicide
suis
sul
sula
suladu
sulde
sule
sull
sulla
sulle
sulpicio
sulu
sum
sumari
summa
summer
sumptu
sumus
sun
sunado
sune
sung
suno
sunt
suo
suoi
suora
suori
super
superfe
superfi
superficie
superio
superior
supli
suplir
supra
suprema
supurtar
suquant
sur
sura
suratu
surbe
sure
surpre
surze
sus
susan
sussdi
sussess
susta
sustanti
sustantiva
suste
sustgni
sustgnu
susti
suta
sutherland
suti
sutor
suum
suus
suvie
suze
suziale
sv
sva
sve
sveste
svg
svilo
svilu
sviluppi
svizzera
switzerland
symbol
symboli
symphony
t
ta
tab
taba
tabe
taberna
table
tables
tabula
taca
tacet
tache
taddeo
tagliavini
taguatinga
tainp
tais
taj
taja
taje
tal
talcahuano
talis
talpa
tam
tambo
tambroni
tame
tamen
tan
tandem
tane
tang
tangensie
tango
tanne
tannetum
tant
tanta
tante
tanti
tantum
tape
tar
taramo
tard
target
tarie
taro
tartaglia
tartarugalzinho
tase
tassi
tassinari
tasso
tassoni
tassorosso
taste
tau
taur
taurus
tavazzano
tave
tavla
tavle
tavola
te
tea
teasdale
teator
teatre
teatro
tecnic
tecnica
tecnich
tecnolo
ted
tedaldo
teddy
tede
tedeschi
tegani
tei
teimp
tel
telecomunicazioni
telefilm
telefono
telegrafista
televis
televisio
television
televisione
tem
temp
tempel
tempi
template
templatedata
tempo
tempora
tempore
temporis
tempus
ten
tene
tenetur
tennessee
tennis
tennisti
teno
tenpure
tentati
tenu
teo
teodoro
teodosio
teofilo
teore
teori
tequila
tequixquiac
ter
tera
terame
tere
teremo
terenzio
teresa
teresina
terezinha
teria
terie
terime
terito
teritori
terme
terminum
terminus
terr
terra
terrachini
terram
terre
terreni
territori
territorio
terry
ters
tersa
terse
terto
terza
terzi
terzino
tes
tesdu
tessitura
tessuto
test
testa
testamento
testamentum
testimo
testimone
testimonial
testimunia
testimunie
testis
testo
testoni
tetnic
tetnologi
teto
tetradecagone
tetto
teurie
text
tgaper
tge
tgi
tgnaiva
tgne
tgni
tgnir
tgno
tgnu
tgu
thai
thali
that
the
then
theodore
theologia
theologiæ
theory
thiene
this
thomas
thumb
thumbnail
ti
tia
tibi
tic
tica
tich
tichi
tidon
tidone
tiene
tiger
tigra
tigri
tigro
till
tillot
tim
tima
time
timeo
timet
timo
timpe
tin
tina
tintarella
tinte
tinto
tintoretto
tio
tip
tipo
tipografi
tipografico
tiques
tira
tiraboschi
tire
tirirca
title
tito
titolo
titti
titule
tituli
titulus
tize
tiziano
tl
tla
tlare
tle
tlefo
tm
tma
tn
tnica
tnich
tnt
to
toa
toano
tobias
toc
tocantins
tod
todo
todor
togliatti
toglie
tognazzi
tokyo
tol
tolerava
tollit
tolomeo
tolt
tolta
tom
tomba
tome
tommaso
tondelli
tonini
tonks
tonumber
top
topografico
toquinho
tor
torde
tore
torelli
torello
torent
torino
torna
torne
torquato
torre
torrente
torri
tortora
tosca
toscana
toschi
toscueign
tossica
tossiche
tostring
tot
tota
totalme
tote
totii
toto
tott
totta
totti
tour
tr
tra
trace
tracey
tractatus
tradisio
tradisioun
tradisiuna
tradito
tradizia
tradizio
tradiziune
trado
tradusio
traduzione
trage
trai
tram
tramonto
tramu
trang
tranne
tranque
trans
transit
tranva
tranxitif
trapasa
trapia
tras
trascure
trasferi
trasfigurasio
trasformasio
trasformazia
trasfurmasio
trasfurme
trasme
trasmisio
traspo
trasporti
trat
trata
trate
trattato
travarse
trave
traverse
tre
trebbia
trebia
treccani
treme
tremolada
trenita
treno
trentalance
trente
trentino
trento
tres
tresinara
tresinaria
tresinaro
tresne
trevi
tri
triangole
trianguel
tribo
tribu
tribule
tribuna
tribune
tribunus
tribus
trica
trich
tricolore
triculo
tridecagone
trie
trietto
trigna
trigonometri
trim
trindade
trine
trinitate
tripoli
triticum
trixinaria
tro
troia
troppo
trova
trovata
trovatore
tru
trua
true
trung
trus
truva
truve
tse
tsu
tt
tta
tten
tter
tti
ttic
ttica
ttichi
ttnica
ttol
ttvaria
tu
tua
tube
tuche
tud
tuda
tude
tudi
tugne
tul
tule
tuli
tulli
tullio
tum
tuna
tunc
tuo
tuots
tupi
tura
turc
turchi
ture
turi
turio
turismo
turminte
turnand
turne
turno
turs
turtle
turtlein
tururu
tusca
tuscan
tuscany
tusche
tusgna
tusoe
tut
tuta
tute
tuti
tuts
tutt
tutta
tutte
tutti
tutto
tv
tva
tvi
two
twycross
type
u
ua
uberto
ubi
ubieti
ubligato
ublighe
ucas
ucasio
uce
ucidenta
ucitan
ucra
ucraina
ucupe
ud
udi
udiaca
udiensa
udine
udo
uefs
uf
ufe
ufes
ufesa
ufficia
ufficiale
uffize
uffizie
ufi
ufice
ufici
uficia
uficialme
uficie
ufisie
ufiz
ufizie
uga
ugada
uge
ugeti
ughe
ugn
ugna
ugnir
ugno
ugo
ui
uiramuta
ul
ula
ulam
ulandais
ulande
ulderico
uli
ulisse
ulp
ulte
ultima
ultimo
ultra
ultragiada
ultrapo
um
uma
uman
umane
umanite
umberto
umbra
umbridge
ume
umiliasio
umilie
umo
umor
un
una
unca
unch
unchel
unci
uncine
und
une
unen
unesco
unga
ungaretti
ungh
ungherais
unghere
ungheri
unghi
uni
unica
unifiche
unio
unione
unit
unita
unite
unive
universal
universale
universe
universidade
universita
universitas
universite
university
uno
unor
unour
unpack
uns
unsol
unt
unta
unte
unten
unter
unti
untra
unum
unus
uomo
uovo
up
upojenie
ur
ura
urasio
urato
urbane
urbanistica
urbano
urbe
urbi
urbis
urbs
urche
urden
urdido
urdine
urdne
ure
uren
urg
urganis
urganise
urganiz
urganize
uri
uriente
urigina
urigine
urizu
url
urm
urma
urname
urne
uro
urquhart
urs
ursa
urss
ursula
urto
urtudo
urtugrafie
uruburetama
uruguaiana
us
usa
usando
usato
usche
uscire
use
used
uservasio
uses
usi
uso
uspada
uspde
uspe
uspedale
uspede
usque
ustria
ustring
usum
usus
ut
uta
utantadu
utar
utavi
ute
utendi
utgni
utgnu
uti
utile
utitur
uto
utrecht
utriusque
utsche
utschi
utu
uva
uvri
ux
uxor
v
va
vaca
vacca
vad
vadd
vadder
vado
vag
vai
vaira
vaird
val
vala
valcavi
valdenza
vale
valeas
valente
valentina
valentiniano
valeo
valere
valeria
valeriano
valerio
valerius
valet
valinte
valla
vallauri
valle
valletta
valli
vallisneri
valo
valona
valor
valore
valori
valorizzata
valour
valsamu
valsenio
valu
value
values
valuetofind
valutato
van
vana
vance
vandelli
vange
vanze
var
vara
varais
vardu
vare
varese
varghe
vargogna
vari
varia
variant
varie
variete
varsa
varsioun
varu
vas
vasco
vasilyevich
vatica
vaticano
vatta
vaul
vault
vduda
ve
vec
vecchi
vecchio
vector
vede
vedeste
vedi
vegas
vegetale
vegezio
vegn
vegna
veign
vel
vela
velano
velaro
vele
velha
velho
velle
velocite
veloso
velzna
ven
vena
vende
vendeta
vendicaras
vendicars
vendicass
vendicava
vendiche
vendola
vendu
vene
veneno
venera
venerabilis
venerde
venere
venesia
venesu
veneto
venezia
venezie
venezuela
venezzia
vengo
venice
venire
venit
ventasso
vente
vento
ventos
ventre
ventune
venturi
venus
ver
vera
verb
verba
verbe
verbi
verbis
verbo
vercelli
verd
verdastro
verde
verdi
verdu
verga
vergilii
vergine
vergogna
veri
verifiche
veritas
veritate
verite
verlag
verme
vernon
vero
verona
veronese
veronica
verra
vers
versa
versailles
verse
versio
versione
verso
vert
vertiche
verze
ves
vesc
vesche
veschve
vescovo
vescuv
vespasiano
vesta
veste
vestia
vestigia
veteris
vf
vga
vgni
vgnir
vgno
vgnu
vi
via
viada
viagem
viaggio
viam
viana
vianda
vias
viaso
viazado
vica
vicarius
vice
vicente
vich
vico
victis
victoire
victor
victoria
victrix
vicus
vida
vide
video
videtur
vidu
vie
vien
viene
vienna
vieri
vietnam
vietnamais
view
vigliacament
vigne
vigo
vii
viii
viktor
vila
vilanament
vilano
vilanovia
vile
vili
villa
villanova
ville
villi
vilnius
vilo
vilupe
vim
vin
vina
vince
vincent
vincenzina
vincenzo
vinci
vincit
vincul
vinde
vindu
vine
vinen
vini
vinicius
vinnie
vino
vins
vinse
vinsi
vint
vinta
vinte
vintqua
vio
viola
viole
violet
vir
vires
virgi
virgilio
virgin
virginis
virginitate
virgo
viri
viris
viro
virto
virtu
virtus
virtute
virum
vis
visconti
vise
visi
visita
vist
vista
visti
visto
visu
vita
vitae
vitale
vitali
vitam
vite
vitia
vitious
vito
vitrea
vitta
vitti
vittore
vittoria
vittorino
vittorio
viturion
viule
viv
viva
vivanti
vive
vivere
vivi
viviani
vivit
vivo
vivus
vixit
vla
vladimir
vlair
vle
vler
vli
vlu
vluntera
vluntiera
vna
vne
vo
vobis
vocabolario
voce
vocheli
voci
voghiera
voglio
voi
voin
voina
voj
voja
vol
vola
volare
volat
voldemort
volenti
volentieri
volere
volo
volonte
volpe
volta
volte
volterra
volti
voluit
voluntas
von
vori
vorobev
vos
voss
vostra
voto
votorantim
votum
vox
voz
vr
vra
vre
vrea
vri
vril
vro
vropsicologi
vru
vs
vsa
vsp
vu
vua
vuca
vucasio
vuche
vue
vui
vuja
vul
vulca
vulcane
vule
vulgaris
vulghe
vulgus
vult
vulte
vung
vuole
vuolp
vuota
vuoto
vurare
vuta
vuti
vv
vven
vver
w
walden
wales
walon
walter
wanted
warszawa
washington
wayne
we
weasley
web
wedderburn
weilburg
weinek
welf
wertmuller
west
weyarn
while
whitney
wie
wiki
wikimedia
wikipedia
wikis
wilhelmina
wilkie
william
williams
wind
winky
winnie
wisco
with
wladilena
wolfgang
wood
world
worms
wu
wulfric
www
x
xapuri
xc
xenophilius
xi
xii
xiii
xiv
xix
xum
xv
xvesra
xvi
xvii
xviii
xviium
xx
xxi
xxiii
y
yaklashkin
yaxley
year
york
you
young
youtube
yu
yumiko
yutang
z
za
zaccaria
zache
zaint
zaira
zaircla
zal
zampo
zana
zanardi
zanicchi
zarche
zarvla
zazaki
zbs
ze
zeca
zedalonga
zeder
zel
zemia
zemnio
zen
zeno
zent
zentre
zepri
zer
zi
zia
zibe
zibi
zie
zigand
zil
zilli
zin
zingari
zios
zircunfle
zirna
zirude
zirvia
zise
zit
zita
zitade
zite
zitto
zivi
zivo
ziznatic
zla
zle
zlus
zna
zne
zni
zno
zo
zogh
zolt
zona
zoni
zonta
zorte
zote
zpls
zps
zu
zucca
zucchero
zugado
zugadu
zughe
zumgno
zunte
zur
zus
zva
zvan
zz
zza
zzi
zzia
zzra
{
|
}
~
¡
ª
«
­
¯
°
²
³
´
·
º
»
¿
×
æmi
đo
ı
ł
łobez
łobzie
ŋ
ƀ
ǝ
ɑ
ɔ
ə
ɛ
ɟ
ɠ
ɤ
ɫ
ɱ
ɲ
ɾ
ʃ
ʉ
ʋ
ʣ
ʤ
ʦ
ʧ
ʰ
ʾ
ʿ
ˈ
ː
˜
̀
́
̂
̃
̄
̆
̇
̈
̉
̊
̋
̌
̏
̑
̓
̔
̛
̣
̤
̥
̦
̧
̨
̭
̮
̯
̰
̱
͂
α
ε
λ
ν
π
ς
υ
к
н
ا
الدين
بن
ة
ر
ع
ي
َ
ّ
ْ
ٔ
ٕ
क
श
ष
ा
ि
्
ᴁ
‎
‏
–
—
‘
’
“
”
†
•
…
‪
‬
ⁿ
ⅎ
⅔
→
↔
↷
−
③
④
⑦
♆
♇
⚳
⛢
⯓
ⱡ
ⱥ
ⱬ
ⱳ
⺀
⺄
⺆
⺈
⺊
⺌
⺕
⺝
⺸
⺼
⿰
⿱
⿲
⿳
⿴
⿵
⿶
⿷
⿸
⿹
⿺
⿻
〢
コ
ユ
㇁
㇂
㇄
㇇
㇈
㇉
㇓
㐁
㐄
㐅
㐌
㐫
㐬
㐭
㐮
㐱
㑒
㒵
㒸
㒼
㓁
㓞
㔾
㕛
㕣
㖾
㘝
㚅
㚇
㚔
㚘
㝉
㝡
㝴
㝵
㞋
㞢
㞷
㠩
㠭
㠯
㡀
㡭
㡿
㢲
㢴
㣇
㣺
㥯
㪅
㫄
㫐
㫒
㫺
㬅
㬎
㬥
㬰
㲋
㳄
㷠
㸒
㸚
㸦
㼌
㼲
㽞
㿟
䀠
䂞
䍃
䏍
䒑
䖍
䖒
䖝
䖵
䙴
䚻
䜌
䝿
䡛
䧹
䪞
一
丁
丂
七
丄
丅
丆
万
丈
三
上
下
丌
不
与
丏
丐
丑
专
且
丕
世
丘
丙
业
东
丞
丢
丣
两
严
並
丨
丩
个
丫
丬
中
丮
丰
丱
串
丵
丶
丷
丸
丹
为
主
丽
丿
乀
乂
乃
久
乆
乇
么
义
之
乌
乍
乎
乏
乐
乑
乔
乖
乗
乘
乙
乚
乛
乜
九
乞
也
习
乡
乳
乾
亀
亅
了
亇
予
争
事
二
亍
于
亏
亐
云
互
亓
五
井
亘
亚
亜
亞
亟
亠
亡
亢
交
亥
亦
产
亨
亩
享
京
亭
亮
亯
亰
亲
亳
亶
亷
人
亻
亼
亾
仁
今
介
仌
从
仐
仑
仒
仓
仕
他
付
仝
代
令
以
任
企
伊
伏
伐
休
会
伯
但
位
何
佘
余
作
佥
使
來
侈
侌
侖
侯
侵
便
保
俞
信
修
倉
倍
候
倠
備
僉
僕
儿
兀
允
兂
元
兄
充
兆
兇
先
光
兊
克
兌
免
兑
兒
兓
兔
党
兜
兟
入
全
兩
兪
八
公
六
兮
兰
共
关
兵
其
具
典
兹
兼
冀
冂
冃
冄
内
冈
冉
冊
冋
册
再
冎
冏
冐
冒
冓
冖
冗
冘
军
农
冝
冡
冥
冫
冬
冷
几
凡
凢
凵
凶
凷
凸
凹
出
函
凾
刀
刁
刂
刃
刄
刅
分
切
刍
刑
刕
刖
列
刘
则
初
別
利
别
到
制
刺
則
削
剌
前
剡
剣
剽
劉
力
功
加
劦
动
助
劫
劳
劵
勃
勇
勉
勒
動
務
勞
勤
勹
勺
勻
勾
勿
匀
匂
包
匆
匈
匊
匋
匍
匕
化
北
匚
匝
匡
匪
匱
匸
匹
区
医
匽
匿
區
十
卂
千
卄
卅
卆
升
午
卉
半
卌
华
卑
卒
卓
单
卖
南
卜
卝
卞
占
卡
卢
卣
卤
卦
卩
卪
卬
卯
印
危
即
却
卵
卷
卸
卻
厂
厃
厄
历
厈
厉
厌
厓
厘
厚
原
厤
厥
厨
厭
厲
厶
厷
厸
去
厼
厽
叀
参
參
叅
又
叉
及
友
双
反
叐
发
叒
叔
叕
取
受
叚
叜
叟
口
古
句
另
叩
只
召
可
台
叱
史
右
叵
号
司
叹
吂
各
吅
合
吉
吊
吋
同
名
后
吏
向
吕
君
吝
吞
否
含
启
吳
吴
吹
吾
呂
呆
呈
告
员
呙
周
命
咅
和
咎
咠
咢
咨
咸
咼
哀
品
哉
員
哥
哲
唐
商
啇
問
啚
啬
啻
善
喜
喬
單
喿
嗇
噩
嚴
囊
囗
囘
囙
囚
四
回
囟
因
囧
囬
困
囱
囷
固
国
圂
圅
國
圍
圓
土
圡
圣
圥
在
圭
地
圶
圼
坐
坒
坚
坴
垂
垔
垚
埀
埋
埶
執
基
堂
堅
堆
堇
堯
塞
墨
壘
士
壬
壯
声
壳
壴
壹
壺
壽
夂
处
夅
夆
备
夊
夋
夌
复
夏
夒
夕
外
夗
夘
多
夜
夢
大
夨
天
太
夫
夬
夭
央
失
夲
头
夷
夸
夹
夻
夾
奂
奄
奇
奈
奉
奎
奏
奐
契
奓
奔
奚
奞
奠
奢
奥
奭
女
奴
奻
好
如
妄
妙
妟
妥
妻
妾
姑
委
姜
威
娄
婁
婴
嬰
嬴
子
孑
孔
孕
孖
字
存
孚
孛
孝
孟
季
孤
学
孫
孱
學
宀
宁
宂
它
宅
宇
守
安
宋
完
宏
宓
宗
官
定
宛
宜
宝
客
宣
室
宮
宰
害
家
容
宾
宿
寄
寅
密
富
寒
察
寧
審
寫
寬
寮
寸
对
寺
寻
寽
対
寿
封
尃
射
将
將
專
尉
尊
尋
尌
對
小
少
尒
尓
尔
尖
尗
尚
尞
尢
尣
尤
尧
尨
尭
就
尸
尹
尺
尻
尼
尽
尾
尿
局
居
屈
屋
屎
屏
屑
展
屖
屚
属
屠
屡
屬
屮
屯
屰
山
屵
屾
岁
岂
岑
岡
岩
岳
岸
峯
島
崇
崑
崔
崖
崙
崩
嵬
嶲
巂
巛
川
州
巟
巠
巢
巤
工
左
巧
巨
巩
巫
差
己
已
巳
巴
巷
巸
巽
巾
巿
帀
市
布
希
帚
帛
帝
带
師
席
帶
常
干
平
年
幵
并
幷
幸
幺
幻
幼
幽
幾
广
広
庄
床
底
店
庚
府
度
庫
庭
庶
康
庸
廉
廌
廛
廣
廩
廴
延
廷
建
廾
廿
开
弁
弃
弄
弇
弋
式
弓
弔
引
弗
弘
弜
弟
弥
弦
弱
張
強
强
彊
彌
彎
彐
彑
当
彔
录
彖
彗
彡
形
彥
彦
彧
彭
彳
役
彼
往
待
律
徒
得
徙
從
復
微
徵
心
忄
必
忌
忍
志
忝
忠
忩
快
念
忽
忿
思
怠
急
怱
恆
恒
恩
恭
息
悉
患
悤
悲
悶
惠
惡
惢
愁
愈
意
愛
感
慈
慧
慮
憂
憲
應
戀
戈
戉
戊
戋
戌
戍
戎
成
我
戒
戔
或
戚
戠
戢
截
戲
戶
户
戹
戼
戾
房
所
扁
扇
手
扌
才
打
托
执
承
折
拉
招
拜
拿
掌
推
提
摩
支
攴
攵
收
攸
改
放
政
敄
敏
敕
敖
敗
敝
敞
敢
散
敦
敫
敬
数
敷
數
斂
文
斉
斊
斗
斤
斥
斩
斬
斯
新
方
於
施
斿
旁
旋
族
无
旡
既
旣
日
旦
旧
旨
早
旬
旱
旲
时
旾
昆
昇
昌
昍
明
昏
易
昔
昗
昜
星
春
昬
是
昱
昴
昷
時
晃
晋
晏
普
景
晶
智
暑
暴
曇
曩
曰
曲
曳
更
曷
書
曹
曼
曾
替
最
朁
會
月
有
朋
服
朔
朕
朗
望
朝
木
朩
未
末
本
札
朮
术
朱
朵
朶
朿
杀
杏
杜
束
条
来
東
杲
杳
松
析
林
枚
果
枝
枲
枼
某
柔
查
柬
柰
柴
栗
桀
桑
桼
梁
條
梟
梨
棘
棠
棥
森
楚
業
楽
榮
樂
樊
欠
次
欣
欮
欲
欶
欽
款
歆
歇
歛
止
正
此
步
武
歨
歪
歮
歯
歰
歲
歴
歷
歸
歹
歺
死
殳
段
殷
殸
殹
殺
殻
殿
毋
毌
母
每
毒
比
毕
毚
毛
毳
氏
氐
民
气
氣
水
氵
氶
氷
永
氺
氾
求
汝
汞
江
沃
沓
沙
沝
泉
法
波
泣
泥
泰
洛
洪
活
派
流
浦
浪
浮
淡
淮
清
渚
渠
湯
滿
漸
火
灬
灭
灰
灵
灷
炅
炎
炏
炗
炙
炭
為
烈
烏
烝
焉
無
焦
焱
然
煞
熊
熏
燕
營
燮
爪
爫
爭
爯
爰
爱
爲
爵
父
爻
爽
爾
爿
片
牙
牚
牛
牜
牟
牢
牧
物
牪
牽
犀
犬
犭
犮
狂
狄
狊
独
狺
猋
猒
猪
献
獻
玄
率
玉
王
玟
玨
珎
班
琴
瑟
瑩
瓜
瓦
甘
甚
生
産
用
甫
甬
田
由
甲
申
电
甶
男
甸
甹
画
甾
畀
界
畏
畐
留
畜
畟
畢
畧
畨
番
畫
異
畱
當
畺
畾
疊
疋
疌
疑
疒
疾
癶
癸
癹
登
發
白
百
皀
皃
的
皆
皇
皋
皐
皕
皮
皷
皿
盃
盆
盇
盈
益
盍
盎
监
盒
盖
盛
盡
監
盤
盧
目
直
相
盾
省
眇
眉
看
眔
眞
真
眷
眼
眾
着
睘
睪
睿
瞏
瞢
瞿
矍
矛
矞
矢
矣
知
矦
短
石
破
碎
磊
磨
示
礻
礼
祐
祟
票
祭
禀
禁
禸
禹
禺
离
禽
禾
禿
秀
秃
秉
秋
科
秝
秦
移
稟
穀
穌
穴
究
穹
空
穿
突
窄
窒
立
竒
竜
竝
竟
章
童
竹
笑
笠
筆
等
答
箕
算
箴
節
篤
篭
米
粉
粛
粟
粤
粦
粲
糞
糸
糹
系
約
納
素
索
紫
累
細
絜
絫
絲
維
綿
縣
繇
纍
纟
缶
网
罒
罔
罕
罗
罙
罡
罢
罪
署
罷
羅
羊
羌
羍
美
羔
羕
羗
羞
羡
羣
群
義
羲
羸
羽
翁
翏
習
翕
翟
翠
翼
老
耂
考
者
耆
而
耎
耑
耒
耳
耴
耶
耷
聂
聊
聖
聘
聚
聶
聿
肀
肃
肅
肉
肖
肙
肥
肩
肯
育
肴
胃
背
胡
胥
能
脊
脩
膚
臣
臤
臧
自
臬
臭
臯
臱
至
致
臺
臼
臽
臾
臿
舀
舂
舄
與
興
舉
舌
舍
舛
舜
舞
舟
般
艮
良
色
艸
艹
艾
芒
芔
芦
芬
芮
花
芳
芺
芻
苔
苗
苟
若
苦
英
茶
茸
荅
草
荒
荣
荼
莆
莧
莫
莽
菆
菊
菐
華
萬
落
葉
著
葛
董
葵
蒙
蒦
蒼
蓋
蓬
蓺
蔑
蔡
蕉
蕭
薄
薛
薦
薰
藍
藏
藥
蘭
虍
虎
虐
虒
虔
處
虖
虗
虘
虚
虛
虜
虞
虫
虽
蚤
蚩
蜀
蜜
蟲
蠡
血
行
衍
術
衛
衣
衤
表
衮
衰
袁
袞
褭
褱
襄
襾
西
覀
要
覃
見
規
覓
覧
親
覽
见
角
解
言
訁
訇
計
詹
誩
諸
讠
谷
豆
豈
豊
豐
豕
豖
豙
象
豦
豩
豪
豸
貇
貝
貞
貟
負
貢
貧
貪
貫
責
貳
貴
買
費
賁
資
賈
賏
賓
賔
賛
賞
賢
賣
質
賴
贊
贝
贡
责
购
贯
贲
贵
赖
赞
赤
赦
走
越
足
路
蹇
身
躬
車
軍
軎
軟
輦
车
辛
辜
辟
辥
辰
辱
農
辵
辶
边
达
过
近
连
迷
追
退
送
逆
逐
通
速
造
逢
連
逮
進
遀
遂
過
道
達
遣
適
遷
遺
邊
邑
邕
那
邦
邪
郎
部
郭
都
鄉
酉
酋
配
酓
釆
采
里
重
野
量
金
釒
錢
钅
長
镸
长
門
閃
閉
開
閏
閑
閒
間
閔
閵
閻
闌
门
间
闷
阑
阜
阝
阿
降
陳
隆
隊
隋
隡
隨
隱
隶
隹
隺
隻
隼
隽
难
雀
雁
集
雈
雋
雍
雐
雔
雙
雚
雜
雝
離
難
雨
雩
雪
雲
零
雷
需
霍
霜
霝
霞
霸
靈
靑
青
非
靡
面
靣
革
韋
韦
韭
韯
韱
音
頁
頃
項
須
頗
頡
頻
顛
页
風
风
飛
飞
食
飠
養
饣
首
香
馬
馮
駦
马
骨
高
髟
鬥
鬯
鬲
鬼
魚
魯
鮮
鱼
鲁
鳥
鳳
鸟
鹵
鹿
麃
麗
麥
麦
麻
黃
黄
黍
黎
黑
黒
黨
黹
黽
黾
鼎
鼓
鼠
鼻
齊
齋
齐
齒
齿
龍
龙
龜
龟
龠
龰
龱
龴
龵
龶
龷
龸
龹
者
艹
？
🜨
𠀁
𠀃
𠀆
𠀉
𠀎
𠀐
𠁁
𠁣
𠂆
𠂇
𠂈
𠂉
𠂊
𠂋
𠂎
𠂒
𠂔
𠂛
𠂡
𠂢
𠂤
𠂬
𠂭
𠂹
𠃊
𠃋
𠃌
𠃍
𠃎
𠃑
𠃓
𠃔
𠃜
𠄌
𠄎
𠄠
𠄢
𠆢
𠆥
𠇍
𠈌
𠌵
𠓜
𠔉
𠔥
𠔼
𠔽
𠔿
𠕀
𠕁
𠕋
𠘧
𠘨
𠙻
𠙼
𠚏
𠚒
𠚤
𠚪
𠣏
𠤎
𠤕
𠥓
𠦄
𠦑
𠦝
𠧒
𠧗
𠧪
𠩺
𠪚
𠫓
𠫔
𠫤
𠬛
𠬝
𠬞
𠬢
𠬤
𠬶
𠮛
𠮦
𠮷
𠯑
𠱠
𠳮
𠷎
𡈼
𡉀
𡉵
𡌥
𡍮
𡏳
𡕒
𡕩
𡕰
𡖅
𡗗
𡗜
𡘆
𡘤
𡧱
𡨄
𡩧
𡬠
𡭽
𡰣
𡰥
𡰪
𡰯
𡰱
𡷈
𡸁
𡿨
𡿩
𡿪
𡿺
𢀖
𢀛
𢀩
𢁙
𢆉
𢆰
𢆶
𢇁
𢇇
𢉖
𢌬
𢌿
𢏚
𢑑
𢑚
𢖻
𢙣
𢛳
𢦏
𢦒
𢧵
𢼄
𢾕
𣁋
𣄼
𣅀
𣅽
𣍘
𣎳
𣎵
𣏋
𣏼
𣗥
𣥂
𣥖
𣦵
𣦼
𣧄
𣪊
𣪠
𣬉
𣳾
𣶒
𤇾
𤊽
𤐫
𤓰
𤔔
𤕨
𤣩
𤰇
𤰔
𤰞
𤴓
𤴔
𤽄
𥁑
𥁕
𥃦
𥃩
𥃭
𥇡
𥑟
𥘅
𥘈
𥝢
𥫗
𥱡
𦈢
𦉪
𦉬
𦉼
𦍌
𦍒
𦎧
𦐇
𦓔
𦔮
𦘒
𦙃
𦚏
𦣝
𦣞
𦣻
𦥑
𦥔
𦥯
𦨉
𦭝
𦰩
𧆞
𧈧
𧘇
𧰨
𧴪
𧴮
𧵩
𧾷
𨸏
𨾴
𩙿
𩠐
𩫏
𩵋
𪉷
𪜀
𪟽
𪠲
𪩲
𫇦
𫔭
𫜸
𫝀
𫠣
𫠩
𫢉
𫥞
𫩏
𫩠
𫪡
𫲽
𫶧
𬀷
𬐘
𬗌
𬙙
𬛸
𬜯
𬟩
𬯁
𬴘
𬺻
𬼉
𬼖
𭀰
𭁈
𭁨
𭅰
𭑈
𭕄
𭗼
𭤨
𭥫
𭻾
𮅕
𮊿
𮍌
𮍏
𮓗
𮥼
𮧮
廾
𰀁
𰀄
𰀈
𰀉
𰀕
𰀠
𰀡
𰀢
𰀪
𰁜
𰃮
𰆊
𰆘
𰋙
𰕎
𰢴
𰧭
𰯲
03--
05--
403--
887--
a--
ab--
abe--
abitu--
absol--
ac--
aca--
ace--
ach--
act--
acu--
ad--
ada--
add--
ade--
adu--
ae--
aedil--
af--
ag--
aga--
age--
aggiu--
agi--
ago--
agri--
agro--
ai--
air--
al--
ale--
alessa--
alex--
alge--
ali--
alt--
am--
ama--
ame--
ami--
an--
ana--
analy--
anc--
and--
ani--
annun--
ano--
ant--
anti--
anto--
ap--
ape--
apo--
appen--
apu--
aqui--
ar--
ara--
arc--
arca--
arch--
arco--
ardu--
are--
arg--
argi--
ari--
armu--
arnu--
aro--
arr--
art--
arti--
as--
asce--
ase--
aso--
ass--
associa--
ast--
at--
athan--
ati--
atti--
au--
augu--
aur--
aus--
auto--
auxi--
av--
ava--
ave--
avent--
avi--
avo--
ay--
az--
aza--
b--
ba--
bad--
bagna--
bak--
balc--
balda--
balli--
bapt--
bar--
bas--
bat--
batta--
bb--
be--
bec--
bel--
ben--
bene--
ber--
beren--
berg--
bi--
biblio--
bibu--
big--
bio--
bis--
blu--
bo--
bole--
bom--
bon--
bot--
bra--
bre--
breta--
bri--
bro--
bru--
bry--
bu--
buf--
bufa--
bulga--
bus--
but--
c--
ca--
cal--
cala--
can--
cani--
canta--
cap--
car--
caris--
caro--
cas--
casa--
cat--
cathe--
cav--
cava--
cay--
cc--
ccl--
ccx--
ccxx--
ce--
cell--
cen--
ceri--
ces--
ch--
cha--
che--
chi--
ci--
cia--
cin--
circ--
circum--
cis--
cister--
ciu--
cl--
cla--
clasi--
classi--
cle--
clo--
cm--
cml--
cmlxx--
cmxc--
cn--
co--
cola--
colti--
colum--
com--
comi--
con--
concl--
conf--
consid--
consti--
coo--
coop--
cor--
cos--
cosmo--
cr--
cra--
cre--
cri--
cro--
croci--
cru--
cu--
cua--
cum--
cun--
cur--
cus--
cy--
d--
da--
dal--
dam--
dar--
dc--
dcl--
dclxx--
dcx--
dcxc--
dcxx--
de--
defen--
del--
deli--
delin--
dem--
demen--
den--
denom--
deo--
der--
des--
det--
dev--
df--
di--
dia--
dic--
dif--
diffi--
dimo--
din--
dio--
dis--
disc--
discip--
disco--
dl--
do--
doc--
dom--
dome--
domi--
dor--
dos--
dra--
dre--
ds--
du--
dua--
duo--
dve--
dx--
dy--
dzi--
e--
ea--
ec--
ecc--
ed--
edit--
edu--
ef--
eg--
egi--
ei--
ein--
el--
ele--
elec--
eli--
elo--
em--
eme--
emi--
en--
enc--
eno--
ep--
epif--
epigra--
equ--
er--
ere--
es--
esa--
escre--
ese--
espan--
et--
eutro--
ev--
eva--
ex--
exce--
excl--
exem--
exi--
ext--
f--
fa--
fac--
fan--
far--
fas--
fe--
fel--
feli--
fer--
fes--
fev--
ffi--
fi--
fil--
fila--
fis--
fla--
fle--
flo--
flu--
fo--
for--
fos--
fra--
fras--
fre--
fri--
fro--
fru--
fu--
fun--
fus--
g--
ga--
gar--
gas--
gau--
ge--
gen--
ger--
get--
gg--
ghi--
gi--
gia--
gian--
gio--
gir--
giu--
gl--
glad--
glo--
gn--
go--
got--
gra--
graf--
gri--
gris--
gro--
gru--
gry--
gu--
gua--
gue--
gugliel--
gui--
h--
ha--
haere--
har--
he--
her--
hered--
hi--
hip--
hit--
ho--
hon--
hospi--
hum--
hun--
hus--
hy--
i--
ia--
ibi--
ic--
id--
ide--
identi--
idro--
ie--
if--
ign--
il--
im--
ima--
imp--
in--
ina--
inc--
inci--
inco--
indi--
indu--
ine--
ini--
inqui--
ins--
inse--
insi--
insti--
int--
inte--
inter--
inti--
into--
intra--
invo--
io--
ip--
ipa--
ir--
is--
isa--
ist--
ita--
iu--
iudi--
iv--
j--
ja--
je--
ji--
jo--
ju--
judi--
k--
ka--
ki--
ko--
korea--
kra--
kris--
ku--
l--
la--
lae--
lag--
lampegi--
lampy--
lan--
lar--
las--
lat--
laud--
laz--
lc--
ld--
le--
lec--
lei--
len--
leo--
les--
lev--
li--
lib--
lic--
ligu--
lin--
list--
lit--
liut--
liz--
lo--
lodi--
log--
lor--
lou--
lt--
lu--
ludo--
lum--
lus--
lva--
ly--
m--
ma--
mac--
mad--
mag--
mai--
mal--
mala--
man--
mani--
mar--
mas--
mati--
mau--
max--
mb--
mc--
mcc--
mccc--
mcccl--
mccclxx--
mcccx--
mcccxc--
mcccxx--
mcd--
mcdl--
mcdlxx--
mcdx--
mcdxc--
mcdxx--
mcl--
mcmlxx--
mdc--
mdcc--
mdccc--
mdcccxx--
mdccl--
mdcclxx--
mdccx--
mdccxc--
mdcl--
mdcx--
mdcxx--
me--
medes--
medi--
medit--
mei--
mel--
men--
menda--
mer--
mes--
met--
meta--
mezzo--
mh--
mi--
mic--
mil--
mini--
mira--
mise--
mit--
mix--
mm--
mma--
mo--
monte--
mor--
morri--
mp--
mu--
mudi--
multi--
munt--
mus--
muta--
my--
n--
na--
naf--
nam--
nan--
nar--
nas--
navi--
naza--
nb--
nd--
ne--
nea--
nec--
neo--
nepo--
new--
nf--
ngu--
ni--
nic--
nicom--
nik--
nn--
no--
nob--
noc--
non--
ns--
nt--
nti--
nu--
nz--
o--
ob--
oc--
odo--
of--
ogg--
ol--
oli--
om--
on--
oo--
op--
opi--
or--
ora--
ord--
org--
orio--
oro--
ortho--
os--
ot--
ou--
ove--
p--
pa--
paci--
paeni--
pag--
pal--
pan--
par--
pare--
pas--
pau--
pav--
pc--
pe--
pecca--
pen--
per--
peri--
pes--
ph--
photo--
pi--
pia--
pic--
pie--
pier--
pio--
pit--
pla--
ple--
po--
poi--
pol--
pole--
poli--
pop--
port--
pos--
post--
pp--
pra--
praes--
praesum--
pre--
pres--
pri--
pro--
prof--
pronu--
proph--
pru--
præ--
pt--
pu--
pub--
pue--
pul--
pur--
purif--
pus--
pœniten--
q--
qu--
qua--
quae--
que--
qui--
quin--
quo--
quoti--
r--
ra--
racc--
raf--
rai--
ral--
ram--
ran--
ras--
rat--
rc--
re--
rea--
rec--
recu--
red--
reg--
rei--
reli--
ren--
rep--
res--
ret--
rev--
rez--
rg--
rho--
ri--
ria--
ric--
rico--
ridi--
rie--
rime--
rin--
rio--
ris--
rit--
ro--
rob--
rom--
ron--
ronca--
ros--
rou--
rous--
rox--
rr--
rs--
rt--
ru--
rub--
rugg--
rum--
rus--
rv--
s--
sa--
saec--
sai--
sal--
samma--
san--
santa--
sap--
sar--
sba--
sc--
sca--
scar--
sce--
sci--
scioc--
sco--
scu--
se--
sec--
sed--
sei--
sel--
selin--
sem--
seme--
sena--
sensibi--
ser--
sera--
serra--
ses--
sfi--
sh--
sha--
she--
si--
sic--
sid--
sil--
sim--
simpli--
sin--
sir--
sk--
slo--
sm--
small--
sn--
so--
sof--
sol--
son--
sotto--
sp--
spa--
spe--
spec--
speci--
sperim--
spi--
sple--
spo--
spro--
ss--
sta--
stati--
ste--
sti--
sto--
stra--
stu--
su--
sua--
sub--
succ--
suf--
sui--
suis--
sul--
supp--
sur--
sus--
sut--
sve--
sw--
sy--
syno--
sze--
t--
ta--
taf--
tal--
tam--
tan--
tar--
te--
tea--
tel--
teleno--
tem--
temp--
ten--
tenta--
teo--
tequix--
ter--
tera--
tere--
tes--
th--
tha--
the--
tho--
ti--
tin--
tip--
tipica--
tn--
to--
toc--
tol--
tom--
top--
tor--
tossi--
tou--
tovag--
tow--
tra--
tran--
trans--
tras--
tre--
tri--
tro--
tru--
tt--
tu--
turba--
turpitu--
turt--
tv--
ty--
u--
ucc--
uf--
ugua--
ul--
um--
un--
uni--
up--
ur--
urg--
uri--
urtu--
us--
use--
ut--
ute--
uti--
uto--
v--
va--
vag--
vai--
val--
vale--
van--
var--
vas--
ve--
vel--
ven--
ver--
veri--
vers--
ves--
vex--
vi--
via--
vigil--
vila--
vio--
vir--
vis--
vlu--
vo--
vol--
vs--
vu--
vul--
vv--
w--
wat--
we--
wh--
wie--
wiki--
x--
xi--
xx--
y--
yu--
z--
za--
ze--
zer--
zhe--
zi--
zin--
zo--
zu--
zur--
zyg--
đ--
ħ--
ł--
ɲ--
ʤ--
ʧ--
--0
--00
--01
--03
--07
--09
--1
--11
--13
--17
--19
--2
--21
--23
--27
--29
--3
--31
--33
--37
--39
--4
--41
--43
--47
--49
--5
--51
--53
--57
--59
--6
--61
--63
--67
--69
--7
--71
--73
--77
--79
--8
--81
--83
--87
--89
--9
--91
--93
--97
--99
--a
--ab
--ac
--ad
--ado
--ae
--ag
--ah
--ai
--aia
--ail
--ais
--al
--ald
--ale
--ali
--alia
--alibus
--am
--ama
--ame
--an
--ana
--and
--ani
--ano
--ant
--anto
--anum
--ar
--ara
--ard
--ardi
--are
--ari
--arsi
--as
--ase
--at
--ata
--ate
--ath
--ati
--atio
--ation
--ato
--azia
--b
--ba
--bam
--ban
--bane
--bbe
--be
--bi
--bile
--bili
--bin
--bini
--bio
--bis
--bo
--bol
--bola
--bri
--bu
--burg
--burgo
--bus
--by
--c
--ca
--cc
--cchio
--cci
--ccia
--ccio
--ccoci
--ce
--ceae
--celli
--ch
--che
--chi
--ci
--cia
--cini
--cio
--cis
--cit
--ck
--co
--ct
--cta
--ctatur
--ctio
--ctu
--ctus
--cu
--cum
--cus
--cy
--d
--da
--dade
--dam
--dara
--dat
--de
--der
--dere
--des
--dga
--dghe
--di
--dia
--dictio
--didi
--die
--dime
--dio
--dis
--do
--dola
--don
--doro
--dos
--dra
--ds
--dt
--du
--dum
--dunt
--dy
--e
--ea
--eb
--eca
--ed
--edi
--edo
--ee
--ei
--eiro
--el
--elle
--elli
--ello
--em
--en
--ena
--endi
--endo
--endum
--ene
--enis
--ens
--ent
--enti
--eo
--er
--era
--ere
--eri
--ero
--ersi
--es
--escit
--ese
--esi
--et
--ete
--eth
--etta
--etti
--etto
--eu
--eus
--ex
--ey
--f
--fa
--fe
--ff
--fi
--ficio
--fie
--fle
--fo
--fra
--fu
--g
--ga
--gado
--gare
--gasio
--gat
--gazione
--ge
--ger
--gg
--ggi
--ggio
--ggna
--gh
--ghe
--ghi
--gi
--gia
--gica
--gie
--gine
--gio
--gitur
--gl
--glia
--gn
--gna
--gnano
--gne
--gni
--gno
--go
--gro
--gs
--gu
--gus
--h
--ha
--ham
--he
--hi
--hia
--hini
--ho
--hor
--hus
--i
--ia
--iae
--iani
--iano
--ias
--iat
--ibus
--ic
--ica
--ico
--icum
--icus
--id
--ida
--ide
--idu
--ie
--iem
--ier
--igo
--ii
--iit
--il
--ile
--ili
--im
--ima
--ime
--imus
--in
--ina
--ine
--ing
--ini
--ino
--insa
--int
--io
--ion
--iona
--ione
--iones
--ioni
--iorum
--ipe
--ir
--ira
--ire
--iro
--is
--isa
--isi
--ism
--isse
--it
--ita
--ite
--iti
--itio
--ito
--itto
--ium
--iuna
--iune
--iunt
--ius
--iv
--ive
--ix
--ixa
--ize
--j
--ja
--je
--ject
--ji
--jn
--jo
--jus
--k
--ka
--ke
--ki
--ks
--l
--la
--lae
--lano
--lari
--las
--ld
--lde
--ldo
--le
--ler
--les
--lesi
--lex
--ley
--lf
--lha
--li
--lia
--lie
--lier
--lii
--lin
--lini
--lis
--lite
--lium
--ll
--lla
--lle
--lles
--lli
--llo
--lma
--lmaint
--lme
--ln
--lo
--lone
--ls
--lt
--lte
--lu
--lus
--lx
--ly
--m
--ma
--masio
--mbe
--mbo
--mbre
--me
--med
--ment
--mente
--mi
--mia
--mio
--mis
--mo
--modo
--mos
--mp
--mpe
--mper
--ms
--mu
--mus
--my
--n
--na
--nabo
--nado
--nae
--nal
--nale
--nali
--nas
--nc
--nca
--nce
--nces
--nch
--nco
--nd
--nda
--ndae
--nde
--ndi
--ndo
--ndro
--ndum
--ne
--nelli
--nem
--nemo
--nes
--nesi
--ng
--nge
--ngo
--nha
--nho
--nhos
--ni
--nia
--nica
--nie
--nieri
--nin
--nio
--nique
--nire
--nis
--nit
--nita
--nitatis
--nite
--nius
--nk
--nko
--nna
--nne
--nno
--no
--non
--nos
--ns
--nsa
--nse
--nsi
--nsie
--nsio
--nsis
--nsium
--nska
--nso
--nt
--nta
--ntada
--nte
--ntem
--ntes
--nti
--ntia
--ntiae
--ntial
--ntibus
--ntin
--ntina
--ntini
--ntinia
--ntis
--nto
--ntrame
--ntre
--ntum
--ntur
--ntus
--nu
--nuce
--num
--nus
--ny
--nz
--nza
--nze
--nzi
--nzia
--nzie
--nzle
--nzo
--o
--od
--oi
--ok
--oli
--olo
--ologia
--on
--ona
--one
--oni
--onio
--onis
--ono
--ons
--or
--ore
--ori
--oria
--oris
--orum
--os
--otti
--ou
--oun
--ov
--p
--pa
--pe
--per
--ph
--phia
--pi
--pia
--po
--pp
--ppa
--ppe
--ppo
--pro
--ps
--ptio
--pu
--pum
--pune
--q
--qua
--que
--r
--ra
--rado
--rago
--rai
--rali
--ran
--ras
--rat
--rati
--razia
--razione
--rbi
--rco
--rd
--rda
--rde
--rdi
--rdo
--re
--redo
--rein
--relli
--rere
--res
--rg
--rghe
--rgo
--ri
--ria
--riame
--ribus
--rie
--rigo
--rii
--rini
--rino
--rio
--riola
--ris
--rit
--rite
--rium
--rius
--rix
--rk
--rke
--rla
--rn
--rna
--rne
--rno
--ro
--roli
--rone
--ros
--rre
--rri
--rs
--rsa
--rse
--rsi
--rsis
--rt
--rte
--rti
--rtime
--rto
--ru
--rum
--rus
--rva
--rvasio
--rvati
--rve
--rvi
--ry
--rz
--s
--sa
--sam
--sat
--sca
--sch
--scit
--sco
--se
--sen
--set
--sey
--sh
--si
--sia
--sime
--sio
--sion
--sioun
--sissimo
--sium
--siuna
--sius
--sjo
--smi
--smo
--so
--son
--sos
--sp
--spla
--ss
--ssa
--sse
--ssi
--ssimi
--ssimus
--ssio
--sso
--st
--sta
--stas
--ste
--sti
--stic
--sto
--stra
--stre
--stro
--su
--sub
--sum
--sus
--sy
--t
--ta
--tagune
--tal
--tame
--tan
--tana
--tani
--tarum
--tas
--tasio
--tat
--tate
--tati
--tatis
--tato
--tchley
--te
--tella
--tem
--ter
--tes
--th
--tha
--ti
--tia
--tiae
--tiam
--tibus
--tic
--tica
--tico
--tien
--tii
--tiis
--tine
--tini
--tino
--tio
--tion
--tione
--tionibus
--tionis
--tions
--tis
--tium
--tius
--tiv
--tiva
--tmi
--to
--tole
--ton
--tor
--tori
--toris
--torum
--tr
--tra
--tre
--tri
--tro
--try
--ts
--tt
--tta
--tte
--tti
--tto
--tu
--tudo
--tui
--tum
--tume
--tur
--tus
--ty
--tz
--u
--ua
--uasioun
--uc
--uca
--ud
--ude
--udo
--ue
--uf
--ui
--uit
--ul
--ule
--ulli
--ulo
--ulos
--ulum
--um
--uma
--umi
--un
--una
--unce
--une
--uni
--uolo
--up
--ur
--ura
--ure
--urn
--us
--uso
--ut
--uum
--uv
--uve
--uvi
--ux
--uxa
--uza
--v
--va
--vame
--vamente
--vasio
--vata
--vati
--vde
--ve
--ver
--vi
--via
--vis
--vit
--vius
--vo
--vs
--vu
--vum
--vus
--w
--wa
--wn
--wy
--x
--xa
--xe
--xi
--xit
--xl
--xv
--xx
--xxv
--xxx
--y
--ya
--ys
--z
--za
--zani
--zano
--zar
--zare
--ze
--zi
--zia
--zio
--zion
--zione
--ziun
--ziune
--zo
--zza
--zzi
--zzo
--zzoni
--æ
--ŋ
--ɱ
--ɲ
--ʤ
--ʧ
