!
"
#
##0
##1
##10
##11
##12
##13
##14
##15
##16
##17
##18
##19
##2
##20
##21
##22
##23
##24
##25
##26
##27
##28
##29
##3
##30
##31
##32
##33
##34
##35
##36
##37
##38
##39
##4
##40
##41
##42
##43
##44
##45
##46
##47
##48
##49
##5
##50
##51
##52
##53
##54
##55
##56
##57
##58
##59
##6
##60
##61
##62
##63
##64
##65
##66
##67
##68
##69
##7
##70
##71
##72
##73
##74
##75
##76
##77
##78
##79
##8
##80
##81
##82
##83
##84
##85
##86
##87
##88
##89
##9
##90
##91
##92
##93
##94
##95
##96
##97
##98
##99
$
%
&
'
(
)
*
+
,
-
.
/
0
00
000
000102
001
001101
002
00238
00300
00355
004
005
005005
007
0083
01
010
01118
012
015
0172
019
02
020
022
02314
026
03
03142
03143
03146
032
034
03600
03630
04
0405
044
047
05
0524
057
06
063
0632
064
067
06700
06758
07
0734
077
0782
08
0828
0869
09
090
0927
095
1
10
100
1000
10000
1001
1005
1006
1009
101
1010
1011
1012
1013
1014
1015
1016
10173
10180
1019
102
1020
1023
1025
103
1038
104
105
1050
1052
1054
1055
106
1061
1066
107
1071
1072
1075
1076
108
1081
1082
1084
109
1090
1093
11
110
1100
1105
1109
111
112
1122
1128
113
1130
114
1142
1147
115
1150
1157
116
11640
117
118
1180
119
1193
1196
12
120
1200
1201
1202
1204
1205
1206
1208
121
1210
1211
1213
1215
1218
1219
122
1221
1223
1224
1225
1226
1227
123
1230
1232
123456789
1235
1236
1237
1238
1239
124
1240
1241
1242
1243
1245
1247
1248
125
1250
1252
1257
1259
126
1260
1261
1265
1267
127
1270
1271
1274
1275
128
1280
1284
1285
1286
1287
129
1290
1291
1292
1295
1299
13
130
1300
1303
1304
1305
1306
13069
1307
1308
131
1310
1314
1317
132
1320
13200
13208
1321
1324
1329
133
1332
1337
134
1340
1343
135
1350
1351
1352
1355
1359
136
1360
1362
1363
1366
137
1370
1371
1373
138
1385
1389
139
1390
1393
1397
14
140
1400
1402
1404
1405
1406
1408
1409
141
1410
1411
1412
1414
1415
142
1420
1427
1428
1429
143
1430
1431
1432
1435
1437
1438
144
1440
1444
1445
1447
1448
145
1450
1451
1453
1454
1455
1459
146
1460
1466
147
1470
1471
1475
1477
148
1480
1483
1484
1485
149
1492
1496
1498
1499
15
150
1500
1501
1502
1503
1505
1506
1509
151
1515
1517
1519
152
1520
1521
1524
1526
1527
1528
153
1530
1534
1535
1536
1537
1538
154
1540
1542
1543
1545
1546
1547
1548
1549
155
1550
1551
1552
1554
1555
1556
1557
1558
156
1560
1562
1564
1565
1566
1567
1569
157
1570
1571
1572
1573
1574
1577
1578
1579
158
1580
1581
1582
1583
1584
1585
1586
1588
1589
159
1590
1592
1595
1596
1597
1598
1599
16
160
1600
1602
1603
1604
1605
1606
1608
1609
161
1610
1611
1612
1613
1615
1616
1618
1619
162
1620
1621
1624
1625
1627
1628
1629
163
1630
1632
1634
1635
1636
1637
1638
1639
164
1640
1641
1642
1644
1645
1646
1648
165
1650
1651
1652
1653
1654
1655
1656
1657
1658
1659
166
1660
1661
1664
1665
1666
1667
1669
167
1670
1672
1673
1676
1677
1678
1679
168
1680
1681
1682
1683
1685
1686
1687
1688
1689
169
1690
1691
1696
1697
1698
1699
17
170
1700
1701
1702
1703
1704
1705
1706
1707
1708
1709
171
1710
1711
1712
1713
1714
1715
1716
1717
1718
172
1720
1721
1722
1723
1724
1725
1726
1727
1728
1729
173
1730
1731
1732
1733
1734
1735
1736
1737
1738
1739
174
1740
1741
1742
1743
1745
1746
1748
1749
175
1750
1751
1752
1753
1754
1755
1756
1757
1758
1759
176
1760
1761
1762
1763
1764
1765
1766
1767
1768
1769
177
1770
1771
1772
1773
1774
1775
1776
1777
1778
1779
178
1780
1781
1782
1783
1784
1785
1786
1787
1788
1789
179
1790
1791
1792
1793
1794
1795
1796
1797
1798
1799
18
180
1800
1801
1802
1803
1804
1805
1806
1807
1808
1809
181
1810
1811
1812
1813
1814
1815
1816
1817
1818
1819
182
1820
1821
1822
1823
1824
1825
1826
1827
1828
1829
183
1830
1831
1832
1833
1834
1835
1836
1837
1838
1839
184
1840
1841
1842
1843
1844
1845
1846
1847
1848
1849
185
1850
1851
1852
1853
1854
1855
1856
1857
1858
1859
186
1860
1861
1862
1863
1864
1865
1866
1867
1868
1869
187
1870
1871
1872
1873
1874
1875
1876
1877
1878
1879
188
1880
1881
1882
1883
1884
1885
1886
1887
1888
1889
189
1890
1891
1892
1893
1894
1895
1896
1897
1898
1899
19
190
1900
1901
1902
1903
1904
1905
1906
1907
1908
1909
191
1910
1911
1912
1913
1914
1915
1916
1917
1918
1919
192
1920
1921
1922
1923
1924
1925
1926
1927
1928
1929
193
1930
1931
1932
1933
1934
1935
1936
1937
1938
1939
194
1940
1941
1942
1943
1944
1945
1946
1947
1948
1949
195
1950
1951
1952
1953
1954
1955
1956
1957
1958
1959
196
1960
1961
1962
1963
1964
1965
1966
1967
1968
1969
197
1970
1971
1972
1973
1974
1975
1976
1977
1978
1979
198
1980
1981
1982
1983
1984
1985
1986
1987
1988
1989
199
1990
1991
1992
1993
1994
1995
1996
1997
1998
1999
2
20
200
2000
2001
2002
2003
2004
2005
2006
2007
2008
2009
201
2010
2011
20111
2012
2013
2014
2015
2016
2017
2018
2019
202
2020
2021
2022
2023
2024
203
204
205
206
207
208
209
21
210
211
212
213
214
215
216
217
218
219
2193
2195
22
220
2200
221
222
223
224
2248
225
226
2268
227
228
229
23
230
2300
231
232
233
234
235
2351
236
237
2379
238
239
24
240
2400
241
242
243
244
245
246
247
248
249
25
250
2500
251
252
253
254
255
256
257
258
259
26
260
261
262
263
264
265
2655
266
267
2674
268
269
27
270
2703
271
272
273
274
275
276
277
278
279
28
280
281
282
283
284
285
286
287
288
289
29
290
291
292
293
2931
294
295
296
297
298
299
3
30
300
3000
301
302
303
304
305
306
307
308
309
31
310
311
312
313
3138
314
315
316
317
318
319
32
320
321
322
323
324
325
326
327
328
329
33
330
331
33158
332
333
334
335
336
337
338
339
34
340
341
342
343
343000
344
345
346
347
348
349
35
350
351
352
353
354
355
356
3566
357
358
359
36
360
3600
361
362
3628
363
364
365
366
367
368
369
37
370
371
372
373
374
375
376
377
378
379
38
380
381
382
383
3836
384
385
386
387
388
389
39
390
391
392
393
394
395
396
397
398
399
4
40
400
4000
401
402
403
404
405
406
407
408
409
41
410
412
413
414
415
416
417
4170
418
419
42
420
421
422
423
424
425
426
427
428
429
43
430
431
432
433
434
435
436
437
438
439
44
440
441
442
443
444
445
446
447
448
449
45
450
451
452
453
454
455
456
457
458
459
46
460
461
462
463
464
465
466
467
468
469
47
470
471
472
473
474
475
476
477
478
4781
479
48
480
481
482
483
484
485
486
487
488
489
49
490
492
493
494
495
496
497
498
499
5
50
500
5000
501
502
503
504
505
506
507
508
509
5097
51
510
512
513
514
515
516
517
518
519
52
520
521
521229
522
523
524
525
526
5269
527
528
529
53
530
531
532
533
534
535
536
537
538
539
54
540
542
543
544
545
546
547
548
549
55
550
551
552
553
554
555
556
557
558
559
56
560
561
562
563
564
565
566
567
568
569
57
570
571
572
573
574
575
576
577
57740
578
579
58
580
581
582
583
584
585
587
588
589
59
590
591
592
593
594
595
596
597
598
599
6
60
600
6000
601
602
603
604
605
606
607
608
609
61
610
611
612
613
614
615
616
617
618
619
62
620
621
623
624
625
626
627
628
629
63
630
631
632
633
634
635
636
637
639
64
640
641
642
644
645
646
647
648
649
65
650
651
652
655
656
657
658
659
66
660
6609
661
662
663
664
667
668
669
67
670
671
672
673
674
675
676
677
678
679
68
680
681
682
683
684
685
687
688
689
69
690
691
692
693
694
695
696
697
698
699
7
70
700
701
702
703
704
705
706
707
708
709
71
710
7101
711
712
713
714
715
716
717
7178
718
719
72
720
721
7234
724
7242
725
726
727
7277
728
729
73
730
731
732
733
7336
734
735
736
737
738
739
74
740
741
742
743
744
746
747
748
749
7492
75
750
7503
751
752
753
754
755
756
757
7571
758
76
760
761
762
763
764
765
766
767
768
769
77
770
771
772
773
774
775
7757
776
777
778
779
78
780
7804
781
782
783
7838
784
785
786
787
788
79
790
792
794
795
796
797
798
799
8
80
800
801
802
8020
803
804
805
806
807
808
809
8099
81
810
8103
811
812
813
814
815
816
817
818
819
82
821
822
823
824
825
826
827
828
829
8291
83
830
832
833
834
836
838
839
84
840
8405
841
842
843
844
84433
845
847
848
849
85
850
851
85137
852
85270
853
854
855
856
85683
857
858
85825
859
86
860
861
862
863
864
86400
865
866
867
868
869
87
870
871
87173
872
873
874
875
876
877
878
879
88
880
881
882
883
884
885
88500
886
887
88769
888
889
89
890
89046
892
89226
8924
893
895
896
897
898
899
89945
9
90
900
9000
90046
901
902
904
905
906
907
908
909
91
910
911
912
914
915
916
917
92
920
921
923
924
926
927
928
929
93
930
931
932
93264
933
936
937
93761
938
939
94
940
941
942
944
945
948
95
950
951
953
9543
955
956
957
95740
959
96
960
962
963
964
965
966
967
968
969
97
970
970354
971
972
973
9739
974
9746
975
978
9781442674431
979
98
980
982
98426
985
987
988
989
98993
99
990
991
995
996
9965
997
998
999
:
;
<
=
>
?
@
[
\
]
^
_
`
a
aa
ab
abau
abba
abbotsford
abc
about
abroad
abs
absentia
abstract
ac
academia
academic
academy
access
accessdate
accident
accipiter
according
account
achievement
acid
act
acta
action
acts
ad
ada
adam
adams
adatok
adatta
admin
administracji
administration
administrative
adobe
adresowych
af
affairs
africa
african
after
age
agency
ages
agreement
agricultural
aids
aif
ak
akade
akademie
ako
akrotiri
aktor
aktuality
al
alan
alba
albert
albifrons
album
alcock
aldridge
ale
aleksandr
alemannisch
alexander
alexandria
alfo
alfred
alice
alive
all
allcock
allen
alma
almanacs
almucantar
alpha
alphabet
als
also
always
am
ame
amen
america
american
americans
an
ana
analysis
anas
ancestry
ancient
and
andorra
andra
andre
andrej
andrew
andrews
andrzej
andy
aneb
angl
animalia
anita
anka
ann
anna
anno
annual
anonymus
ans
anser
answers
ant
antal
anthus
anton
antoni
any
anzahl
app
applied
approx
apps
apr
april
apus
aquila
ar
ara
arab
arbor
arcanum
archanjela
architektura
archiv
archive
archived
archives
archiwum
ardea
ardeidae
are
area
areas
argentina
argentine
armenia
army
around
arpanet
array
ars
art
arte
arthur
article
articles
arts
as
asia
asimov
asin
asopis
asp
aspx
assembly
assetdetail
association
ast
astny
astro
astronaut
astronet
astronomical
astronomy
asy
at
atkovic
atlantic
atlas
atlasza
atp
attacks
attila
au
auch
aug
august
augustin
augustine
augustinus
augustus
aula
australia
australian
austria
author
authors
autobiography
autono
autor
autoru
av
ava
aves
award
awards
az
azbyka
azerbaijan
azores
aztec
b
ba
babc
bac
back
bacteria
badan
baku
baleka
ballyroney
ban
band
bang
bank
banka
banska
baptiste
barbara
barbareum
baro
baron
based
basil
basilica
battle
baza
bazademografia
bb
bbc
bc
bce
bd
be
beatles
beautiful
been
before
begin
bei
being
beliana
bell
belli
ben
bendigo
bereg
beregsza
berka
berlin
bern
bernd
berne
bes
beskid
beskyd
bessenyei
best
betu
between
bevo
bevoelkerung
bezzel
bf
bfs
bi
biblioteka
biblioteki
bicycle
bieszczadzki
biez
big
bigbang
bigenc
bill
bin
bingen
bio
biographical
biographie
biography
biolib
biologie
biology
bios
bipm
birc
bird
birdlife
birds
birthday
bis
bishop
bistra
bitstream
bl
black
blaz
blica
blog
blogs
blogspot
blood
bloomberg
bo
bodrog
body
bogdan
bohorodic
bonka
book
books
bor
border
born
borsod
bosnia
boston
botanika
both
box
boz
bp
br
brandos
bratislava
bratislave
brezhnev
brezno
brief
britain
britannica
british
brno
bro
broch
brochure
brovdi
brown
browser
broz
bru
bruce
bruno
bse
bu
buda
budapest
bude
buffalo
bugera
bukovske
bukvy
bulletin
bureau
bus
bush
business
but
buteo
by
bystrica
byzantine
c
ca
caban
caeruleus
caesar
caesarea
calcutta
calidris
california
calligraphy
cambridge
campbell
can
canada
canadian
cancel
canto
canton
capella
capital
cardinale
carduelis
carolina
carpathian
carpatho
carpatica
carpato
carter
cas
castro
casus
catherine
catholic
causa
cavalli
cbs
cc
cca
cd
cdot
ce
cegle
cemetery
census
censuses
center
central
centre
centrum
century
cesku
cfm
cgi
cgpm
ch
change
chapter
characteristics
charadrius
charles
charter
charters
che
chelmlcklego
chemistry
chepa
chi
chicago
chief
chile
china
chinese
chlidonias
chloris
chmel
chodni
chodnom
chra
chrbtom
christian
christianity
christopher
chronologie
chronology
chrzes
chtyvo
church
ci
cia
ciconia
cie
cielna
cieszyn
cijan
cincinnati
circus
cis
cite
cities
citizens
citizenship
city
citypopulation
ciuszko
civil
civilis
cke
ckokatoli
cky
cl
clanok
clark
class
claudia
clav
clear
cleveland
clinton
clp
club
cm
cms
cngdpdpc
cnh
cnr
co
code
cody
collection
college
colleges
colonial
colorado
columbia
com
comitatus
comma
commission
common
commons
commonwealth
communist
community
company
complete
complex
componenete
compound
comprehensive
con
concept
concepts
concise
conference
conflict
congo
congress
connect
conquest
conquistador
conservation
constant
constitution
content
contra
coolidge
copy
corbusier
cordell
core
cornell
cornu
corporation
corpus
corvus
coul
council
count
countries
country
court
cpppgdp
cppppc
cregan
crex
crimes
criminal
cristatus
croatia
croatian
croton
cs
csc
cse
csi
cso
csonka
csopey
css
csu
ct
cty
cu
cultural
culture
cum
cup
curie
cvid
cy
cych
cyprus
cz
cze
czech
czna
czso
czu
czy
d
da
daily
dajama
dame
daniel
danielle
darmstadt
darpa
darvel
das
dass
data
databa
database
datacube
date
dato
david
day
db
dbn
dc
de
dead
death
debrecen
dec
december
def
defenestrace
define
definition
dei
deji
dejiny
dek
del
delta
dem
democratic
demografia
demokraticky
den
dendrocopos
dennis
department
der
des
design
det
detail
details
deutsche
deutschland
development
dezider
dezso
dfrac
di
dia
diamond
diaspora
diaz
dictionary
dictionnaire
die
diela
dierschke
dies
digital
din
dio
dir
directory
disability
discoverers
display
displaystyle
dissertatio
distribution
district
divadlo
divi
division
djvu
dk
dkovic
dla
dlib
dm
dmytro
dna
dne
dnes
dnia
dniu
do
dob
doba
doc
docs
doctor
doctrina
document
documentation
documents
doi
dokumenty
dom
doma
domestic
domesticus
dominica
domosti
domy
don
donald
dos
dostupne
download
dp
dq
dr
draft
dragon
drais
drevene
dreveny
drug
druhe
druhy
druk
drz
ds
dspace
du
dubay
dubc
dublin
dubna
duda
dukla
dulichenko
dunajom
dungel
dus
dvaca
dvd
dvorni
dwellings
dy
dynamo
dz
dzenie
dzieje
dzieł
dzs
dztw
dztwo
e
ea
each
eagle
early
earth
east
eastern
ec
ecclesiae
ech
echy
eco
economic
ed
ede
edgar
edi
edinburgh
edition
edmund
edni
edove
eds
edu
education
educational
educationis
edward
efter
ega
egy
egyha
ehled
eighth
ein
eine
einfu
eisenhower
eiu
ek
ekonomicznych
el
elaine
elbesze
electropedia
elek
elektra
element
elements
elo
elte
eman
embassy
emberiza
emberizidae
emil
emle
emperor
empire
en
ena
enc
encyclopaedia
encyclopedia
encyclopædia
encyklopaedie
encyklope
encyklopedia
encyklopedie
end
endangered
ende
endyklopedie
ene
energy
eng
engineering
england
english
eni
enie
enlarged
enrollment
enstvo
entertainment
eny
epic
equiv
equivalent
er
era
ercl
erich
ernest
erni
erno
erny
es
esa
eska
eske
esko
eskoslovenska
eskoslovenske
eskoslovensku
eskou
esky
espan
est
estimate
estimated
estimates
esu
et
ethnic
ethnicity
ethnologue
ethnology
etimolo
etnografie
etnologie
etymologicky
etymology
eu
eugene
eului
euro
euromedia
europa
europe
european
eurostat
eurovision
eus
eutheria
eva
evc
evci
event
events
evergreen
evi
evidencie
evolution
evropsky
example
exe
exner
expanded
explorer
explosion
expose
external
ey
eyes
ezra
f
fa
facebook
fact
factbook
factfinder
facto
facts
fakta
falco
false
falu
family
fat
fats
fauna
fc
fe
feb
february
federal
federated
federation
fedor
felso
fenixslovo
fenyes
ferenc
ferrari
ff
fi
fia
fiai
fico
fiction
fifa
fifth
figure
figures
file
files
filipa
film
filologii
fina
fine
fink
first
fishes
flash
flood
fm
fmt
fo
fodor
fond
fontan
food
foot
football
for
force
ford
fordi
foreign
former
foto
foundation
fr
frac
fram
franc
france
francis
francisci
francisco
franklin
franko
frantis
franz
frederick
free
freiherr
french
frequency
friedrich
fringilla
from
frt
fry
ft
fu
full
fund
fundamental
fus
g
ga
gable
gabriel
gaius
galla
garden
garrulus
gary
gazeta
gc
gcatholic
gdp
ge
gegenwart
gek
gel
gemeinde
genera
general
generation
generis
genocide
geo
geodictionary
geoffrey
geogra
geografiai
geograficzny
geographiai
geographic
geographical
geography
george
georgia
geos
germain
german
germany
geschichte
geschlecht
gesellschaft
gesta
get
gi
gia
giai
gianni
gif
gilgamesh
gimp
gkk
global
gloria
glossary
gminy
gne
gnes
gneveinek
go
goddard
golden
gon
goo
google
gordon
gorlicach
gorlice
gos
goston
gott
gov
government
governor
govt
gra
graduate
graficke
grafika
grammar
grand
grande
grant
gre
great
greece
greek
gregory
gro
group
groups
grp
gruber
grup
gruyter
grybowie
gsellschaft
gska
gu
guano
guide
guillaume
gus
gyi
gyo
gypaetus
gyula
gło
h
ha
hagia
hajdu
halifax
hall
hamburg
handbook
handle
hanka
hans
hanzelka
harmonic
harrison
harry
harvard
has
have
hc
hdr
he
head
health
heart
heidelberg
heilige
heinrich
helena
helicopter
hello
helyne
helyse
hem
henr
henri
henry
henryk
her
herbert
here
heritage
heroes
herout
herzegovina
heslo
hi
hierarchy
hieronymus
high
hill
hillary
hills
hindi
hindu
hindustani
hirundo
his
histo
histoire
historia
historical
historicky
historie
historii
history
histrf
hivatal
hl
hline
hm
hne
hnk
hntr
hnuti
ho
hole
holland
holocaust
home
homestead
homo
honoris
hor
hora
horam
horbal
hornya
horoszczak
horsepower
horva
hospoda
house
households
housing
how
howard
hp
hr
hrdza
href
hrono
hrsg
hrubi
hrung
hrvatska
hrvatske
htm
html
http
https
hu
hudba
hudby
hudec
hugo
human
humenne
hun
hundred
hungarian
hungarorum
hungary
hus
hustota
huta
hx
hy
hz
i
ia
iau
ib
ibby
ic
ice
iceland
ich
icm
id
identity
idf
idnes
ie
iev
ievref
if
ig
igna
ii
iii
il
illinois
illustrovana
im
image
images
imdb
imf
imperium
important
in
ina
inc
incognito
index
india
indian
indiana
industrial
ine
info
informa
informac
information
ing
inmarsat
inne
innych
insee
institut
institute
institution
instytut
int
inte
inteligencie
intelligence
interactive
international
internationale
internet
interval
intervals
into
introduction
iny
io
iota
iowa
ip
iphlib
ir
irbis
ireland
irodalmi
irodalom
irodalomtortenet
is
isaac
isbn
iskola
island
islands
iso
issn
issue
issues
issuu
ist
istat
istoriya
istva
it
italia
italy
item
its
itu
iucn
iucnredlist
iulius
iupac
ius
iv
iva
ivan
ivana
ivo
ivot
ivotopis
ivy
ix
iz
j
ja
jahresergebnisse
jak
jako
jamaica
james
jan
jana
janc
janda
janet
janev
janko
janua
januar
january
japan
jaromi
jaroslav
jaroslava
jarosław
jasielski
jazyk
jazyka
jd
je
jean
jednota
jeho
jej
jeji
jersey
jerzy
jesu
jewish
jewishgen
jews
jezik
jfalu
ji
jimmy
jin
jiny
jir
jirsa
jo
johann
john
johnson
jon
jonathan
jones
jose
josef
josefa
joselewicza
joseph
joshua
josip
journal
journalists
journals
jozef
jp
jpg
jpl
jr
jsem
jsp
jsza
ju
juan
judet
jul
julia
julius
july
jun
june
jur
juraj
jure
jus
justice
k
ka
kalenda
kalendar
kansas
kapitola
kar
kara
karabakh
karel
karl
karlova
karpat
karpatalja
karpatart
karpatnews
karpatskej
karpatsky
karpaty
karte
karvina
kassai
kat
katalog
kataster
katedra
katolikus
kazakhstan
kdo
ke
keating
kehilalinks
kelly
kennedy
kentucky
kenyeres
kg
kgb
ki
kiada
kiado
kiadvany
kiadvanyok
kids
kierunkiem
kiev
king
kingdom
kingston
kira
kiss
kla
kladem
kladovy
kle
klet
klub
km
kniha
knjiga
know
known
ko
koch
kol
kola
kolektiv
kolstvo
koma
komenske
komunisticka
kon
kora
korean
korma
korona
korrespondent
kos
kosovo
kostol
kostoly
kotali
kotrc
kov
kova
kovce
kovi
koviti
kr
kra
krafcik
kraj
kraji
krajna
krajo
kraju
krako
krieg
kriz
krno
kro
krugosvet
kruz
ks
ksc
ksh
kt
ku
kubek
kubis
kultu
kultur
kultura
kultury
kumrovec
kun
kv
kve
kw
ky
kyiv
kyj
kyjov
kz
l
la
labanc
labe
labour
ladislav
lajos
lake
lampe
land
lang
language
languages
lanius
larousse
larus
las
lasker
last
lat
latin
latina
lau
laude
laufmaschine
law
laws
laz
ld
ldrajzi
le
leader
league
learn
led
lee
left
legal
legie
legions
lehota
lei
leipzig
leiratik
lem
lemko
length
lenin
leo
leon
les
lesku
leslie
lesni
lesopol
lestwa
let
lete
letrajzi
letters
leucoptera
level
lewis
lexicon
lexikon
lexikona
lexikonok
lez
li
lib
liber
liberal
liberua
library
libri
liczbach
liddell
lidi
lidova
lidove
lidskou
life
light
lih
lihchp
lincoln
line
linguistics
link
linnaeus
lipie
lis
lisieux
list
litera
literatura
literature
literatury
live
livejournal
lives
living
liwei
lkerung
ller
lma
lme
ln
lna
lne
lni
lnu
lo
local
localita
localities
locus
locustella
log
logos
london
londy
long
lord
los
louis
lova
love
lower
lowest
loxia
lp
lpg
lt
ltd
lu
lubelskie
luc
ludnos
ludnosc
ludowa
ludvi
luka
luscinia
lutz
luxembourg
lwo
ly
lyi
m
ma
macedonia
macura
madame
maeterlinck
mag
magazine
magna
magocsi
magyar
magyara
magyarok
magyarorsza
magyarorszag
magyarsa
mai
mail
main
maior
major
making
mal
mala
malawi
male
mali
maly
man
management
map
mapa
mapping
maps
mar
maramures
marc
march
mare
mari
maria
marie
mark
marka
market
marko
marosi
mars
marta
martin
marx
marxism
marxists
mary
masaryk
masarykovy
massachusetts
master
mater
mathematics
mathrm
mathsf
matrix
matthew
maurice
maurienne
may
mayakovsky
mayflower
maza
mb
mbox
mc
mcnamee
md
me
med
medal
media
medical
medicine
medieval
medzilaborce
megye
megyei
mek
mellyben
member
members
memorial
memoriam
meno
menozzi
mens
menyhe
mergus
merriam
merula
mesta
mesto
metal
metropolitan
mexico
mezina
mezo
mgr
mi
mia
miai
michael
michal
michala
michel
michigan
mick
microsoft
mid
middle
miejscowos
miejscowosci
miesto
mieszkan
migration
miha
miklo
miklossy
miksza
mikula
milan
mile
military
millennium
million
milly
milos
milvus
min
minden
minerva
ministerstvo
ministry
minor
minorplanetcenter
minutus
mir
miroslav
mit
mitchell
mky
ml
mla
mlady
mm
mn
mo
mobile
mobutu
modern
modlitwy
modules
mohr
mokra
mol
molasses
molna
monetary
monitor
monographs
montenegro
morava
more
morgan
morris
moscow
mosmis
most
mota
motacilla
moudrost
moudrosti
movement
movie
ms
msg
mu
muc
muettersproch
mukachevo
mundo
municipii
munka
munt
muraria
mus
muscicapidae
musculus
museum
music
musical
musician
muzeum
mw
my
mykhailo
n
na
nach
nacht
nacionalna
nacl
nad
nagorno
nagy
nagybereznai
najnowsze
nak
nakladatel
nakladatelstvi
nakł
name
names
nar
narodowy
narozeni
nas
nasa
naselja
nation
national
nationality
nations
native
nato
naturae
natural
nature
nauc
naukowe
nbsp
nbuv
nchen
nchhausen
nd
nder
ndige
ndor
ne
neanderthalensis
near
nebraska
necka
need
nehnutelnosti
nek
nekrasov
nelmi
nemzet
nemzetise
nepszamlalas
net
nete
neti
neucha
neue
nevada
new
newphilenc
news
newsid
nez
ngc
ngdpd
ni
nia
nicholas
nick
nie
niedzielskiego
nietzsche
nietzsches
night
nigra
nik
nikifor
nikifora
nikolaj
nio
nitra
niz
nk
nka
nko
nkp
nky
nm
nn
nndb
no
nobel
node
nohospoda
nomenclature
non
norman
north
northern
norway
nos
nost
nosti
nostradamus
not
notable
note
nov
nova
nove
november
novi
novina
novinky
noviny
novy
now
nowe
nowy
nowym
nr
ns
nsf
nska
nske
nsky
nszky
nto
nu
nueva
number
numbers
numenius
numero
nuts
nwarrow
ny
nya
nyai
nyelve
nyes
nyesen
nyi
nymphicus
nyos
nyroca
nyta
nyve
nyvkiado
nyvta
nz
o
oatman
obc
obce
obci
obdobi
obec
obecna
obecny
obituary
objavljenepublikacije
object
oblast
obnovenej
oborove
obrazech
obrazovanie
obszary
obyvatel
obyvatelstva
oc
ocean
och
ochrany
oclc
oct
octave
october
od
odeon
of
office
official
oficia
oficjalny
og
oh
ohio
oil
okolie
okres
okresech
okresu
ol
olaf
old
olive
olomouc
olszan
olympia
om
omberok
omega
on
one
onepage
online
only
ontario
op
openform
opera
operation
opole
opolski
opracowana
or
oras
orava
orel
orest
org
orga
organisation
organization
origin
original
orosz
orsza
os
osobnosti
osudy
oszk
otakar
other
others
ots
otto
ottu
ou
our
out
outlook
ov
ova
ovce
ove
over
overseas
overview
ovskej
ovsky
oxford
p
pa
pac
pacific
page
pages
pai
palearctic
palkovic
pallas
pama
pamiatky
pan
pannonia
papale
papers
paris
park
parliament
parohia
part
partch
partials
party
parus
passer
past
patria
patricia
paul
paulus
pavel
pavol
paz
pbs
pc
pd
pdf
pe
peace
pedagogicke
pelecanus
peninsula
pennsylvania
people
peoples
per
percent
perecsenyi
perennis
permanent
pershij
person
perspective
pesse
pest
peter
petr
petra
petro
pg
ph
phd
phdr
phi
philadelphia
philip
philippines
philosopher
philosophie
philosophy
photo
photolines
photoshop
php
phtml
phylloscopus
physical
physics
pi
piazza
pica
pico
pid
piemonte
pierre
piko
pinus
pisatjeljakh
pisny
pitch
pitchfork
pittsburgh
pko
pl
place
plak
plan
planet
platts
plebs
plis
plovajko
pls
plzen
png
po
poc
poczta
pocztowych
pod
podemszczyzna
podiceps
podkarpackie
podkarpatska
podkarpatske
podkarpatskej
podl
podla
podlaskie
podle
podre
pohlavia
point
pol
pola
polan
poland
polga
polianka
policy
polish
political
politics
politik
politika
polsce
polska
polski
polskiego
polskiej
polsko
pongra
pop
popis
popolazione
popular
populat
population
por
porta
portal
portrait
portugal
pos
post
postal
posteriori
posts
pota
power
powers
powiat
poz
pozemkov
pozsony
pp
pr
pra
prague
praha
prajzi
pravda
praz
praze
pre
precli
pred
premio
pres
present
president
presidents
press
presva
pri
prima
princeps
princeton
principum
print
priori
pripadnost
priroda
prize
pro
procedure
proceedings
production
productions
prof
profile
profiles
program
programme
progreso
project
proletariat
promotion
protected
protektora
province
provisorische
prozahid
pru
prussia
prvni
przczdzłeckiego
przemys
przewodnik
ps
pseudoscience
psza
pt
pta
pte
pttk
pu
pub
public
publication
publications
publique
published
publishers
publishing
pubs
pujmanova
pure
puszta
pwn
px
py
pyrrhula
pzo
q
que
queen
question
questions
quickstats
quotes
r
ra
race
racek
rad
rada
radical
radio
radvan
rady
raho
railroad
railway
railwayz
ramaros
random
raspe
ratio
rava
rayfield
raymond
rayon
rcccl
rcove
rd
rdat
rdsa
re
rea
reader
real
rebo
rec
recensamantromania
record
records
red
redaktora
ref
reference
reflex
regent
regio
region
regional
regionech
regions
register
registre
regnum
regulus
regyha
reich
reid
reina
rejestr
rejzek
rek
relationships
release
religion
religious
rendben
rene
report
reporter
reports
reprint
repu
republic
republican
republika
republike
republiky
res
research
resident
residente
resolution
resource
resources
result
results
retrieved
reuters
rev
review
revised
revision
revoluce
revue
rez
rezultate
rf
rffy
rgy
rgyi
rh
rho
ri
ria
rica
rich
richard
richter
rie
right
rights
rigkeitskategorie
rimavska
ring
rise
rium
river
rk
rka
rke
rl
rmegye
rmezo
rna
rne
rni
rno
rny
ro
robert
roc
roce
rock
rocznik
roczniki
rod
roda
rodari
rodne
rodni
rohoz
rok
rokiv
roku
roly
rom
roma
roman
romani
romania
romanian
romanum
romu
ronald
roosevelt
ros
routledge
royal
rozhlas
rozloha
rozporza
rpa
rpl
rr
rrb
rs
rsasa
rske
rt
rtanu
rte
rti
ru
rubik
rudolf
rue
rueportal
rule
rundesova
rus
rusi
rusin
rusini
rusinica
rusinko
ruska
ruske
ruskeslovo
ruski
russia
russian
rusyn
rusynacademy
rusynlit
rusyns
ruszin
ruszinok
ruszka
rute
rutenika
rutgers
ruthenia
ruthenian
ruthenica
ruthenorum
ruthenum
rutherford
ruz
rva
ry
ryba
ryle
s
sa
sable
sacz
saczu
sad
saint
salinger
salvador
same
samospra
samuel
san
sanockiej
sanok
sanoku
santa
sapiens
satellite
sav
saxicola
say
sb
sbdb
sc
scale
sch
scheme
schmadel
schmidt
scho
school
schools
schronisko
schwa
schwarze
sci
science
sciences
scientific
scientist
scientists
scotia
scotland
scott
scottish
scsm
se
sea
search
searrow
sebestye
sec
second
section
security
sede
see
seine
sek
selected
self
semmelweis
sep
sept
september
serbia
serbs
series
servant
service
services
servicka
settlements
seven
sex
seznam
sforza
shall
sheet
shenzhou
show
showfull
shqipe
shtefan
shtml
si
sianki
sid
sie
sierra
sig
sighet
sign
signed
sil
simc
simple
sin
since
sir
sisters
site
sites
sj
sk
ska
ske
skgeodesy
ski
skich
skie
skiego
sko
skonc
skr
sky
skłodowska
sla
slabika
slanc
slanica
slavi
slavia
slavic
slavica
slo
slov
slova
slovak
slovakia
slovanske
slovenia
slovenska
slovenske
slovenskej
slovensko
slovensku
slovni
slovnik
slovo
slownik
small
sme
smith
smithsonian
smolnik
sna
sne
sni
snina
sntl
so
sobrance
soccerbase
sochr
socia
social
socialismus
society
sok
sol
soli
some
son
song
sophia
sorozatok
sort
soudrz
sound
sounds
source
sources
south
southern
soviet
sp
space
spain
span
spanish
special
species
spinus
spis
spisovatel
spisu
spo
spol
spolec
spoloc
spoluavt
spolupra
sportovni
sprav
springer
sr
sra
srbija
ss
ssd
ssp
ssr
sstr
st
sta
staatsangeho
stabila
stakc
stalin
stan
standard
stanford
stanislav
stanisław
stanley
stanovnis
star
stara
stare
starina
stat
statcan
state
states
station
statista
statistica
statistical
statisticky
statistics
statistik
statistiku
statisztikai
stats
status
statystyczne
statystyczny
stav
ste
steel
stefan
stek
stephen
sterna
sterreich
steven
sti
stille
stloukal
stn
sto
stochowa
stoleti
stopa
stories
story
stowarzyszenie
str
stra
strana
strank
strany
stratigraphy
strix
strnad
struc
structure
stuart
student
studia
studien
studies
studio
studios
studium
study
stuttgart
stvi
stvo
stwowe
su
sub
subcarpathian
sui
sulimierskiego
sum
summa
summary
summer
suny
superior
supraphon
sur
surtsey
survey
sus
sv
sva
sve
svejkmuseum
svidni
svit
svoboda
swadesh
swahili
swan
sweden
swift
swiss
sy
sylvia
sylviidae
synagoga
synagogi
syrovy
syste
system
systema
systems
sz
sza
szabo
sze
szeged
szent
szentek
szentmiklo
szerint
szet
szeti
szettudoma
szineve
szinnyei
szla
szlagowskiego
szlak
szlo
szo
szotara
sztetl
sztojka
szve
szymbark
słowian
słownik
słupsk
t
ta
tab
tabid
table
tables
tadeusz
tags
takach
talja
taljai
tana
tasr
tatisticky
tatry
tauera
taxon
taylor
td
te
teach
technology
tefan
teil
tej
tek
tel
telepu
telepules
tematyczne
teodor
ter
teraz
term
terme
termin
terms
terra
territories
teryt
test
testve
tet
texas
text
th
thagaste
than
that
the
their
theme
theodore
theologie
there
these
theta
thing
third
thirty
this
thomas
thompson
those
thought
thoughtco
through
ti
tia
tichy
tika
till
time
timeline
times
tisicleti
tisza
title
tito
tky
tni
to
today
toe
tom
toma
tomasz
tomu
ton
tone
tones
tonne
tools
top
topic
toronto
tory
torysky
total
totta
tove
tovy
towns
tr
tra
tradice
trans
treaty
trenc
trends
trianon
tringa
trinity
tripod
trochilus
tropic
true
truman
trust
ts
tt
ttingen
tu
tudoma
turdus
turisticka
tv
tva
tvarne
tvo
tvu
two
ty
tygodnik
types
typhus
typis
tyr
tysie
u
ua
ubovn
uc
udalosti
ugkk
ugocsa
uk
ukr
ukra
ukraine
ukrainian
ukrainians
ukrainica
ukrcensus
ukrssr
ul
umberto
ume
umenia
un
und
under
undp
unesco
unficyp
ung
ungarn
ungva
uni
unie
unio
union
unipo
unit
united
units
univ
universal
universelle
universities
university
universum
univerzita
univerzity
uniwersytet
up
upa
uploads
urba
urban
urdu
url
uruguay
urza
urze
us
usa
usd
use
utc
uz
uzhhorod
uzhnu
v
va
vai
val
valas
valea
valla
van
vanellus
varepsilon
vasil
vatican
vaudeville
vbd
vdots
ve
ved
veda
vejka
vel
velka
velky
verlag
veronica
version
ves
vi
via
vicarius
victoria
vid
video
vie
view
vii
viii
viktor
vila
vilmos
vincent
virgin
virginia
virtua
virus
vis
viseului
vita
vko
vladimi
vladimir
vladislav
vlastivedny
vlastni
vni
vo
vojsko
vojtech
vol
volavka
volodymyr
volume
volumes
von
vondra
vorc
voyage
vratislav
vrbas
vrchy
vs
vsegei
vta
vtrachenyj
vu
vue
vy
vybarr
vyd
vyda
vydalo
vydavatel
vys
w
wa
walewskiego
walt
walter
war
warhol
warner
warren
warszawa
was
washington
watch
water
wcm
we
weather
web
webcitation
webnode
website
webster
week
welle
weo
weodata
weorept
west
western
what
when
where
which
whig
white
whitehouse
whitman
who
why
wide
widetilde
wie
wieku
wielka
wien
wiener
wies
wiesbaden
wiki
wikimedia
wikipedia
wikisource
wild
wilhelm
will
william
williams
wilson
windows
winners
wirtualny
wisegeek
wisła
with
without
witness
wny
wohnbevo
wojewo
wojewodztw
wola
wolfgang
woodrow
woods
word
work
working
works
world
wp
wpp
wps
writers
writing
wrocław
wto
www
wydawnictwo
wydawnicza
wyniki
władysław
władysława
x
xhtml
xi
xii
xiii
xiv
xix
xls
xlsx
xlviii
xv
xvi
xvii
xviii
xx
xxi
xxii
xxiii
xxvi
xxvii
xxx
xxxviii
y
yale
yang
ycie
year
years
yerevan
yonne
york
you
young
youtube
yugoslavia
z
za
zachary
zadok
zagreb
zahrada
zak
zakarpat
zakarpatska
zakarpatskaja
zakarpatti
zakarpattya
zakon
zatok
zavod
zb
zdravi
zdruz
ze
zealand
zeit
zeme
zemi
zemple
zempli
zeppelin
zet
zeum
zi
ziemi
ziemia
ziensia
zigazgata
zikmund
zko
zlata
zlaty
zli
zmi
znam
zo
zoe
zolta
zone
zoznam
zponti
zse
zsef
zsolt
zta
zu
zum
zup
zur
zva
zvi
zygm
zyka
zyko
{
|
}
~
¡
§
©
«
­
°
±
²
³
´
µ
·
¹
º
»
½
×
ß
æ
ð
ø
þ
ł
łemko
łemkowie
łemkowsko
ŋ
œ
ƿ
ȝ
ə
ɤ
ɨ
ɪ
ɯ
ʌ
ʒ
ʰ
ʲ
ʻ
ˈ
ˌ
ː
̀
́
̂
̃
̄
̆
̇
̈
̊
̋
̌
̏
̓
̔
̣
̦
̧
̨
̩
̯
͂
ͅ
͡
α
αι
β
γ
γε
γος
γρα
δ
δο
ε
ει
ευ
ζ
η
θ
ι
κα
και
κυ
λ
λαγος
λο
μ
μα
μος
μω
ν
νος
ο
ον
ος
ου
π
πα
παρα
πε
πι
πο
ρ
ς
σις
τη
της
το
τυ
υ
φ
φυ
χ
ω
а
абауи
або
абов
абонента
аборт
абрагам
абрамович
абрис
абсенции
абсенция
абсолвенты
абсолвентів
абсолвовав
абсолвовала
абсолутна
абсолутно
абсолутнои
абсолутну
абстрактна
абстрактны
абстрактныи
абу
абхазия
абы
ав
авадь
авантгардныи
авантурных
авать
август
августа
августин
августина
августином
августинянох
августѣ
авдіо
аве
авиаконштруктер
авиации
авитаминоза
авогадра
авогадрова
австралии
австралия
австралія
австраліі
австриев
австрии
австрию
австрия
австро
австромадярскыи
австріи
австрія
австріі
авт
авта
автах
авто
автобиографии
автобиография
автобус
автобуса
автобусы
автобіографія
автодорог
автодорога
автом
автоматично
автоматичного
автомобиловыи
автономии
автономию
автономия
автономна
автономная
автономнов
автономного
автономнои
автономном
автономну
автономныи
автономным
автономіи
автономію
автономія
автономіі
автор
автора
авторами
авторитетох
авториту
авторка
авторкы
автором
авторох
авторства
авторство
автору
авторы
авторів
авшак
авґуст
авґуста
авґустин
авґусті
агамемнон
агент
агентами
агентом
агенции
агенция
агитации
агломерации
агломерация
агнета
аграрна
аграрнои
аграрном
аграрныи
ад
адалберт
адам
адама
адамс
адамчик
адаптации
адвокат
адвоката
аденин
админ
административна
административно
административного
административнои
административну
административны
административныи
административным
административных
администратор
администратора
администратором
администрациев
администрации
администрацию
администрация
адміністративна
адміністративно
адміністративнои
адміністратор
адміністратівне
адміністратівно
адміністратівныи
адміністратівным
адміністрацію
адміністрація
адміністраціі
адолф
адолфа
адрес
адъектив
ае
аероплан
аероплана
аеропорт
аес
аж
аз
азан
азбука
азбукы
азер
азербаи
азиев
азии
азия
азоры
азот
азс
азтекох
азтеци
азіе
азіи
азію
азія
азіі
аи
ак
акад
академиев
академии
академик
академика
академическаго
академическии
академична
академичне
академичного
академичну
академичныи
академичных
академию
академия
академічна
академічныи
академія
академіі
акбар
акватории
акватория
акопян
акростих
акры
акт
акта
актами
актер
актерка
актером
актерох
активиста
активистка
активистом
активисты
активна
активно
активнов
активного
активности
активность
активну
активны
активныи
активным
активных
активнѣи
активісты
актом
актор
акторка
актуална
актуално
актуалнои
актуалны
акты
актівна
актівно
актівныи
актівіста
актівіта
актівіты
акурат
акцелерація
акцент
акции
акция
акциях
акція
акціі
ал
аламбер
аламогордо
алб
албаниев
албания
албанцьох
албанцѣ
албанія
алберт
алберта
албрехт
албум
але
алекса
александер
александр
александра
александрии
александрия
александров
александрович
александром
александру
алексеев
алексеевич
алексеи
алексея
алексии
алексѣи
алжир
алжір
али
алкалоиды
алканы
алкогол
алкоголизм
алкоголу
аллаг
аллага
аллагу
аллан
алманах
алманаха
алманахах
алманаху
алматы
алмашии
алмашіи
алп
алпах
алпиниста
алпскыи
алпы
алпіи
алтаи
алфавитах
алфавіт
алфавітах
алфавіту
алфавіты
алфавіті
алфред
альманах
аляска
алє
алґебра
алґорітм
аматерскыи
амбасады
америка
америки
америков
америку
америкы
америцка
америцке
америцков
америцкого
америцкои
америцку
америцкы
америцкыи
америцкым
америцкых
америцька
америцького
америцькы
америцькыи
америцькых
америці
америцѣ
америчан
америчанами
америчане
аминь
амнестию
ан
анализ
анализа
анализу
анализуе
анализы
аналогичны
аналізы
анатолии
анатоліи
анатомія
анг
ангажовав
ангел
англ
англии
англицка
англицкого
англицкои
англицком
англицкы
англицкыи
англицкым
англицкых
англичан
англичане
англия
англо
англоязычном
англоязычны
англоязычныи
англоязычных
англіи
анд
андерсен
андерсена
анджелес
андраш
андре
андреа
андреев
андреевич
андреевского
андреи
андрея
андромеды
андріе
андріи
андрія
андрѣи
андрѣя
анекдота
анексии
анексия
ани
анимации
анимация
анион
анкеты
анкетѣ
анн
анна
аннов
анны
анод
анода
анонимно
анонимус
анонимъ
анри
анрур
анрі
ансамбель
ансамбл
ансамбла
ансамблю
анская
ант
антал
антанта
антанты
антарктіды
анти
антиген
антигенох
антигитлеровскои
антиохии
антисептикы
антисептичных
антитѣла
антична
античнои
античноі
античных
антологии
антологию
антология
антологиях
антологія
антолоґия
антон
антона
антони
антонии
антонин
антонина
антония
антоніи
антонін
антоніо
антонія
антрополог
антрополоґія
антрополоґіі
анучин
анця
анці
аніматор
анґ
анґл
анґліцька
анґліцько
анґліцького
анґліцькы
анґліцькыи
анґліцькіи
анґлічті
анґлія
анґліі
анґола
апарат
апарата
апаратох
апаратуры
апелатива
апликованы
апод
аполлинер
аполлинера
аполлон
апостол
апостола
апостолом
апостолского
апостолскои
апостолскыи
апостроф
аппарат
апреля
апріл
апріль
апрілю
апріля
апрѣль
апрѣлю
апрѣля
ар
араб
арабии
арабска
арабского
арабскы
арабскыи
арабскым
арабскых
арабы
арабія
арамеи
арас
арбитража
арбитражи
арбітражі
арва
аргентина
арджаво
ардял
ардяла
ареал
ареалу
ареалі
арешт
арешта
арештантох
арештовали
арештованы
арештованыи
арештом
арешту
арештѣ
арианство
арии
аристов
аристократичнои
аристокрации
аристотел
арк
аркады
арктичныи
арктіды
арку
арм
армада
армадного
армадныи
армадов
армады
армадѣ
армении
армения
арменскои
армены
арменія
армии
армия
армстронг
арміі
арсеніи
арт
артемова
артерии
артефакт
артефакты
артиста
артистка
артур
арутюнов
архангела
архангельскии
археолог
археологии
археологичны
археологичных
археология
археологы
археолоґічных
археолоґія
археолоґіі
архив
архива
архивна
архивоване
архивѣ
архиепископ
архиепископа
архиепископом
архиереи
архии
архимандрит
архипелаг
архипелага
архипелагу
архипенко
архитектор
архитектора
архитектура
архитектурны
архитектурныи
архитектурным
архитектурных
архитектуру
архитектуры
архитектурѣ
архия
архітектор
архітектура
архітектуры
арістотель
арґентина
арґентиньскыи
арґон
ас
асамблеи
асеи
асимиловали
асистент
асистента
асклепии
асклепия
асоциации
асоциация
асоцияция
асоціаціі
аспект
аспекту
аспекты
аспектѣ
аст
астеносферы
астероид
астероидох
астероід
астрель
астролог
астрометрия
астронавт
астроном
астрономии
астрономичного
астрономичнои
астрономичны
астрономичныи
астрономию
астрономия
астрономом
астрономы
астрономічнии
астрономіі
астрофизичнои
астряб
асфалтка
асі
асімілація
асімілаціі
асірія
ат
атак
атакує
атакы
ататюрк
атеисты
атен
атенах
атентат
атены
атилла
атланта
атлантида
атлантичного
атлантичном
атлантичныи
атлантичным
атлантіку
атлантічного
атлантічныи
атлантічным
атлас
атмосфера
атмосферичны
атмосферу
атмосферы
атмосферѣ
атом
атома
атомами
атомиздат
атомова
атомове
атомовов
атомового
атомову
атомовы
атомовых
атомох
атому
атомы
атомів
атп
атракции
атракция
африка
африки
африков
африку
африкы
африцького
африці
африцѣ
афроазии
ах
ахеи
ахил
ахила
ачеи
ачии
ашпирантурѣ
аэропорт
аяган
аірес
аґресія
б
ба
баба
бабинець
бабка
бабота
бабінець
бабінце
бавария
баваріі
бависка
бавовна
багалеи
баганич
багато
бадане
баданя
бадать
баден
бае
бажана
база
базен
базена
базену
базенѣ
базилика
базиликы
базилович
базиловича
базов
базовы
базовым
базу
базы
базі
базѣ
баи
бак
бака
бакалавра
бакаларя
баклан
баков
баком
бакош
бактерии
бактериолог
баку
балад
балады
балатон
балецкыи
балканах
балканского
балканском
балканскых
баллирони
балог
балога
балтицкого
балтіцьке
балтіцького
балудяньскыи
бананы
банат
бандера
банк
банка
банки
банкы
бановци
банска
банскобістріцькім
банскои
банту
баня
банях
бараболя
бараташвили
барбадос
барбареум
барбареума
барбово
барбуда
бард
бардее
бардѣи
барже
барз
барзже
баровти
барока
бароко
барокова
бароковыи
барон
барона
барсов
бартоломе
бартон
барцафалви
барцелона
барь
бас
басараб
басеи
басинскии
баталион
батерии
батист
батьово
баффало
бах
бахреи
бахчисараи
бач
бача
бачванско
бачванскых
бачинскыи
бачинськии
бачка
бачкеи
бачки
бачко
бачкы
бачіньского
бачіньскыи
башарин
баюс
баґдад
бгутан
бе
бевка
без
безопасности
безпека
безпеку
безпекы
безпечности
безпечность
безроботя
безуспѣшно
безхырбетны
безхырбетныма
безхырбетных
беи
бекасовых
бела
белгии
белгия
белеград
белень
белинского
белл
белянскы
беліз
белґія
белґіі
бен
бендиго
бенедикт
бенеш
бенеша
бенятина
бенґалскыи
београд
београда
београдскои
београду
београдѣ
берберох
берберскы
берберы
бере
берег
берега
берегами
берегах
береги
берегова
берегово
береговои
береговского
береговском
береговскым
береговѣ
берегом
берегу
берегы
берегів
берегівка
берегівскім
берегівськии
бережничка
березникы
березныи
березня
березі
березѣ
бери
беркут
берлин
берлина
берлинскои
берлинѣ
берлін
берліоз
берн
берна
бернар
бернерс
бернолак
бернолаковчины
бернѣ
берроуз
беруть
берґман
бескид
бескида
бескидами
бескидах
бескидом
бескидох
бескидска
бескиды
беспекы
бестселера
бестселером
бесі
бесіда
бесѣда
бесѣдно
бесѣдов
бесѣду
бесѣды
бесѣдѣ
бечеи
бещады
би
библии
библиограф
библиография
библиотек
библиотека
библиотекарь
библиотеках
библиотеку
библиотекы
библиотецѣ
библия
библіотека
бизнес
бизнис
бизниса
бизнисмен
бизовно
бизонох
билл
бильня
биннз
биографии
биографическии
биография
биолог
биологии
биологическии
биологична
биологичного
биологичнои
биологичных
биология
биосферныи
биохемик
бирмованя
бирчак
бирчака
бискуп
бисмарк
битва
битву
битвы
битвѣ
бити
битка
биткы
битцѣ
бицикель
бицикльовы
бицикльох
бицикля
бициклѣ
бицко
бичків
бл
благодать
благочестное
блажов
бланка
ближе
близка
близко
близкого
близком
близкости
близкость
близкы
близкыи
близкым
близкых
близша
близше
близшого
близшы
близшыи
близшых
близь
близько
блика
блищачо
блищачіи
блок
блока
блоку
блуз
блюдо
блющова
блят
бліка
бмэ
бо
бобота
бобульского
бобульскыи
бобулі
бовари
бог
бога
богата
богате
богато
богатов
богатого
богатои
богатства
богатство
богатством
богату
богатше
богаты
богатыи
богатым
богатых
богдан
богдана
богемии
богемия
богом
богородице
богородиці
богородицѣ
богословие
богословия
богословска
богословскои
богословску
богословскы
богослужбу
богослужбы
богох
богу
богыня
богынѣ
бодрог
бодрогом
бодруджал
бое
божа
боже
божена
божены
божества
божество
божньемцова
божого
божои
божу
божыи
бои
бока
боками
боках
бокорох
бокох
боку
бокшаи
бокшая
бокы
боків
болгарии
болгария
болгарскыи
болгары
болгарія
болгаріі
более
болници
болницю
болниця
болницѣ
болоньи
болонья
болота
болшевикох
болшевици
болшевицкои
боль
большая
большои
болівар
болівія
болґаріі
бомба
бомбардованя
бомбу
бомбы
бонапарт
бонкало
бор
борецкыи
боржава
боржавин
боржавы
борис
борово
бородатыи
бороду
боронить
борхес
боршод
борщ
борьба
борьбе
боріс
боснии
босния
боснія
боспор
бостон
бостонска
бостонѣ
ботаник
ботаникы
ботанікы
боці
боцѣ
бочков
бочна
бочны
бочных
бою
боя
боях
боі
брав
бравн
бравна
бравнова
брадач
брадача
браззавіль
бразилии
бразилия
бразільскыи
бразілія
бразіліі
браи
брала
брали
брана
бранкарь
браныи
брат
брата
брати
братислава
братиславы
братиславѣ
братови
братом
братох
братскых
братства
братство
браты
братя
браті
братів
братіслава
брацлав
бращаи
брежаны
брежнев
брежнева
брежневова
брезно
бреи
брест
бретон
бригада
британиев
британии
британия
британска
британского
британскои
британску
британскыи
британскых
брно
брнѣ
бровди
бровді
брод
бродии
бродия
броді
бродіи
бродѣ
брожуры
броз
брок
брокгауз
брокгауза
бронзова
бронзовои
бронзовы
бронштеи
брох
брудно
брунеи
брюмера
брюс
брід
брісі
брітаньска
брітаньскыи
брітаньскых
брітанія
брітаніі
бріх
бріха
бріхом
бріху
бсэ
бу
бубеник
бубны
був
буг
бугера
бугеры
буда
будапешт
будапешта
будапештом
будапештскои
будапештску
будапешту
будапешті
будапештѣ
будгизм
будгізм
буде
будеи
будеме
будет
буджет
буджета
будин
будинку
будинкы
будинок
будински
будинѣ
будитель
будителя
будов
будова
будованя
будовати
будовах
будовов
будову
будовы
будовѣ
буду
будут
будуть
будучности
будучность
будучов
будучого
будучои
будучы
будучыи
будучым
будучых
будучі
будують
будує
будь
будьках
буенос
бузе
бузулук
буи
бук
бука
букв
буква
буквами
букварь
букваря
буквов
букву
буквы
буковець
буковина
буковину
буковины
буковскы
буковскых
буковы
буковых
бул
була
булг
булгары
булгарьскыи
булгарія
булгаріі
були
буллов
було
булш
булша
булше
булшина
булшов
булшоє
булшыи
бунка
бунках
бункове
бункы
бунок
бунт
бунцѣ
бура
буре
буржоазия
буржоазного
буржуазного
буркіна
буро
буров
бурои
бурса
бурсы
буру
бурунді
буры
бурыи
бурыма
бурых
буря
бути
буткевич
бутор
бухара
бучацькыи
бучач
бучко
буштино
бы
быв
бывав
бывали
бываня
бывать
бывають
бывша
бывшого
бывшои
бывшом
бывшы
бывшыи
бывшых
быдел
быдла
бык
был
была
были
было
быстра
быстрици
быстрицѣ
быстрого
быстрыи
быти
бытя
бычков
бычковѣ
бюлетень
бюлетеня
бюро
бюст
бяла
бібліографія
бібліотека
бібліі
бівше
бівшым
бігом
біжці
біл
біла
білавыи
біле
білецькии
білецького
біло
білов
білого
білои
білоруськыи
білорусія
білорусіі
білоус
білу
білы
білыи
білым
білыма
білых
більш
більше
біля
білі
біографическіи
біолоґічна
біолоґічнои
біолоґічных
біолоґія
біолоґіі
біоґрафіі
бісмарк
бістріца
бісі
біціґель
бѣганя
бѣгне
бѣжнои
бѣл
бѣла
бѣлак
бѣле
бѣлках
бѣлковин
бѣлковины
бѣлкы
бѣлого
бѣлои
бѣлоруси
бѣлорусь
бѣлу
бѣлы
бѣлыи
бѣлых
в
ва
вабить
ваблі
вав
ваг
вага
вагов
вагом
вагоны
вагу
вагы
вадим
вадь
важать
важна
важне
важнов
важности
важность
важну
важны
важныи
важным
важныма
важных
важні
важнѣи
важыть
вазалом
ваи
вакаров
вакарова
вакации
вакуу
вакцинация
вала
валал
валала
валалу
валентин
валентина
валентность
валерии
валеріи
вали
валтер
валута
валушныи
вальковскыи
вам
ван
вана
вандрованя
вандровкы
вандровник
вандровны
вандровныи
вандровок
ване
ванкы
вано
ванчура
ваны
ваныи
ваных
ваню
ваня
вапно
вапняник
варварство
варвары
варгол
варгола
вариант
варианта
вариантах
вариантом
вариантох
варианты
варити
варованя
варош
вароша
вароши
варошска
варошского
варошскыи
вароші
варощан
варощане
вартости
вартость
варунком
варшава
варшавского
варшавскыи
варшавы
варшавѣ
вары
варіант
варіанта
варіантом
варіанты
вас
василианского
василии
василия
василь
васильева
васильевич
васильович
василю
василя
василіан
василіи
василія
ват
вати
ватикан
ватикана
ватра
ватрѣ
ватт
вать
ватікан
вацлав
вацлава
вач
вашингтон
вашингтона
вашінґтон
вають
вв
введение
введеныи
ввела
ввп
вгодне
вгодны
вгодныи
вдну
вдяка
вдякы
ве
веб
вебер
вебова
вебсторінка
вебу
вебі
вегеш
вегеша
веде
ведена
веденои
ведены
веденыи
веденьом
веденя
веджіне
веджѣньом
веджѣня
ведуть
ведуча
ведучов
ведучого
ведучои
ведучу
ведучы
ведучыи
ведучым
ведучыма
ведучых
ведучіи
ведучіх
вежа
вежы
везирь
веи
века
веков
векша
векше
векшина
векшинов
векшину
векшины
векшинѣ
векшов
векшого
векшои
векшом
векшу
векшы
векшыи
векшым
векшыма
векшына
векшынов
векшыну
векшыны
векшыні
векшых
векшіи
вела
веласкес
веле
вели
велика
великанів
великдень
велике
великии
великобритании
великов
великого
великодню
великодня
великое
великои
великом
великости
великость
великоі
велику
великы
великыи
великым
великыма
великых
великі
великіи
великім
велитель
велительом
велителя
величезну
величезны
величезныи
величин
величина
величину
величины
величіна
величіны
велми
вело
велоципед
велоципеда
вельгерцогства
велька
велькыи
вельо
вельох
венгрии
вене
венезуела
венезуельскыи
венелин
венелина
венера
венеры
венеции
венеция
венецка
верб
вербас
вербасѣ
вересня
верзии
верзию
верзия
верзію
верзія
верзіі
верліх
верне
вернете
вернув
вернувши
вернула
вернули
вернуло
вернути
вероніка
версаи
версаю
версия
верствы
версти
версія
вертали
вертати
вертать
вертають
вертиголовка
верх
верха
верхами
верхах
верхне
верхнины
верхныи
верхнього
верхньои
верхня
верхні
верхов
верховина
верховинска
верховинского
верховинскыи
верховины
верховині
верховинѣ
верховна
верховнои
верховноі
верхом
верхомля
верхох
верхратскыи
верхратськии
верху
верхы
верш
верша
вершами
верши
вершину
вершинѣ
вершку
вершок
вершы
вершѣ
веры
верьх
верьхне
верьхню
верьхня
верьхні
верьху
веряця
вес
весела
весміру
весна
весприм
вест
вести
вестник
вестфалскыи
весь
вета
ветеран
ветовати
веце
вецеи
вецераз
вецеро
вецерох
вецеры
вечур
вещества
веґетаціов
веґетаціі
вже
вжывав
взаимного
взаємно
взгляд
взглядом
вздовж
взимѣ
взник
взникають
взникла
взникли
взникло
взниклых
взникнув
взнику
взор
взора
взоркы
взором
взяв
взяла
взяли
взяло
взята
взяти
взяты
взятыи
ви
вив
виговцьох
виговцѣ
вигорлат
вид
вида
видав
видаванє
видавництво
видавничии
видам
видами
видання
видатні
видео
виджѣня
види
видиме
видимого
видимыи
видительно
видить
видко
видно
видом
видох
видра
виду
видув
виды
видять
видячи
виді
видів
видѣ
видѣв
видѣли
видѣло
видѣти
византии
византска
византского
византскои
византскыи
визиготох
визиготы
визита
визначні
викарь
викарьом
викаря
википедии
википедия
виктор
виктории
виктория
вилгелм
вилгелма
вилиця
виллиам
вилсон
вилсона
вин
вина
винарства
винарство
винер
винковци
винницѣ
вино
виноградово
виноградовском
виноградовскыи
виноградівськии
вину
винчи
вины
виолончелиста
виолончело
вип
випуск
вирджинии
вирджиния
вирусох
вирусы
висаник
висконти
висла
вислы
висот
висота
висоти
витамин
витаминох
витамины
витман
витмана
витязь
витязька
вицегубернатор
вицегубернатора
вициналны
вич
вища
вка
вказують
вклад
включать
включаючи
включены
включив
включно
вкп
влад
влада
влади
владика
владимир
владимира
владимирович
владиміръ
владислав
владислава
владли
владнутя
владнучои
владны
владных
владов
владу
влады
владыка
владыкы
владі
владѣ
власти
властивості
властна
властне
властник
властника
властниками
властником
властникы
властництво
властнов
властного
властнои
властном
властностеи
властности
властность
властностьов
властностями
властну
властны
властныи
властным
властныма
властных
властні
власть
вливать
вливають
влксм
влѣтѣ
вмер
вна
внаслі
вників
вниманя
внимати
вно
вночи
внук
внуторна
внуторне
внуторного
внуторнои
внуторну
внуторны
внуторныи
внуторныма
внуторных
внутра
внутри
внутроземнии
внутроземныи
внутроземных
внутрі
во
вов
вовк
вовна
вовнова
вовновов
вовны
вовні
вовчыи
вогкы
вогкых
вого
вод
вода
водами
водах
води
водина
водини
водинскои
водинскыи
водинскыма
водинскых
водины
водині
водинѣ
водна
водне
водного
воднои
водну
водны
водныи
водныма
водных
водов
водовод
вододѣл
вододѣла
водоем
водозастачаня
водозбор
водозбора
водозбору
водои
водопад
воду
воды
водянских
водянскыма
водянскых
водяны
водяныи
водяных
воді
водѣ
воевав
воевали
воевати
воеводского
воеводств
воеводства
воеводство
воеводством
воеводствѣ
военна
военно
военнов
военного
военное
военнои
военну
военны
военныи
военным
военныма
военных
военныя
военска
военско
военсков
военского
военскои
военску
военскы
военскыи
военскым
военскых
вождь
вождя
воза
воздусі
воздух
воздуха
воздухом
воздуху
воздушны
воздушныи
воздушным
воздушных
воззъеднаня
возможность
вознесіня
вознесѣня
возроджіня
вои
вокално
вокруг
волга
волевыявлѣня
воли
волиньска
волиньскои
волиньскіи
волков
волн
воловецком
воловецкыи
воловець
воловецькии
волового
воловое
володимир
володимира
володимір
волокна
волокон
волосы
волося
волохы
волошин
волошина
волт
волта
волыни
волынь
вольбах
вольбы
вольне
вольно
вольного
вольнои
вольном
вольну
вольны
вольныи
вольных
вольніи
вольнім
вольов
волю
воля
волі
волѣ
вом
вон
вона
вондрачкова
вони
вонкашна
вонкашне
вонкашного
вонкашнои
вонкашном
вонкашну
вонкашны
вонкашныи
вонкашных
вонкашні
вообще
вопрос
вопроса
вопросами
вопросах
вопросов
вопросу
вопросы
воробель
воробинныи
воробле
воробля
воробятник
ворон
ворона
воронов
вороновых
воронок
вороны
воронів
ворот
ворота
воротами
восени
воскресі
воскресѣня
восленскии
воспитаня
воспитані
воспитатель
воспоминании
восток
востока
востоку
востоці
восточна
восточно
восточного
восточнои
восточном
восточну
восточнуи
восточны
восточныи
восточным
восточных
восьмеро
восьмох
восьмыи
восямрочна
восямрочну
вошла
вошли
вошло
вошов
вояк
вояка
воякам
вояками
воякох
воякы
вояци
воєводство
воєньска
воєньскы
воєньскыи
впадом
впадѣ
вперед
вплив
впливні
впливом
впливу
вплыв
вплыва
вплывать
вплывають
вплывныи
вплывом
вплыву
вплывы
вр
врабель
врабеля
враховано
врбас
времени
время
вроцлав
вру
все
всегеи
вселена
вселенои
всемирная
всероссии
всесоюзныи
всеукраи
всеукраинскыи
всеукраі
вска
вскои
вскыи
вскых
вскім
всокочіня
вспаком
вства
вство
встрѣчи
вступ
вступати
вступать
вступив
вступила
вступили
вступило
вступити
вступне
вступнов
вступны
вступныи
вступом
вступу
вступѣ
вська
вськии
всягды
всяка
всякого
всякои
всяку
всякы
всякыи
всякых
всі
всѣ
всѣм
всѣх
вт
втогды
втоком
вторник
второе
второи
втрачении
ву
вуглехіміі
вудро
вудс
вука
вуковар
вуковара
вул
вулкан
вулкана
вулканичнои
вулканичных
вулканы
вучково
вход
входив
входила
входили
входило
входит
входить
входять
входѣ
вхожденія
вц
вце
вці
вчены
вченыи
вченых
вшак
вшакже
вшелияк
вшелияко
вшелиякы
вшелиякых
вшитка
вшитко
вшиткого
вшиткои
вшитком
вшиткому
вшитку
вшиткы
вшиткым
вшиткыма
вшиткых
вшиткі
вшиток
вшытко
вшыткого
вшыткопожераючіи
вшытку
вшыткы
вшыткым
вшыткыма
вшыткых
въ
въедно
вы
выбер
выберали
выберанках
выберанкы
выберанок
выбераныи
выберати
выберать
выберають
выбор
выбора
выборы
выбрав
выбрала
выбрали
выбрана
выбраного
выбраны
выбраныи
выбраных
выбраня
выбрати
выбудовав
выбудовали
выбудована
выбудованыи
выбудовати
выбух
выбухнув
выбуховыи
выбухы
вывезли
вывержѣня
вывести
вывин
вывинув
вывинула
вывинули
вывинуло
вывинута
вывинути
вывинуты
вывинутыи
вывое
вывои
выволала
выволало
выволати
выволать
выволуе
вывою
вывоя
выгваряня
выглашена
выгледовань
выгледованя
выгледованями
выгледователь
выгледовач
выгляд
выглядавать
выгнаны
выгнаныи
выгнаню
выгнаня
выгнати
выгні
выголосив
выголосила
выголосили
выголошена
выголошены
выголошеныи
выголошуе
выголошѣню
выголошѣня
выгорлат
выграв
выграла
выграли
выгынули
выд
выдав
выдавав
выдавала
выдавали
выдавало
выдаваня
выдаватель
выдавательства
выдавательство
выдавательствѣ
выдавателя
выдавати
выдавать
выдала
выдали
выдана
выданы
выданыи
выданых
выдань
выданьом
выданю
выданя
выданями
выданях
выдати
выдаткы
выдрізнять
выді
выдѣляють
выжадуе
выжадує
выживу
выжывны
вызвав
выздоровѣв
вызерать
вызерають
вызнав
вызнавать
вызнала
вызнали
вызнам
вызнаменана
вызнаменаны
вызнаменаныи
вызнаменаня
вызнамна
вызнамного
вызнамну
вызнамны
вызнамныи
вызнамным
вызнамныма
вызнамных
вызнамнѣи
вызнамом
вызнаму
вызнамы
вызнамѣ
вызнана
вызнаны
вызнаныи
вызнаню
вызнаня
вызнати
вызначать
вызначають
вызначена
вызначены
вызначив
вызначити
вызначна
вызначне
вызначно
вызначного
вызначну
вызначны
вызначныи
вызначным
вызначныма
вызначных
вызначні
вызначніи
вызначують
вызначує
вызначѣня
выи
выимков
выказав
выказали
выказаныи
выказуе
выклав
выклад
выкладач
выкладовыи
выкладу
выкладѣ
выкликати
выкон
выконаня
выконного
выконныи
выконованя
выконовати
выконом
выконуе
выконують
выконує
выкреслі
вылучены
вылученыи
вылучно
вылягнутю
вылі
вылѣпшѣня
вым
выменовав
вымушено
вымѣнена
вымѣнов
вынаи
вынаход
вынаходник
вынаходника
вынаходы
выник
выникать
выникають
выникаючы
выникаючыи
выникла
выникли
выникло
вынику
выносить
вынятково
вынятковым
вынятковых
вынятком
выокремлять
вып
выпады
выплывать
выправ
выправа
выправив
выправы
выправѣ
выпрацовав
выпрацованя
выпрацовати
выпробованя
выпуск
выпустив
выпустили
выпущеныи
выраблять
вырава
выражаня
выражать
выражають
выражіня
выраз
выразна
выразне
выразно
выразнов
выразну
выразны
выразныи
выразным
выразныма
выразні
выразнѣи
выразу
выразы
вырахованя
выраховати
выроба
выробити
выробкы
выробляли
выробляти
выробляють
выробник
выробны
выробных
выробов
выробу
выробы
выробѣ
выроків
вырос
выросла
выросло
выростав
выростло
вырі
высвятили
высвячена
высвячену
высвяченыи
высвячѣня
высвѣдчѣня
выселене
высланыи
высланя
выслободжене
выслободжены
выслободженыи
выслободжѣню
выслободжѣня
выслободив
выслободила
выслободити
высловив
высловности
высловность
выслужбѣ
выслі
высмѣвав
высмѣшна
высока
высоке
высоко
высоков
высокого
высокои
высоком
высокости
высокошколску
высокошколскы
высокошколскыи
высокошкольскыи
высоку
высокы
высокыи
высокым
высокыма
высокых
высокіи
высот
высота
высоту
высоты
высоті
высочина
выстава
выставба
выставбу
выставбы
выставбѣ
выставив
выставили
выставка
выставках
выставку
выставкы
выставлена
выставлены
выставленыи
выставок
выставцѣ
выступ
выступав
выступала
выступали
выступати
выступать
выступив
выступила
выступили
выступлѣня
выступовав
выступовала
выступовали
выступовати
выступуе
выступує
выступы
высша
высше
высшов
высшого
высшои
высшом
высшу
высшы
высшыи
высшым
высшыма
высшых
высшіи
высыланя
вытварне
вытварництва
вытварного
вытварном
вытварных
вытвор
вытвореныи
вытворив
вытворила
вытворили
вытворити
вытворюють
вытворі
вытворѣню
вытворѣня
выток
вытока
вытяг
выті
выужити
выужывать
выука
выуковыи
выуковым
выуку
выукы
выуцѣ
выучив
выучити
выучовав
выучованя
выучовати
выучуе
выучують
вых
выход
выхода
выходив
выходила
выходили
выходити
выходить
выходна
выходне
выходно
выходного
выходнои
выходном
выходну
выходны
выходныи
выходных
выходні
выходніи
выходнім
выходом
выходославяньска
выходу
выходять
выходячи
выході
выходѣ
выхосновав
выхосновавши
выхоснованы
выхоснованя
выхосновати
выхосновують
вычитано
вышавська
выше
вышка
вышках
вышков
вышку
вышкы
вышла
вышли
вышло
вышне
вышныи
вышных
вышня
вышні
вышов
выштудовав
вышці
вышцѣ
выявив
выявили
выявити
выявленыи
выі
выѣхав
вюрковых
вюрок
вяже
вязаны
вязб
вязба
вязбы
вяземцева
вязь
вєдно
вєтнам
ві
вів
вівалді
вівці
від
відень
відео
відновлення
відню
віднянськии
відні
відомии
відомості
відп
відра
відсіч
віді
візантьского
віи
вік
віка
віком
віктор
віку
вікі
віківиды
вікіджерела
вікімедія
вікінгів
вікіпедія
вікіпедіі
вікісклад
вілгелм
вім
він
вінсент
вінстон
вінчую
вінчі
віра
вірників
вірованя
віртуоз
віру
віры
вісем
вісить
вісла
вісник
вісті
віторок
вітце
віці
віч
вічности
вѣ
вѣденскои
вѣдень
вѣденьска
вѣденьского
вѣденьскои
вѣдню
вѣдня
вѣдомости
вѣк
вѣка
вѣках
вѣком
вѣку
вѣкы
вѣра
вѣрник
вѣрника
вѣрникам
вѣрниками
вѣрникох
вѣрникы
вѣрныи
вѣрным
вѣрных
вѣров
вѣровызнаня
вѣросповѣданя
вѣру
вѣрують
вѣры
вѣрѣ
вѣстник
вѣстника
вѣстникъ
вѣтром
вѣчного
г
га
габа
габда
габор
габсбург
габсбургам
габсбургох
габсбургска
габсбургскои
габсбургы
гаваи
гаварии
гавриил
гаврило
гавриі
гад
гадана
гаджега
гадяч
газ
газа
газда
газдованя
газдовати
газдовскы
газдовскых
газдовств
газдовства
газдовство
газдовствѣ
газды
газета
газовиты
газох
газпром
газу
газы
гаи
гаковыи
гала
галас
галаса
галереи
галерея
галерии
галерия
галина
галифакс
галицьких
галич
галича
галичина
галичину
галичины
галичинѣ
галичско
галичскых
галичі
галкина
галревком
галузь
галчакова
галштатска
гамбург
гамора
гамы
ган
ганзелка
ганзелказикмунд
ганнибал
ганнибала
ганновер
ганс
ганґыл
гараи
гарды
гармонии
гармония
гармонічнии
гармонічного
гарри
гарриг
гарсия
гасло
гасниці
гать
гаудеамус
гаха
гашек
гашека
гвары
гватемала
гвинея
гвозда
гвозды
гг
гдп
гдр
ге
гебеи
гебр
гебреи
гев
геи
гектары
гектор
гектора
гел
гелена
гелену
гелены
геликоптер
геликоптера
геликоптерѣ
ген
гендел
гендер
генерал
генерала
генерална
генералного
генералнои
генералныи
генералным
генералом
генерации
генетика
генетикы
генетично
генетичныи
генотип
генох
генри
генрик
гент
гентѣ
географ
географгиз
географии
географические
географическии
географична
географично
географичного
географичнои
географичном
географичны
географичныи
географичных
география
географічна
географічнии
географічному
геоид
геоида
геологии
геологическии
геологично
геологичнои
геологичны
геологичных
геометрии
геометричны
геометрия
георг
георгиев
георгиева
георгии
георгия
георгіи
гер
герасимова
герб
герба
гербѣ
геречка
гери
герлаховскыи
германиев
германии
германию
германия
германска
германскои
германскых
геровскыи
герои
героя
герц
герцеговина
герцеговины
герцеговинѣ
герцен
герцеґовина
герцогство
гес
гесла
гесло
геслом
гет
гете
гетероцикличны
гетеш
геттингенскои
гз
ги
гиадор
гигиена
гидроген
гидрогена
гидроелектрарню
гидроелектрарня
гидроелектрарнѣ
гидрокарбоны
гидротурбины
гии
гилберта
гилгамеша
гилл
гиллари
гиллс
гилотина
гилотины
гилотинѣ
гимна
гимназиалного
гимназиалны
гимназиалныи
гимназиалных
гимназии
гимназиста
гимназию
гимназия
гимназиях
гимнов
гимны
гипербола
гиперболы
гиперодказ
гипертекст
гиповитаминоза
гипотеза
гипотезы
гиппо
гирошима
гиряк
гиспаньола
гитара
гитлер
гитлера
гитт
гия
гк
гл
глав
глава
главна
главная
главне
главни
главно
главнов
главного
главнои
главном
главну
главны
главныи
главным
главныма
главных
главнѣ
главы
глаголіця
гласных
гласні
гледав
гледали
гледаня
гледати
гливища
глины
глисты
глосарии
глосаріи
глоссарии
глубина
глубинов
глубину
глубины
глубинѣ
глубить
глубка
глубкы
глубоке
глубоко
глубокы
глубокыи
глубокым
глубокых
глубшы
глубшыи
глухости
глюк
глюка
глядав
гляданя
глядати
глядать
глядають
гмины
гминѣ
гнаи
гнат
гнатюк
гнатюка
гні
гнѣв
го
говерла
говерлы
говор
говора
говори
говорив
говорила
говорили
говорило
говориме
говорити
говорить
говорово
говорці
говоры
говорят
говорять
говорячых
говорів
говур
гогенцоллернох
гоголь
гоголя
год
года
годах
годен
годи
годин
година
годинах
годинка
годинкы
годину
годины
годна
годни
годно
годны
годовлю
году
годув
годы
годі
гои
гокеи
гол
голандьскыи
голандія
голицына
голов
голова
голови
головна
головне
головно
головнов
головного
головну
головны
головныи
головным
головныма
головных
головов
голову
головы
голові
головѣ
голод
голокауст
голоняк
голос
голоса
голосили
голосить
голосно
голосныи
голосным
голосованьом
голосованя
голосованія
голосом
голосох
голосу
голосъ
голосы
голосять
голосів
голтвянськии
голуба
голубине
голубятник
голым
голятин
гомберг
гомер
гомера
гомилетика
гомичко
гомоннаи
гомстед
гондурас
гондурасом
гонець
гонорар
гончаров
гончарова
гонґ
гор
гора
горазда
горами
горах
горбаль
горбачов
горбачова
горбку
горбок
горват
горвата
горганы
горды
горжец
гори
горизонт
горизонта
горизонтом
горинчова
горинчово
горла
горлицкого
горлицкыи
горлицях
горлиці
горлицѣ
горло
горлі
горліця
гормоны
горнин
горнина
горнины
горном
горныи
горных
горні
горов
город
города
городами
городах
городов
городом
городох
городска
городского
городскои
городскы
городскыи
городу
городы
городьска
городѣ
горожан
горожанка
горожанку
горожанкы
горожанска
горожанскои
горожанскых
горожанства
горожанство
горожанцѣ
горонда
горощак
горска
горске
горского
горскои
горском
горскы
горскыи
горскых
гортен
горти
гору
горы
горького
горькыи
горьскых
горячкы
горі
горішня
горѣ
гос
господа
господарства
господарьскы
господарьскыи
господня
государства
государственнои
государственныи
государство
готарь
готарѣ
готел
готична
готичныи
готова
готовили
готовы
готовыи
готох
готт
гоул
гоч
гошовскыи
гр
гра
граба
грабар
грабарь
грабарьох
грабаря
грабова
грабовець
грабовскыи
грав
гравитации
град
градец
гражда
граждан
гражданам
гражданин
гражданства
гражданство
грала
грали
грам
граматика
граматику
граматикы
граматичны
грамматика
грамматику
грамматикы
грамота
граница
граници
границь
границьов
границю
границя
границями
границях
границі
границѣ
граничит
граничить
гранична
грант
гранчак
граня
грані
граніце
граніцю
граніця
граніцями
граніці
гранічіть
грати
грать
график
графикох
грач
грачів
грають
грає
гребень
гребеньом
гребеню
гребеня
гребѣнь
грегорианского
греи
греками
греко
грекокатоликох
грекокатоликы
грекокатолици
грекокатолицка
грекокатолицкого
грекокатолицкои
грекокатолицку
грекокатолицкы
грекокатолицкыи
грекокатолицкым
грекокатолицкых
грекокатолицькыи
грекокатолі
грекох
грекы
гренджа
гренланд
гренланда
грец
греци
греции
греция
грецка
грецкого
грецкои
грецкы
грецкыи
грецкых
грешлик
гриб
грибы
григорианского
григорианскыи
григории
григория
григорович
григоріанським
григоріи
грицак
гроб
гробѣ
гродецкыи
грозен
грозили
грозить
грозна
грозно
грозныи
гром
громада
громадах
громадна
громадов
громаду
громады
громаді
громадѣ
гроном
гроф
грофа
грофох
грофство
гроши
грошова
грошѣ
гру
грубе
грубер
грубого
грубыи
груде
груди
грудня
грудь
груз
грузии
грузинскыи
грузинськ
грузия
грунту
грунты
груня
груп
група
групами
групов
групп
группа
группу
группы
групу
групы
групѣ
грушевскыи
гры
гряда
грѣх
грѣха
грѣхы
гу
гуанин
губаш
губернатор
губернатора
губернатором
губернии
губерния
гудак
гудзіцю
гудзіця
гулаг
гулага
гулагу
гулдены
гулетта
гулливер
гулливеровы
гулливеровых
гуманиста
гуманитарных
гуменне
гуменного
гуменном
гуменному
гумор
гумореска
гуморескы
гумориста
гумором
гумору
гуморіста
гунох
гурь
гус
гусак
гуска
гускы
гуслі
густав
густо
густота
густоту
густоты
густу
густым
густых
густі
густіи
густѣи
гута
гуцулска
гуцулскои
гуцулскы
гуцулы
гуцульська
гюстав
гідроґену
гімна
гіндустані
гінді
гірнича
гірска
гірська
гітлер
д
да
дабер
даблин
даблина
даблину
дав
давав
давала
давали
давало
давати
давать
давид
давида
давна
давне
давнину
давнині
давно
давного
давногрецкои
давнои
давнс
давны
давныи
давным
давных
давні
давнѣи
давши
давыдкова
давыдов
давід
дагде
даи
даколи
даколишных
даколько
даколькох
даколькы
даколькыма
даколькых
дакоторы
дакотра
дакотрого
дакотрои
дакотры
дакотрыи
дакотрым
дакотрыма
дакотрых
дакулько
дакус
дакілько
дала
дале
далеко
далекого
далекои
далекы
далекыи
дали
далмации
далмация
дало
далша
далше
далшов
далшого
далшои
далшом
далшу
далшы
далшыи
далшым
далшыма
далшых
далші
даль
далі
дами
дампинг
дамы
дан
дана
данеи
дани
даниела
дании
данилюк
дания
даного
данои
даному
данскои
данскыи
даны
даныи
даным
даных
дань
даньско
даньскыи
даня
дані
данія
даніі
данѣ
дар
дара
дарвел
дарданелы
даровав
дарована
дарованя
дарця
дары
дас
даскельо
дасть
дат
дата
датабаза
датабазѣ
датах
дати
датована
датованя
датум
датума
датумом
даты
дачого
дашто
дають
даючи
даяк
даяка
даяков
даякого
даякои
даякому
даяку
даякы
даякыи
даякым
даякыма
даякых
даякіи
даякім
дає
два
двадцять
дванадцять
двараз
дверѣ
двиганя
двое
двои
двоита
двоите
двом
двома
двор
двора
дворецкии
дворжак
дворі
дворѣ
двох
двоє
двоі
двух
дві
двір
двѣ
дгр
де
дебеи
дебрецен
дебреценскои
дебреценѣ
дебутовав
дебютовав
девяте
девятеро
девятыи
девять
девятьох
дежев
дезидерии
деи
деизм
декабря
декан
деканата
деканом
декарт
декелия
декларации
декларацию
декларация
декларацію
декларація
декоратор
декрет
декретом
дел
делавер
делегатох
делегации
дело
деловая
дель
дем
деме
демисию
демко
демобилизованыи
демократ
демократична
демократичного
демократичнои
демократичны
демократичных
демократох
демократічна
демократічнои
демокрации
демокрация
демян
демяна
ден
дена
дендролоґія
дене
денно
деннои
дены
деныи
день
департамент
департамента
депортованы
депресии
депресія
депутат
депутатов
депутатох
депутатув
дер
дербник
дервиш
дерев
дерева
деревляна
деревляну
дерево
деревом
деревяна
деревянов
деревяного
деревянои
деревяну
деревяны
деревяныи
деревяных
дерек
держ
держав
держава
державами
державах
держави
державна
державне
державнии
державнов
державного
державнои
державном
державному
державноі
державну
державны
державныи
державным
державныма
державных
державов
державу
державы
державі
державѣ
держала
держали
держати
держать
держит
держить
деркач
десь
десяте
десяткы
десяток
десятыи
десять
десятьох
десятьроча
детаи
детская
дефенестрация
дефинитивно
дефиниции
дефиницию
дефиниция
дефинована
дефинованыи
дефинуе
дефінована
дефініція
дефініціі
децембер
децембра
децембрі
децембрѣ
дешева
деяких
деякі
деятельности
дж
джакомо
джами
джан
джана
джанни
джанска
джанскои
джанѣ
джез
джеи
джелал
джерзи
джером
джоване
джованя
джои
джон
джона
джонатан
джоном
джонсон
джорданвилл
джордж
джорджа
джорджия
джузеппе
джує
джібуті
джіммі
джіня
дзвоніця
дзе
дзендзелівськии
дзеркала
дзеци
дзюба
ди
диагноза
диакон
диалект
диалекта
диалектами
диалектизмы
диалектика
диалектолог
диалектом
диалектох
диалекты
диалектѣ
диамант
диаметер
диаметра
диаспора
диаспоры
диаспорѣ
див
дивизии
дизаи
дизертации
дизертацию
дизунитох
дизуниты
дика
дике
дикого
дикое
дикои
диктатор
диктатура
диктатуру
диктатуры
дилогия
димитрии
димитрия
димитріи
дина
динамо
династии
династия
дипломат
дипломатична
дипломатичнои
дипломатичну
дипломатичны
дипломатичных
дипломаты
дипломов
дипломовав
дипломованыи
диплому
дипломы
директор
директора
директором
дирекции
диригент
диригентом
дисертации
дисертация
дисидент
дисидентох
дисиденты
дискузии
дискузия
дисциплина
дисциплины
дить
дифтонґы
дища
дия
дка
дкарпатськыи
дко
дком
дку
дла
дло
для
дм
дмитра
дмитрии
дмитро
дмитрович
дн
дна
днать
дне
днеи
днесь
днешна
днешне
днешного
днешнои
днешном
днешному
днешности
днешну
днешны
днешныи
днешным
днешных
днешнього
днешню
днешня
днешні
дни
днк
дно
днука
дны
дныи
дньом
дньох
дня
днях
дні
дніпро
днѣ
днѣпром
днѣстер
днѣстра
до
доб
доба
добах
добив
добивав
добити
добов
добош
добра
добре
добро
доброволно
добровольно
доброго
доброи
доброслава
добру
добры
добрыи
добрым
добрыма
добрых
добрянского
добрянскыи
добрянськии
добряньского
добряньскыи
добрі
добрѣ
добу
добы
добыв
добывала
добывали
добываня
добывати
добывать
добывають
добыла
добыли
добыта
добыти
добытя
добыча
добі
добѣ
дова
дованя
довати
довбач
довбача
довг
довга
довганич
довганича
довге
довго
довгов
довгович
довгого
довгое
довгому
довгорочныи
довгости
довгу
довгы
довгыи
довгым
довгыма
довгых
довжа
довжина
довжка
довжков
довжкова
довжку
довжкы
довжности
довжці
довжцѣ
довжыи
довизны
довкола
доводох
доводу
довша
довше
довшы
довшыи
довшых
довъедна
довєдна
довідник
довѣру
доган
догварька
догваряня
догваряти
догма
догмы
договор
договора
договором
договорох
договору
договоры
договорѣ
догод
догода
догоду
догоды
догодѣ
додав
додавали
додаваньом
додавати
додавать
додавають
додали
додана
доданьом
додати
додатку
додаток
додаточно
додаточны
додержаня
додержовати
додж
доджовыи
доднесь
дождь
дождя
доживотне
доживотныи
дожывать
дожыти
дозаду
дозвалять
дозвол
дозвола
дозволена
дозволене
дозволено
дозволены
дозволив
дозволила
дозволили
дозволило
дозволити
дозволу
дозволяють
дознав
дознала
дознали
дознати
дозор
дозором
дозорця
дозрі
дои
доим
док
доказ
доказав
доказом
доказы
доконця
докончене
докончив
доксология
доктор
доктора
докторат
докторскои
докторску
докторскыи
доктрина
доктрины
документ
документа
документална
документално
документалных
документами
документах
документація
документов
документована
документох
документы
документів
документѣ
докус
докінце
докінця
долар
доларох
долина
долинах
долинов
долины
долиняне
долині
долинѣ
долна
долном
долныи
долов
долованя
долу
дольноземскыи
дольноземскыма
доля
долі
дом
дома
домашна
домашне
домашного
домашнои
домашности
домашны
домашныи
домашным
домашных
домашня
домашні
домаћинстава
доминантов
доминат
доминика
доминиканска
доминовала
доминуе
домов
домова
домовои
домовых
домог
домогав
домом
дому
домы
домів
домѣ
дон
донбас
донгхои
донедавна
донецьк
донецька
донецькии
донскыи
донськии
донського
дону
донынѣ
донья
доокола
доп
допереду
дописного
дописныи
доповнене
доповните
допустив
дорадянського
дорог
дорога
дорогами
дорогах
дорогов
дорогу
дорогы
дорозі
дорозѣ
дорослы
дорослыи
дорослыма
дорослых
доростать
доростлых
дос
дословно
дослі
досліджень
дослідник
досправды
доста
достав
доставав
доставала
доставали
доставати
доставать
доставши
достал
достала
достали
достало
достане
достанеме
достануть
достати
достаточно
достаточны
достають
достоевскыи
достои
достоєвскыи
доступ
доступна
доступне
доступно
доступны
доступныи
доступных
дость
досяг
досягать
досягла
досягли
досягло
досягне
досягнути
досягнутю
досягнутя
досягти
досягуе
досягує
дотеперь
дотогды
дотуляюча
дотыкать
дотычно
дотычны
дотычных
доходить
дохтор
дохтора
дохтором
дохторы
доц
доцент
доцента
доцентом
дочасна
дочасне
дочасно
дочасного
дочасныи
дочасным
дочками
дошла
дошли
дошло
др
драга
драгово
драгоманов
драгоманова
драгомановка
драгоманівка
драгы
драм
драма
драматик
драматичка
драматичны
драматичныи
драматичных
драматург
драматургии
драматік
драмов
драмски
драму
драмы
драмѣ
древнеи
древнии
дрез
дреза
дрезина
дрифтованя
дрих
дробны
дробныи
дробных
дровняк
дровняка
дрозд
дроздовых
друга
друге
другетох
другии
других
другов
другого
другое
другои
другом
другому
другоє
другоі
другу
другы
другыи
другым
другыма
другыми
другых
другі
другіи
другім
дружно
дружства
дружство
дружтва
дружтво
дрібна
дрібны
дрібныма
дрібных
ду
дуалистичнои
дуб
дуба
дубаи
дубая
дубно
дубриничі
дубчек
дубчека
дуда
дудаш
дуже
дук
дукля
дуличенко
дулишкович
дулишковича
дуліченко
думав
думали
думаня
думати
думать
думен
думка
думки
думку
думкы
думок
думцѣ
думы
дунаи
дунаю
дуная
дуо
дуплах
дурныи
дустав
дустала
дутинах
дутины
дуть
дух
духа
духнович
духновича
духновичови
духновичу
духновіч
духновіча
духовенства
духовенство
духовна
духовно
духовного
духовнои
духовну
духовны
духовныи
духовным
духовных
духом
духу
душ
душа
душан
души
душу
душы
душѣ
дує
ды
дымниця
дыханя
дьердьи
дьердя
дю
дюра
дюрдьов
дюрдьова
дюрдьове
дюрдьовски
дюрдьовѣ
дюрер
дюрренматт
дюсабл
дядя
дяк
дяка
дяку
дякувші
дякую
дякуючи
дякуючі
дякуєме
дятель
дятле
дятловых
дять
ді
діалект
діалекта
діалекты
діалекті
діалектів
діаметер
діаспора
дідо
дізаи
діи
діккенс
діл
діла
ділит
діля
дім
діморфізм
дін
дінастія
дінастіі
дінозаврів
діода
діоніз
діонізіи
діпломат
дірект
діректор
діріґент
діскузія
діскузіі
діснеи
дістав
дістала
дістали
дістало
дістати
дісціпліна
дітеи
діти
дітріх
діч
дішло
діяльности
діятель
діятеля
діяч
діячі
дієґо
діі
дѣва
дѣвка
дѣвков
дѣвку
дѣвкы
дѣво
дѣвок
дѣвы
дѣда
дѣдичности
дѣдичность
дѣдо
дѣдовизны
дѣе
дѣи
дѣл
дѣла
дѣлами
дѣлах
дѣлила
дѣлили
дѣлить
дѣло
дѣлом
дѣлять
дѣлѣня
дѣтвак
дѣтвака
дѣтваком
дѣтеи
дѣти
дѣтина
дѣтину
дѣтми
дѣточа
дѣточои
дѣточу
дѣточы
дѣточыи
дѣточых
дѣтска
дѣтскы
дѣтство
дѣтям
дѣю
дѣя
дѣянич
дѣяня
дѣятель
дѣятельность
дѣятеля
дѣячи
е
ев
ева
евакуованыи
евангелици
евангелицка
евангелицкого
евангелицком
евангелицкыи
евген
евгена
евгении
евгеньева
евгеньевич
евгеніи
еверест
евереста
евертон
евиденции
евич
евклид
евклидовска
евмении
евмения
еволуции
еволуція
еволуціі
евразіі
евреи
евро
еврозоны
европа
европанами
европане
европанох
европеи
европов
европска
европсков
европского
европскои
европском
европску
европскы
европскыи
европскым
европскых
европскіи
европу
европы
европі
европѣ
евроунии
евсевии
евтушенко
евы
еган
егана
егеи
египет
египта
египтом
египту
его
ед
едвард
едварда
едгар
еден
един
едина
едине
единиць
единицю
единиця
единицѣ
единка
единков
единку
единкы
единов
единого
единои
единок
едину
единыи
единым
едисон
едиции
едмунд
една
еднак
еднако
еднакы
едно
еднов
едного
еднозначно
еднои
едном
едному
едности
едность
едноткы
едноту
едночасно
едну
едны
едным
едуар
едукации
едукацію
едукаціі
едукачныи
едукачных
ее
езра
езуит
езуитох
езуиты
еи
еквадор
екватор
екватора
екваторѣ
еквивалента
екз
екзамен
екзарх
екзархат
екзархата
екзекуции
екзекуция
екземплары
екземпларі
екземпларів
екзилова
екзистенции
екзистенцию
екзистовав
екзистовала
екзистовали
екзистовало
екзистованя
екзистовати
екзистуе
екзистують
екзістенціі
екзістують
екзістує
еклиптика
еклиптикы
еко
екологии
екологичны
екологія
екологіі
еколоґія
економ
економии
економика
економики
економику
економикы
економицѣ
економична
економично
економичнои
економичну
економичны
економичныи
економичным
економичных
економия
економіка
економікы
економіці
економічна
економічну
економічныи
економічні
економіі
експанзии
експанзия
експедиции
експедициов
експедиция
експериментах
експерт
експерты
експлицитно
експлоатации
експозитура
експозиция
експорт
експорта
експрес
екстерно
екстра
ексцентрицита
ел
елвіс
елеи
елек
елека
електрарня
електрарнѣ
електрика
електрику
електрикы
електрично
електричного
електричнои
електричну
електричны
електричныи
електричных
електромаґнетічне
електромаґнетічного
електрон
електроникы
електронна
електроннои
електронну
електронныи
електронох
електроны
електронів
електронічна
електронічнои
електротехничныи
електрічна
електрічного
електрічныи
електрічным
елемент
елемента
елементами
елементом
елементох
елементы
елементів
елена
елизабет
елипса
елипсы
ельцин
ем
емен
емигранта
емигрантох
емиграции
емиграцию
емиграция
емигровав
емигровали
емигровати
емил
емилиан
емилия
еммануи
еммануил
емоции
емоція
ему
еміл
еміліан
ен
енгелс
енди
енді
енергетика
енергетикы
енергетична
енергетичныи
енергетичных
енергии
енергиов
енергию
енергия
енерґію
енерґія
енерґіі
ензімы
ензімів
енковскыи
енс
енциклопедии
енциклопедиста
енциклопедичнии
енциклопедичних
енциклопедия
енциклопедія
енциклопедіі
енціклопедія
енціклопедіі
епарха
епархиалного
епархиалнои
епархиалныи
епархии
епархию
епархия
епизодох
епископ
епископа
епископами
епископом
епископох
епископскои
епископства
епископы
епитеты
епос
епоса
епох
епоха
епоху
епохы
ерб
ерделии
ерделіи
ереван
ереи
еритроцитох
еритроциты
ерих
ернан
ернев
ернева
ернест
ернст
ерудита
ерупции
ерупция
еры
ес
есеи
есенин
есенина
есеі
есеіста
ескуд
ескудо
есовска
есперанто
ест
ествовала
ествованя
ествовати
ествуе
ествую
ествують
естебан
естер
естергом
естония
естонія
естоніі
есть
есу
етапа
етапу
етапы
етикы
етимологии
етимология
етимологічнии
етиология
етна
етничка
етнична
етничнов
етничнои
етничны
етничных
етнограф
етнографии
етнографичну
етнографичны
етнографичныи
етнографичных
етнографию
етнография
етноним
етнос
етноґраф
етноґрафія
етноґрафіі
етнічна
етнічных
етнічні
еу
еус
ефект
ефекта
ефективность
ефекты
ефрон
ефрона
ецесі
еще
ещи
еґеру
еґіпет
еґіпетьскыи
еґіпта
еґіпті
ж
жабы
жадав
жадала
жадали
жаданыи
жадань
жаданя
жадати
жаден
жадна
жадне
жадного
жаднои
жадны
жадныи
жадости
жадость
жаи
жак
жаль
жан
жандарска
жандарскыи
жанер
жанра
жанрах
жанровых
жанру
жанры
жанрѣ
жарновець
жарі
жаткович
жатковича
жданов
же
жебы
жел
желаня
желаю
железнодорожные
железняк
желі
желѣза
желѣзарня
желѣзна
желѣзници
желѣзниць
желѣзницьов
желѣзниця
желѣзницѣ
желѣзничаря
желѣзнична
желѣзничного
желѣзничнои
желѣзничну
желѣзничны
желѣзничныи
желѣзничных
желѣзнои
желѣзну
желѣзо
жен
жена
женатыи
женева
женевѣ
женов
женска
женскы
женскыи
женскых
жену
жены
женьскыи
женѣ
жере
жеребило
жерел
жерела
жерелах
жерело
жерелом
жермен
жерменского
жерменскыи
жертв
жертвам
жертвами
жертвов
жертву
жертвы
жешовѣ
жив
жива
живе
живи
живины
живлѣня
живобытя
живого
живои
живот
живота
животин
животных
животом
животу
животѣ
живут
живы
живым
живых
жигмонд
жигмонда
жиды
жие
жизни
жизнь
жила
жили
жило
жирош
жителеи
жители
жительох
жительства
жителюв
жителі
жителѣ
жити
житков
життя
житя
жиють
жиючых
жиє
жка
жки
жляз
жлязы
жовна
жовта
жовте
жовтень
жовткаво
жовтня
жовто
жовтогрудка
жовту
жовтурка
жовты
жовтыи
жовтым
жозеф
жомарт
жона
жоны
жорж
жрідел
жрідла
жрідло
жрідлом
жуковськии
жулан
жуп
жупа
жупами
жупах
жупу
жупы
жупі
жупѣ
журнал
журнала
журналах
журналі
журналіста
журналістікы
журналѣ
жыв
жывин
жывить
жывлять
жывот
жывота
жывотины
жывотны
жывотных
жывоту
жывоті
жывы
жывыи
жывым
жывых
жыде
жыдівского
жыли
жыло
жытельства
жытельство
жытелями
жытелі
жытелів
жыти
жытя
жытѣ
жыють
жыючі
жыючіи
жыючіми
жыючіх
жыє
жіліньскім
з
за
забава
забавна
забаву
забавы
забезпечує
заберать
забеспечує
забив
забиваня
забивство
забие
забили
забита
забити
забитого
забиты
забитыи
забитых
забитя
забияко
забрав
забрала
забрали
забрало
забраны
забрати
завада
завадка
завалисте
заведена
заведено
заведены
заведеныи
заведеніи
заведжіня
заведжѣню
заведжѣня
завела
завели
завершаючыи
завершена
завершены
завершеныи
завершив
завершила
завершили
завершити
завести
завжди
завирушка
зависима
зависимо
зависимости
зависимость
зависимы
зависит
зависить
завитѣ
завод
завои
завтра
завязали
заві
загні
загорб
загорне
загорнюе
загорнює
загород
загорода
загородах
загороды
загортать
заграв
заградка
заграла
заграли
загранича
заграничнои
заграничны
заграничныи
заграничных
заграничу
загранічных
загреб
загреба
загребѣ
загроженых
загынув
задарь
задач
задача
задачи
задачов
задачу
задачѣ
задне
задного
задні
задоволити
задокументована
задор
задора
задушѣню
заевидованы
заедно
заж
зажадав
зажадала
зажив
зажиста
зажы
заз
зазначав
зазначать
зазначають
зазначена
зазначене
зазначено
зазначены
зазначеныи
зазначив
зазначити
зазначка
зазначкы
заи
заир
заира
заказ
заказав
заказала
заказали
заказана
заказане
заказаны
заказаныи
заказу
закарпат
закарпатоукраі
закарпатска
закарпатская
закарпатского
закарпатскои
закарпатском
закарпатску
закарпатскыи
закарпатська
закарпатськии
закарпатських
закарпатського
закарпатськои
закарпатськоі
закарпатську
закарпатські
закарпатськіи
закарпаття
закарпатті
закарпатці
закарпатье
закарпатьска
закарпатьскои
закарпатьску
закарпатьскіи
закарпатья
закарпатю
закарпатя
заклав
заклад
закладателе
закладатель
закладательок
закладательом
закладательох
закладателя
закладателями
закладателѣ
закладать
закладаючых
закладена
закладене
закладеныи
закладна
закладнои
закладну
закладны
заклали
закликав
закликали
заключѣня
закля
закон
закона
законам
законами
законну
законодарныи
законом
закономѣрности
законох
закону
закончел
закончена
закончив
закончивши
закончила
закончили
закончило
закончити
закончуе
закончують
закончѣню
закончѣня
законы
законів
закрыла
закрыли
закрыта
закрыты
закрытыи
закрытя
закінчены
закінчує
закінчів
закінчіню
залежно
залежности
залежыть
залив
залива
заливами
заливу
заливѣ
залог
заложена
заложене
заложеныи
заложив
заложили
заложити
заложыв
заложѣню
заложѣня
залуж
залцбургу
залюднѣня
залі
заменгоф
замка
замковои
замком
замку
замкы
заможного
замок
заморска
заморске
заморскых
заміряня
замѣну
заник
заникла
заникле
заникли
заникло
заниклого
заниклои
занику
занимав
занимала
занимали
занимало
занимат
занимати
занимать
занимають
занимаюча
заняв
занята
заняты
занятя
запад
запада
западе
западна
западно
западнов
западного
западнои
западном
западну
западнуи
западны
западныи
западным
западныма
западных
западні
западніи
западнім
западом
западу
западі
западѣ
запал
запатентовав
заперта
заперты
запис
записав
записала
записали
записана
записане
записаны
записаныи
записати
записах
записках
записки
запискы
записовав
записованя
записовати
записок
записох
записуе
записують
записы
заплатити
запознав
запорізька
започав
запоює
запоі
запрічінило
зареаговав
зарегистрована
зарезервовано
заробити
заробкы
заробляв
заробляти
заробок
зароснуты
зароснутых
зарубіжні
заряджіня
заряджѣнь
заряджѣньом
заряджѣня
зарянка
заріччя
зарѣканя
зарѣчово
засвяченыи
заселена
заселеныи
заселеных
заселѣня
заславскии
заслуг
заслугов
заслугу
заслугы
заслужена
заслужении
заслуженого
заслуженыи
заслужив
заслужили
засновав
заснована
засноване
заснованя
заснователь
засоб
засобованя
засобы
заст
застава
заставив
заставили
заставити
заставить
заставка
заставку
заставов
заставу
заставы
застарѣла
застачаня
застачать
застачити
застрі
заступник
засуджены
засудженыи
засудженых
засудив
зась
засяг
засягом
засягуе
засягує
засѣданю
засѣданя
затля
зато
затоже
затока
затоплѣня
затруднены
затрудненых
затылок
затым
зафарблена
зафарблене
зафарблену
зафарблены
зафарбленыи
зафарблі
зафиксована
зафиксоване
зафиксовано
зафиксованы
зафиксованыи
захват
захватѣ
захворі
заховав
заховала
заховали
заховало
захованы
захованя
захоронка
захоронку
захранив
захранила
захранили
захранило
захранити
захрану
захраны
захід
зачав
зачавши
зачала
зачали
зачало
зачата
зачати
зачатком
зачатку
зачаткы
зачаток
зачаточна
зачаточне
зачаточно
зачаточнои
зачаточну
зачаточны
зачаточныи
зачаточных
зачатыи
зачим
зачинав
зачинат
зачинатель
зачинать
зачинають
зачне
зачінав
зачінать
зачінають
зашла
зашто
заяв
заяли
заятцьох
заяты
заятыи
заятых
заятю
заятя
заєдні
зб
збавленыи
збачіти
збачіть
зберав
зберали
збераню
збераня
збератель
зберателька
зберати
зберать
зберають
збереження
зберка
зберку
зберкы
зберок
зберцѣ
зберька
зберьков
зберьку
зберькы
збои
збор
зборник
зборника
зборниках
зборникох
зборнику
зборникы
зборні
зборов
зборовѣ
зборы
зброи
збруч
збудовали
збудована
збудоване
збудованы
збудованыи
збудовати
збулша
збуряны
збуряныи
збірка
збірник
зв
звала
звали
звало
звана
звании
званого
званои
звану
званы
званыи
званым
званых
званьом
званя
зве
звекша
звекшѣня
зверьха
зверьху
зволен
зволеныи
зволеных
звонимир
звонѣня
зворотник
зворотнику
звук
звука
звуками
звуки
звукового
звукоряд
звукох
звуку
звукы
звуків
звуть
звучання
звучаня
звучать
звучит
звучить
звучіть
звык
звыкла
звыкли
звыкло
звычаи
звычаі
звышок
звязана
звязане
звязаности
звязаны
звязаныи
звязаных
звязи
звязку
звязок
звязуе
звязують
звязь
звізд
звізда
звізды
звіря
звірят
звірята
звѣзд
звѣзда
звѣзды
звѣрины
звѣрят
зглядователь
згода
згодно
згодны
згодують
згоді
згодѣ
згорнутя
згоры
згорѣла
зготовлѣня
згромаджѣня
згруба
зд
зда
здалека
здатность
здах
зденка
здиня
здити
здить
здо
здобыв
здобываня
здобывать
здобыла
здобыли
здобытя
здовиска
здоровля
здоровництва
здоровя
здохлинами
здружіня
здружѣня
здруи
здять
здячіх
зді
здіи
зеи
зек
зеланд
зеланду
зеланді
зелена
зеленкавы
зеленонога
зелену
зелены
зеленыи
зеленых
земель
земле
земледѣлске
земледѣлского
земледѣлскои
земледѣлску
земледѣлскы
земледѣлскыи
земледѣлскых
земледѣлства
земледѣлство
земледѣлством
земледѣлствѣ
земледѣлцьох
земледѣлцѣ
землепана
землепис
землетрясі
земли
земльов
землю
земля
землям
землями
землях
землячка
землі
землѣ
земмелваи
земна
земнов
земного
земнои
земныи
земніи
земплин
земплинѣ
земплін
земпліна
земскои
земскыи
зенит
зенштеи
зеркала
зеркало
зеркалі
зерна
зикмунд
зикр
зима
зимнім
зимовища
зимовищами
зиму
зимують
зимує
зимы
зимі
зиндранова
зиндрановои
зистив
зл
зла
златыи
зликвидована
зложена
зложены
зложеныи
зложив
зложка
зложок
зложыті
зложіня
зложѣню
зложѣня
злоцкыи
злочин
злучена
злученин
злученина
злученины
злучены
злученыи
злучив
злучили
злучѣньом
злучѣню
злучѣня
злі
злѣва
зм
змагав
змаганя
змальовав
змеджи
змежи
змысел
змыслі
змыслѣ
змі
зміи
змін
зміна
змінами
змінив
змінка
змінны
зміны
зміні
змішаны
змішаных
змѣн
змѣна
змѣнах
змѣнив
змѣнила
змѣнили
змѣнити
змѣну
змѣны
змѣнѣ
змѣя
зна
знав
знае
знак
знака
знаками
знаком
знакох
знаку
знакы
знаків
знала
знали
зналости
зналость
знам
знама
знаме
знамого
знамои
знамости
знамы
знамыи
знамым
знамых
знамішы
знамішым
знамѣи
знании
знань
знаня
знатель
знати
знать
знатя
значение
значення
значеня
значить
значка
значков
значкованя
значкы
значна
значне
значно
значнов
значнои
значному
значну
значны
значныи
значок
значів
значіло
значіне
значінь
значіню
значіня
значіти
значіть
значѣню
значѣня
знають
знаючи
знаєме
знесе
знижіня
знижѣня
знищена
знищены
знищеныи
знищила
знищили
знищити
знищѣня
знову
зному
зношать
зношкы
зношці
зныи
зняти
знічныи
зо
зобрав
зображеныи
зображованого
зображіня
зображѣня
зобрала
зобрали
зобраны
зобраня
зове
зовсѣм
зовуть
зогрі
зоз
зознамив
зозуле
зозуляк
зозулі
зои
зокрема
золота
золотарьово
золото
золотои
золоту
золоты
золотыи
золотым
золотых
золоті
золтан
зомбор
зомбору
зомборѣ
зона
зонах
зонов
зону
зоны
зоні
зонѣ
зоологии
зоперти
зоря
зорі
зос
зоскупліня
зостав
зоставав
зоставала
зоставали
зоставало
зоставать
зоставають
зоставив
зоставитель
зостала
зостали
зостало
зосталы
зостане
зостати
зостають
зострѣленого
зострѣленыи
зоунб
зрады
зрак
зрекли
зречи
зробив
зробила
зробили
зробило
зробити
зроблены
зробленыи
зруб
зрубова
зрушена
зрушив
зрюк
зряджѣня
зрядив
зрядили
зрядити
зрі
зрѣдка
зсфср
зубрицькыи
зубчатоклювых
зубы
зузана
зулр
зучастнив
зша
зъявила
зъєдиненых
зъі
зъѣзд
зъѣзда
зъѣздѣ
зыи
зыск
зыскав
зыскала
зыскали
зыскало
зысканю
зысканя
зыскати
зыску
зыскуе
зышли
зяблик
зясь
зять
зі
зімбабве
зістав
зіставать
зіставають
зія
и
иберии
ив
ива
иван
ивана
ивано
иванов
иванович
ивановскыи
иваном
ивану
иванъ
иводжима
игнатков
игнатьевичъ
игнац
игорь
игоря
игра
играв
играе
ид
идвор
иде
идеална
идеалом
идеалох
идеи
идентификатор
идентификации
идентичности
идеов
идеологии
идеологична
идеология
идею
идея
идр
идуть
иерархии
из
иза
избранные
изгодя
изд
издание
изданіе
издат
издательскии
издательство
изидор
изолации
изолованыи
изотопы
израела
израелитох
израелиты
изъ
ии
иконы
ил
илегалитѣ
или
илиада
илиады
илиадѣ
илион
илл
илла
иллинои
ильин
ильич
им
имажинизм
имен
имена
именами
именем
имени
именовав
именованыи
именованя
именом
имив
имили
имня
имп
император
императора
императором
императорскои
императоры
императриця
императрицѣ
империев
империи
империии
империов
империю
империя
имперского
импресарио
имунолог
имя
ин
инвазии
инвазия
инвестиции
инде
индекс
индианами
индиане
индианох
индивида
индивидуалных
индии
индия
индоевропскых
индонезии
индустриалныи
индустрии
инженер
инженера
инжинер
инициативы
инициатором
инициовав
инициовала
инкорпорованыи
иннсбрук
иностранная
иностранных
инсектох
институт
института
инськоє
интелвак
интелигенции
интервал
интервалы
интерес
интереса
интересам
интересах
интересны
интересных
интересовав
интересом
интересох
интересы
интересѣ
интермедия
интернат
интернатнои
интернатом
интернационал
интернационала
интернационалу
интернационалы
интернет
интернетѣ
интернованыи
интерпретации
инфаркт
инфекции
инфекциониста
инфекция
инфекчны
инфекчных
информатикы
информации
информацию
информация
информачныи
информер
инш
инша
иншак
иншакы
иншакыи
инше
иншов
иншого
иншои
иншом
иншпектор
иншпектором
инштитут
инштитута
инштитуту
инштитутѣ
инштитуции
инштитуция
инштрумент
инштрумента
инштрументох
инштрументы
иншу
иншы
иншыи
иншым
иншыма
иншых
инші
ины
инѣ
иоанн
иоанна
иоанникии
иоаннъ
иосиф
иран
иржи
ири
ирина
иринеи
иркутскои
ирландии
ирландия
ирскыи
ирскым
иршава
иршавского
иршавском
иршавскыи
искусство
ислам
ислама
исламов
исламѣ
исландии
исландия
исп
испаниев
испании
испания
испанска
испанского
испанскои
испанскы
испанскыи
испанскых
испанцѣ
испр
испыт
испыты
исследования
исследовательскии
ист
истина
исто
истого
историев
истории
историк
историка
историко
историкох
историкы
историов
историографии
историци
историческая
историческии
историческія
исторична
историчне
исторично
историчнов
историчного
историчнои
историчном
историчну
историчны
историчныи
историчным
историчныма
историчных
историю
история
исторіи
исторія
исты
истыи
исус
исуса
исусово
исусового
ит
италии
италию
италия
италиянскыи
итд
ити
их
ишла
ишли
ишло
ишов
иштван
иштвана
ищи
июля
к
ка
кабинет
кабинета
кава
кавалерии
кавка
кавказ
кавказа
кавказу
кагіра
каетан
кажда
кажде
каждого
каждоденно
каждоденного
каждоденныи
каждои
каждом
каждому
каждорочно
каждорочны
каждорочныи
кажду
кажды
каждыи
каждым
каждіи
каждім
кажуть
кажучи
казак
казань
казаня
казатель
казахстан
казахстана
казахстану
казимир
казинцбарцика
казка
казки
казкы
казок
каи
как
кал
кала
калвария
калвинска
калвинску
календар
календарем
календарны
календарь
календарю
календаря
календарях
календарѣ
калиграмы
калии
калин
калина
калиняк
калифорнии
калифорния
калкант
калман
калмана
кало
калция
кам
камбоджа
камень
камені
камерун
ками
каммаи
кампании
камчатку
камышниця
камюнка
камяна
камянець
камянка
камянои
камяну
камяных
камінь
каміня
камінями
камѣнь
камѣня
кан
канаан
канада
канадов
канады
канаді
канадѣ
канал
канала
каналами
каналом
каналы
канарьскы
кандидат
кандидата
кандидатом
кандидатску
канзаса
каноник
каноника
каноником
канонох
каноны
кант
кантон
кантона
кантонами
кантонох
кантоны
кантор
канторы
канцеларни
канцеларнѣ
канцеларіі
каня
кані
капацитов
капациты
капелы
капитал
капитала
капитализма
капитан
капитана
капитулы
капка
капкы
каплан
капланом
капланы
каплици
каплицю
каплиця
каплицѣ
капраль
кар
кара
карабах
карабелеш
караганда
карагандѣ
караджічовоі
карат
карате
карбон
карбона
карбону
карбуратора
кардана
кардинал
кардинале
каре
карел
карибского
карибском
карк
карку
карл
карла
карликова
карликовыи
карловицкыи
карловои
карловцях
карлом
карныи
каров
карои
карол
каролина
кароль
карольи
карпат
карпатах
карпати
карпато
карпаторусинскои
карпаторусинскыи
карпаторуску
карпаторусскии
карпаторусских
карпаторусскои
карпаторусскіи
карпаторуськыи
карпатска
карпатская
карпатске
карпатского
карпатскои
карпатскы
карпатскыи
карпатскых
карпатська
карпатськии
карпатських
карпатського
карпаты
карпатьска
карпатьскои
карпатьскых
карпинского
карпов
карповтлаш
карст
карта
картагена
картагены
картер
картка
кару
кары
карь
карьера
карьеру
карьеры
карьерѣ
касавубу
каспии
каспіцьке
касы
кат
катаев
каталаньскыи
каталог
каталогу
каталоґ
катар
катарина
катарины
катастрофа
катастрофы
катастрофѣ
катастрѣ
категории
категорично
категория
катедра
катедрала
катедралного
катедралу
катедру
катедры
катедрѣ
катерина
катеринов
катехизм
катехізм
катеґорізація
катеґоріов
катеґорія
катеґоріі
катион
катихисі
катода
католикох
католици
католицизм
католицизма
католицка
католицкого
католицкои
католицком
католицку
католицкы
католицкыи
католицкых
католицтво
католицька
католицькои
католицькы
католицькіи
католическая
каттегат
кать
кафка
кацирство
качка
качковского
качковського
качкы
качмарчик
качмарчык
кашлатова
каштель
каштелю
каштеля
кашуба
кашшаи
квадрат
квадратных
квалификацию
кваліта
квант
квантовои
квартет
квас
кваса
квасох
квасы
квасівська
кветослава
квіти
квітня
квітя
квіч
кг
кгб
кебы
кед
кедь
кежмарку
кежмарок
кеи
келвин
келдыш
келтох
келты
кельо
кемал
кембрідж
кеминь
кендериця
кенигсберг
кентукки
кеплер
керестур
керестура
керестуре
керестурі
керестурѣ
керча
кесарии
кесария
кешеля
ки
киев
киева
киевска
киевскои
киевскыи
киевѣ
кизак
кии
килиманджаро
кило
килограм
килограма
километры
километрѣ
кимак
кингстон
кипр
кипра
кирил
кирила
кирилицѣ
кириличне
кириличных
кирило
кирилюк
китае
китаи
китаю
китая
кишиньов
києва
києві
киі
кл
кла
клавдии
клавдия
клавесовы
клавзура
клавзуры
клавир
кладе
кладуть
клаи
клала
клара
клас
класа
класах
класик
класификатор
класификации
класификация
класицизму
класична
класичнои
класичну
класичныи
класну
класом
класох
класс
классах
классификации
классичныи
классна
классы
класти
класу
класы
класіфікація
класіфікаціі
класіцізм
класіцізму
класічна
класічнои
класічныи
класічніи
класѣ
клаузула
клаштора
клдр
клеи
клемент
клеопатры
клер
клеть
кликаня
клима
климатичны
климатичных
климент
климента
климишин
климишина
клиничны
кличе
кличеме
кличуть
клод
клочурак
клочурака
клр
клуб
клуба
клубу
клубы
ключову
ключовы
ключовым
ключовых
клячаново
клі
клімат
клімату
км
кметь
кн
книг
книга
книгами
книгах
книги
книгопечатаня
книгопечатня
книгу
книгы
книжка
книжков
книжку
книжкы
книжно
книжныи
книжок
книжочкы
книзѣ
кнунянц
кньежи
княжества
княжество
князь
князьом
князя
кні
ко
коалиции
коатуу
кобаль
кобилецька
кобылочка
ков
кова
ковалентна
ковальчук
ковалів
ковач
ковача
ковачовичова
ковель
ковельскім
ковельськім
кович
ковскыи
кого
когут
код
кода
коди
кодификации
кодификацию
коды
кодіфікація
кодіфікаціі
кожа
кожановскии
кожаны
кожи
кожного
козма
козмична
козмичного
козмичнои
козмичныи
козмичных
козмонавт
козмонавтами
козмонавтикы
козмонавтох
козмос
козмосѣ
козмы
козовик
козорога
кои
кол
колгосп
колгоспу
колег
колегами
колегии
колегы
коледж
коледжа
коледжи
коледжу
коледжѣ
колектив
колектива
колективнои
колективных
колективы
колектів
колекции
колекцию
колеса
колесами
колесо
коли
колиж
колинчак
колись
колишне
колишні
коллар
колледж
коло
коложварскои
коломыи
колон
колонада
колониалнои
колонизации
колонизация
колонии
колонистами
колонистох
колонисты
колонию
колония
колониях
колоны
колоніях
колоніі
колорадо
колоры
колочава
колумб
колумбии
колумбия
колумбом
колысков
колыше
колышуть
кольесар
колядкы
колядок
коляды
ком
кома
командов
комарник
комарно
комбинат
комбинации
комедии
комедия
комедіоґраф
комедія
комендар
коменского
коменьского
комерчныи
комет
кометы
коминтерны
комисарь
комисарьом
комисаря
комисии
комисия
комитет
комитета
комитетов
комитетом
комитетѣ
комкнига
коммунистическои
комора
компактно
компании
компанию
компания
компанія
компаніі
компетенции
комплекс
комплексныи
комплет
композитор
композитора
композиторох
композиции
композицию
композиция
композітор
компонент
компонентами
компонентох
компоненты
компонентів
компютер
компютера
компютеры
комсомол
кому
комунизма
комунизму
комуникации
комунистами
комунистична
комунистичнов
комунистичного
комунистичнои
комунистичном
комунистичну
комунистичны
комунистичныи
комунистичным
комунистичных
комунистох
комунисты
комунит
комунита
комунитов
комуниты
комунитѣ
комуны
комунікація
комунікаціі
комфорт
комяты
комісіи
комісія
кон
конари
конариків
конарь
конарьом
конаря
конарями
конарях
конарі
конарѣ
конвенции
конвенция
конвенціі
конго
конгрегации
конгрегацию
конгрегация
конгрес
конгреса
конгресом
конгресу
конгресѣ
кондратович
конець
конжска
конзервативна
конзервативныи
конзерватории
конзистории
конзистория
конзулом
кони
коник
кониковых
конисскыи
коничну
коничных
конкретно
конкретного
конкретнои
конкретну
конкретны
конкретныи
конкретным
конкретных
конкретнѣи
конкуренции
конкуренция
конкурз
конкурзу
конкурзѣ
конопницка
конопницкои
константин
константина
константинов
константином
константинополь
константинополю
конституціи
конституцію
конституція
контаи
контакт
контакты
конте
контекста
контексті
контекстѣ
контингент
континента
контракт
контраст
контрасті
контратович
контрибуции
контроверзныи
контролна
контролов
контролу
контролуе
контролы
контроль
контінент
контінента
контінентах
контіненту
контінентів
конуса
конфедерации
конфедерация
конференции
конференцию
конференция
конференція
конференціі
конфесии
конфессии
конфесіи
конфирмация
конфишкованы
конфишкованыи
конфликт
конфликта
конфликтох
конфликты
конфлікт
конфлікты
конфуцианство
конце
концентрации
концентрачного
концентрачныи
концентрачных
концепт
концепции
концепцию
концепция
концепція
концерт
концертах
концерты
конци
концьом
концю
конця
кончить
конштанта
конштатовати
конштелации
конштитуции
конштитуцию
конштитуция
конштитучна
конштитучнои
конштруктер
конштрукции
конштрукцию
конштрукция
конштрукціі
конштруованя
конштітучна
конь
коньска
коня
конєчні
конѣ
конґо
конґрес
конґресами
конґресу
конґресі
конґу
кооперации
кооперация
координат
координаты
копа
копалин
копалнѣ
копаня
копашново
коперник
коперника
копии
копинець
копитар
копия
кополович
копорова
кор
кора
кораловы
кораловых
коран
корана
корбизье
корвина
кореи
корешпонденции
корея
кореі
кормань
кормитка
кормить
кормлены
кормлять
кормлі
корн
корнелл
корню
коров
королева
королево
королик
королювства
короля
королівства
коростиков
корпус
корпуса
корпусѣ
корсунь
кортес
кортеса
корун
коруна
корунах
корунов
корунована
корунованыи
коруну
коруны
корупции
корчмы
коршун
коры
корыта
корыто
корі
коріатович
корѣ
корѣня
кос
коса
косова
косово
косовом
косовск
косовѣ
коста
костел
костела
костелник
костельник
кости
костогрыз
костюк
костянтин
косцюшка
косцюшко
косы
кот
кота
котлинѣ
котляревскыи
которого
котором
которыи
котра
котре
котрии
котров
котрого
котрое
котрои
котром
котрому
котроє
котру
котры
котрыи
котрым
котрыма
котрых
котрі
котріи
котрім
коту
кох
коцак
коцка
коцкы
коцур
коцура
коцуре
коцурі
коцурѣ
кочиш
кочубеи
кош
кошицка
кошицкои
кошицкы
кошицкых
кошиць
кошицях
кошицѣ
коштом
кошіцького
кошіцькім
кошіцях
кошіці
кпзу
кпсс
кпч
кр
крае
краем
краи
краин
краина
краинах
краины
краинѣ
краков
кракова
краковѣ
краків
крале
кралевского
кралевскыи
кралевства
кралевство
кралицкого
кралицкыи
кралицькии
кралицю
кралиця
кралицѣ
кралове
краль
кральови
кральовои
кральовска
кральовске
кральовского
кральовскои
кральовском
кральовску
кральовскы
кральовскыи
кральовскых
кральовства
кральовство
кральовством
кральовству
кральовствѣ
кральом
кральох
кралю
краля
красна
красне
красникова
красно
краснов
красного
краснодар
краснои
красну
красны
красныи
красных
красовскыи
красу
красы
крат
кратер
краткая
краткии
крафчик
крачка
краю
края
краями
краяне
краях
краєзнавчии
краі
креи
кременець
креници
крениця
кресба
кресбов
кресбу
кресбы
кресила
креслярь
креслѣня
крест
креста
крестами
крестителя
крестным
кресту
крещеныи
крещѣня
крива
криве
кривоніс
кривскыи
кривы
крижанич
крижарскои
крижарскы
крижарскых
крижевска
крижевскои
крижевскыи
крижевци
крижевцях
крижник
криза
кризы
крикун
криминология
кристиан
кристина
кристины
кристофор
критерии
критизовав
критик
критика
критиков
критиковав
критиком
критикох
критику
критикы
критицѣ
критично
критичны
критичныи
крно
кров
крови
кровками
кровкы
кровли
кровна
кровнои
кровны
кровных
кровь
крові
крогулець
крок
кроком
крокы
кроме
кромплѣ
кроншнеп
кротон
крохаль
круг
круга
кругах
кругова
кругом
кругосвет
кругу
кругы
кружка
кружкы
кружниця
кружок
кружіня
крутити
крушко
крыл
крыла
крылами
крылах
крыло
крыловы
крылом
крылі
крым
крыма
крымских
крымского
крымскои
крымскых
крымскім
крымѣ
крыниця
кряками
кряках
крякы
кряків
кріз
кріза
крізы
крітік
крітіка
крітіков
ксавер
ксеняк
ксут
кт
кто
ку
куба
кубек
кубека
кубизм
кубизма
кубии
кубин
кубишова
кубишовои
кубрік
кубы
кубіе
кубіи
кубѣ
куваи
куд
кудзеи
кудзея
кудрицкии
куды
кужеле
кузмяк
кузмякова
кузьмы
кузяк
кук
кула
куле
култ
култур
култура
културах
култури
културна
културне
културно
културнов
културного
културнои
културном
културну
културны
културныи
културным
културных
културов
културу
културы
културі
културѣ
култівація
культура
культури
культурного
культурні
культуры
куляту
кулѣ
кумо
кун
куна
кунци
кунцьови
куп
купалиска
купалиско
купаня
купели
купель
купельництво
купельох
купелях
купелѣ
купив
купили
купити
кур
кура
курз
курзу
курзы
курии
курилло
куркы
курс
курсы
курта
куртанка
курте
курто
куртов
куртого
куртои
куртом
курту
куртша
куртшыи
курты
куртыи
куртым
куртыма
куртых
куруцох
курфюрст
кус
кусох
кусы
кусів
кутка
куткы
кутрі
кухні
кучмар
кушниця
куштановиця
къ
кы
кые
кыи
кым
кышка
кюри
кі
кібы
ків
кідь
кілометрів
кілька
кількость
кількість
кіно
кінце
кінцю
кінця
кінцями
кінці
кінчіть
кінь
кінґ
кіріла
кіріліцю
кіріліця
кіріліці
кітаи
кітаю
кітая
кітаі
књига
кґ
л
ла
лаба
лаборатории
лаборець
лаборця
лабош
лабы
лабірце
лавр
лавреат
лавреатами
лавреатка
лавреатом
лавреатох
лагер
лагра
лаграх
лагрох
лагру
лагры
лагуны
ладив
ладила
ладислав
ладомирова
ладі
лажо
лазар
лазурівка
лаи
лами
лан
ланд
ландштаи
ланка
ланц
ланца
лаос
ларвами
ларвы
лариса
ларусс
ласер
ласера
ласкера
ласкерова
ласло
ласлов
ласлова
ластівка
ластівковых
лат
латвии
латвия
латвія
латвіі
латина
латинска
латинске
латинско
латинского
латинскои
латинску
латинскы
латинскыи
латинскых
латину
латинцѣ
латины
латиньске
латиньского
латиньскы
латиньскыи
латиньскім
латиніку
латинѣ
латориця
латорицѣ
латта
латяк
лауреат
лаґрі
лд
ле
лев
лева
левенгук
левенець
левицкіи
левоча
левочи
левченко
легалиты
леге
легеза
легенд
легенда
легенди
легенды
легии
легко
легкыи
легоцкого
легоцкыи
легоцького
легше
легшыи
легѣнѣ
лед
леда
ледах
ледвы
ледового
ледовыи
леду
лежав
лежала
лежати
лежать
лежача
лежачіи
лежит
лежить
лежыть
леи
лексема
лексика
лексикограф
лексикографии
лексикологии
лексикология
лексику
лексикы
лексичных
лексіка
лекции
лекціі
лелит
лем
лемами
лемвик
лемка
лемками
лемко
лемковина
лемковину
лемковины
лемковинѣ
лемковска
лемковске
лемковского
лемковскои
лемковскыи
лемковскых
лемкох
лемкы
лемків
лемківска
лемківске
лемківско
лемківского
лемківскои
лемківскы
лемківскыи
лемківскых
лемківскіи
лемківскім
лемківська
лемківщини
лемом
лена
ленд
ленин
ленина
ленинград
ленинградская
ленинградѣ
ленином
ленчова
лены
леон
леонардо
леонид
леонида
леонтович
леопольдович
лер
лес
леса
лесич
лесо
лестер
лесу
леся
лесі
лесѣ
лет
летадел
летадла
летадло
летиска
летиско
летить
лету
леты
летять
леті
леґенда
ли
либер
либия
лив
лига
лиги
лигы
лидер
лидера
лидерами
лидером
лидерох
лидеры
лидром
лизанець
лизи
лизоцим
лизѣ
ликвидации
ликвидовала
ликвидована
ликвидованы
ликвидованыи
лила
лили
лиме
лин
лингвист
лингвиста
лингвистикы
лингвистицѣ
лингвистическии
лингвистических
линиев
линии
линиов
линию
линия
линиях
линнеи
линнея
линтур
липа
липнице
липня
липье
лира
лирика
лиричного
лиричны
лиричныи
лисенко
лисичова
лисичово
лиска
лист
листах
листина
листинов
листинѣ
листкы
листок
листокъ
листопада
листы
листя
листяны
листяных
лисінова
лит
литва
литвин
литвиненка
литвы
литер
литератор
литератур
литература
литературна
литературная
литературне
литературно
литературнов
литературного
литературнои
литературном
литературному
литературну
литературны
литературные
литературныи
литературным
литературныма
литературных
литературов
литературознаня
литературознатель
литературу
литературы
литературѣ
лити
литовского
литовску
литовскыи
литургии
литургия
лить
лихтенштаи
лице
лицеи
лицею
лиця
лицями
лиш
лишаи
лишать
лишив
лишивши
лишила
лишили
лишити
лишкы
лишь
лково
лком
ллои
лн
лна
лно
лны
ло
лобанов
лобачевскыи
лов
лова
ловецкои
ловець
лови
ловить
лович
ловна
лову
логика
логику
логикы
лого
лоди
лодовико
лодь
лодьох
лодярства
лодярство
лодіи
лодѣ
лои
лок
локал
локалит
локалиты
локалитѣ
локалнои
локалны
локалных
локаліты
локк
локомотивы
лом
лому
лондон
лондона
лондонска
лондонске
лондонского
лондону
лондонѣ
лорда
лорочно
лос
лохово
лу
луг
луганьска
луговыи
лудвик
лудвика
лудвік
луи
лук
лука
луках
лукач
лукашенко
лукино
лукс
луксембург
луксембурга
луксембургского
луксембургскыи
луксембурчане
лукы
лумумба
лумшоры
лунь
лутер
лутера
лутером
луция
луцьк
луцька
луч
лучать
лученець
лучка
лучкаи
лучках
лучкая
лучок
луі
лы
лыжарскыи
лыжованя
лыи
лых
ль
львов
львова
львовскои
львовъ
львові
львовѣ
львів
львівска
львівська
лю
любив
любила
любили
любити
любить
любиця
любка
любляна
любляні
любов
любови
любовни
любовня
любовь
любомір
любор
любі
люд
людвік
люде
людеи
люди
людии
людини
людми
людмила
люднаті
людности
людова
людовов
людового
людовои
людову
людовы
людовыи
людовых
людска
людсков
людского
людскои
людскы
людскыи
людскых
людства
людство
люду
людьми
людьом
людьского
людьскои
людьскы
людьскых
людям
людях
лютого
лює
ля
лягнуть
лять
лящук
лєм
лі
лібанон
лібіе
лібія
лів
ліверпул
лідер
ліи
ліквідовані
лім
лінколн
ліннеи
ліня
лінія
лініі
лінґвіста
лінґвісты
лінґвістіка
лінґвістікы
ліра
літ
літва
літер
літерат
література
літератури
літературна
літературне
літературно
літературного
літературныи
літературных
літературні
літературознавства
літературознавча
літературознавчии
літературознатель
літературу
літературы
літературі
літераті
літопис
ліґа
ліґниця
лѣвои
лѣвом
лѣвы
лѣвыи
лѣкы
лѣпша
лѣпше
лѣпшого
лѣпшои
лѣпшому
лѣпшу
лѣпшы
лѣпшыи
лѣпшым
лѣпшыма
лѣпшых
лѣс
лѣса
лѣсами
лѣсах
лѣсистых
лѣсництво
лѣсокомбинат
лѣсорубы
лѣсу
лѣсы
лѣсѣ
лѣт
лѣта
лѣто
лѣтопис
лѣтописа
лѣчив
лѣчивы
лѣчити
лѣчѣня
м
ма
мав
мавритания
магдалена
магдебургске
магдебургского
магеллан
магистер
магистра
магнаты
магочи
магочіи
магфуз
мад
мадрід
мадяр
мадярам
мадярами
мадяре
мадярох
мадярска
мадярске
мадярскии
мадярско
мадярсков
мадярского
мадярскои
мадярском
мадярскому
мадярску
мадярскы
мадярскыи
мадярскым
мадярскыма
мадярскых
мадярсько
мадярського
мадярськоі
мадярщина
мадярщинов
мадярщину
мадярщины
мадярщинѣ
мадяры
мадярьска
мадярьско
мадярьского
мадярьскои
мадярьском
мадярьску
мадярьскыи
мадярьскіи
мадярізаціі
мае
маетку
маеткы
маеток
мазурик
мазурок
маи
мак
макао
макара
макед
македонии
македонию
македония
македонскыи
македонцѣ
маковіцка
маковіця
макс
максим
максимална
максимално
максималныи
максимилиан
максимильен
максімално
мал
мала
малаи
малацкы
малдивы
мале
маленькы
маленькыи
малер
мали
малии
мало
малов
малого
малое
малои
малоколи
малороссии
малости
малп
малта
малу
малы
малыи
малым
малыма
малых
малышевскии
мальба
мальбы
мальовав
мальованя
мальовати
мальцовска
мальцовскои
малюнкы
маляр
малярка
малярского
малярскои
малярства
малярство
малярству
малярствѣ
малярь
малярька
малярьом
малярьох
маляря
малярѣ
малі
маліи
маме
мамко
манаи
мандат
мандрик
мане
манжелство
манифест
манкович
маннгаи
манова
мансии
маны
манѣра
манѣру
мао
мапа
мапах
мапы
мапѣ
мар
мараморош
марамороша
мараморошскои
марамуреш
маргарет
маргарин
маргарита
маргы
маре
марец
мариев
марии
марина
маринич
марию
мария
марк
марка
маркес
марко
марком
маркс
маркса
марксист
марксистичнои
маркусь
маркуш
маркушевич
марлен
мармарошскы
марока
марокко
марса
марта
мартин
мартина
мартинка
мартинѣ
марты
марті
мартін
марца
марцу
марці
марченко
марьина
маря
маріи
марія
маріян
маріі
марґіта
мас
маса
масакра
масарик
масарика
масариком
масив
масло
масмедии
масов
масова
масове
масово
масового
масовои
масовы
масовых
массачузетс
масти
масть
масу
масы
мат
матвеева
матвіи
мате
матезонскыи
матезонськии
математик
математика
математике
математику
математикы
математицѣ
математично
математичного
математичны
математичныи
математичных
математік
математіка
математікы
математіці
математічна
математічне
матери
материал
материала
материалами
материалах
материалист
материалного
материалну
материалны
материалных
материалох
материалы
материи
материнского
материнскои
материнском
материнскыи
материнскым
материньского
материньскыи
материньскым
материя
матерь
матерьов
матері
матеріал
матеріали
матеріалом
матеріалу
матеріалы
матеріалі
матеріалів
матеріі
мати
матка
матрикы
матуровав
матуру
матурѣ
матушка
мать
матяш
матяша
матяшовска
маті
матісс
махикулы
мацинскыи
мацинськии
мачка
мачкы
мачошкова
машин
машина
машинарства
машинарство
машину
машины
машын
маю
мают
мають
маючи
маючыи
мая
маяк
маяковскии
маяковского
маяковскыи
має
маґдебурґ
маґнетічне
маґочіи
маґістрала
маґістралі
мвт
ме
мев
мева
мевы
медаи
медалию
медалия
медаль
медаля
медвідь
медвідя
медвѣдь
меджах
меджи
медживои
меджилаборцях
меджилаборцѣ
меджинародна
меджинародне
меджинароднов
меджинародного
меджинароднои
меджинародном
меджинародну
меджинародны
меджинародныи
меджинародным
меджинародныма
меджинародных
меджирѣчу
меджі
меджілабірцях
меджінародного
медзи
медиевиста
медик
медико
медицина
медицинска
медицинская
медицинскои
медицинску
медицинскы
медицинскых
медицину
медицины
медицинѣ
медєши
медіум
медія
межгорского
межгорском
межгорскыи
межгорье
межгорью
между
межи
межинародного
межинароднои
межинародны
межинародныи
межуе
меи
меккартні
мексика
мексико
мексику
мексіка
мексіко
мексіцька
меланхолік
мелихар
мелодии
мелодию
мелодия
мелодіі
мельник
мембрана
мембранов
мемоары
меморандум
меморандума
мемориал
мемуариста
мемуары
мен
мена
мене
мено
меновав
меновала
менована
меноване
менованыи
менованя
меновати
меном
менування
менувань
менша
менше
меншин
меншина
меншинами
меншиновы
меншину
меншины
меншов
меншого
меншои
меншом
меншу
меншы
меншыи
меншым
меншыма
меншын
меншына
меншыны
меншых
меншіи
меншім
мер
мережа
мережы
мережі
мери
мерии
мертвого
мертвыи
мертвых
мерілін
место
метаболизм
метал
метала
металово
металообробка
металох
металургии
металургия
металы
металів
метаморфизм
метафора
метер
метерлинк
метерлинка
метисы
метов
метод
метода
методами
методии
методику
методов
методом
методох
методы
метра
метрична
метро
метры
метрів
мефодии
мефодия
мефодія
механизм
механик
механіка
механікы
меценас
меценаш
мецька
мецько
мецького
мецькои
мецьком
мецьку
мецькы
мецькыи
мецькых
мецькіи
мечет
мечета
међеши
ми
мигалич
мигаль
мигович
миговк
микен
микенска
микенскои
микены
микита
микиты
миклош
миклоша
миклошевци
миклошик
микова
микола
миколаи
миколая
миколаі
миколом
миколы
микроскоп
микроскопии
микроскопия
микроскопох
миксат
микулаш
милан
милано
миланѣ
милиарды
милион
милионох
милионы
милиции
миллыи
милославскии
милославскыи
милости
милош
мильхавыи
мимо
мин
минарет
минералных
минералогия
минералох
минералы
минимална
министер
министерии
министерства
министерство
министерством
министерствѣ
министра
министрох
минои
минск
минуло
минулого
минулости
минут
минуту
минуты
минь
миокарда
мир
мира
миравчик
мирного
мирну
мирны
мирныи
мирным
миро
мированя
мировои
мирову
мироля
миром
мирон
мирослав
мирослава
миру
мирча
мирѣ
мисии
мисиов
мисионер
мисия
миссии
миссионер
миссисипи
миссури
мистецтв
митна
митрак
митраку
митро
митрополит
митчелл
мифологии
мифы
михаи
михаил
михаила
михаилом
михал
михала
михалина
михальська
михалі
михаіла
мичиган
мишанич
мишел
мишколц
мишколца
мишколцу
мков
мково
мл
младшыи
млин
млн
млрд
мм
мнихів
много
многодѣтнои
многораз
многы
многым
многыма
многых
многі
множества
множество
множеством
множестві
множина
множины
мня
мнячко
мні
мо
мобилизация
мобилизованыи
мобилны
мобуту
мова
мови
мог
могамед
могамеда
могамедане
могамеданох
могла
могли
могло
мого
могылянскои
модел
моделу
моделы
модерна
модернизация
модернистичныи
модерного
модернои
модерну
модерны
модерныи
модерных
моды
мое
мож
може
можеме
может
можете
можливость
можливостями
можна
можне
можностеи
можности
можность
можностьов
можныи
можут
можуть
мозговои
мозес
мозґу
мои
мокра
мол
мола
молдавии
молдавія
молдавіі
молдова
молекул
молекула
молекуларнои
молекулах
молекулы
молекулѣ
молитв
молитва
молитву
молитвы
молитвѣ
молнар
молнара
моло
молода
молоде
молодеж
молодежи
молодежнои
молодежныи
молодежь
молодого
молодости
молодшов
молодшого
молодшыи
молодшым
молоды
молодыи
молодым
молодых
молодя
молодят
молодята
молодять
молоді
молока
молоко
молочныи
мольер
мом
момент
момента
моментално
мон
монако
монарх
монарха
монархии
монархию
монархия
монархом
монархія
монархіі
монастырь
монастырю
монастыря
монастырі
монастырѣ
монах
монахох
монахы
монаше
монашого
монашыи
монблан
монеты
монографии
монография
монополии
моноґамны
моноґамныи
монро
монт
монумент
монґолія
мор
мора
морава
мораване
моравии
моравия
моравы
мораві
морално
моралности
моралность
моралны
моралныи
моралных
мордвинцева
море
мореплавець
мори
морилла
морис
мороз
морозюк
моррис
морска
морске
морсков
морского
морскои
морскы
морскыи
морскых
морфолоґічнов
морфолоґія
морьенн
морьом
морьскых
морю
моря
морями
морях
москва
москвов
москвы
москві
москвѣ
московка
московского
московскои
московском
московскыи
мост
моста
мостом
мосты
мотив
мотивами
мотивох
мотивы
мотор
мох
мохом
моху
моц
моцарт
моци
моцно
моцныи
моцнѣи
моцов
мочарях
мочарі
мощи
моя
моі
мраморным
мркос
мс
му
мудрого
мудрости
мудрость
муезин
муезина
муж
мужа
мужом
мужох
мужскыи
мужѣ
муза
музеи
музеолог
музею
музея
музеях
музеі
музика
музикалныи
музикант
музиканта
музиканты
музиков
музику
музикы
музиці
музицѣ
музична
музичне
музично
музичного
музичнои
музичном
музичну
музичны
музичныи
музичных
музыкальная
музыкальныи
музыки
мук
мукачева
мукачево
мукачевскои
мукачеві
мукачова
мукачово
мукачовом
мукачовска
мукачовского
мукачовскои
мукачовском
мукачовску
мукачовскыи
мукачовскым
мукачові
мукачовѣ
мукачівськии
мукы
мулаты
мултимедии
мултімедіалны
мункачовскі
мур
мура
мурании
мурания
мураніи
мурильо
мурована
муровану
мурованы
мурованыи
муром
мурох
муры
мурянка
мурянкы
мурянок
мусаи
мусив
мусить
муссолини
мустафа
мусять
мусі
мусѣв
мусѣла
мусѣли
муха
мученик
мученикох
мученици
мучонь
мушинка
мушкы
мфа
мці
мы
мыса
мысли
мыслитель
мысль
мыслі
мыто
мыши
мышы
мышь
мэсбе
мюллер
мюнхаузен
мюнхаузена
мюнхенска
мюнхенскои
мя
мягко
мягкым
мягкыма
мянма
мяса
мясо
мі
міг
міджі
міджівои
міджілабірцях
міджілабірці
міджінародна
міджінародного
міджінароднои
міджінародныи
міджііншым
мідонікеле
між
міжгірськии
міжнародноі
мікеланджело
міклош
міклошевцах
мікулаш
мікі
міл
мілан
мільи
міліон
міліона
міліонами
міліонув
міліоны
міліонів
мімо
міна
мінералы
мінить
мінск
мінімално
міністер
міністерства
міністерство
міністра
міністром
мір
мірбо
мірно
мірного
мірні
мірнім
міров
мірослав
міру
міры
міряня
мірять
мірі
міскове
міст
міста
містами
містах
містить
містныи
містныма
містных
містнім
місто
містом
містоназывникы
містьска
містьскы
містьскыи
містьскых
місті
місце
місць
місця
місцями
місцях
місці
місяць
місяця
місяцях
місяці
міфологіі
міфом
міхал
міц
міцно
міцныи
міцным
міцні
міґрація
міґрують
міґрує
мѣ
мѣнить
мѣняв
мѣняла
мѣняли
мѣняти
мѣнять
мѣр
мѣра
мѣрно
мѣров
мѣру
мѣры
мѣрянь
мѣряня
мѣрять
мѣряють
мѣрѣ
мѣст
мѣста
мѣстами
мѣстах
мѣстек
мѣстечка
мѣстечко
мѣстечку
мѣстна
мѣстного
мѣстнои
мѣстном
мѣстному
мѣстности
мѣстну
мѣстны
мѣстныи
мѣстным
мѣстныма
мѣстных
мѣсто
мѣстом
мѣстскыи
мѣстѣ
мѣсяцеслов
мѣсяци
мѣсяць
мѣсяцьох
мѣсяця
мѣсяцями
мѣсяцях
мѣсяцѣ
мѣшане
мѣшанков
мѣшанцѣ
мѣшати
мґр
н
на
наберать
набоженскои
набоженскы
набоженскыи
набоженскых
набоженство
набои
набоков
набоя
набрав
набывать
набытя
нава
навернутю
навернутя
навернѣню
навернѣня
навеце
навколо
навов
навонка
навсе
навспак
навч
навчалным
навчальна
навчане
навчаню
навчаня
навчіти
навщивив
навщивити
навщівлять
навщѣвив
навщѣвити
навщѣвовав
навщѣвы
навы
навысше
нагарджуна
нагасаки
нагода
нагодно
нагодов
нагоды
нагодѣ
нагорныи
награвка
наград
награда
наградов
награду
награды
над
надале
наданость
наданя
надзвычаи
надир
надморска
надморскои
надовго
надочну
надписы
надреализм
надреализма
надых
надыхом
надь
наді
надія
надѣев
надѣи
надѣю
назад
назарбаев
назв
назва
назвав
назвала
назвали
назвам
назвами
названа
назване
название
названия
названы
названыи
названя
назвати
назвах
назви
назвов
назву
назвы
назвѣ
назначена
назначены
назначеныи
назначѣня
назор
назрань
называв
называла
называли
называло
называна
называне
называны
называныи
называт
называти
называть
называють
назывка
назывку
назывник
назывникы
назывників
наи
наклад
накладовыи
накладом
наклады
наконець
накупнои
накурто
належав
належала
належали
належало
належать
належить
належно
належности
належность
належны
належныи
належыть
нам
намагать
намагають
намагы
намальовав
нами
намного
намык
намісто
намѣрены
намѣром
намѣсто
нан
нанашка
нанашко
наново
нансен
нансена
нану
наопак
напад
нападами
нападник
нападу
напады
нападѣ
напасти
наперед
наперек
напечатав
напис
написав
написал
написала
написали
написана
написане
написанои
написану
написаны
написаныи
написаных
написати
напиток
наповно
напои
наполеон
наполеона
наполы
напр
направно
направы
наприклад
напримір
напримѣр
напросто
напроти
напротив
напрям
напрямами
напрямити
напрямом
напрямох
напряму
напрямы
напрямі
напрямѣ
напятя
нар
нарабляти
нараз
наразив
нарис
нариси
народ
народа
народам
народами
народження
народженыи
народжіня
народив
народна
народная
народне
народни
народнии
народних
народно
народнов
народного
народнои
народном
народному
народностеи
народности
народностна
народностне
народностно
народностного
народностнои
народностну
народностны
народностных
народность
народноі
народну
народны
народныи
народным
народныма
народных
народні
народнім
народнѣ
народов
народовець
народом
народопросвѣтительнаго
народох
народу
народув
народы
народів
нароком
наростать
наругито
наруковав
нарушѣня
наріча
нас
населе
населена
населених
населения
населення
населеного
населены
населеныи
населеных
населеня
населені
населенія
населяли
населі
насилно
насилства
насилство
наслі
наслѣдком
наслѣдку
наслѣдника
наслѣдно
наслѣдовав
наслѣдства
наслѣдство
наспак
насподі
насправдѣ
настав
наставать
настала
настали
настало
настане
настати
настрои
наступ
наступив
наступила
наступна
наступне
наступник
наступником
наступно
наступного
наступнои
наступны
наступныи
наступным
наступных
наступом
насычены
насі
насѣня
наталия
наталка
наталія
нательо
нато
натогды
натрии
натрия
натурализм
натурализма
натуралиста
натурална
натуры
натурѣ
наук
наука
наукам
науками
науках
науки
науков
наукова
наукове
науковець
науковии
науково
наукового
науковы
науковыи
науковым
науковых
наукові
науку
наукъ
наукы
наукі
наумович
науці
науцѣ
научив
научили
научить
научна
научне
научно
научнов
научного
научное
научнои
научном
научну
научны
научныи
научным
научныма
научных
нафилмованы
нафилмованыи
нафта
нафты
нах
находила
находило
находиме
находит
находити
находить
находят
находять
нац
нации
национализма
националистох
националисты
национална
националне
националного
националнои
националныи
националным
националных
национальная
нацистичнои
націи
націонална
націоналныи
націоналных
національна
національнии
національно
національного
національностеи
національноі
національных
націоналізм
націоналізма
націоналізму
націоналістів
націстічныи
нація
націі
начала
началник
начало
начеркы
начісто
наш
наша
наше
нашеи
наши
наших
нашла
нашли
нашов
нашого
нашои
нашому
нашъ
нашы
нашых
наші
ная
наявного
наятыи
наґіб
нву
не
неба
небарз
небесах
небесна
небесник
небесного
небеснои
небесны
небесныи
небесным
небесных
небо
небом
небраска
нев
невада
невелика
невелике
невеликои
невелику
невеликы
невеликыи
невеликых
невицка
неволю
невтралныи
невтронох
невыразно
невыразныи
негативна
негативно
негативны
него
недавно
недалеко
недзельскии
недзѣльскыи
недзѣльскіи
недожытых
недоста
недостатку
недостаток
недостаточность
неді
недѣли
недѣлю
недѣля
недѣлѣ
нее
неж
независима
независимо
независимов
независимои
независимости
независимость
независимусть
независимы
независимыи
независимых
независлои
независлости
независлость
незадовго
незадовольство
незаконно
незамінительныи
незвычаи
незгоды
незмінны
незмѣнно
незыскова
неи
некласіфікованых
некрасов
некрасова
нелегално
нелем
нелсон
нелѣпинскои
нем
немало
немирів
немногы
неможне
нему
ненависть
ненавість
ненадголошене
ненасычены
необычаи
неодкладно
неодовга
неодовго
неозначеныи
неологизмох
неологизмы
неорганична
неорганичнои
неорганичны
неорганичных
неофициална
непал
непереступныи
неповны
непознатыи
непокои
непорядкы
неправдоподобных
непрерывно
непрестанно
непристои
неприятельох
неприятеля
непрямо
непрямых
нер
нера
нераз
нервова
нервову
нереиды
несе
несистемна
нескорше
несмиянова
несподі
неспокои
нестановлены
нестор
несуглас
несуть
неуспѣшно
нецкарж
нечекано
нещастя
неі
ни
нигда
нигде
нигер
нид
нидерландох
нидерландскии
нидерландского
нидерланды
нидерле
ниже
нижне
нижнии
нижном
нижныи
нижных
нижньоверецкыи
нижньои
нижньом
нижня
нижнє
нижні
низина
низинах
низины
низинѣ
низко
низкы
низкыи
низкых
низша
низше
низшов
низшого
низшои
низшу
низшы
низшыи
низшых
нии
ник
ника
никарагуа
никеи
никита
никиты
никифор
никифора
никола
николаевич
николаи
николая
николоз
николоза
николюкин
ником
никому
никто
нил
нила
ним
нима
ними
нимфа
нимфы
нитка
них
ници
ницше
нич
нияк
ниякого
нияку
ниякы
ниякых
ниґда
нка
нкао
нквд
нкп
нм
нн
нныи
нных
но
нобела
нобелов
нобелова
нобеловои
нобеловоі
нобелову
нобеловых
нобелівскои
нов
нова
новак
новая
новгород
нове
новел
новела
новелы
новембер
новембра
новембрі
новембрѣ
нови
новии
новим
новин
новинар
новинарска
новинарскои
новинарску
новинарства
новинарство
новинарь
новинарька
новинарьох
новинаря
новини
новинка
новинках
новинку
новинкы
новинок
новинох
новинцѣ
новины
нович
ново
новов
нововѣку
нового
новодобыи
новои
новом
новому
новороссии
новоселици
новоселиця
новоселицѣ
новосибирск
новосибирска
новосибирскои
новоствореного
новостворенои
новотного
новотов
новоты
нову
новшои
новшы
новшых
новы
новыи
новым
новыма
новых
нові
новіи
новім
новѣи
ног
ногами
ногах
ного
ногы
нодь
нознавства
нои
ном
номенклатура
номер
номовнии
ному
номінатів
нор
норв
норвегии
норвегия
норвежскыи
норм
норма
нормализации
нормализация
нормална
нормалнои
нормалныи
нормалных
нормам
нормами
нормандия
нормане
нормы
норьска
норьско
носа
носив
носили
носитель
носителями
носителі
носити
носить
носовым
ностер
ности
нострадамус
нострадамуса
ность
носять
нотами
нотарскыи
нотарь
нотаря
ноти
ночи
ночныи
ночь
ночі
ноша
ноши
ноября
ноі
нпк
нрих
нски
нскі
нспу
нська
нське
нськии
нських
нсько
нського
нськои
нськоі
нські
нт
нтинга
нтш
ну
нужда
нуклеовы
нуклеовых
нуклеотидох
нумидии
нумидия
нур
нурсултан
нушател
нцив
нцох
нці
нців
нштаи
ны
ныи
ным
ныма
ныні
нынѣ
нынѣшнои
ных
нь
ньемцова
ньемцовои
ньов
нього
ньом
ньому
ньска
ньске
ньско
ньского
ньскои
ньскы
ньскыи
ньскых
ньскіи
ньскім
нью
ню
нюи
ня
няи
няк
ням
нями
няради
нях
няґова
нє
нєшка
ні
ніг
ніи
нік
ніл
нім
німецька
німруд
нініве
ніч
нѣ
нѣи
нѣм
нѣмецка
нѣмецке
нѣмецко
нѣмецков
нѣмецкого
нѣмецкои
нѣмецком
нѣмецкому
нѣмецкоязычныи
нѣмецку
нѣмецкы
нѣмецкыи
нѣмецкым
нѣмецкыма
нѣмецкых
нѣмець
нѣмцьох
нѣмцями
нѣмцѣ
нѣредьгаза
нѣт
нѣтра
нѣтры
нѣтрянского
о
оаким
оан
оана
оанн
оанна
оао
об
оба
обава
обадва
обал
обвинена
обвинены
обвиненыи
обвинили
обводу
обвыкло
обгаив
оберндорфу
обернув
обернута
обернути
обертаня
обертать
обертонів
обидва
обидвоми
обидвох
обидві
обколесує
обком
обл
обладунку
обладунок
облак
обласна
обласноі
областеи
области
областна
областного
областнои
областном
областному
областныи
областных
область
областями
областях
області
облечѣня
облікова
обмеженими
обнимать
обновив
обновила
обновили
обновило
обновитель
обновити
обновлена
обновлене
обновлены
обновленыи
обновлі
обновлѣню
обновлѣня
обое
обоми
обомі
оборона
оборонець
оборону
обороны
оборонѣ
оборот
обох
образ
образа
образах
образкы
образование
образования
образованю
образованя
образованія
образом
образотворче
образотворчого
образох
образчікы
образы
образѣ
обробка
обробкы
оброда
обродженецькыи
оброды
обряд
обряда
обрядах
обрядох
обряду
обряды
обряді
обрядѣ
обсадили
обсерватории
обсерватория
обсерваторія
обско
обстои
обстоянь
обстояня
обстоянях
обсяг
обсяговав
обсяговала
обсяговати
обсягом
обсягу
обсягуе
обсягують
обсягуючы
обсягуючыи
обсягує
обтримав
обув
обувныи
обходу
обчас
обща
обще
общеобластного
общества
общественно
общественныи
общественным
общество
обществом
обществу
обществі
обществѣ
общин
община
общинах
общины
общинѣ
общов
общого
общои
общу
общы
общыи
общым
общых
общі
общіи
общіны
объеднаня
объект
объекта
объектами
объективно
объективныи
объектом
объектох
объекты
объем
объявив
объявила
объявили
объявитель
объявлена
объявлене
объявлѣнь
объявлѣня
объяснять
объяснѣня
обы
обываного
обываных
обывателе
обывателеи
обыватели
обыватель
обывательох
обывательства
обывательство
обывательством
обывателя
обывателям
обывателями
обывателі
обывателів
обывателѣ
обывать
обывають
обыи
обыстя
обычаи
обычно
обь
обявив
обявила
обявили
обявитель
обявленыи
обявують
обявує
обявы
обєкт
обєктом
обєкту
обєкты
обєктів
обєм
обєму
обі
обѣ
обѣцяв
ов
ова
овав
овала
овали
ованы
ованыи
ованых
ованя
овати
овген
овеле
овельо
овець
ови
овицях
ович
овник
ово
ового
овои
овоцина
овоцинарство
овоцины
овоча
овпливнив
овплывненыи
овсиенко
овска
овскои
овскы
овсянковых
овтмен
ову
овцѣ
овы
овыи
овых
овѣ
огаи
оганн
огансен
огень
оглядом
огляду
огниска
огнутыи
огня
ого
оголосив
огпу
ограничать
ограничена
ограниченои
ограничены
ограниченыи
ограничити
ограничѣня
ограніченыи
огрожены
од
ода
одбитя
одборных
одбыв
одбывав
одбывала
одбывали
одбывать
одбывають
одбыла
одбыли
одбыло
одбытю
одведены
одвергла
одвергне
одводить
одгадуе
оддав
оддавав
оддавать
оддавна
оддала
оддалена
оддалене
оддаленостеи
оддалености
оддаленость
оддалены
оддаленыи
оддаленых
оддали
оддалѣню
оддалѣня
оддана
одданыи
оддати
одді
оддѣи
оддѣл
оддѣла
оддѣлена
оддѣлены
оддѣлу
оддѣлы
оддѣлять
оддѣлѣня
одеса
одзнаков
один
одисея
одказ
одказав
одказами
одказати
одказуючу
одкаль
одколи
одкрыв
одкрыты
одкрытых
одкрытя
одкрытіи
одкы
одличуе
одличують
одлога
одлі
одмѣтаня
одмѣтуе
одна
одне
однесены
одним
одного
однои
односили
односиме
односин
односинах
односины
односити
односить
односно
односять
одношінь
одношіня
одношѣнь
одношѣню
одношѣня
однята
одняты
одокремлѣня
одповідать
одповідаючу
одповідно
одповідь
одповѣв
одповѣдав
одповѣдала
одповѣдали
одповѣдало
одповѣдати
одповѣдать
одповѣдають
одповѣдаючу
одповѣдно
одповѣднои
одповѣдности
одповѣдных
одповѣдь
одпор
одпором
одпору
одпуст
одра
одрі
одрізняти
одрізнять
одрізняють
одслужив
одстоить
одстояню
одстояня
одстранена
одстраненыи
одстранив
одстранити
одстранѣня
одступити
одтам
одтеперь
одтогды
одты
одход
одхода
одходить
одходѣ
одхылѣня
одчитане
одчитано
одыи
одышла
одышли
одышло
одышов
ож
оженив
ожеф
оз
озброены
озер
озера
озерах
озеро
озером
озерѣ
озеф
озефа
озефом
озн
ознак
ознаками
ознаком
ознаків
ознамили
ознатель
означав
означала
означало
означати
означать
означають
означає
означена
означеного
означены
означеныи
означив
означили
означовав
означовала
означовали
означовало
означована
означоване
означованы
означованыи
означованых
означовати
означуе
означують
означуючіи
означує
означуєме
означіли
означіня
означѣню
означѣня
озывать
озывають
ои
ок
ока
окато
океан
океана
океанами
океанографии
океаном
океанскых
океану
океані
океаніі
океанѣ
оккупации
окна
окно
око
околици
околицю
околиця
околиці
околицѣ
околичны
околичных
около
околі
околіцю
околіця
околіці
оком
окрае
окракок
окрем
окрема
окреме
окремих
окремо
окремов
окремого
окремои
окрему
окремы
окремыи
окремым
окремыма
окремых
окрес
окреса
окресах
окреслѣня
окресне
окресного
окресу
окресы
окресі
окресѣ
окрещеныи
округ
округа
округах
округох
округу
округы
окружного
окружныи
окружѣню
окружѣня
окрузѣ
окрім
оксана
оксиген
оксигена
октав
октавиан
октобер
октобра
октоброва
октобровои
октобру
октобрѣ
октовбра
октября
окупациев
окупации
окупациов
окупацию
окупация
окупація
окупаціі
окупачнои
окупачны
окуповали
окуповало
окупована
окупованыи
олаи
олана
олаф
олашин
олаю
олбрахт
олга
олдридж
олег
олекса
олександр
олексіи
олена
олив
олива
оливкы
оливово
оливовыи
олимп
олимпии
олимпия
олкок
олма
олтарь
ольга
ольшавского
ольшавськыи
олімпіи
олѣи
ом
оман
омного
ому
омывать
он
она
онами
онатан
онах
ондава
ондавы
они
онлаи
онна
онного
оннои
онныи
онных
оно
онов
онова
онок
оном
онох
онтарио
онтихыи
онтогенеза
ону
онуфріи
оны
онь
оні
онів
онѣ
оо
оон
ооо
опады
опат
опеи
опера
операть
операции
операцию
операция
операціи
операцію
операціі
операчна
оперед
оперета
опереты
оперныи
оперы
опис
описав
описана
описание
описаны
описаныи
описаных
описати
описом
описох
опису
описуе
описує
описы
оповідання
оповідань
оповіданя
оповѣданя
опозиции
опозиция
опонентох
оправа
оправити
оправлене
опроти
оптации
оптация
опубликовав
опубликовала
опубликовали
опубликована
опубликованы
опубликованыи
опустив
опущать
опущають
опущены
опущеных
опции
опірены
опірі
ор
ора
орава
оравска
оравского
оравскои
оравскыи
оравы
ораницѣ
ораторске
орбит
орбитах
орбиту
орбиты
орг
орган
органа
органам
органами
органах
органелы
организатор
организаторка
организатором
организаторох
организациев
организации
организациов
организацию
организация
организациями
организациях
организм
организма
организмох
организму
организмы
организмѣ
организовав
организовала
организована
организоване
организованыи
органиста
органисты
органична
органичны
органичных
органов
органом
органох
органы
організаціи
організація
організаціі
органічна
органічноі
органѣ
оргус
орд
орда
ордану
орден
ордена
орденом
орденох
ордох
орды
орел
орест
ореста
оригиналного
оригиналнои
ориентации
ориентацию
ориентация
ориентована
ориентованы
ориентованыи
орк
орка
оркестра
оркскыи
орку
орлаи
орлеанска
орлеанскои
орлевич
орлов
орос
орт
оружия
орьентации
орьєнтаціі
орябина
орі
оріґінално
оріґіналны
оріґіналныи
орґан
орґанелы
орґаны
орґанів
орґанізатор
орґанізатором
орґанізаціи
орґанізацію
орґанізація
орґанізаціями
орґанізаціі
орґанізм
орґанізму
орґанізмы
орґанізмів
орґанізоване
орґанізовати
орґанізує
орґанічных
ос
осад
осада
осаджена
осадили
осадници
осадов
осаду
осады
освоеня
освоив
освоѣня
освятили
освячена
освяченыи
освіта
освіти
освітитель
освіту
освіты
освѣту
освѣты
оселив
оселили
осени
осень
осередок
осетия
оси
осип
осипа
осипович
осиф
осифа
осифом
оскар
оскільки
ослави
ославы
осло
ослободжіня
османами
османох
османска
османсков
османскои
османы
османьска
османьскои
осн
основ
основа
основав
основала
основали
основана
основане
основанои
основаны
основаныи
основаных
основаню
основаня
основатель
основательох
основателя
основателі
основати
основи
основна
основне
основнеи
основнов
основного
основнои
основну
основны
основныи
основным
основныма
основных
основні
основніи
основов
основу
основы
основі
основѣ
особ
особа
особам
особами
особенно
особи
особливо
особна
особне
особного
особнои
особности
особность
особну
особны
особныи
особных
особов
особу
особы
особыи
особісто
особѣ
осои
осоі
оставать
остал
остало
останкы
остаткы
остатне
остатні
остаток
остаточне
остаточно
остаточного
остра
острава
остро
остров
острова
островами
островах
островна
островныи
островом
островох
островы
острові
островів
островѣ
острои
остру
остры
острыи
острым
острыма
острѣи
осыпок
ось
осьов
осі
осіб
от
ота
отан
отварять
отворена
отворене
отворено
отвореного
отворены
отвореныи
отвореным
отвореных
отворив
отворила
отворили
отворило
отворѣню
отворѣня
отець
отечества
отношении
ото
отримав
отто
отцьом
отцьох
отцю
отцюзнина
отцюзнинов
отцюзнину
отцюзнины
отця
отче
отчизны
оун
оф
офарблѣня
офицер
офицерох
официална
официалне
официално
официалнов
официалного
официалнои
официалну
официалны
официалныи
официалным
официалных
официальныи
оформлювач
оффенбах
офіціална
офіціално
офіціалнов
офіціалны
офіціалныи
офіціалным
офіціалных
офіціальна
офіціи
ох
охабив
охворѣня
охрана
охранитель
охранити
охранны
охранов
охрану
охранця
охраны
охранѣ
оці
оціненыи
оцѣнена
оцѣнити
оцѣнѣня
оч
очами
очах
очевидно
очерк
очерки
очеркъ
очеркь
очи
очима
очі
очівісно
ош
ошколованя
оґірко
п
па
пабло
павел
павла
павленко
павлик
павлинов
павло
павлович
павловича
павловіч
павловіча
павлом
павлюк
павліч
павол
павук
павуками
павукы
павуків
пагиря
пад
падать
паде
паду
падуа
падуи
падяк
падяка
падів
падѣ
пазмань
пазманя
пазурами
пазуры
пак
пакистан
пакт
пакта
пакту
пакы
пакістан
пал
палаты
палац
палеолита
палива
палиця
палкович
палковича
паломникох
паломництва
паломництво
палубѣ
палці
пам
памфлет
памяти
памятка
памятков
памяткы
памятна
памятник
памятника
памятниками
памятникох
памятникы
памятну
памяток
память
памяті
пан
пана
панама
пандемія
панковича
паннонии
паннонию
паннония
пановав
пановала
пановали
панованьом
панованя
пановник
пановника
пановниками
пановником
пановникох
пановницьов
пановниця
паном
панорама
панславизм
панславизма
панства
панство
панству
пантеизм
панує
панщарьох
панькевич
панькевича
панько
папа
папгаргаі
папом
папска
папского
папскои
папскыи
папу
папы
папѣрь
папѣрьовыи
пар
пара
парабола
параболы
парадигма
парадигмы
парадичкы
паралелна
паралелно
паралелности
паралелных
параметрами
параметры
параскєвы
парах
параґваи
париж
парижа
парижом
парижскои
парижску
парижу
парк
парка
паркании
парках
парку
паркы
парлаг
парламент
парламента
парламентом
парламентське
парламенту
парламентѣ
парник
пародія
парох
пароха
парохиалнои
парохии
парохию
парохия
парохиях
парохом
парт
партиев
партизанох
партизанске
партизанскои
партизаны
партии
партию
партия
партиями
партнеры
партіалу
партіалів
партіи
партію
партія
партіі
пару
пары
парів
паріж
паріжі
парѣ
пас
паса
пасажерами
пасажерох
пасажеры
пасем
пасма
пасмо
пасмом
пасмі
пасмѣ
пасовисках
паствиска
пастелии
пастелия
пастеліи
пастер
пастырь
пасі
пасѣка
патент
патер
патон
патриарх
патриарха
патриот
патриотизма
патриотом
патриции
патриция
патрициями
патрона
патроним
патрус
патрушев
патріарх
патріотізм
пауерс
паул
паустовскыи
пах
пацеркы
пгд
пгдр
пе
певна
певне
певнины
певно
певны
певныи
певных
педагог
педагогика
педагогикы
педагогическая
педагогична
педагогичного
педагогичнои
педагогичном
педагогичну
педагогичны
педагогичныи
педагогичных
педагогом
педагогох
педагогы
педагогічна
педагогічноі
педалы
педаґоґ
педаґоґічніи
пеи
пекарню
пекінґ
пелопонеза
пелтон
пелтонова
пелтоновы
пелікан
пен
пензии
пензионовав
пензионованыи
пензиста
пензию
пензиі
пеницилин
пеницилину
пенсилвания
пер
перва
первая
перве
первов
первого
первои
первом
первомаи
первородныи
перву
первы
первыи
первым
первыма
первых
перебрав
перебрала
перебрали
перебрана
перебрати
перебыв
перебывав
перебываня
перебывать
перебывають
перевагов
перевагу
переважали
переважать
переважають
переважна
переважно
переважну
переважує
перевела
перевод
перевоз
переворот
переворота
переворотѣ
перевыданыи
перевыданя
перевысшать
перевышує
перевіреныи
переговоры
перед
передав
передавати
передавать
передала
передали
передана
переданы
переданыи
переданя
передати
передача
передачи
передачу
передачі
передають
передне
передня
передні
передо
передовшиткым
передовшыткым
передпослѣдныи
передслово
передтым
передчасно
переже
пережив
переживала
пережила
пережили
пережывали
пережываня
переи
переказы
переклав
переклад
перекладав
перекладами
перекладатель
перекладах
перекладена
перекладены
перекладом
перекладох
перекладу
переклады
перекладі
перекладѣ
перелет
переливаню
переливаня
переложіня
переломі
переломѣ
перелі
перелік
переменована
перемочи
перемышль
перемышлю
перемышля
перемѣн
перемѣна
перемѣнах
перемѣнив
перемѣнили
перемѣнило
перемѣну
перемѣны
перемѣщеныи
перенаслі
перенесена
перенесены
перенесеныи
перенесла
перенесли
перенос
переносить
переносять
переношаня
переношать
перепис
переписи
перепису
перервала
переробка
пересвѣдчити
пересвѣдчѣня
переселены
переселив
переселила
переселили
переселяли
переселѣню
перескочити
перестав
перестала
перестали
перестати
переступныи
переступнім
перетворена
перетвореныи
перетворив
перетворила
перетворити
перетворѣня
перетинать
перетину
переход
перехода
переходили
переходити
переходить
переходна
переходныи
переходу
переходы
переходять
переходѣ
перечин
перечина
перечинском
перечинскому
перечинскыи
перечинськии
перечинѣ
перешла
перешли
перешло
перешов
перигелии
период
периода
периодиках
периодикох
периодикы
периодично
периодичнои
периодичных
периодом
периоду
периоды
периодѣ
персии
персона
персонал
персонално
персоналны
персоналных
перспектівы
перст
перстами
персты
перу
перфецкыи
перша
перше
перши
першим
перших
першов
першого
першои
першоі
першу
першы
першыи
першым
першыраз
першых
перші
першіи
першім
перьского
перьскои
період
періода
періодом
періоду
періоді
періодічнои
пес
песни
пестициды
пестованя
пестре
пестро
петер
петера
петербург
петербурга
петербургскии
петербургскои
петербургу
петербурґ
петефи
петр
петра
петро
петров
петрович
петровскии
петровцах
петровци
петровціи
петроград
петрограду
петром
петрос
петру
петрушина
печатаня
печатати
печатни
печатных
печатню
печатня
печатнѣ
печать
пече
пешков
пешт
пеґаса
пи
пиаристы
пии
пико
пила
пилигрим
пилот
пилотованыи
пиля
пионер
пират
писав
писала
писали
писана
писанои
писаны
писаныи
писаных
писаню
писаня
писателе
писателеи
писатели
писатель
писателька
писательков
писателькы
писательом
писательох
писательства
писателя
писателями
писателі
писателѣ
писати
писемных
писемства
писемство
писма
писмо
писмі
писні
писомно
писомны
писочник
писочника
письма
письменник
письменники
письменників
письменность
письмо
питання
питер
пити
питнои
питтсбург
питтсбургу
питя
пише
пишуть
плаваня
плаварнѣ
плавати
плавба
плавбу
плавбы
плазма
плазмы
плазы
план
плана
планах
планет
планета
планетка
планеткы
планеток
планету
планеты
планеті
плано
плановали
планованя
плану
планы
платили
платити
платить
платности
платность
платных
платню
платня
платнѣ
плато
платон
платона
платонов
платонова
платформа
платформы
плач
плачены
плаченыи
плащ
плаща
плебеи
плебисцит
плебса
плеканя
племен
племена
племенами
племени
племя
плзень
плиска
плит
плиты
плк
пловаи
плод
плодами
плоду
плоды
плодів
плосі
плосѣ
плох
плоха
плохах
плохов
плоху
плохы
плус
плыткых
плюц
плі
пм
пневматикы
пнс
по
побережа
побережах
побережу
побрав
побрала
побрали
побраня
побывав
побыту
побѣда
побѣдницями
побѣду
побѣдѣ
поважовав
поважовала
поважовали
поважовало
поважована
поважованы
поважованыи
поважовати
поважуе
поважують
поважуючи
повдруга
повело
повенеи
поверх
поверха
поверхню
поверху
поверьх
поверьхне
поверьхню
поверьхні
поверьху
повести
повжывать
повив
повинен
повинна
повинне
повинностеи
повинности
повинность
повинностьов
повинну
повинны
повинныи
повинным
повна
повне
повнив
повно
повнов
повного
повнозначных
повнои
повном
повности
повну
повны
повныи
повным
повных
повнѣи
поводу
поводя
повоенного
повоенны
повои
поволаныи
повстали
повстаня
повторно
повышеныи
повязане
повязаности
повязаны
повязаня
повів
повіданя
повідать
повіджено
повідомлі
повісти
повісті
повіт
повѣв
повѣдань
повѣданя
повѣданями
повѣданях
повѣдать
повѣдка
повѣдкы
повѣнь
повѣреныи
повѣстеи
повѣсти
повѣсть
повѣт
повѣту
повѣты
повѣтѣ
поганка
погар
поглавеи
поглавно
поглавя
погляд
поглядами
поглядах
поглядом
поглядох
погляду
погляды
погляді
поглядів
погон
погранича
погранична
пограничнов
пограничного
пограничнои
пограничныи
пограничных
пограничу
погреб
погребена
погребены
погребеныи
погребѣ
погребѣня
под
подав
подавати
подавать
подагде
подала
подали
подана
поданы
поданыи
поданя
подарило
подаровав
подати
податка
податкы
подаци
подають
подвіи
подгородѣ
подданства
подданство
подданых
подемщина
подземных
подк
подкарпаторусскаго
подкарпатска
подкарпатская
подкарпатске
подкарпатских
подкарпатскихъ
подкарпатсков
подкарпатского
подкарпатское
подкарпатскои
подкарпатском
подкарпатскоѣ
подкарпатску
подкарпатскы
подкарпатскыи
подкарпатскым
подкарпатскыма
подкарпатскых
подкарпатська
подкарпатю
подкарпатя
подля
подножу
подняв
подняла
поднятя
подоба
подобать
подобають
подобна
подобне
подобно
подобнов
подобного
подобнои
подобности
подобность
подобну
подобны
подобныи
подобным
подобных
подобу
подобы
подобі
подобѣ
подольскыи
подоліі
подписав
подписала
подписали
подписана
подписаныи
подписаню
подписаня
подписати
подписуе
подпоровав
подпорователь
подпоровати
подпору
подробно
подробности
подробнѣи
подряджене
подряджены
подрядженыи
подряджѣня
подрядити
подсвѣдомости
подставовых
подступім
подсябитя
подтримав
подтримку
подтримовав
подтримовала
подтримовали
подузятник
поді
подѣи
подѣлена
подѣленыи
подѣя
подѣями
подѣях
поезиев
поезии
поезиов
поезию
поезия
поезиі
поезіи
поезію
поезія
поезіі
поема
поему
поемы
поемѣ
поет
поета
поетеса
поети
поетика
поетику
поетична
поетичнои
поетичну
поетичны
поетка
поетом
поетох
поеты
поетів
пожадав
пожаданя
пожадуе
пожар
пожары
поживу
поживы
пожоню
поз
поза
позад
позберав
позваныи
позваня
позднѣи
поздовж
позитивно
позитивну
позитивны
позитивныи
позиции
позицию
позиция
позициях
познавали
познаню
познаня
позната
познате
познати
познатого
познатои
познаты
познатыи
познатым
познатых
познатѣи
позначат
позначать
позначення
позначены
позоровань
позорованя
позорователя
позоровати
позосталы
позостаткы
позіцію
позіція
позіціі
пои
поименованя
покаль
покараня
поклав
покладеныи
покладці
поклала
поклали
покласти
покликав
покликаныи
покля
покои
поколіня
покорив
покою
покраі
покровитель
покровскии
покровы
покрывать
покрыта
покрыты
покрытыи
покуртано
покы
покіи
пол
пола
поларна
поларізація
поле
полемикы
поли
поливка
поливкы
полиграфия
полиса
полисох
политик
политика
политики
политиков
политиком
политику
политикы
политицѣ
политична
политичне
политично
политичнов
политичного
политичнои
политичном
политичну
политичны
политичныи
политичным
политичныма
политичных
политологии
политология
полицаи
полициев
полиции
полиция
поличка
полк
полка
полковник
полку
половина
половину
половины
половині
половка
половку
половкы
половцѣ
полога
пологах
пологу
пологы
положена
положене
положены
положеныи
положеных
положыв
положѣню
положѣня
полонин
полонина
полонины
полотна
полотно
полоченскыи
полтава
полтавска
полу
полудне
полуостров
полуострова
полуостровѣ
полуось
полы
поль
польом
польска
польске
польскии
польско
польсков
польского
польскои
польском
польскому
польску
польскы
польскыи
польскым
польскых
польскіи
польського
польща
польщи
польщов
польщу
польщы
польщі
польщѣ
полю
поля
поляками
полякох
поляна
полянка
полянскыи
полянська
поляны
полянѣ
полях
поляци
полі
поліморфізм
поліпрінт
політика
політиці
політична
політичныи
політичных
політік
політіка
політіку
політікы
політічна
політічно
політічного
політічнои
політічныи
політічным
політічных
політічніи
помагав
помагать
помагають
помазаня
помаленькы
помалы
помаранчово
помаранчовыи
помник
помог
помогав
помогла
помогли
помогло
поможе
поможте
помоч
помочи
помочник
помочником
помочны
помочныи
помочным
помочов
помочь
помочі
помпеи
помягку
помяник
поміч
пон
понад
понграц
понеді
понеже
пониже
пониження
пономарів
понукать
понукнув
понуку
поняте
понятии
понятия
понять
понятьом
понятю
понятя
понятями
поокреме
поп
попа
попередник
попередника
попередных
попиля
попис
пописаныи
пописує
поплести
поплетьте
попович
поповича
поправдѣ
попрад
попрада
попрадов
попрадова
попри
попробовав
попросив
популаризатор
популарна
популарне
популарнов
популарнои
популарности
популарность
популарну
популарны
популарныи
популарным
популарных
популарнѣи
популации
популация
популаціи
популація
популаціі
популярная
попід
пор
поражены
поражку
поражцѣ
поразило
пореволучного
пореволучнои
поровнаню
поровнаня
поровнателного
поровнати
породѣ
порожні
порозуміти
порозумѣня
поростами
поростах
поростом
поросты
порох
порошково
порт
портал
портрет
портретох
портреты
портретів
португалии
португалия
портуґальскыи
портуґалія
портуґаліі
порухы
поручника
порядка
порядком
порядку
порядок
порівнаню
посвяты
посвячена
поселеня
посередництвом
послав
послала
послали
посланець
посланцьом
посланця
посланцями
посланы
посланыи
посланя
после
пословицѣ
послі
послѣдна
послѣдне
послѣдного
послѣднои
послѣдну
послѣдны
послѣдныи
послѣдным
послѣдных
послѣдня
послѣдовность
посмертно
посмоть
посмотьте
пособить
посолскыи
посолство
поспелов
посполита
посполитои
пост
поста
постав
постава
поставами
поставив
поставили
поставити
поставлена
поставлены
поставленыи
поставлі
поставлѣня
поставов
поставу
поставы
постанова
постановив
постарав
постаті
постах
постелене
постели
посту
постулат
поступ
поступами
поступно
поступного
поступность
поступованя
поступом
поступы
посты
посылав
посіб
посібник
потверджѣня
потвердив
потвердили
потенциал
потенциала
потерпѣв
потим
потовмачив
поток
потока
потоком
потоку
потокы
потом
потомками
потомкох
потомкы
потомство
потому
потопа
потравин
потравинарство
потравиновыи
потравины
потреб
потреба
потребна
потребне
потребну
потребны
потребныи
потребных
потребовав
потребовала
потребовали
потребу
потребуе
потребують
потребує
потребы
потребѣ
потрібны
потсдамска
потушняк
потушняка
потяг
потягы
поті
потік
потім
поужив
поуживав
поуживали
поуживана
поуживаны
поуживаныи
поуживаня
поуживати
поуживать
поуживають
поужити
поужитя
поужывать
похвалов
похворѣв
поховани
похованыи
поход
походжіня
походжѣньом
походжѣню
походжѣня
походив
походила
походили
походит
походити
походить
походы
походять
походѣ
почав
почала
почас
початком
початку
початкы
початок
почестныи
почитаня
почливость
почти
почутя
поширеныи
пошкоджена
пошла
пошли
пошов
пошта
поштова
поштовои
поштову
поштовыи
поштовых
пошту
пошты
пошыре
пошырив
пощастило
поэзия
поэт
появив
появила
появили
появило
появляли
появляти
появлять
появляють
появы
пояснити
поі
пп
пр
пра
прав
права
правами
правах
правда
правдиве
правдиво
правдивы
правдивыи
правдов
правдоподобно
правду
правды
правил
правила
правилами
правилах
правилно
правило
правителеи
правительства
правительство
правити
правна
правник
правника
правником
правничои
правничу
правного
правнои
правну
правны
правныи
правным
правных
право
правобережна
правов
правого
правом
правопис
правописа
правописом
правопису
правописѣ
православие
православии
православия
православна
православная
православно
православнов
православного
православнои
православну
православны
православныи
православным
православных
правы
правыи
правым
праві
правѣ
правѣк
прага
прагу
прагы
пражска
пражского
пражскои
пражском
пражскыи
праздник
празі
празѣ
праксі
практик
практика
практикована
практику
практикы
практицѣ
практична
практично
практичнои
практичны
практікы
практічне
практічно
прамінить
прапор
прапора
праци
працовав
працовала
працовати
працовник
працовникох
працовници
працовничка
працовного
працовны
працовныи
працовных
працу
працуе
працують
працуючи
працуючых
працує
працы
праці
пре
преграда
преграды
пред
предаторів
предка
предкох
предкы
предків
предмет
предмета
предметами
предметах
предметом
предметох
предмету
предметы
предметів
предок
предписы
предпокладать
председа
председом
представ
представа
представив
представителе
представитель
представительом
представительох
представительство
представителя
представителями
представителі
представителѣ
представити
представлена
представлены
представленыи
представлює
представляв
представляла
представляли
представлять
представляють
представлѣня
представу
представы
предсѣдатель
предсѣдательом
предсѣдателя
предсѣдник
предсѣдника
предсѣдником
през
президент
президента
президентови
президентом
президентства
президенты
президии
президіі
презідент
презідента
презідентом
преи
прекмурю
прекрасна
прекрасныи
прелат
према
премии
премиов
премия
премудрости
премьер
премьера
премєр
премєра
преміе
премію
премія
преміі
преподавав
преподаватель
преподавателя
преподавать
прес
преса
пресвятои
преслі
преслѣдованя
пресс
престол
престола
престолонаслѣдника
пресы
пресѣ
претекстом
претензии
префектуры
преференции
преферує
префикс
префикса
префиксох
префиксы
префікс
прешпорку
прешпурку
при
приам
приама
прибережного
прибережны
прибережных
приближно
приближѣня
приблизно
прибыли
приватна
приватно
приватного
приватнои
приватну
приватны
приватныи
приватных
приведе
привезли
привела
привели
привело
привести
привив
привилегии
приводить
привюг
пригод
пригодах
пригоды
приголосив
приготовив
приготовити
приготовленыи
приготовлѣню
приготовлѣня
придав
придавникы
придумав
придых
придѣлена
придѣленыи
придѣлять
придѣлѣня
призвиска
призвиско
призвиском
признав
признавана
признаваныи
признавать
признакы
признала
признали
признана
признаныи
признати
призначны
прии
приимати
приимать
приклад
прикладом
приклады
прикладів
прикра
прилеглы
прилеглых
приложѣня
прилучена
прилучив
прилучила
прилучили
прилучити
прилучѣню
прилучѣня
прилі
приміром
приміры
примѣр
примѣрами
примѣрно
примѣром
примѣры
примѣрѣ
приназывникы
приналежности
приналежность
принес
принесла
принесли
принесло
принимав
принимати
принимать
принимають
принос
приносить
приносять
принца
принцезна
принцип
принципа
принципат
принципах
принципох
принципы
принципѣ
принюс
приняв
приняла
принята
приняте
приняти
принято
принятыи
принятя
припад
припадать
припадах
припадно
припадност
припадности
припадох
припады
припаді
припадів
припадѣ
припала
приповедки
приповідкы
приповідок
приповѣдкарь
припоены
припоминать
припоминають
припоєне
припоі
припять
природа
природи
природна
природне
природник
природно
природнов
природного
природнои
природну
природны
природныи
природным
природныма
природных
природні
природопис
природу
природы
природі
природѣ
приручка
присвои
приселку
присловникы
прислужив
приспособити
приспособленыи
приспів
приспѣв
приспѣла
приспѣло
пристав
пристава
приставаня
приставу
приставы
пристала
пристали
пристати
пристрои
приступ
приступа
присяга
присягу
притиск
приток
притока
притоками
притоках
притоком
притоку
притокы
притомности
притомность
притулок
приті
притім
приход
прихода
приходили
приходить
приходом
приходять
приходѣ
прихылник
прихылникох
причин
причина
причинов
причину
причины
причленила
причім
причіны
пришла
пришли
пришло
пришов
прияв
приявши
прияла
прияли
прияло
прията
приятель
приятельох
приятельства
приятеля
прияти
прияты
приятыи
приятых
приятя
приі
про
проб
проба
пробам
проблем
проблема
проблемами
проблемах
проблеми
проблемов
проблемом
проблему
проблемы
проблемів
пробовав
пробовала
пробовали
пробовати
пробу
пробуджѣня
пробуе
пробує
пробы
пробѣ
провадив
провадили
провадить
проваи
прованс
проведена
провинциев
провинции
провинцию
провинция
проводна
проводом
провінція
провінціі
прогимназии
прогимназия
проголосив
проголосовали
програм
програма
программ
программа
программы
програмов
програму
програмы
програмѣ
програнои
прогресо
прогресс
продавали
продаванѣи
продавати
продавать
продаж
продажу
продали
продало
продан
продержала
продовжав
продовжала
продовжать
продовжена
продовжены
продовжив
продовжила
продовжили
продовжити
продовжовав
продовжовали
продовжовати
продовжують
продовжує
продовжѣня
продуковати
продукт
продукта
продуктивна
продуктом
продуктох
продукты
продукуе
продукують
продукує
продукции
продукциов
продукцию
продукция
продукція
продукціі
продуцент
продуцента
продуцентом
продуценты
проект
проекта
проектах
проектох
проекту
проекты
прожив
прожитя
проза
прозаик
прозаичка
прозаі
прозаік
прозовых
прозрадить
прозу
прозы
прозывка
прозывку
прозѣ
прои
прокладена
прокоп
прокопии
прокудин
пролептичного
пролетариат
пролетариата
пролетарѣ
пролив
пролива
проливом
проливы
промысел
промысла
промыслова
промыслове
промыслово
промыслового
промысловои
промыслову
промысловы
промысловыи
промысловым
промысловых
промыслу
промыслѣ
пропав
пропаганда
пропагандов
пропаганду
пропаганды
пропагатор
пропаговав
пропаговала
пропад
пропали
пропелера
пропетровска
проповідеи
проповѣди
пропозіціі
пропоновав
пропущеныи
пророка
пророцтва
пророцтво
просалова
просвіта
просвітитель
просвѣта
просвѣтителныи
просвѣтитель
просвѣтного
просвѣтныи
просвѣту
просвѣты
просив
просила
просити
просить
проскомидии
прославив
просмык
проспериты
проста
просте
простерать
простертыи
просто
простого
простои
простому
простопѣние
простопѣния
простор
просторах
просторовы
простором
простору
просторы
просторі
просторѣ
просту
просты
простыи
простым
простыма
простых
прості
простім
простѣи
просьбу
просьбы
протагониста
протеинох
протекторат
протекторату
протекционизм
протест
протеста
протестантох
протестантскы
протестантскых
протестантства
протестантствѣ
протестанты
протестантізму
протестах
протестовали
протесты
протеіны
протеінів
проти
против
противник
противника
противниками
противником
противникох
противникы
протикладѣ
протистояня
прото
протоигумен
проток
протока
протокол
протоку
протонове
протоновым
протонох
протоны
прототип
протѣкать
проф
професии
професионална
професионалныи
професионалных
професию
професия
професор
професора
професорами
професорка
професорков
професором
професорох
професоры
профессии
профессор
профессора
професіи
професіоналныи
профил
проходив
проходить
проходять
проходячои
прохоров
процвѣтаня
процедура
процент
процес
процеса
процесами
процесах
процесом
процесор
процесох
процессы
процесу
процесы
процесі
процесів
процесѣ
прочехословацкои
прояв
проявлять
проявом
проявох
прояву
проявують
проявує
проявы
проєкт
проєктах
проєкту
проєкты
проєктів
проґрам
проґрамованя
проґраму
проґрамы
пруд
пруда
прудами
прудко
прудом
пруду
пруды
пружинськии
пруска
пруссиев
пруссии
пруссия
прусского
прусскыи
прут
пряме
прямо
прямов
прямованя
прямого
прямыи
прямым
пряш
пряшев
пряшевщина
пряшов
пряшова
пряшово
пряшовского
пряшовскои
пряшовском
пряшовскыи
пряшовскім
пряшовщины
пряшові
пряшовѣ
пряшів
пряшівска
пряшівского
пряшівскои
пряшівскіи
пряшівскім
пряшівщина
пряшівщини
прі
прізвища
прімарно
пріматорів
прінціп
прінціпы
прінціпі
прінціпів
прічін
прічінов
прічіны
псевд
псевдом
псевдонаука
псевдоним
псевдонимами
псевдонимом
псевдонимы
псевдонімом
психиатрии
психиатричного
психична
психологии
психологичныи
псовы
пструг
псы
псіхолоґічны
псіхолоґія
птах
птаха
птахам
птахами
птахом
птахы
птахів
пташкы
птолемеи
пттк
пу
публикации
публикацию
публикация
публикациями
публикациях
публиковав
публиковала
публиковали
публикованы
публиковати
публикуе
публициста
публицистика
публицистка
публична
публичне
публично
публичного
публичнои
публичны
публичныи
публичных
публікаціи
публікаціі
публіковав
публікована
публіку
публіцист
публіціст
публіціста
публічна
публічно
пугач
пуд
пудкарпатськоі
пуи
пулс
пункт
пункта
пунктах
пункти
пунктов
пунктом
пунктох
пункты
пунктів
пунска
пупин
пуризм
пустив
пустити
пустыльга
пустыльгы
пустыни
пустыню
пустыня
пустыні
путе
путеводитель
пути
путовав
путованя
путователь
путовати
путуючых
путь
путьом
путями
путятин
путях
путі
пуччіні
пушкаре
пушкарь
пушкаш
пушкин
пушкина
пушов
пхеньян
пчолка
пше
пшекруи
пшениця
пшыи
пшых
пы
пьемонт
пьер
пьеса
пьесы
пята
пяте
пятеро
пятніцу
пяту
пятыи
пять
пятьма
пятьох
пі
пів
півкуля
півкулі
півостров
півострова
півострові
під
підвалинах
підвид
підвидах
підвиды
підвидів
підвищення
підвышіня
підкарпатська
підкарпатських
підкарпатськоі
підкарпатьска
підкарпатьскои
підкарпатьску
підкарпатьскых
підкарпатьскіи
підкарпатю
підкарпатя
підкладі
підляське
підлі
підписав
підписали
підпора
підпорує
підручник
підряду
пізні
пізніше
пікассо
піля
пінязі
піраміда
піраміды
піре
піренеи
пірка
пірками
пірникоза
пірок
пірю
піря
пісень
після
пісня
пісні
пістрялово
піфагоріи
пішов
пѣвцоучитель
пѣвчука
пѣнязи
пѣсни
пѣснь
пѣснѣ
пѣшого
пѣшои
пѣшыи
р
ра
работы
рабох
рабства
рабство
рабы
рабыня
рабіндранат
рад
рада
радвань
ради
радиа
радии
радикално
радикалну
радикалных
радикалох
радикалы
радио
радиовы
радиус
радищев
радию
радия
радка
радник
радника
радником
радниця
радов
радости
радость
радостьов
раду
радуга
радше
рады
радянська
радянськоі
раді
радіо
радіоактівныи
радію
радія
радѣ
рае
раз
разгулов
разом
разрезе
разы
раи
рака
ракет
раковину
раковция
ракоци
ракоция
ракошино
ракусько
рамач
рамикох
рамках
рамкох
рампи
ран
ранг
ранга
ранены
раненыи
раненых
ранного
раннои
ранном
ранны
ранных
ранньои
рання
рано
раны
рас
раса
расова
расовои
распе
рассказы
расы
расізм
рафаел
рах
рахова
рахованя
раховати
рахово
раховском
раховскыи
раховѣ
рахують
рахує
рахів
рахівськии
рационализм
рационализма
рационалного
раю
рванда
ре
реаговав
реаговати
реакции
реакцию
реакціи
реакція
реакціі
реал
реализации
реализацию
реализм
реализма
реализовав
реализовали
реализована
реализованыи
реализовати
реализуе
реалии
реалистично
реалистичнои
реалиту
реалиты
реална
реалне
реално
реалного
реалнои
реалности
реалность
реалну
реалны
реалныи
реалных
реалізацію
реалізму
реалізує
реаліты
ребелии
ребрик
ребус
реваи
револуции
револуционарь
револуцию
револуция
револуція
револуціі
револучна
револучного
револучнои
револучном
револучны
револучныи
револучных
революции
революционарька
революция
ревуца
ревізіі
рег
регабилитованыи
регент
регента
регентскыи
регион
региона
регионалного
регионалны
регионалныи
регионалных
регионах
регионом
регионох
региону
регионы
регионѣ
регула
регуларне
регуларно
регулации
регулованя
регулуе
регулують
ред
редаговав
редаговане
редактор
редактора
редакторка
редакторков
редактором
редакторства
редакциеи
редакции
редакцию
редакция
редакциях
редакціи
редкол
реестру
режим
режима
режимом
режиму
режимѣ
режисер
режисера
режім
режіму
режісер
резерва
резерват
резервации
резервоар
резервы
резерфорд
резигновав
резиденция
резолуцию
резонанс
резонатора
резултат
резултатами
резултатом
резултатох
резултаты
резултаті
резултатѣ
результаты
резус
резіденціе
резіденціов
резіденцію
резіденція
реи
река
реклама
рекламы
рекламѣ
рекомендации
рекомендовав
рекомендовали
реконштрукціі
реконштруована
рекреации
рекреацию
рекреачна
рекреачнои
ректор
ректора
ректором
релатівно
релатівіты
религии
религия
рельеф
релігіи
реліґіи
реліґіов
реліґія
реліґіі
рембрандт
ремеза
ремесел
ремеселник
ремеселника
ремесла
ремесло
ремети
реметы
рене
ренесанции
ренесанція
ренесанціі
реорганизации
репарации
репертоар
репертоару
репертуарнии
репортаж
репортажи
репортажы
репресии
репресованы
репрессии
репу
републик
република
републиках
републики
републиков
републику
републикы
републици
републицѣ
републички
републіка
републіков
републікы
републіці
репутацию
респ
респективно
респектіве
республика
республики
республикы
республіка
республіки
республікы
ресурс
ресурсами
ресурси
ресурсох
ресурсы
реторика
реторикы
рефератом
реферату
рефератів
референдум
референдума
референдумах
референдумом
референдумѣ
референта
референции
реформ
реформа
реформатор
реформаторы
реформатскыи
реформаты
реформации
реформация
реформов
реформовав
реформу
реформы
реформѣ
рехотуса
рецензии
реципиента
речи
речник
речь
речі
речіня
решта
рештавратор
реґуларно
реґіон
реґіонах
реґіону
реґіонув
реґіоны
реґіоні
ржанка
ржанкоподобных
ри
рибоза
рид
рида
риека
ризнич
рим
рима
римавска
римлян
римлянами
римляне
римлянскои
римо
римокатоликох
римокатоликы
римокатолици
римокатолицка
римокатолицкого
римокатолицкои
римокатолицкыи
римокатолицька
римокатолицькыи
римом
римска
римске
римские
римскии
римско
римсков
римского
римскои
римском
римскы
римскыи
римскым
римскых
римськоі
риму
римі
римѣ
риска
рисованя
рисуе
рисунок
ритм
риторика
ритуал
ричард
ро
роберт
роберта
робертсон
робеспьер
роби
робив
робила
робили
робит
робити
робить
роблять
робот
робота
роботами
роботах
роботи
роботник
роботникох
роботникы
роботницкого
роботницкых
роботов
роботу
роботы
роботі
роботѣ
робоче
робочого
робочои
робочым
робочых
робустне
робчук
ров
ровина
ровинов
ровины
ровинѣ
ровна
ровнать
ровника
ровнины
ровнинѣ
ровниця
ровницѣ
ровнои
ровноправности
ровноправны
ровны
ровныи
рогожник
род
рода
родак
родари
родах
родж
роджена
родженыи
родженых
роджѣню
роджѣня
родив
родила
родили
родин
родина
родинами
родинном
родинны
родинныи
родинных
родинов
родинства
родину
родины
родині
родинѣ
родиска
родиску
родительох
родителѣ
родити
родить
родичам
родиче
родичове
родичох
родненскыи
родного
роднои
родном
родныи
рододендрон
родолюб
родом
родох
роду
роды
родять
родічами
родічі
родічів
рождества
рождественнои
рождество
розалия
розбив
розбивать
розбои
розвалины
розвели
розвив
розвивав
розвивала
розвивали
розвиваня
розвивати
розвивать
розвивають
розвита
розвите
розвити
розвитку
розвиток
розвиты
розвитыи
розвитых
розвитя
розвое
розвои
розвою
розвоя
розвѣдач
розгласу
розгрома
роздва
розді
роздѣл
роздѣлена
роздѣлене
роздѣлены
роздѣленыи
роздѣлив
роздѣлила
роздѣлили
роздѣлу
роздѣлы
роздѣлять
роздѣляють
роздѣлѣ
роздѣлѣня
розличны
розличным
розличныма
розличных
розличні
розличують
розлога
розлогов
розлогу
розлогы
розлозі
розлуку
розлукы
розлі
розлічных
розмаі
розмножованя
розмогла
розмір
розмірами
розмірах
розміры
розмірів
розмѣр
розмѣрах
розмѣры
розмѣщена
розмѣщены
рознѣи
розобрана
розознаваме
розознати
розробив
розробкы
розрыв
розсыпал
розтока
розум
розума
розумена
розумить
розумлять
розумныи
розумом
розуміню
розуміти
розуміть
розумѣв
розумѣе
розумѣли
розумѣню
розумѣня
розумѣти
розумѣють
розышли
рои
рок
рока
роками
роках
роки
роков
рококо
роком
рокох
року
рокув
рокы
років
роли
роль
ролю
ролі
ром
рома
роман
романа
романах
романенчук
романов
романом
романописець
романох
романтизма
романтик
романтізм
романтізму
роману
романы
романів
романѣ
ромжа
ромжы
ромох
ромочевиця
ромы
рон
роналд
ропа
ропу
ропы
рос
росвигово
роси
росии
росказ
росказав
росказом
роскопы
росла
рослин
рослинами
рослини
рослины
росло
роспав
роспад
роспада
роспадом
роспаду
роспадѣ
роспала
росповіданя
росповѣдать
росповѣдач
росповѣди
росповѣдь
роспознаня
роспознати
росположена
роспоры
роспоряджѣня
роспустив
роспустити
роспущать
роспущена
роспущены
роспущеныи
роспяте
роспятю
роспятя
россиев
россии
россию
россия
росстрѣляныи
россяг
россяглы
россяглыи
россягліи
россягу
рост
росте
рости
ростислав
ростлин
ростлинах
ростлины
ростом
росту
ростуть
росул
росход
росширена
росширены
росширеныи
росширеным
росширенѣи
росширив
росширила
росширили
росширило
росширяти
росширять
росширѣню
росширѣня
росшыре
росшырена
росшырены
росшыреныи
росшырені
росшырив
росшырите
росшырі
росіе
росіи
росія
росіяне
росіі
рот
ротации
році
роча
рочна
рочник
рочника
рочнику
рочникы
рочно
рочнов
рочного
рочнои
рочном
рочну
рочны
рочныи
рочных
рочу
рпц
рпцз
рр
рсдрп
рср
рсфср
ру
руан
рубаня
рубенс
рубик
рубика
рублѣ
рубіи
руда
рудловчак
рудловчакова
рудльова
рудолф
рудолфа
руду
руды
ружа
ружанець
ружанця
ружовы
ружомберок
рузвелт
руины
рук
рука
руками
руках
руков
рукопис
рукописных
рукопису
рукописы
рукоположеныи
рукоположив
руку
рукы
рум
румуньско
румуніі
румыниев
румынии
румыния
румынох
румынска
румынске
румынского
румынскои
румынскы
румынскыи
румынскым
румыны
рунічны
рус
русаля
русенко
руси
русин
русина
русинам
русинами
русинах
русине
русини
русинистику
русинка
русинко
русинов
русиновъ
русинофилскои
русинох
русинска
русинске
русински
русинско
русинсков
русинского
русинскои
русинском
русинску
русинскы
русинскыи
русинскым
русинскыма
русинскых
русинська
русинського
русинськои
русинськоі
русинську
русинськы
русинськыи
русинськых
русинські
русинув
русинъ
русины
русиньска
русиньске
русиньско
русиньского
русиньскои
русиньскому
русиньску
русиньскы
русиньскыи
русиньскым
русиньскых
русиньскіи
русиньскім
русинів
русиністікы
руска
руске
рускеи
руски
руским
руских
руско
руского
рускои
руском
руску
рускыи
руслана
руснак
руснаками
руснакох
руснакы
руснаци
руснацкыи
руснацох
русофил
русофилскои
русофилскых
русофіл
русофілами
русофільскои
русс
русск
русска
русскаго
русская
русске
русские
русскии
русским
русских
русскихъ
русско
руссков
русского
русское
русскои
русском
русскому
русскоязычныи
русску
русскы
русскыи
русскым
русскых
русскіи
руссо
русы
русь
руська
руське
руськии
русько
руського
руськои
руськом
руськоі
руську
руськы
руськыи
руськым
руськых
руські
руськіи
руськім
русьов
русі
рутенпрес
рутенум
рутены
руфус
рух
руха
рухають
рухом
рухох
руху
рухы
руці
ручкы
ручно
ручны
ручных
рушаня
рушати
рушать
рушають
рушив
рушила
рушили
рф
рх
ры
рыб
рыба
рыбами
рыбарство
рыбник
рыбникы
рыбників
рыбу
рыбы
рытець
рытовник
рь
ряд
ряда
рядах
ряджѣня
рядить
рядного
рядныи
рядным
рядом
ряду
ряды
ряді
рядів
рядѣ
рі
рібозомы
рівне
рівні
рід
рідко
рідну
рідше
різно
різного
різны
різным
різныма
різных
різні
рік
ріка
ріками
ріках
ріки
ріков
ріку
рікы
рім
ріхард
ріці
річ
річеи
річка
річки
річна
річник
річныи
річок
річчя
річі
ріша
рішення
рішы
рішіня
рѣ
рѣдко
рѣк
рѣка
рѣками
рѣках
рѣки
рѣков
рѣку
рѣкы
рѣцѣ
рѣчи
рѣчкы
рѣчь
рѣшати
рѣшать
рѣшено
рѣшенія
рѣшеніє
рѣшив
рѣшила
рѣшили
рѣшити
рѣшѣнь
рѣшѣньом
рѣшѣню
рѣшѣня
с
са
сабадош
сабов
сабова
сабовъ
саболч
сабінов
сава
савка
савло
савы
сагара
сагары
сад
садах
садзе
сади
садова
саду
сады
саді
садів
садѣ
саи
сак
сакрална
сакралного
сакралны
саксами
саламон
салвадор
салдобош
салон
саліс
сам
сама
самбор
саме
самець
сами
само
самоа
самов
самовыголошеныи
самого
самогубство
самои
самом
самому
самоназва
самоназвов
самоопредѣлѣня
самосвідомості
самосправна
самосправны
самосправных
самосправы
самостатна
самостатне
самостатно
самостатну
самостатных
самостои
самостоятельно
самостоячіи
самотарьскы
самотныи
самоук
самоуправляємои
самоуправы
самоурядна
самоуряднои
саму
самуел
самце
самця
самці
самы
самыи
самым
самыма
самых
самі
саміи
самім
саміце
саміць
саміця
саміцям
саміці
самічка
сан
сана
санатории
сандович
санкт
санкции
санкция
санок
саноку
санта
санто
санчес
санґвінік
сао
сапсан
сара
сарош
сас
сасовка
сасы
сасько
сателит
сателита
сателитох
сатира
сатирик
сатиричнои
сатиру
сатиры
сатмар
сатмарѣ
сату
сатіра
сатірік
саудьска
сах
сахаров
сач
сачуров
сб
сборник
св
свагілі
свадьба
свадьбянім
свалява
свалявского
свалявскои
свалявском
свалявскыи
свалявськии
свалявы
света
свидник
свидника
свиднику
свидовець
свинѣ
свифт
свобода
свободы
свого
сводеш
свое
своев
своего
своеи
своем
своефаи
свои
своим
своима
своих
свому
свон
свою
своє
своі
свуи
связи
свят
свята
святе
святкує
свято
святов
святого
святои
святок
святом
святому
святослав
святослава
святославич
святочно
святоштефаньска
святу
святы
святыи
святым
святыне
святыні
святых
священик
священика
священиками
священиком
священикох
священикы
священиків
священици
священича
священна
священник
священника
священничои
священнои
священство
священі
свідник
свіднику
свідчать
свіи
свіржава
світ
світа
світивость
світла
світле
світлишыи
світло
світлов
світловыи
світловых
світлом
світлы
світлыи
світлым
світлыма
світлых
світлі
світова
світового
світовои
світовоі
світову
світовыи
світовых
світовіи
світу
світі
свѣдкы
свѣдомости
свѣдомость
свѣдчать
свѣдчить
свѣдчѣнь
свѣдчѣня
свѣт
свѣта
свѣтла
свѣтлик
свѣтло
свѣтлом
свѣтова
свѣтовов
свѣтового
свѣтовои
свѣтову
свѣтовы
свѣтовыи
свѣтовым
свѣтовых
свѣтознамои
свѣтом
свѣтскы
свѣту
свѣтъ
свѣтѣ
се
себастьян
себе
севастополь
север
севериян
северна
северне
северно
севернов
северного
севернои
северну
северны
северныи
северных
северні
северніи
севернім
северо
северовыходніи
северовыході
северозападнои
северозападні
северозападніи
северозападі
северу
северьскы
севері
севильи
севилья
севлюш
сегед
сегеда
сегеди
сегедѣ
сегрегации
сезону
сезоны
сеи
сек
секо
секретарь
секретарьом
секретаря
сексуалныи
секта
сектор
сектора
сектором
секторы
секторѣ
секунд
секунда
секунду
секции
секция
сел
села
селами
селах
селе
селинджер
селитвы
селище
селищна
село
селом
селу
сельска
сельских
сельского
сельскои
сельском
сельскы
сельскыи
сельскых
селян
селянам
селяне
селянина
селянскои
селі
селѣ
сема
семан
семанов
семедии
семен
семеро
семерох
семи
семиболестныи
семинарии
семинарию
семинария
семинариях
семиолог
семиотикы
семитскы
семои
семох
семыи
семюел
семінарію
семінарія
семінаріі
сен
сена
сенат
сената
сенатом
сенатор
сенатора
сенатѣ
сенгер
сенеґал
сенкевич
сенкевича
сент
сентав
сены
сепаратисты
септ
септембер
септембра
септембрі
септембрѣ
сер
серб
сербиев
сербии
сербия
сербиі
сербох
сербска
сербске
сербски
сербско
сербского
сербскои
сербскы
сербскыи
сербы
сербія
сербіі
сервер
сергеевич
сергеи
сергіи
сердце
сердцьова
сердцьовыи
сердця
серед
середа
середина
середину
середины
середині
серединѣ
середками
середна
середне
середнии
середних
середновѣк
середновѣка
середновѣкои
середновѣком
середновѣку
середновѣкыи
середного
середнои
середном
середну
середны
середныи
середных
середнього
середньои
середньом
середньому
середню
середнюи
середня
середнє
середні
середніи
середніх
середовиска
середовища
середовище
середовищом
середовищу
середовіку
середоевропскых
середоземне
середоземного
середок
середоморю
середоморя
середу
сери
серии
серию
серия
серпиковы
серсамы
серця
серьб
серьбохорватч
серьбске
серьбскыи
серьбскіи
серія
серґеи
сесе
сестер
сестра
сестров
сестру
сестры
сесь
сесю
сеся
сесіи
сецесіи
си
сибири
сибирии
сибирия
сибирского
сибирськыи
сива
сиве
сиво
сивобурыи
сиву
сивч
сивы
сивыи
сивым
сивыма
сигет
сигета
сигетѣ
сигнал
сидить
сидор
сидять
сил
сила
силами
силах
силваи
силвестер
силна
силне
силно
силнои
силну
силны
силныи
силным
силных
силнѣи
силов
силу
силы
силі
силѣ
сим
сима
символ
символизм
символизуе
символом
символы
симпатии
симптом
симптомох
симптомы
синаґоґы
синдром
сине
синевир
синевирска
синевирскои
синевирська
синии
синице
синиця
синиці
синод
синоним
синонимом
синонимы
синтеза
синю
синя
синє
сині
сира
сирии
сирия
сирот
сирота
сиротинця
сирупова
систем
система
систематично
системах
системе
системов
систему
системы
системѣ
сити
ситуации
ситуацию
ситуация
сих
сицилии
сицилию
ск
ска
скал
скалах
скалисты
скалне
скалы
скалі
сками
сканзен
сканзену
сканзені
скаргы
скасовали
скасована
ская
ске
ски
ские
скии
ских
скла
склав
склад
складаня
складатель
складать
складають
складена
складены
складеныи
складовав
складовала
складовали
складованя
складу
складуе
складують
склады
складі
склала
склали
склало
скласти
скликали
скликаныи
скликаня
скликати
скло
склодовска
склоне
ско
скоб
сков
сково
сковорода
сковороды
скову
сковы
сковыи
сковым
сковых
ского
ское
скои
ском
скому
сконе
скончив
скончѣню
скопие
скоре
скоро
скоров
скорости
скорость
скоростьов
скорочено
скорочіня
скорша
скорше
скоршы
скоршых
скоры
скотарства
скотарство
скотарством
скотт
скотта
скоу
скраховав
скромно
скромныи
скрыте
скрыто
ску
скубан
скулптор
скулпторка
скулптура
скулптуру
скулптуры
скулптурѣ
скунць
скусености
скушености
скы
скыи
скым
скыма
скых
скіи
скім
скінчів
скінчіню
сл
слабо
слабого
слабость
слабше
слабы
слабыи
слав
слава
славик
славили
слависта
славистику
славистикы
славистичных
славить
славна
славне
славности
славностно
славны
славныи
славным
славні
славнѣи
славскім
славу
славы
славян
славянами
славяне
славяноведения
славянох
славянска
славянские
славянских
славянского
славянскои
славянском
славянску
славянскы
славянскыи
славянскым
славянскых
славяньскои
славяньскы
славяньскыи
славяньскых
славі
славіста
сладкович
сланчикова
сливка
слимаками
слимакы
слобода
слободна
слободно
слободнои
слободны
слободныи
слободных
слободу
слободы
слов
слова
словак
словаками
словакиев
словакии
словакию
словакия
словакох
словакы
словакіі
словами
словареи
словари
словарь
словаря
словах
словац
словаци
словация
словацка
словацке
словацко
словацков
словацкого
словацкои
словацком
словацку
словацкы
словацкыи
словацкым
словацкыма
словацкых
словацького
словацькоі
словацькыи
словаччини
словаччині
словен
словении
словения
словенска
словенська
словенського
словенську
словенські
словенцьох
словенцюв
словенці
словеньска
словеньско
словеньского
словеньскои
словеньску
словеньскы
словеньскыи
словеньскых
словеньскіи
словенію
словенія
словеніі
словесности
словник
словника
словникарь
словниках
словникова
словником
словникох
словнику
словникы
словні
слово
словом
словотворны
слову
слові
словѣ
слон
слуг
слуга
служать
служб
служба
службами
службах
службов
службу
службы
службѣ
служеб
служив
служила
служили
служити
служить
служыв
служыти
служыть
служѣня
слух
слухав
случаи
слызы
слі
слѣд
слѣдами
слѣдовав
слѣдом
слѣдуе
слѣдуєт
слѣды
см
смак
смаку
смер
смерековыма
смерте
смерти
смертна
смертну
смерть
смертьов
смерш
смерша
сметана
сметану
смирнов
смичных
смоковец
смолеи
смолник
смоліи
смоть
смт
смуга
смугами
смугата
смугов
смугу
смугы
смужка
смужками
смужков
смужкованы
смужкованыи
смужкованя
смужку
смужкы
смузі
смутны
смутні
смысел
смыслѣ
сміх
смѣе
сна
снина
снинскы
снині
сно
сны
сні
снѣг
со
собов
собор
собора
соборѣ
собота
собрание
собранці
собственность
события
событиях
собі
собѣ
сов
сова
совет
советская
советскии
советских
советского
советское
советскои
сововых
совои
современная
современник
современные
совы
совыи
совєтьского
совєтьскыи
совѣсть
совѣт
совѣта
совѣтох
совѣтска
совѣтске
совѣтско
совѣтсков
совѣтского
совѣтскои
совѣтском
совѣтскому
совѣтску
совѣтскы
совѣтскыи
совѣтскым
совѣтскыма
совѣтскых
согласного
согласны
согласныи
согласных
согласні
созыва
сои
сок
сокирниця
соколов
соколовых
сокотити
сокращенная
сокы
сокырницькыи
сокырниця
соленость
солженицын
соли
солнок
соло
соловеи
соловьев
солодководна
солодкых
соломон
солотвино
солунь
соль
солі
сом
сомнѣв
сомнѣву
сон
сонце
сонцестояня
сонцю
сонця
сончу
сонячне
сонячнои
сонѣчного
сонѣчнои
сонѣчныи
сопротив
сопружества
сопружество
сорок
сорока
сорт
сорта
сорты
сосвіздю
сосна
сост
состав
составленная
составѣ
сосѣдами
сосѣдить
сосѣдного
сосѣднои
сосѣдном
сосѣдны
сосѣдным
сосѣдныма
сосѣдных
сотворив
сотериология
соткы
соток
софии
софтвер
софія
сохарь
социал
социализм
социализма
социализму
социалистична
социалистичного
социалистичнои
социалистичну
социалистичныи
социалистичных
социална
социалне
социално
социалного
социалнои
социалну
социалны
социалныи
социалным
социалных
социолог
социологии
соцреализма
соціална
соціално
соціалны
соціалныи
соціалных
соціально
соціалізму
соціалістична
соціолоґія
соціолоґіі
сочинении
сочка
союз
союза
союзна
союзнои
союзных
союзом
союзу
соя
сп
спад
спадщина
спадѣ
спалена
спалили
спартак
спасителя
спасѣню
спасѣня
спб
спектра
сперед
сперекы
спершу
спеціальна
спеціальнои
спис
списку
спискы
списованю
списованя
списовного
списовныи
список
спиш
сплав
сплавна
сплывать
сповняв
сповнѣня
спод
сподом
споді
сподѣ
спое
споена
споене
споеного
споеном
споенцями
споенцѣ
споены
споеныи
споеных
споеня
спознав
спознала
спозначно
спои
споив
споила
споили
спокои
спокою
сполкового
сполковои
сполковых
сполку
сполок
сполоченска
сполоченско
сполоченского
сполоченскои
сполоченском
сполоченску
сполоченскы
сполоченскыи
сполоченскым
сполоченскых
сполоченства
сполоченство
сполоченством
сполоченству
сполоченствѣ
сполоченьского
сполоченьскы
сполоченьскыи
сполочна
сполочне
сполочнов
сполочного
сполочнои
сполочном
сполочности
сполочность
сполочну
сполочны
сполочныи
сполочным
сполочныма
сполочных
сполу
сполуавтор
сполуавтором
сполуавторство
сполуавторствѣ
сполузакладатель
сполупраци
сполупрацовав
сполупрацовати
сполупрацуе
споминав
споминали
споминат
споминать
споминають
споминка
споминкы
споминок
спомины
спомянута
спомянуте
спомянути
спомянутыи
спомянутя
спор
спора
спорох
спорта
споры
спорядник
способ
способа
способами
способне
способности
способность
способны
способныи
способным
способом
способу
способы
спочатку
спочивать
спочивку
споюе
споюють
споює
споєна
споєне
споєного
споєны
споєных
споі
споѣня
справ
справа
справедливо
справедливости
справив
справила
справите
справовав
справованя
справовати
справочник
справу
справуе
справы
спрацованя
спрацьованя
сприи
сприятелив
спустошена
спустошены
спустошеныи
спустошили
спів
співавтор
співавыи
співак
співака
співакы
співаків
співанкарь
співанкы
співанок
співачка
співають
співвідношення
співзвук
співзвуки
співзвуку
співом
співу
спід
спідне
спідню
спідня
спідні
спілка
спілки
спіська
спѣв
спѣвак
спѣвакох
спѣвала
спѣванка
спѣванками
спѣванкарь
спѣванков
спѣванку
спѣванкы
спѣванок
спѣвати
спѣвачка
спѣвачков
спѣвачкы
спѣву
спѣвы
ср
сравнительная
србија
србији
средневековье
средних
среднихъ
средств
средства
средство
средством
срибляста
српски
срср
сруср
срю
срі
срѣм
срѣмскых
сс
ссавець
ссавцьох
ссавцями
ссавці
сспу
сср
ссср
ст
ста
стабилно
стабилныи
стабілныи
став
ставала
ставали
ставать
ставають
ставба
ставбу
ставбы
ставбѣ
ставебного
ставебны
ставебныи
ставебных
ставляня
ставлять
ставровскии
ставровского
ставровскыи
ставропольского
стадии
стала
стале
стали
сталин
сталина
стало
сталого
сталы
сталыи
сталым
сталых
стан
стандард
стане
станинець
станислав
станислава
станицю
станиця
станова
становиско
становити
становить
становлена
становлене
становлены
становленыи
становленім
становлює
становлі
становништва
становништво
станом
стану
станции
станция
стані
станіці
станѣ
стар
стара
старав
старанями
старать
старають
старе
старина
старовікого
старовіку
старовікыи
старовѣкого
старовѣкои
старовѣком
старовѣку
старовѣкыи
старовѣкых
старого
стародавны
стародавныи
стародавных
старои
старом
старому
старославянского
староста
старостливости
старосты
старостів
стару
старша
старше
старшов
старшого
старшои
старшу
старшы
старшыи
старшым
старшых
стары
старыи
старым
старыма
старых
старі
старіи
статеи
стати
статистики
статистику
статок
стаття
статті
статуи
статус
статуса
статусом
статусу
статусѣ
статут
статьи
статью
статья
статьями
статю
статя
статі
стаценко
стация
стачить
стають
стає
стб
ства
ствия
ство
створе
створена
створене
створенои
створену
створены
створеныи
створив
створивши
створила
створили
створити
створьовати
створюе
створюють
створює
створі
створѣньом
створѣню
створѣня
стебльовка
стеле
стенлі
степан
степана
степанович
степин
степовыи
стер
стерно
стероиды
стерство
стефан
стефана
стефановскыи
сти
стивен
стил
стиха
стихи
стихотворения
стихы
стишкы
сто
стоваришыня
стоваришѣня
стовкы
стовп
стог
стоговця
стои
стоить
столице
столици
столицьов
столицю
столиця
столиці
столицѣ
столом
столі
століття
столітті
столітю
столітя
столѣтя
стор
сторон
сторона
сторонами
сторонах
сторонка
сторонку
сторонов
сторонок
сторону
стороны
стороні
сторонѣ
стороч
стороча
сторочами
сторочах
сторочна
сторочом
сторочу
сторочі
сторінка
сторінках
сторінки
сторінку
сторінкы
сторінок
стояв
стояла
стояли
стояти
стоять
стоячі
стоячіх
стоі
стр
стра
страбичово
страва
стравов
стравованя
страву
стравы
страві
стравіньскыи
странах
страны
страняны
страта
стратив
стратиграфии
стратила
стратили
стратить
страты
страті
страх
страху
страшныи
стреда
стрелецкии
стренк
стренка
стримують
стримує
стрипского
стрипскыи
стрипськии
стровска
строго
строгости
строгы
строи
стром
стромами
стромах
стромовых
стромы
стромів
стропков
строх
структуры
струна
стрыи
стрыя
стрі
стрѣберна
стрѣлецкыи
стрѣлиско
стрѣтив
стрѣтили
стрѣчав
стрѣчать
стрѣчають
студенои
студентов
студенѣи
студіо
студіум
ступень
ступеня
ступне
ступня
ступінь
ступѣнь
стыку
стыржень
сть
стюартох
стяговавы
стягованя
сті
стіл
стіль
стѣну
стѣны
стѣнѣ
су
суботу
субсагарьскіи
субстанции
субстанция
субстанціи
субстанція
субстанціі
субєкт
сувалкы
суверенитов
суверениту
суд
суда
судан
судженыи
суджіня
суджѣня
судити
судныи
судова
судового
судовои
судову
судовыи
судом
суду
судця
суды
судѣ
сук
сукупность
султан
сулфур
сума
сумарно
сумарнов
сумежних
суму
сумы
суп
супер
суперпогар
суперѣня
суреалістічны
сурков
суртсеи
сусі
сут
суток
сутоком
сутоку
суть
суфии
суфикс
суха
сухии
сухого
суходольскыи
сухоземных
сухои
сухыи
сучасна
сучасне
сучасно
сучасного
сучаснои
сучасном
сучасности
сучасності
сучасноі
сучасну
сучасны
сучасныи
сучасным
сучасных
сучасніи
сучастка
сучастьов
сущности
сущность
сфер
сфера
сферах
сферов
сферу
сферы
сфері
сферѣ
сформовав
сформовала
сформовали
сформовало
сформована
сформованыи
сформованя
сформовати
сформуловав
сформулованы
сфрю
схвалена
схвалене
схваленыи
схвалив
схвалили
схвалѣня
схизма
схизмы
сходили
сходѣ
схоснованя
схс
схыл
схылы
схід
східнии
східного
східноі
сцен
сценарии
сценариста
сценария
сценарь
сценаріста
сценичны
сценок
сценоґраф
сцену
сцены
сценѣ
счасти
сша
съ
сы
сыдлиско
сын
сына
сынови
сыном
сынох
сыну
сыровин
сыч
сь
сьерра
ська
ськии
ських
сько
ського
ськоі
ську
ськуи
ськы
ськыи
ськых
ські
сьме
сього
сьогодні
сэлинджер
сюды
сюжет
сюжета
сюжету
сюжеты
ся
сягать
сягають
сянки
сянкы
сянока
сі
сібірь
сібірі
сів
сіверо
сівері
сіл
сільского
сільська
сім
сімбол
сімболы
сімболів
сімон
сімферополя
сіріі
сістем
сістема
сістематічне
сістематічныи
сістемов
сістему
сістемы
сістемі
сітуацію
сітуація
сітуаціях
сітуаціі
сіті
січня
сѣ
сѣвер
сѣвера
сѣверна
сѣверного
сѣвернои
сѣверном
сѣверному
сѣверну
сѣверны
сѣверныи
сѣверным
сѣверных
сѣвернѣи
сѣверо
сѣверовосток
сѣверовостоку
сѣверовосточнои
сѣверовыход
сѣверовыходнои
сѣверовыходѣ
сѣверозапад
сѣверозападнои
сѣверозападѣ
сѣверу
сѣверѣ
сѣдла
сѣдлиска
сѣдлиско
сѣдлиском
сѣдло
сѣм
сѣти
сѣть
т
та
табак
табачник
табла
таблиць
таблицѣ
таблу
табор
табора
тавать
тагаст
тад
тадеуш
таджікістан
таи
так
така
такач
таке
также
таким
таков
такого
такое
також
такои
таком
таксамо
таксон
таксономии
таксономічна
тактику
таку
такы
такыи
такым
такыма
такых
такі
такім
талант
талент
таленту
талианского
талианскыи
таліаньскыи
таліянського
таліянськыи
там
тамара
тамкы
тамошна
тамошного
тамошнои
тамошны
тамтот
тане
танець
танзен
танки
танків
танцю
танця
танці
танцѣ
танчинець
таню
таня
тарас
тарзан
тарковіч
тарковіча
тарту
тат
татаро
татары
татер
тати
татранска
татрах
татры
тать
татьяна
тах
тахо
тають
таємниця
таі
таґор
тбилиси
твари
тварь
тварьов
тварі
тверда
тверде
тверджіня
тверджѣня
твердив
твердили
твердить
твердо
твердого
твердои
твердость
тверду
тверды
твердыи
твердым
твердыня
твердых
твердять
твор
творам
творах
творба
творбов
творбу
творбы
творбѣ
творена
твореныи
творець
твори
творив
творили
творити
творить
творов
творох
твору
творця
творча
творчого
творчои
творчости
творчость
творчу
творчых
творчість
творы
творят
творять
творі
творів
творѣня
твоє
те
театер
театр
театра
театрална
театралного
театралны
театралныи
театралных
театровыи
театром
театрох
театру
театры
театрі
театрѣ
тег
тез
теи
теизм
тек
тексас
текст
текста
текстах
текстилныи
текстов
текстом
текстох
тексту
тексты
текстів
текстѣ
тектоничны
текутина
текуча
текучы
тел
телевизии
телевизия
телевізія
телевізіі
телеграф
телеп
телефон
телефонна
телефонного
телефоннои
телефонны
телефонныи
телефонных
тельо
тем
тема
темам
темами
тематикы
темеркень
теметов
теметова
теметовы
теметовѣ
темницѣ
темов
темперамент
темпераменту
температура
тему
темы
темі
темѣ
тенденции
тенденціі
теночтитлан
теночтитлану
теодозии
теодозия
теодор
теодора
теолог
теологами
теологии
теологична
теологичне
теологичну
теологичны
теологию
теология
теолоґ
теолоґіі
теоретик
теоретично
теоретичну
теоретичны
теоретік
теориев
теории
теорию
теория
теоріи
теоріов
теорію
теорія
теоріі
теперь
теперька
тепері
теперішньоі
теперішніи
теперѣшного
тепла
тепло
теплота
теплотах
теплоту
теплоты
теплотѣ
теплі
теплѣи
тер
тера
теребле
теребли
теребля
тереблѣ
терезии
терезия
терезія
терезіі
терен
теренѣ
тересва
тересвы
терешул
териториална
териториално
териториалного
териториалнои
териториалны
териториалных
териториев
територии
територию
територия
териториями
териториях
територіи
територію
територія
територіі
термин
термина
терминов
терминологии
терминология
терминох
термины
термін
термінологічнии
терміном
терміну
терміны
термінів
тернопольскои
тернопіль
терня
терора
терпить
терпѣв
терра
территории
территорию
территория
теріторіална
теріторіалныи
теріторіи
теріторію
теріторія
теріторіях
теріторіі
тесла
тестаментѣ
тетралогия
тетяна
техник
техника
техниками
технику
техникы
технична
техничнои
техничны
техничных
технологии
технолоґіі
технік
техніка
технікы
технічна
технічны
тече
течуть
тзв
ти
тибава
тив
тивадар
тивадара
тиждень
тил
тим
тиме
тимин
тимко
тимрава
тимравы
тимченко
тимю
тимя
тина
тины
тип
типа
типом
типох
типу
типы
тираж
тирасполь
тиринсу
тиса
тиск
тискнѣня
тиском
тиску
тисо
тисов
тису
тисы
тисѣ
тита
тити
тито
титул
титула
титулом
титулох
титулу
титулы
тифус
тих
тиха
тихо
тихого
тихом
тихыи
тихым
тициуса
тишков
тия
тиґла
ткани
тканив
ткач
тко
тлумач
тмава
тмаве
тмаво
тмаву
тмавшы
тмавшым
тмавы
тмавыи
тмавым
тмавыма
тна
тне
тныи
тні
то
тобто
тов
това
товар
товара
товари
товариства
товариство
товаришства
товаришство
товарох
товару
товары
товарів
товмач
товмачив
товмачѣню
товмачѣня
товт
товыи
тогды
тогдышна
тогдышне
тогдышнов
тогдышного
тогдышнои
тогдышныи
тогдышні
того
тогочаснои
тогочасным
тогочасных
тоды
тоже
тои
ток
токарев
током
току
токіо
толковыи
толочко
толстои
только
том
тома
томас
томах
томаш
томаша
тому
томъ
томы
томѣ
тон
тона
тонами
тонкы
тонкыи
тонкым
тонкых
тоном
тону
тонша
тоны
тоні
тонів
топле
топля
топографична
тополя
топонимическии
тор
торг
торга
торговелнои
торговицѣ
торговли
торговлю
торговля
торговлѣ
торгово
торговои
торговця
торговцѣ
торговы
торговыи
торговым
торговыма
торговых
торгу
торгы
ториовцѣ
торонто
торре
тот
тота
тото
тотожна
тотожны
тоту
тоты
точили
точка
точками
точках
точков
точку
точкы
точна
точне
точно
точность
точностьов
точны
точныи
точні
точнѣи
точок
точцѣ
точіслі
тр
тра
трав
трава
травлі
травня
травов
травы
траві
трагедии
трагедия
традиции
традицию
традиция
традициями
традиціи
традиціі
традична
традичне
традично
традичнои
традичном
традичны
традичныи
традичных
традіціи
традіцію
традіція
традіціі
традічно
траектории
трактат
трактаты
трамваи
трамп
трановскыи
транс
трансатлантичныи
трансмасти
транспорт
транспорта
транспортне
транспортны
транспортныи
транспортным
транспортом
транспорту
трансформации
трансценденталисты
траса
трасы
трафив
трафили
трафлять
трафляють
тре
треба
требало
требішов
тревир
трема
тренер
тренчіньскім
трете
третии
третина
третину
третины
третье
третього
третьои
третьом
третю
третя
третє
треті
трех
три
трианон
трианона
трианонского
трианонскыи
трианонѣ
тридцять
тридцятьрочнои
трилогия
тримав
тримала
тримали
триманыи
тримати
тримать
тримле
трио
трипалце
трираз
триуголник
триуголника
триумвират
триумвирату
трнавскім
трнавѣ
трое
трои
троита
трон
трона
тронько
тронѣ
тропична
тропічніи
тростинках
тростинкы
тростины
трохановского
трохановскыи
трохановскіи
троцкии
троцкого
троцкыи
троя
троян
троянска
троянского
троянскои
труд
трудового
трудовых
труды
трумен
трутновѣ
трьом
трьома
трьох
тряньскім
трясѣня
тріе
трімурті
тт
ту
туберкулоза
туберкулозу
туи
тукох
туку
тукы
тум
тундра
тундрі
тунел
тунис
тунису
тур
турбина
турбины
тургенев
тургенева
турецка
турецкои
турецку
турецкыи
турецкых
турецькыи
туризм
туристика
туристику
туристикы
туристична
туристичны
туристичныи
туристичным
туристичных
туристох
туристы
туриця
турками
туркменістан
туркы
турнаі
турня
турніри
турнѣ
турок
турции
турция
турція
турціі
туря
туряниця
турѣ
тут
тутешного
тутешнои
тутешны
тутешных
ты
тыж
тыжденник
тыжденника
тыжденнику
тыждень
тыждни
тыждню
тыждня
тыжднях
тыждні
тыжднѣ
тыи
тыл
тылі
тым
тыма
тырвала
тырвале
тырвало
тырвать
тырнава
тыс
тысяч
тысячами
тысячи
тысячроча
тысячрочу
тысячѣ
тых
тыче
тычина
тычины
тычов
ть
тюшка
тя
тяг
тягла
тягли
тягне
тягнуть
тяжка
тяжке
тяжко
тяжкого
тяжкои
тяжком
тяжкости
тяжку
тяжкы
тяжкыи
тяжкым
тяжкых
тяжшы
тячово
тячовского
тячовском
тячовѣ
тє
ті
тіж
тіи
тільки
тілько
тім
тімковіч
тіп
тіпом
тіпу
тіпы
тіпів
тіпічна
тіпічне
тіпічно
тіпічныи
тіпічным
тіс
тісяч
тісячроча
тітул
тіхии
тіґріс
тѣ
тѣла
тѣлес
тѣлеса
тѣло
тѣлѣ
тѣсно
тѣсны
у
уаи
убочах
убочи
убытованя
увагов
увагу
увагы
уважаючи
уведеных
увидѣв
увидѣли
увидѣти
увольнѣня
уг
уга
углом
углох
углы
угля
угол
угорска
угорскеи
угорского
угорскои
угорску
угорскых
угорських
угорського
угорщині
угорьска
угорьско
угорьского
угорьскои
угорьску
угорьскых
угоча
уграх
угро
угры
уд
удав
удавать
удало
удар
ударами
ударом
удвари
удварі
удержав
удержати
удну
уді
удѣлив
удѣлять
уефа
уефз
уж
ужгород
ужгорода
ужгородом
ужгородска
ужгородского
ужгородскои
ужгородском
ужгородску
ужгородскыи
ужгородська
ужгородськии
ужгородського
ужгороду
ужгородъ
ужгородьска
ужгородьскои
ужгородьскіи
ужгороді
ужгородѣ
ужду
уже
ужиткового
ужну
ужок
ужшім
ужывають
узбекістан
узел
узко
узков
узкои
узкоколеи
узком
узкы
узкым
узлом
узнаня
узрів
узшом
узшім
уи
укаже
укажкы
указ
указав
указала
указали
указало
указаня
указати
указовав
указовала
указовали
указовати
указовач
указом
указуе
указують
указуючи
указує
укл
уклад
укладачі
укр
укра
украи
украина
украинизации
украинизацию
украинизация
украинка
украинов
украинофил
украинофилску
украинска
украинске
украинские
украинскии
украинских
украинско
украинсков
украинского
украинскои
украинском
украинскому
украинску
украинскы
украинскыи
украинскым
украинскыма
украинскых
украину
украинцьох
украинцями
украинцѣ
украины
украинѣ
украі
укрѣплены
ул
улици
улиць
улиця
улицях
улицѣ
уловок
улогу
улр
ултразвук
ултрафіалове
улі
ум
умар
умберто
умбертоеко
умелець
умелецька
умелецьку
умелецькы
умелецькыи
умелецькых
умелці
умень
уменю
уменя
умер
умерать
умерла
умерли
умерло
умерлов
умерлых
умовах
уможнюють
уможнює
уміня
уміщена
уміщене
уміщены
умѣлецка
умѣлецке
умѣлецко
умѣлецкого
умѣлецкои
умѣлецком
умѣлецку
умѣлецкы
умѣлецкыи
умѣлецкым
умѣлецкых
умѣлець
умѣлств
умѣлства
умѣлство
умѣлствознаня
умѣлствознатель
умѣлствѣ
умѣлцьох
умѣлця
умѣлцями
умѣлцѣ
умѣнь
умѣню
умѣня
умѣстив
умѣщена
умѣщены
умѣщеныи
умѣщѣня
ун
унг
унгвар
унгвара
унгварскои
унгварску
унгвару
унгваръ
унгварѣ
универзалного
универзит
универзита
универзитах
универзитет
универзитета
универзитна
универзитнои
универзитныи
универзитных
универзитов
универзиту
универзиты
универзитѣ
университет
университета
унии
уникатныи
унитарна
унию
уния
унр
унрп
унтертону
універзіта
універзіту
універзіты
універзіті
універсальна
університет
університету
університеті
уніо
унія
уніі
унґвар
уолт
упав
упадати
упаде
упадку
упадок
упала
упали
упало
уплатні
упоминать
упоминка
упоминкы
упомянута
упомянуте
упомянутыи
упоряд
упорядкованя
упорядник
управа
управительом
управление
управління
управу
управы
упц
ур
урал
уральска
уран
урацил
урду
урегулованю
урегулованя
уровень
уровне
уровни
уровньом
уровню
уровня
уроджѣню
уроджѣня
уродив
уродин
урожаи
урср
уругваи
уряд
уряда
урядна
урядник
урядника
урядниками
урядником
урядникох
урядникы
урядно
уряднов
урядного
урядны
урядныи
урядным
урядных
урядом
урядох
уряду
уряды
урядів
урядѣ
ус
усвѣдомлѣня
усес
усиловав
усиловала
усиловали
усилованя
усиловно
усилуе
усилують
усих
ускт
условии
условия
условиях
условно
условіи
условія
условіях
успе
успіх
успішне
успішно
успішні
успѣв
успѣня
успѣх
успѣхом
успѣху
успѣхы
успѣшна
успѣшне
успѣшно
успѣшного
успѣшном
успѣшности
успѣшны
успѣшныи
успѣшнѣи
усср
устава
уставу
уставы
установа
установив
установила
установили
установило
установлена
установлены
установленыи
установлѣню
установлѣня
устнои
усть
устю
устя
усэс
усі
усіх
усѣках
утвердив
утвердила
утвердити
утворена
утворення
утворены
утвореныи
утвореных
утворили
утворюють
утворює
утворі
утворѣню
утка
уторопи
уточнення
утратами
утратив
утративши
утратила
утратили
утраты
утратѣ
утрехтска
утриманя
утримати
утримовав
утримованы
утримованя
утримовати
утримуе
утримують
утримує
утцюзнина
утѣк
утѣкли
утѣкнути
уфа
уха
участвовав
участи
участнив
участник
участниками
участником
участникох
участникы
участнить
участниць
участь
участьов
участіє
учать
учебник
учебника
учебников
учебникох
учебникы
учебників
учебны
учебныи
учебных
учебныхъ
учебні
учена
ученик
ученикам
учеником
ученикох
ученикы
ученици
ученого
ученои
учены
ученые
ученыи
ученым
ученыма
ученых
учив
учила
учили
училища
училище
училищу
учинены
учиненыи
учинив
учинили
учинити
учитель
учителька
учительков
учительовав
учительовала
учительовати
учительом
учительох
учительского
учительскои
учительску
учительство
учительством
учителя
учителями
учителѣ
учити
учить
учів
учіли
учіня
учітеле
учітель
учітеля
учітелі
учіти
учѣня
ушаков
ушиткі
уі
ф
фа
фабльо
фабрика
фабрику
фабрикы
фабрицѣ
фабула
фаза
фазы
фаи
факт
фактично
фактичныи
факто
фактов
фактом
фактор
фактора
фактором
факторох
факторы
фактох
факту
факты
фактів
фактічно
факулт
факулта
факултет
факултету
факулту
факулты
факулті
факултѣ
фалц
фамелии
фамилии
фамилию
фамилия
фамиліи
фан
фантазии
фантастика
фантастикы
фара
фарад
фарадея
фарарь
фарб
фарба
фарбами
фарбов
фарбу
фарбы
фарбі
фаребныи
фармацевтична
фару
фасмер
фасо
фатима
фауна
фауны
фах
фахман
фахманох
фахманы
фахова
фахово
фахового
фаховои
фахову
фаховы
фаховых
фахом
фаху
фашистичнои
фашистов
фашистох
фе
феб
фебруар
фебруара
фебруарѣ
федак
федака
федерална
федералнов
федералного
федеральная
федеративна
федеративну
федераты
федератівна
федератівных
федерации
федерация
федерація
федераціі
фединець
федор
федора
федорович
федором
федір
феи
фелбигер
фелдешия
фенич
феничане
феномен
фенотип
фенцик
фенцика
фенікс
фердинанд
фердинанда
ференц
ференца
ферма
ферми
фернан
феррари
фестивал
фестивалу
фестивалы
фестівал
фецьо
фи
фигура
фигуры
физик
физика
физикална
физикалнои
физикалны
физикалных
физико
физикы
физиологии
физиология
физицѣ
физическая
физична
физичных
фиксуе
филантроп
филиалка
филиалкы
филипп
филм
филма
филмарь
филмах
филмова
филмового
филмовои
филмовы
филмовыи
филмох
филмы
филмѣ
филогенеза
филогенезы
филозоф
филозофа
филозофии
филозофична
филозофичнои
филозофичну
филозофичныи
филозофичных
филозофию
филозофия
филозофом
филозофох
филозофска
филозофски
филозофскои
филозофску
филозофскы
филолог
филологии
филологична
филологичнои
филологичных
филологию
филология
философии
философия
философская
финансованя
финансово
финанции
финанцы
финанчно
финанчну
финанчны
финанчныи
финанчным
финландии
финландия
финцицкыи
фирм
фирма
фирмы
фирцак
фиуме
фк
флавер
флаверскыи
флавта
фламскыи
флеминг
флеґматік
флобер
флора
флорентьскои
флоренція
флори
флоринкы
флоры
флоріда
флота
фляк
фляками
флякасты
флякастыи
флякастых
фляком
флякы
фляків
фм
фо
фогарашии
фодор
фолклор
фолклора
фолклорист
фолклориста
фолклористикы
фолклористка
фолклорны
фолклорныи
фолклорных
фолклору
фолклоріста
фолклорѣ
фольклору
фольфґанґ
фоліо
фон
фонд
фонда
фондох
фонду
фонем
фонема
фонемы
фонетика
фонетикы
фонетичны
форарлберґ
форд
форем
форинты
форм
форма
формална
формално
формалнои
формалны
формалных
формам
формами
формат
формата
форматѣ
формах
формации
формация
формов
формовав
формовала
формованю
формованя
формовати
форму
формування
формуе
формул
формула
формулов
формулы
формы
формі
формѣ
фортификации
фортификачныи
фотбал
фотбала
фотбалова
фотбаловои
фотбаловыи
фотбаліста
фото
фотограф
фотографии
фотонів
фотоґраф
фотоґрафія
фр
фразы
фракии
фракции
франк
франка
франклін
франко
франковск
франковскои
франком
франкох
франківска
франківська
франсуа
франсіско
франтишек
франті
франтішек
франц
франца
франциев
франции
франциов
франциско
францисци
францию
франция
француз
французска
французске
французсков
французского
французскои
французском
французску
французскы
французскыи
французскым
французскых
французы
французька
французького
французькы
французькыи
французькіи
французьска
французьскыи
франціе
франція
франціі
фраґментів
фрг
фредерик
фредерік
фредрик
фреквенціов
фреквенція
фреквенціі
френк
френсис
фрескы
фридек
фридрих
фридриха
фридрихом
фритьоф
фрои
фронт
фронта
фронтах
фронтѣ
фрукту
фріда
фрідріх
фунговав
фунговала
фунговали
фунгованя
фунговати
фунгуе
фунгують
фундаменталных
фундации
функции
функциов
функционарь
функционарька
функцию
функция
функциях
функціи
функціонованя
функцію
функція
функціі
функчны
фунґованя
фунґує
фурт
футуризм
футуризма
футуриста
футуристох
футурологичных
фі
фізико
фізік
фізіка
фізікална
фізікалныи
фізікы
фізіці
фізічна
філм
філмова
філмовыи
філму
філозоф
філозофів
філозофічна
філозофічныи
філозофічніи
філозофію
філозофія
філозофіі
філологія
філолоґ
філолоґіі
філософськии
філіп
філіппов
філіпіны
фіньско
фіньску
фіньскыи
фірцак
фіціи
фіґлі
фіґуры
х
ха
хана
ханство
ханты
характер
характера
характеризуе
характеризують
характеристика
характеристикы
характерна
характерне
характерны
характерныи
характерным
характерныма
характером
характеру
характерізує
характерістічна
характерістічне
характерістічно
характерістічныи
характерістічным
харвест
харитун
харків
харьков
харьковскои
харьковѣ
хата
хаты
хвора
хворого
хворот
хворота
хворотах
хворотов
хвороту
хвороты
хворотѣ
хворыи
хворых
хвоста
хвостовы
хвостом
хвості
хвіст
хгорн
хемии
хемик
хемична
хемично
хемичного
хемичнои
хемичну
хемичны
хемичныи
хемичных
хемия
хемік
хемічна
хемічнои
хемічныи
хемічных
хемія
хеміі
херсон
хилякъ
хименес
химическии
хира
хиры
хищ
хища
хищі
хищів
хланта
хлоп
хлопець
хлопцьох
хлопцѣ
хлор
хлорид
хлі
хлѣб
хмар
хмары
хмеле
хмелницкого
хмельницькии
хов
хованя
ход
хода
ходанич
ходжѣня
ходив
ходили
ходити
ходить
ходом
ходу
ходять
ходѣ
хозяи
холем
холерік
холлош
холошняи
хома
хомяк
хор
хора
хорв
хорватии
хорватия
хорватох
хорватскы
хорватскыи
хорваты
хорватьску
хорватьскыи
хорватьскіи
хорватія
хорватіі
хореографичны
хореографка
хормаи
хорового
хоровыи
хором
хору
хорхе
хорѣ
хосен
хосенны
хосенных
хосновав
хосновала
хосновали
хосновало
хоснована
хосноване
хоснованы
хоснованыи
хоснованых
хоснованю
хоснованя
хосновані
хоснователя
хоснователям
хоснователі
хосновати
хоснуе
хоснуют
хоснують
хоснує
хоть
хотьякои
хоті
хотѣв
хотѣла
хотѣли
хоць
хоче
хочеме
хочу
хочуть
храм
храма
храмах
храму
храмы
храмі
храмѣ
хранена
храненои
хранены
храненыи
храненыма
храненых
хранить
хрань
хранять
хребет
хребта
хребты
хрест
христа
христиан
христиане
христианска
христианского
христианскои
христианску
христианскы
христианскыи
христианскых
христианства
христианство
христианствѣ
христос
христі
хробаками
хробакы
хробаків
хробач
хробачками
хромяк
хроника
хронология
хронос
хрущов
хрущова
хріста
хрістос
хрістіан
хрістіане
хрістіанства
хрістіанство
хто
хтори
ху
хуан
худльово
худобнои
худобности
худобность
худобны
худобным
худобных
худож
художник
художника
хулио
хуст
хуста
хустского
хустскои
хустском
хустскому
хустскыи
хустскым
хустськии
хустського
хустѣ
хх
хххіі
хы
хыба
хыбить
хыблять
хыбна
хыбує
хыбы
хыж
хыжа
хыжи
хыжу
хыжы
хыляк
хырбет
хырбета
хырбетны
хырбетных
хырбетом
хырбеті
хімія
хіміі
хіх
ц
ца
цала
цалком
цалыи
цаліи
цап
цар
царскои
царства
царство
царством
царськыи
царь
царьом
царьство
царя
царіе
царія
царіі
цвѣткы
це
цезарь
цезаря
цеи
цензор
цензура
цензуры
центер
центр
центра
централа
централна
централнов
централного
централноевропскои
централнои
централну
централны
централныи
централныма
централных
централніи
централы
центральна
центрами
центрах
центром
центрох
центру
центрум
центры
центрі
центрів
центрѣ
церера
церква
церквах
церкви
церквов
церкву
церквы
церков
церковли
церковна
церковно
церковного
церковнои
церковном
церковнославянского
церковнославянскыи
церковны
церковныи
церковным
церковных
церковь
церузы
церьквеи
церькви
церьквов
церькві
церьков
церьковнославяньского
церьковныи
церьковных
цех
цзедун
ци
циална
цибере
цивилизации
цивилизация
цивилна
цивилне
цивилного
цивилнои
цивилну
цивилныи
цивилных
цигане
циже
ции
цикл
цикла
циклу
циклы
цимбора
цинтерю
циркусовыи
цироха
цирохы
цирульников
цитозин
цифер
цифры
циґане
циґаньска
цк
цка
цки
цм
цоуфалова
црнр
цу
цукор
цунамі
цура
цы
цынтарь
цього
цьох
цю
цюв
цюрих
цюриху
ця
цями
цях
ці
цівілізація
цівілізаціі
ціла
ціле
цілкова
цілком
цілого
цілому
цілу
цілыи
цілі
ціліи
цілім
цін
цінтерь
цінізм
ціпрус
цісарь
ціт
цітація
цѣ
цѣвы
цѣла
цѣле
цѣли
цѣлково
цѣлком
цѣлов
цѣлого
цѣлои
цѣлом
цѣлому
цѣлости
цѣлость
цѣлу
цѣлы
цѣлыи
цѣлым
цѣль
цѣльов
цѣлѣ
цѣнности
цѣнность
цѣнны
цѣнным
цѣну
цѣны
цѣсарства
цѣсарство
цѣсарством
цѣсарь
цѣсарька
цѣсарьом
цѣсаря
ч
ча
чабала
чабин
чабины
чад
чае
чаи
чак
чамо
чапек
чапле
чаплович
чапля
чаплін
чапочку
чарлз
чарлзу
чарлі
чарскои
чарскыи
чарьскыи
час
часах
часова
часово
часом
часопис
часописа
часописах
часописох
часопису
часописы
часописѣ
часослова
часох
часте
частеи
части
частина
частиць
частиця
частиці
частицѣ
частка
частку
часткы
часто
частоті
часточно
часты
частым
часть
частьов
частями
частях
часті
частѣи
часу
часы
часі
часів
часѣ
чать
чаю
чають
че
чеи
чекав
чекали
чекати
чекать
чекканчік
челенджер
чело
человек
челѣ
чем
чеман
чепа
чепель
чеперушка
червена
червене
червеним
червенов
червеного
червенои
червену
червены
червеныи
червеным
червеных
червона
через
чернеть
черник
черногорцы
чернышевскыи
черні
чернівці
черт
чертеж
чертижне
черты
черчіл
черяво
черяня
черять
черяють
чести
честна
честне
честного
честнои
честны
честныи
честным
честованыи
честованя
честь
чеськ
чеська
чесько
чеського
чеськои
чеськословеньска
чеськословеньско
чеськословеньского
чеськословеньскои
чеськословеньску
чеську
чеськы
чеськыи
чеськых
чеськіи
четверо
четверта
четвертина
четвертины
четвертого
четвертои
четверту
четвертыи
четверь
четыре
четырех
четыри
четыритомнои
четырма
четырьма
четырьох
чех
чехам
чехах
чехии
чехия
чехо
чехов
чехословакиев
чехословакии
чехословакию
чехословакия
чехословакіи
чехословакіі
чехословацка
чехословацке
чехословацков
чехословацкого
чехословацкои
чехословацком
чехословацку
чехословацкыи
чехословацкым
чехословацкых
чехословацькоі
чехословаччині
чехох
чехы
чечен
чеш
чешин
чешска
чешске
чешско
чешского
чешскои
чешском
чешску
чешскы
чешскыи
чешскым
чешскых
чештіна
чештіні
чи
чие
чии
чикаго
чикагу
чикивдя
чиле
чим
чимскорше
чин
чина
чинадьово
чинадіи
чинив
чинила
чинили
чинило
чинити
чинить
чинности
чинность
чинностьов
чинныи
чином
чинох
чину
чины
чинять
чисел
чисельність
числа
числами
численность
числила
числило
числит
числить
число
числом
числять
числѣ
чистих
чисто
чистого
чистои
чистость
чистоту
чистоты
чистыи
чит
читав
читали
читалнѣ
читанка
читаню
читаня
читатель
читательови
читательох
читателя
читателям
читателями
читати
читать
чия
чка
член
члена
членам
членами
членка
членков
членкы
членна
членом
членох
членскых
членства
членство
членув
члены
членів
членѣня
чловек
чого
чоло
чоловыи
чоловік
чоловіка
чоловікови
чоловіком
чоловѣк
чоловѣка
чоловѣкови
чоловѣком
чолі
чолѣ
чом
чому
чонка
чоп
чопеи
чопея
чопівці
чорна
чорне
чорно
чорнобуры
чорнобыль
чорнобілы
чорнов
чорного
чорногора
чорногорцѣ
чорнои
чорному
чорношыи
чорну
чорны
чорныи
чорным
чорныма
чорных
чорнянска
чорі
чотыри
чсвв
чср
чсср
чтиво
что
чу
чув
чувства
чуджоязычного
чудо
чужинцѣ
чужого
чужоземець
чужоземных
чужоземцьох
чужоземцѣ
чужы
чужых
чук
чуковскии
чули
чума
чургович
чути
чутя
чучка
чують
чі
чіжык
чіи
чіле
чім
чінить
чірок
чісел
чісла
чіслена
чіслено
чісленость
чісленых
чіслені
чісло
чісловникы
чіслом
чіслі
чісто
чістых
чітати
ш
ша
шабалина
шаблона
шави
шаи
шампіон
шампіоны
шандор
шансу
шаповал
шард
шаржи
шаржу
шариш
шарл
шаріське
шат
шатах
шатохина
шаты
шатя
шаті
шафарика
шафаріка
шафранко
шахы
шацованя
шацують
шацує
шашик
швабахер
шваи
швед
шведске
шведского
шведскыи
шведьскыи
швеи
шверін
шветлосц
швециев
швеции
швеция
швець
швеція
швеціі
швыдко
швыдкости
швыдкость
швыдкым
ше
шевченка
шевченко
шеи
шек
шемшученко
шенборн
шенчоу
шесте
шестеро
шести
шестого
шестыи
шеф
ши
шид
шии
шимбарк
шин
шина
шинкарук
шины
шипович
шипраг
ширила
ширили
ширина
ширити
широка
широке
широко
широкого
широкои
широком
широкости
широкость
широку
широкы
широкыи
ширше
ширшом
ширѣня
шиф
шифа
шифу
шифы
шифѣ
ших
шк
шкалов
шкалы
шкандінавского
шкандінавіі
шкандінаціі
шкер
шкеры
шкова
шкоду
шкоды
школ
школа
школами
школах
школи
школно
школного
школнои
школном
школны
школныи
школованю
школованя
школского
школства
школство
школстві
школствѣ
школу
школы
школьского
школьскои
школьскыи
школьскых
школьскім
школярі
школярів
школі
школѣ
шкотского
шкотскыи
шкотскых
шкоты
шкотьска
шкоции
шкоция
шкурла
шла
шлезии
шлезия
шлепецькыи
шли
шлиман
шлимана
шло
шлях
шляхта
шляхтич
шляхтича
шляхты
шмаи
шне
шников
шні
шо
шов
шовдарь
шовши
шого
шои
шолтес
шолтыс
шом
шому
шопен
шопрон
шопурка
шор
шора
шором
шоу
шоумен
шпа
шпак
шпанєльскы
шпанєльскыи
шпециализации
шпециализованы
шпециализованых
шпециална
шпециално
шпециалнов
шпециалного
шпециалнои
шпециалну
шпециалны
шпециалныи
шпециалным
шпециалных
шпецифику
шпецифичны
шпеціфічне
шпеціфічны
шпильковы
шпильковых
шпиона
шпионажного
шпиралы
шпиталю
шпиталя
шпорт
шпорта
шпортова
шпортовець
шпортовцьох
шпортовы
шпортовыи
шпортовых
шпорту
шпорты
шпіндлерув
шпірална
шпіце
шпіцями
шпіцятыи
шпіцятым
шрапнела
шрапнеля
шри
шрі
штаб
штадион
штадтконвікт
штандарт
штандартом
штат
штата
штатам
штатами
штатах
штатистик
штатистика
штатистикы
штатистицѣ
штатистичны
штатистичныи
штатна
штатне
штатник
штатнов
штатного
штатнои
штатну
штатны
штатныи
штатным
штатных
штатом
штатох
штату
штатув
штатут
штатута
штаты
штаті
штатів
штатістікы
штатістічныи
штатѣ
штации
штацию
штация
штефан
штефана
штефаном
штил
штила
штилу
штипендии
штипендию
штире
штири
што
штовеце
штокголм
штокголму
шторік
штось
штраи
штрамберк
штрас
штрасі
штрека
штрекы
штрецѣ
штруктур
штруктура
штруктурно
штруктуров
штруктуру
штруктуры
штруктурѣ
штудент
штудента
штудентам
штудентами
штудентох
штудентскых
штуденты
штудентів
штудии
штудировав
штудированя
штудируе
штудию
штудия
штудиями
штудиях
штудовав
штудовала
штудовали
штудованя
штудовати
штудуе
штудує
штудіи
штудіум
штудія
штудіі
штучно
штучного
штучны
штучныи
штучных
штырнадцять
штіл
штілу
штілі
шу
шугаи
шуклае
шумерскых
шунд
шундовых
шушарин
шы
шые
шыи
шыковно
шым
шыма
шынґле
шырить
шырока
шыроко
шыроков
шыроку
шырокы
шырокыи
шырокім
шырше
шыршім
шырі
шыти
шых
шыю
шыя
шыі
шіня
шість
шѣсть
шѣстьох
щ
щавницькыи
щавурськии
щастливыи
щастя
ще
щербак
щецин
щи
щит
що
щоб
щука
щігле
щіток
ъ
ы
ыи
ых
ь
э
эи
экз
экономика
экономические
элбакян
электронная
электронное
энтони
энцикл
энциклопедии
энциклопедическии
энциклопедия
энциклопедиясы
эсбе
это
ю
юбилеи
юбілеи
ювілеи
юг
юга
югасевич
юго
югоафрицькои
юговосток
юговостоку
юговосточнои
юговыход
юговыходнои
юговыходніи
юговыході
юговыходѣ
югозапад
[...]
