!
"
#
##0
##1
##10
##11
##12
##13
##14
##15
##16
##17
##18
##19
##2
##20
##21
##22
##23
##24
##25
##26
##27
##28
##29
##3
##30
##31
##32
##33
##34
##35
##36
##37
##38
##39
##4
##40
##41
##42
##43
##44
##45
##46
##47
##48
##49
##5
##50
##51
##52
##53
##54
##55
##56
##57
##58
##59
##6
##60
##61
##62
##63
##64
##65
##66
##67
##68
##69
##7
##70
##71
##72
##73
##74
##75
##76
##77
##78
##79
##8
##80
##81
##82
##83
##84
##85
##86
##87
##88
##89
##9
##90
##91
##92
##93
##94
##95
##96
##97
##98
##99
$
%
&
'
(
)
*
+
,
-
.
/
0
00
000
0001
0008
000909
001
002
003
004
005
01
010
011
015
01745329252
019
02
020
022
03
03142
03143
03146
032
034
036
04
0417
044
05
052
057
06
064
07
077
0782
08
086
0869
09
090
0927
0944
095
1
10
100
1000
10000
1001
1006
101
1011
1014
1015
1016
10173
102
1023
102398
1025
103
1030
1032
1038
104
10497
105
1050
1054
1057
106
1066
1067
107
1075
1076
108
109
1090
109297
1093
11
110
1100
11000
1105
111
112
1120
1121431
1122
113
1138
114
1144
1147
115
1150
1157
116
117
118
1180
119
1193
119456590
1196
12
120
1200
1204
1205
1206
121
1215
1218
122
1221
1224
1226
123
1236
124
1240
1241
1242
1245
1247
1248
125
1250
1252
1259
126
1260
1261
1265
1267
127
1271
1274
1275
128
1280
1286
129
1291
1292
1298
1299
13
130
1300
1304
13069
1307
131
1310
1314
1317
132
1320
1321
1323
1324
1326
1329
133
1332
1334
1337
134
1340
1343
1345
135
1350
1351
1352
1355
136
1360
1362
1363
137
1370
1371
1373
138
1385
1389
139
1390
1397
14
140
1400
1402
1404
1405
1406
1408
1409
141
1410
1411
1412
1414
1415
142
1420
1427
1428
1429
143
1430
1431
1435
1437
1438
144
1444
1445
1447
1448
145
1450
1451
1452
1453
1454
1455
1456
1459
146
1460
1466
1468
147
1471
148
1481
1483
1484
1485
149
1492
1496
1498
1499
1499241242
15
150
1500
1501
1502
1503
1505
1506
1509
151
1515
1517
1519
152
1520
1521
1522
1524
1526
1527
1528
153
1530
1534
1535
1536
1537
1538
154
1540
1541927324
1542
1543
1545
1546
1547
1548
1549
155
1550
1551
1552
1554
1555
1556
1557
1558
1559
156
1560
1562
1563433733
1564
1565
1565155187
1566
1567
1569
157
1570
1571
1571154431
1572
1573
1574
1577
1578
1579
158
1580
1581
1582
1583
1584
1585
1587
1588
1589
159
1590
1592
1595
1596
1597
1598
1599
16
160
1600
1603
1605
1606
1609
161
1610
1611
1612
1613
1615
1616
1618
1619
162
1620
1621
1622
1624
1625
1627
1628
1629
163
1630
1632
1634
1635
1636
1637
1638
1639
164
1640
1641
1642
1644
1645
1646
1647
1648
165
1650
1652
1653
1654
1655
1656
1657
1658
1659
166
1660
1661
1662
1664
1665
1666
1667
1668
1669
167
1670
1672
1673
1676
1677
1679
168
1680
1681
1682
1683
1685
1686
1687
1688
1689
169
1690
1691
1696
1696619151
1697
1698
1698612935
1699
17
170
1700
1701
1702
1703
1704
1705
170625
1707
1708
1709
171
1710
1711
1712
1713
1714
1715
1716
1717
1718
172
1720
1721
1722
1723
1724
1725
1726
1727
1728
1729
173
1730
1731
1732
1733
1734
1735
1736
1737
1738
1739
174
1740
1741
1742
1743
1744
1745
1746
1747
1748
1749
175
1750
1751
1752
1753
1754
1755
1756
1757
1758
1759
176
1760
1761
1762
1763
1764
1765
1766
1767
1768
1769
177
1770
1771
1772
1773
1774
1775
1776
1777
1778
1779
178
1780
1781
1782
1783
1784
1785
1786
1787
178746218
1788
1789
179
1790
1791
1792
1793
1794
1795
1796
1797
1798
1799
18
180
1800
1801
1802
1803
1804
1805
1806
1807
1808
1809
181
1810
1811
1812
1813
1814
1815
1816
1817
1818
1819
182
1820
1821
1822
1823
1824
1825
1826
1827
1828
1829
183
1830
1831
1832
1833
1834
1835
1836
1837
1838
1839
184
1840
1841
1842
1843
1844
1845
1846
1847
1848
1849
185
1850
1851
1852
1853
1854
1855
1856
1857
1858
1859
186
1860
1861
1862
1863
1864
1865
1866
1867
1868
1869
187
1870
1871
1872
1873
1874
1875
1876
1877
1878
1879
188
1880
1881
1882
1883
1884
1885
1886
1887
1888
1889
189
1890
1891
1892
1893
1894
1895
1896
1897
1898
1899
19
190
1900
1901
1902
1903
1904
1905
1906
1907
1908
1909
191
1910
1911
1912
1913
1914
1915
1916
1917
1918
1919
192
1920
1921
1922
1923
1924
1925
1926
1927
1928
1929
193
1930
1931
1932
1933
1934
1935
1936
1937
1938
1939
194
1940
1941
1942
1943
1944
1945
1946
1947
1948
1949
195
1950
1951
1952
1953
1954
1955
1956
1957
1958
1959
196
1960
1961
1962
1963
1964
1965
1966
1967
1968
1969
197
1970
1971
1972
1973
1974
1975
1976
1977
1978
1979
198
1980
1981
1982
1983
1984
1985
1986
1987
1988
1989
199
1990
1991
1992
1993
1994
1995
1996
1997
1998
1999
2
20
200
2000
20000
2001
2002
2003
2004
2005
2006
2007
2008
2009
201
2010
2011
2012
2013
2014
2015
2016
2017
2018
2019
202
2020
2021
2022
2023
203
204
205
206
207
20744
208
209
2096
21
210
211
212
2120
213
214
215
216
2160
217
218
219
2193
22
220
2200
221
222
223
224
2248
225
226
227
228
229
23
230
2300
231
232
233
234
235
2351
236
237
2379
238
239
24
240
2400
2409486
241
242
243
244
245
246
247
248
249
25
250
2500
251
252
253
254
255
256
257
2578
258
259
26
260
261
262
262823
263
264
265
2655
266
267
268
269
27
270
2700
2703
271
272
273
274
275
276
277
278
279
28
280
281
282
283
284
285
286
287
288
289
29
290
291
292
29274
293
2931
294
295
296
297
298
299
3
30
300
3000
301
301095
301100
301101
301103
301105
301107
301112
301116
302
303
304
305
306
307
308
309
31
310
311
312
313
3131
314
315
316
3166
317
318
319
32
320
321
322
323
324
325
326
327
328
329
33
330
3300
331
3314
33158
332
333
334
335
336
3364
337
338
339
34
340
341
342
343
343000
3432
344
345
346
347
348
349
35
350
3500
351
352
353
354
355
356
357
358
359
36
360
3600
36030
361
362
3628
363
364
365
366
367
368
369
37
370
371
372
373
374
375
376
377
378
379
38
380
381
382
383
3836
384
3840
385
386
387
388
389
39
390
391
392
393
394
395
396
397
398
399
4
40
400
4000
401
401495576
402
403
404
405
406
40615
407
408
409
41
410
411
412
413
414
415
416
417
4170
418
419
42
420
421
422
423
424
425
426
427
428
429
43
430
431
432
433
434
435
436
437
438
439
44
440
441
442
443
444
445
446
447
448
449
45
450
451
452
453
454
455
456
457
458
459
46
460
461
462
463
464
465
466
467
468
46842
469
47
470
471
4713
472
473
474
475
476
477
478
4781
479
48
480
481
482
4820059911470
483
484
485
486
487
488
489
49
490
49068
492
493
494
496
497
498
499
5
50
500
5000
5000000
501
502
503
504
505
506
507
508
509
51
510
512
513
514
515
516
517
518
519
52
520
521
522
523
524
525
526
527
528
529
53
530
53049
531
532
533
534
535
536
537
538
539
54
540
542
543
544
546
547
548
549
55
550
5500
551
552
554
555
556
557
558
559
5599
56
560
562
563
564
565
566
567
568
569
57
570
571
572
573
574
575
576
578
579
58
580
5800
581
582
583
584
585
587
588
59
590
591
592
593
594
595
596
597
598
599
6
60
600
6000
601
602
603
604
6040568
6045824
605
60565
606
607
608
609
61
610
612
613
614
615
616
617
618
619
62
620
623
624
625
626
628
629
63
630
631
6310
632
6326
634
635
636
639
64
640
641
642
644
645
646
647
648
649
65
650
6500
651
652
655
656
657
658
66
660
661
662
663
664
666
668
669
67
670
671
672
673
674
6744
675
676
677
678
679
68
680
681
682
683
684
685
687
688
689
69
690
691
692
693
694
695
696
697
698
699
7
70
700
7000
701
702
703
704
70425
705
706
707
708
709
71
710
711
712
713
715
716
717
7178
718
719
72
720
721
7234
724
725
727
728
729
73
730
731
732
733
734
735
736
737
739
74
740
741
742
743
744
746
747
748
749
75
750
7500
751
752
753
75319
754
756
757
758
76
760
761
76193
762
76231
763
765
766
767
768
769
77
770
772
773
774
775
776
777
778
779
78
780
781
782
783
7838
784
785
786
787
788
79
790
790028
7914
792
795
797
798
799
8
80
800
8000
801
802
803
804
805
806
807
808
809
8099
81
811
812
813
814
815
81515926
816
817
818
82
821
822
823
824
825
826
827
828
83
830
832
833
834
838
839
84
840
843
845
847
848
849
85
850
851
852
85270
853
854
855
856
857
858
859
86
860
8601
861
862
863
864
865
866
867
868
869
87
870
871
872
873
874
875
876
877
878
88
880
881
88185
882
883
884
885
88500
886
888
889
89
890
89104
892
89226
895
896
898
9
90
900
9000
90046
901
902
904
905
906
907
908
909
91
910
911
912
914
915
916
917
92
920
921
9221
923
924
928
929
93
931
936
937
938
939
94
940
941
944
9444
945
95
950
95007
951
954
9543
955
956
95696
957
958
96
960
961
962
963
964
965
966
967
968
969
97
970
971
972
973
974
975
978
979
98
980
98085
982
985
988
989
99
990
991
995
995344
997
998
999
:
;
<
=
>
?
@
\
^
_
`
a
aa
aarhus
ab
abau
abba
abbotsford
abbreviated
abbreviation
abc
ability
able
ablo
ablon
ablona
ablono
ablonu
ablony
abo
about
above
abrakadabra
abs
absentia
abusefilter
aby
ac
academia
academic
academy
accept
accepted
access
accessdate
accessed
accipiter
accipitridae
accipitriformes
according
account
accounts
achieved
achievement
achievements
acid
acrobat
acrocephalus
across
act
acta
action
active
activeusers
activities
activity
acts
actual
acuta
ad
ada
adam
adams
adatok
adatta
add
addclass
added
adding
addition
additional
additions
addon
address
addrow
adiectivum
adiectum
admin
administraci
administracji
administrateur
administration
administrative
administrator
administratori
administrators
admins
adobe
adria
advanced
adventure
ae
aegithalos
aeruginosus
af
affect
affected
affecting
afisha
africa
african
after
afterwards
again
age
aged
agency
ages
agiut
ago
agra
agricultural
ahead
aid
aide
aids
airways
aiuto
aiutu
aj
ajuda
ajutor
ak
aka
akade
akcio
akciova
ako
akrotiri
akspic
akta
al
ala
alabama
alaska
alauda
alaudidae
alba
albert
albicilla
albifrons
album
alcedinidae
alcedo
aldridge
ale
aleksander
aleksandr
alemannisch
alembert
alexander
alfo
alias
alice
align
alignbars
alisme
alive
all
alla
allcock
allen
allnames
allow
allowed
allows
alma
almost
along
alpestris
alpha
alphabet
alpina
already
als
also
alt
alten
although
aluco
always
alza
am
ambassade
ambulance
ame
amen
america
american
amerika
ami
among
amour
amsterdam
an
ana
anarchists
anas
anatomie
anchor
ancient
and
andere
andra
andre
andrej
andrew
android
andrzej
andy
aneb
ang
angeles
angl
animal
animalia
animals
animated
anita
anka
ann
anna
anno
announced
announcement
announcements
annual
anonymus
another
anser
ansikte
answer
answers
ant
antal
anthem
anthony
anthropologist
anthus
antoine
antoni
antonio
antropologie
any
anyone
anything
aor
apellido
apes
apivorus
apk
apodidae
apodiformes
apollinaire
apologize
appear
appearance
appeared
appearing
appears
apple
applicable
application
applied
apply
appropriate
approx
april
apus
aquaticus
aquila
ar
ara
arabic
arabica
aramaic
arbor
arborea
arc
arch
archanjela
architektu
architektura
archiv
archive
archives
archiwum
ardea
ardeidae
ardeola
are
area
areas
aren
arg
args
argsi
argtables
argtableval
argument
arguments
arial
arialarial
armenian
army
around
arpanet
array
ars
art
article
articles
artikel
artist
artposter
arts
arundinaceus
arvensis
arz
as
asher
asia
asian
asimov
asin
asio
ask
asked
asking
asks
asne
asopis
asp
aspx
assertinvokeequalmany
assertive
assign
assigned
assisted
associate
associated
association
assume
ast
astacus
astny
astronaut
astronomical
astronomy
asy
at
ater
atkovic
atlantic
atlas
atlasza
atp
atra
atricapilla
attacks
attend
attended
attention
atthis
attila
attr
au
auch
auckland
audio
auflage
august
augusta
augustin
augustine
augustinus
augustus
aula
auritus
australia
author
authorities
authority
auto
autobiography
autofill
automatic
automatically
autono
autor
autoru
aux
av
ava
available
avengers
average
aves
avoid
avosetta
award
awards
aware
ay
aythya
ayuda
az
aztec
b
ba
babel
baby
bac
back
background
backgroundcolors
backtranslate
backward
bacteria
bad
bahntechnik
baleczky
baleka
ballyroney
ban
banana
band
bang
bank
banner
banska
bantuan
baptiste
bar
barbara
barbaram
barbareum
barbatus
barcelona
bardata
baro
baron
barra
bars
barset
barsoom
bartolome
base
based
basel
basic
basil
basilica
basilii
bass
bat
battle
bauer
bay
bb
bbc
bc
bd
be
beatles
beautiful
bec
because
become
bedr
beech
been
before
begin
begins
begun
beh
behalf
behavior
behaviour
bei
beijing
being
belgium
bell
belli
below
ben
benedikt
ber
bereg
beregsza
berger
berlin
bermuda
bernd
berne
bes
bessenyei
besser
best
besten
beta
better
betu
between
bezzel
bf
bg
bh
bhatta
bi
biarmicus
biała
bibliographic
biblioteka
biblioteki
bibliotheca
bicycle
bie
big
bigbang
bigmir
bild
bilder
bill
bingen
binomial
biographical
biographie
biography
bioku
biolib
biological
biologie
biology
birc
bird
birdlife
birds
birth
bis
bische
bjn
black
blank
blatnic
blatnice
blaz
blica
block
blocked
blocker
blog
bloomberg
blu
blue
bluetooth
bluraymania
bly
bm
bms
bn
bner
bo
board
bodenwerder
bodrogkeresztu
body
bodystyle
bogdan
bohorodic
bold
bolded
bombycilla
bonjour
bonka
bonus
book
books
boolean
bor
border
borisov
born
borostya
borrar
borsod
bosnia
boston
bot
botanika
botany
botaurus
both
bots
bottom
box
boy
boyer
boys
boz
bp
bpy
br
brain
brand
brandos
brasleta
bratislava
bratislave
brazilian
break
brezany
brezno
bridge
brief
bring
brisanje
britain
britannica
british
brno
bro
broadcasting
broch
broken
brown
browser
bru
bruce
bruno
brush
bs
bu
bubo
buda
budapest
bude
budelberger
budget
budinsky
budownictwa
buffalo
bug
bugera
bugs
building
built
bukovske
bureau
burhinidae
burhinus
burial
burroughs
bus
but
buteo
button
buttons
by
bydleni
bystrica
byte
c
ca
caban
cache
caeruleus
caesar
cairo
calandra
calcutta
calendar
calendarmodel
calidris
california
call
called
calligraphy
calling
calls
cambrian
cambridge
camp
campbell
campestris
can
canada
canadian
canaria
cancel
cancer
candidates
candidatus
canorus
canto
canus
canvas
capella
capitales
caprimulgus
captcha
caption
carbo
card
cardano
cardinal
cardinale
cards
carduelis
carl
carnegie
carolina
carpathian
carpatho
carpatica
carpato
cas
case
cases
castle
castrum
casus
catalan
cate
categori
categoria
categorie
categories
category
cathedral
catherine
catholic
catholicum
catscan
caudatus
causa
cause
caused
cavalli
cc
cca
cd
cdk
cdot
ce
ceb
cej
cele
cell
cells
cellstyle
cemetery
census
center
central
centralnotice
centre
centrum
century
cern
certain
certhia
certhiidae
cest
cesta
cet
cetro
cgpm
ch
challenge
chan
change
changed
changer
changes
changing
character
characters
charadriidae
charadriiformes
charadrius
charles
chas
che
check
checktype
chelmlcklego
chemical
chemistry
chepa
cher
chernihiv
cherrug
chi
chicago
child
children
chile
china
chinese
chiroptera
chlapec
chlidonias
chloris
chloropus
cho
chodni
chodnom
choice
choose
chr
chra
chrbtom
christ
christian
christiana
christopher
chronologie
chronology
chrysaetos
chrzes
church
ci
cia
ciconia
ciconiiformes
cie
cielna
cielo
cieszyn
cijan
cincinnati
cinclus
cinerea
cio
ciou
circaetus
circle
circus
cis
citation
citations
cite
cited
cithara
cities
citoid
citrinella
city
ciuszko
civil
civilis
civilization
ckb
cke
ckoerner
ckokatoli
cky
cl
claim
claimentity
claims
claimspropertyid
clanga
clark
class
classes
classical
classification
classifieds
classis
claude
claudia
clav
cle
cleannumber
clear
clef
click
clicking
clifford
close
closed
club
clypeata
cm
cms
cn
cnh
co
coa
coalabel
cobar
coccothraustes
code
codes
coffea
cognitive
col
cold
collapse
collapsed
collection
college
collegium
collurio
coloeus
color
colorado
colors
colspan
columba
columbarius
columbia
columbidae
column
columns
com
combine
come
coming
comitatus
command
comment
comments
commission
committee
common
commons
commonwealth
communicate
communication
communis
communist
communities
community
como
compact
company
complete
completely
complex
composer
compound
comprehensive
computer
con
concat
concept
concepts
concert
concise
conference
confessiones
config
configuration
conflict
conflicts
confused
congratulations
connected
connecticut
conquest
conquistador
consensus
conservation
consider
consideration
consistent
consoleshop
consort
constant
consultation
contact
contain
containing
contains
content
contents
contest
context
continue
conto
contra
contrast
contraststyle
contributions
contributors
control
controlled
conventions
convert
convertnumber
coord
coordinate
coordinates
coordinatespec
copy
coraciiformes
corax
corbusier
core
cornell
cornix
corporation
corpus
correct
corrections
corresponding
corvidae
corvus
cos
cosmic
coul
could
council
count
counting
countries
countrownum
country
county
course
court
covid
cquote
cr
crafta
cramp
create
created
creating
creation
crex
crh
crimes
crisinus
cristata
cristatus
criteria
critical
cropped
croton
crowd
cs
csaplovics
csb
csc
cse
csi
csko
cso
csonka
csopey
css
csstext
ct
ctrl
cty
cu
cual
cuculus
cuenca
cui
culinaire
cultural
culture
cum
cup
curie
curr
current
currently
cursor
curvirostra
custom
customize
customizing
cut
cv
cy
cyaneus
cygnus
cynic
cyprus
cz
cze
czech
czechoslovakia
czna
czy
d
da
daesung
daily
dailytechinfo
dajama
dakota
dali
dam
dame
dan
daniel
danielle
dark
darkgrey
darmstadt
das
data
databa
database
dataid
datastyle
datatype
datavalue
date
dateformat
dates
datetime
david
davis
dawn
day
days
dd
de
dead
dear
death
deaths
debug
dec
deceased
december
decimal
decision
deep
deepcopy
def
default
defaults
defenestrace
define
defined
definition
deg
degrees
dei
deji
dejiny
dek
del
delaware
delete
deleted
deleteme
deletion
delfi
delfidelfi
delft
delichon
delim
delivered
delivery
delo
delta
democratic
demokraticky
den
dendrocopos
dennis
densetsu
department
depend
dependent
depending
dependvalue
deploy
deployment
depositphotos
depositphotosdepositphotos
deprecated
depth
der
derek
des
desc
describe
described
describing
description
descriptions
design
designated
designed
desirable
desired
desktop
destruction
det
detail
detailed
details
detected
determine
detroit
deus
deutsch
deutsche
develop
developed
developers
development
developments
device
devices
dezso
df
dfrac
dhekelia
di
dia
diabetes
dialect
dialog
diamond
diaz
dictionary
dictionnaire
did
didn
die
died
diego
diela
dierschke
dies
diff
difference
different
diffs
diggy
digit
digital
digits
dii
dio
diq
dir
direct
direction
directly
directory
disabled
disambiguation
discover
discovery
discuss
discussion
disease
disorder
display
displayed
displaying
displays
disputed
dissertatio
distribution
district
distrikto
distrito
diu
div
divadlo
diversity
divi
divisio
division
djvu
dkovic
dla
dm
dms
dmstest
dn
dna
dne
dnes
dnews
dni
dnia
dnipropetrovsk
dns
dny
do
dob
doba
dobr
dobroslava
doc
doctor
doctrina
document
documentation
documents
does
doesn
doi
doing
dokumentaci
dolny
dom
doma
domain
domani
domaz
dombostelek
dome
domenico
domestica
domesticus
dominica
domosti
don
donald
done
donovan
door
dos
dosta
dostupne
doteli
double
down
download
dowson
dowych
dozen
dr
dracula
draft
drag
dragon
drais
drama
dream
dreamstime
drevene
dreveny
drop
dropped
drug
druhe
druhy
dryocopus
drz
dsb
dte
du
dua
dubc
dublin
duda
due
dulichenko
dump
duna
dunajom
dunaradva
dungel
dunkt
during
dus
dutch
dux
dv
dvaca
dvd
dve
dvor
dvorni
dy
dynamo
dynasty
dz
dzenie
dzieje
dzieł
dztwo
e
each
eagle
earl
early
earth
easier
easily
east
eastern
easy
ec
ecclesiae
ech
echoslovan
eclipse
economic
ed
eda
ede
edgar
edi
edice
edinburgh
edit
edited
editing
edition
editions
editor
editors
edits
edmund
edni
edouard
edove
eds
edu
eduardogobi
education
educational
educationis
edward
edłoga
edłoha
ee
effect
effective
efter
egan
egretta
egy
egyetem
egyetemi
egyha
ehled
eht
eighth
ein
eine
einfu
either
eiyuu
ej
ejovice
ek
el
elaine
elbesze
elder
electropedia
elek
elektra
element
elementa
elements
elitre
elo
else
elseif
elte
em
email
eman
embahada
embassy
embed
embedded
embedding
emberiza
emberizidae
emil
emle
emperor
empire
empiricus
empty
emptywikidataentity
en
ena
enable
enabled
enclosed
encyclopaedia
encyclope
encyclopedia
encyclopædia
encyklopaedie
encyklope
encyklopedia
encyklopedie
end
endyklopedie
ene
energy
engelseziekte
engineer
england
english
engraver
eni
enie
enik
enix
enlarged
enstvo
ent
entertainment
entity
entityid
entries
entry
environment
environmental
environments
eny
eo
ep
epis
epops
epub
equagesic
equation
equiv
equivalent
equus
er
era
ercl
eremophila
eretiksamizdat
ericaceae
erithacus
erne
ernest
erni
erno
ernst
erny
error
errororentity
errorprinter
errors
erveny
ervin
erythropus
es
escudo
eska
eske
esko
eskoslovenska
eskoslovenske
eskoslovensku
eskou
esky
espan
esperanto
essays
est
established
esteban
esu
et
etc
ete
ethnic
ethnicity
ethnographia
ethnologue
etimolo
etnicke
etnografie
etnografii
etnographia
etnologie
etymologicky
etymology
eu
eugen
eukaryote
euphorbiaceae
eureka
euro
euromedia
europa
europaea
europaeus
europas
europe
european
eurovision
eutheria
ev
eva
evans
evc
evci
even
event
events
eventually
ever
every
everyone
evi
evrope
evropska
evropsky
evte
ex
exactly
example
examples
except
excubitor
eximia
exist
existent
existing
exists
exit
exner
expanded
expandtemplate
expected
explosion
expose
expression
expressions
ext
extended
extension
extensiontag
external
extinct
extinction
extra
eyes
f
fa
fabalis
fabricius
facebook
facial
facilitating
fact
factbook
facto
factor
facts
fagusius
failure
faint
fair
fakultet
falcinellus
falco
falconiformes
fallback
false
falu
familia
familiaris
families
family
familycolor
fandom
fandomfandom
faq
far
fargs
fast
faster
fastest
fat
father
fats
fauna
favorite
fb
fc
fe
feature
featured
features
feb
february
federal
federation
fedor
feedback
feel
feels
fejezet
felbiger
felis
felso
felvide
female
feminism
ferdinand
ferenc
ferra
fetch
few
ff
fg
fi
fia
fico
fidlovac
field
fields
fifa
fifth
figure
file
filename
files
filip
filipa
filius
fill
filled
film
filmpro
filologii
filosoficky
filozoficka
fina
final
financial
fincicky
find
finished
fink
finn
first
firstpostfix
fis
fish
fisheries
fishes
fit
fiu
five
fix
fixed
fixing
fjord
flag
flaglabel
flash
flava
flesh
float
floatstyle
flood
floor
flora
flow
fluviatilis
flytothesky
fm
fo
focus
focused
fold
folk
folklore
folkloristiku
follow
following
follows
font
fontsize
food
foot
football
footnotes
for
forbes
force
fordi
foreign
forest
forests
forget
form
forma
formal
format
formatdate
formatnum
formatpropertyvalues
formatstr
formatted
formattest
formatting
formica
formicidae
forms
formula
formulæ
forrester
fortepan
forward
fossil
foto
fou
found
foundation
four
fr
fra
frac
fraction
fram
frame
frameless
franc
france
francis
francisco
frankenstein
frankfurt
franklin
frantis
franz
frederick
free
freeman
freepik
freiburg
freiherr
french
frequently
freshwater
frey
friede
friedrich
fringilla
fringillidae
from
front
frt
fru
frugilegus
fry
frydek
ft
fu
fulica
full
fulvus
fun
func
funcname
function
functionality
functions
funduk
fungi
fur
fus
fuscus
future
futurenow
futurenowfuturenow
fuzzy
fy
fyziologie
g
ga
gabriel
gai
gainak
gaius
galassi
galassie
galaxy
galaxygameawards
galerida
galicia
galla
galleries
gallery
gallicus
gallinula
gallus
game
gamebomb
games
gammarus
gan
gano
gara
garden
garrulus
gary
garzetta
gastronomi
gastronomia
gastronomie
gavia
gaviiformes
gazeb
gd
gdp
ge
gegenwart
gek
gel
gellner
gemeinden
gen
genera
general
generale
generalis
generally
generate
generis
genetic
genocide
gent
gentiana
gentilis
genus
geo
geoffrey
geograficzne
geograficzny
geographiai
geographic
geographical
geohack
georg
george
georgia
georgian
german
germany
geschichte
gesellschaft
gesta
get
getargnums
getargs
getboolean
getcode
getcontentlanguage
getcurrentframe
getdatevalue
getentity
getentityobject
getletters
getline
getmetatable
getparam
getparameters
getparent
getqualifier
getqualifierdatevalue
gettemplate
getting
gettitle
getvalue
gharakhanyan
gi
gia
giai
gif
gilgamesh
gimp
gina
ginga
girls
gis
gittleman
give
given
gives
gje
gl
glandarius
glareola
glaucidium
gleb
global
globally
gloria
gmbh
gn
gne
gnes
gneveinek
gnu
go
goal
gocz
goddard
going
gold
golden
gon
gone
goo
good
google
gor
gordon
gorie
gorlice
gorro
gorskii
gos
goston
got
gott
gov
gr
gra
graculus
grada
gradually
graficke
grafika
grammar
grand
grande
grant
graphic
graphs
grateful
gray
gre
greaco
great
greek
green
gregorian
gregory
grfc
gridcolor
grimes
gris
groot
group
grouping
groups
growth
gruber
grudnia
grus
gruyter
grønland
gsellschaft
gsub
gu
guano
guardian
guardians
guet
gui
guide
guillaume
gull
gut
gutenbergdruckerei
gv
gy
gyi
gyo
gypaetus
gyps
gyula
gło
h
ha
habitat
habr
hackathon
had
hagia
hajnal
halan
half
haliaeetus
haliaetus
halifax
hall
hamburg
hameleons
hamer
hampshire
hand
handbook
handbuch
handling
hans
hanza
hanzelka
happy
hard
harmanec
harold
harper
harvard
has
have
having
haw
hay
hc
hd
he
head
header
headerid
health
hear
heidelberg
height
heights
heilige
heinrich
heir
held
helena
hello
help
helped
helper
helpful
helpo
helps
helyse
henr
henri
henry
henryk
here
heritage
hermann
heroes
heroi
heron
herout
herza
herzegovina
heslo
heward
hi
hiador
hiaticula
hidden
hiddencat
hide
hieraaetus
hierarchy
hieronymus
high
higher
highlight
highlighted
highlighting
hilfe
hill
hillary
hills
him
himantopus
himno
hindi
hindu
hindustani
hing
hirundinidae
hirundo
his
histo
histoire
historia
historical
historie
historii
history
historyczny
hja
hjelp
hjælp
hl
hla
hlavne
hlavni
hline
hlist
hm
hnuti
ho
hodinka
hodnota
hodnotu
holder
hole
holiday
holnap
holy
homarus
home
homo
honorific
honoris
hope
hor
hora
horam
horbal
hornya
horod
horoszczak
horses
horten
horva
hot
hotel
house
houses
how
however
hp
hr
hra
hrbek
hrsg
hrubi
hrung
hsb
ht
htm
html
http
https
hu
hubble
hudby
hudec
hugh
hugo
hulp
human
humbly
humenne
humennom
hundred
hungaria
hungarian
hungarorum
hungary
hus
husitstvi
huta
hy
hydronimy
hyphens
hz
i
ia
iau
ib
ibby
ibidem
ic
ice
ich
icka
icon
icons
ictv
iczn
id
idea
ideas
identity
idf
ido
idx
ie
ieee
iev
ievref
if
ig
iglesias
igna
ignaz
ignore
igor
iguides
ii
iii
ik
iki
il
iliacus
illinois
illustrovana
ilo
ilustrovany
im
image
imageclass
imagery
images
imagesize
imdb
img
imglbl
imglbls
imgs
impact
imperator
imperium
implemented
implements
important
imported
improve
improved
improvement
improvements
improving
in
ina
inak
inc
include
included
includemetatable
includes
including
incognito
increased
increment
incubator
indentation
index
india
indian
indiana
indians
indicate
indicator
indices
individual
individuals
indzsibaba
ine
infarctus
info
infobox
infoboxes
informa
informac
information
informed
infosunplanets
ing
initial
initiative
inmarsat
innych
input
insee
insert
inserted
inserter
inserting
inside
inspector
instance
instead
institut
institute
institution
institutionis
instructions
instytut
int
inte
integer
inteligencie
intelligence
intended
inter
interactive
interested
interface
interlanguage
internal
international
internationale
internet
internetseite
intervals
interwiki
into
introduce
introduction
invalid
invariant
invisible
invite
invited
invoke
invoked
involved
iny
io
iota
ip
ipa
ipairs
iphone
iprage
ipress
ir
irc
ireland
irodalmi
irodalom
irozene
is
isaac
isbn
isbns
isempty
iskola
island
islands
isle
isles
ismn
isn
isnotempty
iso
issn
issue
issues
istock
istockistock
istva
istype
isxn
it
italia
italic
italicized
italics
italictitle
itc
itelstva
item
itemid
items
its
itu
iu
iucn
iucnredlist
iupac
iuris
ius
iv
iva
ivan
ives
ivi
ivo
ivot
ivotopis
ivysi
ix
ixbt
ixobrychus
iz
j
ja
jacques
jak
jako
jamaica
james
jan
jana
janak
janda
jandy
jane
janet
janev
janko
january
japan
japanese
jaroslav
jarosław
javascript
jazyk
jazyka
jd
jde
je
jean
jednota
jeho
jej
jeji
jen
jens
jerome
jersey
jerzy
jes
jesu
jews
jezik
jfalu
ji
jimmy
jin
jinmaobuilding
jiny
jir
jirsa
jo
johann
john
johnson
johr
join
jon
jonathan
jones
jose
josef
joseph
journal
journalists
joy
jozef
jpeg
jpg
jpl
jr
js
jsem
jstor
jsza
ju
juan
julia
julian
julius
july
june
junior
jur
juraj
jure
juris
jus
just
justice
justify
jv
jynx
k
ka
kaa
kaiser
kalaallit
kalenda
kamen
kansas
kapitola
kar
karapuzov
karel
karl
karlova
karlovarsky
karolinum
karpat
karpatskej
karpatsky
karvina
kas
katalog
katedra
katego
kategooria
kategori
kategoria
kategorie
kategorien
kategorier
kategorija
kategorio
kategorya
katholikus
katolikus
kaz
kde
kdo
ke
keating
keep
kelet
kelly
kentucky
kenyeres
key
keyboard
kez
kg
khust
khz
ki
kiada
kiado
kids
kierunkiem
kiev
kievica
kind
king
kingdom
kingdoms
kingston
kinonews
kira
kiss
kj
kk
kl
klad
kladem
kladovy
klady
klatovy
klein
klobouky
klub
km
kn
knep
kniga
kniha
knihkupectvi
know
knowledge
known
ko
koch
koji
kok
kol
kola
kole
kolektiv
koli
kolstvo
koma
komenske
komnata
komora
kompletni
komunisticka
kong
kora
korean
korma
korona
korrespondent
kos
kosmos
kosmose
kosovo
kossuth
kostel
kostol
kostoly
kotali
kotrc
kova
koviera
kp
kr
kra
krafcik
kraj
kraji
krajna
krajo
kraju
krako
kras
krasnodar
krasnodarskiy
kray
krc
krieg
krimi
kriz
kro
kronika
krupina
krushynka
krynica
krynicki
ks
ksc
ksh
ksie
kto
ku
kubek
kubis
kubof
kudu
kula
kultu
kultur
kultura
kultury
kulturze
kun
kurpfalz
kve
kw
ky
kyiv
kyj
kyjov
l
la
labe
label
labeled
labelhook
labelid
labour
lack
ladislav
lady
lagopus
laguntza
lajos
lake
lambda
lampe
land
landscape
landsteiner
lang
langcode
langdata
langsval
language
languages
langue
langues
laniidae
lanius
large
larger
larousse
larus
las
lasker
last
lastnum
lat
latach
late
later
latex
latin
latina
latitude
lau
laude
laufmaschine
laureates
laurence
laurus
law
lay
layout
laz
lb
lbe
lc
lclcl
ld
le
lead
leader
leading
leadout
league
learn
learned
learning
least
leave
led
leda
lee
left
legal
legend
legie
legions
lego
lei
leiden
leipzig
leiratik
lek
lem
lemko
len
length
lenin
lenta
leo
les
leslie
lesopol
less
lesser
lessing
lestwa
let
lete
lets
letter
leucoptera
leucotos
leve
level
levoc
lewis
lexicon
lexikon
lexikona
lez
lg
lgyi
li
liber
libertad
liberty
library
libraryutil
libre
libres
libri
liddell
lidi
lidova
lidove
lidskou
life
liga
light
lightgrey
like
likely
limited
limosa
line
linegrey
lines
lingua
linguistics
lingva
link
linked
linking
linkname
links
linnaeus
lips
liquidthreads
lis
lisieux
liskola
list
listed
listing
lists
litera
literary
literatu
literature
literatury
little
live
lives
living
liwei
lka
ll
lle
ller
lma
lme
lmo
ln
lna
lne
lni
lo
loa
loaddata
loaded
loadi
loading
loadtabdata
lobatus
local
location
lock
lockheed
locus
locustella
log
logged
logic
logo
logos
lon
london
londy
long
longer
longitude
look
looking
looks
loop
lord
los
losso
lostfilm
louis
lova
love
lovek
loveopium
lovepik
loves
lower
loxia
lp
lpe
lr
lt
ltd
lu
lua
luaargs
luchino
ludnos
ludowa
ludowego
ludvi
luka
lullula
lum
luokka
luscinia
luscinioides
lutz
luxembourg
lv
lwo
ly
lyi
lymnocryptes
lysa
m
ma
mac
mache
machek
macintosh
macrourus
macura
madame
made
maecenas
magazine
magic
magister
magistratus
magna
magni
magocsi
magyar
magyara
magyarorsza
magyarsa
mahal
mail
mailing
main
mainly
mainsnak
maintenance
maintitle
maja
major
make
makes
making
mal
mala
male
mali
mall
malline
malmos
maly
mammalia
man
management
manet
manner
manual
manually
many
mao
map
mapa
mapframe
maplandia
mapping
maps
mar
maramures
marc
march
mare
margin
mari
maria
mariart
marie
marii
marine
marinus
mario
maritime
mark
marked
marker
marko
marks
markup
marok
marosi
mars
marta
martes
martin
martius
marvel
marvels
marx
marxism
mary
maryland
masaryk
masarykova
masarykovy
masonry
mass
massachusetts
match
mate
mater
math
mathematics
mathrm
mathworld
matrix
matthew
maurice
maurienne
max
may
mayakovsky
maybe
mayflower
mayne
maza
mb
mbox
mc
mcgill
mcova
mcove
md
mdf
me
mean
meaningful
means
mecky
med
medal
media
mediawiki
medical
medicinae
medicine
medieval
medius
medve
medzilaborce
meehan
meeting
meetings
megarhynchos
megogo
megye
megyei
mek
melbourne
melior
mellitus
mellyben
melody
member
members
memoized
memoriam
menozzi
mens
mention
menu
menus
mergus
meriass
meropidae
merriam
merula
message
messages
messier
messy
mesta
mesto
met
meta
metaargs
metaargskey
metatable
method
methodus
metric
metro
metropolitan
mexico
mezo
mf
mg
mga
mgr
mh
mhnt
mhr
mi
mia
michael
michal
michala
michel
michigan
mick
microscopy
microsoft
mid
middle
midi
miejscowos
might
mignews
migrans
migration
migratory
miha
miklo
miklus
mikula
milan
mile
military
milk
milky
millennium
million
milo
milton
milvus
min
minden
minerva
mini
minimus
ministerstvo
ministra
minor
minority
mint
minuta
minutes
minutus
mir
mirbeau
miroslav
mische
missing
mission
missouri
mistek
mit
mitteleuropas
mjbmr
mk
ml
mla
mlady
mm
mn
mnohy
mo
mobile
mod
mode
model
modern
modes
modified
modifying
modularis
module
mohr
mokra
mol
molasses
molna
monastery
monday
monde
mondo
monedula
monitor
monobook
monographia
monographs
montage
montana
montanus
montenegro
month
months
montifringilla
monument
moon
moorhen
morava
more
moreargumentsexist
morinellus
morning
morris
mos
moscow
moses
most
motacilla
motacillidae
moudrost
moudrosti
move
moved
movement
movie
moving
moz
mr
ms
msg
msu
mt
mu
much
muerte
muettersproch
mullarney
multi
multilingual
multiple
mund
mundart
mundo
munka
munkacs
munt
muraria
muriel
murillo
murray
mus
muscicapidae
musculus
museum
music
must
mustang
muza
muzeum
mw
mwl
mwlang
my
myobject
mys
myspace
n
na
nacht
nacl
nad
nagy
nagybereznai
najdete
najnowsze
nak
naked
nakladatel
nakladatelstvi
nakł
nam
name
named
names
namespace
namespaces
nan
naomi
nap
napi
naplo
napr
narodowy
narrative
nas
nasa
nation
national
nationalism
nations
native
nato
naturae
natural
nature
nauc
nauka
naukowe
naukowy
naumanni
naurok
nav
navbar
navbox
navigation
navigationsleiste
navy
nazewnictwo
nc
nchen
nchhausen
nd
nder
ndor
ndromed
nds
ne
neanderthalensis
near
nearrow
nebo
nebraska
nec
necessary
necka
need
needed
needs
negative
nej
nejstars
nek
nelmi
nelson
nemzet
nemzetise
neni
nerf
nerfblaster
net
netbigmir
nete
nethubble
neti
netliga
network
networks
neucha
neue
nevada
never
new
newer
newly
news
newsletter
next
nez
ng
ngc
nh
ni
nia
nicholas
nick
nicolas
nie
niedzielskiego
nietzsche
nietzsches
nig
night
nigra
nigricollis
nihilism
nika
nikifor
nil
nilargs
nilargskey
ninneni
nio
nisus
nitra
nivalis
niz
nk
nka
nko
nkp
nku
nky
nl
nn
nndb
no
nobel
nocat
node
noeditsection
nohospoda
nok
nombre
nomen
nomenclature
nominate
non
none
noon
norma
normal
normalis
norsk
norstone
north
northern
norway
nos
noso
nost
nosti
nostradamus
not
notable
note
notehead
notes
nothing
notice
notification
notify
notoc
notre
nov
nova
nove
novella
november
novinky
noviny
novy
now
nowe
nowele
nowikidataentity
nowrap
nr
ns
nsf
nska
nske
nsko
nsky
nszky
nt
ntay
nto
nu
nuclear
nucleic
nucleus
nuclphys
nuestros
nueva
nuit
num
number
numberof
numbers
numenius
numerals
numeric
numerical
numerus
nums
nunaat
nuts
nv
nwarrow
ny
nya
nyai
nyctea
nycticorax
nyelve
nyelvek
nyes
nyesen
nyi
nymphicus
nyos
nyroca
nyta
nyve
nyvkiado
o
obc
obce
obci
obec
obecny
oberc
oberkirch
obituary
obj
object
oblast
oborove
obra
obrazech
obsah
obyvatel
oc
och
ochrany
ochropus
octave
october
od
odd
oddeven
odeon
oder
oedicnemus
oenanthe
of
off
offered
office
official
oficia
og
ogg
oh
ohio
ohje
oil
oiml
ois
okaye
okoli
okolie
około
okres
okresu
ol
ola
olaf
old
older
olea
olive
olomouc
olszan
olympia
om
omega
omitted
omnia
on
once
ondr
one
ones
online
only
onocrotalus
ontario
ooui
open
opened
openform
opening
opera
operation
operator
opinion
opole
opolski
opportunities
opracowana
opresores
opt
optimus
option
optional
optionalarg
options
or
orange
oratio
orava
order
orders
ordinal
ordo
ordsuffix
org
orga
organisation
organisers
organism
organisms
organiza
organization
organized
organizing
oriental
orientalis
orientation
orig
origargs
origin
original
originally
oriolidae
oriolus
orosz
oroszok
orsza
orthodox
os
osadczy
osobnosti
osudy
ota
otakar
other
others
otherwise
otis
otto
ottu
otus
ou
our
out
outdated
outlines
output
outputhook
outside
ov
ova
ovce
ove
over
overlay
override
overview
own
oxford
ozon
ozonozon
oð
p
pa
pacific
padding
padne
padu
pag
pagalba
page
pagename
pages
pagina
pai
painting
pairs
palais
pale
palearctic
palisko
palkovic
pallas
palustris
pam
pama
pamiatky
pan
pandion
pandora
pannonia
panny
panorama
panoramio
panurus
papers
par
para
paraguayos
parallax
param
parameter
parameters
params
pardubice
parent
pargs
paridae
paris
park
parm
parsedms
parseinput
part
partch
participants
participate
participated
participating
particular
particularly
partiza
parts
parus
pas
pass
passed
passer
passeridae
passerinum
passion
past
pater
patri
patria
patricia
pattern
paul
paulus
pavel
paz
pc
pcall
pcd
pdf
pdt
pe
peace
ped
pedagogicke
pediya
pedoman
pek
pelecanus
pellucidar
pencil
pendulinus
penelope
penguin
penicillium
pennatus
pennsylvania
people
peoples
per
percent
percentage
perdix
perecsenyi
peregrinus
perennis
performance
pergamon
period
permian
pernis
persian
person
persona
personal
pesse
pest
pesti
peter
petr
petra
pg
ph
phabricator
phaeopus
phalacrocorax
phalaropus
phase
phd
phdr
phi
philadelphia
philip
philologie
philosopher
philosophie
philosophy
phoenicurus
phone
photo
photocount
photography
photomontage
photos
photoshop
php
phylloscopus
phylogenetic
phylum
physical
physics
pi
pianostaff
piazza
pica
picidae
pico
picoides
picture
picus
pie
piece
pierre
piko
pinterest
pinus
pirigyi
pisna
pitchfork
pittsburgh
pjſne
pko
pl
pla
place
placed
placeholder
placement
placentalia
places
plain
plak
plan
planet
planned
plannet
planning
plant
plantae
plantilla
plants
platalea
platts
platyrhynchos
play
player
playstation
playzone
please
plebs
plectrophenax
plegadis
plis
plotarea
plotdata
plovajko
plural
pluricentric
plus
plzen
pms
pneumoniae
png
pngtree
po
poc
pod
poddukelsky
podiceps
podicipediformes
podkarpatska
podkarpatske
podl
podlaska
podre
podrobnosti
poe
poecile
pohlavia
point
points
pojmu
pol
pola
polan
poland
polga
polichno
policy
polish
political
politika
polska
polski
polskiego
polskiej
polsko
poly
pomarina
pomarinus
pomni
pomo
pomoc
pomocna
pongra
poor
pop
popis
popular
population
por
porovna
porta
portal
portrait
portuguese
porzana
pos
position
positive
possible
post
posted
posteriori
postfix
poturzyn
pouz
povaz
power
powiat
powszechna
poyser
poz
pozsony
pp
ppelberg
ppt
pr
pra
practice
prag
prague
praha
prajzi
pratensis
pravda
praz
praze
pre
precision
precli
predefinic
predloga
preference
preferences
preferred
prefix
prefixtable
prefsection
preloz
premio
preprocessargs
preprocesssinglearg
pres
present
presentation
presentations
preservation
preserve
president
press
presva
previously
pri
primariae
primary
prince
princeps
princeton
principal
principum
print
printerror
priori
priorities
priority
priroda
prix
prize
prizes
pro
probably
proble
problem
problems
process
processing
produce
produces
product
production
productions
productivity
prof
profile
program
programming
progreso
progress
project
projects
projekt
projekty
prom
propclaims
proper
properties
property
propertyclaims
propertyid
proportion
proposal
proposals
proposed
protected
protektora
provide
provided
provides
province
pru
prunella
prvni
przczdzłeckiego
przewodnik
ps
psd
pseudoscience
psychology
psza
pszava
pt
pta
pttk
pu
pub
public
publications
publique
publish
published
publishers
publishing
pudong
pueblos
puerilis
pugnax
pujmanova
pul
pupin
purple
purpose
purpurea
puszta
put
puzzle
pwn
px
py
pyramidalis
pyrrhonism
pyrrhula
python
pytyopsittacus
pytyvo
pywikipedia
pzo
płaj
q
qid
qnumber
qu
quaife
qualifier
qualifierid
qualifiers
quantity
que
queen
querquedula
question
questions
quick
quo
quotation
quotations
quote
r
ra
rabbit
race
rad
rada
radi
radical
radio
radvan
rady
raffaello
raho
rai
raider
railroad
railway
raka
rallus
rally
ramaros
random
range
rank
ranks
rard
rathaus
rather
ratio
rava
ray
rayfield
raymond
rcccl
rcove
rd
rde
re
rea
reach
read
reader
readers
reading
ready
real
really
reason
reasons
rebo
rec
recent
recently
reclassified
recommendation
recommended
record
records
rect
recurvirostra
red
redakci
redaktora
redesigned
redirect
reduced
reefs
ref
refer
reference
references
referencing
reflex
refparts
regalium
regards
regent
regex
regio
region
regional
regions
register
registered
registration
regium
regnum
regulus
regyha
reich
reid
rejestr
rejzek
rek
related
relationships
relatively
relativity
release
released
relevant
reliable
religion
remaining
remains
remember
remiz
remizidae
removal
remove
removed
removing
rendben
rendernum
rendervalue
rene
renessaince
rep
repeat
replace
replaced
replacement
reply
report
reporter
reports
reprint
repu
republic
republice
republika
republiky
request
requested
requests
require
required
requirements
requires
rer
res
research
resolution
resolved
resources
respectively
rest
restaurant
result
results
ret
retrieved
return
returned
returns
reuters
rev
reverting
review
revised
revoluce
revue
rex
reynolds
rez
rfc
rffy
rgb
rgy
rgyi
rh
rho
rhode
rhododendron
ri
ria
rica
rice
rich
richard
richter
ridibundus
rie
right
rights
rimavska
ring
ringkas
riparia
rissa
rium
river
rk
rka
rke
rlap
rlek
rm
rmegye
rmezo
rmy
rn
rna
rndr
rne
rni
rny
ro
roa
road
robek
robert
roberts
robusta
roc
roce
rock
roda
rodentia
rodne
rodni
rodopis
rok
roku
roly
rom
roma
roman
romanum
ronald
rond
root
ros
rose
roseus
rosice
rospatak
rotunda
round
rounding
routledge
row
rowargs
rowcellstyle
rowclass
rowid
rownum
rowstyle
royal
roz
rozetka
rozhlas
rozporza
rpa
rs
rsasa
rske
rsulat
rt
rte
rterbuch
ru
rubecula
rubik
rudolf
rue
ruferra
ruficollis
rugamebomb
ruhi
ruhubble
rule
rulenta
run
runasa
runew
running
rupicapra
rus
rusi
rusin
rusinica
rusinsky
ruska
ruske
rusky
russia
russian
rustica
rusticola
rusyn
rusynacademy
rusynlit
rusyns
rusynuw
ruszin
ruszinok
ruszka
rute
rutenika
ruthe
ruthenia
ruthenian
ruthenicae
ruthenorum
ruthenum
ruz
rva
rve
rw
ry
ryb
rybni
ryle
s
sa
sabinov
sable
sablon
sadrz
sah
saint
sajo
sakha
sakubou
sala
salga
salinger
salvador
same
samuel
san
sancta
sancti
sanctorum
sanctum
sandbox
sanger
sanocki
sanockiej
sanok
sanoku
santa
sapiens
satellite
saturated
sav
save
saw
saxicola
say
says
sb
sbo
sc
scale
scalemajor
scaleminor
scarlatti
sce
sch
scheme
schen
schmadel
schmidt
scho
schoeniclus
scholae
school
schronisko
schule
schwa
schwarze
science
sciencenaked
sciences
scientific
scientist
scientists
scn
sco
scolopacidae
scolopax
scope
scops
scotia
scotland
scott
scottish
screen
screens
screenshot
sd
se
sea
search
searrow
sebestye
sec
second
secondpostfix
seconds
section
sections
sectiontable
sed
sede
see
seen
segmentation
seine
sek
select
selected
selecting
selection
self
selne
seminarium
semmelweis
semper
sen
senatus
send
sentence
sep
separate
separated
separator
september
serbia
serbian
series
serinus
server
service
services
session
set
setmetatable
setting
settings
seu
seungri
seven
several
sevilla
sex
sextus
sfondo
sforza
sg
sh
shanghai
share
shared
shedd
sheet
shenzhen
shenzhou
shift
shodo
shop
short
shortcut
should
show
showcase
showed
showerrors
showing
shown
shownproperties
shows
shun
si
side
sidney
sie
sierra
sig
sign
signature
signed
significant
signs
silent
simc
similar
simon
simple
simplelabel
simpler
simplify
simply
sin
since
single
sinp
siprage
sir
sirmium
sisters
site
sitelink
sites
sitta
sittidae
situation
sive
six
size
sizes
sj
sjabloon
sk
ska
skabelon
skala
ske
skepticism
ski
skich
skie
skiego
skiej
skin
skippropertyids
sklabina
sko
skoazell
skou
skr
sku
skupiny
sky
skłodowska
sl
sla
slabika
slanc
slavi
slavia
slavic
slavica
slavische
slightly
slo
slova
slovak
slovakia
slovanske
slovenska
slovenske
slovenskej
slovensko
slovensku
slovensky
slovni
slovnik
slovo
sm
small
smaller
smallest
smartphone
sme
smeshinka
smg
smith
smithsonian
smo
smolni
smolnik
sn
snak
snaks
snaktype
sne
snina
sninske
sntl
so
sob
sobrance
soccerbase
sochr
social
socialismus
socialist
society
software
sok
sokoli
sol
soli
som
sombor
some
someone
something
sometimes
son
sonata
song
soon
sophia
sorry
sort
sorted
sortedkeys
sortindices
sound
soup
source
sources
south
southern
souviseji
soviet
soyuz
sp
space
spaces
spacing
spanish
sparingly
sparrow
speak
speakers
special
species
specific
specified
specify
specimen
speed
speedy
spencer
spinus
spis
split
spo
spoken
spol
spolec
spoloc
spoluavt
spolupra
sportovni
spouse
spra
sprache
spread
spring
springer
sputnik
sputniknews
sq
square
sr
ss
ssp
ssr
st
sta
stacio
stadt
staff
stage
stalker
stan
standard
standing
stanford
stanislav
star
stara
stare
starina
start
started
starting
stary
stat
state
statements
states
station
statisticky
statistics
statistik
stats
status
statut
stav
stay
ste
steel
steelbook
stefan
stek
stellaris
stemdown
stemup
step
stephen
stercorarius
sterna
sternidae
steroid
steve
steven
stewards
sti
still
stille
stloukal
sto
stochowa
stoleti
stolp
stopa
stor
stored
stories
story
stowarzyszenie
stq
str
stra
strana
strank
stredocesky
street
streptopelia
strigidae
string
strings
strix
stroke
strong
stropkov
struc
struchaieva
structure
stuart
stub
studia
studied
studien
studies
studios
studium
study
sturnus
sturtevant
stuttgart
stvi
stvo
stwa
stwie
stwowe
stwowy
style
styleratio
styling
stypos
su
sub
subbuteo
subcarpathian
subdivision
subfamily
subgroup
subgroups
subheader
subheaderrowclass
subheaderstyle
subject
submissions
submit
subscribe
subscription
subset
subspecies
subtemplates
success
successful
such
suffix
suggest
sui
suite
sul
sulfur
sulimierskiego
sum
summa
summary
summer
sundries
sunplanets
suny
super
superfamilia
superior
superorder
supply
support
supported
supporting
supports
supraphon
sur
sure
surre
survey
survival
sus
sv
sva
svate
sve
svensson
svg
svidni
svoboda
svs
sw
swadesh
swahili
swan
swarrow
sweden
swedish
swift
switch
switching
sy
sydney
sylvia
sylviidae
symbols
synevyr
synonym
synonyms
syntax
syrovy
sysop
syste
system
systema
systems
sz
sza
szablon
szabo
sze
szeged
szeklence
szemle
szent
szentmiklo
szepesva
szere
szerint
szet
szettudoma
szineve
szinnyei
szl
szla
szlagowskiego
szlak
szlo
szo
szolyvai
szve
szymbark
słowian
słownik
t
ta
tab
table
tablelength
tablemerge
tables
tabletools
tablets
tabs
tadeusz
tadorna
taeyang
tag
tagaste
tagline
tags
taj
tak
takach
take
taken
takes
tala
talja
taljai
talk
tam
tana
tara
taras
target
tarzan
task
taskforce
tasks
tatisticky
tato
tatra
tatran
tatrou
tatry
tauera
taxa
taxon
taxonomie
taylor
tbilisi
tbl
tcp
td
te
teach
team
tebou
tech
techhubble
technical
technology
tedy
tefan
teil
tej
tek
tel
telecommunications
televize
tell
tem
temp
templat
template
templatedata
templates
templatestyles
templom
ten
tennessee
teodor
ter
teraz
term
terme
terra
terrible
territories
teryt
terytorialnego
test
testcases
tested
testing
tests
testtable
testve
tet
texas
text
textdata
tg
th
tha
thagaste
thai
than
thank
thanks
that
the
their
them
theme
then
theologie
there
these
theta
they
thing
things
think
third
thirty
this
thomas
thompson
those
though
thoughtco
thoughts
thousand
thread
threatened
three
threskiornithidae
through
thumb
thumbnail
ti
tichy
tidyval
tie
tigozavr
tika
till
tim
time
timeaxis
timeline
times
timestamp
timezone
timrava
tina
tinnunculus
tisicleti
tisza
title
titles
titlestyle
titletemplate
tk
tka
tky
tl
tn
tna
tni
to
tobot
toc
today
todo
toe
together
toggle
tok
told
toly
tom
toma
tomasz
tomb
ton
tonne
tonumber
too
tool
toolbar
tools
tooltip
top
topic
topl
tora
toronto
torquilla
tory
tostring
total
totanus
toto
totta
tour
tovy
towards
tower
town
toys
tp
tr
tracking
tradice
trailing
train
training
traite
trans
transclusion
translatable
translate
translated
translatewiki
translathon
translating
translation
translations
translators
travels
treated
treaty
treble
tree
tres
triage
trial
tridactyla
tridactylus
tried
trim
trimarg
tringa
trinity
trinomial
triunfal
trivialis
tro
trochilus
troglodytes
trojan
tru
true
trust
try
ts
tsentralnyy
tsn
tt
ttingen
tu
tudoma
tuesdays
tul
tum
turdidae
turdus
turisticka
turn
turtur
tv
tva
tvarne
tvo
tvu
tw
two
txantiloi
ty
tygodnik
type
types
typhus
typing
typis
tyr
tysie
tze
u
ua
uahubble
uaipress
uaitc
uamarvel
uatexty
uayakaboo
ubovn
uc
udalosti
udi
udia
udovy
udvari
ug
ugocsa
ugor
uhd
uiquipedia
uje
uk
ukr
ukra
ukrain
ukraina
ukraine
ukrainian
ukrainica
ul
ultra
ume
umelecky
umenia
umg
un
una
uncertain
und
under
understand
understanding
une
unesco
unexpected
unficyp
ung
ungarn
ungva
uni
unicode
unie
unio
union
unipo
unit
united
units
univ
universal
universe
universel
universelle
universitas
universities
university
universum
univerzita
uniwersytet
unknown
unless
unnamed
unranked
unstripnowiki
unsubscribe
until
up
upa
upcoming
update
updated
updates
upload
upon
upper
upright
upupa
ur
ura
uralensis
urba
urban
urdu
uri
uricomponents
url
urza
urze
us
usa
usage
usb
usd
use
used
useful
user
userboxes
users
uses
using
ustring
usually
utc
uz
v
va
vahe
vai
val
valas
valid
validate
valley
valo
vals
valuable
value
values
van
vanc
vance
vanellus
var
varepsilon
variable
variation
varsovio
vas
vasorru
vdots
ve
vec
vector
ved
veda
vega
vel
velky
venkovska
venus
vereckei
verlag
vermont
vernaculae
version
versions
versus
vertical
very
ves
vespertinus
veterina
veturilo
vi
via
vicarius
vicipaedia
vicipe
vickers
victoria
victory
vid
vide
video
videos
vie
vienna
viennae
view
vigors
vihorlat
vii
viii
viking
vikings
vikipedi
vikipedio
vikipediya
vikipidiya
vila
village
vilmos
vilnius
vimy
vincent
viquipe
virgin
virginia
viridis
virus
viruses
viscivorus
visconti
visible
visit
visual
visualeditor
visually
vita
vk
vko
vku
vlad
vladimi
vladimir
vladislav
vlastivedny
vlastni
vls
vni
vo
vodce
voegelin
vojsko
vojtech
vojvodina
vol
vola
volodymyr
vols
volume
volumes
volunteer
volunteers
vom
von
vondra
vorc
vorlage
vote
votobia
voyage
vranov
vratislav
vrchy
vro
vs
vstup
vu
vulgaris
vulpes
vy
vyd
vyda
vydalo
vydavatel
vys
w
wa
wald
walewskiego
walk
walkstar
wall
walt
walter
want
wantcomma
wanted
wants
war
warhol
warhola
warndump
warner
warrakkk
wars
warszawa
warum
was
washington
watch
watching
watchlist
water
way
ways
we
weapon
web
webb
weber
webnode
website
webster
wednesday
week
weekly
weil
welcome
well
welle
went
wer
were
werk
west
western
wha
what
whatamidoing
whatever
when
where
whether
which
whichever
whig
while
white
whitespace
who
whom
why
wi
wicipedia
wide
widetilde
width
widths
wie
wieku
wien
wies
wiesbaden
wieslauterbahn
wife
wiki
wikibase
wikibooks
wikidata
wikilink
wikilinked
wikimania
wikimedia
wikinews
wikipe
wikipedia
wikipedians
wikipedias
wikipedie
wikipedija
wikipedy
wikipidiya
wikiproject
wikiquote
wikis
wikisource
wikitext
wikiversity
wikivoyage
wikivoyages
wild
wilfried
wilhelm
will
william
williams
willing
wilson
windows
winners
winter
wisconsin
wisegeek
wish
wishlist
wisła
with
within
without
wives
wmde
wmf
wny
wo
wojewo
wolfgang
wolfram
women
won
woodrow
woods
word
words
work
workboard
worked
workflow
working
works
world
would
wołyn
wp
wrapper
wrappers
write
writing
written
wrocław
wrong
wto
wwe
www
wydawnictwo
wydawnicza
wydawniczy
władysław
władysława
x
xaver
xbox
xc
xhtml
xi
xii
xiii
xiv
xix
xixe
xl
xlix
xlviii
xv
xva
xvi
xvii
xviii
xx
xxi
xxii
xxiia
xxiii
xxv
xxvi
xxvii
xxx
xxxix
xxxviii
xy
y
yahoo
yakaboo
yandex
yang
yardbirds
ycie
year
years
yellow
yes
yestoys
yet
yi
yo
yonne
york
you
young
your
yourself
youtube
youtubeyoutube
yue
yyyy
z
za
zabi
zabytko
zac
zad
zadok
zahrada
zakarpattya
zaokrouhlova
zatok
zda
zdarma
zdravi
zdro
zdruz
ze
zea
zealand
zeit
zeitschrift
zeitung
zeme
zemi
zemple
zempli
zeppelin
zero
zet
zeum
zev
zh
zi
ziemi
ziemia
ziensia
zikmund
zime
zium
zko
zky
zlata
zlaty
zli
zlo
znaj
znam
zo
zok
zolta
zone
zoo
zoology
zoom
zse
zsef
zsolt
zta
zu
zum
zur
zv
zva
zvi
zygm
zyka
zyko
{
|
}
~
¡
£
§
©
«
¬
­
°
±
²
²⁷
³
´
µ
¶
·
¹
º
»
¼
½
×
ß
æ
ð
ø
þ
ĳ
ł
łemko
łemkowie
łemkowski
łemkowsko
ŋ
œ
ŧ
ŧb
ŧc
ŧe
ŧf
ŧg
ƨ
ƻ
ƿ
ȝ
ɐ
ɔ
ə
ɛ
ɤ
ɨ
ɪ
ɯ
ɾ
ʌ
ʰ
ʲ
ʻ
ʼ
ʾ
ˈ
ˌ
ː
˚
̀
́
̂
̃
̄
̆
̇
̈
̉
̊
̋
̌
̍
̑
̓
̔
̛
̣
̤
̦
̧
̨
̩
̬
̸
͂
ͅ
΄
α
αι
ας
β
βικιπαι
γ
γε
γος
γρα
δ
δεια
δη
δι
δο
ε
ευ
ζ
η
θ
θετον
ι
κα
κατηγορι
κη
κυ
λ
λαγος
λο
μ
μα
μος
μυ
ν
ναι
νιο
νο
νος
ο
οι
ον
ος
ου
π
πα
παρα
πατρι
πε
πι
πο
πος
ρ
ρα
ρι
ς
σις
τα
τερ
της
το
τυ
υ
φ
φυ
χ
ω
ϛ
а
абауи
абела
абелова
або
абов
абонента
абоненту
аборт
абрагам
абрамович
абрис
абсенции
абсенция
абсолвенты
абсолвентів
абсолвовав
абсолвовала
абсолутизм
абсолутна
абсолутно
абсолутнов
абсолутнои
абсолутну
абсолютно
абсорбованыи
абсорбованя
абстрактна
абстрактнии
абстрактним
абстрактны
абстрактныи
абстрактныма
абстрактных
абстракція
абу
абхазия
абы
ав
авадь
авантгардныи
авантурныи
авантурных
аватар
авать
август
августа
августин
августина
августином
августинянох
августовыи
августѣ
авдотковы
аве
аведісова
авиаконштруктер
авиаконштруктера
авиации
авитаминоза
авогадра
авогадрова
австралии
австралия
австралія
австраліі
австриев
австрии
австрию
австрия
австро
австромадярскыи
австріе
австріи
австрія
австріі
авт
авта
автах
авто
автобиографии
автобиографична
автобиография
автобус
автобуса
автобусныи
автобусом
автобусы
автобіографія
автобіоґрафія
автовідключенням
автодорог
автодорога
автодорогы
автодорожныи
автодорозѣ
автокемпинг
автом
автоматична
автоматично
автоматичного
автоматічне
автоматічно
автомобилового
автомобиловыи
автомобіл
автомобіловіи
автомобільныи
автономиев
автономии
автономию
автономия
автономна
автономная
автономнов
автономного
автономнои
автономном
автономноі
автономну
автономны
автономныи
автономным
автономіи
автономію
автономія
автономіі
автопортрет
автор
автора
авторами
автори
авторитет
авторитетны
авторитетныи
авторитетом
авторитетох
авториту
авториты
авторка
авторков
авторкы
авторов
авторови
автором
авторох
авторска
авторске
авторскы
авторскых
авторства
авторство
автору
авторы
авторьскы
авторьскых
авторів
автохтонность
автохтонны
автѣ
авшак
авґуст
авґуста
авґустин
авґустина
авґусті
агамемнон
агамемнона
агент
агентами
агентом
агенции
агенция
агитации
агитацию
агломерации
агломерация
агнета
агои
аграрна
аграрнои
аграрном
аграрныи
агресивне
агресии
агроколедж
ад
адалберт
адам
адама
адамс
адамчик
адаптации
адаптована
адаптованы
адвент
адвентисты
адвокат
адвоката
адвокатску
адекватну
аденин
адже
ади
адлерѣ
админ
административа
административна
административне
административно
административного
административнои
административну
административны
административныи
административным
административных
административы
администратор
администратора
администратори
администратором
администрациев
администрации
администрацию
администрация
адміністративна
адміністративно
адміністративнои
адміністратор
адміністратора
адміністратори
адміністратором
адміністраторы
адміністраторів
адміністратівна
адміністратівне
адміністратівно
адміністратівны
адміністратівныи
адміністратівным
адміністрацію
адміністрація
адміністраціі
адолф
адолфа
адольф
адрес
адреса
адресарь
адресация
адресованыи
адресы
адриан
адъектив
адъєктівы
ае
аероплан
аероплана
аеропланох
аеропорт
аеропортув
аерофоны
аес
аж
аз
азан
азана
азбука
азбуковник
азбуку
азбукы
азербаи
азиев
азии
азимова
азия
азовского
азовскым
азорах
азоры
азот
азс
азсср
азтекох
азтекы
азтеци
азтецкои
азіе
азіи
азію
азія
азіі
аи
ак
акад
академиев
академии
академик
академика
академикох
академическаго
академическии
академична
академичне
академичного
академичнои
академичну
академичны
академичныи
академичных
академию
академия
академічна
академічныи
академію
академія
академіі
акбар
акварел
акватории
акватория
аквіньскыи
акопян
акрил
акростих
акротири
акры
аксесуарів
аксиома
акт
акта
актами
актер
актера
актерами
актерка
актерков
актером
актерох
актерства
актеры
активиста
активистка
активистом
активистох
активисты
активна
активне
активним
активно
активнов
активного
активнои
активности
активность
активноі
активну
активны
активныи
активным
активных
активні
активнѣи
активісти
активісты
актом
актор
актори
акторка
актох
актуална
актуално
актуалнои
актуалность
актуалны
актуалныи
актуалным
актуалных
актуалні
акты
актів
актівна
актівно
актівного
актівны
актівныи
актівным
актівні
актівіста
актівісты
актівіт
актівіта
актівіты
актѣ
акузатів
акузатівом
акурат
акушерскыи
акцелерація
акцент
акцентом
акцентуе
акцесории
акции
акция
акциях
акція
акціі
акіра
ал
ала
аламбер
аламбера
аламберов
аламогордо
алан
аланды
аларика
албании
албания
албанцьох
албанцѣ
албанія
алберт
алберта
албомы
албрехт
албум
албумом
албумы
албумів
алгебры
але
алеи
алекса
александер
александр
александра
александрии
александрия
александров
александрови
александрович
александром
александру
алексе
алексеев
алексеевич
алексеевна
алексеи
алексея
алексии
алексіи
алексѣи
алеманського
алеманськоі
алеманськы
алеманськыи
алеманськых
алжбета
алжбеты
алжир
алжира
алжір
али
алиса
алкалии
алкалоиды
алкалоід
алканы
алкогол
алкогола
алкоголизм
алкоголу
алкоголы
алкоголічны
алла
аллаг
аллага
аллагу
аллан
аллен
алманах
алманаха
алманахах
алманаху
алманахы
алмати
алматы
алмашии
алмашіи
алои
алп
алпами
алпах
алпиниста
алпскыи
алпы
алпіи
алтаи
алтернативна
алтернативныи
алумнеум
алумнея
алумініи
алумініовы
алфа
алфавита
алфавитах
алфавиту
алфавіт
алфавітах
алфавітныи
алфавіту
алфавіты
алфавіті
алфред
алцгеи
альберт
альманах
альт
аляска
алє
алі
алґебра
алґебры
алґорітм
амадеи
амазонка
аматерском
аматерскы
аматерскыи
аматерскым
аматерскых
аматор
амбасада
амбасадор
амбасадора
амбасады
амбассады
амбуланту
америка
америки
америков
америку
америкы
америцка
америцке
америцков
америцкого
америцкои
америцку
америцкы
америцкыи
америцкым
америцкыма
америцкых
америцька
америцьке
америцьков
америцького
америцькому
америцьку
америцькуи
америцькы
америцькыи
америцькым
америцькых
америцькім
америці
америцѣ
америчан
америчанами
америчане
америчанох
аминь
амнестии
амнестию
амнестованыи
амортизована
амос
амоса
амплітуда
амстердам
амундсен
амінь
ан
ана
анализ
анализа
анализу
анализуе
анализы
аналог
аналогичны
аналоґічно
аналіз
аналіза
аналізы
анатолии
анатоліи
анатомии
анатомична
анатомия
анатомія
анг
ангажман
ангажовав
ангалт
ангел
англ
англии
англиканскои
англиов
англицка
англицке
англицкого
англицкои
англицком
англицкы
англицкыи
англицкым
англицкых
англичан
англичанами
англичане
англию
англия
англо
англоязычном
англоязычны
англоязычныи
англоязычных
англіи
анд
андерсен
андерсена
анджелес
анджелесі
андраш
андре
андреа
андреев
андреевич
андреевского
андреи
андрея
андромеда
андромеди
андромеду
андромеды
андромеді
андропова
андріе
андріи
андрія
андрѣи
андрѣя
анды
анекдот
анекдота
анекдоты
анексии
анексия
анектованыи
ани
анимации
анимация
анион
анкеты
анкетѣ
анн
анна
анни
аннов
анны
анод
анода
анонимно
анонимус
анонимуса
анонимъ
анонімныи
анорґанічных
анотація
анри
анрур
анрі
ансамбель
ансамбл
ансамбла
ансамблох
ансамблу
ансамблы
ансамблю
ансари
анская
ант
антал
антанта
антанты
антарктиды
антарктіда
антарктіду
антарктіды
анти
антиген
антигенох
антигены
антигитлеровскои
антигуа
антилы
антиохии
антисептикы
антисептические
антисептичных
антисовѣтскои
антисовѣтску
антисовѣтскы
антитѣла
антифашистичного
антифашистичных
антична
античного
античнои
античности
античноі
античных
антологии
антологию
антология
антологиях
антологія
антолоґия
антон
антона
антони
антонии
антонин
антонина
антонио
антония
антоніи
антонін
антоніо
антонія
антрополог
антропологы
антрополоґічны
антрополоґію
антрополоґія
антрополоґіі
антуан
антуанетта
антіка
антікы
антіохіі
анулованя
анучин
анця
анці
анімалнои
аніматор
анімація
аніме
анґ
анґажовав
анґл
анґлами
анґло
анґліцька
анґліцько
анґліцького
анґліцькои
анґліцьку
анґліцькы
анґліцькыи
анґліцькім
анґлічті
анґлія
анґліі
анґола
аоріст
апарат
апарата
апаратах
апаратох
апаратуры
апараты
апараті
апартеід
апелатив
апелатива
апликации
апликованы
аплікаціі
аплікованы
апод
аполла
аполлинер
аполлинера
аполлон
аполлонівка
апостол
апостола
апостолов
апостолом
апостолох
апостолского
апостолскои
апостолскыи
апостолы
апостолів
апостроф
апострофы
аппарат
аппарата
аппаратов
апр
апреля
апріл
апріле
апріль
апрілю
апріля
апрѣль
апрѣлю
апрѣля
ар
араб
арабами
арабии
арабия
арабох
арабска
арабске
арабского
арабскои
арабскы
арабскыи
арабскым
арабскых
арабы
арабів
арабіка
арабія
арагваи
аракс
арамеи
арас
арашіды
арбитража
арбитражи
арбитражу
арбітражі
арва
аргентина
аргентинѣ
арданові
арджаво
арджавыма
ардял
ардяла
ардялского
ардялѣ
ареал
ареалом
ареалу
ареалі
ареалѣ
арендовав
арендована
арешт
арешта
арештантох
арештанты
арештовали
арештованы
арештованыи
арештованых
арештом
арешту
арештѣ
арианство
аризона
арии
аристов
аристократичнои
аристокрации
аристотел
арифметика
арк
аркада
аркады
арктикы
арктичныи
арктіды
арку
армад
армада
армадного
армадном
армадныи
армадов
армады
армадѣ
армении
армения
арменох
арменскои
арменску
армены
арменія
арменіі
армии
армию
армия
армстронг
армстронґ
армія
арміі
арнсдорфу
арпадовцьох
аррасу
арсеніи
арт
артемова
артерии
артефакт
артефактох
артефакты
артиста
артистично
артистка
артистков
артисты
артур
аруба
арутюнов
арх
архаикы
архангела
архангельскии
археи
археолог
археологии
археологична
археологичне
археологичны
археологичных
археология
археологы
археолоґічны
археолоґічных
археолоґія
археолоґіі
архибискупа
архив
архива
архивах
архивна
архивны
архивоване
архиву
архивѣ
архидиакон
архиепископ
архиепископа
архиепископом
архиереи
архии
архимандрит
архимандрита
архипелаг
архипелага
архипелагом
архипелагу
архипенко
архитектор
архитектора
архитекторы
архитектура
архитектурны
архитектурныи
архитектурным
архитектурныма
архитектурных
архитектуру
архитектуры
архитектурѣ
архия
архів
архіварь
архіву
архідіаконом
архімед
архітект
архітектор
архітектура
архітектурных
архітектуров
архітектуру
архітектуры
архітектурі
арістотель
аріфметіка
арґентина
арґентины
арґентиньскыи
арґентіна
арґон
арґумент
арґументація
арґументы
ас
асамблеи
асвт
асеи
асимиловали
асистент
асистента
асклепии
асоц
асоциации
асоциация
асоціація
асоціаціі
аспект
аспектами
аспектах
аспекту
аспекты
аспектів
аспектѣ
ассамблеи
ассистент
аст
астеносферы
астероид
астероидох
астероід
астрель
астролаб
астролог
астрологія
астрометрия
астронавт
астронет
астроном
астронома
астрономам
астрономи
астрономии
астрономична
астрономичного
астрономичнои
астрономичны
астрономичныи
астрономичных
астрономию
астрономия
астрономом
астрономы
астрономічнии
астрономічного
астрономічныи
астрономія
астрономіі
астрофизичнои
астрофізика
астряб
асфалтка
асфалтку
асі
асіметрічныи
асімілація
асімілаціі
асірія
асіст
ат
атак
атака
атаковати
атаку
атакує
атакы
атаназ
ататюрк
атеиста
атеисты
ательер
атен
атенах
атентат
атентатник
атентатѣ
атены
атестацию
атеі
атилла
атланта
атлантида
атлантидѣ
атлантичного
атлантичном
атлантичныи
атлантичным
атлантіку
атлантічного
атлантічныи
атлантічным
атлас
атласа
атмосфера
атмосферичны
атмосферов
атмосферу
атмосферы
атмосфері
атмосферѣ
атом
атома
атомами
атомиздат
атомова
атомове
атомовов
атомового
атомовои
атомову
атомовы
атомовыи
атомовых
атомох
атому
атомы
атомів
атп
атрактівныи
атракции
атракция
атрибуты
аттометер
атф
аугсбург
аудио
ауэрбах
афанасьева
афганистан
афганска
афелии
афелию
африка
африкаанс
африканьска
африки
африков
африку
африкы
африцком
африцька
африцького
африцькыи
африцькых
африці
африцѣ
афро
афроазии
афріканчіна
афіша
афґаністан
афґаністаном
ах
ахеи
ахил
ахила
ацамба
ацтеки
ачеи
ачии
ашока
ашпирантуру
ашпирантурѣ
аэропорт
аюшки
аяган
аякс
аідс
аірес
аґнес
аґресівныи
аґресія
б
ба
баба
бабець
бабинець
бабка
бабота
бабочки
бабы
бабілон
бабінець
бабінце
баварии
бавария
баварія
баваріі
бависка
бавка
бавовна
бавок
багалеи
багамы
баганич
багато
багатокольоровии
багаторукоі
багдати
бадане
баданя
бадать
бадаюча
баден
бае
бажана
база
базен
базена
базену
базенѣ
базилика
базиликы
базилицѣ
базилович
базиловича
базов
базова
базовов
базовои
базовы
базовыи
базовым
базу
базує
базы
базі
базѣ
баи
бак
бака
бакалавра
бакаларь
бакаларя
баклан
баков
бакова
баком
бакош
бактерии
бактериолог
бактериофаг
бактеріі
баку
балабан
балад
балады
балакун
балатон
балет
балета
балецкыи
балкан
балканах
балканского
балканском
балканскых
балкані
балкона
баллады
баллирони
балог
балога
балтицкого
балтіцьке
балтіцького
балудянскыи
балудяньскыи
банан
бананы
банат
бангладеш
банд
бандера
бандуркы
бани
баниця
банк
банка
банкарь
банки
банковкы
банковок
банкок
банку
банкы
бановци
банска
банскобістріцькыи
банскобістріцькім
банскои
бантлин
банту
бань
баньска
баньскіи
баня
банями
банях
банѣ
банґладеш
бар
бараболя
барада
баранчік
бараташвили
барбадос
барбареум
барбареума
барбово
барбуда
бард
бардее
бардеи
бардѣи
барже
барз
барзже
баровти
барока
бароко
барокова
бароково
барокового
бароковы
бароковыи
барон
барона
барсов
бартоломе
бартон
барцафалви
барцелона
барь
барьеровы
барьеровыи
бас
басараб
басеи
басинскии
баскетбал
басова
бассеи
баталион
батерии
батист
бату
батута
батцен
батценув
батьків
батьківських
батьованы
батьово
батьового
батя
баффало
бах
бахреи
бахчисараи
бач
бача
бачванско
бачванскых
бачи
бачилифокустелескоп
бачинскыи
бачинськии
бачити
бачка
бачкеи
бачко
бачкы
бачске
бачіньского
бачіньскыи
башарин
башкортостан
баюс
баюсы
баґдад
бгутан
бе
без
бездѣтныи
безкоштовне
безкоштовно
безкоштовного
безкоштовні
безмала
безнаді
безо
безопасности
безпека
безпеков
безпеку
безпекы
безпечности
безпечность
безплатно
безплатны
безплатні
безпрецедентно
безроботя
безуспѣшно
безхыбном
безхырбетны
безхырбетныма
безхырбетных
беи
бекас
бекасовы
бекасовых
бел
бела
беларуская
белая
белгии
белгия
белеград
белень
белетрии
белетрия
белетрія
белиз
белизара
белинского
белинскыи
белл
белые
белянскы
белґія
белґіі
бен
бендиго
бендіс
бенедикт
бенеш
бенеша
бенешом
бенин
бенни
бенятина
бенґалскыи
београд
београда
београдскои
београду
београдѣ
бер
берберох
берберскы
берберы
бергенского
бере
берег
берега
берегам
берегами
берегах
берегова
берегово
береговои
береговского
береговскои
береговском
береговскым
береговѣ
берегом
берегох
берегу
берегы
берегів
берегівка
берегівскыи
берегівскім
берегівськии
бережничка
бережску
березах
березникы
березныи
березня
березы
березі
березѣ
береме
бери
беркасово
беркут
берлин
берлина
берлинскои
берлинѣ
берлін
берліоз
бермуды
берн
берна
бернар
бернерс
бернолак
бернолака
бернолаковчины
бернѣ
берровз
берроуз
берроуза
беруть
берґман
берґмана
бескид
бескида
бескидами
бескидах
бескидом
бескидох
бескидска
бескиды
бесконечность
бесконечныи
бескровного
беспекы
бесплатны
беспосередно
бестселера
бестселерами
бестселером
бестселерох
бесі
бесіда
бесѣда
бесѣдно
бесѣдов
бесѣдовати
бесѣду
бесѣдують
бесѣды
бесѣдѣ
бет
бета
бетлен
бетлена
бетон
бетону
бетховен
бетярьско
бечеи
бечею
бешшенеи
бещадскыи
бещады
би
библ
библеи
библии
библиограф
библиографии
библиографию
библиография
библиотек
библиотека
библиотекарь
библиотекарьом
библиотеках
библиотеку
библиотекы
библиотецѣ
библия
библіотека
бив
бизнес
бизнис
бизниса
бизнисмен
бизнисмены
бизовно
бизонох
билл
бильня
биннз
биньи
биографии
биографическии
биографичны
биографию
биография
биографы
биокупалиско
биолог
биологии
биологическии
биологична
биологично
биологичного
биологичнои
биологичны
биологичных
биология
биологы
биосферныи
биохемии
биохемик
биохемия
бипатрид
бипатризм
биплан
бирмованя
бирчак
бирчака
бискуп
бисмарк
бисмарка
битва
битву
битвы
битвѣ
бити
битка
биткы
битцѣ
бицикель
бициклиста
бициклисты
бицикльовы
бицикльох
бициклю
бицикля
бициклѣ
бицко
бл
бла
блага
благо
благодати
благодать
благородного
благородны
благословеного
благочестное
блажов
бластер
блатничка
блек
ближе
ближного
ближча
ближче
ближчих
ближшы
близка
близко
близкого
близкои
близком
близкости
близкость
близкы
близкыи
близкым
близкыма
близкых
близнюка
близша
близше
близшого
близшои
близшы
близшыи
близшыма
близшых
близь
близькими
близько
блика
блискучі
блищачо
блищачіи
блок
блока
блокбастера
блокованя
блокох
блоку
блокы
блоків
блоґ
блуз
блумберга
блумингтону
блюдо
блющова
блят
бляшаных
бліка
бніц
бо
бобак
бобуль
бобульского
бобульскыи
бобульскіи
бобулі
бов
бовари
бовт
бог
бога
богата
богате
богато
богатов
богатого
богатои
богатства
богатство
богатством
богату
богатша
богатше
богатшы
богатшым
богатшых
богаты
богатыи
богатым
богатых
богатім
богдан
богдана
богем
богемии
богемия
богобои
богове
богом
богородице
богородиці
богородицѣ
богословие
богословия
богословска
богословске
богословскои
богословску
богословскы
богословскых
богословскіи
богослужбах
богослужбу
богослужбы
богослужбѣ
богослужіння
богох
богу
богы
богыня
богынѣ
бодрог
бодрогкерестур
бодрогом
бодруджал
бое
божа
боже
божена
божены
божества
божество
божньемцова
божов
божого
божои
божу
божыи
божым
бои
бока
боками
боках
бокорох
бокох
боксер
боку
бокшаи
бокшая
бокы
боків
болгариев
болгарии
болгария
болгарскыи
болгары
болгарія
болгаріі
боливия
болници
болницю
болниця
болницѣ
болоньи
болонья
болота
болотна
болотник
болшевиками
болшевикох
болшевици
болшевицка
болшевицкои
болшевицкыи
боль
большая
больше
большевицкои
большои
болі
болівар
болівія
болґаріі
бомба
бомбардеры
бомбардованя
бомбардовати
бомбов
бомбу
бомбы
бонама
бонапарт
бонапарта
бонд
бонкала
бонкало
бор
борбѣля
борецкыи
борець
боржава
боржавин
боржавов
боржавска
боржавы
бори
борис
борканюк
борово
борода
бородатка
бородатыи
бороду
борола
боронить
борромео
бортного
борхес
боршод
борщ
борща
борьба
борьбе
борьбы
боріс
боснии
босния
босны
босняци
боснія
босніі
боспор
бостон
бостонска
бостонскои
бостонѣ
бот
бота
ботаник
ботаника
ботаникы
ботанична
ботаничны
ботаніка
ботанікы
ботсвана
ботів
боцан
боці
боцѣ
бочков
бочна
бочны
бочным
бочных
бою
боя
бояв
бояи
боях
боячи
боі
брав
бравн
бравна
бравнова
брадач
брадача
браззавил
браззавіль
бразилии
бразилия
бразільскыи
бразілія
бразіліі
браи
браковали
брала
брали
брама
брамкарь
брамс
брана
бране
бранкарь
браныи
брат
брата
братами
братанцьом
брати
братислава
братиславска
братиславскои
братиславы
братиславѣ
братове
братови
братом
братох
братскых
братств
братства
братство
браты
братя
браті
братів
братіслава
братіславі
брацлав
бращаи
брежаны
брежнев
брежнева
брежневова
брезно
бреи
бремен
брест
бретон
бретона
бригада
бригады
брик
британиев
британии
британию
британия
британска
британского
британскои
британскому
британску
британскы
британскыи
британскых
бритскы
брно
брнѣ
бровди
бровді
брод
бродивыи
бродии
бродия
бродуны
бродунів
броді
бродіи
бродѣ
брожурами
брожуру
брожуры
броз
броза
брок
брокгауз
брокгауза
бром
бронз
бронзова
бронзовов
бронзовои
бронзовы
бронзу
бронштеи
брох
броха
брудно
брунеи
брусел
брюллов
брюс
брюса
брюсь
брід
брісі
брітаньска
брітаньске
брітаньсков
брітаньскы
брітаньскыи
брітаньскых
брітанія
брітаніі
бріх
бріха
бріхом
бріху
бсср
бсэ
бу
бубен
бубеник
бубеника
бубнованю
бубнованя
бубны
був
бувають
буг
бугера
бугеры
буда
будапешт
будапешта
будапештом
будапештскои
будапештску
будапешту
будапештьскіи
будапешті
будапештѣ
будга
будгизм
будгізм
будгізму
буде
будеи
будеме
будет
будете
будетъ
буджет
буджета
будин
будина
будинкох
будинку
будинкы
будинок
будински
будинѣ
будитель
будителя
будителі
будов
будова
будовала
будовали
будоване
будованю
будованя
будовати
будовах
будовов
будовская
будову
будовы
будові
будовѣ
буду
будут
будуть
будучности
будучность
будучов
будучого
будучои
будучу
будучы
будучыи
будучым
будучых
будучі
будучіх
будують
будує
будці
будь
будьках
будьте
будѣ
буенос
буживал
бузе
бузулук
бузулуку
бузьковы
бузькы
буи
бук
бука
букв
буква
буквами
буквар
букварь
букваря
буквах
буквов
букву
буквы
буков
букова
буковець
буковина
буковину
буковины
буковскы
буковскых
буковы
буковыма
буковых
бул
була
булвары
булгар
булгарии
булгары
булгарьскои
булгарьскыи
булгарія
булгаріі
були
буллов
буллу
буллы
було
булоньском
булш
булша
булше
булшина
булшину
булшині
булшов
булшоє
булшу
булшыи
булші
бульбашки
бульше
бунгалов
бунк
бунка
бунках
бункове
бунковои
бункы
бунок
бунт
бунта
бунты
бунцѣ
бунькы
бура
буре
буржоазия
буржоазного
буржоазныи
буржоазных
буржуазного
бурик
буркина
буркіна
буро
буров
бурои
бурочорныма
бурса
бурсы
буру
бурунді
бурч
буры
бурыи
бурым
бурыма
бурых
буря
бурґ
бурґенланд
бурґу
буста
бути
буткевич
бутнього
бутнє
бутор
бутору
бухара
бучацькыи
бучач
бучко
бучныи
буштина
буштино
бы
быв
бывав
бывали
бываню
бываня
бывати
бывать
бывають
бывша
бывше
бывшов
бывшого
бывшои
бывшом
бывшы
бывшыи
бывшых
бывшіи
быдел
быдла
бык
был
была
были
было
былы
быля
бым
быстра
быстрици
быстриця
быстрицѣ
быстрого
быстрои
быстрыи
быти
бытя
бычков
бычковѣ
бюлетень
бюлетеня
бюро
бюрократ
бюрократа
бюрократичныи
бюрокрація
бюст
бяла
бялысток
бібліографія
бібліотека
бібліотеці
бібліоґрафія
біблія
бібліі
бівше
бівшов
бівшого
бівшу
бівшыи
бівшым
біг
бігом
біда
біжці
бізніс
біи
бік
біла
білавыи
біле
білецькии
білецького
білии
білим
біло
білов
білого
білоголовыи
білогрудка
білои
білопоясныи
білоруси
білорусь
білоруськыи
білорусія
білорусіі
білоус
білу
білы
білыи
білым
білыма
білых
більш
більша
більше
більшии
більшу
біля
біляі
білім
білімді
білінґвалне
біографическіи
біографія
біолоґ
біолоґічна
біолоґічнои
біолоґічны
біолоґічных
біолоґія
біолоґіі
біотоп
біотопом
біохемія
біохеміі
біоґрафічны
біоґрафія
біоґрафіях
біоґрафіі
бісау
бісмарк
біст
бістріца
бісі
бітлз
біціґель
біціґлю
біціґля
біціґлі
бѣганя
бѣгне
бѣгти
бѣженцьох
бѣжно
бѣжнои
бѣла
бѣлак
бѣле
бѣлках
бѣлковин
бѣлковины
бѣлкы
бѣлов
бѣлого
бѣлои
бѣлок
бѣлом
бѣлоруси
бѣлорусь
бѣлу
бѣлы
бѣлыи
бѣлых
бѣлянцѣ
в
ва
вабити
вабить
ваблі
вав
вавжецки
вавич
ваг
вага
вагав
вагов
вагом
вагон
вагонох
вагоны
вагу
вагы
вадим
вадь
важать
важить
важна
важне
важнов
важного
важнои
важности
важность
важноє
важну
важны
важныи
важным
важныма
важными
важных
важні
важнѣи
важыть
вазалом
вазалску
вазі
ваи
вак
вакамія
вакаров
вакарова
вакации
вакациях
ваком
вакуу
вакуум
вала
валал
валала
валалу
валалчанох
валалє
валашском
валашскы
валентин
валентина
валентность
валеріи
вали
вало
валтер
валута
валутов
валуту
валуты
валушне
валушныи
вальбвов
вальбовои
вальковскыи
вам
вами
ван
вана
вандалізм
вандалізмом
вандрованя
вандровках
вандровку
вандровкы
вандровник
вандровници
вандровны
вандровныи
вандровок
вандруе
ване
ванкы
вано
вануату
ванчура
ваны
ваныи
ваных
ваню
ваня
вапна
вапно
вапняник
вар
варадинѣ
варадка
варадѣ
варакушка
варваре
варварскых
варварство
варвары
варгол
варгола
вариант
варианта
вариантами
вариантах
вариантом
вариантох
варианты
вариантѣ
вариации
варити
варич
варованя
варовне
варош
вароша
варошах
вароши
варошом
варошска
варошского
варошскы
варошскыи
варошу
варошув
варошы
вароші
варощан
варощане
вартами
варто
вартових
вартові
вартостеи
вартости
вартость
варуе
варунком
варунок
варшава
варшавского
варшавскыи
варшавы
варшавѣ
вары
варіант
варіанта
варіантом
варіанты
варіантів
варіня
вас
васи
василианского
василии
василия
василь
васильева
васильевич
васильович
василю
василя
василіан
василіи
василія
васко
ват
вати
ватикан
ватикана
ватра
ватры
ватрѣ
ватт
вать
ватікан
вацлав
вацлава
вач
ваш
ваша
ваше
вашем
вашингтон
вашингтона
вашого
вашои
вашу
вашы
вашым
вашых
вашіи
вашім
вашінґтон
вашінґтоні
вають
ваґнер
вбиває
вв
вважаю
введена
введение
введеныи
введи
ввела
ввести
ввп
вгодна
вгодне
вгодны
вгодныи
вгодных
вгодні
вгоднѣи
вдало
вдну
вдова
вдовам
вдяка
вдякы
ве
веб
вебб
вебба
вебер
вебова
вебовои
вебовы
вебовыи
вебовых
вебсторінка
вебу
вебі
веверли
вегеш
веде
ведена
ведене
веденои
ведену
ведены
веденыи
веденьом
веденя
веджіне
веджѣньом
веджѣню
веджѣня
ведуть
ведуча
ведучов
ведучого
ведучои
ведучу
ведучы
ведучыи
ведучым
ведучыма
ведучых
ведучіи
ведучім
ведучіх
вежа
вежочка
вежы
везирь
везли
веи
века
веков
вектор
вектора
векторна
векторів
векша
векше
векшина
векшинов
векшину
векшины
векшинѣ
векшов
векшого
векшои
векшом
векшому
векшу
векшы
векшыи
векшым
векшыма
векшына
векшынов
векшыну
векшыны
векшыні
векшых
векшіи
вела
веласкес
веле
велеградѣ
вели
велика
великанів
великдень
велике
великии
великих
великоберезнянском
великобритании
великобритания
великобританіі
великобрітанія
великов
великовоєводства
великого
великодержавы
великодню
великодня
великое
великои
великом
великоморавскыи
великому
великомученик
великорос
великорусскыи
великосте
великости
великость
великоє
великоі
велику
великы
великыи
великым
великыма
великых
великі
великіи
великім
велитель
велительом
велительством
велителя
велич
величезну
величезны
величезныи
величин
величина
величинов
величину
величины
величін
величіна
величіны
велми
вело
велоципед
велоципеда
вельгерцогства
велька
вельке
велькыи
велькі
вельо
вельох
вельяминов
велі
венгерскии
венгрии
вене
венезуела
венезуелы
венезуельскыи
венелин
венелина
венелін
венера
венеры
венерѣ
венеции
венеция
венецка
верб
вербас
вербасѣ
вербаше
вербяж
вергилии
вергли
верде
верді
верецках
верецкы
верзии
верзию
верзия
верзіи
верзію
верзія
верзіі
верліх
верліху
вермонт
вернадского
верне
вернув
вернувши
вернула
вернули
вернуло
вернута
вернути
вернуто
вернуты
вернутю
вернутя
вероники
вероніка
версаи
версаю
верствы
версти
версть
версія
версіявелика
версіі
вертали
вертаню
вертаня
вертати
вертать
вертають
вертиголовка
вертикалны
вертикальна
вертикальному
вертикальні
верх
верха
верхами
верхах
верхна
верхне
верхнины
верхныи
верхнього
верхньои
верхню
верхня
верхні
верхов
верховина
верховинска
верховинского
верховинскои
верховинскыи
верховинська
верховинцѣ
верховины
верховині
верховинѣ
верховна
верховного
верховнои
верховноі
верхом
верхомля
верхох
верхратского
верхратскыи
верхратськии
верху
верхы
верш
верша
вершами
верши
вершин
вершина
вершинами
вершинов
вершину
вершины
вершинѣ
вершку
вершованы
вершок
вершох
вершу
вершы
вершѣ
веры
верьх
верьхне
верьхню
верьхня
верьхні
верьху
верьхы
веряця
верґіліи
вес
весела
веселость
веселыи
веслоногы
весмір
весміру
весна
весприм
вест
вести
вестник
вестфалского
вестфалскыи
весь
вета
ветвы
ветеран
ветовати
веце
вецезначность
вецеи
вецераз
вецеро
вецерох
вецеры
вечерного
вечері
вечора
вечори
вечур
вещества
веґетаціов
веґетаціі
вже
вживати
вжывав
вжываня
вжывать
взав
взаду
взаимного
взаимном
взаимодеи
взаємно
взаємнои
взаємну
взаємны
взаємодіючих
взаємодіючі
взгляд
взглядом
взгляду
взгляді
вздовж
взимѣ
взник
взникали
взникать
взникають
взникла
взникли
взникло
взниклы
взниклых
взникне
взникнув
взнику
взор
взора
взоркы
взором
взорох
взору
взоры
взяв
взяла
взяли
взяло
взята
взяти
взяты
взятыи
ви
вибухають
вибуху
вибухів
вив
вивчення
вигину
виглядати
виглядає
вигляді
виговцьох
виговцѣ
вигорлат
вигідною
вид
вида
видав
видаванє
видавництво
видавничии
видам
видами
видання
видатні
видах
видео
виджена
виджіня
виджѣня
види
видиме
видимого
видимои
видимыи
видимым
видительне
видительно
видительного
видить
видко
видно
видовище
видові
видом
видох
видра
видру
виду
видув
виды
видять
видячи
виді
видів
видѣ
видѣв
видѣла
видѣли
видѣло
видѣти
византии
византска
византского
византскои
византскыи
визиготох
визиготы
визита
визиты
визначать
визначили
визначні
вии
викариата
викарь
викарьом
викаря
вики
викидає
викингох
википеди
википедии
википедия
википедија
виклик
використання
використовуи
викривити
викривленіи
викривленість
викрили
виктор
викторианскои
виктории
виктория
вилгелм
вилгелма
вилици
вилиця
вилла
виллиам
виллу
вилсон
вилсона
вилсону
вилучення
вин
вина
винарства
винарство
винер
винера
виникла
винковци
винницѣ
вино
винов
виновои
виноградник
виноградова
виноградово
виноградовского
виноградовском
виноградовскыи
виноградівськии
вином
винсент
вину
винчи
вины
вині
виолончелиста
виолончело
вип
випадках
випромінювання
випромінює
випуск
випустив
випустила
випустять
вир
вирахував
виргинскы
вирджинии
вирджиния
вирусох
вирусы
вирі
вирішили
висаник
висвітлив
висконсин
висконти
висла
вислы
високіи
висот
висота
висоти
витамин
витамина
витаминох
витамины
витман
витмана
витріщаються
виттенбергу
виттн
витыма
витягнутим
витязь
витязька
вихинг
виходить
вице
вицегубернатор
вицегубернатора
вициналны
вич
вища
вищого
виявив
виявилася
виявили
виявило
виявилося
виявлено
виявлені
вка
вкаже
вказав
вказала
вказали
вказати
вказують
вказує
вклад
вкладаня
вкладать
включав
включала
включати
включать
включаючи
включена
включены
включив
включно
вков
вконтакте
вкп
вкусу
вкы
влад
влада
влади
владика
владимир
владимира
владимір
владиміръ
владислав
владислава
владли
владну
владнутя
владнуча
владнучои
владны
владныи
владных
владов
владу
влады
владыка
владыком
владыкы
владыча
владі
владѣ
влак
влакы
власти
властивості
властна
властне
властник
властника
властниками
властником
властникох
властникы
властництва
властництво
властництвѣ
властнов
властного
властнои
властном
властносте
властностеи
властности
властность
властностьов
властностями
властну
властны
властныи
властным
властныма
властных
властні
властніи
власть
властями
вливать
вливають
влксм
вложте
вложыти
вложіне
вложіню
вложіня
влі
влѣтѣ
вмер
вмерли
вміє
вна
внаслі
внаслідок
внесена
внесеныи
внешняя
вник
вника
вників
вниманя
внимати
внимать
внимають
вно
внов
вночи
вну
внук
внуком
внуторна
внуторне
внуторного
внуторнои
внуторну
внуторны
внуторныи
внуторныма
внуторных
внутра
внутри
внутригородскыи
внутроземнии
внутроземныи
внутроземных
внутрі
внутрішных
внутрішнє
внутрѣ
во
вобще
вов
вовк
вовна
вовнками
вовнках
вовнов
вовнова
вовновов
вовновы
вовновых
вовновіи
вовны
вовні
вовчыи
вогкы
вогкых
вогняного
вого
вогонь
вод
вода
водам
водами
водах
водені
води
водина
водини
водинскои
водинскыи
водинскыма
водинскых
водины
водиньскых
водині
водинѣ
водна
водне
воднов
водного
воднои
водну
водны
водныи
водным
водныма
водных
водні
водов
водовод
вододѣл
вододѣла
водоем
водозастачаня
водозбор
водозбора
водозбору
водои
водопад
водоток
водоєм
водства
водство
воду
водца
воды
водяна
водянских
водянскыма
водянскых
водяны
водяныи
водяныма
водяных
воді
водѣ
вое
воевав
воевали
воевати
воеводского
воеводств
воеводства
воеводство
воеводством
воеводству
воеводствѣ
военна
военно
военнов
военного
военное
военнои
военну
военны
военныи
военным
военныма
военных
военныя
военска
военско
военсков
военского
военскои
военску
военскы
военскыи
военскым
военскых
вождь
вождя
воза
воздусі
воздусѣ
воздух
воздуха
воздухом
воздухоплав
воздуху
воздушну
воздушны
воздушныи
воздушным
воздушныма
воздушных
воззъеднаня
возила
возити
возмогу
возможно
возможность
вознесения
вознесіня
вознесѣня
возроджіня
возроджѣня
вои
вокал
вокална
вокално
вокалного
вокалныи
вокатів
воланя
волга
волгы
волевыявлѣня
волеи
воленыи
воли
волинська
волиньска
волиньскои
волиньскіи
волиняни
волн
воловецкого
воловецком
воловецкыи
воловець
воловецькии
волового
воловое
володимир
володимира
волокна
волокон
волосинка
волосся
волосы
волося
волохы
волошин
волошина
волошином
волошскы
волт
волта
волтер
волтером
волыни
волынь
вольба
вольбах
вольбы
вольне
вольно
вольного
вольнои
вольном
вольность
вольну
вольны
вольныи
вольным
вольныма
вольных
вольніи
вольнім
вольов
вольфґанґ
волю
воля
волі
волѣ
волґа
вом
вон
вона
вондрачкова
вони
вонкашна
вонкашне
вонкашного
вонкашнои
вонкашном
вонкашности
вонкашну
вонкашны
вонкашныи
вонкашных
вонкашні
вообще
вопрос
вопроса
вопросами
вопросах
вопросов
вопросом
вопросох
вопросу
вопросы
вопросі
вопросів
воробель
воробинныи
воробле
воробля
вороблі
воробятник
ворон
ворона
воронка
воронковы
воронов
вороновы
вороновых
воронок
воронцов
вороны
воронів
ворот
ворота
воротами
воротар
восемь
восени
воскрес
воскресі
воскресѣня
восленскии
воспитаня
воспитанє
воспитані
воспитатель
воспитовала
восстаня
восток
востока
востоке
востоку
востоці
восточна
восточно
восточного
восточнои
восточном
восточнославянского
восточноі
восточну
восточнуи
восточны
восточныи
восточным
восточныма
восточных
восточнѣи
восьма
восьмеро
восьми
восьмои
восьмох
восьмыи
восямрочна
восямрочну
вошла
вошли
вошло
вошов
вошінґтон
вояк
вояка
воякам
вояками
вояком
воякох
воякы
вояків
вояци
воєводства
воєводство
воєньска
воєньскы
воєньскыи
воєньскых
воі
воід
војвођанских
впав
впад
впада
впадом
впадѣ
впала
впали
вперед
впереді
вперше
вплив
впливають
впливні
впливом
впливу
вплыв
вплыва
вплывать
вплывають
вплывного
вплывныи
вплывным
вплывнѣи
вплывом
вплыву
вплывы
вплывѣ
вплыне
вплынув
вплынути
вправо
вр
врабель
врабеля
вражаюче
вражаючі
враховано
врбаня
врбас
времени
время
вродженому
врозтіч
вроцлав
вроцлава
вру
врученыи
все
всегеи
вселена
вселенои
всемирная
всередині
всероссии
всесвіт
всесвітом
всесвіту
всесвітфото
всесвіті
всесоюзныи
всеукраи
всеукраинскыи
всех
всея
вска
вского
вскои
вскы
вскыи
вскых
вскіи
вскім
всокочені
всокочіня
вспаком
вспачного
вств
вства
вство
вству
встрѣча
встрѣчах
встрѣчи
вступ
вступати
вступать
вступив
вступила
вступили
вступило
вступити
вступна
вступне
вступнов
вступного
вступнои
вступном
вступну
вступны
вступныи
вступных
вступом
вступу
вступѣ
вська
вськии
вського
вськіи
вся
всягды
всяка
всякого
всякои
всяку
всякы
всякыи
всякым
всякых
всі
всіх
всѣ
всѣм
всѣх
вт
втекти
вто
втогды
втоком
вторник
второго
второе
второи
втраченоі
втрепе
ву
вуглехіміі
вудро
вудс
вука
вуковар
вуковара
вукіпедія
вул
вулкан
вулкана
вулканами
вулканична
вулканичного
вулканичнои
вулканичны
вулканичных
вулканы
вулканічны
вулканічных
вульховцѣ
вучково
вход
входив
входила
входили
входило
входит
входить
входом
входят
входять
входѣ
вхожденія
вц
вце
вці
вча
вчених
вчены
вченыи
вченых
вчені
вчинити
вчитель
вчінила
вчіти
вчіє
вшак
вшакже
вшелияк
вшелияко
вшелиякы
вшелиякыма
вшелиякых
вшелиякі
вшитка
вшитко
вшиткого
вшиткои
вшитком
вшиткому
вшитку
вшиткы
вшиткым
вшиткыма
вшиткых
вшиткі
вшиток
вшытка
вшытко
вшыткого
вшыткои
вшыткопожераюча
вшыткопожераючіи
вшытку
вшыткы
вшыткым
вшыткыма
вшыткых
вшыток
въ
въедно
вы
выбер
выберав
выберали
выберанках
выберанкы
выберанок
выбераны
выбераныи
выберати
выберать
выберають
выбере
выбои
выбор
выбора
выбору
выборы
выбрав
выбрала
выбрали
выбрана
выбране
выбрании
выбраного
выбранои
выбраны
выбраныи
выбраных
выбраня
выбрати
выбудовав
выбудовали
выбудована
выбудованыи
выбудовати
выбух
выбухнув
выбухнула
выбуховыи
выбухом
выбуху
выбухы
выбушнин
выбѣжками
вывезли
вывержѣня
вывести
вывжывать
вывивать
вывин
вывину
вывинув
вывинула
вывинули
вывинуло
вывинута
вывинути
вывинуты
вывинутыи
вывод
вывода
выводжена
выводится
вывое
вывоз
вывоза
вывои
выволав
выволала
выволало
выволати
выволать
выволуе
вывольненыи
вывою
вывоя
вывысшеных
вывѣсив
выгваряня
выглашена
выглашеныи
выгледати
выгледовав
выгледовань
выгледованя
выгледованями
выгледованях
выгледователь
выгледовач
выгледовных
выгляд
выглядаваню
выглядавать
выглядавач
выглядованя
выгнали
выгнанство
выгнаны
выгнаныи
выгнаню
выгнаня
выгнати
выгні
выгодны
выгоды
выголосив
выголосила
выголосили
выголошена
выголошено
выголошены
выголошеныи
выголошовали
выголошуе
выголошѣню
выголошѣня
выгорлат
выготовив
выграв
выграла
выграли
выгынули
выд
выдав
выдавав
выдавала
выдавали
выдавало
выдаваного
выдаваныи
выдаваня
выдавателе
выдаватель
выдавательского
выдавательскыи
выдавательства
выдавательство
выдавательством
выдавательствѣ
выдавателя
выдавати
выдавать
выдавають
выдала
выдали
выдало
выдана
выдане
выданои
выданом
выданы
выданыи
выданых
выдань
выданьом
выданю
выданя
выданями
выданях
выдати
выдаткы
выдержав
выдрізнять
выді
выдѣлив
выдѣлили
выдѣляють
выжадало
выжадуе
выжадують
выжадує
выжаре
выжива
выживу
выжывны
вызброи
вызва
вызвав
вызвы
выздоровѣв
вызерати
вызерать
вызерають
вызнав
вызнавав
вызнавана
вызнаваныи
вызнавать
вызнала
вызнали
вызнам
вызнамах
вызнаменана
вызнаменаны
вызнаменаныи
вызнаменаня
вызнамна
вызнамного
вызнамну
вызнамны
вызнамныи
вызнамным
вызнамныма
вызнамных
вызнамнѣи
вызнамом
вызнамох
вызнаму
вызнамы
вызнамѣ
вызнана
вызнаны
вызнаныи
вызнаню
вызнаня
вызнати
вызначать
вызначають
вызначена
вызначены
вызначеныи
вызначив
вызначило
вызначити
вызначить
вызначна
вызначне
вызначнии
вызначно
вызначнов
вызначного
вызначнои
вызначности
вызначность
вызначну
вызначны
вызначныи
вызначным
вызначныма
вызначных
вызначні
вызначніи
вызначують
вызначує
вызначѣня
вызнають
вызывав
вызывать
выи
выимков
выказ
выказав
выказала
выказали
выказаныи
выказуе
выклав
выклад
выкладач
выкладены
выкладовыи
выкладом
выкладу
выкладѣ
выкликати
выкликує
выкон
выконав
выконане
выконаня
выконати
выконного
выконность
выконныи
выконовав
выконованя
выконовати
выконом
выкону
выконуе
выконують
выконує
выкопавках
выкреслі
вылеті
вылетѣв
вылучена
вылучены
вылученыи
вылучно
вылучте
вылучіня
вылучіти
вылягнутю
вылі
вылѣпшив
вылѣпшила
вылѣпшѣньом
вылѣпшѣню
вылѣпшѣня
вым
выма
вымальовав
вымеджує
выменовав
вымерлы
вымушено
вымушеныи
выміна
вымѣнена
вымѣнити
вымѣнов
вымѣны
вынаи
вынаход
вынахода
вынаходжіню
вынаходник
вынаходника
вынаходникох
вынаходникы
вынаходници
вынаходы
выник
выникали
выникать
выникають
выникаючы
выникаючыи
выникла
выникли
выникло
выникнув
вынику
выносить
вынятково
вынятковым
вынятковых
вынятком
выняткы
выняток
выокремив
выокремити
выокремлять
вып
выпады
выписати
выпише
выплету
выплывать
выпнуте
выповньте
выповѣли
выправ
выправа
выправив
выправу
выправы
выправѣ
выпрацовав
выпрацованя
выпрацовати
выпрацовуе
выпробовала
выпробованя
выпуск
выпускы
выпустив
выпустили
выпустите
выпущены
выпущеныи
выраблять
вырабовав
вырава
выражаня
выражати
выражать
выражають
выражаючі
выражіня
выраз
выразна
выразне
выразно
выразнов
выразного
выразнои
выразному
выразну
выразны
выразныи
выразным
выразныма
выразні
выразнѣи
выразом
выразу
выразы
выразів
выраховали
вырахованя
выраховати
вырахуеме
выроба
выробили
выробити
выробкы
выроблене
выроблены
выробленыи
выробляла
выробляли
выробляти
выроблять
выробляють
выробник
выробны
выробных
выробов
выробок
выробу
выробы
выробѣ
вырок
выроків
вырос
выросла
выросло
выростав
выростла
выростло
вырі
вырішыти
высвятив
высвятили
высвячена
высвячену
высвяченыи
высвячѣню
высвячѣня
высвѣдчѣня
выселене
выселены
выселеныи
выселеных
высланыи
высланю
высланя
выслободжене
выслободжены
выслободженыи
выслободженых
выслободжѣню
выслободжѣня
выслободив
выслободила
выслободити
высловив
высловити
высловлює
высловности
высловность
выслужбѣ
выслухав
выслухованыи
выслі
высмѣвав
высмѣшна
высова
высок
высока
высоке
высоко
высоков
высокого
высокои
высоком
высокости
высокошколску
высокошколскы
высокошколскыи
высокошкольскыи
высоку
высокы
высокыи
высокым
высокыма
высокых
высокі
высокіи
высот
высота
высоту
высоты
высоті
высоцькыи
высочина
высочинѣ
выспым
выстав
выстава
выставба
выставбов
выставбу
выставбы
выставбѣ
выставив
выставили
выставка
выставках
выставку
выставкы
выставлена
выставлены
выставленыи
выставок
выставу
выставцѣ
выставы
выступ
выступав
выступала
выступали
выступами
выступати
выступать
выступають
выступив
выступивши
выступила
выступили
выступити
выступлѣнь
выступлѣню
выступлѣня
выступовав
выступовала
выступовали
выступованя
выступовати
выступу
выступуе
выступують
выступує
выступы
высша
высше
высшов
высшого
высшои
высшом
высшу
высшы
высшыи
высшым
высшыма
высшых
высшіи
высыланя
вытварне
вытварници
вытварництва
вытварництво
вытварного
вытварном
вытварну
вытварны
вытварныи
вытварных
вытвор
вытворены
вытвореныи
вытворив
вытворила
вытворили
вытворити
вытворить
вытворюють
вытворі
вытворѣню
вытворѣня
вытесать
выток
вытока
вытоку
вытримав
вытрищательным
вытяг
выті
вытѣсненыи
вытѣснила
выужити
выужывать
выужытя
выука
выуков
выуковыи
выуковым
выуку
выукы
выуцѣ
выучбы
выученыи
выучив
выучили
выучити
выучных
выучовав
выучовала
выучованю
выучованя
выучовати
выучуе
выучують
вых
выхова
выховав
выхову
выход
выхода
выходив
выходила
выходили
выходит
выходити
выходить
выходна
выходне
выходно
выходного
выходнои
выходном
выходну
выходны
выходныи
выходным
выходных
выходні
выходніи
выходнім
выходнѣи
выходом
выходославяньска
выходославяньскы
выходославяньскыи
выходославяньскых
выходу
выходять
выходячи
выходячі
выході
выходѣ
выхосновав
выхосновавши
выхоснована
выхоснованы
выхоснованыи
выхоснованю
выхоснованя
выхосновати
выхосновують
вычерпавши
вычеряли
вычитано
вычлененыи
вычіслена
вышавська
выше
вышка
вышках
вышков
вышку
вышкы
вышла
вышли
вышло
вышмареныи
вышмарили
вышне
вышны
вышныи
вышных
вышня
вышні
вышов
выштудовав
выштудовала
вышці
вышцѣ
выяв
выявив
выявили
выявило
выявити
выявленыи
выі
выѣхав
вьетнам
вюг
вюрковы
вюрковых
вюрок
вяже
вяжуть
вязаны
вязаня
вязб
вязба
вязбами
вязбу
вязбы
вяземцева
вязи
вязь
вяхирь
вєдно
вєтнам
вєтнаму
ві
вібе
вів
вівалді
вівця
вівці
від
відбувається
відгуки
віддалении
відділ
відень
віденьского
відео
віджіня
відить
відкрили
відкритого
відкритоі
відмовилися
віднесення
віднесені
віднести
відновлення
відносяться
відню
відня
віднянськии
відні
відображення
відобразив
відомих
відомо
відомості
відоміші
відп
відповів
відповідають
відповідає
відра
відривається
відстані
відсіч
відчуття
віді
віз
візантьска
візантьского
візантіі
візуальні
віи
вік
віка
віком
віктор
вікторія
віку
вікы
вікі
віків
вікіетікета
вікікнигы
вікімедія
вікінгів
вікінґове
вікіпедіи
вікіпедіста
вікіпедістам
вікіпедістами
вікіпедісты
вікіпедістів
вікіпедію
вікіпедія
вікіпедіявікіпедіягалактика
вікіпедіяу
вікіпедіях
вікіпедіячумацькии
вікіпедіі
вікіпэдыя
вікісклад
вілгелм
вілкс
вільне
вільним
вільно
вім
він
віницька
вінн
віночок
вінсент
вінстон
вінчі
вінґ
віра
вірників
вірованя
вірогодне
вірогодного
вірогодносте
вірогодности
вірогодность
вірогодны
вірогодным
віртуоз
віру
вірус
віршы
віры
вісем
вісить
вісла
вісник
вістник
вість
вісті
вітаи
вітальні
вітаны
вітер
вітор
віторок
вітрова
вітце
вітця
вітґенштеи
віцо
віці
віч
віча
вічности
вішну
віщии
вѣ
вѣденского
вѣденскои
вѣдень
вѣденьска
вѣденьского
вѣденьскои
вѣденьску
вѣденьскыи
вѣдньом
вѣдню
вѣдня
вѣдомости
вѣк
вѣка
вѣках
вѣком
вѣку
вѣкы
вѣнкы
вѣра
вѣрили
вѣрник
вѣрника
вѣрникам
вѣрниками
вѣрникох
вѣрникы
вѣрности
вѣрныи
вѣрным
вѣрных
вѣров
вѣровань
вѣрованя
вѣровызнаня
вѣрозвѣстователе
вѣросповѣданя
вѣру
вѣрують
вѣры
вѣрѣ
вѣсти
вѣстник
вѣстника
вѣстникъ
вѣсть
вѣстѣ
вѣтра
вѣтром
вѣтру
вѣче
вѣчне
вѣчного
вѣчны
вѣчныи
г
га
габа
габаритні
габбла
габда
габилитовав
габилитованыи
габор
габора
габриел
габсбург
габсбургам
габсбургох
габсбургска
габсбургскои
габсбургы
габсбурскои
габсбурьскои
габура
гав
гаваи
гаварии
гавария
гавирате
гавлеборг
гавранець
гавриил
гавриила
гаврило
гавриі
гагара
гагарин
гагаровы
гагары
гагиография
гад
гада
гадана
гаджега
гаджети
гады
гадяч
газ
газа
газда
газдованя
газдовати
газдовскы
газдовскых
газдовств
газдовства
газдовствах
газдовство
газдовством
газдовствѣ
газдох
газды
газдынѣ
газета
газетаастрономи
газетагалактика
газетаросіи
газетасудово
газетаяк
газовиты
газовыи
газох
газпром
газу
газы
гаи
гаковыи
гала
галагана
галагов
галактик
галактика
галактиканазва
галактикгалактика
галактики
галактикиастрономи
галактикибудова
галактикигалактика
галактикизеркало
галактикикосмічнии
галактикиостанні
галактикипов
галактикиросіи
галактикителескоп
галактикифото
галактикичорна
галактикою
галактику
галактикхаи
галактиці
галактична
галактичнии
галас
галаса
галберт
галереи
галерею
галерея
галерии
галерия
галина
галифакс
галифаксу
галиции
галицко
галицьких
галич
галича
галичане
галичина
галичинов
галичину
галичины
галичинѣ
галичско
галичскых
галичі
галка
галкина
галле
гало
галревком
галузь
галузі
галчакова
галштатска
гамбург
гамилтон
гамилтона
гамилтонѣ
гамма
гамованя
гамора
гаморі
гамы
ган
гана
ганзелка
ганзелказикмунд
ганзелкы
ганн
ганна
ганнибал
ганнибала
ганновер
ганноверцѣ
ганс
ганса
ганьбы
ганґыл
гараи
гарантованы
гарантуєт
гарвардовои
гард
гардвер
гарды
гарибалди
гармонии
гармоничныи
гармония
гармонічнии
гармонічного
гармонія
гаролд
гарпуна
гарри
гарриг
гаррига
гаррісон
гарсия
гасло
гасниці
гать
гатьов
гатями
гаудеамус
гафіз
гаха
гашек
гашека
гашка
гашпара
гая
гваи
гварах
гвардия
гвары
гватемала
гвинея
гвозда
гвозды
гг
где
гдп
гдр
ге
гебеи
гебела
гебреи
гев
гевсе
геи
гектар
гектары
гектор
гектора
гел
гелветськоі
гелена
геленов
гелены
геликоптер
геликоптера
геликоптерѣ
гелиоцентричнои
гелниця
гелох
гелцманівці
гематология
гемер
гемпшир
гемісфера
гендел
гендер
генеалогічному
генерал
генерала
генерализовати
генерална
генералнов
генералного
генералнои
генералныи
генералным
генералове
генералом
генералы
генерации
генетика
генетикы
генетицѣ
генетично
генетичнои
генетичныи
генетичных
генотип
генох
генри
генрик
генрика
генрих
генрі
гент
гентѣ
географ
географгиз
географии
географические
географическии
географична
географично
географичного
географичнои
географичном
географичну
географичны
географичныи
географичных
география
географічна
географічнии
географія
географіі
геодезичныи
геодезия
геоид
геоида
геокоды
геолог
геологии
геологическии
геологично
геологичнои
геологичны
геологичных
геология
геометрии
геометричны
геометрия
геоморфология
геополитика
георг
георгии
георгия
георгіи
георгіна
гер
герб
герба
герберт
гербы
гербѣ
герембель
герець
геречка
гери
герлаховскыи
герман
германиев
германии
германию
германия
германн
германска
германскои
германскы
германскых
геровскии
геровского
геровскыи
герои
героя
героями
героі
герц
герцеговина
герцеговины
герцеговинѣ
герцеґовина
герцогство
гесел
гесла
гесло
геслом
гет
гете
гетероцикличны
гетеш
гетмана
геттингенскои
геґел
гз
ги
гиадор
гибралтар
гигиена
гидроген
гидрогена
гидрогенову
гидроелектрарень
гидроелектрарню
гидроелектрарня
гидроелектрарнѣ
гидрокарбонох
гидрокарбоны
гидросфера
гидротурбины
гиз
гии
гилберта
гилгамеша
гилгамешови
гилл
гиллари
гиллс
гилотина
гилотины
гилотинѣ
гимна
гимназиалне
гимназиалного
гимназиалны
гимназиалныи
гимназиалным
гимназиалных
гимназии
гимназиста
гимназистом
гимназистох
гимназию
гимназия
гимназиях
гимнов
гимну
гимны
гиндуллин
гипербола
гиперболы
гиперодказ
гиперодказа
гипертекст
гиповитаминоза
гипотеза
гипотезы
гиппо
гиппократ
гирошима
гирь
гиряк
гиспаньола
гитара
гитары
гитлер
гитлера
гитлеровсков
гиты
гия
гк
гл
глава
глави
главна
главная
главне
главни
главно
главнов
главного
главнои
главном
главну
главны
главныи
главным
главныма
главных
главнѣ
главнѣи
главы
глаголицю
глаголицѣ
глаголіця
глаголічным
гладкыи
гласнов
гласны
гласных
гласні
гледав
гледали
гледаню
гледаня
гледати
гледать
гледаючи
глибинах
глибокого
гливища
гливищах
глины
глиста
глистами
глисты
глобализация
глобалконсалтинг
глория
глосарии
глосаріи
глоссарии
глубина
глубинов
глубину
глубины
глубинѣ
глубить
глубка
глубку
глубкы
глубока
глубоке
глубоко
глубоков
глубокого
глубокои
глубокы
глубокыи
глубокым
глубокыма
глубокых
глубше
глубшы
глубшыи
глубшым
глубіню
глупа
глухости
глюк
глюка
глядав
глядали
глядаме
гляданы
гляданя
глядати
глядать
глядають
глянути
гмины
гминѣ
гнаи
гнат
гнати
гнатовськии
гнатюк
гнатюка
гнатюком
гнедь
гнеи
гнилця
гниючіх
гнута
гні
гнѣв
го
гов
говард
говерла
говерлу
говерлы
говор
говора
говорами
говорах
говори
говорив
говорила
говорили
говорило
говориме
говорити
говорить
говоров
говорова
говорово
говорці
говоры
говорят
говорять
говорячых
говорів
говур
говірки
гогенцоллернох
гоголь
гоголя
год
года
годах
годен
годжови
годжѣ
годзілла
годзілли
годи
годин
година
годинах
годинка
годинкы
годинник
годиновои
годину
годины
годна
годни
годно
годность
годнота
годноту
годны
годні
годовлю
году
годув
годы
годьмаш
годі
гои
гокеи
гокея
гокусаи
гол
голандьскыи
голандія
голандіі
голл
голландии
голландия
голлівудські
голов
голова
голови
головна
головне
головнии
головних
головно
головнов
головного
головнои
головну
головны
головныи
головным
головныма
головных
головніи
головнім
головов
головоломок
голову
головы
голові
головѣ
голод
голодом
голоду
голокауст
голомб
голоняк
голос
голоса
голосив
голосили
голосить
голосне
голосно
голосное
голосныи
голосным
голосні
голосовав
голосовали
голосованьом
голосованя
голосованія
голосовым
голосом
голосох
голосу
голосування
голосуванням
голосую
голосъ
голосы
голосять
голосів
голтвянськии
голтвяньскыи
голуба
голубине
голубовы
голубонога
голубоподобны
голубятник
голы
голыи
голым
голыма
голятин
голівуду
гомберг
гомер
гомера
гомерова
гомилетика
гомилетикы
гомичко
гомичков
гомоннаи
гомстед
гомстеду
гондурас
гондурасом
гонець
гонорар
гонорары
гончаров
гончарова
гонґ
гонґконґ
гонґконґскыи
гонґконґі
гоп
гор
гора
горазда
гораздови
горами
горах
горации
горбаль
горбачов
горбачова
горбку
горбкы
горбок
горват
горвата
горватскеи
горганах
горганы
гордубал
горды
горжец
гори
горизонт
горизонта
горизонтальна
горизонтальному
горизонтом
горизонту
горинчова
горинчово
горить
горла
горлицке
горлицкого
горлицкыи
горлицях
горлиці
горлицѣ
горло
горлі
горліця
гормон
гормоны
горнад
горнаду
горнин
горнина
горнины
горном
горны
горныи
горных
горні
горов
город
города
городами
городах
городе
городов
городом
городох
городска
городске
городского
городскои
городскы
городскыи
городскых
городу
городы
городьска
городѣ
горожан
горожанка
горожанку
горожанкы
горожанска
горожанскои
горожанскых
горожанства
горожанство
горожанцѣ
горонда
горошок
горощак
горска
горске
горского
горскои
горском
горскы
горскыи
горскыма
горскых
горства
гортен
горти
гору
горы
горькии
горького
горькыи
горьскых
горячку
горячкы
горячо
горячых
горі
горішнюи
горішня
горѣ
горѣшнои
горѣшном
гос
господа
господарскои
господарскыи
господарства
господарство
господарьскы
господарьскыи
господарьскым
господарьскім
господарѣня
господи
господнього
господня
господні
господствующии
господь
гостителі
гості
государства
государственнои
государственныи
государство
готаи
готарь
готарѣ
готел
готелы
готелі
готична
готичного
готичном
готичны
готичныи
готланд
готова
готовив
готовили
готову
готовы
готовыи
готох
готт
готтвалд
готтфрид
готы
гоул
гоч
гошовского
гошовскыи
гоі
гпу
гр
гра
граба
грабарь
грабарьох
грабаря
грабова
грабовець
грабовскыи
грав
гравитации
гравитация
гравітаціи
град
градец
градци
градієнт
градѣ
гражда
граждан
гражданам
гражданин
гражданства
гражданство
грала
грали
грам
граматик
граматика
граматиками
граматики
граматику
граматикы
граматичны
граматичных
грами
грамматика
грамматику
грамматикы
грамматицѣ
грамматичны
грамота
грамоты
грамох
граната
гранд
границев
граници
границь
границьов
границю
границя
границям
границями
границях
границі
границѣ
граничит
граничить
гранична
граничныи
грант
гранчак
граны
граня
грані
граніце
граніць
граніцю
граніця
граніцями
граніцях
граніці
гранічіть
грати
грать
граф
график
графика
графикох
графикы
графитовы
графичного
графичных
графіка
грах
грач
грачами
грачка
грачі
грачів
грають
грає
гребень
гребеньом
гребеню
гребеня
гребенях
гребенѣ
гребѣнь
грегорианского
греи
греками
греко
грекокатоликами
грекокатоликов
грекокатоликох
грекокатоликы
грекокатолици
грекокатолицка
грекокатолицков
грекокатолицкого
грекокатолицкои
грекокатолицку
грекокатолицкы
грекокатолицкыи
грекокатолицкым
грекокатолицкых
грекокатолицького
грекокатолицькыи
грекокатолическая
грекокатолі
грекох
грекы
гренада
гренадины
гренджа
гренджи
гренланд
гренланда
гренландом
гренланду
грец
греци
греции
греция
грецка
грецке
грецкого
грецкои
грецком
грецку
грецкы
грецкыи
грецкых
грешлик
гри
гриб
грибох
грибы
грибів
григорианского
григорианском
григорианскыи
григорием
григории
григория
григорович
григоріанським
григоріи
грицак
гриць
грн
гроб
гроба
гробы
гробѣ
гровс
гродецкыи
гродецкым
грозен
грозив
грозила
грозили
грозило
грозити
грозить
грозна
грозно
грозныи
гром
громада
громадах
громадна
громадны
громадов
громаду
громады
громадяньскыи
громаді
громадѣ
гроном
гротово
гроф
грофа
грофом
грофох
грофскыи
грофства
грофство
гроши
грошова
гроші
грошѣ
гру
грубе
грубер
грубера
грубого
грубость
грубы
грубыи
грубым
груде
груди
грудня
грудь
груз
грузии
грузинского
грузинскыи
грузинськ
грузия
грунту
грунты
груня
груп
група
групам
групами
групи
групов
групова
групп
группа
группу
группы
группѣ
групу
групы
групѣ
грут
грута
грутом
грушевскыи
гры
грызуны
гряда
грі
гріб
грін
гріска
гріску
грѣх
грѣха
грѣхы
гсср
гу
гуам
гуанин
губаш
губернатор
губернатора
губернаторства
губернии
губерния
гувернера
гудак
гудзіце
гудзіцю
гудзіця
гукливскыи
гукливыи
гулаг
гулага
гулагу
гулдены
гулетта
гулеттѣ
гулливер
гулливеровы
гулливеровых
гума
гуманиста
гуманитарна
гуманитарны
гуманитарных
гуманитных
гуманітны
гуманітных
гуменне
гуменного
гуменном
гуменному
гуменскому
гумор
гумореска
гуморескы
гумориста
гумором
гумору
гуморіста
гунківці
гунох
гупало
гурь
гуря
гурі
гус
гуса
гусак
гусев
гусеніці
гуска
гускы
гусльох
гуслі
гусове
гусовы
густав
густава
густе
густо
густонаселена
густота
густоту
густоты
густу
густым
густых
густякова
густі
густіи
густѣи
гута
гутка
гуца
гуцулох
гуцулска
гуцулскои
гуцулску
гуцулскы
гуцулы
гуцульська
гуцы
гує
гюстав
гіадор
гів
гівска
гігантська
гігантську
гігантські
гідра
гідроґен
гідроґену
гімалаі
гімна
гімназія
гіндустані
гінді
гіп
гір
гірка
гірнича
гірска
гірська
гірьскы
гітлер
гіф
гіч
гічкок
гіядор
д
да
дабер
даблин
даблина
даблину
дав
давав
даваи
давала
давали
давало
давати
давать
давають
давид
давида
давкы
давна
давне
давнину
давнины
давнині
давно
давного
давногрецкого
давногрецкои
давногрецкы
давногрецкыи
давнои
давнс
давны
давныи
давным
давных
давні
давнішии
давніші
давнѣи
давши
давыдк
давыдкова
давыдково
давыдов
давід
дагде
даже
даи
дакого
даколи
даколишного
даколишных
даколу
даколько
даколькох
даколькы
даколькыма
даколькых
дакому
дакота
дакоторы
дакоторых
дакотра
дакотров
дакотрого
дакотрои
дакотрому
дакотры
дакотрыи
дакотрым
дакотрыма
дакотрых
дакотріи
дакулько
дакус
дакілько
дакількох
дала
даларна
дале
далеи
далеких
далеко
далекого
далекои
далекоі
далеку
далекы
далекыи
далекых
далекі
далекіи
дали
далмации
далмация
дало
далша
далше
далшов
далшого
далшои
далшом
далшому
далшу
далшы
далшыи
далшым
далшыма
далшыми
далшых
далші
даль
дальні
дальша
дальшоі
дальшу
дальші
далі
дамаск
дамашку
даме
дами
дамо
дампинг
дамы
дан
дана
данах
дане
данеи
дани
даниел
даниела
дании
данилець
данилюк
дания
данного
дання
данов
даного
данои
даному
данскои
данскыи
данського
данськы
дану
даны
даныи
даным
даных
дань
даньовои
даньовых
даньско
даньскы
даньскыи
даня
дані
даніел
даніи
данія
даніі
данѣ
дар
дара
дарвел
дарвін
дарданелы
даровав
даровали
дарована
дарованыи
дарованя
дарця
дары
дарья
дас
даскельо
дасть
дат
дата
датабаза
датабазѣ
датах
дате
дати
датована
датованя
дату
датум
датума
датумом
датуму
датумы
датумі
датують
даты
датів
датівом
дах
дахо
дахто
дачого
дачім
дашто
дають
даючи
даяк
даяка
даяке
даяков
даякого
даякои
даяком
даякому
даяку
даякы
даякыи
даякым
даякыма
даякых
даякі
даякіи
даякім
дає
даґде
два
двадцятом
двадцять
дванадцять
двараз
дверѣ
двиганя
двогласкы
двое
двозвізды
двои
двоита
двоите
двоитои
двоиты
двоитыи
двоитых
двокласну
двом
двома
двоми
двомѣсячник
двор
двора
дворах
дворецкии
дворжак
дворі
дворѣ
двоступне
двох
двоякого
двоякыи
двоякім
двоє
двоі
двух
дві
двір
двѣ
дгака
де
дебаты
дебеи
дебрецен
дебреценскои
дебреценѣ
дебутовав
дебютовав
деванаґарі
девяте
девятеро
девятыи
девять
девятьох
деев
дежев
дезертовав
дезидерии
деи
деизм
декан
декана
деканата
деканом
декарт
декелия
декларации
декларацию
декларация
деклараціи
декларацію
декларація
декларовав
декларовавша
декор
декоратор
декораціі
декрет
декретом
декрету
декреты
декілька
декількох
дел
делавер
делегатов
делегатох
делегациев
делегации
делегация
деление
делеґація
дело
делфт
дель
дем
деме
деметер
демилитаризована
демисию
демко
демобилизации
демобилизованыи
демография
демократ
демократизация
демократии
демократична
демократичнов
демократичного
демократичнои
демократичноі
демократичны
демократичныи
демократичных
демократох
демократы
демократічна
демократічнои
демокрации
демокрация
демокрація
демонтаж
демоґрафія
демян
демяна
демісію
ден
дена
дендролоґія
дене
дени
денисовом
денник
денно
деннои
денны
денніи
дено
дены
деныи
день
дені
деніс
департамент
департамента
департаментох
департаменты
департаментѣ
депортация
депортовали
депортованы
депортованыи
депресии
депресія
депутат
депутатов
депутатох
депутатув
дер
дера
дербник
дервиш
дерев
дерева
дереварскыи
деревляна
деревляну
деревляныи
дерево
деревоказных
деревом
деревяна
деревянов
деревяного
деревянои
деревяну
деревяны
деревяныи
деревяныма
деревяных
дереві
дерек
держ
держав
держава
державам
державами
державах
держави
державлянства
державна
державне
державнии
державнов
державного
державнои
державном
державному
державну
державны
державныи
державным
державныма
державными
державных
державов
державу
державы
державі
державѣ
держак
держала
держали
держало
держаныи
держат
держати
держать
держит
держить
дериваты
деркач
деряба
десант
десталинизации
десь
десяте
десятеро
десятина
десяткы
десятник
десятого
десяток
десяту
десятыи
десять
десятьох
десятьроча
детаи
детали
детализации
детальнии
детальні
деталях
деталізовании
деталізованішу
детгиз
детдетдет
дете
детективи
детиздат
детская
детство
детъ
дефенестрация
дефинитивна
дефинитивно
дефинитивныи
дефиниции
дефиницию
дефиниция
дефинована
дефинованы
дефинованыи
дефиновати
дефинуе
дефо
деформации
дефіновав
дефінована
дефіноване
дефіновати
дефінує
дефініціов
дефініцію
дефініція
дефініціі
децембер
децембра
децембру
децембрі
децембрѣ
децении
деціметер
дешева
деяких
деякі
деятельности
дж
джа
джавагарлал
джакарта
джакомо
джами
джан
джана
джанни
джанска
джанскои
джанѣ
джастис
джачів
джез
джезовы
джезовыи
джезом
джеи
джелал
дженни
джены
джерзи
джером
джефферсон
джи
джміль
джо
джоан
джоване
джованя
джои
джоконда
джон
джона
джонатан
джоном
джонс
джонсон
джорданвилл
джордж
джорджа
джорджия
джорджтавньска
джохар
джудо
джузеппе
джумба
джус
джусы
джує
джібуті
джіммі
джіне
джіня
джіт
дзвоны
дзвоніця
дзе
дзендзелівськии
дзендзелѣвского
дзендзелѣвскыи
дзеркала
дзеци
дзурінда
дзюба
ди
диагноза
диагнозы
диагностика
диагностована
диакон
диалект
диалекта
диалектами
диалектизмох
диалектизмы
диалектика
диалектолог
диалектологии
диалектом
диалектох
диалекты
диалектѣ
диамант
диаметер
диаметра
диаметром
диаспора
диаспоры
диаспорѣ
див
дивизии
дивитись
дивитися
дивне
дивного
дивніші
диво
дивовижно
дивовижноі
дивовижніших
дивіться
дидро
диецезии
диецезию
дизаи
дизертации
дизертацию
дизертация
дизунитох
дизуниты
дика
дике
дикого
дикое
дикои
диктатор
диктатора
диктатором
диктатура
диктатуру
диктатуры
дикыи
дикых
дилогия
димитрии
димитрия
димитріи
дина
динамика
динамику
динамична
динамо
династии
династия
династія
дине
динстбир
диня
диоклетиан
дионизии
диплома
дипломат
дипломата
дипломатична
дипломатично
дипломатичнов
дипломатичного
дипломатичнои
дипломатичну
дипломатичны
дипломатичныма
дипломатичных
дипломаты
дипломации
дипломов
дипломовав
дипломованыи
диплому
дипломы
дир
директор
директора
директориев
директории
директорка
директорм
директором
дирекции
диригент
диригентом
диригенты
дис
дисентеры
дисертациев
дисертации
дисертацию
дисертация
дисидент
дисидентам
дисидентох
дисидентство
дисиденты
дисковы
дискография
дископодібну
диску
дискузии
дискузия
диссертацию
диссертация
дистанции
дисциплин
дисциплина
дисциплины
дити
дить
дитячого
дитячі
дифтонґ
дифтонґы
дич
дищ
дища
дия
дка
дкарпатськыи
дко
дком
дку
дкы
дла
дламіні
дло
длом
длр
для
дм
дмитра
дмитрии
дмитрия
дмитро
дмитрович
дн
дна
днаня
днати
днать
дне
днеи
днесь
днеська
днешна
днешне
днешного
днешнои
днешном
днешному
днешности
днешность
днешну
днешны
днешныи
днешным
днешных
днешнього
днешню
днешня
днешні
днешніи
дни
дника
днк
дно
дном
дность
дну
днука
дны
дныи
дньом
дньох
дню
дня
днями
днях
дні
днів
дніи
дніпро
дніпрі
днѣ
днѣпром
днѣстер
днѣстра
до
доб
доба
добах
добив
добивав
добивала
добивати
добивать
добили
добити
добов
добош
добра
добре
добро
добров
доброволно
добровольно
добровского
доброго
добродячне
добродѣи
добродѣтель
доброе
доброи
доброслава
добру
добры
добрыи
добрым
добрыма
добрых
добрянскии
добрянского
добрянскыи
добрянськии
добряньского
добряньскыи
добряньскым
добрі
добрѣ
добу
добы
добыв
добывав
добывала
добывали
добываня
добывати
добывать
добывають
добыла
добыли
добыло
добыта
добыте
добыти
добыты
добытю
добытя
добыча
добі
добѣ
дова
довали
доване
дованыи
дованя
довати
довбач
довбача
довбачі
довбачів
довг
довга
довганич
довганича
довге
довго
довгов
довгович
довгого
довгое
довгом
довгому
довгорочныи
довгорочным
довгоруку
довгости
довгость
довгота
довгу
довгы
довгыи
довгым
довгыма
довгых
довгі
довезены
довести
довжа
довже
довжина
довжинах
довжка
довжков
довжкова
довжку
довжкы
довжникам
довжности
довжок
довжці
довжцѣ
довжыи
довизна
довизны
довкола
довколишні
довод
доводить
доводох
доводу
доволена
доволило
доволює
довша
довше
довшы
довшыи
довшых
довъедна
довєдна
довідка
довідник
довѣру
доган
догварив
догварити
догварька
догварькы
догварянь
догваряня
догварянях
догваряти
догма
догмы
договор
договора
договорити
договором
договорох
договору
договоры
договорѣ
догод
догода
догоду
догоды
догодѣ
додав
додаваи
додавали
додаваньом
додаваня
додавати
додавать
додавають
додавши
додадуть
додаи
додала
додали
додало
додана
додане
додано
доданьом
доданя
додасть
додати
додатку
додаток
додаточна
додаточно
додаточны
додаточныи
додають
додержаня
додержати
додержовати
додж
доджовыи
доджу
доднесь
дождь
дождя
дожив
доживотне
доживотно
доживотныи
дожила
дожили
дожыв
дожывать
дожыти
дожыє
дозаду
дозвалять
дозваляють
дозвол
дозвола
дозволена
дозволене
дозволено
дозволены
дозволив
дозволила
дозволили
дозволило
дозволити
дозволить
дозволу
дозволяв
дозволяли
дозволяло
дозволяють
дозерав
дознав
дознавши
дознала
дознали
дознати
дозор
дозора
дозором
дозорцьом
дозорця
дозрі
дои
доим
док
доказ
доказав
доказали
доказане
доказательство
доказати
доказом
доказох
доказы
докладніше
докладнішу
доконця
докончене
докончив
докончити
докончовав
докопы
доксология
доктор
доктора
докторат
доктором
докторскои
докторску
докторскыи
доктрина
доктрины
документ
документа
документална
документално
документалных
документами
документарныи
документах
документации
документація
документов
документована
документом
документох
документу
документы
документів
документѣ
докус
докы
докінце
докінця
докінчіти
дол
долар
доларох
долина
долинах
долинов
долины
долиняне
долині
долинѣ
долна
долном
долны
долныи
долов
долованя
доложены
долу
долы
дольноземскыи
дольноземскыма
долю
доля
долі
дом
дома
домагав
домагали
домашна
домашне
домашного
домашнои
домашности
домашность
домашны
домашныи
домашным
домашных
домашня
домашнє
домашні
домашніи
домаћинстава
домбровска
домена
доместікована
доминанта
доминантов
доминат
доминика
доминиканска
доминовала
доминуе
домов
домова
домовои
домовства
домову
домовы
домовых
домог
домогав
домогаздыня
домогали
домогати
домогли
домом
домородцьох
домох
домреми
дому
домы
домів
доміновала
домінує
домѣ
дон
доналд
донбас
донбасѣ
донгхои
донедавна
донецьк
донецька
донецькии
донецьку
донскыи
донськии
донського
дону
донынѣ
донья
доокола
доп
допаді
допереду
дописного
дописныи
дописным
дописовательом
доповнене
доповненіи
доповнити
доповнюють
доповнять
доповіді
дополн
дополнительного
допомогою
допомогти
допоможе
допоміг
доправив
доправлены
доправленыи
доправы
допровод
допроводу
допустив
допустили
допустити
допущав
допущать
допущеныи
дор
дорадянського
доробити
дорог
дорога
дорогами
дорогах
дорогов
дорогоці
дорогу
дорогы
дорозуміваня
дорозі
дорозѣ
дорослы
дорослыи
дорослыма
дорослых
доростать
доростлого
доростлых
дорсет
дос
дословно
дослужив
дослі
дослідження
досліджень
досліджують
дослідник
дослідники
дослідноі
досправды
доста
достав
доставав
доставала
доставали
доставати
доставать
доставають
доставкою
доставши
достал
достала
достали
достало
достане
достанеме
достануть
достати
достатком
достаточне
достаточно
достаточны
достають
достоевскыи
достои
достоєвскыи
доступ
доступа
доступна
доступне
доступно
доступною
доступны
доступныи
доступных
доступу
дость
досяг
досягать
досягла
досягли
досягло
досягне
досягнути
досягнутыи
досягнутю
досягнутя
досягти
досягуе
досягують
досягує
досі
дотворюють
дотеперь
дотепері
дотеперішні
дотогды
дотогдышнои
дотримованя
дотримовати
дотримуи
дотулять
дотуляють
дотуляючі
дотыкать
дотыль
дотычно
дотычности
дотычны
дотычныи
дотычных
доходжѣня
доходив
доходило
доходить
дохтор
дохтора
дохторам
дохтором
дохторох
дохторы
доц
доцент
доцента
доцентом
доци
дочасна
дочасне
дочасно
дочаснов
дочасного
дочасны
дочасныи
дочасным
дочками
дошла
дошли
дошло
доядровои
др
драва
драга
драгово
драгоманов
драгоманова
драгомановка
драгоманівка
драгу
драгы
драм
драма
драматик
драматиком
драматици
драматичка
драматичного
драматичну
драматичны
драматичныи
драматичных
драматург
драматурга
драматургии
драматік
драмов
драмски
драму
драмы
драмѣ
драпавым
древко
древнеи
древнии
древняя
дреждяны
дрез
дреза
дрезина
дрифтованя
дрих
дроблязь
дробного
дробнои
дробны
дробныи
дробных
дробнѣи
дровняк
дровняка
дрогобычу
дрозд
дроздовы
дроздовых
друга
друге
другеи
другетох
други
другии
другима
другими
других
другов
другого
другое
другои
другом
другому
другоплановыи
другоряднии
другою
другоє
другоі
другу
другуи
другы
другыи
другым
другыма
другыми
другыраз
другых
другі
другіи
другім
дружби
дружина
дружину
дружины
дружно
дружства
дружство
дружтва
дружтво
друк
друкованых
друкованя
дръ
дрылить
дрібна
дрібны
дрібныи
дрібным
дрібныма
дрібных
дрібні
дтрансформер
ду
дуалистичнои
дуб
дуба
дубаи
дубах
дубая
дубно
дубриничѣ
дубровник
дубровнику
дубчек
дубчека
дуга
дугы
дуда
дудаш
дудок
дудорог
дуелі
дует
дуже
дук
дукаты
дукля
дуклянскои
дукляньского
дуклѣ
дуличенко
дулишкович
дулишковича
дуліченко
думав
думали
думам
думаня
думати
думать
думен
думка
думки
думку
думкы
думок
думцѣ
думы
дунаи
дунаю
дуная
дуо
дупел
дупла
дуплах
дупло
дуплі
дурныи
дустав
дустала
дусі
дутинах
дутину
дутины
дуты
дуть
дух
духа
духнович
духновича
духновичови
духновичу
духновіч
духновіча
духновічом
духовенства
духовенство
духовенству
духовна
духовника
духовно
духовнов
духовного
духовнои
духовну
духовны
духовныи
духовным
духовныма
духовных
духовніи
духом
духу
душ
душа
душан
души
душпастырь
душу
душы
душѣ
дуючі
дуючіи
дуючіх
дує
дуєш
ды
дым
дымниця
дынѣ
дых
дыханя
дьердьи
дьердя
дьеру
дэже
дю
дюлафалва
дюра
дюрдьов
дюрдьова
дюрдьове
дюрдьовѣ
дюрер
дюрренматт
дюрренматта
дюсабл
дядя
дяк
дяка
дяку
дякувші
дякую
дякуючи
дякуючі
дякуючіи
дякуєме
дякы
дятель
дятле
дятловы
дятловых
дятлообразны
дять
дяцѣ
дячого
ді
діакрітічных
діалект
діалекта
діалектами
діалектом
діалекту
діалекты
діалекті
діалектів
діалектіка
діалоґ
діамант
діаманту
діаманты
діаметер
діаметр
діаметром
діаметрів
діаспора
дівкы
дідо
дідух
дізаи
дізель
дізналися
дізъюнкціов
дізъюнкція
діи
діккенс
діктатура
діл
діла
діленя
ділит
ділить
діло
діля
ділят
дім
діморфізм
дімітрія
дін
дінастіов
дінастія
дінастіі
дінозавры
дінозаврів
діода
діоніз
діонізіи
діплом
діпломат
діпломація
діра
дірагалактика
дірект
діректор
діректорію
діректоріі
діри
дірка
дірки
дірок
дірою
діріґент
діск
діскузна
діскузну
діскузны
діскузныи
діскузных
діскузіи
діскузіов
діскузію
діскузія
діскузіях
діскузіі
діскутованя
діскутовати
діснеи
дістав
діставать
дістала
дістали
дістало
дістане
дістанете
дістати
дісціплін
дісціпліна
дісціпліны
дітеи
діти
дітріх
дітьми
діфтонґы
діч
діш
дішкурка
дішло
діяльности
діятель
діятельнусть
діяч
діячі
дієґо
діі
дііі
діґраф
діґрафныи
діґрафы
дѣва
дѣвка
дѣвков
дѣвку
дѣвкы
дѣво
дѣвок
дѣвы
дѣда
дѣдичности
дѣдичность
дѣдо
дѣдови
дѣдовизна
дѣдовизны
дѣдом
дѣе
дѣи
дѣл
дѣла
дѣлами
дѣлах
дѣлив
дѣлила
дѣлили
дѣлити
дѣлить
дѣлны
дѣло
дѣлом
дѣльба
дѣлять
дѣлѣ
дѣлѣню
дѣлѣня
дѣня
дѣтвак
дѣтвака
дѣтваком
дѣтеи
дѣтемъ
дѣти
дѣтина
дѣтинов
дѣтину
дѣтми
дѣточа
дѣточои
дѣточом
дѣточу
дѣточы
дѣточыи
дѣточых
дѣтска
дѣтскы
дѣтскыи
дѣтство
дѣтям
дѣю
дѣя
дѣяли
дѣянич
дѣяня
дѣятель
дѣятелька
дѣятельность
дѣятельом
дѣятельох
дѣятеля
дѣятелями
дѣячи
е
ев
ева
евакуоване
евакуованы
евакуованыи
евангелиста
евангелици
евангелицка
евангелицкого
евангелицкои
евангелицком
евангелицкыи
евген
евгена
евгении
евгению
евгения
евгеньева
евгеньевич
евгеніи
евентуално
еверест
евереста
евересті
евертон
еверґріньска
евиденции
евиденция
евич
евклид
евклидовска
евм
евмении
евмения
еволуции
еволуция
еволуція
еволуціі
еволюціонера
еволюцію
еволюція
евр
евра
евразии
евразіі
евреи
евро
евровизии
евровізія
еврозоны
европа
европанами
европане
европанох
европе
европеи
европов
европска
европсков
европского
европскои
европском
европску
европскы
европскыи
европскым
европскыма
европскых
европскіи
европскім
европу
европы
европі
европѣ
еврорегион
евроунии
евсевии
евтушенко
евы
еган
егана
егеи
егер
египет
египетскы
египта
египтом
египту
египтѣ
его
егорьевск
ед
едвард
едварда
едвардом
едварду
едгар
еде
еден
едикт
един
едина
единбургу
едине
единиць
единицю
единиця
единицѣ
единка
единков
единку
единкы
единкыи
единов
единого
единои
единок
единства
единство
едину
единыи
единым
едисон
едитации
едиции
едмон
едмунд
едмунда
една
еднак
еднака
еднако
еднакои
еднаку
еднакы
еднакыи
едно
еднов
едновалцьове
едного
еднозначно
еднои
едном
едному
едности
едность
едноткы
едноту
едночасно
едну
едны
едным
едуар
едукации
едукацию
едукация
едукацію
едукаціі
едукачныи
едукачных
едісон
едіт
едітаціі
едітованя
едітовати
ее
ежы
езра
езуит
езуитами
езуитох
езуитскои
езуиты
еи
еквадор
екватор
екватора
екваториална
екватором
екваторѣ
еквивалент
еквивалента
екзамен
екзамены
екзарх
екзарха
екзархат
екзархата
екзархату
екзекуции
екзекуция
екземплар
екземплара
екземплары
екземпларі
екземпларів
екзилова
екзилі
екзистенции
екзистенцию
екзистовав
екзистовала
екзистовали
екзистовало
екзистованя
екзистовати
екзистуе
екзистують
екзистуючых
екзокрінны
екзопланету
екзістенціі
екзістовала
екзістують
екзістуючіх
екзістує
екипа
еклиптика
еклиптикы
еко
екологии
екологичны
екология
екологічні
екологія
екологіі
еколоґія
еколоґіі
економ
економии
економика
економики
економику
економикы
економицѣ
економична
економично
економичного
економичнои
економичну
економичны
економичныи
економичным
економичных
економия
економы
економіка
економіку
економікы
економіці
економічна
економічне
економічного
економічнои
економічну
економічны
економічныи
економічні
економія
економіі
експанзии
експанзия
експедиции
експедициов
експедицию
експедиция
експедициях
експериментах
експериментовала
експерименты
експерт
експертох
експерты
експерімент
експеріменты
експеріментів
експлицитно
експлоатации
експліцітно
експозитура
експозиции
експозицию
експозиция
експозиціі
експонаты
експорт
експорта
експортуе
експрес
екстерно
екстерны
екстерных
екстерьєрі
екстра
екстремно
екстремных
ексцентрицита
ексцітованого
екшен
ел
елаборат
елвіс
елеи
елек
елека
електрарня
електрарнѣ
електрика
електрику
електрикы
електрично
електричного
електричнои
електричну
електричны
електричныи
електричных
електрода
електромагнітного
електромаґнетічне
електромаґнетічного
електромаґнетічны
електромоторы
електрон
електрона
електроникы
електронна
електронного
електроннои
електронну
електронныи
електронніи
електронох
електронских
електроны
електронів
електроніка
електронічна
електронічнои
електронічныи
електротехникы
електротехничныи
електротехніка
електротехнічны
електрічна
електрічного
електрічнои
електрічны
електрічныи
електрічным
електрічных
елемент
елемента
елементами
елементарнои
елементарных
елементах
елементи
елементом
елементох
елементув
елементы
елементів
елена
елеопомазаня
елзас
елизабет
елипса
елипсы
елитис
елитных
елиты
ельцин
ельцина
еліптична
еліптичноі
еліптічны
ем
емануел
емблема
емен
емерсона
емері
емигрант
емигранта
емигрантох
емигрантскым
емигранты
емиграции
емиграциов
емиграцию
емиграция
емигровав
емигровали
емигровати
емил
емила
емилиан
емилия
емираты
емисию
емитую
еммануи
еммануил
еммануила
еммов
емоции
емоціи
емоція
емоціі
ему
еміл
еміла
еміліан
еміраты
емісія
емісіі
еміґранты
еміґрантів
еміґраціе
еміґровав
ен
енгелс
енгелсом
ендемы
енди
ендокрінна
ендокрінны
ендре
енді
енергетика
енергетикы
енергетична
енергетичны
енергетичныи
енергетичных
енергии
енергиов
енергию
енергия
енергія
енерґетіка
енерґію
енерґія
енерґіі
ензим
ензім
ензімы
ензімів
енклавов
енковскыи
еннок
енрико
енріко
енс
ентузиазм
ентузиазмом
енциклопедии
енциклопедиста
енциклопедисты
енциклопедичнии
енциклопедичних
енциклопедичного
енциклопедия
енциклопедиях
енциклопедія
енциклопедіягалактика
енциклопедіі
енціклопедіи
енціклопедічна
енціклопедічно
енціклопедічного
енціклопедічнои
енціклопедічны
енціклопедічныи
енціклопедічных
енціклопедію
енціклопедія
енціклопедіях
енціклопедіі
енѣ
епарха
епархиалного
епархиалнои
епархиалныи
епархии
епархию
епархия
епидемии
епизодох
епископ
епископа
епископами
епископови
епископом
епископох
епископска
епископскои
епископства
епископство
епископы
епитет
епитеты
епична
епос
епоса
епох
епоха
епоху
епохы
ептембера
епізоду
епічні
ера
ерару
ерб
ербу
ервин
ервина
ердели
ерделии
ерделіи
ерделія
ереван
ереи
ересь
еретик
еритроцитах
еритроцитох
еритроциты
ерих
ернан
ернев
ернева
ернест
ернст
ероплан
ерудита
ерупции
ерупция
ерфурт
еры
ес
есеи
есеиста
есенин
есенина
есея
есеі
есеіста
ескуд
ескудо
если
есовска
есперанто
ествовав
ествовала
ествованю
ествованя
ествовати
ествуе
ествую
ествують
естебан
естер
естергом
естергомского
естергомскои
естергомскыи
естергомѣ
естетика
естетичныи
естетіка
естетічных
естонии
естония
естоньскыи
естонія
естоніі
есть
есу
есь
ет
етапа
етапах
етапу
етапы
етапі
етапѣ
етикы
етимологии
етимологично
етимологичном
етимологию
етимология
етимологічнии
етиопия
етна
етничко
етнична
етничне
етнично
етничнов
етничного
етничнои
етничну
етничны
етничных
етно
етногенеза
етнограф
етнографа
етнографиев
етнографии
етнографична
етнографичного
етнографичнои
етнографичном
етнографичну
етнографичны
етнографичныи
етнографичныма
етнографичных
етнографию
етнография
етнографы
етнологии
етнолоґ
етнолоґія
етноним
етнос
етноґраф
етноґрафічны
етноґрафія
етноґрафіі
етнік
етніка
етніціта
етнічна
етнічно
етнічнои
етнічны
етнічным
етнічных
етолоґія
етруского
етіка
етіку
етімолоґія
етіопія
етічны
еу
еус
ефект
ефекта
ефекти
ефективно
ефективнои
ефективность
ефектноі
ефектні
ефектом
ефекты
ефектівні
ефрон
ефрона
еффект
ецесі
еще
ещи
еґеру
еґіпет
еґіпетьскыи
еґіпетьскых
еґіпта
еґіпті
ж
жабами
жабы
жадав
жадала
жадали
жадане
жаданого
жадану
жаданы
жаданыи
жаданых
жадань
жаданьом
жаданя
жадати
жадать
жаден
жадна
жадне
жадного
жаднои
жадность
жадну
жадны
жадныи
жадным
жадных
жадости
жадость
жаи
жак
жака
жалудку
жаль
жан
жана
жандарска
жандарскыи
жанеи
жанер
жаннере
жанра
жанрами
жанрах
жанровы
жанровых
жанрох
жанру
жанры
жанрів
жанрѣ
жарновець
жарі
жаткович
жатковича
жатковичово
жатковичом
жатковіч
жахливоі
жданов
ждимир
ждыни
ждыня
же
жебраками
жебрають
жебы
жел
желаня
желаю
железнодорожные
желі
желізна
желізницьов
желѣза
желѣзарня
желѣзна
желѣзници
желѣзниць
желѣзницьов
желѣзницю
желѣзниця
желѣзницѣ
желѣзничаря
желѣзнична
желѣзничнов
желѣзничного
желѣзничнои
желѣзничну
желѣзничны
желѣзничныи
желѣзничных
желѣзнои
желѣзну
желѣзны
желѣзо
жен
жена
женатыи
женева
женевѣ
женив
женитва
женов
женска
женского
женскои
женску
женскы
женскыи
женскых
жену
жены
жень
женьского
женьскыи
женѣ
жере
жеребило
жерел
жерела
жерелами
жерелах
жерело
жерелом
жерелѣ
жермен
жерменского
жерменскыи
жертв
жертва
жертвам
жертвами
жертвеника
жертвов
жертву
жертвы
жешовѣ
жи
жив
жива
живая
живе
живемо
живи
живии
живина
живины
живить
живлѣня
живобытя
живого
живои
живом
живопису
живот
живота
животин
животинны
животины
животне
животного
животнои
животну
животны
животных
животом
животопис
животу
животы
животѣ
живу
живут
живы
живыи
живым
живых
жигмонд
жигмонда
жидовскои
жидох
жиды
жие
жизни
жизнь
жила
жили
жило
жирош
жителеи
жительох
жительства
жительство
жителюв
жителі
жителѣ
жити
житков
життя
житя
жию
жиють
жиючых
жиє
жки
жку
жляз
жляза
жлязы
жовна
жовта
жовте
жовтень
жовткаво
жовткавыи
жовтня
жовто
жовтогрудка
жовтои
жовтосивых
жовту
жовтурка
жовты
жовтыи
жовтым
жовтыма
жовті
жозеф
жолудів
жомарт
жона
жоны
жорж
жорстока
жридла
жрідел
жрідла
жрідлами
жрідлах
жрідло
жрідловыи
жрідлом
жрідлі
жу
жулан
жуп
жупа
жупами
жупан
жупана
жупаната
жупаном
жупах
жупныи
жупов
жупу
жупы
жупі
жупѣ
журавле
журнал
журнала
журналах
журналу
журналі
журналіста
журналістка
журналістіка
журналістікы
журналѣ
жыв
жывила
жывин
жывить
жывлять
жывого
жывому
жывот
жывота
жывотин
жывотины
жывотне
жывотны
жывотных
жывотопис
жывоту
жывоті
жывы
жывыи
жывым
жывыма
жывых
жыде
жыдівского
жыла
жыли
жыло
жытеле
жытельства
жытельство
жытелями
жытелі
жытелів
жыти
жытомирьска
жытя
жыті
жытѣ
жыють
жыючого
жыючі
жыючіи
жыючіми
жыючіх
жыє
жіліньскыи
жіліньскім
жінок
з
за
заарештованыи
забава
забавляи
забавна
забавов
забаву
забавы
забаи
забезпечать
забезпечили
забезпечують
забезпечує
заберать
забере
забеспечив
забеспечити
забеспечує
забеспечіла
забеспечіня
забив
забиваня
забивства
забивство
забивствѣ
забивця
забивцями
забивши
забие
забили
забита
забити
забитого
забиты
забитыи
забитых
забитя
забияко
заборонити
забрав
забрала
забрали
забрало
забранила
забраны
забрати
забудьте
забыв
забыти
забыты
завада
завадка
завалисте
завалитыи
завантаження
завантаженняу
завантажити
завбуч
завдяки
заведена
заведене
заведено
заведены
заведеныи
заведеніи
заведженыи
заведжіне
заведжіня
заведжѣню
заведжѣня
завела
завели
завело
завершаючыи
завершена
завершены
завершеныи
завершив
завершила
завершили
завершило
завершити
завершѣню
завести
завжди
завирушка
зависима
зависимо
зависимости
зависимость
зависимы
зависит
зависить
зависять
завитѣ
завод
заводньованя
заводы
завое
завоевали
завоеваны
завоеваныи
завоеваня
завои
завтра
завязав
завязали
завязуючі
заві
завів
загадка
загадкових
загадку
загаи
загальна
загального
загальноі
загальні
загасити
заглавье
заглублять
заглублѣня
загнав
загні
загорб
загорне
загорнюе
загорнює
загород
загорода
загородах
загородництво
загороды
загородѣ
загортать
заграв
заградка
заграла
заграли
загранича
заграничнои
заграничны
заграничныи
заграничных
заграничу
загранічных
загреб
загреба
загребѣ
загроженых
загубити
загубленоі
загыбли
загынув
загынули
заданых
задарныи
задарь
задарьмо
задать
задач
задача
задачи
задачов
задачу
задачі
задачѣ
задвірках
задна
задне
задного
задном
задныи
задні
задовго
задоволены
задоволити
задоволѣня
задокументована
задор
задора
задохин
задуманыи
задушѣню
заді
заевидованы
заедно
заж
зажадав
зажадала
зажив
зажиста
зажиткы
зажы
зажыткы
заз
зазвичаи
зазвучати
зазначав
зазначали
зазначать
зазначають
зазначена
зазначене
зазначено
зазначены
зазначеныи
зазначеных
зазначив
зазначити
зазначка
зазначкы
зазначок
зазначте
зазначів
зазначіня
зазначіти
зазначіть
зазнімкував
зазіханням
заи
заинтересовала
заир
заира
заказ
заказав
заказала
заказали
заказана
заказане
заказано
заказану
заказаны
заказаныи
заказу
заказуе
заказѣ
закарпатець
закарпатоукраі
закарпатска
закарпатская
закарпатского
закарпатскои
закарпатском
закарпатску
закарпатскыи
закарпатскым
закарпатська
закарпатськии
закарпатських
закарпатського
закарпатськои
закарпатськоі
закарпатську
закарпатські
закарпаття
закарпатті
закарпатці
закарпатье
закарпатьска
закарпатьскои
закарпатьску
закарпатьскіи
закарпатья
закарпатю
закарпатя
заклав
заклад
закладаня
закладателе
закладатель
закладательок
закладательом
закладательох
закладателя
закладателями
закладателі
закладателѣ
закладать
закладаючым
закладаючых
закладена
закладене
закладено
закладены
закладеныи
закладна
закладнои
закладну
закладны
закладных
закладі
заклали
заклало
закликав
закликала
закликали
закликаныи
заключѣня
закля
закон
закона
законам
законами
закони
законно
законну
законодарно
законодарнои
законодарныи
законом
закономѣрности
законох
закону
закончел
закончена
закончив
закончивши
закончила
закончили
закончило
закончити
закончовав
закончуе
закончують
закончѣню
закончѣня
законы
законє
законів
закрутки
закрыла
закрыли
закрыта
закрыти
закрыты
закрытыи
закрытя
закрѣпленієм
заку
закулятены
закы
закінченов
закінчены
закінченыи
закінчив
закінчує
закінчів
закінчіню
закінчіти
зала
залежить
залежно
залежности
залежность
залежыть
залив
залива
заливами
заливом
заливу
заливы
заливі
заливѣ
залипальне
залишених
залишки
залог
заложена
заложене
заложенои
заложеныи
заложив
заложила
заложили
заложити
заложыв
заложѣню
заложѣня
залуж
залужу
залцбургу
залцбурґ
залюбив
залюднѣня
залі
замбія
заменгоф
замерзать
замерьковав
замечательные
замка
замкова
замковои
замком
замкох
замку
замкы
замовчано
заможного
заможнои
заможныи
замок
замордованы
заморска
заморске
заморскых
заміне
замінят
заміряна
заміряня
замѣнити
замѣну
замѣрно
замѣстнаня
замѣстьте
занедовго
заник
заникла
заникле
заникли
заникло
заниклого
заниклои
заниклы
занику
занимав
занимала
занимали
занимало
занимат
занимати
занимать
занимають
занимаюча
занимаючіи
занимаючіх
заныи
заняв
заняла
заняли
заняло
занята
заняти
заняты
занятыи
занятых
занятьом
занятю
занятя
заосновав
заоснована
запад
запада
западе
западна
западная
западно
западнов
западного
западнои
западном
западну
западнуи
западны
западныи
западным
западныма
западных
западні
западніи
западнім
западнѣи
западом
западославяньскыи
западоґерманьскы
западу
западі
западѣ
запал
запаленыи
запаленым
запалити
запановали
запасы
запатентовав
запатентовали
запаху
заперли
заперта
заперте
заперты
запертыи
запис
записав
записала
записали
записами
записана
записане
записаны
записаныи
записаных
записати
записах
записках
записки
запискы
записница
записовав
записовали
записованя
записовати
записок
записох
записуе
записують
записы
записывается
записів
запитаи
запитань
запитигалактика
запитигалактикагалактика
запитигарна
запитиеліптичні
запитикосмосвсесвітсонячна
запитисонячна
запитичумацькии
запишьте
заплатив
заплатити
заповѣдник
запознав
запоріжжі
запорізька
започав
запоює
запоі
запричінить
запричінює
запропоновав
запряг
запрічінило
запрічініла
запуски
зараблав
зараз
зареаговав
зарегистровав
зарегистрована
зарезервовано
зарезервованыи
заробив
заробити
заробкох
заробку
заробкы
заробляв
заробляти
заробок
зароснуты
зароснутых
зарубіжні
заряджены
заряджує
заряджіня
заряджѣнь
заряджѣньом
заряджѣня
зарядив
зарядити
зарянка
зарѣканя
зарѣня
зарѣчово
засадно
засады
засвяченыи
заселена
заселения
заселеныи
заселеных
заселив
заселили
заселяли
заселяти
заселѣня
заскаржѣньом
заславскии
заслуг
заслугов
заслугу
заслугы
заслужена
заслужении
заслуженого
заслуженыи
заслужив
заслужили
засмутила
засмутили
засновав
заснована
засноване
заснованыи
заснованю
заснованя
заснователь
засоб
засобарнѣ
засобованя
засобує
засобы
заспѣвали
заст
застава
заставив
заставили
заставити
заставить
заставка
заставку
заставов
заставу
заставы
застарі
застарѣла
застарѣлыи
застачаня
застачать
застачены
застачила
застачити
застачить
застосування
застрі
застрѣленыи
застрѣлити
заступив
заступник
заступника
заступником
заступують
засудженого
засуджены
засудженыи
засудженых
засудив
засуду
засытив
зась
засяг
засягла
засягло
засягом
засягуе
засягує
засі
засѣданю
засѣданя
затвердив
затворка
затисянскому
затля
зато
затоже
затока
затопив
затоплѣня
затруднены
затрудненых
затылок
затым
затяж
зафарблена
зафарблене
зафарблену
зафарблены
зафарбленыи
зафарблі
зафиксовав
зафиксовала
зафиксована
зафиксоване
зафиксовано
зафиксованы
зафиксованыи
зафіксувало
захват
захватѣ
захворі
заховав
заховала
заховали
заховало
захована
захованы
захованю
захованя
заховати
заходить
захопленыи
захоплюючу
захоплює
захоплі
захоронка
захоронку
захранены
захранив
захранила
захранили
захранило
захранити
захранить
захранных
захрану
захраны
західна
зачав
зачавши
зачал
зачала
зачали
зачало
зачата
зачати
зачатком
зачатку
зачаткы
зачаток
зачаточна
зачаточне
зачаточно
зачаточнои
зачаточну
зачаточны
зачаточныи
зачаточных
зачатыи
зачим
зачинав
зачинали
зачинат
зачинатель
зачинать
зачинают
зачинають
зачне
зачнете
зачнуть
зачудовав
зачудованя
зачінав
зачінать
зачінають
зачінаючі
зашла
зашли
зашло
зашто
зають
заяв
заявка
заяла
заяли
заятого
заятцьох
заяты
заятыи
заятых
заятю
заятя
заяці
заєдні
зб
збавити
збавлена
збавлены
збавленыи
збаченыи
збачіти
збачіть
збер
зберав
зберали
збераню
збераня
зберат
збератель
зберателька
зберати
зберать
зберають
збереження
зберка
зберку
зберкы
зберок
зберцѣ
зберька
зберьках
зберьков
зберьку
зберькы
зберьцѣ
зближать
зблизка
збои
збоку
збор
зборник
зборника
зборниках
зборником
зборникох
зборнику
зборникы
зборні
зборов
зборовѣ
зборы
збрани
збрані
зброи
зброю
зброя
зброі
збруч
збудовали
збудована
збудоване
збудованы
збудованыи
збудовати
збулша
збуряны
збуряныи
збуряню
збутнявиты
збутнявитым
збыточне
збірка
збірков
збіркы
збірник
збірника
збѣгла
збѣркы
зв
звала
звали
звало
звана
званого
званои
звану
званы
званыи
званым
званых
званьом
званя
зваряня
зве
звекша
звекшать
звекшіне
звекшѣню
звекшѣня
звергли
зверев
зверьха
зверьхні
зверьху
звичаи
зволен
зволеныи
звонимир
звонкости
звонниця
звонѣня
зворотник
зворотнику
звук
звука
звуками
звуки
звукового
звуковои
звуковы
звуком
звукоряд
звукох
звуку
звукы
звуків
звуть
звучання
звучаня
звучать
звучит
звучить
звучіть
звык
звыкла
звыкли
звыкло
звыкне
звыкы
звыразнити
звычаи
звычаях
звычаі
звышованя
звышок
звышує
звязана
звязане
звязаного
звязаности
звязаны
звязаныи
звязаныма
звязаных
звязати
звязи
звязку
звязовала
звязок
звязуе
звязують
звязь
звязі
звідованя
звізд
звізда
звіздов
звізды
звіря
звірят
звірята
звірятами
звѣзд
звѣзда
звѣзды
звѣрив
звѣрины
звѣря
звѣрят
звѣрята
згасання
згаслі
згледованя
зглядователь
згода
згоден
згодно
згодны
згодныи
згодом
згодують
згоды
згоді
згодѣ
зголосили
згорнутя
згорнює
згоры
згорѣла
зготовив
зготовили
зготовлѣня
згромаджѣня
згромажді
згруба
зд
зда
здавна
здалека
здалость
здасть
здатна
здатности
здатность
здах
здаються
здвоєні
зденка
зденька
здержали
здесь
здиня
здити
здить
здища
здищах
зднука
здо
здобыв
здобываню
здобываня
здобывать
здобывають
здобыла
здобыли
здобыти
здобытых
здобытя
здова
здовиска
здову
здовыи
здовых
здорове
здоровелных
здоровля
здоровництва
здоровництвѣ
здоровя
здохлинами
здохлины
здравя
здрое
здружіня
здружѣня
здруи
здурити
здуття
здять
здячіх
зді
здіи
зе
зебра
зевса
зеи
зек
зека
зеланд
зеланду
зеланді
зелена
зелене
зелении
зеленина
зеленины
зелених
зеленкавы
зеленкастыи
зеленои
зеленонога
зелену
зелены
зеленыи
зеленыма
зеленых
зелені
зеленіи
земекулі
земель
земл
земле
земледілство
земледѣлець
земледѣлска
земледѣлске
земледѣлского
земледѣлскои
земледѣлску
земледѣлскы
земледѣлскыи
земледѣлскых
земледѣлства
земледѣлство
земледѣлством
земледѣлствѣ
земледѣлцьох
земледѣлця
земледѣлцѣ
землепана
землепанами
землепанох
землепис
землеписна
землеписны
землетрясі
земли
земльов
земльотрясеня
землю
земля
землям
землями
землях
землячка
землі
землѣ
земмелваи
земна
земнов
земноводны
земного
земнои
земноі
земны
земныи
земных
земніи
земплин
земплинскои
земплинѣ
земплін
земпліна
земскои
земскыи
зенит
зенитѣ
зенштеи
зеппелін
зеркала
зеркало
зеркалом
зеркалі
зерна
зефа
зикмунд
зикмунда
зикмундом
зикр
зикра
зима
зимняк
зимнім
зимовища
зимовищами
зиму
зимушного
зимують
зимує
зимы
зимі
зиндранова
зиндрановои
зистив
зия
зл
зла
златоустого
златыи
зливаються
зликвидована
злили
злинскыи
злинѣ
злиття
зложена
зложене
зложенов
зложены
зложеныи
зложеных
зложив
зложка
зложкы
зложок
зложыті
зложіня
зложѣню
зложѣня
злости
злотніков
злоцкого
злоцкыи
злочин
злочинох
злочинцями
злочіны
злучать
злучена
злученин
злученина
злученины
злучены
злученыи
злученых
злученя
злучив
злучили
злучити
злучникы
злучіня
злучѣньом
злучѣню
злучѣня
злыи
злятины
злі
злѣва
зм
змагав
змаганя
змазаны
змазаню
змазаня
змаи
змальовав
змалювання
зматуровав
змеджи
змежи
зменшать
зменшуе
змогла
змогли
зможуть
змоцнили
змоцнѣня
змусило
змусять
змушеныи
змушує
змываня
змысел
змыслі
змыслѣ
змі
зміджі
зміи
змін
зміна
змінам
змінами
зміне
змінив
змінила
змінити
змінка
змінны
змінных
зміну
зміны
змінюють
змінює
зміні
змісту
зміцнює
змішаны
змішаных
змієносця
змѣи
змѣн
змѣна
змѣнах
змѣнена
змѣненыи
змѣнив
змѣнила
змѣнили
змѣнити
змѣнов
змѣну
змѣны
змѣнѣ
змѣя
зна
знав
знае
знаеме
знаи
знак
знака
знаками
знаком
знакомы
знакох
знаку
знакы
знаків
знала
знали
знало
зналостеи
зналости
зналость
знам
знама
знаме
знаменитыи
знамка
знамого
знамои
знамости
знамость
знамы
знамыи
знамым
знамыма
знамых
знаміи
знаміша
знамішого
знамішы
знамішыи
знамішым
знамішых
знамѣи
знании
знаным
знаных
знань
знаня
знароднена
знате
знатель
знати
знать
знатя
знаходиться
знаходяться
значать
значение
значении
значения
значення
значеня
значит
значить
значка
значков
значкованя
значку
значкы
значна
значне
значно
значнов
значнои
значному
значну
значны
значныи
значным
значок
значці
значів
значіло
значіне
значінь
значіню
значіня
значінями
значінях
значіти
значіть
значѣню
значѣня
знаю
знають
знаючи
знає
знаєме
знаємо
знаєте
знесе
знижіня
знижѣня
зникнуть
зничіли
знищена
знищены
знищеныи
знищив
знищили
знищити
знищѣня
знова
знову
зному
зношать
зношка
зношкы
зношці
зныи
зных
зняли
зняти
знятыи
знять
зняцьово
зні
знімальна
знімки
знімку
знімок
знічныи
зо
зобрав
зображене
зображення
зображеныи
зображень
зображені
зображованого
зображованя
зображовати
зображуе
зображуюча
зображіня
зображѣня
зобразив
зобразити
зобразить
зобрала
зобрали
зобрало
зобрана
зобраны
зобраных
зобраня
зобрати
зована
зове
зовні
зовнішньо
зовсѣм
зовуть
зограф
зогрі
зодповідности
зоз
зознамив
зозуле
зозуляк
зозулі
зои
зокрема
золота
золотарьово
золото
золотои
золотом
золоту
золоты
золотыи
золотым
золотыма
золотых
золоті
золтан
зомбор
зомбора
зомбору
зомборѣ
зомбі
зон
зона
зонах
зонов
зону
зоны
зоні
зонѣ
зоологии
зоологичныма
зоолоґія
зоперти
зорганизовав
зоркіи
зоря
зоряне
зоряним
зоряних
зоряного
зоряні
зорі
зос
зоскупліня
зосподу
зостав
зоставав
зоставала
зоставали
зоставало
зоставати
зоставать
зоставають
зоставив
зоставила
зоставитель
зостала
зостали
зостало
зосталы
зостане
зостати
зостаткы
зостають
зострѣленого
зострѣленыи
зохабив
зохабити
зош
зоэ
зприступнити
зрады
зрак
зрані
зранѣня
зрекла
зрекли
зречи
зробив
зробила
зробили
зробило
зробите
зробити
зробить
зроблены
зробленыи
зрод
зроджѣня
зрозумілыи
зрозуміти
зруб
зрубова
зрубовыи
зрубу
зруи
зрушена
зрушив
зрушіня
зрушѣня
зрюк
зряджена
зряджѣня
зрядив
зрядили
зрядити
зрі
зрѣдка
зсфср
зубатку
зубаткы
зубрицькыи
зубчатоклювы
зубчатоклювых
зубы
зузана
зузаны
зулр
зуміли
зучастнив
зша
зъединены
зъединеных
зъявив
зъявила
зъявить
зъявлять
зъявлѣня
зъявно
зъєдиненых
зъєдинила
зъі
зъѣзд
зъѣзда
зъѣздѣ
зыи
зындранова
зыск
зыскав
зыскавши
зыскала
зыскали
зыскало
зысканю
зысканя
зыскати
зыску
зыскуе
зышли
зяблик
зясь
зять
зі
зімбабве
зірка
зірками
зірки
зіркова
зіркове
зірковии
зірковим
зіркові
зіркоутворення
зіркою
зірок
зістав
зіставать
зіставають
зіт
зіткнення
зіткненням
зіткненні
зіткнулися
зія
зіі
зіґмунд
зґрупує
и
иберии
ив
ива
иван
ивана
ивано
иванов
иванович
ивановскыи
иваном
ивану
иванъ
иводжима
иглесиас
игнатия
игнатков
игнатьевичъ
игнац
игнаца
игорь
игоря
игра
играв
играе
игриска
игуменом
ид
идвор
иде
идеал
идеална
идеалом
идеалох
идеалы
идеев
идеи
идентификатор
идентификатора
идентификаторы
идентификации
идентификация
идентификачных
идентичности
идеов
идеологии
идеологична
идеологичнои
идеологичны
идеологичных
идеология
идею
идея
идеям
идеями
идзе
идиш
идр
идут
идуть
иерарх
иерархии
из
иза
избах
избранные
известия
извор
изгледовань
изгодя
изд
издание
изданіе
издат
издательскии
издательство
изидор
измаилу
измѣненіи
изображение
изображении
изолации
изолованыи
изолованых
изотопох
изотопы
израел
израела
израелитох
израелиты
израелу
израиля
изъ
ии
икона
иконостас
иконы
ил
илегалитѣ
илегалного
или
илиада
илиады
илиадѣ
илион
илл
илла
иллинои
иллюстрированная
иллюстрированныи
илустрации
илустрация
илустрованыи
ильи
ильин
ильич
им
имажинизм
имажинистох
име
имен
имена
именами
именем
имени
именовав
именованыи
именованя
именом
имив
имигранта
имигрантами
имигрантох
имигранты
имиграции
имили
имня
имо
имп
император
императора
императором
императорох
императорского
императорскои
императоры
императрицю
императриця
императрицѣ
империев
империи
империии
империов
империю
империя
имперского
имперскои
импресарио
импулз
имунита
имунолог
имунология
имя
имѣти
ин
ина
инвазии
инвазию
инвазия
инвестиции
инде
индекс
индиана
индианами
индиане
индианох
индианского
индианскы
индианскых
индианы
индивида
индивидуално
индивидуалны
индивидуалных
индивидуалы
индии
индию
индия
индоевропскы
индоевропскых
индонезии
индонезия
индустриализации
индустриализация
индустриалныи
индустрии
инженер
инженера
инженером
инженеры
инжинер
инициативы
инициатором
инициовав
инициовала
инкорпорованыи
инкубачнои
иннсбрук
иностранная
иностраннои
иностранных
инсектох
институт
института
инструмент
инсценации
инськоє
интелвак
интелигенции
интелигенцию
интензивно
интервал
интервалы
интервеновав
интервенциев
интервенция
интервью
интервю
интерес
интереса
интересам
интересах
интересне
интересно
интересны
интересныи
интересных
интересовав
интересовати
интересом
интересох
интересы
интересѣ
интермедии
интермедия
интернат
интерната
интернатнои
интернатом
интернационал
интернационала
интернационална
интернационалу
интернационалы
интернет
интернетѣ
интернованыи
интернованя
интерпретации
интерпретация
интерфеи
интерференции
интерьер
интригы
инфаркт
инфекции
инфекциониста
инфекция
инфекчны
инфекчных
инфо
инфорамы
информатикы
информациев
информации
информацию
информация
информачныи
информачных
информер
информовав
информовати
инфраштруктура
инш
инша
иншак
иншакы
иншакыи
иншакым
иншакых
инше
иншов
иншого
иншои
иншом
иншпектор
иншпектора
иншпектором
иншпекции
инштитут
инштитута
инштитуту
инштитуты
инштитутѣ
инштитуции
инштитуция
инштитуциях
инштрумент
инштрумента
инштрументална
инштрументах
инштрументох
инштрументы
иншу
иншы
иншыи
иншым
иншыма
иншых
инші
иншѣ
ины
инѣ
иоанн
иоанна
иоанникии
иоанникия
иоаннъ
ип
иппен
ирак
ираклия
иран
ирана
иржи
ири
ирина
иринеи
ирия
иркутскои
ирландии
ирландия
ирска
ирскыи
ирскым
ирскых
иршава
иршавского
иршавском
иршавскыи
исаак
исе
искра
искусство
ислам
ислама
исламов
исламѣ
исландии
исландия
исп
испаниев
испании
испания
испанска
испанского
испанскои
испанскы
испанскыи
испанскых
испанцьох
испанцями
испанцѣ
использования
используется
испр
исправл
испыт
испыты
исследования
ист
истина
истинно
истинного
истинѣ
исто
истого
истои
истоки
истом
историев
истории
историк
историка
историками
историко
историком
историкох
историкы
историов
историографии
историография
историци
историческая
исторические
историческии
исторических
историческое
историческія
исторична
историчне
исторично
историчнов
историчного
историчнои
историчном
историчну
историчны
историчныи
историчным
историчныма
историчных
историю
история
исторіи
исторія
исторіѣ
исты
истыи
исус
исуса
исусово
исусового
исусом
ись
ит
италиев
италии
италию
италия
италиянска
италиянскыи
итд
ити
итп
их
ичкерѣя
ишла
ишли
ишло
ишов
иштван
иштвана
иштваном
ище
ищи
июля
к
ка
кабинет
кабинета
кабо
кава
кавалерии
кавка
кавказ
кавказа
кавказу
кавказі
кавказѣ
кавовника
кавы
кагіра
кади
кадри
кадырова
каетан
кажда
кажде
каждов
каждого
каждоденна
каждоденно
каждоденного
каждоденнои
каждоденности
каждоденну
каждоденныи
каждоденных
каждоденнім
каждодньово
каждое
каждои
каждом
каждому
каждорочно
каждорочны
каждорочныи
каждорочных
кажду
кажды
каждыи
каждым
каждіи
каждім
кажуть
кажучи
казак
казань
казаня
казатель
казахстан
казахстана
казахстану
казахстанѣ
казахы
казеты
казимир
казимира
казинцбарцика
казка
казки
казкы
казок
каи
как
кал
кала
калагарі
калвария
калвин
калвинска
калвинску
кале
календар
календарем
календарны
календарь
календарю
календаря
календарях
календарі
календарѣ
калиграмы
калии
калин
калина
калиняк
калифорнии
калифорния
калкант
калман
калмана
кална
кало
калории
калского
калция
калька
калі
каліграфія
калідаса
каліґрафія
каліґрафіі
кам
камаратови
камбоджа
каменицкыи
каменка
камень
камені
каменів
камео
камерун
ками
камил
каммаи
кампании
кампаніі
камчатку
камышевыи
камышниця
камышівка
камюнка
камяна
камянець
камянка
камянои
камяну
камяных
камінь
каміня
камінями
камѣнолом
камѣнь
камѣня
камѣнѣ
кан
кана
канаан
канаанцѣ
канада
канадов
канадскыи
канаду
канады
канадьска
канаді
канадѣ
канал
канала
каналами
каналом
каналох
каналы
каналі
канарьскы
канарьскых
кандидат
кандидата
кандидати
кандидатом
кандидатох
кандидатску
кандідата
кандідаты
канзас
канзаса
канобугалактика
канобуканобу
канона
каноник
каноника
каноником
каноничного
каноничнои
канонох
каноны
кант
кантата
кантон
кантона
кантонами
кантонох
кантоны
кантор
кантора
канторы
кантрі
канцеларии
канцеларни
канцеларня
канцеларнѣ
канцеларіі
канцлер
канцлерів
каня
кані
канібал
канібали
канібалом
капацитов
капациту
капациты
капверды
капел
капела
капелла
капелник
капелы
капитал
капитала
капитализм
капитализма
капитан
капитана
капитула
капитулацию
капитулы
капитулѣ
капка
капкы
каплан
капланом
капланы
каплици
каплицю
каплиця
каплицѣ
капліця
капраль
капушаны
капітал
капіталізм
капітулы
кар
кара
карабах
карабахске
карабелеш
карабелеша
караганда
караганды
карагандѣ
караджічовоі
каракум
караман
карат
карате
карачин
карачі
карбон
карбона
карбону
карбуратор
карбуратора
карда
кардана
кардинал
кардинале
кардио
кардиоваскуларна
каре
карел
карибского
карибском
карк
карком
карку
карл
карла
карликова
карликову
карликовыи
карло
карловарьскыи
карловицкыи
карловои
карловцях
карловы
карлом
карлсруе
карного
карныи
каров
карои
карол
каролина
кароль
карольи
карпат
карпатами
карпатах
карпати
карпато
карпаторусинского
карпаторусинскои
карпаторусинскыи
карпаторусиньского
карпаторуского
карпаторускои
карпаторуску
карпаторусская
карпаторусскии
карпаторусских
карпаторусскои
карпаторусску
карпаторусскіи
карпаторуськыи
карпатска
карпатская
карпатске
карпатского
карпатское
карпатскои
карпатскы
карпатскыи
карпатскых
карпатскіи
карпатська
карпатськии
карпатських
карпатського
карпатськоі
карпатъ
карпаты
карпатьска
карпатьскои
карпатьскых
карпов
карповтлаш
карст
карта
картагена
картагенов
картагену
картагены
картер
картин
картина
картини
картинки
картинок
картка
карткы
карту
карты
картьє
карті
кару
карусельмультсеріал
карусельтелеканал
кары
карь
карьера
карьеру
карьеры
карьерѣ
карьєра
карєры
карібске
карібского
карібскім
карібіку
карінтіі
касавубу
каспии
каспіцьке
кассы
кастильо
касуі
касы
касым
кат
катаев
каталаньскыи
каталог
каталогу
каталозі
каталоґ
катар
катарина
катарину
катарины
катастер
катастроф
катастрофа
катастрофов
катастрофы
катастрофѣ
катастрѣ
категоризација
категоризацію
категоризація
категоризаціі
категоризувати
категории
категорично
категорию
категория
категориях
категорија
категоріи
категорію
категорія
категоріях
категоріі
катедер
катедра
катедрала
катедралного
катедралу
катедралы
катедру
катедры
катедрѣ
катерина
катеринов
катехизис
катехизм
катехизму
катехізм
катеґоріе
катеґорізація
катеґоріи
катеґоріов
катеґорію
катеґорія
катеґоріях
катеґоріі
катион
катихисі
катода
катоды
католик
католиками
католикох
католици
католицизм
католицка
католицкого
католицкои
католицком
католицку
католицкы
католицкыи
католицкых
католицтво
католицтвѣ
католицька
католицьков
католицького
католицькои
католицькы
католицькыи
католицькых
католицькіи
католическая
каттегат
катыньска
кать
катэгорыя
кафе
кафедры
кафка
ках
кацирство
кацусіка
качка
качковского
качковського
качковы
качковых
качкы
качмарчик
качмарчиком
качмарчык
качур
каширина
каштель
каштелю
каштеля
кашуба
кашшаи
квадрат
квадрата
квадратных
квадрату
квазар
квазигеоида
квак
кваква
квалификацию
кваліта
кваліфікацію
кваме
квант
квантова
квантове
квантовои
квантовым
квартель
квартелю
квартеронка
квартет
квас
кваса
кваснои
квасох
квасы
квасівська
квауте
квашіня
квебек
кветослава
квитла
кворум
квятковскии
квілл
квінт
квіти
квіткова
квіткы
квітя
квіч
кг
кгб
ке
кебы
кед
кедь
кее
кежмарку
кежмарок
кеи
келвин
келн
келтох
келты
кельо
кельти
кемал
кембрідж
кеминь
кемпо
кендериця
кендеріця
кенигсберг
кентукки
кенія
кеплер
кеплера
кеплеровы
керамика
керенского
керестур
керестура
керестуре
керестурска
керестурі
керестурѣ
керуватись
керча
керчі
кесарии
кесария
кешеля
ки
кивяжд
киев
киева
киево
киевска
киевскои
киевском
киевску
киевскыи
киевскых
киевѣ
кизак
кизака
кии
кил
кила
килиманджаро
кило
килограм
килограма
килограмох
километрох
километры
километрѣ
килта
кимак
кингстон
кино
кинули
кипр
кипра
кипру
кирил
кирила
кирилицьов
кирилицю
кирилицѣ
кириличне
кириличнои
кириличных
кириллина
кирило
кирилюк
китае
китаи
китаю
китая
кишиньов
кишиньова
києва
києві
киі
кл
кла
клавдии
клавдия
клавесовы
клавесы
клавзура
клавзуры
клавир
клавір
кладе
кладжены
кладжіня
кладуть
клаи
клала
клали
клана
клану
кланы
клапка
клапку
клапкы
клара
клас
класа
класах
класик
класификатор
класификации
класификация
класифікація
класицизму
класична
класичнои
класичну
класичныи
класна
класну
класового
класом
класох
класс
классах
классика
классификации
классичныи
классна
классы
класти
класу
класы
класі
класіфікація
класіфікаціі
класіцізм
класіцізму
класічна
класічнои
класічныи
класічніи
класічнім
класѣ
клатовы
клаузула
клаус
клаштор
клаштора
клдр
клеи
клемент
кленовои
клеопатры
клепач
клер
клера
клерк
клеть
кливленд
кликав
кликаня
кликнии
кликните
кликнуте
кликун
клима
климат
климата
климатично
климатичны
климатичных
климент
климента
климишин
климишина
клин
клиницѣ
клинична
клиничны
клинтон
кличе
кличеме
клична
кличуть
клобоуки
клод
клочурак
клочурака
клр
клуб
клуба
клубом
клубох
клубу
клубы
клушиця
клюкы
ключ
ключова
ключову
ключовы
ключовым
ключовых
клі
клімат
кліматом
клімату
кліпарт
км
кменя
кменях
кметь
кметьох
кн
кндр
книг
книга
книгам
книгами
книгах
книги
книгодрукованя
книгопечатаня
книгопечатня
книгу
книгы
книжица
книжка
книжками
книжков
книжковии
книжку
книжкы
книжна
книжно
книжнои
книжны
книжніця
книжніці
книжок
книжочку
книжочкы
книжцѣ
книзі
книзѣ
кнунянц
кньежи
княгыня
княжества
княжество
княжеством
князь
князьом
князя
князі
кні
ко
коавторствѣ
коалиции
коатуу
кобаль
кобилюк
кобургско
кобчік
кобылецка
кобылочка
ков
кова
ковадлины
ковалентна
ковальство
ковальчук
ковалів
кованыма
ковач
ковача
ковбои
ковель
ковельскыи
ковельскім
ковельськім
кович
ковлідж
ковски
ковскыи
ковів
когда
когн
кого
когут
код
кода
кодекс
кодекса
кодеш
коди
кодификации
кодификацию
коду
коды
кодіфікатор
кодіфікація
кодіфікаціі
кодіфікована
кодіфікованы
кодіфікованыи
коензимох
кожа
кожановскии
кожаны
кожен
кожи
кожна
кожного
кожу
кожухівці
козацтва
козма
козмична
козмичного
козмичнои
козмичны
козмичныи
козмичных
козмодрома
козмонавт
козмонавтами
козмонавтика
козмонавтикы
козмонавтом
козмонавтох
козмонавты
козмос
козмосѣ
козмы
козмічны
козмічныи
козовик
козодое
козорога
козы
кои
кол
кола
колгосп
колгоспу
колег
колегами
колегии
колегия
колегу
колегы
колегыньов
коледж
коледжа
коледжи
коледжу
коледжѣ
колектив
колектива
колективизацию
колективизация
колективно
колективнои
колективноі
колективных
колективох
колективы
колективѣ
колектів
колекции
колекцию
колекціі
колеса
колесами
колесо
колесѣ
колеґія
колеґіі
коли
колиж
колинчак
колись
количество
колишне
колишні
колката
коллар
колледж
коллектив
коллективное
коллетта
коло
коложварскои
коложварѣ
коломыи
колон
колонада
колониална
колониалнои
колониалны
колониалныи
колонизации
колонизация
колонизовали
колонии
колонистами
колонистох
колонисты
колонию
колония
колониями
колониях
колонкою
колоны
колонізація
колонізаціі
колоніов
колоніях
колоніі
колор
колорадо
колоры
колоріт
колосеи
колочава
колочавы
колумб
колумбии
колумбия
колумбом
колысков
колыску
колыше
колышуть
кольесар
кольори
кольорові
колядка
колядкы
колядок
коляды
колі
колір
ком
кома
команд
команди
командов
командор
команду
командів
команіі
комарник
комарно
комары
комбинат
комбинации
комбинациов
комбинация
комбинованы
комбінацію
комбінація
комбінують
комедии
комедия
комедіоґраф
комедія
комедіі
комендар
коменского
коменскыи
коментаре
коментарь
коментарі
коменьского
комерчне
комерчно
комерчнои
комерчну
комерчны
комерчныи
комерчных
комет
комета
кометы
коми
коминтерна
коминтерны
комисарь
комисарьом
комисарьох
комисаря
комисии
комисию
комисия
комиссии
комитет
комитета
комитетов
комитетом
комитетѣ
комкнига
комловшии
коммунистическои
коммунистичнои
коммутаторы
комора
коморка
коморы
комп
компактно
компактну
компаниев
компании
компаниов
компанию
компания
компанія
компаніі
компетенции
компетенціи
комплекс
комплексна
комплексныи
комплексы
комплет
комплетну
комплетныи
компликована
компликованы
компликованѣи
комплікованыи
композитор
композитора
композиторох
композиторы
композиции
композицию
композиция
композично
композітор
композіторы
композіціи
композіціі
компонент
компонентами
компонентох
компоненты
компонентів
компонованя
компромис
компьютеризация
компютер
компютера
компютерах
компютерны
компютерова
компютеровы
компютеровыи
компютеровых
компютеры
компютері
компютерів
комсомол
комсомольская
комсомольська
кому
комунизм
комунизма
комунизму
комуникации
комуниста
комунистами
комунистична
комунистичне
комунистичнов
комунистичного
комунистичнои
комунистичном
комунистичну
комунистичны
комунистичныи
комунистичным
комунистичных
комунистов
комунистох
комунисты
комунит
комунита
комунитов
комуниты
комунитѣ
комуны
комунізм
комунізму
комунікацію
комунікація
комунікаціі
комунікачны
комуніковати
комуністы
комуністів
комуністічным
комуніта
комуніты
комфорт
комы
комяты
коміка
комікс
комікси
коміксів
комісіи
комісію
комісія
комісіі
комітет
комічно
кон
конари
конариків
конарь
конарьом
конарю
конаря
конарями
конарях
конарі
конарѣ
конвенции
конвенция
конвенціі
конго
конгрегации
конгрегацию
конгрегация
конгрес
конгреса
конгресах
конгресом
конгресох
конгресу
конгресѣ
кондензатор
кондензаторів
кондратович
конеи
конец
конець
конечна
конечно
конечнои
конечным
конечных
конжска
конзервативна
конзервативныи
конзерватории
конзерваторию
конзерваторіі
конзервы
конзистенцию
конзистории
конзистория
конзулом
конзултации
конзумацію
конзумаціі
конзументів
кони
коник
кониковы
кониковых
конисскыи
коничну
коничны
коничных
конкистадоры
конкретна
конкретне
конкретно
конкретного
конкретнои
конкретном
конкретну
конкретны
конкретныи
конкретным
конкретных
конкретнѣи
конкурент
конкуренттелескоп
конкурентів
конкуренции
конкуренцию
конкуренция
конкурз
конкурзу
конкурзі
конкурзѣ
конкуровати
коннектикут
конного
конолфинген
конопницка
конопницкои
консензу
консенс
конспект
константин
константина
константинович
константином
константинополь
константинополю
конституции
конституціи
конституцію
конституція
конструктор
конструкции
констітуціі
контаи
контакт
контакта
контактовав
контакту
контакты
контакті
контактів
конте
контекста
контексті
контекстѣ
контенту
контингент
континент
континента
континентах
континентох
континенты
континентѣ
конто
контракт
контрареволучнои
контрарозвѣдка
контраст
контрастны
контрасті
контратович
контрибуции
контрибуцию
контроверзны
контроверзныи
контролна
контролну
контролов
контроловав
контроловану
контролованы
контролованыи
контролу
контролуе
контролы
контроль
контрольні
контролю
контролі
контуры
контінент
контінента
контіненталну
контінентах
контіненту
контіненты
контіненті
контінентів
конура
конус
конуса
конфедерации
конфедерация
конфекция
конференции
конференцию
конференция
конференцію
конференція
конференціі
конфесии
конфесиями
конфессии
конфесіи
конфигурации
конфигурацию
конфирмация
конфишкацию
конфишкована
конфишкованы
конфишкованыи
конфликт
конфликта
конфликтох
конфликту
конфликты
конфликтѣ
конфлікт
конфлікту
конфлікты
конфліктів
конформации
конфронтацию
конфуцианство
конца
конце
концентрации
концентрация
концентрачного
концентрачны
концентрачныи
концентрачных
концентровала
концентруе
концентрує
концепт
концепции
концепцию
концепция
концепція
концепціях
концерн
концерт
концертами
концертах
концертовав
концертох
концерты
конци
концлагер
концовкы
концьом
концю
конця
концях
кончины
конштанта
конштанты
конштантін
конштатовав
конштатовати
конштелации
конштитуциев
конштитуции
конштитуцию
конштитуция
конштитучна
конштитучнои
конштитучны
конштитучныи
конштруктер
конштрукции
конштрукцию
конштрукция
конштрукціов
конштрукція
конштрукціі
конштруованя
конштітуціов
конштітуція
конштітуціі
конштітучна
конь
коньови
коньска
коня
конєчні
коні
конѣ
конґ
конґо
конґрес
конґреса
конґресами
конґресом
конґресу
конґресі
конґу
кооператива
кооперативох
кооператором
кооперации
кооперацию
кооперация
координат
координатах
координаты
коордінат
копа
копалин
копалины
копалнѣ
копаня
копашново
копенгагенскои
копер
коперник
коперника
копии
копированя
копитар
копия
кополович
копорова
копу
копы
копіювання
копія
копіі
кор
кора
корабель
корабль
корабля
кораловы
кораловых
коран
корана
корбизье
корвина
кореи
корепетиторством
корешпондент
корешпонденции
корешпонденция
корея
кореі
кориатовича
користувач
користувачів
кормани
кормань
корманьованя
кормитка
кормиток
кормить
кормлены
кормлять
кормлі
корморан
корн
корнеи
корнелиус
корнелл
корниш
корню
коров
корова
короваи
коровами
короле
королево
королевская
королевѣ
королик
король
корольства
королювства
короля
коростиков
короткии
коротко
короткыи
корпорация
корпус
корпуса
корпусѣ
корреспондент
корсунь
кортес
кортеса
кортесом
кортикостероиды
корун
коруна
корунах
корунна
корунов
корунована
корунованыи
коруновати
коруну
коруны
корупции
корчма
корчмах
корчмы
коршун
коры
корысть
корыта
корытняны
корыто
корі
коріатович
коріня
корѣ
корѣня
кос
коса
косач
космонавтики
космос
космосрозмір
космосу
космосі
космічна
космічне
космічнии
космічним
космічних
космічно
космічного
космічноі
космічні
косова
косово
косовом
косовск
косові
косовѣ
кост
коста
костел
костела
костелах
костелник
костелом
костельник
костельника
костелѣ
костер
кости
костогрыз
костол
кострыш
костюк
костюми
костянтин
косцюшка
косцюшко
косы
кот
кота
котва
котлина
котлины
котлинѣ
котляревскыи
которого
которои
котором
которыи
которых
котра
котрадов
котре
котри
котрии
котров
котрого
котрое
котрои
котром
котрому
котроє
котроі
котру
котруи
котры
котрыи
котрым
котрыма
котрых
котрі
котріи
котрім
коту
котувати
котюжани
кофеіну
кох
коцак
коцака
коцел
коцка
коцкы
коцур
коцура
коцуре
коцурі
коцурѣ
кочиш
кочубеи
кош
кошицка
кошицкои
кошицком
кошицкы
кошицкым
кошицкых
кошиць
кошицях
кошицѣ
коштовала
коштом
коштуе
кошіцького
кошіцькыи
кошіцькім
кошіцях
кошіці
коґнітівна
кпзу
кпп
кпсс
кпч
кр
крае
краем
краеписныи
краз
краи
краин
краина
краинах
краины
краинѣ
краков
кракова
кракові
краковѣ
кракорцями
краків
крале
кралевского
кралевскыи
кралевства
кралевство
кралевствѣ
кралицкого
кралицкыи
кралицькии
кралицю
кралиця
кралицѣ
кралове
краловоградецкыи
краль
кральова
кральови
кральовну
кральовны
кральовои
кральовска
кральовске
кральовсков
кральовского
кральовскои
кральовском
кральовску
кральовскы
кральовскыи
кральовскых
кральовства
кральовство
кральовством
кральовству
кральовствѣ
кральом
кральох
кралю
кралюк
краля
кралі
краліцька
краліцькои
краса
красивіших
красивіші
красна
красне
красникова
красно
краснов
красного
краснодар
краснои
красну
красны
красныи
красных
краснім
красопис
красота
красоты
красу
красшыи
красы
крат
кратер
краткая
краткии
кратное
крафчик
крафчік
крачка
крачковы
крачкы
крачун
краща
краще
кращии
кращі
краю
края
краями
краяне
краях
краєзнавчии
краі
кредит
креи
кременець
кременчуцькыи
креници
крениця
кресба
кресбов
кресбу
кресбы
кресила
кресилы
креслярь
креслѣня
крест
креста
крестами
крестителя
крестны
крестным
крестом
крестѣ
крета
крету
креты
крещеныи
крещѣню
крещѣня
крива
криве
кривои
криволѣся
кривоніс
кривскыи
кривулясте
кривы
кривые
кривым
крижа
крижанич
крижарскои
крижарскы
крижарскых
крижевска
крижевскои
крижевскыи
крижевци
крижевцях
крижник
криза
кризис
кризы
кризѣ
крик
крикун
крила
криминалистика
криминалного
криминалныи
криминалѣ
криминология
криптонимы
криптѣ
кристиан
кристиании
кристиания
кристина
кристины
кристофор
критерии
критерия
критериям
критеріям
критизовав
критизованы
критик
критика
критиками
критиков
критиковав
критикована
критиковати
критиком
критикох
критику
критикы
критицѣ
критична
критично
критичного
критичнои
критичны
критичныи
крихітноі
крихітні
крно
кров
крови
кровками
кровках
кровкы
кровли
кровлі
кровна
кровнои
кровны
кровных
кровок
кровь
крові
крогулець
кроз
крок
кроком
крокы
кроме
кромпель
кромплѣ
кроншнеп
кронштадтѣ
кротон
кротона
крохаль
кртиш
круг
круга
кругах
круглии
круглі
кругова
кругом
кругосвет
кругу
кругы
кружка
кружкох
кружкы
кружниця
кружницѣ
кружок
кружіня
крупина
крупинѣ
крутила
крутити
крутяться
крушко
крыл
крыла
крылами
крылатых
крылах
крыло
крылов
крыловы
крылом
крылі
крым
крыма
крымских
крымского
крымскои
крымскы
крымскых
крымскім
крымѣ
крыници
крыниця
крыницѣ
крыюче
кряками
кряках
крякы
кряків
крячок
кріз
кріза
крізы
крізь
крім
крістофор
крітеріи
крітеріі
крітік
крітіка
крітіках
крітіков
крітіку
крітікы
крітіці
крітічныи
крѣпость
ксавер
ксеняк
ксеняка
ксут
ксута
кт
кто
ку
куба
кубек
кубека
кубизм
кубизма
кубии
кубин
кубишова
кубишовои
кубрік
кубы
кубіе
кубіи
кубѣ
куваи
куд
кудзеи
кудзея
кудлівці
кудрицкии
куды
кужеле
кузмяк
кузмякова
кузьмы
кузяк
кук
кукела
куковерова
куколка
кул
кула
куле
кули
култ
култах
култова
култур
култура
културами
културах
култури
културна
културне
културних
културно
културнов
културного
културнои
културном
културну
културны
културныи
културным
културныма
културных
културні
културніи
културов
културу
културы
културі
културѣ
култівація
култівованыи
куль
кульки
культур
культура
культури
культурного
культурні
культуры
куля
куляту
куляты
кулятых
кулі
кулінарьске
кулѣ
кумо
кун
куна
куне
кунци
кунцьови
кунця
кунь
кунґ
куп
купалиска
купалиско
купаня
купели
купель
купельництво
купельох
купелях
купелі
купелѣ
купив
купили
купити
купола
купці
кур
кура
куратора
куратором
куреник
курз
курзу
курзы
курзіва
курии
курилло
куримка
куриозиты
курка
куркы
куроподобны
курорт
курорты
куросава
курочка
курочкы
курочок
курс
курсах
курсові
курсом
курсы
курта
куртанка
куртанкы
курте
курто
куртов
куртого
куртои
куртом
курту
куртша
куртшу
куртшыи
куртшыма
курты
куртыи
куртым
куртыма
куртых
куруцох
курфюрст
куря
курі
кус
кусає
кусох
кустка
кусы
кусів
кут
кутка
куткы
кутом
кутрі
кухарьске
кухарьского
кухні
кучмар
кушниця
куштановиця
къ
кы
кые
кыи
кым
кыселины
кышка
кышкы
кьявик
кюри
кі
кібы
ків
кідь
кідьже
кізлів
кік
кікс
кіл
кіло
кілометер
кілометрів
кілька
кілько
кількостны
кількость
кількості
кількість
кільце
кільцеподібноі
кільця
кім
кімната
кімнату
кімурови
кінець
кіно
кіноафішакіноафішавартові
кіновселеною
кінокомпанія
кінокомікс
кінокоміксу
кіноріумвартові
кінце
кінцевии
кінцю
кінця
кінцями
кінці
кінцівку
кінчачіма
кінчіть
кіншаса
кінь
кінґ
кіп
кір
кіровоградьска
кіріл
кіріла
кіріліцю
кіріліця
кіріліці
кірілічных
кіт
кітаи
кітаю
кітая
кітаі
књига
кґ
л
ла
лаба
лаборатории
лаборець
лаборця
лабош
лабрадор
лабы
лабіринтлабіринткнига
лабірце
лавина
лавр
лавреат
лавреатами
лавреатка
лавреатом
лавреатох
лавреаты
лавры
лаврѣ
лавы
лагер
лагра
лаграх
лагрох
лагру
лагры
лагуны
ладив
ладила
ладислав
ладомиркы
ладомирова
ладунку
ладунок
ладі
лажо
лаз
лазар
лазара
лазаристох
лазернии
лазурівка
лаи
лами
лампа
лан
ланд
ландшафтныи
ландшафты
ландштаи
ланка
ланкы
ланц
ланца
ланцох
лао
лаос
ларв
ларвами
ларвы
лариса
ларусс
ласер
ласера
ласка
ласкера
ласкерова
ласкеровои
ласло
ласлов
ласлова
ластівка
ластівковы
ластівковых
ластівкы
лат
латвии
латвия
латвія
латвіі
латина
латинков
латинку
латинов
латиноязычных
латинска
латинская
латинске
латинско
латинсков
латинского
латинскои
латинском
латинскомъ
латинску
латинскы
латинскыи
латинскых
латину
латинцѣ
латины
латиньске
латиньского
латиньскои
латиньскы
латиньскыи
латиньскім
латині
латиніка
латиніку
латинікы
латинѣ
латок
латорицкому
латориця
латорицѣ
латта
латяк
латінчіна
лаура
лауреат
лах
лаярд
лаґос
лаґры
лаґрі
лд
ле
лебидь
лебиді
лев
лева
левант
левенгук
левенець
левицкіи
левоча
левочи
левочі
левченко
легалиты
легально
леге
легеза
легенд
легенда
легенди
легенду
легенды
легии
легионарьох
легислативы
легко
легку
легкы
легкыи
легкым
легкых
легота
легоцкого
легоцкыи
легше
легшы
легшыи
легѣнѣ
лед
леда
ледах
ледвы
леди
ледового
ледовои
ледову
ледовыи
ледовым
ледовыма
ледом
леду
леды
лежав
лежала
лежало
лежати
лежать
лежача
лежачого
лежачіи
лежит
лежить
лежыть
леи
лексема
лексемы
лексика
лексикограф
лексикографиев
лексикографии
лексикография
лексикографы
лексикологии
лексикология
лексику
лексикы
лексицѣ
лексичны
лексичных
лексіка
лексікон
лексікы
лекции
лекціи
лекція
лекціі
лелекач
лелекача
лелекачъ
лелит
лем
лема
лемами
лемвик
лемже
лемка
лемками
лемках
лемко
лемкове
лемковина
лемковину
лемковины
лемковинѣ
лемковска
лемковске
лемковсков
лемковского
лемковскои
лемковскыи
лемковскых
лемкох
лемкы
лемків
лемківска
лемківске
лемківско
лемківского
лемківскои
лемківскы
лемківскыи
лемківскым
лемківскых
лемківскє
лемківскіи
лемківскім
лемківська
лемківщини
лемом
лена
ленд
лене
ленерт
ленин
ленина
ленинград
ленинградская
ленинградскои
ленинградѣ
лениновы
ленином
ленинскыи
леннон
ленчова
ленчовы
лены
леныи
ленін
леніна
леон
леонард
леонардо
леоне
леонид
леонида
леонтович
леополд
леополдвил
леополдвила
леопольдович
лепид
лер
лера
лери
лері
лерів
лес
леса
лесич
лесли
лесна
лесо
лесото
лестер
лесу
леся
лесѣ
лет
лета
летадел
летадла
летадло
летиска
летиско
летить
лету
леты
летять
леті
летѣ
лещинскии
леґенда
леґенды
ли
либезнюк
либер
либерия
либии
либия
лив
ливры
лига
лиги
лигу
лигы
лидер
лидера
лидерами
лидером
лидерох
лидеры
лидром
лижычко
лизанець
лизи
лизоцим
лизѣ
ликвидации
ликвидацию
ликвидация
ликвидовала
ликвидована
ликвидованы
ликвидованыи
лила
лили
лиме
лин
лингвист
лингвиста
лингвистика
лингвистикы
лингвистицѣ
лингвистическии
лингвистических
лингвистичны
лингвистичныма
лингвистох
лингвисту
лингвисты
линиев
линии
линиии
линиов
линию
линия
линиях
линн
линнеи
линнея
линтур
линтура
линтуром
линіи
линію
линія
липа
липнице
липня
липтовском
липы
липье
лира
лирика
лирикы
лирична
лирично
лиричного
лиричну
лиричны
лиричныи
лиричных
лисенко
лисичова
лисичово
лиска
лист
листа
листах
листина
листинов
листины
листинѣ
листку
листкы
листків
листок
листокъ
листопада
листу
листы
листя
листяны
листяных
листів
лисінова
лит
литва
литвин
литвиненка
литвы
литвѣ
литер
литератор
литераторами
литераторох
литератур
литература
литературна
литературная
литературне
литературно
литературнов
литературного
литературнои
литературном
литературному
литературну
литературны
литературные
литературныи
литературным
литературныма
литературных
литературов
литературознаня
литературознателе
литературознатель
литературознателя
литературу
литературы
литературѣ
лити
литовска
литовского
литовску
литовскыи
литургии
литургия
литыня
лить
лихтенштаи
лице
лицеи
лицею
лицея
лиця
лицями
лицях
лиці
личбѣ
личности
личні
лиш
лишаи
лишать
лише
лишив
лишивши
лишила
лишили
лишиме
лишити
лишкы
лишь
лкова
лково
лком
лку
ллои
лн
лна
лно
лны
лныи
лні
ло
лобанов
лобачевскыи
лобового
лобовому
лобіані
лов
лова
ловецкои
ловець
лови
ловить
лович
ловлі
ловна
ловом
ловску
лову
ловцьовы
ловця
логика
логику
логикы
логично
логичного
логичны
лого
лоди
лодовико
лодовикоферрари
лодь
лодьох
лодярни
лодярства
лодярство
лоді
лодіи
лодѣ
лои
лок
локал
локалит
локалита
локалитах
локалиты
локалитѣ
локална
локалних
локалнои
локалны
локалныи
локалных
локалом
локалітах
локаліты
локации
локачна
локерби
локк
локомотивы
лом
ломбардьскыи
ломоносова
лому
лонами
лонг
лондон
лондона
лондонска
лондонске
лондонского
лондону
лондоні
лондонѣ
лоно
лопатнѣ
лорд
лорда
лорочно
лос
лотарингскыи
лохово
лоялность
лоґо
лоґіка
лоґічна
лоґічно
лу
луг
луганьска
лугова
луговыи
лудвик
лудвика
лудвиком
лудвік
лужіцков
луи
луизиана
лук
лука
лукавого
луках
лукач
лукашенка
лукашенко
лукино
луксембург
луксембурга
луксембургского
луксембургскыи
луксембурчане
луксембурґ
лукы
лумумба
лумшоры
луна
лунь
лупковскыи
лупок
лутер
лутера
лутеранскои
лутеранство
лутером
луфтваффе
луция
луцьк
луцька
луцькыи
луч
лучать
лученець
лученци
лучка
лучкаи
лучках
лучкая
лучкы
лучок
лучше
лучі
лучів
лучіть
луі
лы
лыжарскы
лыжарскыи
лыжованя
лыи
лых
ль
львов
львова
львовска
львовского
львовскои
львовску
львовъ
львові
львовѣ
львів
львівска
львівскіи
львівська
льська
лю
любеныи
любеным
любив
любила
любили
любило
любити
любить
любиця
любка
люблинском
любляна
люблянськых
любляні
люблять
любов
любови
любовни
любовня
любовні
любовь
любор
любости
любі
люд
люда
людвик
людвика
людвік
людвіґ
люде
людеи
люди
людии
людини
людиною
людми
люднатого
люднаті
людности
людова
людовит
людовитом
людово
людовов
людового
людовои
людову
людовы
людовыи
людовым
людовых
людом
людска
людсков
людского
людскои
людском
людску
людскы
людскыи
людскых
людства
людство
людського
люду
людьми
людьом
людьска
людьске
людьского
людьскои
людьскости
людьскы
людьскыи
людьскых
людьскіи
людям
людях
лютого
люють
лює
ля
лягнуть
ляже
ляпустин
ляти
лять
лях
лящук
лі
лібанон
лібералізм
лібіе
лібія
лів
ліверпул
ліворуч
лідер
лідерув
лідеры
лідра
лідром
лідры
ліза
ліи
лікарські
лім
лінду
лінеарна
лінзовидні
лінк
лінколн
лінкы
ліннее
ліннеи
ліня
лініі
лінґва
лінґвіста
лінґвісты
лінґвістіка
лінґвістікы
лінґвістіці
лінґвістічна
ліпско
ліра
лірика
ліры
ліріка
літ
літва
літер
літера
літерат
література
літератури
літературна
літературне
літературнии
літературно
літературного
літературны
літературныи
літературных
літературні
літературознавства
літературознавча
літературознатель
літературу
літературы
літературі
літераті
літеры
літовского
літовскыи
літовскіи
літомеріцькои
ліхтенштаи
ліцеи
ліценціе
ліценціи
ліценціі
ліценчну
ліцо
ліґа
лѣвого
лѣвои
лѣвом
лѣву
лѣвы
лѣвыи
лѣкох
лѣкы
лѣпша
лѣпше
лѣпшов
лѣпшого
лѣпшои
лѣпшому
лѣпшу
лѣпшы
лѣпшыи
лѣпшым
лѣпшыма
лѣпшых
лѣс
лѣса
лѣсами
лѣсах
лѣсистых
лѣсковець
лѣсництво
лѣсовыи
лѣсокомбинат
лѣсопилна
лѣсорубы
лѣсу
лѣсы
лѣсѣ
лѣт
лѣта
лѣтав
лѣтаючыи
лѣтныи
лѣтных
лѣто
лѣтопис
лѣтописа
лѣтописах
лѣточислѣня
лѣтя
лѣчать
лѣчив
лѣчивы
лѣчивых
лѣчити
лѣчѣня
м
ма
маастрихтскыи
мав
мавзолеи
мавритания
мавут
магазин
магазинах
магазину
магазині
магатма
магдалена
магдебургске
магдебургского
магеллан
магистер
магистерску
магистерскыи
магистра
магистрат
магматичны
магматичных
магнаты
магнитоплазменныи
магочи
магочии
магочіи
магфуз
мад
мадам
мадрид
мадрід
мадяр
мадярам
мадярами
мадяре
мадярка
мадярох
мадярска
мадярске
мадярскии
мадярско
мадярсков
мадярского
мадярскои
мадярском
мадярскому
мадярскоязычнои
мадярску
мадярскы
мадярскыи
мадярскым
мадярскыма
мадярскых
мадярська
мадярсько
мадярського
мадярськоі
мадярськуи
мадярськыи
мадярськых
мадярщина
мадярщинов
мадярщину
мадярщины
мадярщинѣ
мадяры
мадярьска
мадярьско
мадярьского
мадярьскои
мадярьском
мадярьску
мадярьскы
мадярьскыи
мадярьскым
мадярьскім
мадярізаціі
мае
маеме
маетка
маетком
маеткох
маетку
маеткы
маеток
мазаня
мазурик
мазурок
маи
маик
мак
макао
макар
макара
македонии
македонию
македония
македонскои
македонскыи
македонцѣ
македоніі
маковиця
маковіцка
маковіцкои
маковіця
макрела
макс
максвелл
макси
максим
максима
максимална
максимално
максималныи
максимилиан
максимильен
максимум
максімално
максімум
макіавеллі
мал
мала
малаві
малаи
маларія
малацкы
малдивы
мале
маленька
маленькии
маленьким
маленькои
маленькы
маленькыи
маленькі
малер
мали
малии
малинича
малины
малме
мало
малов
малого
малое
малои
малоколи
малом
малопольске
малорос
малороссии
малоруську
малости
малоі
малп
малта
малу
малы
малыи
малым
малыма
малых
малышевскии
мальб
мальба
мальбы
мальовав
мальованы
мальованя
мальовати
мальцовска
мальцовскои
малюнки
малюнкы
малюнок
маляр
маляре
малярка
малярске
малярского
малярскои
малярскы
малярскых
малярства
малярство
малярству
малярствѣ
малярь
малярька
малярьом
малярьох
малярьскои
малярю
маляря
малярям
малярями
малярі
малярѣ
малі
маліи
малім
мам
маме
мамко
ман
мана
манаи
мандат
мандела
мане
маневрах
манжелского
манжелства
манжелство
манифест
манифестации
манифестация
манифестом
манифестѣ
манкович
манна
маннгаи
манова
мановои
мансии
мантіс
мануал
мануалом
мануалы
мануил
мануила
мануіл
маны
маных
маня
маніпулаціі
манѣра
манѣру
мао
мап
мапа
мапами
мапу
мапы
мапі
мапѣ
мар
мара
мараморош
марамороша
мараморошска
мараморошскои
марамуреш
марат
марвел
марга
маргарет
маргарин
маргарита
маргариту
маргы
маре
марец
марець
марианского
марианскы
мариев
марии
марина
маринетти
маринич
марино
марины
мариов
марионетку
марию
мария
марияповчанского
марк
марка
маркес
марко
марков
марком
маркс
маркса
марксизм
марксизму
марксист
марксистичнои
маркусь
маркуш
маркуша
маркушевич
марлен
мармарошскы
маро
марок
марока
марокко
марс
марса
марсу
марта
мартен
мартин
мартина
мартинка
мартинѣ
марто
мартонѣ
марту
марты
мартышка
марті
мартін
марца
марцел
марцу
марці
марченко
марш
маршала
марьина
маріборі
маріи
маріно
марія
маріі
марґарет
мас
маса
масакра
масарик
масарика
масариком
масарік
масер
масив
масива
масивною
масивѣ
маска
маскалик
маслина
масло
маслом
масмедии
масмедиях
масов
масова
масове
масово
масового
масовои
масовы
масовыи
масовым
масовых
массачузетс
массачузетса
масти
масть
масу
масштаби
масштабна
масы
мат
матвеева
матвіи
мате
матезонского
матезонскыи
матезонськии
матеи
математик
математика
математике
математиком
математику
математикы
математицѣ
математично
математичного
математичном
математичну
математичны
математичныи
математичных
математік
математіка
математікы
математіци
математіці
математічна
математічне
математічны
матери
материал
материала
материалами
материалах
материалист
материалне
материално
материалного
материалнои
материалну
материалны
материалных
материалов
материалох
материалы
материи
материнои
материнского
материнскои
материнском
материнскыи
материнскым
материньского
материньскыи
материньскым
материньскых
материньскім
материя
матерь
матерьов
матерьска
матері
матеріал
матеріали
матеріалну
матеріалом
матеріалу
матеріалы
матеріалі
матеріалів
матерія
матеріі
мати
матисова
матицѣ
матка
матку
матрикы
матуровав
матуру
матурѣ
матушка
матушкы
матфея
мать
матяш
матяша
матяшовска
маті
матіи
матісс
матія
маулавия
мах
махал
махикулы
мацеи
мацеринского
мацинскыи
мачка
мачкы
мачошкова
машин
машина
машинарства
машинарство
машину
машины
машинѣ
машын
машына
машыны
маю
мают
мають
маюча
маючи
маючого
маючыи
мая
маяк
маяка
маяковского
маяковскыи
має
маєме
маєте
маєтку
маєток
маі
маґдебурґ
маґеллан
маґнетічне
маґнетічного
маґочіи
маґістрала
маґістралі
мбоу
мвд
мвт
ме
мев
мева
мевовы
мевовых
мевы
мегогофільм
мед
медаи
медали
медалию
медалия
медаль
медаля
медведев
медведева
медведже
медвідь
медвідя
медвѣдь
меджа
меджах
меджи
медживои
меджилаборцях
меджилаборцѣ
меджинародна
меджинародне
меджинароднов
меджинародного
меджинароднои
меджинародном
меджинародну
меджинародны
меджинародныи
меджинародным
меджинародныма
меджинародных
меджираи
меджирѣчу
меджі
меджілабірцях
меджінародного
медзи
медиа
медиевиста
медии
медик
медико
медиком
медици
медицина
медицинска
медицинская
медицинских
медицинсков
медицинскои
медицинском
медицинску
медицинскы
медицинскых
медицину
медицины
медицинѣ
медуза
медєши
медіи
медік
медіум
медіціна
медія
межами
межгорского
межгорском
межгорскыи
межгорье
межгорью
межгорья
между
международного
межею
межи
меживои
межигороднои
межинародна
межинародне
межинародного
межинароднои
межинародны
межинародныи
межинародных
межуе
межы
мезозои
мезопотамии
мезопотамия
мезопотамія
мезосапробіта
меи
мекка
меккартні
мекленбурьско
мексика
мексико
мексиком
мексику
мексицка
мексіка
мексіко
мексіцька
мексіцькім
меланхолік
меласы
мелихар
мелихаром
мелничок
мелодии
мелодию
мелодия
мелодіі
мельник
мембрана
мембранов
мембраны
мемоарах
мемоары
меморандум
меморандума
мемориал
мемориалныи
меморіал
мемуарах
мемуариста
мемуары
мен
мена
менделеєв
мене
мено
меновав
меновала
менована
меноване
менованого
менованыи
менованя
меновати
меном
менталніи
менування
менувань
менуе
менш
менша
менше
меншин
меншина
меншинами
меншинов
меншиновы
меншиновых
меншину
меншины
меншов
меншого
меншои
меншом
меншу
меншы
меншыи
меншым
меншыма
меншын
меншына
меншынов
меншыну
меншыны
меншых
меншіи
меншім
менѣ
мер
мерани
мережа
мережу
мережы
мережі
мери
меридиан
мерии
мериленд
меркур
мерова
мертве
мертвих
мертвого
мертвоі
мертвыи
мертвым
мертвых
мертві
мерч
мерькують
мерів
мерілін
место
месьє
метаболизм
метаболізм
метаболізму
метал
метала
металова
металове
металово
металовыи
металовіи
металообробка
металох
металургии
металургия
металы
металів
метаморфизм
метаморфизма
метаморфичны
метаморфичных
метана
метафор
метафора
метафізіка
метелика
метеор
метеориті
метеорология
метеоролоґічны
метеоролоґіі
метер
метерлинк
метерлинка
метисы
метов
метод
метода
методами
методии
методика
методику
методикы
методичнои
методия
методов
методологии
методом
методох
методы
методіка
метра
метрична
метричнои
метричных
метро
метрология
метрополии
метрополия
метрополіта
метрополітна
метры
метрів
мефодии
мефодия
мефодія
механизм
механизмы
механик
механика
механикы
механичныи
механізм
механіка
механікы
механіці
меценас
меценаш
меценашы
мецька
мецьке
мецько
мецького
мецькои
мецьком
мецькоязычныма
мецьку
мецькы
мецькыи
мецькых
мече
мечет
мечета
мечеты
мечислава
меш
међеши
ми
мигалич
мигаль
мигаля
мигович
миговк
микен
микенска
микенскои
микены
микита
микиты
миклош
миклоша
миклошевци
миклошик
микова
микола
миколаи
миколая
миколаі
миколом
миколы
микробиолог
микробиология
микроскоп
микроскопа
микроскопии
микроскопия
микроскопох
микроскопы
миксат
миксата
микулаш
микулаша
микулашу
милан
милана
милано
миланови
миланѣ
милиарды
милион
милиона
милионох
милионы
милиции
миллыи
милои
милославскыи
милости
милош
миль
мильхавыи
мимо
мин
минарет
минералны
минералных
минералогии
минералогия
минералох
минералы
мини
минимална
минимално
минималну
министер
министерии
министерства
министерство
министерством
министерствѣ
министра
министром
министрох
министры
миннесота
минои
минск
минули
минуло
минулого
минулои
минулости
минулость
минулых
минус
минут
минутах
минуту
минуты
минь
миокарда
мир
мира
миравчик
миравчика
мире
мирного
мирну
мирны
мирныи
мирным
миро
мированя
мировои
мирову
мировы
мироля
миром
мирон
миропомазаня
мирослав
мирослава
мирославом
миру
мирча
мирѣ
мисии
мисиов
мисионер
мисионеры
мисия
миссии
миссиов
миссионер
миссисипи
миссию
миссия
миссури
мистецтв
мистификации
митна
митрак
митрака
митраку
митро
митрополит
митрополита
митчелл
мифологии
мифология
мифы
михаи
михаил
михаила
михаилом
михал
михала
михалина
михаловце
михаловцѣ
михалом
михальська
михалі
мичиган
мичиганскои
миша
мишанич
мишел
мишколц
мишколца
мишколцу
мков
мково
мкс
мл
младих
младшого
младшыи
млин
млинох
млн
млрд
мм
мниховскои
мнихів
много
многодѣтнои
многое
многому
многораз
многорочны
многосторонна
многосторонныи
многочисленны
многочисленных
многы
многым
многыма
многых
многі
множества
множество
множеством
множестві
множин
множина
множины
множне
множного
множны
мня
мнягкы
мняты
мнячко
мні
мо
мобилизация
мобилизованы
мобилизованыи
мобилнои
мобилны
мобуту
мов
мова
мовами
мови
мовна
мовою
мову
мові
мовірне
мог
могамед
могамеда
могамедане
могамеданох
могилевѣ
могла
могли
могло
мого
могутныи
могыла
могылянскои
могылянску
мода
модан
модел
моделу
моделы
модератор
модерна
модерне
модернизации
модернизация
модернистичныи
модерного
модернои
модерноі
модерну
модерны
модерныи
модерным
модерных
модерніи
модификованыи
модра
модуль
модульна
моды
модіфікаціі
мое
мож
може
можеме
можемо
может
можете
можливе
можливо
можливость
можливостями
можливості
можливу
можливість
можна
можне
можно
можносте
можностеи
можности
можность
можностьов
можны
можныи
можным
можныма
можных
можу
можут
можуть
мозаикы
мозамбік
мозговои
мозели
мозель
мозес
мозка
мозоґ
мозґу
мои
мок
мокра
мокрых
мол
мола
молгы
молдавии
молдавия
молдавска
молдавскыи
молдавіі
молдова
молекул
молекула
молекуларна
молекуларнои
молекуларных
молекулах
молекулы
молекулѣ
молитв
молитва
молитвов
молитву
молитвы
молитвѣ
молити
молнар
молнара
моло
молода
молодая
молоде
молодеж
молодежи
молодежнои
молодежныи
молодежь
молодого
молодое
молодои
молодом
молодому
молодости
молодость
молодшов
молодшого
молодшои
молодшоі
молодшы
молодшыи
молодшым
молоды
молодыи
молодым
молодыма
молодых
молодь
молодя
молодят
молодята
молодятами
молодять
молоді
молока
молоко
молочна
молочне
молочнии
молочнои
молочныи
молу
моль
мольер
мольера
мольєр
мом
момент
момента
моментално
моментом
моменту
моменті
моментѣ
мон
мона
монако
монарх
монарха
монархи
монархиев
монархии
монархию
монархия
монархом
монархох
монархы
монархія
монархіі
монастир
монастырь
монастырю
монастыря
монастырі
монастырѣ
монах
монаха
монахох
монахы
монахів
монаше
монашество
монашого
монашы
монашыи
монашых
монблан
монголска
монголском
монголскым
мондич
мондича
мондичова
мондичовои
монеты
моника
монографии
монографию
монография
монополии
монополне
моноґамны
моноґамныи
монро
монстр
монстра
монт
монтаж
монтана
монтевидео
монтезума
монтуе
монтують
монумент
монументалны
монументалныи
монументалных
монґольска
монґолія
монґоліі
мор
мора
морава
моравана
мораване
моравии
моравия
моравска
моравске
моравскошлезскыи
мораву
моравы
мораві
моравѣ
моралкы
моралне
морално
моралного
моралности
моралность
моралну
моралны
моралныи
моралных
мордвинцева
море
мореплаваня
мореплавець
мореплавцьох
мореплавцями
мори
морилла
морис
мороз
морозюк
морозюковы
моррис
морска
морске
морские
морсков
морского
морскои
морску
морскы
морскыи
морскым
морскыма
морскых
морфем
морфемы
морфология
морфолоґічнов
морфолоґія
морь
морьенн
морьом
морьскы
морьскых
морю
моря
моряк
морями
морях
москва
москвов
москвы
москві
москвѣ
московка
московска
московскии
московского
московскои
московском
московскыи
мост
моста
мостом
мосты
мотив
мотивами
мотивациев
мотивация
мотивох
мотивуючи
мотивы
мотиль
мотовило
мотор
моторовыи
моторок
моторох
моторы
мотто
мотылі
мотів
мох
мохом
моху
мохіто
моц
моцарт
моценьскы
моци
моцно
моцныи
моцнѣи
моцов
моці
мочарях
мочарі
мощи
моя
моі
мп
мрамор
мраморным
мрежу
мркос
мс
мса
мсови
му
мудрого
мудрости
мудрость
мудрыи
муезин
муезина
муж
мужа
мужи
мужови
мужом
мужох
мужского
мужскыи
мужскых
мужѣ
муз
муза
музеи
музеолог
музею
музея
музеях
музеі
музика
музикалныи
музикант
музиканта
музикантох
музикантув
музиканты
музикантів
музики
музиков
музикознатель
музику
музикы
музиці
музицѣ
музична
музичне
музично
музичного
музичнои
музичном
музичну
музичны
музичныи
музичным
музичных
музыки
мук
мукачева
мукачево
мукачевскои
мукачевскіи
мукачевського
мукачеві
мукачова
мукачово
мукачовом
мукачовска
мукачовско
мукачовского
мукачовскои
мукачовском
мукачовску
мукачовскыи
мукачовскым
мукачовскых
мукачові
мукачовѣ
мукачівскои
мукачівськии
мукы
мулаты
мултимедии
мультиплеєр
мультсеріал
мультфільм
мультфільми
мумбаі
муниципалнои
мункач
мункачовскі
мур
мура
мурании
мурания
мураніи
мурах
мурильо
мурника
мурници
мурована
муровану
мурованы
мурованыи
муром
мурох
муры
мурянка
мурянкы
мурянок
мусаи
мусив
мусили
мусило
мусиме
мусите
мусить
мускулнов
мускулы
муссолини
муст
мустафа
мустер
мусулмане
мусять
мусі
мусіло
мусін
мусѣв
мусѣла
мусѣли
мусѣло
муть
муха
мученик
мученика
мученикох
мученици
мучеництво
мучонь
мушинка
мушкы
мфа
мцнмо
мці
мченои
мчіны
мы
мыло
мыса
мысли
мыслитель
мысль
мыслі
мыто
мыши
мышпергачѣ
мышперхачи
мышы
мышь
мэсбе
мюллер
мюнхаузен
мюнхаузена
мюнхен
мюнхена
мюнхенска
мюнхенскои
мюнхенѣ
мя
мягке
мягко
мягкои
мягкыи
мягкым
мягкыма
мязґу
мянма
мяса
мясарни
мясо
мі
міг
міджі
міджівои
міджілабірцях
міджілабірці
міджінародна
міджінародного
міджінароднои
міджінародному
міджінародны
міджінародныи
міджінародных
міджііншым
мідонікеле
мідь
між
міжгірськии
міжнародноі
міи
мікеланджело
міклош
міклошевцах
мікрометер
мікулаш
мікі
міл
мільи
мілі
міліард
міліарда
міліардами
міліметер
міліметрах
міліон
міліона
міліонами
міліонув
міліоны
міліонів
мімо
міміка
міміков
міна
мінералы
мінив
мінить
міноріту
міноріті
мінск
мінску
мінуті
мінцы
міньского
міні
мініатуріста
мінімално
мінімалны
мінімалным
міністер
міністеркы
міністерства
міністерство
міністерством
міністра
міністром
мінґ
мір
мірбо
мірно
мірного
мірні
мірнім
міров
мірослава
мірославы
міру
міры
міряня
міряти
мірять
мірі
міскове
міст
міста
містами
містах
містить
містного
містны
містныи
містным
містныма
містных
містніи
містнім
місто
містом
містоназывникы
містьска
містьского
містьскои
містьскы
містьскыи
містьскых
місті
місц
місце
місцым
місць
місцю
місця
місцями
місцях
місці
місяцем
місяць
місяцюв
місяця
місяцях
місяці
місіі
мітохондріі
мітрополіт
міфологіі
міфолоґія
міфолоґіі
міфом
міфів
міхаел
міц
міцно
міцныи
міцным
міцні
мішають
міґель
міґрація
міґраціі
міґровали
міґрують
міґрує
мѣ
мѣнив
мѣнить
мѣняв
мѣняла
мѣняли
мѣняти
мѣнять
мѣняч
мѣнячи
мѣняють
мѣр
мѣра
мѣрно
мѣров
мѣру
мѣры
мѣрянь
мѣряня
мѣрять
мѣряють
мѣрѣ
мѣст
мѣста
мѣстами
мѣстах
мѣстек
мѣстечка
мѣстечко
мѣстечку
мѣстить
мѣстна
мѣстне
мѣстного
мѣстнои
мѣстном
мѣстному
мѣстности
мѣстну
мѣстны
мѣстныи
мѣстным
мѣстныма
мѣстных
мѣсто
мѣстом
мѣстскы
мѣстскыи
мѣстѣ
мѣсяцеслов
мѣсяци
мѣсяць
мѣсяцьох
мѣсяцю
мѣсяця
мѣсяцями
мѣсяцях
мѣсяцѣ
мѣсячник
мѣсячника
мѣсячном
мѣсячны
мѣсячныи
мѣхы
мѣшане
мѣшанка
мѣшанков
мѣшанку
мѣшанцѣ
мѣшати
мґр
н
на
наберать
наближыти
набоженскои
набоженскы
набоженскыи
набоженскых
набоженство
набои
набоков
набоя
набрав
набрні
набывати
набывать
набытя
набір
нава
навернути
навернутю
навернутя
навернѣню
навернѣня
навеце
навецеи
навигатор
навигации
навигацию
навигация
навигачны
навколишніи
навколо
навов
навонка
навонок
наворотѣ
навсе
навспак
наву
навч
навчали
навчалным
навчало
навчальна
навчане
навчаню
навчаня
навчіти
навщивив
навщивити
навщів
навщівлять
навщівника
навщѣвив
навщѣвили
навщѣвити
навщѣвляв
навщѣвникох
навщѣвовав
навщѣвы
навы
навысше
навязав
наві
навігаціи
навікы
навіть
навіґаціі
нагадують
нагарджуна
нагасаки
нагло
нагляд
нагляду
нагляды
нагода
нагодно
нагодов
нагоды
нагодѣ
нагорнокарабашску
нагорныи
нагородженыи
наград
награда
наградами
наградов
награду
награды
над
надале
наданость
наданя
надані
надголос
надголошеным
надгробныя
надзвычаи
надир
надкатегоріи
надмасивна
надмасивні
надморска
надморскои
надморьска
надморьскых
надмірно
надмѣрно
надмѣрнои
надо
надовго
надочну
надпис
надписом
надпису
надписы
надписі
надписів
надреализм
надреализма
надродины
надставкы
надых
надыхом
надь
наді
надія
надѣев
надѣи
надѣю
надѣя
надѣяв
нажаль
назад
назарбаев
назаренко
назв
назва
назвав
назвавши
назвала
назвали
назвам
назвами
названа
назване
название
названии
названия
названои
названы
названыи
названых
названя
назвати
назвах
назви
назвов
назву
назвы
назві
назвѣ
називатися
назначена
назначены
назначеныи
назначіла
назначѣня
назор
назоры
назрань
называв
называла
называли
называло
называна
называне
называнои
называны
называныи
называных
называт
называти
называть
называють
назывка
назывку
назывник
назывника
назывником
назывникы
назывників
наи
наказ
наклад
накладовыи
накладом
наклады
наконец
наконець
накрило
накрутив
накручаня
накупнои
накурто
належав
належала
належали
належало
належати
належать
належит
належить
належна
належно
належного
належности
належность
належну
належны
належныи
належыть
наливаи
налічує
налѣганя
нам
намага
намагав
намагаи
намагала
намагати
намагать
намагають
намагы
намальовав
намалювати
наместово
нами
намного
намонтованя
намонтуе
намык
намісто
намѣрены
намѣром
намѣряв
намѣряючи
намѣстник
намѣстника
намѣстником
намѣстництва
намѣсто
намѣстя
нан
нанашка
нанашко
наново
нанометер
нансен
нансена
нансенова
нансенох
нану
наопак
напа
напав
напад
нападав
нападами
нападник
нападом
нападох
нападу
напады
нападѣ
напали
напало
напасти
напевно
наперед
наперек
напечатав
напечатала
напечатаны
напечатаныи
напис
написав
написал
написала
написали
написана
написане
написанное
написанои
написану
написаны
написаныи
написаных
написаню
написаня
написати
написом
напиток
напише
напишеме
напиште
напишьте
наповерха
наповнена
наповно
наповнять
напои
наполеон
наполеона
наполеоном
наполы
напопулярні
напоі
напр
направно
направо
направы
наприклад
например
напримір
напримѣр
напросто
напроти
напротив
напрям
напрямами
напрямена
напрямити
напрямлі
напрямом
напрямох
напряму
напрямы
напрямі
напрямѣ
напятость
напятя
нар
нарабляти
нараблять
нарадив
нараз
наразив
нарбк
нард
нарешті
нарис
нариси
наробот
народ
народа
народам
народами
народження
народженыи
народжуватись
народжіню
народжіня
народив
народили
народна
народная
народне
народни
народнии
народних
народно
народнов
народного
народное
народнои
народном
народному
народностеи
народности
народностна
народностне
народностно
народностного
народностнои
народностну
народностны
народностныи
народностных
народность
народноє
народноі
народну
народны
народные
народныи
народным
народныма
народных
народныхъ
народні
народніи
народнім
народнѣ
народов
народовець
народови
народом
народопросвѣтительнаго
народох
народу
народув
народы
народі
народів
нароком
наростали
наростаня
наростать
наругито
наруковав
нарушать
нарушена
нарушив
нарушѣня
нарцисох
нарядя
наріча
нас
наса
населе
населена
населене
населених
населения
населення
населеного
населены
населеныи
населеным
населеных
населеня
населені
населенія
населяли
населі
населіня
насервіроване
насељима
насилно
насилну
насилства
насилство
наскільки
наслмдно
наслі
наслідна
наслѣдком
наслѣдку
наслѣдкы
наслѣдника
наслѣдно
наслѣдовав
наслѣдовали
наслѣдованя
наслѣдства
наслѣдство
наспак
насподі
насправді
насправдѣ
настав
наставать
наставити
наставленыи
наставлені
наставлі
наставлѣня
наставна
наставника
наставниками
наставником
настала
настали
настало
настане
настаня
настати
настрои
наступ
наступив
наступила
наступна
наступне
наступник
наступника
наступниками
наступником
наступно
наступного
наступнои
наступном
наступну
наступны
наступныи
наступным
наступных
наступом
настільна
настільнии
настільну
настінна
насычены
насі
насіня
насѣня
наталиев
наталия
наталка
наталія
нательо
натиск
натиском
натиску
нато
натогды
натрии
натрия
натурализм
натурализма
натуралиста
натурална
натуралнои
натураліст
натураліста
натуру
натуры
натурѣ
натягнуте
натягнутым
натягнутыма
натякає
натяком
наук
наука
наукам
науками
науках
науки
науков
наукова
наукове
науковець
науковии
науково
науковов
наукового
науковоі
наукову
науковцями
науковці
науковы
науковыи
науковым
науковых
наукові
науку
наукъ
наукы
наумович
науці
науцѣ
науч
наученыи
научив
научили
научити
научить
научна
научне
научник
научно
научнов
научного
научное
научнои
научном
научну
научны
научныи
научным
научныма
научных
нафилмованы
нафилмованыи
нафта
нафту
нафты
нах
находив
находила
находили
находило
находиме
находит
находити
находится
находить
находят
находять
находячіи
нац
нацизма
нации
национализма
националистох
националисты
национална
националне
националнеи
национално
националного
националнои
националныи
националным
националных
национальная
национального
национальныи
нацистична
нацистичнои
нация
націи
націонална
націоналного
націоналны
націоналныи
націоналных
націоналні
національна
національнии
національно
національного
національностеи
національноі
національных
націоналізм
націоналізма
націоналізму
націоналістів
націстічне
націстічныи
націстічным
нація
націі
начала
начали
началник
началника
началником
начало
начервені
начеркы
начинающих
начісто
начітаню
начітаня
начітате
начітати
наш
наша
наше
нашеи
наши
наших
нашла
нашли
нашов
нашого
нашои
нашому
нашоі
наштеле
нашу
нашъ
нашы
нашым
нашых
наші
нашіи
нащадків
ная
наявного
наяты
наятыи
наі
наівныи
наґіб
нву
нгалактики
нге
нгче
не
неба
небарз
небезпечны
небес
небесах
небесна
небесник
небесного
небеснои
небесну
небесны
небесныи
небесным
небесных
небо
небогатого
небом
небраска
небула
небі
нев
невада
невалушна
невеле
невелика
невелике
невеликов
невеликои
невеликом
невелику
невеликы
невеликыи
невеликым
невеликых
невербална
невидимоі
невидимі
невинным
невис
невицка
невольніцтва
неволю
неволѣ
невтралного
невтралны
невтралныи
невтрон
невтронох
невтроны
невыразно
невыразныи
невыяснены
невідома
невідоме
невѣста
негативна
негативне
негативно
негативну
негативны
негативныи
негер
него
негославци
неграмотны
негру
недавно
недалеко
недзѣльского
недзѣльскыи
недзѣльскіи
недовго
недодержаня
недопустне
недороблених
недоста
недостатка
недостатком
недостатку
недостаток
недостаточно
недостаточность
недостои
неді
неділі
недѣли
недѣлю
недѣля
недѣлѣ
нее
нееднозначность
неекзистуючом
неекзістуючі
неж
нежадана
нежаданых
неженатыи
неженатым
независима
независимая
независимо
независимов
независимои
независимости
независимость
независимусть
независимы
независимыи
независимых
независлои
независлости
независлость
независлых
незадовго
незадоволены
незадовольство
незаконно
незалежно
незалежності
незалежных
незамінительныи
незвичаи
незвычаи
незгоду
незгоды
незмінену
незмінна
незмінны
незмѣнна
незмѣнно
незнамы
незнатыи
незыскова
незґрабно
неи
некатолицькои
некласіфікованых
некомплетныи
некрасов
некрасова
некроза
некітаи
нелегално
нелем
нелсон
нелѣпинскои
нем
нема
немало
немає
неметалы
немецкого
немешского
немешскои
немешув
немилости
немирів
немногы
неможливу
неможне
нему
нена
ненависть
ненавість
ненадголошене
ненасычены
необходимости
необхідно
необычаи
неовірительны
неодводжены
неодводженым
неодкладно
неодмінно
неодовга
неодовго
неозброєним
неозначеныи
неолита
неологизмох
неологизмы
неорганична
неорганичнои
неорганичны
неорганичных
неофициална
неофициално
неофициалну
неофициалныи
неофіціално
непал
непалу
неперерывныи
непереступныи
неплачѣня
неповинны
неповинныи
неповны
непознатыи
непокои
неполитичну
непомылительныи
непорядкы
непот
неправдоподобных
неправилны
неправильноі
непрерывно
непрестанно
непризнана
неприродныи
непристои
неприязно
неприятельны
неприятельох
неприятеля
неприятелями
неприятелі
непрямо
непрямым
непрямыма
непрямых
нептун
нептуна
нер
нера
нераз
нерв
нервова
нервовои
нервову
нервовых
нереалнов
нереиды
нереґуларне
нером
нерох
нерѣдко
несе
несистемна
несколько
нескорше
несла
неслыхано
несмиянова
несподі
неспокои
несполягливого
неспособныи
несправедливости
нестабилности
нестабілності
нестановлены
нести
нестои
нестор
нестіи
несуглас
несуть
нет
неточна
неточне
неточно
неточность
нетрадічным
неузгодженими
неуспішна
неуспѣху
неуспѣшно
неуспѣшныи
нефтегазовое
нехаи
нецкарж
нець
неці
нечекано
нечеканов
нечеканыи
нешпецифичны
нешумны
нещастя
неясна
неяснов
неясности
неясныи
неі
неґатіва
неґатівне
нз
ни
нива
нигда
нигде
нигер
нигерия
нидерландах
нидерландох
нидерландскии
нидерландского
нидерланды
нидерле
ниже
нижне
нижнии
нижном
нижныи
нижных
нижньоверецкыи
нижньои
нижньом
нижня
нижнє
нижні
нижніи
низина
низинах
низину
низины
низинѣ
низка
низко
низкы
низкыи
низкых
низкіи
низовскии
низша
низше
низшов
низшого
низшои
низшу
низшы
низшыи
низшых
низько
низькою
нии
ник
ника
никарагуа
никда
никеи
ники
никита
никиты
никифор
никифора
никого
никола
николае
николаевич
николаи
николая
николоз
николоза
николюкин
ником
никох
никто
никым
ників
нил
нила
ним
нима
ними
нимфа
нимфы
нинішньоі
нитка
нитко
них
нихто
ници
ницше
ницшеанство
нич
ничим
ничого
ничіня
нишы
нищивых
нияк
нияка
ниякого
нияку
ниякы
ниякыи
ниякых
ниґда
ниґде
нка
нкало
нкао
нквд
нкп
нкрума
нкы
нланд
нм
нн
нного
нностеи
нны
нныи
нным
нных
но
ноам
ноб
нобела
нобелов
нобелова
нобеловов
нобеловои
нобеловоі
нобелову
нобеловы
нобеловым
нобеловыма
нобеловых
нобелівска
нобелівскои
нов
нова
новак
новаторство
новачкам
новая
новгород
нове
новел
новела
новелу
новелы
новембер
новембра
новембрі
новембрѣ
нови
новии
новим
новин
новина
новинар
новинаре
новинарка
новинарска
новинарскои
новинарску
новинарства
новинарство
новинарь
новинарька
новинарьох
новинаря
новинарѣ
новини
новиниастрономи
новинивперше
новинителескоп
новинка
новинками
новинках
новинки
новинков
новинку
новинкы
новинок
новинох
новинцѣ
новины
нових
новиции
нович
ново
новов
нововік
нововѣк
нововѣку
нового
новодобыи
новое
новои
новом
новому
новоодзысканых
новоотворенои
новородженых
новороссии
новорічнии
новорічних
новосадска
новосадскои
новоселици
новоселиця
новоселицѣ
новоселіця
новосибирск
новосибирска
новосибирскои
новосибирску
новосибирскых
новоствореного
новостворенои
новости
новотного
новотов
новоту
новоты
нову
новша
новшого
новшои
новшу
новшы
новшых
новы
новыи
новым
новыма
новыми
новых
нові
новіи
новім
новѣи
ног
нога
ногами
ногах
ного
ногы
нодь
нознавець
нознавства
нозѣ
нои
нолаз
ном
номенклатура
номенклатуры
номер
номерами
номеров
номовнии
ному
номінатів
номінаціі
норв
норвегии
норвегия
норвежска
норвежскы
норвежскыи
норвеґіі
норгеи
норм
норма
нормализации
нормализация
нормална
нормалне
нормално
нормалного
нормалнои
нормалны
нормалныи
нормалных
нормам
нормами
нормандия
нормане
нормах
нормы
норьска
норьско
норьску
норьскыи
носа
носив
носила
носили
носитель
носителя
носителями
носителі
носити
носить
носныма
носовы
носовыи
носовым
носом
ностер
ности
нострадамус
нострадамуса
ность
носять
нот
нотами
нотариат
нотарскыи
нотарь
нотаря
нотація
ноти
нофілами
нох
ночи
ночныи
ночь
ночі
ноша
ноши
ною
ноября
ноі
нп
нпк
нрих
нс
нски
нскыи
нспу
нська
нське
нськии
нських
нсько
нського
нською
нськоі
нську
нськыи
нські
нськіи
нт
нтателескоп
нтинга
нтш
ну
нужда
нуи
нуклеовы
нуклеовых
нуклеотидох
нулова
нум
нумераліі
нумидии
нумидия
нунциатурѣ
нур
нурсултан
нушател
нф
нцив
нцох
нці
нців
нчиню
нштаи
нштеи
ны
ныи
ным
ныма
ными
ныні
нынѣ
нынѣшна
нынѣшного
нынѣшнои
нынѣшныи
ных
нь
ньемцова
ньемцовои
ньеша
ньов
нього
ньом
ньому
ньска
ньске
ньско
ньского
ньскои
ньскы
ньскыи
ньскым
ньскых
ньскіи
ньскім
нью
ньютон
ньютона
ню
нюи
нюфаундленд
ня
няи
няк
ням
нями
няня
няпожераючіи
няради
няття
нях
няґова
нє
нєшка
ні
нів
ніг
нідерландах
нідерланды
нідерландьскыи
ніж
ніи
нік
нікколо
нікола
ніколи
нікы
ніл
нім
німецкоязычны
німецька
німецько
німецькы
німецькыи
німеччина
німеччины
німруд
німці
нініве
ніс
ніцше
ніч
нічник
нічого
ніш
ніґер
ніґерія
нѣ
нѣжин
нѣи
нѣм
нѣмецка
нѣмецке
нѣмецко
нѣмецков
нѣмецкого
нѣмецкои
нѣмецком
нѣмецкому
нѣмецкоязычныи
нѣмецкоязычных
нѣмецку
нѣмецкы
нѣмецкыи
нѣмецкым
нѣмецкыма
нѣмецкых
нѣмець
нѣмецькы
нѣмецькыи
нѣмещина
нѣмцьох
нѣмця
нѣмцями
нѣмцѣ
нѣмыи
нѣредьгаза
нѣредьгазы
нѣредьгазѣ
нѣт
нѣтра
нѣтры
нѣтрянского
о
оазы
оаким
оан
оана
оанн
оанна
оао
об
оба
обава
обадва
обал
обалу
обвинена
обвинены
обвиненыи
обвинив
обвинили
обвод
обводу
обводів
обвыкло
обгае
обгаи
обгаив
обгаила
обговорення
обдарованыи
обережно
оберндорфу
обернена
обернув
обернули
обернута
обернути
обернутыи
обернутя
обертання
обертаня
обертать
обертаються
обертовыи
обертон
обертоном
обертонів
обзор
оби
обидва
обидвоми
обидвох
обидві
обколесена
обколесує
обком
обкусовати
обл
обладунку
обладунок
облак
облака
обласна
обласного
обласні
област
областеи
области
областна
областного
областнои
областном
областному
областныи
областным
областных
область
областьов
областями
областях
області
облачкы
облачікы
облачіків
облечиво
облечіня
облечѣню
облечѣня
обличчя
облюблена
облюбленов
облюбленых
облюблені
облюбов
обляховане
облі
облізує
облікова
облѣганю
обмеджена
обмедженои
обмедженыи
обмеджіня
обмеженими
обмежується
обнимать
обновив
обновила
обновили
обновило
обновитель
обновити
обновлена
обновлене
обновлены
обновленыи
обновлі
обновлѣню
обновлѣня
обновы
обовязуючыи
обое
обоми
обомі
оборона
оборонець
оборонны
оборону
обороны
оборонѣ
оборот
обороті
обох
образ
образа
образами
образах
образкох
образку
образкы
образность
образныи
образование
образования
образованю
образованя
образованє
образованія
образок
образом
образотворче
образотворчого
образох
образчик
образчика
образчикох
образчикы
образчік
образчіка
образчіку
образчікы
образчіків
образы
образѣ
обранні
обращеніє
обробити
обробка
обробку
обробкы
обробляти
обробіне
оброда
обродженецькыи
оброджіня
оброджѣня
обродив
обродила
оброды
обряд
обряда
обрядах
обрядовыи
обрядовых
обрядом
обрядох
обряду
обряды
обряді
обрядѣ
обрі
обсадили
обсадило
обсерватории
обсерватория
обсерваторія
обсервации
обско
обстав
обстали
обстои
обстоянь
обстояня
обстоянях
обсяг
обсяговав
обсяговала
обсяговало
обсяговати
обсягом
обсягу
обсягуе
обсягують
обсягуюча
обсягуючу
обсягуючы
обсягуючыи
обсягуючі
обсягує
обтримав
обті
обув
обувныи
обход
обходах
обходу
обчанство
обчаньска
обчас
обширны
обшырныи
обща
общая
обще
общеобластного
обществ
общества
общественно
общественныи
общественным
общественных
общество
обществом
обществу
обществі
обществѣ
общин
община
общинах
общины
общинѣ
общо
общов
общого
общои
общом
общу
общы
общыи
общым
общых
общі
общіи
общім
общіна
общіны
общіх
объеднаня
объект
объекта
объектами
объективно
объективныи
объективных
объектом
объектох
объекты
объем
объема
объему
объявив
объявила
объявили
объявитель
объявителя
объявлена
объявлене
объявлены
объявленыи
объявленых
объявлѣнь
объявлѣня
объяснити
объяснять
объяснѣня
обы
обыв
обываного
обываны
обываных
обывателе
обывателеи
обыватели
обыватель
обывательом
обывательох
обывательства
обывательство
обывательством
обывателя
обывателям
обывателями
обывателі
обывателів
обывателѣ
обывать
обывають
обыи
обыстю
обыстя
обычаи
обычая
обычаі
обычно
обышли
обь
обяв
обявив
обявила
обявили
обявило
обявитель
обявити
обявленыи
обявлі
обявовати
обявують
обявує
обявы
обєкт
обєктом
обєкту
обєктув
обєкты
обєктів
обєктівно
обєм
обєму
обі
обіг
обігать
обігу
обіцяв
обіцяють
обѣ
обѣгу
обѣцяв
обѣцяла
обѣцянку
обѣцяня
ов
ова
овав
овала
овали
ована
ованы
ованыи
ованых
овань
ованя
овані
овати
овген
овдовѣв
овеле
овельо
овербек
овес
овець
ови
овице
овицями
овицях
ович
овкленду
овладав
овладаны
овладаня
овладать
овна
овник
овника
овником
овникох
овникы
овници
овничка
ово
ового
овои
овоцина
овоцинарство
овоциновых
овоцины
овоча
овпливнены
овпливнив
овплывненыи
овсиенко
овска
овскои
овскыи
овскых
овсянка
овсянковы
овсянковых
овтмен
ову
овцѣ
овы
овыи
овых
овідіи
овіре
овірительне
овірительносте
овірительность
овірительны
овірити
овірюють
овірі
овѣ
огаи
оганн
оганна
оганнес
огансен
огансена
огварянь
огень
огляд
оглядом
огляду
огляды
оглянув
огниска
огниско
огнискове
огниском
огнутыи
огня
ого
оголосив
оголосили
оголошення
огпу
ограничать
ограничена
ограниченои
ограничену
ограничены
ограниченыи
ограничити
ограничѣня
огранічене
ограніченыи
огрожена
огрожены
огроженыи
огрожують
огрожуючи
од
ода
одбивать
одбивачѣ
одбитыи
одбитя
одборна
одборных
одбыв
одбывав
одбывала
одбывали
одбывало
одбывати
одбывать
одбывають
одбыла
одбыли
одбыло
одбыти
[...]
