!
"
#
##0
##1
##10
##11
##12
##13
##14
##15
##16
##17
##18
##19
##2
##20
##21
##22
##23
##24
##25
##26
##27
##28
##29
##3
##30
##31
##32
##33
##34
##35
##36
##37
##38
##39
##4
##40
##41
##42
##43
##44
##45
##46
##47
##48
##49
##5
##50
##51
##52
##53
##54
##55
##56
##57
##58
##59
##6
##60
##61
##62
##63
##64
##65
##66
##67
##68
##69
##7
##70
##71
##72
##73
##74
##75
##76
##77
##78
##79
##8
##80
##81
##82
##83
##84
##85
##86
##87
##88
##89
##9
##90
##91
##92
##93
##94
##95
##96
##97
##98
##99
%
&
'
(
)
*
+
,
-
.
/
0
00
000
0000
001
002
003
005
01
0125
017
019
02
022
023
024
026
03
031
033
035
04
040
041
045
049
05
050
057
06
068
07
072
08
085
086
09
094
1
10
100
1000
1002
1003
1004
1006
101
1010
1012
1017
1019
102
1020
1021
1025
1029
103
1032
1033
1034
1036
1038
104
1040
1042
1043
1044
1046
1047
105
1050
1052
1054
1057
1059
106
1062
1063
1066
1068
1069
107
1071
1072
1075
1077
1078
1079
108
1080
1081
1085
1087
1089
109
1092
1094
1098
11
110
1100
1101
1104
1105
1106
1108
111
1110
1111
1112
1114
1115
1117
1118
112
1122
1127
1128
113
1130
1131
114
1141
1143
1148
115
1150
1157
1159
116
1167
117
1170
1171
1176
1179
118
1181
119
1191
1193
1199
12
120
1200
1207
121
122
1225
1227
123
1238
124
125
1254
126
1266
127
1271
1273
1275
128
1281
129
1294
1295
1297
13
130
1300
1304
1305
1309
131
1310
1312
1316
1317
1318
132
1320
1321
1322
1323
1324
1329
133
1330
134
1347
1349
135
1350
1359
136
1360
1369
137
1375
1376
138
1382
1388
139
1390
1391
1392
1393
1399
14
140
1400
1407
141
1419
142
1429
143
1434
1436
144
1445
1448
145
1451
1452
1453
1454
1456
1458
146
1462
1465
1468
1469
147
1470
1472
1473
1475
1477
1478
1479
148
1480
1482
1483
1488
149
1496
1499
15
150
1500
1502
1503
1505
1506
151
1510
1513
1514
1515
1516
1518
1519
152
1520
1521
1524
1525
1527
1528
153
1530
1533
1535
1538
154
1540
1541
1543
1545
1546
1547
155
1550
1551
1555
1556
1558
156
1560
1563
1564
1568
157
1570
1571
1572
1575
1577
158
1580
1582
1585
159
1590
1592
1596
1598
1599
16
160
1600
1603
1604
1605
1606
1609
161
1610
1611
1612
1613
1614
1615
1616
1617
1618
1619
162
1620
1622
1623
1627
1628
1629
163
1630
1632
1637
1639
164
1640
1642
1643
1644
1645
1646
1647
1648
1649
165
1650
1651
1653
1657
166
1660
1661
1663
1665
1666
1667
1668
1669
167
1670
1671
1672
1673
1674
1676
1678
168
1680
1681
1682
1683
1684
1685
1686
1687
1688
1689
169
1690
1691
1692
1693
1694
1696
1698
1699
17
170
1700
1701
1702
1703
1704
1706
1707
1708
1709
171
1710
1711
1713
1714
1715
1716
1718
1719
172
1720
1721
1723
1724
1725
1726
1727
1728
1729
173
1730
1732
1734
1735
1738
174
1740
1741
1742
1743
1745
1746
1747
1749
175
1750
1751
1752
1754
1755
1756
1757
1758
1759
176
1760
1761
1762
1763
1764
1765
1766
1767
1768
1769
177
1770
1771
1773
1774
1775
1776
1777
1778
1779
178
1780
1781
1782
1783
1784
1785
1786
1787
1788
1789
179
1790
1791
1792
1794
1795
1796
1797
1798
1799
18
180
1800
1801
1802
1803
1804
1805
1806
1807
1808
1809
181
1810
1811
1812
1813
1814
1815
1816
1817
1818
1819
182
1820
1821
1822
1823
1824
1825
1826
1827
1828
1829
183
1830
1831
1832
1833
1834
1835
1836
1837
1838
1839
184
1840
1841
1842
1843
1844
1845
1846
1847
1848
1849
185
1850
1851
1852
1853
1854
1855
1856
1857
1858
1859
186
1860
1861
1862
1863
1864
1865
1866
1867
1868
1869
187
1870
1871
1872
1873
1874
1875
1876
1877
1878
1879
188
1880
1881
1882
1883
1884
1885
1886
1887
1888
1889
189
1890
1891
1892
1893
1894
1895
1896
1897
1898
1899
19
190
1900
1901
1902
1903
1904
1905
1906
1907
1908
1909
191
1910
1911
1912
1913
1914
1915
1916
1917
1918
1919
192
1920
1921
1922
1923
1924
1925
1926
1927
1928
1929
193
1930
1931
1932
1933
1934
1935
1936
1937
1938
1939
194
1940
1941
1942
1943
1944
1945
1946
1947
1948
1949
195
1950
1951
1952
1953
1954
1955
1956
1957
1958
1959
196
1960
1961
1962
1963
1964
1965
1966
1967
1968
1969
197
1970
1971
1972
1973
1974
1975
1976
1977
1978
1979
198
1980
1981
1982
1983
1984
1985
1986
1987
1988
1989
199
1990
1991
1992
1993
1994
1995
1996
1997
1998
1999
2
20
200
2000
2001
2002
2003
2004
2005
2006
2007
2008
2009
201
2010
2011
2012
2013
2014
2015
2016
2017
2018
2019
202
2020
2021
20210116182713
2022
203
2030
204
2040
205
206
207
208
209
21
210
2100
211
212
21223
213
214
215
216
217
218
219
22
220
221
222
223
224
225
226
227
228
229
23
230
231
232
233
234
235
236
237
238
239
24
240
241
242
243
244
245
246
247
248
249
25
250
251
252
253
254
255
256
257
258
259
26
260
261
262
263
264
265
266
267
268
269
27
270
271
272
273
274
275
276
277
278
279
28
280
281
282
283
284
285
286
287
288
289
29
290
291
292
293
294
295
296
297
298
299
3
30
300
3000
30000
301
302
303
304
305
306
307
308
309
31
310
311
312
313
314
315
316
317
318
319
32
320
321
322
323
324
325
326
327
328
329
33
330
331
332
333
334
335
336
337
338
339
34
340
341
342
343
344
345
346
347
348
349
35
350
351
352
353
354
355
356
357
358
359
36
360
361
362
363
364
365
366
367
368
369
37
370
371
372
373
374
375
376
377
378
379
38
380
381
383
384
385
386
387
388
389
39
390
391
392
393
394
395
396
398
4
40
400
4000
401
402
403
404
405
406
407
408
409
41
410
411
412
413
414
415
416
417
418
419
42
420
422
424
425
426
427
428
429
43
430
431
433
434
435
438
44
440
443
444
445
446
447
448
45
450
451
452
453
454
455
457
458
46
460
461
465
469
47
470
471
472
473
474
475
477
479
48
483
485
486
487
49
490
491
494
495
496
497
498
499
5
50
500
5000
50000
501
502
504
505
507
509
51
510
512
514
517
519
52
520
521
522
523
527
528
53
530
531
533
534
536
538
54
540
541
542
543
544
5446
547
549
55
550
551
554
555
556
558
559
56
560
562
563
564
567
568
57
570
574
575
576
577
578
58
580
581
584
585
586
587
589
59
593
597
598
599
6
60
600
6000
603
607
61
610
611
613
614
615
618
62
620
622
623
625
626
627
63
630
631
632
635
636
637
64
641
642
643
644
645
646
647
648
649
65
650
651
652
655
656
657
659
66
660
661
662
664
665
666
667
668
669
67
670
671
672
674
675
676
677
678
68
680
681
682
683
684
688
689
69
690
691
692
697
699
7
70
700
7000
701
702
703
704
706
707
708
71
710
711
712
713
714
718
719
72
720
721
722
724
725
726
727
728
729
73
730
731
732
735
737
74
740
744
745
746
747
748
75
750
751
754
755
758
759
76
760
761
762
764
768
77
771
774
776
777
778
779
78
780
781
782
783
784
785
788
79
790
792
794
795
796
797
798
8
80
800
8000
801
802
804
806
807
809
81
811
814
8142
815
816
818
82
820
821
823
824
825
83
830
831
8324
833
834
836
84
840
842
843
8430
849
85
850
851
853
857
86
860
862
864
866
87
870
871
872
873
878
88
883
884
886
89
898
9
90
900
903
905
907
908
909
91
911
912
913
914
915
917
918
919
92
920
922
923
925
926
929
93
930
931
934
935
936
937
939
94
940
941
943
944
945
946
947
948
95
950
951
952
953
954
955
957
958
96
960
96086
961
96135
963
964
967
968
969
97
970
9715
972
974
975
976
977
978
98
980
982
984
985
986
987
98965
99
990
991
992
994
996
999
:
;
=
>
?
@
\
_
`
a
aa
aakkoskirjutussistiemoi
aalto
aaziedu
aazieh
aazien
aazies
aaziespa
aazii
abandoned
abba
abc
abendsonne
aberi
aberin
abertawe
abertawen
aberteifi
aberteifin
abjabat
abjad
abjadat
abjadoih
ablonat
ablonu
abotit
about
above
abr
abraham
abram
abramov
abramovan
abtei
abu
abudz
abuh
abuniekku
ac
academy
accipiter
ace
achille
across
actes
action
actm
acts
acuta
ad
ada
adac
adagio
adam
adams
adan
adanke
adar
address
adenan
administratsien
admirualu
adolf
adressi
adrienmeren
adrienmeri
adult
adventures
aerial
af
afanasjev
afar
afganistuananke
afganistuanu
afiinat
afina
afini
afinoin
afon
afonan
africa
african
africana
africano
africanus
afriekakse
afriekan
afriekas
afriekkah
afriekku
afrikan
afrikas
after
afternoon
ag
agama
agjoi
agjuva
agojev
agricola
agronomannu
aguila
ah
ahan
ahanhi
ahat
ahava
ahien
ahmatistu
ahmoi
ahmuattoih
ahmuattufigurua
ahmuattukiz
aho
ahola
aholoil
ahon
ahtia
ahtian
ahven
ahvendu
ahvenet
ahvenien
ahvenja
ahvenkaloih
ahvenkaloin
ai
aic
aidu
aiga
aigah
aigaine
aigannu
aigassah
aigazis
aigoi
aigoih
aigoin
aigu
aigua
aigukavven
aigukniigois
aiguva
aiguvyo
aiguzen
aiguzih
aiguzile
aihealue
aiheesta
aihiennu
aihies
aija
aijakse
aijal
aijan
aijanluguu
aijannu
aijas
aijemba
aijembah
aijembat
aijembi
aijoi
aijoin
aijois
aika
aikovskii
aila
ailiipukku
aimara
ain
ainavo
ainavokse
ainavoluaduine
ainavoluaduzen
ainavot
aine
aineh
ainehelline
ainehellizen
ainehellizien
ainehen
ainehennu
ainehet
ainehien
ainehii
ainehisto
ainehiston
ainehistuo
ainehtu
ainiekku
aino
ainos
air
aires
airotoi
airport
aistitah
aitat
aittoja
aittu
aittuniemen
aiven
aix
aja
ajajan
ajajes
ajan
ajandas
ajankohta
ajat
ajatellah
ajattelii
ajatus
ajatustu
ajau
ajelendu
ajeli
ajellah
ajelluh
ajeltu
ajetah
ajettih
ajettu
ajev
ajoi
ajonevvo
ajua
ak
akadeemien
akadeemies
akademies
akadiemiekan
akadiemiekku
akan
akanke
akardion
akat
akatemian
akilan
akira
akk
akkazin
akkiloic
akkiloittavannu
akko
akkompanementu
akkra
akku
ako
akoin
akonlahden
akov
akovan
akovo
aks
akse
aksegi
akseli
akt
aktiinii
aktiivine
aktiivizesti
aktiivizet
aktiivizii
aktinoidoin
aktivistat
aktivistu
aku
akustine
al
ala
alah
alahan
alahanpa
alaheimoh
alahembi
alahpa
alain
alaine
alajoukko
alajoukkoh
alajoukkouh
alajoukon
alajuoksun
alal
alalampi
alale
alalleh
alalline
alallistu
alallizii
alamurdehet
alamurdehil
alan
alango
alangomualoih
alangomualoin
alangomuat
alangon
alangot
alanko
alapuoli
alas
alasaksikse
alasaksin
alaska
alastu
alat
alavoisen
alavozen
alavozenma
alavozes
alazeh
alazekse
alazen
alazes
alazet
alazien
alazii
alazis
alba
albellus
albert
albifrons
albuanien
albuanienke
album
albums
alcedo
ale
aleksander
aleksanderi
aleksandr
aleksandra
aleksandran
aleksandro
aleksandrovic
aleksandru
alekseevic
aleksei
aleksejevic
aleksi
aleksis
aleksiskivi
alemania
alemba
alembi
alendajat
alessandro
aleutan
aleuttilazet
alexander
alfred
algai
algajen
algau
algavui
algavutah
algavuttih
algavuu
algebran
algoi
algu
alguaineh
alguainehen
alguainehien
alguainehis
alguainehtu
alguh
alguhpanii
alguhpanijannu
alguhpanijoinnu
alguhpanijois
algukursu
alguopastai
algupera
alguperia
algupuolel
algus
algusanat
algussah
alguvuvvet
ali
alica
alighieri
alipunktu
aljnoilla
aljnoiloilla
aljnoin
alkalimetallu
alkupera
alkvist
all
alla
allan
allattih
alle
allegro
allekirjutus
allettih
allettuu
alli
allmusic
allukse
allun
allus
alluspa
alma
almanakas
almanakku
alna
alnan
alnas
alo
aloh
aloijen
aloil
aloin
alois
aloitti
aloveh
aloveheh
alovehekse
alovehel
alovehele
alovehelline
alovehellistugi
alovehellizen
alovehellizet
alovehellizien
alovehen
alovehenke
alovehes
alovehet
alovehien
alovehih
alovehii
alovehil
alovehile
alovehis
alovehtu
alovehvezilo
alpa
alpes
alpha
alpo
also
alt
altar
alternative
alto
altstadt
alukset
alun
alus
alvar
alz
am
amadeus
amazon
amber
ambui
ambujien
ambulatourii
amburijaine
ame
american
americii
ameriekan
ameriekas
ameriekkah
ameriekkalaine
ameriekkalazen
ameriekku
amerigo
amerika
amerikan
amerikanhuabalo
amerikanjia
amerikantavi
amerikantelky
amerikas
amerikkah
amerikku
amerikkua
amieriekan
amieriekas
amieriekkalaine
amierikan
amierikas
amierikkah
amierikkalaine
amierikku
amk
amlwch
amlwchan
amman
ammatillizet
ammatin
ammattiopisto
ammui
ammundu
ammundua
ammundujoukon
ammundukerras
ammunduvehkehien
ammutah
ammuttih
ammuzen
ammuzimbii
ammuzis
amprezzo
amsterdam
amsterdamu
amuanu
amur
amurankoskelo
amy
an
ana
anaheim
anarhistu
anas
anastasia
anastasija
anatole
anatomu
and
andanuh
andat
andau
andelnans
anders
andersen
andersenan
anderson
andilahan
andilas
andimet
andin
andoi
andorra
andorran
andre
andreas
andrei
andrejev
andrejevic
andrejevna
andua
andy
ane
anfiteatro
angeles
angels
angl
angliekse
anglielaine
anglielazen
anglielazet
anglien
anglienkielizes
anglies
anglii
anglo
angola
angolan
angolanke
angueira
angueiran
anhava
animacieh
animacien
animacii
animaciisarjas
animal
animals
animated
animation
animattori
anin
aniskina
anja
anjogeh
anjogi
anka
ankan
ankara
anke
ankieline
ankielisty
ankielizen
ankielizes
ankomin
anmuan
anna
anne
anneli
annelin
anneta
annetah
annettih
annettu
annettuloin
annu
annual
anpa
ansambl
ansamblin
anser
ansicht
anson
antananarivu
antarctica
antarktidah
antarktidan
antarktidas
antarktidu
anti
antic
antiekan
antigua
antikainen
antikazen
antilan
antilian
antoine
antolougielois
antolougies
antolougii
anton
antonio
antonova
antonovan
antonovic
antoon
antti
anttikoski
antverpen
anu
anukseh
anukselaine
anukselazet
anuksen
anuksenjoven
anuksenlinnah
anuksenlinnan
anuksenlinnas
anuksenlinnaspa
anuksenlinnu
anukses
anuksespa
anus
anusjogeh
anusjogi
anusjoven
anusrandaine
ao
apel
apiaster
apin
apis
apollinaire
apollo
apostolan
apostoloin
apple
april
aps
apus
ar
ara
arab
arabian
arabiekse
arabielaine
arabien
arabienke
arabika
araheinia
araheiny
aral
ararat
arashiyama
arbaitukset
arbaitus
arbaitustu
archive
arctic
arctica
ardea
are
area
areilhos
areilhosan
argentiinan
argentiinu
argentinan
argipa
argivoi
argivoidu
argivois
argon
argonan
arhangel
arhangelin
arheolougii
arheolougu
arhiivah
arhiivan
arhiivas
arhiivaspa
arhiivu
arhijepiskoppu
arhippa
arhitektoran
arhitektorannu
arhitektoru
arhitektu
arhitektuuran
arhitektuuras
arhitektuuru
arhitektuurua
ari
arifmetikan
arinova
aristokruatoin
aristotel
arizona
arja
arkadii
arkea
arkhimedes
arkisto
arkkipiispa
arktiekalaine
arktikan
armahile
armas
armenia
armenien
armenii
armieh
armien
armies
armii
armstrong
army
arne
arnoi
arnoin
around
arrival
art
arthouse
arthur
article
artikkeli
artikkelih
artikkelii
artikkelis
artist
artistakse
artistannu
artistat
artistoi
artists
artistu
artmane
arto
arton
arts
artugan
artugu
artugua
aruabien
arvatah
arveh
arven
arves
arvi
arvid
arvion
arvo
arvokas
arvokkahan
arvokkahat
arvokkahin
arvon
arvonimen
arvonimet
arvonimi
arvos
arvostetah
arvostettu
arvostus
arvot
as
asa
asaph
asioita
askas
asnt
asounan
asounas
asounat
asounu
asounua
asovn
asp
aspa
aspirantuuran
aspirantuuras
aspx
assah
assembly
assil
association
astana
astas
astattu
aste
astettu
asti
astieh
astieloi
astieloin
astien
astiessah
astiet
astrid
astroin
astui
astuo
astus
astussportu
asunsjon
asv
at
ata
atah
atkan
atlanta
atlantan
atlantic
atlantiekan
atlantien
atlantin
atlantizen
atlantu
atlas
atoman
atombomban
atommassu
atomnoumer
atomunoumer
attacus
attavua
atthis
attih
atur
au
audi
audio
auer
auf
aug
august
auguste
augustin
augustus
augustusan
aulis
aunuksen
aunus
aurinko
auritus
aurora
aus
australia
australies
australis
austrielaine
austrii
autetah
autettih
author
authors
auto
autoi
automne
auttau
auttoi
av
avai
avajaizis
avajazet
avajazis
avan
avant
avata
avattih
avattu
avavui
avavuu
avdejevo
avdejevon
ave
avec
avgust
avin
aviv
avoinkirjasto
avstralies
avstrielaine
avstrien
avstrienke
avstries
avstrii
avstrualien
avstrualies
avstrualii
avtodorogal
avtodorogu
avtodorogua
avtokilbailii
avtoluajittelii
avtomas
avtonoumien
avtonoumine
avtonoumizekse
avtonoumizen
avtotevolliz
avtoubusat
avua
avuamizen
avul
avuttau
avvattu
avvoi
avvoitavun
avvoitavus
avvonaine
avvonazel
avvonazil
avvul
avvutetah
avvutettih
avvuttamah
avvuttau
avvutti
avvuttua
award
ayrton
aythya
ayuntamiento
ayxzsvttotz
az
azemu
azerbaidz
azerbaiya
azetetah
azetettih
azetettu
azetuskohtan
azetuskohtu
azieloin
azien
azies
azot
azottua
azovanmeren
azovanmeri
azui
azundah
azuo
azutah
azuttih
azuttu
azutus
azuu
b
ba
baba
baby
bach
back
background
bad
baden
bae
bagaman
bagdad
bagging
bah
baha
bahi
bahir
bahrein
bahreinan
bai
baikal
bain
baiona
baju
bakteerieloin
baku
bal
balakirevan
balance
balas
balietan
baliettu
baliettua
balkanan
balkanantiaine
balkhi
ballaadeja
ballet
ballua
baltian
baltiekan
baltiekku
baltiekkumeren
baltiekkusuomelaine
baltien
baltienmeren
bamako
ban
band
bangi
bangkok
banglades
banionis
bank
banku
banz
baobab
baptiste
bar
barabuanat
barabuanii
barabuanistu
barabuanoi
baranov
barbados
barbuda
barcelona
barentsanmeren
barentsanmeri
barii
barista
barn
barokkumuuzikan
baron
barto
bas
base
basho
basi
basilica
basilika
basistu
basketbol
baskikse
baskimua
baskimuan
baskimuas
baskin
baskit
basseinah
basseinan
basshunter
basso
bassu
bassua
baster
battle
bay
bazelin
bb
bbc
bbg
bc
bd
be
beach
bear
beat
beatles
beautiful
beauvoir
bee
beethoven
beethovenan
before
beginning
behind
bei
beijing
beilstein
beinn
beirut
bel
belbaltlag
belfort
belgrad
belgrade
beliz
beljakov
bell
bells
belomorskan
belomorskaspa
belomorsko
belomorsku
belongs
bembel
ben
benfron
bengalin
benin
beninanke
benito
benjamin
benlli
benoi
benz
ber
bercelius
berg
bergtocht
berillium
beringanmeri
beringei
beringovan
berkenzwam
berkli
berklii
berli
berlin
berlinan
bern
bernard
bernini
bernoulli
bert
berzelius
bessel
betulinus
between
bi
biarmicus
biblien
biblienkia
biblies
biblii
bibliogruafii
bifiduokku
big
bigi
bii
bild
bilder
bill
billed
biller
billy
bin
bina
bingen
bingenila
binomio
biography
bioko
biolougien
biolougii
birdlife
bis
bisau
bismarck
bistrica
biznesmies
bjo
bjorndalen
black
blair
blank
blasco
blaubeuren
blender
blick
blitzkrieg
bloem
bloemknoppen
blog
blogspot
blomkvist
blood
blue
blues
bo
boat
bob
bobat
bobazii
bobien
bobii
bobrovin
body
bog
bogdanov
bogdanova
bogota
bohattu
boi
boiko
boikon
bois
bojuloin
bokat
bokis
bokispa
bokkuturvupielukset
boksin
bol
bolbokku
bolguarien
bolguarienke
bolguarii
bolivia
bolivien
bols
bom
bomal
boman
bomat
bomb
bomban
bomua
bon
bonapart
bond
bondan
bonn
book
books
boole
bop
bor
borc
border
borges
boris
borodin
borodulin
borovoin
borum
boruman
bosch
bosna
bosnia
bosnii
boston
botanic
botsuana
botsvanan
botsvananke
botticelli
bottom
boulevard
boumat
bovarien
box
boy
br
bra
brachyrhynchus
brahms
brahmsan
brand
brandt
branta
brasil
bratisluavu
bratskan
braziilielaine
braziilien
braziilienke
braziilii
brazil
brazilia
brazilian
brazilien
brazilienkoskelo
brazzavil
brelo
brendojev
brendojevan
breve
bridge
bridges
bridz
brighton
briha
brihac
brihaiga
brihoin
brinuanielaine
britanian
britanielaine
britanien
britanies
britanii
britanilaine
britannica
britannielaine
britannies
british
britt
brituanien
brituanies
brituanii
bro
broadcasters
brofeldt
brom
bronzas
bronzu
bronzukavven
bronzumedalin
brooklyn
brothers
brown
bru
brujat
brunei
brunnen
brusakat
brussels
bryngaer
bryniau
brɛ
bu
bua
buaban
buabo
buabodran
buat
bubo
bubrih
bubrihan
bucarest
bucephala
budapes
budapest
buddha
buddhalaiz
buddizman
budulain
buenos
buffalo
bug
bugail
buguric
building
buitegu
buiteku
buito
bukval
bukvari
bukvat
bukvua
bul
bulgakov
bulgaria
bulgarian
bull
bullerbyn
bumioson
bumuagale
bumuagan
bumuagu
bumuagua
bunker
bunukku
bunukoile
buolat
buolu
buolua
buperindo
bureau
burg
burkina
burn
burning
burundi
burundin
burundinke
burz
bush
butan
buzau
bw
by
byron
byronan
c
ca
cabo
cac
caer
caeras
caeruleus
caesar
caesarin
caffer
cake
calatayud
calculation
calendar
california
calling
cambridge
camp
campbell
camus
can
canada
canadensis
canal
canis
canorus
canterbury
cape
carbo
carelia
carelian
carelica
carelicum
carelicumas
carl
carlo
carlos
carpenter
carpenters
carrera
carter
cartoon
casa
cash
caspia
cassini
castillo
castle
castre
castren
castrenan
cat
catedral
category
catharus
cathedral
cattle
caudata
cc
cd
ce
ceiling
celsius
cemetery
census
center
central
centre
century
cepphus
ceredigion
ceredigionan
ceriagrion
cerii
cezien
cezii
cf
cgi
ch
cha
chameleon
change
channel
chants
chap
chaplin
charles
charlie
che
ches
chicago
chicken
child
children
chile
china
chinese
chlamydotis
chlidonias
chlorocebus
chobe
chopin
chopinan
chor
chorraum
choses
christchurch
christfried
christian
christmas
christopher
chuck
chugach
church
churchill
churchillin
ci
ciconia
cii
ciirakko
cinerea
cinkan
cinku
cinkua
circle
cirkounii
cite
cities
citroe
city
civilians
cj
ck
cke
cky
clangula
clara
clarke
classic
classics
claude
clerk
cles
cleve
climat
clinton
clock
close
cloud
clouds
club
clwyd
clwydianrangeanddeevalleyaonb
clywedog
cm
cmyk
co
coast
cobain
cocoon
cocos
coed
coffee
coi
cole
collier
collodi
cologne
colony
color
colorado
columbia
colvin
com
comme
commemo
common
commons
community
compan
company
companyn
comparison
complete
composite
comu
con
concert
conference
confirms
content
contes
cook
coon
cooper
copper
coracias
coriolis
coronavirus
correspondences
corte
corvina
corvus
corythornis
cosmic
council
countries
country
county
cover
covid
coyotes
cp
cre
creative
creek
crew
crex
crime
cristatus
cristo
croacia
croatia
cromwell
crop
cropped
cross
crosses
crossing
crusoe
cruz
cs
cu
cucullatus
cuculus
cultural
culture
cummings
cup
curac
curie
curien
custom
cut
cvetajeva
cy
cyanide
cyanistes
cyathigerum
cygnus
cymdeithas
cymru
cymrufyw
cymry
cyprus
czech
d
da
dabi
dag
dai
daimler
dakar
dal
dali
dallas
dallol
dalton
dam
damaskin
damaskinan
dame
damselfly
dan
danae
dance
dangerous
daniekse
daniel
danielaine
danien
danies
danii
danovan
dante
dar
darja
darjaine
dark
dart
darwin
darwinan
das
dat
data
date
dave
david
day
days
daz
dc
dd
ddewi
ddinbychan
de
dead
death
debrecen
debrecenan
debrecenas
debussy
debussyn
dec
december
dee
deep
default
deg
deh
dekabristoin
dekoratiivizennu
del
delano
delegy
delft
delhi
delhin
deli
delichon
della
delta
dem
demo
demokruatien
demokruatilline
demokruatillizen
demokruattine
demokruattizen
demonstration
den
dendrocopos
dengaine
dengoin
dengua
denis
depuis
deputuatakse
deputuatannu
deputuattu
der
dera
dergran
dergranan
derna
dernie
derz
des
descartes
descent
description
desde
desierto
desna
dessoilan
dessoilas
dessoilu
detail
detgiz
detizdat
detstvo
devi
dewi
dewil
dewilpa
dewin
df
di
dia
dialogat
diametras
diametru
diametrua
diamonds
dickens
dickensan
dict
dictionary
didi
die
died
diego
dielo
dieloloi
dieloloin
dielon
dielos
dielot
dieluo
diesel
diettah
diftongas
diftongat
digital
dih
diktatuuran
dilaine
dili
diliff
dimitrii
din
dinamo
dinas
dinastiele
dinastien
dinastii
diploman
diplomuattu
dir
disc
discours
discovery
dishe
diskan
diskat
diskografii
diskogruafii
disku
disney
disneyn
display
disprouzii
distance
district
divan
division
divizii
dizaineru
dj
dji
djwuuqhy
dk
dmi
dmitri
dmitrii
dmitrijev
dmitrijevic
dnepran
do
doc
docentannu
documentary
doha
dokluada
dokumentat
dokumentoi
dokumentoin
dokumentois
dokumentu
dokumentua
dollarua
dolph
dom
dome
domenico
domingo
dominikan
dominikanan
dominiku
domnan
don
donatas
dorogaine
dorogal
dorogan
dorogaspa
dorogat
dorogu
dorogua
dostalikse
dostalit
dostojevski
dostojevskii
douard
douglas
douhtoru
douhturi
douhturikse
douro
douron
dovaris
down
dr
drac
dragon
dramaturgu
drawings
dream
dresden
drinking
drone
druamuteatran
druamuteatras
druamuteatru
drycin
dryocopus
dsc
du
duac
duamu
duanielaine
dubalov
dubinina
dubininan
dublinu
dubrovinan
ducks
dudkina
duero
duisburg
during
dus
dusk
duuhu
duumaic
duumaija
duumaijah
duumaittih
duuman
duusjen
duusjt
dvd
dvor
dvorc
dwight
dxcrjrqmnmsa
dy
dyck
dyfedarchaeology
dyfrdwy
dyfrdwyn
dyh
dykauti
dyke
dylo
dyma
dyy
dz
e
ea
eaa
eagle
early
earth
east
eastern
eating
eau
eb
eba
ebnikka
ebno
ebrill
ec
echo
eclipse
ecuador
ed
edcp
edeh
edehpa
edel
edelfelt
edelfeltin
edeno
edgar
edinburgh
edip
edison
edisonan
edista
edit
edited
edith
edithistory
edo
edor
edpzqyd
edu
eduard
eduka
edustai
edustajannu
edustajua
edvard
edward
ee
eehien
eehienke
eehii
eele
een
eeposan
eepossu
eero
eesti
eestikse
eestin
ef
effektu
efiopien
efiopienke
efiopies
efiopii
efremov
eg
egeinmeren
egeinmeri
egeiskoi
egi
egiptan
egret
egretta
egyptian
egyptila
eh
ehallindo
ehallindoalovehen
ehem
ehki
ehoitti
ehov
ehovan
ehta
ehti
ehtii
ei
eiffel
eiga
eigo
eigu
eikkah
eikkailuloi
eiku
eikuic
eila
eilun
eims
einar
einehii
einer
eino
eins
einstein
eisenhower
eista
eisteddfod
eistia
ejek
ek
ekkulan
ekonomistu
ekonoumiedu
ekonoumiekku
ekonoumiekkukeskus
ekonoumiekkupiirii
ekonoumien
ekonoumistu
ekskursieloi
eksponuattua
eksport
ekspozitsies
ekspozitsii
ekvadoran
ekvuatourielline
ekvuatouriellizen
el
ela
elaigah
elaigu
elaigua
elaijan
elaijas
elan
elaskat
elasku
ele
elegans
elemah
elementan
elementannu
elementoin
elementu
elementua
elena
eleta
elettih
eletty
eli
elia
elias
eliasan
elimis
elin
elina
elisabet
elisenvuaran
eliteprospects
elizabeth
ella
elleh
ellenda
ellendeta
ellendettih
ellendi
ellendia
ellendie
elo
elokseh
eloksen
eloksenka
eloksenkerdomus
eloksenna
eloksentabua
elokses
elokuu
elokuudu
elokuul
elokuun
elokuus
elokuussah
elokuvaka
elon
elopaikat
elos
eloskerdu
elostandun
elostu
elostukses
elostus
elostusperti
elvis
elvytta
ema
emah
emanuel
emeh
emeikan
emeikka
emen
emendeh
emenden
emes
emil
emine
eminem
emma
emmo
empion
empionakse
empionannu
empionu
empionuatan
empionuatas
empire
emu
en
ena
enallagma
encyclopedia
encyclopædia
end
endah
endan
endas
ende
endine
endisty
endizeh
endizelleh
endizen
endizet
endizis
endu
endua
endut
enemy
energiedu
energien
engel
engine
engineerguy
england
englanti
english
engua
eni
enieru
eniha
enima
enimien
enimis
enimisto
enimite
enimyo
enimytta
enimytteh
enin
eninjogeh
enite
eniten
enja
enko
enkon
enku
enne
ennegi
ennen
ennevahnalline
ennevahnallizen
ennevahnallizes
ennevahnas
ennevahnazii
ennitettih
ennusti
ensimma
enskoi
enskois
entsiklopedija
entunduo
enwogion
enzi
enziallus
enzikerdua
enzikerran
enzikse
enzima
enzimma
enzin
epia
eppu
er
era
erbakova
erbakovan
erbien
erbii
erde
erdelyi
eri
eriarvoz
eric
erik
erikseh
erilaine
erilastu
erilazet
erilazien
erilazii
erilazis
erilline
erillizel
erillizii
eriluaduine
eriluadustu
eriluaduzen
eriluaduzet
eriluaduzien
eriluaduzih
eriluaduzii
erinomaine
erinomazii
eritengi
eritrei
eriva
erkki
erkoi
erku
ermita
ernest
ernis
ernogourien
ernogourienke
ernst
ero
eroi
eroitetah
eroitettih
eroittau
eroitti
eroittua
erokas
erokee
erokeelainen
erotah
erottih
erottuu
eruo
eruou
eruption
erythropus
erza
es
esa
esenn
esitelma
eskelinen
eskimo
eskoi
eskoin
eskoit
esmeralda
esocast
espan
esperanto
espoo
esprit
espuanii
essays
essoilan
essoilu
estados
estatal
esteran
estia
esto
estonia
estopsalmii
estounielaine
estounien
estounies
estounii
estvo
eswatini
et
eta
etela
ethnicity
etieda
etiijon
etiijos
etnillisty
etnillizen
etno
etnogruaffine
etnogruaffu
etnogruafien
etnokul
etnougraffu
etuapal
eu
eukleides
eule
euler
euraazien
eurocantica
europaeus
europan
europas
europe
european
ev
eva
evakkoh
evakon
eval
evan
evc
evening
ever
evernii
every
everybody
evetja
evidence
evoi
evoit
evon
evskaja
evskii
evustau
evuyxhzuhdwx
ex
example
exercise
exil
exoplanets
extended
extra
eyck
eye
eyre
ezi
eziindyy
ezika
ezikuvannu
ezim
ezimerki
ezimerkikse
ezimerkiksi
ezinehet
ezinehii
ezinehty
ezitella
eziteta
ezitettih
ezitetty
ezitettyy
ezitta
ezitti
ezittyma
ezityi
ezityksien
ezityta
ezma
f
fa
faberz
facade
faces
facts
fagottua
failu
fair
faktat
faktoru
falco
falcon
fall
fallingwater
falls
false
famberhorst
fame
fameh
family
fan
fanny
fans
fantastiekan
faraday
farm
farmer
fas
fashion
faso
fasonke
fatieras
faust
fe
february
fed
federacien
federacies
federacii
federatiivine
federatiivizen
federation
federatsien
federatsii
federatsiin
federualline
federuallizeh
fedosova
fedotova
fedotovan
fedulova
felder
feldweg
felipe
felix
female
feministu
fender
fenlli
feofan
feofanan
ferdinand
ferezilo
fermal
ferman
fermentu
fermu
fernan
ferruginea
fers
fest
festival
festivuali
festivualii
festivualin
festivualis
fete
ff
fff
fi
fia
fidz
field
figurat
figuroi
figuroin
figuru
figurua
fiinu
fiiziekan
fiiziekanpalkindon
fiiziekas
fiiziekko
fiiziekku
fiizikku
fil
filatov
file
files
filipp
filippinat
filippova
filippovan
film
filman
filmas
filmois
filmu
filmua
filologu
filolougien
filolougizen
filolougu
filosouffizen
filosouffu
filosoufien
filosoufii
filosoufine
filosoufizis
filosoufois
filosoufu
filoulogu
filousofu
filozoufu
fin
final
finland
finlandia
finnish
fioliettu
fire
firenze
fireworks
firman
firmu
first
fis
fish
fishing
fiskul
fiziekan
fizikku
fiziolougu
fl
flaamilaine
flac
flag
flagu
flamandien
flames
flavescens
flavun
fleitu
flight
float
floran
flowers
flows
flu
fly
flying
fm
fog
fokus
fol
folk
folkloristu
folklouran
folklouru
fon
fondan
fondu
fonogruafu
food
fool
footage
foptw
for
force
ford
fordan
forest
forever
formation
formu
formuatas
formula
forsberg
fort
fortress
fortunatov
fortunatova
fosforan
fosforu
fosforua
foster
foto
fotokuva
fotokuvan
fotokuvii
fotokuvua
fotokuvuajannu
fotokuvuaju
foucault
foundation
four
fourier
fourumas
fplmtlwdjgnsdz
fps
fr
fractal
frameless
framu
franc
france
francesco
franciekse
francielaine
francielazet
francien
francii
francis
francisco
frank
frankenstein
frankfurt
franklin
frankoin
fransielaine
fransielazen
fransien
fransies
fransii
frantsieh
frantsielaine
frantsielaizen
frantsien
frantsienke
frantsies
frantsii
franz
frazeolougien
fre
fred
fredrik
free
freedom
freiburg
freight
frica
frida
fridrih
friedrich
friends
frikatiivat
fritillary
frog
from
front
frontal
frontale
frontan
frontu
frozen
fru
fruktois
fruktu
ftor
ftretrans
fu
fuente
fuji
fuligula
full
fullsteam
fulltext
fulton
fulva
fun
fund
fune
future
g
ga
gabon
gabonan
gabriel
gadoliinii
gafnii
gagarin
gaijana
gaijanan
gaikkuavain
gaiti
gaitin
gakuen
gakugsa
gal
gala
galaxy
galericulata
galilei
galileo
galina
gallejan
gallen
gallery
gallinago
gallium
galliuman
gambii
gan
gana
ganan
ganander
gandhi
gandhin
gannibal
garbaluo
garci
garden
gardens
garmis
garnizonan
garrulus
gas
gaspard
gastroli
gastrolin
gate
gates
gauss
gaussan
gautama
gautaman
gavia
gavriil
gay
gazietat
gaziettu
gaziettua
gcgfarl
ge
geh
gei
gektarua
gektuarua
gel
gelaltar
gelochelidon
gema
gemyksen
gemys
gende
gene
general
generalissimus
generalnyi
generation
generualan
generualu
genetc
genetz
gennadii
genovalaine
genrih
geodezistu
geographic
geogruafii
geolougu
georg
george
georges
georgi
georgia
georgien
georgii
georgij
georgijevic
georgijevskii
gerbu
gercogu
germ
german
germanium
germuanieh
germuaniekse
germuanielaine
germuanielas
germuanielastu
germuanielazen
germuanielazet
germuanien
germuanienjevriela
germuanienke
germuanienkielizii
germuanies
germuanii
germuanilaine
germuanilazeh
germuanine
germuanizet
get
getinvolved
geva
gevia
gevy
gewo
gg
ghana
ghiorso
gi
giacomo
gian
gianni
giant
giatsintu
gibran
gie
gies
gif
gii
gija
gila
gilaji
gilel
gilo
gilojeva
gilugu
giluvun
gima
gimalait
gimalajan
gimarin
gimnuazies
gimpl
gina
gioacchino
giorso
giovanni
girl
girls
gitega
gituaral
gituaran
gituaristu
gituaru
giuseppe
giz
gj
gje
gl
gla
glaciar
glacier
gladiolusan
gladiolussu
gladkovan
glandarius
glenn
glinka
glinkan
global
globe
gma
go
goboidu
gode
goden
goethe
goethen
gogh
gogleddorllewin
gogol
goi
going
gol
gold
golda
golden
goldman
golesta
gollandian
gollandiekse
gollandielaine
gollandien
gollandies
gondar
gonduras
gone
good
google
gor
gora
gordon
gorilla
gorka
gorodskih
gors
gorskaja
gorski
goryeo
gos
gospitalis
gost
gostii
gosudarstvennoi
got
gotlieb
gottfried
gov
goya
gr
gra
grad
grammatikka
grammua
gran
granada
grand
grande
graniitan
graniittu
graniittua
grant
grass
grasshopper
gravitacii
great
grec
grecien
grecies
greco
greece
green
grego
gregory
grek
gren
grenada
grenadinat
grenlandien
grenlandii
grets
gretsielazen
gretsien
gretsienke
gretsies
gretsii
gretskaja
grey
gria
griba
griboi
gribojedov
gribua
grieg
griekan
griekkalazes
griekkalazet
griekkalazis
grigori
grigorianskoin
grigorii
grigorjevic
grigorjevna
grimm
gris
grivan
grivat
grivnua
grivoin
grivois
gro
gromova
group
groupin
gruadussii
gruadussissah
gruadussua
gruafikko
grus
gruuzienke
gruuzii
gruuzu
gruuzumas
gry
gt
gu
guar
guarani
guarbalo
guard
guarneri
guazu
guazukeha
guba
gubernieh
gubernien
gubernies
guberniespa
gubernii
gubernuator
gudzonovan
guglielmo
guide
guidebooks
guinea
gul
guliitto
gummerus
gusli
gustaf
gustav
gustave
gutenberg
guy
gvardien
gvatemala
gvatemalan
gvinea
gvinean
gvineanke
gvinei
gvinein
gvineja
gvinejan
gw
gybin
gyi
gyja
gylling
gyllingan
gylo
gyma
gymnopedie
gyo
gyric
gyvih
gyvis
gyy
h
ha
haapalammen
haavikko
habad
habonen
hac
hadz
hafen
hafren
hagia
hahmo
hahmoloi
haigariloin
haikol
hailey
haiz
hajos
haju
hajuu
haldiet
haldivo
haldivoic
haldivolline
haldivollizennu
haldivon
haldivos
hall
hallatah
hallelmuksih
halley
halleyn
hallic
hallindokeskus
hallindolline
hallindollizesti
hallindon
halloween
hallstatt
hamburg
hamilton
hammastu
han
hand
handen
hands
hanhija
hanna
hannen
hannover
hannu
hans
hanti
hantin
hantuzis
hanzi
hapainmaiduo
hapattajes
hapattu
hapatustu
happamehtu
happanou
happi
happy
harakka
harakku
harakkuma
harbour
hard
harding
haren
hariton
harjaittamah
harjaittelii
harjaittelijannu
harjaitti
harjavunnuh
harjavuo
harjavutah
harjavuu
harjoituskogomus
harjulindu
harjus
harjustu
harlun
harmai
harmaisorzu
harmensz
harmless
harmuadu
harmual
harmualoin
harmuan
harmuat
harri
harriet
harrison
harsoinen
hart
hartum
harvah
harvard
harvat
harvembah
harvembi
harvinaine
harvinastu
harvinazet
harvinazien
harvinazih
harvois
harvu
has
hassisen
hattu
haudou
haudu
haugi
haugii
haukirastas
hauptbahnhof
haus
hausdu
havac
havainnot
havana
have
having
havumec
havvondah
havvondu
havvonduaigah
havvotah
havvottih
havvotut
havvu
havvumec
havvupuu
hawaii
hawk
hd
hdisto
hdr
he
head
headed
health
heart
hebo
heboloi
hebuo
hec
hedi
hee
hegelin
heidy
heija
heikki
heil
heile
heilig
heiligengrabe
heiliggrabkapelle
heimo
heimoh
heimokundu
heimokunnat
heimon
heimopa
heimos
heina
heinia
heino
heinrich
heinykazvi
heinykuu
heinykuudu
heinykuul
heinykuun
heinykuus
heinykuussah
heinys
heinytavi
heis
heiska
heiskanen
heitettih
heitti
hel
helena
helene
heleva
helevinny
helium
hell
hella
helmer
helmi
help
helpo
helpoh
helsingfors
helsingforsah
helsingi
helsingin
helsingis
helsingissa
helsinki
helsinkih
helsinkin
helsinkis
helyla
hemba
hembi
hembisto
hemfri
hemingway
hemitsel
hemmin
henda
hendia
henemizeh
hengel
hengele
hengellisty
hengellizen
hengen
hengi
hengie
hengien
hengih
hengilo
hengimas
hengis
heni
henkilo
heno
henri
henrik
henry
heprealaine
hera
herbacea
herbert
herbst
hercegovina
heritage
herka
herman
hermanan
hermann
heron
herrou
hertsegovinanke
hertsegovinu
hertz
herzegovina
hes
het
hete
hevol
hevon
hgi
hh
hhoev
hi
hia
hic
hiekku
hiekkua
hiekkumua
hien
hieroglifat
hieronymus
hieru
hieruh
hierun
hierus
hieruspa
hierut
hieruu
higeh
high
highlands
highway
hih
hii
hiihnat
hiihta
hiihtoambui
hiihtoambujien
hiihtoammundan
hiihtoammundas
hiihtoammundu
hiihtoammundua
hiihtokilvois
hiija
hiilau
hiilavua
hiildy
hiilisuadu
hiimiekan
hiimiekat
hiimiekku
hiimielline
hiimiellizes
hiimiellizesti
hiimiellizien
hiimien
hiimii
hiimikku
hiiren
hiirenherneh
hiiri
hiirii
hiitola
hiitolan
hiiz
hij
hil
hildegard
hildegardale
hildegardan
hildegardua
hill
hima
himainenlampi
himikse
himo
himoittau
himol
himoruado
himyo
hin
hindi
hindin
hindulaiz
hine
hinnois
hiragana
hirundo
hirvaksen
hirvas
hirvei
hirven
hirvet
hirvi
hirvie
hirvilo
his
histo
histoire
historia
historiaa
historic
historical
historii
history
histouri
histouriedu
histourieh
histouriekku
histourielline
histouriellis
histouriellistu
histouriellizen
histouriellizesti
histouriellizet
histouriellizien
histouriellizii
histouriellizis
histourien
histouries
histourii
histy
hisugukielet
hitc
hitchcock
hitler
hits
hiz
hizen
hizenny
hizes
hja
hk
hka
hkina
hko
hky
hkyo
hlc
hle
hlor
hmo
hmyo
hnouzemus
hnyh
ho
hobjanharmuadu
hobjankarvaine
hobjanva
hobjanvalgei
hobjazen
hobju
hobjumedalin
hockey
hodari
hoikat
hoikku
hoikkusinikorendo
hokkaido
hokkeih
hokusai
hol
hole
holl
hollandiekse
hollandielaine
hollandien
hollandii
hollywood
holmes
home
homme
hong
hongoi
hora
horah
horan
horas
horch
horien
hormu
horse
hortus
horua
horvatien
horvatienke
hos
hose
hot
hotel
hoteli
hotelli
hour
house
houses
how
howard
hrestomatja
hristianskoi
hristianskoin
hristianskoit
hristilline
hristos
hristosan
hristossah
hrizantiemu
hrom
hronolougii
hs
hta
hte
hteet
htehet
htehis
htema
hten
htet
hti
htie
htielo
htientiijustelii
htiet
htieta
htiettih
htiettyy
htih
htijen
htijes
htilo
htis
htitieda
htitiedo
htitiedoilii
htitieteellinen
htm
html
hto
http
https
hty
htyksen
htys
hu
huabalo
huabd
huabu
huabua
huabuvezi
huabuviel
huabuvien
huahkan
huahku
huahmoloi
huahmot
huan
huavai
huavan
hubble
hubblecast
hudson
hue
hugo
hukan
hukankorendoloin
hukku
human
hume
humen
hummingbird
hunga
huoldu
huoli
huolimattah
huomai
huomattih
huomavukset
huomivoh
huomivot
huomivuo
huondeksel
huondes
huonukset
huonuksis
huonustu
hurual
huruale
hurualpa
huruan
huruas
hus
huuhtellah
huvikumpu
huviniemi
hvoinin
hyde
hydrobates
hyemalis
hylga
hylla
hyman
hymanan
hympo
hyo
hyppa
hyppie
hyr
hyrsyla
hyva
hyvia
hyvin
hyvyo
hyybiel
hyybien
hyybiet
hyybii
hyyr
i
ia
iakaev
ibis
ibsen
ibuti
ic
ice
iceland
id
ida
idei
idejan
idel
idela
idelin
identitiettua
identity
ideolougii
idy
ie
ieda
iekan
iekannu
iekat
iekku
iel
ielleh
ien
ienke
ieru
ies
ietan
iga
igan
igen
igi
igia
iglesia
igor
iguizekse
igumenan
ih
ihan
ihes
ihin
ihmeh
ihttp
ii
iii
iinun
iinus
iirakko
iirakkoloin
iirakkuo
iirakon
iiran
iiroi
iisus
iisusan
iisussua
iitel
iivan
iivanan
iivananpa
iivatan
iivatat
iivatoile
iivatoin
iivattoi
iivattoin
iivattua
iivo
iiz
ija
ijakse
ijan
ijat
ijes
ijev
ijeva
ijevan
ijia
ijien
ijih
ijii
ijil
ijis
ijo
ijoi
ijoin
ijsselmeer
iju
ijy
ijypa
ik
ika
ikaalinen
ikaalizen
ikan
ikistuanan
ikistuananke
ikistuanu
ikko
ikkolois
ikku
ikkunas
ikkunat
ikkunoin
iko
ikol
ikot
iks
ikse
ikuinen
il
ila
ilaine
ilazen
ilazes
ilazet
ilazien
ilc
ildu
ildukec
ile
ileksa
ilema
ilemy
ili
ilii
ilin
ilindu
iliuhkuloi
iliusku
ilja
iljic
iljits
ilkka
illa
illal
illatiivan
illeh
illh
illhportal
illinois
illusioni
ilma
ilmah
ilmahpia
ilmai
ilman
ilmari
ilmas
ilmasto
ilmaston
ilmastonmuutoksen
ilmestyi
ilmestymizen
ilmestyta
ilmestyttih
ilmestyy
ilmi
ilmio
ilmivo
ilmoih
ilmoihpia
ilmoile
ilmoitettih
ilmoitti
ilmoituksen
ilmu
ilmua
ilmurengahil
ilo
iloi
iloin
ilomanc
ilomantsin
ilona
ilosaari
ilta
ilveksen
ilvekset
ilves
ilyi
ilynyh
ilynyo
ilyta
ilyteta
ilytetty
ilytta
ilyttia
ilyttih
ilytty
ilyy
im
ima
image
imagephysical
images
imah
imal
imale
iman
imat
imatja
imbilahten
imbilahti
imeh
imekse
imel
imen
imenny
imes
imet
imetta
img
imi
imia
imic
imien
imii
imis
imisto
immal
immanuel
immature
immer
imo
impact
impeerien
imperatoran
imperfektan
imperfektas
imperien
imperii
imperuatoran
imperuatoru
imperuattoru
impression
impressionizman
in
ina
inal
inan
inargi
inarinsaami
inas
inat
inauguracion
inbuolu
incubator
inda
indeicoin
index
india
indian
indieh
indielaine
indien
indienke
indies
indii
indikatiivan
indo
indokitain
indonesia
indonezien
indonezienke
indonezii
inductees
indy
ine
inehmine
inehmisty
inen
infaustus
info
information
infrastruktuuru
ington
inha
inhan
inieru
inke
inkeri
inkerila
inmuailmu
inmuavaldivo
inmust
innenansicht
innenraum
innostutah
inny
ino
inoi
inoin
inois
inpuoli
insbruk
insee
inselgy
insoin
institut
institute
instituutan
instituutas
instituuttah
instituutti
instituuttu
insuari
insul
inta
intagaine
internacional
international
internet
internetah
internetan
internetas
internetasgi
internetua
intersugupuoliz
intervention
interview
into
intolaiz
introduction
inua
inz
io
ioann
ioanna
ioannovna
iogann
ionafan
ipainiekoin
iprage
ipuu
ir
ira
irak
irakan
irakanke
iran
iranan
irananke
iranas
iranke
irc
ire
irene
iridii
irina
irish
irivo
irka
irkajogi
irkat
irkkakemijoven
irkoi
irlandielaine
irlandielazien
irlandien
irlandienmeren
irlandies
irlandii
irma
irodukunnan
irstajogi
is
isa
isaac
isaakijevskoin
isabel
isakov
isalmen
isalmi
isbn
iselgy
iselmar
isen
isfaha
isgi
isia
isic
isla
islaman
islamilaine
island
islandia
islandien
islandii
islands
islas
ismo
ismurteiden
iso
isp
ispa
ispanielaine
ispanien
ispanies
ispanii
ispuanieh
ispuanielaine
ispuanielazet
ispuanien
ispuanies
ispuanii
ispuu
israel
isrc
iss
issa
ista
istanbul
istourien
istourii
istui
istuimen
istutetah
istutettih
istutettu
istuttua
it
ita
italian
italie
italielaine
italien
italii
itemid
itiaine
itilleq
itivdleq
itkaja
itketta
itkut
itkuvirret
itkuvirty
itkuvirzilo
ito
its
itta
itteli
itterbii
itti
ittih
ittrii
itualieh
itualiekse
itualielaine
itualien
itualienke
itualies
itualii
ity
iuc
iv
iva
ivan
ivanan
ivangorodan
ivanov
ivanova
ivanovan
ivanovic
ivanovna
ivanovo
ivia
ivic
ivien
ivii
ivinny
ivis
ivissa
ivo
ivr
ivuar
ivuaranke
ivy
ivyahvenet
ivyahvenien
ivykodi
ivykoin
ivykukku
ivymia
ivypastos
ix
iy
iz
iza
izdanja
izdateljstva
izdateljstvan
izeh
izen
izenny
izes
izet
izotoupat
izrail
izrailan
izrailanke
izv
j
ja
jaakkima
jaakkiman
jaakko
jaakkola
jaan
jack
jackson
jacob
jacques
jagahes
jagamah
jagamine
jagau
jagavui
jagavutah
jagavuu
jagoi
jagua
jaguar
jahtu
jakob
jakobson
jakov
jakovlev
jakovlevic
jalal
jalat
jalgaine
jalgu
jalgua
jalgumia
jalguva
jallahten
jallahti
jallan
jallas
jallat
jalloilleh
jalloin
jaloguazu
jalometallu
jam
jamaicensis
jamaika
jamaikan
jamalo
james
jams
jan
jana
jandomja
jane
janeiro
janne
janouniekse
jansson
janssonan
janssonin
january
japan
japanese
japounielaine
japounien
japounienmeri
japounies
japounii
jari
jarmanku
jaroslavl
jarved
jas
jasnaja
jatkai
jatkau
jatketah
jatkettih
jatko
jatkoi
jatkovoinan
jatkua
jatkui
jatkuu
jatkuvus
jauhuo
jaunde
jazz
jazzpajattai
jbwr
jc
je
jean
jefferson
jeffrey
jefimovic
jegiptalazet
jegiptan
jegiptanke
jegiptas
jegiptu
jegor
jegorovic
jegozero
jekaterina
jekaterinan
jel
jelc
jelena
jelizaveta
jemen
jen
jenga
jeparhieh
jeparhien
jerevanu
jeroilan
jers
jersey
jerusalimah
jes
jesenin
jessoilan
jessoilaspa
jets
jeuropan
jeuropas
jevangeli
jevangelii
jevangelin
jevanheli
jevdokija
jevgeni
jevgenii
jevic
jevriela
jevropan
jevropas
jevroupan
jevroupas
jevroupii
jevrouppah
jevrouppalaine
jevrouppalazes
jevrouppu
jevrouppuozas
jevruazien
jevruazies
jevruo
jevruopan
jevruopas
jevsejev
jewish
jez
ji
jia
jien
jii
jikko
jil
jile
jina
jinny
jis
jj
jlrbv
jo
jobs
joensalo
joensalon
joensuu
joensuun
joey
joga
jogahine
jogahizeh
jogahizel
jogahizele
jogahizen
jogahizes
jogakuuhizet
joganeda
jogapa
jogeh
joget
jogi
jogie
jogien
jogilo
jogiloi
jogiloin
jogilois
johan
johann
johanna
johannes
johdanto
john
johnny
johnson
johtai
johtajakse
johtajan
johtajannu
johtajat
johtajinnu
johtau
johti
johto
johtokunnan
johtol
joka
joki
joliot
jon
jonas
jonathan
jordanienke
jordanii
jorge
jornalet
jose
josef
joseon
joseph
josephhttps
josif
jouc
joudo
joudu
jouhelo
jouhikko
joukko
joukkoh
joukkoloi
joukkoloih
joukkoloikse
joukkoloin
joukkolois
joukkoveh
joukkoveheh
joukkovehen
joukkovehenke
joukkovehes
joukkovehespa
joukkovehet
joukkovehien
joukkovehtu
joukkoviestimis
joukkuo
joukol
joukole
joukolleh
joukon
joukonke
joukos
joukot
joulupukin
joulupukki
jour
journal
jousnen
jov
jovel
joven
jovenalan
jovensuu
jovensuudu
jovensuun
jovensuus
joves
jovespa
jovet
joyce
jozef
jpeg
jpg
jr
ju
juablokku
juakko
juamal
juan
juankoski
juatah
juattih
juattu
jugei
jugien
juha
juhan
juhani
juhlaa
juho
juice
jukagiri
jukka
julajev
julgai
julgavot
julgi
julgine
julguamah
julguamo
julguamon
julguamos
julguanduruado
julia
julian
julija
julius
julkaisija
julkaissut
julkaistu
julkaisu
julkaisuja
julkaisupaikka
jullannuh
jullattih
jullattu
jullattuu
july
jumal
jumala
jumalal
jumalan
jumaldoman
jumalua
juminkeko
jun
juna
june
junesko
junokertuli
junost
juoksou
juomine
juomistu
juomizeh
juomizennu
juomizet
juomoi
juomoin
juondeh
juonet
juosta
jupikku
jupiter
jurii
jurmalu
jurot
jussi
just
juurdu
juurennu
juuret
juuri
juurii
juuriloi
juurilois
juusto
juuston
juustos
juustot
juustuo
juva
juvenile
juvva
juvvah
jy
jygei
jygeitina
jygiedy
jygielo
jygies
jynx
jyrgil
jyrinoja
jyrka
jyrki
jyrky
jyrzii
jyrzijo
jys
jyskyja
jyttyine
jyttyma
jyttyo
jyttyzii
jyu
jyva
k
ka
kaalamon
kaalen
kaasinen
kabo
kac
kadai
kadajan
kadajikko
kadavoor
kadmii
kafka
kaglas
kaglu
kagras
kagru
kagrukiiseli
kagrukiiselii
kaheksa
kaheksanden
kaheksas
kaheksatostu
kahlil
kahlo
kahteh
kahtei
kahtekse
kahtel
kahtele
kahten
kahtes
kahtu
kahtukymmendy
kai
kaic
kaidu
kaidulehtine
kaikelleh
kaiken
kaikenmoizii
kaikenmostu
kaikes
kaikil
kaikile
kaikin
kaikis
kaikkehpa
kaikki
kaikkie
kaikkiedah
kaikkiel
kaikkien
kaikkih
kaikkii
kaikkineh
kainasja
kaino
kairo
kais
kaisa
kaitaja
kaivamah
kaivandukoneh
kaivandukonehet
kaivandukonehii
kaivetah
kaivettih
kaivo
kaivon
kaivos
kaj
kakao
kaksi
kaksiatominen
kaksikerroksizes
kaksikymmen
kaksiozahine
kaksitostu
kaksivuodine
kal
kala
kalaallisutan
kalaallit
kalac
kalagen
kalaheimo
kalalajii
kalaluadu
kalan
kalanjogi
kalankazvatuszavodu
kalas
kalastajat
kalastajien
kalastettih
kalastus
kalasugu
kalat
kalatalouden
kaldaine
kalenderin
kalenduaru
kalenduaruan
kalendula
kalendulan
kalevala
kalevalaine
kalevalan
kalevalas
kalevalaseuran
kalevalaspa
kalevalastu
kalevan
kalevi
kaliedu
kalien
kalifornien
kalifornii
kalii
kalle
kallehennu
kallehet
kallehii
kallela
kallio
kallis
kallistu
kallivokabuoju
kallivoloin
kallivonakkeli
kallivopera
kallivopiirrokset
kallivot
kalmah
kalmal
kalman
kalmat
kalmisto
kalmistol
kalmistos
kalmiz
kalmu
kalmuz
kaloi
kaloin
kalua
kamassi
kambodz
kamc
kamerun
kamerunanke
kampuanii
kan
kanabrokazviloih
kanabron
kanadan
kanan
kanazet
kandai
kandalahten
kandau
kandeleh
kandelehel
kandelehen
kandelehet
kandelehmuuzikkua
kandelehtu
kandiduatakse
kandiduatan
kandiduattu
kandu
kandukielen
kandukieli
kandurahvahien
kangahas
kangahii
kann
kannaksel
kannaksen
kannal
kannas
kannatekses
kannates
kannatestu
kannatetah
kannattai
kannattajat
kannattamine
kannattau
kannatti
kannatuksel
kannatustu
kannel
kannellah
kannu
kansa
kansallisbiografia
kansalliskirjailija
kansan
kansanela
kant
kantele
kantelinen
kanuadalaine
kanuadan
kanuadanhanhi
kanuadas
kanuadu
kanualal
kanualan
kanualas
kanualoi
kanualu
kanuavan
kanzalaine
kanzalazet
kanzalline
kanzallisarkisto
kanzallisarkiston
kanzalliskielizien
kanzalliskirjastos
kanzallistu
kanzalliz
kanzallizeh
kanzallizen
kanzallizes
kanzallizien
kanzat
kanzi
kanzoih
kanzoil
kanzoin
kanzoinva
kanzu
kanzua
kanzukundien
kanzukunnat
kaohsiung
kapellimestari
kapituanan
kapituanannu
kapituanu
kapor
kappale
kappalehtu
kappel
kaps
kar
karajan
karakas
karaoke
karbozerka
karel
karelia
karelian
karelija
karelskaja
karelski
karenina
kargavusvuon
kargei
kargevus
karhu
karhuma
karhun
kari
kariba
kariban
karibian
karibien
karielan
karielazin
karikatiirupiirda
karj
karjal
karjala
karjalaa
karjalabrihat
karjalah
karjalaine
karjalainen
karjalais
karjalaisen
karjalaisesta
karjalaiset
karjalaisia
karjalaiskyla
karjalaisten
karjalakse
karjalan
karjalangi
karjalankannaksel
karjalankannas
karjalankieline
karjalankielisty
karjalankielizeh
karjalankielizen
karjalankielizes
karjalankielizet
karjalankielizien
karjalankielizii
karjalankielizis
karjalansivistysseura
karjalas
karjalaspa
karjalassa
karjalasta
karjalastu
karjalaz
karjalazeh
karjalazel
karjalazen
karjalazennu
karjalazes
karjalazet
karjalazien
karjalazih
karjalazii
karjalazil
karjalazile
karjalazis
karjalu
karjalua
karjan
karjeru
karjieran
karjieru
karju
karjua
karkoitettih
karl
karlan
karlova
karlsson
karmalanja
karniz
karoliina
karotinua
karpinan
karpova
karppela
karpuatois
kartal
kartogruaffu
kartohku
kartohkua
kartoi
kartois
kartu
karvakkahat
karvan
karvat
karvonen
karvu
karvua
karvukortehtu
karzikkoja
kas
kashan
kaskadan
kaskuja
kaspien
kaspienmeren
kaspienmeri
kastanje
kastinen
kastri
kat
katakana
kataluanakse
kataluanu
kataluanua
katalunielaine
katalunien
katalunii
katar
kate
katedrualu
kategourii
katettu
kath
kati
katkattih
katmandu
katri
kattau
kaudeh
kauhat
kaukoija
kaukonen
kaunehesti
kaunehet
kaunehkirjalliz
kaunehliteratuuran
kaunehliteratuurua
kaunis
kaupic
kauppu
kauppumiehen
kauppumies
kaupunginkirjasto
kaupunki
kauti
kauzi
kavaleru
kavkazan
kavkazas
kavkuazal
kavkuazas
kavvel
kavven
kavvet
kaz
kaza
kazahan
kazahstan
kazahstanan
kazahstananke
kazahstanas
kazahstuanas
kazakat
kazan
kazanskoin
kazva
kazvahuu
kazvai
kazvajat
kazvamah
kazvandu
kazvanuh
kazvatandas
kazvatandu
kazvatetah
kazvatettih
kazvattajat
kazvattamah
kazvattau
kazvatti
kazvattua
kazvatuksen
kazvatus
kazvau
kazvetah
kazvi
kazvii
kazvil
kazvilaji
kazviloi
kazviloin
kazvilois
kazvimuailmu
kazvin
kazvinnu
kazvinsyo
kazvis
kazvissyo
kazvistieda
kazvisyo
kazvit
kazvo
kazvoi
kazvoksien
kazvoksis
kazvol
kazvossyo
kazvua
kb
kc
ke
kebjei
kebjenda
kebjieh
kebjiet
kec
keda
kefermarkt
kefiiran
kefiiru
kefiirua
kegri
kehita
kehiteta
kehitettih
kehitetty
kehitetys
kehitta
kehitti
kehittia
kehittyi
kehittyma
kehittyo
kehittyy
kehityi
kehitykseh
kehityksen
kehitykses
kehitynnyh
kehitys
kehitysty
kehitytty
kehkirjutus
kehoitti
kehoitukses
keino
keinolluajittu
keisari
keisarin
keita
keiteta
keitettih
keitetty
keitettyy
keith
keitta
keittia
keittio
keittokirja
kek
kekkonen
keksi
keksii
keksija
keksimine
keksindo
keksitty
kel
kela
keldaine
keldastu
keldazen
keldazet
keldazettavah
keldazettavu
kelduahven
keldupa
keldusiendy
keldusienen
keldusieni
kelduvihelda
kelka
kelloine
kellojallat
kellot
kellozet
keltila
kelyksen
kelykses
kelys
kem
kemi
kemijogi
kemijoven
kemin
kemispa
ken
kenda
kendja
kenen
kenga
kengo
kenienke
kenii
kent
kenta
kenty
kepin
kepit
kepler
keppi
keppika
keppilo
ker
kera
keral
keramikas
kerc
kerdah
kerdoi
kerdomuksen
kerdomukset
kerdomuksien
kerdomuksii
kerdomus
kerdomustu
kerdou
kerdu
kerdua
kerduo
kerho
keria
keric
kerkk
kerkka
kerkysorzu
kermankosken
kerran
kerras
kerrotah
kert
kertaa
kertomuksia
kertovasti
keruak
keskeh
keskel
kesken
keskena
keskes
keski
keskiaijal
keskiaijan
keskikohtas
keskikohtu
keskikorgevus
keskila
keskima
keskimia
keskine
keskiozas
keskipuoles
keskis
keskisyvys
keskitynnyh
keskiva
keskoija
keskuc
keskuksen
keskuksennu
keskukses
keskuksis
keskus
keskuskluuban
keskuskomietietan
keskuskomitietan
keskustas
keskustu
keskustua
kesta
kesti
kestia
ket
kettu
kettunen
keuhkoloin
keuruu
keva
kevia
kexholm
kexholman
key
keyna
keza
kezia
kezoidu
kezra
kezria
kg
khalil
kharlamovin
kheopsan
khl
khwarizmi
ki
kia
kibernietikan
kibuu
kic
kidela
kiehuu
kielda
kieldoloi
kieldoverbin
kielduo
kieldy
kieleh
kielekse
kieleksehttps
kielel
kielele
kielella
kielen
kielenny
kielentutkii
kielentutkijat
kieles
kielespa
kielet
kieleva
kieli
kielien
kielih
kielii
kielijoukko
kielijoukkoh
kielijoukkuoh
kielijoukkuon
kielijoukon
kielikone
kielikse
kielikunnan
kielil
kielile
kielilo
kielinny
kieliopin
kieliopit
kielioppi
kielioppie
kielioppii
kielipereheh
kieliperehen
kielipeza
kielis
kielisoittimet
kielisoittimien
kielispa
kielisty
kielitiedoilii
kielitiedoilijoin
kielitiijon
kielitoimiston
kielta
kielten
kiemur
kien
kierda
kierdi
kierdia
kiestingin
kii
kiihtelysvuara
kiimasja
kiimuaigu
kiini
kiiniteta
kiinitta
kiinnitettih
kiinnostui
kiis
kiiseli
kiiselii
kiista
kiita
kiitettih
kiiz
kijev
kiko
kil
kilbah
kilbahajai
kilbailijat
kilbailijua
kilboi
kilboih
kilbu
kilbua
kilbujuoksus
kilometri
kilometrii
kilometril
kilometrin
kilometris
kilometrua
kiltina
kiluo
kilvan
kilvas
kilvat
kilvoin
kilvois
kim
kimalehien
kimalehil
kin
kina
kinan
kindahankyla
kinematogruafien
king
kingdom
kingfisher
kingstaun
kingston
kinnerma
kinnunen
kino
kinoartistu
kinolois
kinon
kinoprod
kinos
kinot
kins
kinua
kipina
kipran
kipru
kirche
kirchhoff
kirchspiel
kird
kirgizienke
kirgizii
kiribatin
kirien
kirikko
kirikkyo
kiriko
kirilic
kirillitsan
kirillizin
kirilovan
kirja
kirjah
kirjailii
kirjailijan
kirjailijannu
kirjailijoi
kirjailijoin
kirjaimel
kirjaimet
kirjaimien
kirjaimii
kirjaimikko
kirjaimikkoh
kirjaimikkokirjutus
kirjaimikkoloi
kirjaimikkuo
kirjaimikol
kirjaimikon
kirjaimikos
kirjaimil
kirjaimin
kirjaimisto
kirjaimistuo
kirjain
kirjaine
kirjale
kirjaliz
kirjalline
kirjallisuuden
kirjalliz
kirjallizus
kirjan
kirjapaino
kirjas
kirjasto
kirjastoloin
kirjaston
kirjastos
kirjastu
kirjat
kirjaviite
kirjavu
kirjazen
kirjazet
kirjazii
kirjoi
kirjoih
kirjoin
kirjois
kirjoitettu
kirjoittai
kirjoittanuh
kirjoitti
kirjoittua
kirju
kirjua
kirjukieldy
kirjukielel
kirjukielen
kirjukieli
kirjukielien
kirjuta
kirjutanda
kirjutandu
kirjutandua
kirjutannuh
kirjutekset
kirjuteta
kirjutetah
kirjutettih
kirjutettu
kirjutettuloi
kirjutettulois
kirjutettuu
kirjutetus
kirjutetut
kirjutosmuvvospa
kirjuttai
kirjuttajan
kirjuttajannu
kirjuttajat
kirjuttajien
kirjuttajii
kirjuttajinnu
kirjuttajoin
kirjuttajua
kirjuttamah
kirjuttamana
kirjuttamine
kirjuttamizeh
kirjuttamizen
kirjuttanuh
kirjuttau
kirjutti
kirjuttihes
kirjuttua
kirjutuksen
kirjutukses
kirjutukset
kirjutuksien
kirjutuksii
kirjutuksis
kirjutus
kirjutuskilvas
kirjutusmerki
kirjutusmerkilo
kirjutusmerkit
kirjutusmuodo
kirjutusmuvvos
kirjutusneruo
kirjutussistiemoin
kirjutussistiemu
kirjutustaba
kirjutustabah
kirjutustabua
kirjutustavanke
kirjutustavas
kirjutustu
kirkas
kirovan
kirpic
kirvehel
kirvehen
kirvehes
kirves
kirvesja
kirvesjogi
kis
kislorodua
kisloruodu
kislotno
kit
kitai
kitaih
kitailaine
kitailazen
kitain
kitainke
kitainleppylindu
kitais
kitee
kiteel
kiteen
kito
kits
kiuru
kiuruvesi
kivac
kiven
kives
kivet
kivi
kivie
kivija
kivikavven
kivikirikko
kivilo
kivimatikat
kivine
kiviniemi
kivioja
kivista
kiviveneh
kivizii
kiyomizu
kiz
kk
kka
kki
kkia
kkien
kkii
kkilo
kko
kks
kkyla
kl
klarniettua
klassa
klassalla
klassiilline
klassiillistu
klassikot
klassillizen
klassine
klassitsizman
klassizen
klaus
klementjev
kleve
kloster
klounu
kluasan
kluasas
kluassah
kluassua
kluuban
kluubas
kluubu
kluubua
kluziilat
km
kmakargatan
kn
knia
kniiga
kniigah
kniigan
kniiganke
kniigas
kniigat
kniigoi
kniigoin
kniigois
kniigu
kniigua
kniigulaukku
kniigupainamo
knowledge
knuuttila
ko
kobal
koc
kodaine
kodastu
kodazele
kodazet
kodazien
kodazile
kodi
kodialovehentieda
kodialovehmuzei
kodic
kodiela
kodifialku
kodifialkua
kodih
kodihiiri
kodii
kodikaz
kodiloi
kodiloih
kodiloin
kodilois
kodima
kodimua
kodimuan
kodimuzei
kodirandaine
kodirandu
kodirannan
kodoilas
kodratjeva
kodratjevan
kodvan
kodvazen
kogo
kogomuksen
kogomukses
kogomukset
kogomuksih
kogomuksii
kogomuksis
kogomus
kogomustu
kogonah
kogonaine
kogonaz
kogonazen
kogonevvostoliiton
kogoven
kohendamah
kohendamine
kohendettih
kohendua
kohennettu
kohtah
kohtakse
kohtal
kohtan
kohtannu
kohtas
kohtat
kohtettu
kohti
kohtien
kohtih
kohtii
kohtikulmikon
kohtis
kohtu
kohtua
koi
koidu
koih
koillisozas
koillispuoleh
koillisrannal
koillisrannikol
koillizeh
koillizes
koilu
koin
koiran
koirien
koirinoja
koiru
koirua
kois
koispa
koit
koitajogeh
koittelupain
koivikkolois
koivisto
koivu
koivuja
koivun
koivuu
koja
kok
kokkonen
koko
kol
kola
kolah
kolalla
kolan
kolas
kolatselgy
kolatsella
kolc
kolez
kolhouzan
kolhouzu
kolhozu
koli
kolien
kolih
kolilla
kolin
kolis
kollasja
kollektiivu
kolmandeh
kolmandekse
kolmandel
kolmandele
kolmanden
kolmandennu
kolmandes
kolmandet
kolmas
kolme
kolmeh
kolmekse
kolmekymmen
kolmen
kolmes
kolmetostu
kolmeva
kolmie
kolmikko
kolmikon
kolmogorov
koloda
kolodozero
kolounii
koltansaami
kolu
kolua
kolumbielaine
kolumbien
kolumbienke
kolumbii
kolumbus
koma
komandiiroin
kombinuatan
kombinuattu
komi
komietan
komiettu
komin
kominternas
komissuaroin
komitietan
kommunistine
kommunistizeh
kommunistizen
kommunistoin
kommunistu
komoroin
kompleksu
komponentu
kompuanien
koms
komsomolan
kon
konakri
koncertoi
kondiel
kondien
kondiet
kondii
kondoz
kondratjev
kondratjeva
kondupohjan
kondupohjas
kondupohjaspa
kondupohju
kondus
kone
koneh
konehet
konehmuasteri
konehtu
konen
konferensieh
konferensieloih
kong
kongan
kongfucen
kongo
kongon
kongonke
kongresan
kongressu
konkka
konkriettine
konoi
kononen
konsertu
konservatourien
konservatouries
konsonantah
konsonantale
konsonantat
konsonantu
konsonantubukvua
konsonantuyhtyma
konstantin
konstantinopol
konstantinovic
konstantinovna
konstitutsien
konsulu
kontekstois
kontinentallizen
kontserto
konzu
konzutahto
kopengagenan
kopenhagen
kopernikus
koppali
korba
korbimec
korbirac
korbisella
korbivaroi
korbivaroidu
korea
korean
koreas
korei
korein
korela
korelan
korendo
korendot
korfu
korgei
korgeiman
korgeis
korgeviman
korgevimas
korgevin
korgevuol
korgevuos
korgevus
korgevuttu
korgiedu
korgiel
korgieloi
korgielois
korgiembi
korgien
korgiesti
korhonen
korhozen
korjattu
kornei
kornilova
korol
korolevnu
koroli
korolikse
korolin
korpija
korppi
korrespondentannu
korsakov
korsikannakkeli
kortan
kortina
kortostanan
korvat
korvela
korvu
korvuyo
korzi
kos
koskeloloin
kosken
koskenkyla
kosket
kosketinsoittimet
koskettimet
kosketuksis
koski
koskie
koskietah
koskii
koskijan
koskijat
koskijoi
koskijua
koskikana
koskou
kosmetiekas
kosmoja
kosovon
kost
kosta
kostamuks
kostamuksen
kostamus
kostevus
kosti
kostin
kostroman
kot
kotah
kotaja
kotimaisten
kotisivut
kotkat
kotkatja
kotku
kottaraine
kotte
kottih
kottu
kotus
koufei
koufeidu
koufein
koufeipuun
kouli
koulledz
koupii
koustuu
koutajoki
kov
kova
kovac
kovah
koval
kovan
kovas
kovat
kovembi
kovenou
koveran
koverin
kovien
kovii
kovua
koz
kozabos
kozan
kozic
kr
kra
krasnoborskoin
krasnov
kravatti
krc
kreikkalaine
kremlin
kremnien
kreuz
kriitiekku
kriptografu
kriptounu
kristian
kristiina
kristoffer
kritikuic
kriukku
krivcoin
krons
kross
krossover
kruger
kruuga
kruugan
kruus
ks
kse
kseh
ksen
ksenija
ksenon
kset
ksi
ksien
ksii
ksyi
ksyndykera
ksyttih
ksytty
ksyy
ku
kua
kuadui
kuadunuzien
kuala
kuapas
kuappu
kuaren
kuari
kuaskut
kuateri
kuattuloin
kuattulois
kub
kuba
kubiekat
kubkan
kubovon
kubrick
kuc
kuda
kudai
kudakui
kudamah
kudamal
kudamale
kudaman
kudamas
kudamat
kudamida
kudamien
kudamih
kudamii
kudamil
kudamis
kudamua
kudjakov
kuduadu
kuduah
kudual
kudualoi
kudualoih
kudualoil
kudualoin
kudualois
kuduan
kuduas
kuduat
kudz
kuganavolokan
kuha
kuhankiehuttai
kuhkutti
kuhmujouc
kuhn
kuhna
kuhua
kui
kuibis
kuibo
kuigi
kuikan
kuikkien
kuikku
kuittija
kuittiz
kuittizen
kuivaja
kuivan
kuivatah
kuivattih
kuivattu
kuivattuloi
kuivattulois
kuivattuu
kuivetah
kuivii
kuivis
kuivu
kuivua
kujalleq
kujalleqan
kujo
kujola
kuka
kukan
kukantera
kukastu
kukat
kukindan
kukindu
kukindua
kukis
kukitah
kukkaine
kukkazet
kukkazii
kukkien
kukkii
kukkimah
kukkiu
kukkizet
kukkoine
kukku
kukkua
kukkutseremounieh
kuks
kukus
kul
kuldaine
kuldazen
kuldazet
kuldu
kuldumedalii
kuldumedalin
kulduseppy
kulgi
kulgietah
kulgiettih
kulgii
kulgou
kulku
kullan
kullervo
kullervon
kulmas
kultapia
kulttuuri
kulttuurin
kuluu
kumalikko
kumardus
kumc
kumieloinnu
kumiennu
kumman
kummua
kun
kundah
kundoh
kundu
kundua
kunduh
kungoja
kuni
kunic
kunigas
kuningahan
kuningahien
kuningas
kuningaskundah
kuningaskundu
kuningaskunnan
kuningatar
kunnan
kunnas
kunnat
kunne
kunnivo
kunnivoic
kunnivoitettu
kunnivoittih
kunnivoittu
kunnivoja
kunnivokirjazen
kunnivokse
kunnivomerki
kunnivomerkii
kunnivomerkil
kunnivomerkilo
kunnolleh
kunnos
kunst
kunta
kuntija
kuokkaja
kuolan
kuoldih
kuolduu
kuoleman
kuolemasta
kuolendan
kuolendassah
kuolendu
kuolendua
kuoli
kuolluh
kuolluon
kuolluot
kuollut
kuolluz
kuolluzien
kuolou
kuoltih
kuoltuu
kuopio
kuopioh
kuopion
kuopios
kuor
kuordu
kuori
kuorisiendy
kuorisieni
kuornahuksen
kuornahus
kuornahustu
kuoz
kupc
kupeckoin
kupeckoje
kupee
kuppi
kuprijanov
kuprijanovua
kur
kurenniemen
kurenniemi
kurgan
kurgijoven
kurgijoves
kuro
kurortan
kurortu
kurosawa
kursal
kursat
kursiloil
kursit
kurt
kus
kusoittimet
kuspa
kustannus
kustantamo
kustu
kuter
kutiz
kuttujevan
kutuzov
kuu
kuudam
kuudaman
kuudamanja
kuudamazen
kuudamu
kuudu
kuuja
kuuks
kuul
kuule
kuuli
kuullah
kuuloi
kuuloin
kuulou
kuulta
kuultu
kuultua
kuulu
kuului
kuulujan
kuulujannu
kuulujat
kuulujien
kuulujii
kuulujis
kuulujua
kuulumah
kuulunuh
kuuluta
kuulutah
kuuluttih
kuuluu
kuuluz
kuun
kuunnella
kuus
kuusamon
kuusankosken
kuusela
kuusinen
kuusizen
kuustu
kuut
kuuttu
kuuzen
kuuzi
kuuzimuan
kuuzitiaine
kuva
kuvagallereis
kuvahaine
kuvaili
kuvaillou
kuval
kuvan
kuvanveista
kuvanvesta
kuvas
kuvastuu
kuvat
kuvatah
kuvataideh
kuvataidoilii
kuvattih
kuvattu
kuvauksia
kuvavus
kuveit
kuveitan
kuvii
kuvis
kuvitettu
kuvua
kuvuamizeh
kuvven
kuvvenden
kuvvendes
kuvves
kuz
kuznecova
kuznetsova
kv
kvadruattukilometrii
kvantufiziekan
kvartsiittu
kvartsiittua
kvenin
kw
ky
kygy
kyja
kyl
kyla
kylbie
kylia
kylien
kylih
kylii
kylis
kylla
kylma
kylmil
kylmy
kylmykuu
kylmykuudu
kylmykuul
kylmykuun
kylmykuus
kylva
kylveta
kylvettih
kyly
kylyh
kylylo
kylys
kymmendy
kymmene
kymmenen
kymmenes
kymmenessa
kymmenii
kymrikse
kymrila
kymrin
kymrinkielisty
kymrinkielizii
kymrinmua
kymrinmuan
kymrinmuas
kynnet
kyo
kyoto
kypsa
kypseta
kypsis
kyrenia
kyrillinen
kyyhko
kyyka
kyykka
kyzyi
kyzyl
kyzyma
kyzymyksii
kyzyta
kyzyttih
l
la
laatikko
laatokan
label
laboratouries
lac
lad
ladju
ladva
ladvan
ladvu
lady
lagerlo
lagevo
lagevol
lago
lagopus
laguna
lagunu
lahdenpohjan
lahdenpohjas
lahdenpohjaspa
lahdenpohju
lahjakse
lahjoi
lahjoitettih
lahjoitti
lahko
lahkoh
lahnu
lahnua
lahonnuh
lahteh
lahtel
lahten
lahtenke
lahtenpera
lahtenpohju
lahtes
lahtespa
lahtet
lahti
lahtie
lahtilois
lahto
laihinsana
laila
laine
laiteh
laitinen
laitio
laitoksel
laitoksen
laitokset
laitoksien
laitos
laitostu
laival
laivale
laivan
laivannu
laivat
laivoin
laivu
laivua
laji
lajii
lajiloi
lajiloil
lajiloin
lajilois
lajin
lajis
lajit
lajittelu
lake
laks
lambahan
lambi
lambie
lambiloin
lami
lammastu
lammen
lammes
lammespa
lampi
lampinen
land
landau
landing
landschaftspark
lang
langetah
langid
langieu
langobardoin
langu
langua
language
languages
lanka
lankinen
lantanoidoih
lantanoidoin
lantanu
laos
laosan
laosanke
lapinc
lapintiaine
lapis
lappeenranta
laps
lapse
lapsel
lapsen
lapsennu
lapset
lapsi
lapsien
lapsienke
lapsienkirjalliz
lapsienkirjuttai
lapsienkodi
lapsienpa
lapsih
lapsii
lapsil
lapsile
lapsis
lapsus
lapsusaijas
large
larin
larionova
larisa
lars
larus
las
laskeh
laskehes
laskie
laskietah
laskietahes
laskiettih
laskii
laskou
lasku
laskuneda
last
lastu
lat
latinakse
latinalaine
latinalazel
latinalazes
latinan
latinankielizen
latinankielizes
latvaja
latvia
latvian
latvielaine
latvien
latvienke
latvies
lauc
lauda
lauhkei
lauhkien
laukan
laukat
laukku
laukkua
laulu
lauluja
laulujuhlat
launch
laureatakse
laureattu
laurent
lauri
lava
lavaja
laval
lavale
lavan
lavija
lavran
lavval
lazare
lazarevan
lazutina
lbe
le
lea
leaf
league
learning
lebedev
leda
leena
left
leftrightarrow
leg
legendan
legendary
legendat
legendu
legs
leh
lehdisto
lehma
lehmii
lehteh
lehtel
lehten
lehtenkandua
lehtes
lehtet
lehti
lehtie
lehtien
lehtii
lehtikuuzi
lehtilo
lehtimec
lehtimies
lehtinen
lehtipuu
lehtipuuloin
lehtis
leibia
leibih
leibniz
leibyja
leibypastamo
leiden
leikata
leikatah
leikattih
leikattuu
leino
leipzig
leitenantu
leivis
lejonhja
lekka
lekkujad
lekundoi
lem
lembi
lembie
lemija
lemmekki
lemmekkii
lemmen
lemmes
lemmeto
lemmetto
lemminka
lenda
lendia
lendiera
lendieran
lendoazemu
lendoh
lendokoneh
lendokonehen
lendokonstruktor
length
lenin
leninan
leningrad
leningradan
leningruadan
leningruadas
leningruadu
leninskaja
lenneta
leo
leon
leonard
leonardo
leone
leonhard
leonid
leontjevic
lepa
leppa
leppia
leppysienes
leppysieni
lermontov
lerpwl
lerpwlan
les
leskenlehten
leskenlehti
leskinen
leskizen
leskov
lesoto
lesoton
lespromhouzu
let
leteratuuran
letters
leucopterus
lev
levei
leveni
lever
levevys
levevytty
levi
leviel
levielo
levien
leviendy
leviesti
leviet
leviey
levii
levinnyh
levita
leviteta
levitetty
levitta
levitty
levittylo
levoloin
levon
levonen
levylo
lga
lgeh
lgela
lgi
lgia
lgilo
lgima
lgipa
lgisyo
lgivuozien
lgivuozinnu
li
lia
liaigaine
liaigazet
libanalaine
libellula
liberienke
liberii
libertsova
libiec
libo
library
librevil
libuu
lic
lica
lichen
lidija
liec
liedmaja
lieksa
lieksaja
lieksan
lieksas
liemeh
lienne
liete
lievoi
life
ligakuu
ligakuudu
ligakuul
ligakuun
ligakuus
ligakuussah
light
lighthouse
ligniinu
lih
liha
lihaksii
lihan
lihizet
lihtens
lihua
lii
liideh
liideheh
liidehehpa
liidehen
liidehes
liidehozas
liidehrannal
liigan
liigas
liigua
liigunimen
liijakse
liijan
liikkehen
liikkui
liikkuo
liikkuu
liikundu
liikutah
liikuttau
liinii
liipoilinduzet
liipukku
liiriekkua
liisa
liitettih
liitetty
liiton
liitos
liitta
liitto
liittoh
liittolaine
liittoloin
liittuo
liittyi
liittyja
liittyjia
liittyjii
liittyo
liittyy
liityi
liityta
liityttih
liivin
liivoi
liivua
liivukana
lik
like
likko
liko
lil
lilo
lilongve
lima
limeren
limerenilmasto
limerenke
limeres
limeri
limerkit
limonuadu
limurdehet
limurdehis
lin
lincoln
linda
lindgren
lindholm
lindja
lindu
linduheimo
linduine
linduja
lindukoiran
lindukoiru
linduloi
linduloin
lindulois
lindustu
lindusugu
linduu
line
linehenny
lines
lingren
link
linkit
linkoln
linna
linnaeus
linnaeusan
linnah
linnakse
linnal
linnalaine
linnalazen
linnalazet
linnan
linnanjyttyine
linnannu
linnanymba
linnas
linnaspa
linnassah
linnat
linnoi
linnoih
linnoin
linnois
linnoisgi
linnoituksen
linnoitus
linnu
linnua
linnukundah
linnukunnan
linnukunnas
linnul
linnule
linnun
linnupiiri
linnupiiris
linnut
linnuvaldivo
lintu
lintuatlas
lintulan
lion
lions
liopiston
liquid
lis
lisa
lisitsina
lisitsinale
lisitsinan
lissa
lissabon
list
listozauru
listy
liszt
lit
litavrat
literature
literaturnoi
literatuuran
literatuurantutkii
literatuuras
literatuuroin
literatuuru
literatuurua
literatuuruelaijan
literatuuruktiitiekku
lithuania
litium
litiuman
litrua
litta
little
litvalaine
litvan
litvanke
litvas
litvu
liu
liukkonen
liusja
livanan
livanu
live
liverpool
lives
livienke
livii
living
livvi
livvikse
livvin
livvinkarjala
livvinkarjalakse
livvinkarjalan
livvinkarjalas
livvinkieline
livvis
lix
liygi
liygila
liz
liza
lizard
lizeh
lizel
lizen
lizenny
lizes
lizesti
lizet
lizien
lizih
lizii
lizil
lizis
liħa
lja
ljubljana
ljudmila
ll
lla
llanw
lle
lleh
llel
llele
lles
llespa
lline
llisty
llitelta
llizen
llizes
llizesti
llizet
llizih
llizii
llizis
llugwy
lly
llyn
llyo
llytty
lma
lmen
lmener
lmo
ln
lo
lobac
lobos
local
locatie
location
loch
lodo
logikan
logmaja
logo
logografine
lohi
lohija
lohkol
lohtu
loimola
loimolan
loimolanjoki
loimolanjoven
loitokse
loitton
loittostu
loittozes
lomonosov
lon
london
londonah
londonan
londonas
lonely
long
longfellow
lonin
loninan
look
looking
loppenuh
loppi
loppie
loppienuh
loppiettih
loppiettu
loppiettuu
loppih
loppou
loppu
loppuh
loppuheitto
loppuhine
loppui
loppupuolel
loppussah
loppuu
lopukse
lopul
lopun
lopus
lordu
lorenzo
los
lot
lougiekan
lougiekku
louhen
louhespa
louhi
louhija
louhimol
louhittih
louis
loukko
loukkoloin
loukkozet
loukon
loukot
lounas
lounasozas
lounasrannal
lounazes
lounge
lounuah
lounuas
lourensan
louvre
love
lovelace
lowerteifivalley
loxia
loxodonta
lp
lpa
lr
ls
lta
ltpsxf
lu
luadi
luadie
luadii
luadijan
luadijannu
luadijat
luadijen
luadijes
luadijoin
luadijoinnu
luadimah
luadimine
luadimizeh
luadimizen
luadimizes
luadinuh
luadiu
luadogah
luadogan
luadogas
luadogu
luadogua
luadu
luaduh
luaduine
luadulois
luaduu
luageri
luaitah
luaittih
luaittu
luaji
luajindah
luajindas
luajindu
luajita
luajitah
luajittelii
luajittih
luajittu
luajittuh
luajittuloi
luajittuloin
luajittulois
luajittuu
luajitun
luajitus
luajitut
luanda
luavukse
luavun
luavut
luazarin
luba
luc
lucio
luck
lucretia
ludvig
ludwig
luettelo
lugemah
lugemizen
lugi
lugie
lugietah
lugiettavakse
lugiettu
lugii
lugijat
lugijen
lugijoile
lugijoin
lugijua
lugu
luguh
luguine
luguloi
luguloil
luguloin
lugumia
lugussah
luguu
lui
luigi
luis
luistelendan
luistelii
luistelijoin
luistimet
luja
lujah
lujat
lujendau
lujendetah
lujis
lujoitetah
lukan
lukic
lukija
lukin
lukinan
luku
lum
lumatja
lumen
lumihanhi
lumikelloine
lumilavval
lumivuaru
lumpur
lundgren
lundu
lune
lungulan
lungulansuaren
lungulansuari
lungulas
luo
luodeh
luodeheh
luodehel
luodehen
luodehes
luodehespa
luodehizel
luodehozas
luodehpuolen
luodehrannal
luojan
luokku
luomisruado
luomisruavon
luomisruavontaloi
luomisruavos
luondo
luondoperti
luonduo
luonnolline
luonnon
luonnonsuojelualoveh
luonnontieda
luonnontiedoilii
luonnontiijon
luonnontutkii
luonnonvardoic
luonnos
luontoportti
lusia
luteranskois
luteransoin
luterilaine
luulajansaami
luusalmen
luusalmi
luvendakniiga
luvendoloi
luvendoloin
luvetah
luvettelo
luvetteloh
luvettelos
luvettelot
luvetteluh
luvul
luvule
luvulpa
luvun
luvus
luvussah
luz
luzikkoi
luzikku
lv
lviv
lvm
ly
lyh
lyhembi
lyhendysmerki
lyhyo
lyhyt
lyhytn
lyhyzien
lyi
lyka
lykkia
lykky
lykset
lykysta
lylo
lyn
lynimii
lyo
lypsa
lyre
lys
lysta
lyy
lyydi
lyydia
lyydikse
lyydila
lyydilaiz
lyydin
lyydis
m
ma
maa
maakt
maakunnallisia
maaliskuu
mabbett
mac
macedonia
machine
mad
madagaskar
madal
madalat
madaloi
madalua
made
madicken
mado
madolois
madonna
madrid
madridan
madridu
maduo
madz
mae
maen
magaittamah
magavosija
magazine
magdalena
magei
magellan
magellanan
magic
magien
magiet
magistru
magniedu
magnien
magnii
magu
maguu
maha
mahal
mahan
mahatma
mahto
mahtonalaizimman
mai
maido
maidoh
maidojuomine
maidopyha
maidotuottehii
maidovalahat
maidovalahien
maidovalas
maiduo
maija
maijol
maijon
maijonke
maijos
mail
main
mainic
mainita
mainitah
mainittavu
mainittu
mainitun
maja
majai
majakovskii
majogi
major
majual
majualoin
majuan
majuat
makarov
makarovan
makedounien
maken
makgadikgadi
making
makkonen
makkozenja
maklai
makrelli
makrelliloin
makrellit
maks
maksankarvaine
maksankarvastu
maksankarvazet
maksettih
maksim
maksoi
mal
malabo
malachite
malaizien
malaizii
malaja
malavinke
malaysia
mald
maldiivat
maldiivoin
male
malen
mali
malin
malinavarakan
malinavuaran
malinke
mallii
mallin
mallit
mallnitz
malmi
malta
maltajat
maltajis
maltanuh
maltau
malteta
maltetah
maltettih
malto
maltoi
maltoigo
malttau
maltua
mama
man
managua
manali
manasteri
manasterih
manasterii
manasteril
manasterile
manasterin
manasteris
manaw
manc
mandariinusorzu
mandela
mandelbrot
mandera
mandereh
mandereheh
manderehen
manderehet
manderehil
manderen
manderien
manet
manga
mangan
manganum
manhattu
manif
manikuagan
manilan
mankan
manku
manner
mannerheim
mannheim
manninen
mannu
mansin
mantis
manuahat
manuahin
manuahoin
manuahois
manuahu
manuahua
mao
map
maplandia
maputu
mar
maraldi
marc
marcel
marcello
march
marche
marcial
marco
marconi
marfa
margaret
margarita
mari
maria
marie
marija
marijan
marika
marikse
marilaine
marin
marina
marine
marineris
marino
marinuijah
mario
marja
marjaine
marjat
marjatta
marjoi
marjois
marjua
marjukka
marjuvezi
mark
markan
markianova
markianovan
markirovku
marko
markukagluhanhi
markus
marky
marokko
mars
marsal
marsan
marshall
marsin
marsista
marta
martha
martin
martinovic
martius
martsial
martti
marx
mary
mas
maseru
maskat
mass
massa
massan
massu
master
mastroianni
mat
mateli
matematiekan
matematiekku
matematiekkua
matematikku
matemuatiekan
matemuatiekku
matemuatiekkua
matemuatikku
materialy
materjualan
materjualat
materjualoi
materjualu
materjualua
matfein
mathers
matikku
matikkua
mating
matinvuaru
matisse
matka
matkah
matkailii
matkailijua
matkailu
matkal
matkalta
matkan
matkaopas
matkas
matkaselka
matkat
matku
matkua
matkuau
matkustajan
matkustandu
matkusteli
matrosan
matsuo
matter
matthias
matti
matvei
matvein
mauno
mauri
maurice
mausoleo
mauzolei
mavol
mavon
mavot
mavriki
mavritanii
mavustehennu
mavutoi
max
maximilien
maximum
maxwell
may
maya
mayan
mb
mba
mbeno
mbi
mbia
mbo
mcneil
md
me
mea
meadow
mec
medalii
medalil
medaliloil
medalin
medalit
media
medvedeva
medvez
meen
meenlinna
megiella
meh
mehaniekku
meheva
mehiko
mehila
mehu
mehuaniekku
mehul
mehus
mehuu
meidy
meih
meija
meile
meir
meksiekan
meksikan
meksikku
mel
melanitta
melentjeva
melentjevale
melentjevan
mellic
melline
member
members
memorial
memphis
men
mendelejev
mendelejevan
mendelssohn
mendih
mendy
mendyy
menema
menetetyle
menetti
meni
menna
mennes
mennyh
mennyo
mennyt
mennyzien
meno
mentolua
mer
mercedes
mercury
merdy
mereh
merel
merele
meren
merenke
merenpinnan
merensuomelazien
meres
meret
merfeld
merganser
merge
mergellus
mergus
meri
meriahven
meriahvenet
merialoveh
merihanhi
meriharakku
merikukko
merilaivaston
merilo
merilohi
merimiehet
merimies
meriportu
merirozvo
merisinikorendo
merivies
merja
merjan
merki
merkic
merkii
merkil
merkilo
merkin
merkit
merkita
merkitta
merkitty
merkurius
merops
merry
mes
mespa
met
meta
metallan
metallannu
metallas
metalline
metalloin
metallois
metallu
metallua
meteostansii
metodic
metrii
metrin
metrissa
metro
metropolien
metropolitan
metrua
metsa
metts
metty
mezi
mezquita
mg
mhnt
mi
mia
mic
michael
michel
michelangelo
mickiewicz
micropterus
mida
miehekse
miehele
miehen
miehenny
miehet
miehien
miehil
miehittia
mieldy
mieldykiinnitta
mieleh
mielel
mielen
mieles
mielespietta
mielet
mieleva
mieli
mielih
mielihyva
mielii
mielis
miellyttih
mielytta
mien
mieros
mies
miesty
mifolougien
mifolougies
mifolougii
mifolougizien
mig
miga
migu
mih
mihai
mihail
mihailan
mihailovic
mihailovna
mihtahto
mii
miihkali
miikul
miikulan
miinalan
mika
mikael
mikkeli
mikko
mikluho
mikrobiolougien
mikronezien
miks
miksi
mil
milan
mile
miles
military
milj
miljardua
miljonoin
miljonua
miljoonua
miljounua
milk
mill
miller
millimetrii
millionua
miln
miloradova
milton
min
mina
minda
mine
minerualas
minerualoin
minerualu
minerualua
minerualuainehii
minerualuainehtu
minerualuvien
mini
ministerstvan
ministerstvu
ministran
ministroin
ministru
minnesota
minor
minsk
minsku
minun
minuu
minuutan
minuuttua
mio
mir
miranda
mirandan
mironova
mironovan
mis
misarvo
mishin
misjakku
miss
missa
mission
mistevolliz
misty
mit
mita
mitah
mitchell
miten
mitte
mitterbach
mittuine
mittuizentah
miut
mizeh
mizekse
mizen
mizenny
mizes
mizet
mizien
mizih
mizii
mizis
mjanmar
mjanmaranke
mk
mln
mm
mma
mmi
mmia
mmien
mmih
mmii
mmil
mmin
mmis
mmita
mmiteta
mmitettih
mmitta
mmitys
mmo
mmy
mn
mo
mod
mode
model
modeli
modelin
modelinnu
modern
modernizman
modest
moel
mogadis
moguc
moi
moin
moine
moinke
mois
moizen
moizes
moizet
moizien
moizii
moizil
moizis
moks
molduavien
molibden
molie
molimahes
molitahes
mollei
mollembat
mollembien
mollembil
mollembis
molli
molto
mon
mona
monaco
monako
monakon
monarhii
monarhu
monasteri
monasterin
monasterio
monastery
monde
mondu
moneh
monen
mones
monet
mongolien
mongoulien
mongoulies
mongoulii
moni
monien
monih
monii
monikanzalline
monikon
monil
monile
moniloin
monilois
monis
monivuodehine
monivuodine
monkey
monoftongat
monogruafiet
monrouvii
mons
monster
montaigne
montanus
montbe
montbeliard
monte
montenegronke
montevideo
montreal
montserrat
monuahat
monuments
moon
moore
mor
moralin
mordouvien
mordouvii
mordvakse
mordvalaine
mordvan
more
morfolougii
morgan
morgunov
morits
morning
moro
moroni
morus
mos
mosander
moscow
moscu
moskova
moskovah
moskovan
moskovas
moskovaspa
moskovu
moskva
moskvan
moskvas
mosmetro
mosoblispolkoman
mosque
most
mostu
mot
motacilla
motd
moth
mother
motion
motor
motoran
motoranke
motorvenehis
motosiklan
mount
mountain
mountaindetails
mountains
moved
movement
movie
movies
moz
mozambikan
mozambikanke
mozart
mozartan
mp
mramoran
mramoras
mramorua
mruamoran
mruamoru
mruamorua
ms
mt
mu
mua
muadu
muah
muahpanendan
muahpaniezet
muailmah
muailmal
muailman
muailmanna
muailmanperindo
muailmanvoinan
muailmas
muailmua
muakera
muakse
muakundah
muakundu
muakunnan
muakunnas
muakunnat
mual
mualai
mualattu
mualavuksii
mualavuksis
mualavus
muale
mualoi
mualoih
mualoil
mualoile
mualoin
mualois
muamah
muamal
muaman
muamanke
muamankielel
muamankielen
muamankielenny
muamankieli
muametalloih
muametallu
muamindamin
muamo
muamon
muamygra
muan
muanalaine
muanalazien
muanic
muanitah
muanittih
muanivomiehen
muanivomies
muanke
muankuores
muannonjoki
muanozua
muanpindu
muanpinnan
muanpuolis
muanruadajan
muanruadajat
muanruadajien
muanruadajii
muanruado
muansiirdo
muantiedo
muantiedoilii
muantiijolline
muantiijon
muantutkii
muapera
muapuolis
muarj
muarjan
muarjat
muarjoi
muarjoin
muarjois
muarju
muarjua
muas
muaselgy
muaspa
muassa
muasteri
muat
muatalovuon
muatalovus
muatalovusozaston
muate
muates
muatus
muaveziela
muc
mudua
muga
mugagi
mugah
mugai
mugavundat
mugaz
muhammad
muhorova
muidu
muigei
muijal
muijale
muijalgi
muijien
muikkuine
muinaine
muinas
muinasgriekkalazes
muinaskarjalazien
muinaz
muinazen
muinazet
muinazii
muinazis
muinossaksin
muinossaksis
muis
muistelee
muita
muite
mujehja
mujeja
mujuu
mukaan
mukulakatu
mul
mullonen
mult
muna
munch
mund
munda
mundo
munich
municipal
muniu
munja
munne
muodo
muodoh
muodohizet
muodoine
muodoloi
muodolois
muoduo
muokata
muokattih
muotokuva
mural
murat
murdeh
murdeheh
murdehel
murdehele
murdehen
murdehennu
murdehes
murdehet
murdehien
murdehih
murdehii
murdehil
murdehile
murdehis
murmansk
murmanskah
murmanskan
murmansku
muroman
murreh
murrehpiirrehty
murrehtu
murrekirja
mus
muse
musee
museo
museum
music
musorgskii
mussolini
must
musta
mustakse
mustan
mustang
mustankosken
mustanmeren
mustas
mustat
mustellah
mustelmat
mustenou
mustetah
mustien
mustii
mustikse
mustis
musto
mustoh
mustoitetah
mustoittau
mustokohtu
mustokompleksu
mustokse
mustolaudu
mustomerki
mustomerkii
mustomerkilo
mustomerkit
mustopa
mustopac
mustu
mustua
mustuc
mustujogi
mustukaglu
mustukosken
mustukulku
mustukulkukuikku
mustuleppylindu
mustumado
mustumaduo
mustumavon
mustumeren
mustumeri
mutanen
mute
mutopia
muu
muudu
muudugi
muuja
muuloil
muuloin
muumi
muumilaakson
muumiloin
muumilois
muumimami
muumimuailmas
muuminotkon
muuminotkos
muumipeigoi
muumipeigoin
muumit
muumitalois
muumitata
muumitatan
muun
muur
muuroman
muut
muuta
muutandu
muutettih
muutgi
muutokset
muutoksienke
muutoksii
muutos
muutti
muuttolindu
muuttua
muuttui
muuttujii
muuttunuh
muuttuo
muuttuou
muuttuu
muutui
muutundu
muututah
muututtih
muuzikan
muuzikas
muuzikkah
muuzikko
muuzikku
muuzikkua
muuzikkujoukot
muuzikkukul
muuzikkumies
muuzikkus
muuzikkuteatrah
muuzikkuteatran
muuzikkuteatru
muvakas
muvvon
muvvos
muvvostau
muvvostetah
muvvostettih
muvvostettu
muvvot
muz
muzavan
muzavankeldaine
muzavanruskei
muzavanruskien
muzavanruskiet
muzavanvihandat
muzavanvihandu
muzavu
muzei
muzeih
muzeil
muzeile
muzein
muzeis
muzeit
muziedu
muzieloih
muzien
muzies
muziet
muzikantat
muzikantu
mw
my
myanmar
mygyry
mylla
myn
mynydd
myo
myotis
myrkylline
mys
mystery
myvva
myy
myyn
n
na
naantalin
naar
nabokov
nac
nacht
nacional
nadez
nafarroa
nagano
nagrehet
nagris
nagriskuas
nagristu
nahkan
nahkas
nahku
nahkua
nahkusiibi
nahkusiivet
nai
naine
nairobi
naiset
naissance
naistenja
naiz
naizen
naizet
naizien
naizil
naizile
naizis
naja
nalle
name
namibia
namibii
nan
napalakit
napoleon
napoleonan
nartsissu
naruhito
narva
nasa
nasan
naser
nasirolmolk
nassau
nastu
nat
natalja
national
nationalmuseum
nations
nato
naton
natriedu
natrien
natrii
natsional
natt
natural
nature
naurun
nauticus
navy
nazca
nbg
nc
nchen
nchez
nd
nda
nde
ndehen
ndehet
ndehii
ndekse
ndel
ndele
nden
ndes
ndi
ndia
ndih
ndilo
ndin
ndis
ndo
ndu
ndy
ndyi
ndykohtah
ndykohtan
ndykohtannu
ndykohtat
ndykohtien
ndykohtii
ndykohtu
ndykohtua
ndyo
ndypaikan
ndyperti
ndysoittimet
ndytaba
ndytia
ndytiaine
ndyy
ne
near
neas
nebula
nec
neda
neh
nehet
neic
neidine
neidizile
neilikku
neiskelloine
neisvinogruadan
neisvinogruadu
nekrasov
nekrasovan
nel
nele
nelio
nelja
nella
nelli
nellia
nellih
nellikko
nelliko
nelliseina
nelson
nemina
nemtsov
nen
nena
nenetsan
nenga
nengoine
nengostu
nengozien
nengozii
nenke
neodiimu
neon
nepal
nepalan
nepolnoilla
neptunii
neptunus
nero
nerokas
nerokkahannu
neroloi
neroniekku
nerot
neruo
nervo
nes
nestor
net
neta
netrebko
netta
nettusaitu
network
neuvosto
neva
nevalainen
never
nevesky
nevis
nevostoliiton
nevskoi
nevskoin
nevvoi
nevvonandokomietiettu
nevvosto
nevvostoaijan
nevvostoh
nevvostolaine
nevvostoliitole
nevvostoliiton
nevvostoliitos
nevvostoliitto
nevvostoliittoh
nevvostoliittolaine
nevvostoloin
nevvoston
nevvostoozuttelii
nevvostotazavaldah
nevvostotazavaldu
nevvostotazavallakse
nevvostotazavallan
nevvostotazavallas
nevvostovaldu
nevvostovallan
nevvotah
nevvottih
new
news
newton
newyddion
nez
ng
ngc
ngeria
ngo
ngriba
ngrivan
ngstrump
nhl
nhoido
nhoidoala
nhoidotila
nhoijon
ni
nia
nic
niccolo
nich
nicholas
nicholson
nick
niderl
nieglat
nieglikko
nieglikon
niegloin
nieglu
niekku
niemel
niemen
niemes
niemessah
niemi
niemimua
niemimual
niemimuan
nieminen
nietja
nietzsche
nietzschel
nietzschen
niger
nigeran
nigeranke
nigerien
nigerii
nigeru
night
nightwish
nigiz
nigo
nigra
nigricollis
nihon
nii
niiden
niidy
niilan
niile
niilo
niilois
niilu
niina
niinisella
niis
niistielo
niistiet
niitettih
niitta
niittia
niittylo
niittymarin
nije
nik
nikaragua
nikeda
nikel
nikeli
niken
nikitic
nikitina
nikol
nikola
nikolai
nikolain
nikolajevic
nikolaus
nikolskaja
nikonzu
nikosies
nikosii
nikov
nikui
nikus
nil
nile
nilmija
nilotica
nimeh
nimeke
nimekeh
nimekse
nimel
nimelta
nimen
nimenny
nimes
nimespa
nimet
nimeto
nimetto
nimetty
nimi
nimida
nimie
nimienke
nimih
nimii
nimijoki
nimikkehel
nimil
nimilo
nimine
niminen
nimis
nimisto
nimisty
nimiteta
nimitettih
nimitetty
nimitetys
nimitti
nimittia
nimittumua
nimityksen
nimitykset
nimitys
nimizeh
nimizel
nimizen
nimizes
nimizii
nimoy
nin
nina
ninnetta
ninnineidoi
niobii
niopin
nirvana
nis
nisja
nisjoven
niteh
niva
nivouse
nivouze
nixon
niyhty
niz
nja
njogi
njoki
njoven
nkatsomustieto
nke
nkieldy
nkielen
nkieli
nkielizen
nkosken
nkuadajannu
nkukkaine
nkukkastu
nlahti
nlasku
nlaskufriizakse
nlaskuh
nlaskuhpa
nlaskullis
nlaskumualoin
nlaskun
nlaskuozas
nlaskupuolel
nlaskupuolen
nlaskupuoles
nlaskupuoline
nlaskupuolizes
nlaskurannal
nlaskus
nlaskuvuitis
nmualline
nmuallizel
nmuallizen
nmuan
nmugaine
nmuodozet
nn
nna
nne
nneberga
nneh
nnehistoria
nnehtazon
nnehty
nnena
nneta
nnetta
nnettih
nnetty
nnettyy
nnetynny
nnetyt
nniemi
nno
nnouzu
nnouzuh
nnouzuhpa
nnouzumurdehis
nnouzun
nnouzuozas
nnouzupuoleh
nnouzupuolehpa
nnouzupuolel
nnouzupuolen
nnouzupuoles
nnouzupuoline
nnouzupuolizes
nnouzurannal
nnouzus
nnrot
nnrotan
nny
nnyh
nnykset
nnyo
nnyt
no
nobel
nobelan
nobelin
nobelprize
noeditsection
nogikana
nogiliida
nogisorzu
noi
noidu
noin
noit
nol
nominat
nominatsies
nominiiruittu
nominoin
none
nor
noravank
norbert
nord
norjan
norjas
norju
normaali
normal
norman
norris
north
northern
norviegielaine
norviegien
norviegies
norviegii
norway
nos
nossuh
nosta
nostamah
nostamizekse
nostamizen
nostandua
nostanduruavot
nostattau
nostatti
nostetah
nostettih
nostettu
nosti
nostua
not
notkei
notkies
notko
notkoleppylindu
notoc
notre
noumer
noumeran
noumerat
noumeru
nousee
nousia
nouvelle
nouzendu
nouzi
nouzou
nouzuvien
nova
novaja
novellia
novelloi
novellu
novellua
november
novgorod
novgorodah
novgorodan
novgorodas
novguda
novinka
novinkan
novosibirsk
novvateta
novvetah
now
np
npa
npia
nr
nrannan
nro
ns
nsaamen
nsaami
nster
nta
nter
ntgen
nto
nu
nuaglat
nuaglu
nuestra
nueva
nukkul
nukkulan
nukkuu
numero
nummisuutarit
nunaat
nunaatan
nunaatas
nuokkija
nuoli
nuordu
nuorembannu
nuorembi
nuoren
nuorennu
nuoret
nuorete
nuori
nuorien
nuorienkirjuttai
nuorii
nuorile
nuorin
nuoris
nuorisojulkkikset
nuoriz
nuorteva
nuorus
nuorusaigu
nuoz
nurijev
nurmeksen
nurmekses
nurmes
nurmija
nussu
nvalgien
ny
nyc
nycticorax
nygo
nygyaigaine
nygyaigastu
nygyaigazen
nygyaigazes
nygyaigazet
nygyaigazil
nygyaigazis
nygyaijal
nygyaijas
nygygriekan
nygypa
nygyzen
nygyzes
nyh
nyo
nysassiske
nyt
nz
o
oa
ob
oba
obama
obinon
obrazan
obrazat
obs
observation
observatory
obstruentat
obstruentoin
obstruentu
oc
och
ocr
octavianus
october
octopus
oder
odes
odor
odorovic
odorovna
odva
of
off
office
official
oga
ogg
ogi
ogiz
ogneva
ognevan
ogrodois
ogv
oh
ohel
ohjai
ohjattih
ohjattu
ohjelman
ohjelmu
ohjuajannu
ohjuajat
ohjuajis
ohjuaju
ohjuau
ohm
ohotanmeri
ohtoma
oi
oidu
oigei
oigevukset
oigevuksien
oigevuksii
oigevuon
oigevustieduo
oigie
oigieh
oigiel
oigiele
oigies
oigiet
oih
oihkiz
oihttp
oikea
oikse
oil
oile
oilu
oin
oinja
oinke
ois
oit
oivalline
oivratari
oja
ojah
ojan
ojat
ojazien
ojen
ojien
ojile
ojq
ojua
ok
okanke
okas
okeanii
okkah
okku
okkuc
okkuhanhi
oklan
oklas
oklua
okoluadu
okoluadua
okrugov
oks
oksah
oksakas
oksanen
oksat
oksiidan
oksil
oksis
oksituanakse
oksituanan
oksituanien
oksu
oksuh
okt
ol
ola
olanto
olavi
olavinlinnu
old
oldas
oldih
oldihgo
oldu
ole
oleg
olemas
olemine
olemizen
olemmo
olen
olendas
olendo
olendu
olet
olevu
olga
oli
oligi
olii
oliivuvoi
oliivuvoidu
oliivuvoin
olijah
olijal
olijan
olijas
olijat
olijoi
olijoin
olijois
oliju
olijua
olimpiadukiz
olimpiiskoin
olimpiiskoloin
olimpiiskolois
olis
olive
olkah
olkal
olkan
olkannu
olkas
olkaspa
olkassah
olkat
olku
olkua
olla
ollah
ollahgi
olle
olles
ollou
olluh
ollus
ollut
olmuz
olo
oloi
oloil
oloin
ololois
olopaikku
olor
olos
olotilas
oltarven
oltus
olympic
om
oma
omah
omakse
omakuva
omal
omale
omaluaduine
omamua
oman
omanan
omananke
omannu
omapa
omas
omassah
omat
omattah
omaz
omelin
omendamizes
omendettu
omenduksii
omendustu
omien
omih
omii
omil
omin
ominaz
omis
omissah
omistai
omistau
omistettu
omistettuu
omistetut
omisti
omistukses
omua
on
ona
onat
onbon
once
onda
ondajogeh
ondajogi
ondan
ondarveh
onderei
ondo
ondrei
one
onego
onez
ongi
ongo
onha
oniegan
onieganja
onieganlahten
onieganrannikon
oniegantagavon
onieguja
onieguniemel
oniegurannikon
onigma
onihmanja
onihmanjogi
online
only
onneli
onnelin
onnuako
onov
onovan
ontaja
onua
oo
op
opas
opassundavuosi
opastai
opastajakse
opastajan
opastajannu
opastajat
opastajien
opastamah
opastandu
opastandua
opastannuh
opastetah
opastettih
opastettu
opasti
opastui
opastujannu
opastujat
opastujes
opastujien
opastujii
opastujile
opastujua
opastuksen
opastukset
opastuksih
opastumah
opastummo
opastundan
opastundu
opastundua
opastundukniigua
opastunnuh
opastunnuot
opastuo
opastus
opastuskirjoin
opastuskniigoin
opastuskniigu
opastuskniigua
opastuslaitokset
opastuslaitostu
opastusministerstvu
opastustu
opastutah
opastuttih
opastuu
open
opera
operietan
operiettua
opisto
opiston
opistos
opitah
opittih
oppenheimer
oppi
oppiarvon
oppie
oppiu
option
optional
opus
or
ora
oran
orange
oranz
orapihl
oraskuu
oraskuudu
oraskuul
oraskuun
oraskuus
oravan
oravangriba
oravangrivan
oravat
oravu
oravua
ordenal
ordenan
ordenu
ordz
org
organic
organization
organizatsii
organizmah
organizmoin
organizmua
orgel
oriehat
oriehunakkeli
origin
original
orion
orjien
orjii
orkesterujohtai
orkestran
orkestru
orkestrujohtai
orlovan
orma
oro
oroz
orpikku
ortelius
orthetrum
ortjo
ortodoksi
ortodoksine
ortodoksizen
ortodoksizes
oruz
orwell
orz
os
osa
osainen
osaka
oscar
oskua
oslo
osmii
osoite
ostettih
ostua
osva
ot
ota
otah
otandu
otatko
otava
otavan
otc
otdelenja
otetah
otettavu
otettih
otettihes
otettu
otettuu
other
otja
otlandielaine
otlandien
otlandies
otr
ottajen
ottamah
ottamizen
ottanuh
ottau
ottava
ottavui
ottavuttih
otti
ottihes
otto
ottua
otunnu
ou
ouc
oudor
ouk
oulu
oulun
oulus
ouperan
ouperas
ouperat
ouperu
ouperua
ouperusa
our
ouru
out
outa
outja
outokummun
outokumpu
ouves
ov
ova
ovan
ovat
over
overview
ovin
ovkin
own
oxford
oxyura
oy
oyme
oz
oza
ozah
ozakse
ozan
ozannu
ozanottai
ozanottajannu
ozanottajat
ozas
ozasto
ozastoh
ozastol
ozastole
ozaston
ozastot
ozat
ozavaldivoh
ozavaldivon
ozavaldivos
ozero
ozien
ozii
ozin
ozis
ozittain
ozrua
ozua
ozutahes
ozutannuh
ozutelman
ozutelmas
ozutelmat
ozutelmii
ozutelmis
ozutelmois
ozutelmu
ozutelmua
ozutelmukirjailii
ozuteta
ozutetah
ozutettih
ozutettu
ozuttai
ozuttamah
ozuttau
ozutteli
ozuttelii
ozuttelijakse
ozuttelijan
ozuttelijannu
ozuttelijat
ozuttelijoin
ozuttelijois
ozuttelu
ozuttelun
ozuttelus
ozuttelut
ozutteluu
ozutteluzualat
ozutteluzualu
ozutti
ozuttihes
ozuttua
ozutukses
ozutus
ozutustu
p
pa
paavo
paavola
paavon
pablo
pac
pacher
pada
padah
padahaudazet
padmoja
padua
padun
paganini
page
pagei
pageni
pagin
paginale
paginanpida
paginanveda
paginas
paginat
paginkieles
paginluadolois
paginluadu
paginluaduloin
paginluadulois
paginluaduu
paginluavus
paginois
paginsanakirju
paginsanakirjua
paginua
pagizemah
pagizemmo
pagizi
pagizijoi
pagizijoin
pagizijua
pagizou
pagoh
pagolazien
pagolazis
pagos
paha
pahakse
pahan
pahas
pahasti
pahat
pahoi
pahoin
pahomov
pahomova
pahomovan
pahua
paic
paici
paikallistu
paikallizen
paikallizet
paikallizis
paikan
paikannimilo
paikas
paikja
paikkah
paikkarin
paikkoi
paikkoih
paikku
paikkua
paikois
paikoitellen
paimoi
paimoin
pain
paina
painamah
painandulugumia
painau
painetah
painettih
painettu
painnollizes
paino
painoi
painojuas
painon
painos
painosmia
painting
paintings
painua
painui
paisaje
paista
paistah
paistes
paistih
paistu
paistulois
paistun
paja
pajamo
pajatandas
pajatandu
pajatetah
pajatettih
pajattai
pajattajannu
pajattajat
pajattajua
pajattamah
pajattamas
pajattau
pajatti
pajattua
pajatukset
pajo
pajojoukko
pajojoukkoloin
pajojoukot
pajokogomus
pajoloi
pajoloih
pajoloikse
pajoloin
pajolois
pajon
pajonluadii
pajoperindo
pajopruazniekku
pajopruazniekkua
pajos
pajot
pajotekstoi
paju
pajudez
pajun
pajuo
pajusuon
pajut
pajuu
pakinoilla
pakistuanan
pakistuananke
pakkaine
pakkasc
pakkaskuu
pakkaskuudu
pakkaskuul
pakkaskuun
pakkaskuus
pakkastiaine
pakkastu
pakkasukko
pakkazien
pakkazii
pakutah
pakutuskiz
pal
pala
palaa
palace
palacio
palaine
palan
palau
palazet
palazii
paleontologu
palkattih
palkindo
palkindol
palkindoloin
palkindon
palkindot
palkinduo
palkinnon
palkittih
palkittu
palladii
palloilijat
palloseura
palo
paloi
palua
palustris
pam
pan
panama
panaman
panat
panc
pandajes
pandih
pandu
panemah
pangong
pani
pankrati
pankratjeva
panna
pannah
pannuh
panoksen
panorama
panoramic
panos
pans
panthera
panurus
paolo
papa
papilio
papin
papinkosken
papinnu
papiruskaz
papit
pappi
pappii
papua
papurau
par
parade
paradisae
paradise
paragvai
parahakse
parahan
parahannu
parahat
parahien
parahii
parahis
parahite
paramaribo
parameter
parandajes
parandamizeh
parandamizes
parandau
parandetah
parandi
parandua
paras
paraske
parasken
paraskeva
paraskevan
parastu
pardu
pardutiaine
parem
parembannu
parembi
pariiz
paris
parissa
pariz
park
parkinsonan
parliament
parluamentah
parluamentan
parluamentu
parluamentutazavaldu
paroles
parppeinvuaral
parque
parres
parret
part
partenkirhen
partie
partieh
partien
partitiivan
partituurua
partizanoin
partizuanoin
partizuanu
partn
party
parus
parva
parys
pas
pasolini
pass
passaz
passion
pastetah
pastettih
pastettu
pasteur
pasteuran
pastoksih
pastos
pastua
pastutettih
patentu
patentua
patrakan
patrakka
patriarhan
patriarhu
paul
pauli
paulo
paulus
pavel
paviljon
pavlovic
pdf
pdx
pe
peace
pearl
pec
peck
peda
pedagogic
pedagougizes
pedagougu
pedagouguinstituutas
pedgiz
pedoela
pedoimetta
pedrat
pedrin
pedrinnybly
pedro
pedru
pedrua
pedrun
pehmei
pehmiet
peiboi
peiboit
peite
peiteta
peitoc
peitolline
peitos
peitta
peittonimel
peittonimi
peittyo
peittyy
pekin
pekka
pekkonen
peldo
peldoc
peldoloil
peldoloin
peldoz
pelecanus
pelikuanu
pellon
pelvahan
pelvas
pelvaskangahas
pelvaskangas
pelvastu
pembrokeshirecoast
penelope
pengerel
penguin
penh
peninsula
pentti
penttonen
penziel
penziessa
people
pepper
peppi
pepsinua
per
pera
perca
pereh
pereheh
perehen
perehenke
perehes
perehespa
perehis
perehjoukko
perehty
performance
performed
performer
performing
perhin
peri
peria
perikles
periklesan
perima
perindehellizet
perindo
perindyo
perinpohjaine
periodan
periodas
periodika
periodikan
perita
permikavven
permikomin
permila
permin
perrault
perse
persielaine
persien
persies
personal
persounan
persounu
perspective
persudus
perti
pertih
pertii
pertija
pertilo
pertilomu
pertilomun
pertilomuu
pertin
pertis
pertit
pertja
pertti
perttilampi
perttu
perttunen
perttuzen
peru
perun
perussia
perustai
perustajakse
perustajannu
perustajat
perustajii
perustajis
perustamizeh
perustamizen
perustamizes
perustandu
perustandupa
perustanduvuozi
perustehel
perustehet
perustetah
perustettih
perustettu
perustettuh
perustettuu
perustetun
perustetus
perustetut
perusti
perustieduo
perustua
perustutah
perustuu
perusva
peruszakonan
pes
peski
peskuc
pesonen
pesta
peter
petersburg
petit
petri
petropress
petroskoi
petroskoih
petroskoil
petroskoile
petroskoin
petroskois
petroskoispa
petroskoissah
petrov
petrovic
petrovna
petrovnan
petrovskin
petrovskoi
petrovskoin
petrozavodsk
petta
petties
petyksenke
peza
pezia
pezii
pezindy
pezis
peziy
pezoittuu
pezoitu
pezoitundu
pezoitutah
pezomas
pfarrkirche
pfennig
pfg
phacochoerus
phalacrocorax
philadelphia
philippines
philomelos
phnom
phobos
phoenicurus
phoenix
photo
php
physical
pi
pia
pianistu
piano
pianon
pica
picasso
picoides
picus
pid
pida
pidi
pidia
piduhus
piduhusria
piduhuttu
pidulic
piduzin
pie
piece
pieces
pied
piekseta
pielizen
pieluksen
pienda
piendy
pieneh
pienehko
pienel
pienemba
pienembi
pienembia
pienembii
pienen
pienenda
pienenny
pienes
pienet
pieni
pienien
pienih
pienii
pienikazvoine
pienil
pienile
pienimis
pienin
pienis
pienoiskuva
pienosromaani
pier
pieris
pierre
pieta
pietari
pietarin
pietila
pietta
piettih
pietty
piettylo
pietyl
pietyn
piha
pihah
pihal
pihale
pihapia
pihas
pihat
pihku
pihkua
pihl
pihoin
pihua
pii
piic
piidy
piigalnic
piihtet
piirai
piirda
piirdehet
piirdehii
piiri
piirien
piirih
piirii
piirikunnan
piiril
piirilo
piirin
piirinke
piiris
piirit
piirra
piirrettylo
piiruadu
piirualoin
piiteri
piiterih
piiterila
piiterin
piiteris
piiterispa
piitimensaami
pikc
pikkaraine
pikkarastu
pikku
pikkuc
pikkujouc
pikkuliida
pikkutelky
pikoi
pil
pila
pilaris
pilvez
pimenov
pimiec
pimien
pimies
pin
pindu
pindua
pinduala
pindualan
pindualas
pindualaspa
pindualua
pindus
pinnal
pinnale
pinnan
pippi
piptoporus
piramidu
piran
pirenei
pirkko
pirtti
piruw
piscovois
pistoja
pita
pitka
pitkemba
pitkembi
pitkevys
pitkia
pitkii
pitkin
pitky
pitkyja
pitkyrandu
pitkyrannan
pittsburgh
pivot
piz
pjer
pjongjang
pk
pl
pla
place
placebo
placebon
places
plains
plan
planet
planetary
plang
planietan
planiettoin
planiettu
planiruic
plank
plankan
plastiekas
plastiekku
plastine
plata
platinu
platinua
plato
platon
platonan
play
player
playing
plaza
please
plenah
plita
plital
ploceus
plotin
plotina
plotinan
plotinat
plotinoin
plotinua
plotinvezisto
pluanan
pluat
plus
plutonii
pm
pn
png
po
poc
podgorica
podiceps
podporoz
poe
poecile
poen
poet
pogostan
pogostu
pohjaine
pohjaizes
pohjakse
pohjal
pohjale
pohjan
pohjanmeren
pohjanmeri
pohjanmua
pohjanmuan
pohjannahkusiibi
pohjannu
pohjas
pohjasalasaksis
pohjasgermanine
pohjaskarjalazet
pohjasmua
pohjasmurdehis
pohjasozas
pohjaspia
pohjaspuolel
pohjasrandu
pohjasrannal
pohjasrannikol
pohjasrannikon
pohjassaami
pohjastu
pohjavuu
pohjazeh
pohjazel
pohjazembil
pohjazen
pohjazes
pohjazespa
pohjazet
pohjazien
pohjazil
pohjazin
pohjazis
pohjoinen
pohjois
pohjolan
pohjozespa
pohju
pohjua
pohjuau
poigah
poigastu
poigazet
poigazien
poigazii
poigoveh
poigu
poigua
poijale
poijan
poijat
poikelusja
poikkevus
poikki
point
poison
poko
pokoiniekan
pokrovan
pokrovu
pol
polar
police
poliitiekalline
poliitiekan
poliitiekas
poliitiekku
poliitikku
poliittine
poliittistu
poliittizen
poliittizet
poliittizii
poliittizis
polinezies
polis
polish
politica
politiekan
politiekku
polkienpia
polkovniekku
polo
polon
polonia
polonii
polovina
pols
poltettih
poltettu
poltoaineh
poly
polyphon
pompotti
pon
pond
pone
pont
pontus
pop
popeda
popov
popova
popul
popular
population
por
poraja
pordahat
pordahien
pordahil
pori
porkka
poros
porsche
port
portal
portas
portat
porthan
portland
porto
portrait
portu
portugal
portugaliekse
portugalien
portugalies
portugalii
portugalilaine
porvoo
porzana
pos
posadaspa
poselenieh
poselenien
poselenies
poselenii
position
poslu
posol
post
poster
postojanov
pot
potapova
potas
potd
potkuriloil
potkuriloin
potkurit
poudiumale
poudiuman
pour
poventsa
poventsan
power
pp
ppa
ppia
ppo
ppy
ppyine
ppytiaine
pr
prades
praga
prague
praha
praja
prapors
pravda
pravoslavnoi
pravoslavnoih
pravoslavnoin
pravoslavnoit
pravoslavnoloi
pravoslavnoloil
pravosluavii
pravosluavizii
pravosluavnoi
pravosluavnoin
prazeodiimu
predtec
premiehet
prens
preobraz
preservation
president
presidential
presley
presleyn
press
pretourii
prey
prezensas
prezidentakse
prezidentan
prezidentannu
prezidentat
prezidentu
prezidiuman
pria
pride
prihodah
prihodu
prilukin
prilukinan
prima
prince
prinsippu
prinsippua
priozersk
pris
pristani
pro
probliemalline
probliemat
probliemoi
procentua
processu
prod
produktivnoi
professional
professor
professorakse
professorannu
professoru
programma
programman
programmas
programmat
programmes
project
projekt
projektah
projektan
projektat
projektoin
projektu
projektua
prokkonen
prokudin
prometii
promised
proosa
prorokku
pros
prospect
prostoi
prostoit
protaktinii
proteinua
protest
proust
proustan
prouzu
prouzua
provence
prp
pruazniekan
pruazniekannu
pruazniekat
pruazniekkoi
pruazniekku
pruazniekkua
pruazniekkupa
pruazniekoin
pruaznuijah
prussien
prz
ps
psa
psaltiri
pseudonyms
psy
pt
pu
puadanen
puadenel
puadenen
puadja
puaksuh
puaksumbah
puaksumbi
pualikku
puan
puanaja
puarakkai
puaran
puarat
puaru
puarua
puavilan
pub
public
publications
publisher
publishing
puc
pudoz
puerto
puesta
puffinus
puglja
pugnax
puhdistus
puhtahan
puhtahas
puhtas
puhtasja
puhtastu
puhundusoittimet
puhundusoittimien
puistossa
pul
pula
pull
pulling
pulloja
pun
punaine
punakantele
punalippu
punk
punkaharju
punotalttu
puoldu
puoleh
puolekkai
puolekse
puolel
puolele
puolen
puolenke
puoles
puolespa
puolet
puoli
puolii
puolijygies
puolil
puolimetallu
puolipitka
puolis
puolistai
puolistamah
puolistau
puolisti
puolistus
puolitostu
puoliva
puoloveheh
puolovehen
puolovehes
puolovehet
puppets
purgulinnut
puristetah
purpurea
pus
pusilla
pussitiaine
put
putin
putkozero
puu
puuc
puudogan
puudogaspa
puudogassah
puudogu
puudu
puuh
puuhine
puuhistu
puuhizen
puuhizien
puuistutukset
puukabuoju
puukari
puukirikko
puul
puuloi
puuloih
puuloil
puuloin
puulois
puun
puunandimet
puunandimien
puunandimis
puunandin
puupiirrostaidoilii
puus
puusepa
puustin
puusto
puustoh
puustolois
puut
puutevolliz
puuttuu
puutui
puutuigi
puututah
puututtih
puzzle
px
py
pyha
pyhia
pyhien
pyhitettih
pyhitta
pyo
pyre
pyrrhula
pyrsto
pystytettih
pyvva
pyvveta
pyvvettih
pyy
pyyda
pyydia
pyykko
pyyn
pyyt
pyzyi
pyzyta
pyzyy
q
qeqertarsuaq
qu
quant
que
quebec
qui
quijote
quijoten
quincy
quito
r
ra
raadivo
raadivon
raadivos
raappanan
rac
racine
radien
radii
radio
radioaktiivine
radioaktiivizet
radivon
radivotehniekan
radonica
radunica
rafael
raffael
raffaello
ragnozero
ragoloih
rahavahan
rahvahal
rahvahale
rahvahalline
rahvahallistu
rahvahallizen
rahvahan
rahvahanarmii
rahvahankeskeizen
rahvahanluvun
rahvahanmuuzikas
rahvahanopistos
rahvahanrunohuon
rahvahanrunohuttu
rahvahantazavaldu
rahvahanvaldu
rahvahanvallan
rahvahas
rahvahat
rahvahien
rahvahienkeskine
rahvahienva
rahvahii
rahvahil
rahvahile
rahvahis
rahvas
rahvaslugu
rahvastu
raija
railway
rain
rainbow
rainer
rainio
raisa
raivola
raja
rajakarjalastu
rajal
rajan
rajannu
rajanvardoic
rajassah
rajat
rajoi
rajoin
rajoittuu
rajoitukset
rajoitutah
rajoituu
rajonan
rajua
rakas
rakendamah
rakendamine
rakendamizen
rakendamizes
rakendeh
rakendettih
rakendettu
rakendi
rakendua
rakendukseh
rakendukset
rakenduksii
rakendus
rakendustu
rakennuksen
rakennus
rakkahal
rakkaus
ralfr
ramone
ramonen
ramones
ramonesah
ramonesan
ramonesheaven
ramoniac
ramsey
ramzai
randa
randoi
randu
randua
randumuat
randupiha
randuviivan
range
rannal
rannale
rannalla
rannan
rannas
rannaspa
rannat
rannikko
rannikkuo
rannikol
rannikon
rannikos
rannoil
rannoile
ranta
raosta
rap
rapakko
rappiolla
ras
rasmus
rassalis
rassalizet
rastavakse
rastavan
rastavua
ratoi
rattahile
raudu
raudua
raududorogal
raududorogan
raududorogu
raududorogua
raududoroguazemu
raududorogustancien
raududorogustancii
raududorogustansiel
raududorogustansien
raududorogustansii
rauduheina
rauduheiny
raudutie
raudutieazemu
raudutiedy
raudutien
rauhan
rauhansobimuksen
rauhansobimus
rauhas
rauhoitettu
rauhoittumizeh
rauhu
rauhua
rauhusobimuksen
raumakse
rauman
rauno
rauskat
rautio
raution
ravei
ravel
ravieh
ravvan
ravvas
raw
ray
razumov
razvaine
razvatoi
razvua
razvumia
rb
rba
rc
rdy
re
reader
ready
reagan
real
realizmua
reboi
reboin
rebol
recherche
reconst
recorded
records
rect
red
redaktor
redaktorannu
redkie
reduhine
reflection
reformu
region
registriiruittu
reguliiruijah
regyzii
reh
reihan
reijo
reina
reinin
reitti
rekisterikeskus
rekluamah
rekluamas
rekords
rektoru
rel
relation
release
religious
rembrandt
rembrandtan
rems
ren
renaissance
rene
renessansan
renessansuaijan
rengahien
rengas
renii
renoir
repertuarah
repressielo
republic
republika
required
rerih
rerihan
res
reserva
reserve
resolution
resources
respubliki
restored
resuic
ret
reunas
reunat
reunoil
reunois
reunumeri
reveals
review
revinnyh
revol
revolution
revytty
rez
rf
rga
rgb
rgei
rgevima
rgevimii
rgevimis
rgevin
rgi
rgiekse
rgielo
rgienny
rgiet
rgii
rgija
rgikaloin
rgilahti
rgo
rgy
rgylindu
rhi
rho
ri
ria
riainehii
ribinskan
ric
rica
ricardo
rich
richard
richards
richie
rico
ride
rie
riehtil
riehtila
rien
riga
right
rih
rii
riic
riihis
riijan
riikka
riimah
riimalaine
riimalazet
riiman
riimas
riimu
riimua
riippuu
riipus
riista
rijad
rijn
rika
rikan
rikas
rikastu
rikin
rikka
rikki
rikkihttp
rikkii
rikku
ril
rile
rilleh
rilo
rimallii
rimbaud
rimski
rimskii
rin
rindu
rine
ring
rinnakkai
rinnal
rinnale
rinnalolijat
rinne
rio
riparia
rippui
rippujen
rippumattah
rippuu
ripustinturvupielukset
ris
risa
rise
risevoitus
ristannostandu
ristija
ristikanzah
ristikanzal
ristikanzale
ristikanzan
ristikanzannu
ristikanzas
ristikanzat
ristikanzoi
ristikanzoih
ristikanzoil
ristikanzoile
ristikanzoin
ristikanzois
ristikanzu
ristikanzua
ristikanzuo
ristima
ristin
ristioja
risto
ristu
ristusorzu
risty
risunkat
rit
rita
rite
ritella
riteta
ritettih
ritila
ritmu
rito
ritualois
ritva
ritvala
riukiukielet
riukiusuaril
riuttalampi
river
rivis
riz
rizet
rizii
rja
rjesta
rjestelma
rjesti
rjesto
rjestyksen
rjestykses
rjj
rk
rka
rketta
rki
rkka
rko
rkperiodika
rm
rma
rn
rnberg
rnste
ro
road
robert
roberts
robespierre
robin
robinson
rock
rocket
rod
rodari
rodei
rodieu
rodih
rodihes
rodihgi
rodii
rodiihes
rodinja
rodinuhes
rodivui
rodivundan
rodivundu
rodivunnuh
rodivunnuot
rodivutah
rodnina
rodninan
rodos
rodosal
rodosan
rodu
rodukundah
rodukundua
rodukunnan
roduu
roduz
roger
rohtang
rohtukazvi
rohtukazvinnu
rohtuvalerjuanu
rohtuvoikukku
rohtuvoikukkua
roi
roih
roihes
roindas
roindu
roindua
roindukyla
roindumuale
roindumuannu
roindupa
roinduperia
roinnuh
roinnuhes
roita
roitah
roitahes
roittih
roittihes
roittu
rok
rokac
rokjoukon
rokkua
roll
rollan
rolling
rollling
roma
roman
romanov
romanovan
romanovic
romanovoin
romantiekan
romantiekku
romuanan
romuanas
romuanat
romuanizet
romuanoi
romuanu
romuanua
romuanukirjuttai
ron
ronald
ronja
roof
room
roosevelt
rose
roseus
ross
rossii
rossija
rossini
rostock
rotating
rotterdam
rottien
rouge
rouli
roulii
rouliloi
roulilois
roulin
roulis
roulit
rouno
routan
rouzovien
rouzovoi
rouzovoin
rouzovoit
rouzu
rover
rovio
rovion
rovira
rovun
rovus
roya
royal
roz
roza
rozo
rppa
rquez
rr
rresto
rris
rs
rspb
rta
rthk
rtin
rtsila
rttina
ru
rua
ruadai
ruadajan
ruadajannu
ruadajat
ruadajes
ruadajien
ruadajih
ruadajii
ruadajua
ruadamah
ruadanuh
ruadas
ruadau
ruadivon
ruadivotehniekky
ruado
ruadobruja
ruadodovaris
ruadoh
ruadoi
ruadoigi
ruadojoukkoh
ruadokommunnan
ruadoloi
ruadoloih
ruadoloin
ruadolois
ruadopos
ruadotuloksil
ruadua
ruaduo
ruahto
ruahton
ruahtuo
ruanda
ruandan
ruandanke
ruandas
ruandu
ruanittu
ruatah
ruattih
ruavokse
ruavon
ruavonnu
ruavos
ruavospa
ruavot
rubei
rubens
rubidii
rubiet
rubieu
rubis
rubl
rubs
ruc
rudis
rudolf
rudua
ruficollis
rugaja
rugarven
rugojev
rugojevan
ruho
ruhon
ruhtinas
ruhtinaskundu
ruiga
ruis
ruiskukku
ruiskukkua
ruislinduhttp
ruistu
ruiz
rul
rum
rumani
rumat
rumi
rumiinien
rumiinienke
rumiinii
run
runeberg
rungan
rungo
rungon
rungu
rungua
runguo
runo
runoelmu
runohuon
runohuos
runohus
runohuttu
runoi
runoilan
runoilii
runoilijan
runoilijannu
runoilijat
runoilijoin
runoilijois
runoilijua
runoja
runokera
runokia
runokniigat
runokniigu
runokniigua
runokogomukset
runokogomus
runokyla
runoloi
runoloih
runoloin
runolois
runon
runoniekku
runonlaulajan
runonpajattai
runonpajattajan
runonpajattajat
runonpajattajien
runot
runous
runoutta
runs
runuo
ruoc
ruogoja
ruokataloudesta
ruokia
ruokoja
ruokolampi
ruokos
ruozmesorzu
ruppijeva
rus
rusia
ruskeala
ruskealan
ruskealas
ruskei
ruskeijalguvigli
ruskeikagluhanhi
ruskeikottaraine
ruskeikulkukuikku
ruskeimeri
ruskiedu
ruskieh
ruskiekse
ruskieloin
ruskien
ruskiet
ruskiettavat
ruspakko
russia
russian
rustica
rutenii
ruth
ruttoh
ruuhes
ruumissaatto
ruutat
ruvennuh
ruveta
ruvetah
ruvettih
rv
rveh
rvehpa
rvel
rvela
rvele
rvelpa
rvelta
rven
rvenke
rvenlahten
rvenoja
rvenojan
rventaguine
rventaguzen
rves
rvespa
rvessa
rvessah
rvet
rvi
rvie
rvien
rvilo
rvirudua
ry
rykosken
ryn
ryz
s
sa
saa
saamelaine
saamelazien
saamen
saamilaine
saara
saaran
saarija
sabah
sada
sadoi
sadua
saduloih
saduloin
sadulois
safka
safle
sagarvo
sagarvol
sagei
sah
sahalinan
sai
sailo
saima
saimaa
saimaalta
saimmo
saint
saital
saitu
sakari
saksis
saksofonu
saksonalaine
sal
salar
salavat
salbavon
saldatan
saldatat
saldatoin
saldattoi
saldattoile
saldattoin
saldattua
salix
sallinen
salmen
salmennis
salmes
salmi
salmie
salmin
salmis
salmozero
salon
salonja
salt
saluattoih
salvador
salvatore
salvattih
salvattu
salvettu
salzburg
sam
sama
samah
samaine
samal
saman
samannimine
samannimizeh
samannimizel
samannimizen
samannimizes
samannu
samarii
samas
samat
samazen
sammal
sammatuksen
sammon
samoa
samoi
samoih
samojedi
samojedikielien
samojedilaine
sample
sampo
samua
samuel
san
sana
sanah
sanakirja
sanakirjan
sanakirjas
sanakirjat
sanakirju
sanakirjua
sanakirjutuksen
sanakirjutus
sanakirjutussistiemoi
sanakniigan
sanakniigu
sanakniigua
sanal
sanalipas
sanan
sananlaskut
sananloppuine
sananpia
sananpolved
sananpolvet
sananpolvie
sananpolviloi
sanas
sanaspa
sanasto
sanaston
sanastuo
sanat
sanatourii
sand
sandalja
sandro
sandvicensis
sanelendat
saneli
sanelii
sanellah
sanelou
saneltu
sanfourche
sangei
sankt
sanna
sanni
sanoi
sanoih
sanoil
sanoin
sanois
sanojen
sanomah
sanomat
sanommo
sanondua
sanotah
sanottih
sanottu
sanotus
sanotut
sanou
sant
santa
santi
santimetrii
santimetrin
santjago
santo
santorin
santtu
santuario
sanua
sanuo
sanzio
sappitaudiloih
sapporo
sarajevo
sarjan
sarjas
sarjic
sarju
sarjua
sarjukoomiksoi
sarjukoomiksu
sarjukoomiksupiirda
sarvet
sarvi
sass
sat
satamapuisto
satan
satellite
sattuma
satuja
saturday
saturnus
saudi
save
saveljev
saveljeva
saves
savi
savin
savo
savon
savonlinna
savonlinnan
savonlinnu
savos
savus
savustettu
savvatii
says
sbah
sbornikka
sbpgt
sc
sca
scan
sche
scheele
schjerfbeck
schloss
schlossgarten
school
schrievwies
schrijft
schrijven
schro
schubert
schumann
schweppe
schwetzingen
sci
science
sciences
scotland
scott
scottish
screen
se
sea
seaborg
seal
seals
seattle
sebastian
sec
second
section
sedan
sedov
sedovan
see
seemila
seesja
segamec
segasulateh
segez
segi
sego
segovia
seic
seikkailut
seina
seinis
seis
seitenschiff
seizoi
seizou
seka
sekretari
sekretarikse
sekretarinnu
sekundas
sel
selen
self
selgi
selgia
selgieh
selgih
selgy
selite
sella
sellin
sellis
sellita
sellitetty
sellitta
sellitti
sellittia
selma
selskab
sem
semakova
semc
seminuaran
seminuarien
seminuaries
semmite
sen
senda
senegalan
senegalanke
senegalu
senekse
senet
senna
sent
senta
sentii
sentissa
senuatan
sepa
seppo
seppy
september
serbien
serbienke
sergei
sergien
series
sermeq
serrator
service
sessions
seta
seukun
seul
seura
seurah
seuran
seuras
seurat
seuroih
seuru
seven
sevets
sevilla
sevoitetah
sevoittajes
sex
sez
sezo
sfnt
sgi
shah
shakespeare
shakespearen
shams
shark
sharon
shaw
sheehan
sheet
shelley
shinjuku
ship
shiraz
shit
short
shot
show
shtml
shtmlhttp
si
sia
sibeliuksen
sibelius
siberia
siberih
siberin
siberis
sibilantu
sibirien
sibiries
sibiris
siborg
sic
sida
siddhartha
siddharthan
sides
sidnei
sidney
sidorov
sie
siebr
siegi
sieklahti
sieksi
sielun
siemendy
siemenet
siemenii
siemenil
siemenis
siempre
sienen
sienes
sienet
sieni
sienien
sienis
siepa
sierra
siga
signs
sih
siibien
siibilo
siidy
siigu
siigua
siilinja
siinas
siinu
siinua
siirda
siirdia
siirdo
siirdotavat
siirdyi
siirdyma
siirdymymetallu
siirdynyh
siirdyo
siirdyy
siiric
siirreta
siirrettih
siirryttih
siivet
sija
sijah
sijahine
sijahizekse
sijahizennu
sijaic
sijaitah
sijal
sijale
sijallizet
sijan
sijas
sijoic
sijoitannuhes
sijoitetah
sijoitettih
sijoitettihes
sijoittihes
sijoittui
sijoittuu
sijoitui
sijoitunnuh
sijoitunnuhes
sijoitutah
sijua
sikorskii
sikse
sil
silaigua
sildoi
sildu
sildua
sile
silei
siliet
silindraine
silindrumuvvoine
silla
sille
silloi
sillozen
silma
silmu
silmy
silmykaivo
silmykaivon
sime
simfouniiorkestran
simfouniiorkestru
simon
simvolu
sin
sina
sinamuksenja
since
sinfounii
singapore
singer
singlat
single
singlet
sings
sinikka
sinikodvazen
sinina
sinine
sinisalo
sinisalon
sinisty
sinitiaine
sinitskaja
sinizen
sinizet
sinne
sinstituutti
sint
sinuhe
sinule
sinun
sinuu
siprage
sir
sirienke
sirii
sirkka
sisa
sissa
sistiemallizen
sistiemallizes
sistieman
sistiemas
sistiemu
sit
sita
site
sitkei
sitpa
sitt
sivistysseura
sivistysseuran
sivistysseuru
sivotah
sivottu
sivu
sivujogi
sivujoukkoh
sivujoukon
sivul
sivuloil
sivuloin
sivusto
sivustol
sivut
sivuu
six
siza
size
sj
sja
sjo
sk
ska
skaja
skan
skandinaavien
skandinavien
skandinavies
skandinuavien
skandinuavies
skandium
skansen
skansenan
skansenas
skela
skeptitsizman
ski
skiettih
skii
skirjan
sko
skoi
skoin
skopje
skovoroda
skripkan
skrivt
skryven
skryvwyse
sks
sky
skyhaldivoic
skyla
skyline
skyn
skys
skyy
skłodowska
sl
slam
slav
slavmo
sleepers
sleepy
sliuhkat
sliuhkoi
sliuhkois
sliuhkua
slona
slonan
slovakien
slovakienke
slovakii
slovenia
slovenien
slovenienke
slow
sluavilaine
sluuz
sm
small
sminaic
smirnov
smirnova
smith
smolenskan
smolenskoin
smotrova
sms
sn
snimaic
snow
snt
so
sobien
sobienpezomas
sobih
sobii
sobimuksen
sobimukset
soboru
soc
social
socialistizen
society
sofi
sofia
sofokles
sogiet
sohjanankoski
soinnittomus
soitandas
soitandua
soitetah
soitettih
soitin
soitindu
soittai
soittajat
soittajien
soittajua
soittamah
soittanuh
soittau
soittavu
soitti
soittimet
soittimien
soittimii
soittimil
soitto
soittua
sokolov
sokratan
sol
solar
solo
solomennoin
solomonan
soloveckoin
solovei
solovetskoi
solovetskoin
solun
soluseina
somali
somalin
somateria
something
sommelo
son
sonata
song
sonorantat
sony
sorani
sordavala
sordavalan
soria
sorly
sormien
sorokan
sorokku
sorsa
sortaval
sortavala
sortavalah
sortavalan
sortavalas
sortavalaspa
sortavalassah
sorzien
sorzu
sosialistine
sosialistizen
soskuanjoven
sosnouc
sosnovets
sosnovetsan
sossusvlei
sostuavi
sotsialistizen
sotsiolougu
sotsiualline
sotsiualudemokruatizen
souhozu
soussih
south
southern
sovat
sovetskoin
sovhouzan
sp
spa
space
spacex
spanish
spaso
spatula
spb
speaking
speaks
specialistu
specified
speedway
spein
spektakli
spektaklii
spektakliloi
spektaklilois
spektaklis
spektaklit
spetsial
spider
spinning
spiral
spisok
spit
spiti
sportan
sportas
sportu
sportua
sportukarjieran
sportukarjieru
sportulaji
sportumal
sportumatkailuh
sportumiehet
sportumies
sportumuasteri
sportus
sportutansilois
spotted
sprintan
sprintas
sps
spuasan
spumans
sputnik
square
sr
sravvas
srednjoilla
sri
sroic
srojindah
srojindu
srojittih
srojittu
srojittuloi
sruado
sruavon
sruugu
ss
ssa
ssah
ssyh
ssyo
st
sta
stabilized
stack
stadium
stage
stalin
stalinale
stalinan
stancii
standard
stanislav
stanislavskoin
stanley
stansiel
stansii
star
starije
starinan
starinat
starinoi
starinoin
starinois
starinua
stars
state
states
statfin
station
statistiekat
statue
stdavids
steam
steel
stellata
stepan
stepanov
stepanova
stepanovan
stephen
sterdetektiven
sterna
sternula
steta
stettih
stetty
stettylo
stetyt
steve
steven
sti
stia
stift
stiftskirche
stih
stiil
stiilin
stil
stin
stit
stl
stockholm
stoikal
stoikku
stokan
stokgol
stola
stolakiz
stolal
stolat
stolbovan
stone
stones
storm
story
strasser
strauss
stravinski
stravinskii
stravinskin
street
streets
string
stroic
stroncii
strugatskii
struktuuran
sts
stsci
stsenaariet
stuart
stuatusan
stuatussu
stuatussua
stuatusu
studio
studioal
study
stuudies
stuudiial
stuulat
stuulu
sty
styksen
style
styo
stys
stysela
su
sua
suadavu
suadih
suadu
suaduu
suaha
suahah
suahili
suai
suaja
suajah
suajakse
suaju
suamizekse
suamizen
suan
suandu
suandukohtat
suannuh
suannuon
suannus
suannuzien
suanuh
suardu
suareh
suarel
suarele
suaren
suares
suaret
suari
suarien
suarih
suarija
suaril
suariloi
suariloil
suariloile
suariloin
suariloinke
suarilois
suarima
suarin
suaris
suaristo
suaristoh
suariston
suaristos
suaristuo
suarivaldivo
suarivaldivon
suarna
suarnas
suarnat
suarnoi
suarnoin
suarnois
suarnoja
suarnu
suarnua
suarnukera
suarnulinnu
suarnuromuanu
suas
suat
suate
suattau
suau
suavutukset
suavutuksien
suavutuksis
substantiivat
subway
such
sud
suda
sudan
sudanan
sudananke
sueckoin
sugu
suguh
sugunimen
sugunimi
sugupolven
sugupolvi
sugupolvile
sugupuolen
sugupuolielimet
sugupuolielimien
suguu
suisar
suistamo
suistamol
suistamon
suistamonja
suistamos
sujoittuu
sukkaja
sukre
sukset
suksi
suksien
suksii
suksil
suksis
sul
sulakuu
sulakuudu
sulakuul
sulakuun
sulakuus
sulatah
sulatettavu
sulattamizen
sulattua
sulatut
sulau
sulavuu
sullat
sulo
sum
suma
sumaja
sumajogi
suman
summer
sumposadan
sumski
sun
suna
sundsvall
sung
sungan
sunlight
sunrise
sunset
suo
suodu
suodunuot
suohizii
suoja
suojatah
suojoven
suojuau
suokurmoi
suolal
suolan
suolat
suolatah
suolatoivezine
suolattoman
suolattomas
suoloi
suoloil
suoloin
suolu
suolua
suolusma
suom
suomalaine
suomalainen
suomalais
suomalaisen
suomeh
suomekse
suomeksi
suomelaine
suomelaizeh
suomelas
suomelastu
suomelasugrilazien
suomelazeh
suomelazen
suomelazes
suomelazet
suomelazien
suomelazii
suomelazil
suomelazile
suomelazis
suomele
suomen
suomengi
suomenke
suomenkieline
suomenkielizen
suomenkielizes
suomenkielizii
suomenlahten
suomenluonto
suomenruoc
suomentanut
suomes
suomesgi
suomespa
suomessa
suomi
suomie
suomuksis
suomussalmen
suorah
suosittu
suovattu
sur
surface
surikov
surinam
surku
surman
survey
susan
susiedat
susiedoinnu
susiedualovehinnu
susiedumuat
suu
suudittih
suudo
suudu
suuh
suul
suulline
suullizennu
suulu
suun
suundah
suundavuu
suunuja
suunujogi
suunujoven
suur
suurdu
suureh
suurehko
suurekse
suurel
suurembah
suurembakse
suuremban
suurembas
suurembat
suurembi
suurembii
suurembis
suurembua
suuren
suurennu
suures
suuret
suuri
suuric
suurien
suurih
suurii
suurija
suurikoskelo
suurikoskelol
suuril
suurilois
suuriman
suurimannu
suurimas
suurimat
suurimbat
suurimbih
suurimbis
suurimii
suurimis
suurimmat
suurin
suuriruhtinaskundu
suuriruhtinaskunnan
suuris
suuriussuyo
suurlahten
suurlahtenja
suurlahtespa
suuruon
suurus
suus
suutkis
suuttuu
suvaic
suvaijah
suvaimah
suvainnuh
suvaittih
suvastustu
suveh
suvehpa
suvenkoskelo
suvenlammas
suvenpuukabuoju
suves
suvespa
suvi
suviafriekkalaine
suvialovehil
suvikarjala
suvikarjalakse
suvikarjalan
suvikarjalas
suvimanner
suvimurdehien
suvine
suviozah
suviozas
suvipiirilo
suvipuolel
suvipuoles
suvipuoli
suvipuoline
suvirandu
suvirannal
suvirannan
suvirannikol
suvisaami
suvizen
suvizes
suvizin
suvorov
suvorovan
suvun
suvuspa
suvvon
suvvos
suðurland
sv
sva
sverdlovan
svetlana
svg
sviiz
svirskoin
svuad
swallow
swan
swansea
sweet
swift
syda
sygyzy
sygyzyl
sygyzyn
sygyzys
syksyn
symphony
synagogue
syncerus
synda
syndy
syndyy
synnynrannan
syntax
synty
syo
syomizet
syrja
syskyja
system
sytivierma
syva
syvevyo
syvia
syvin
syvva
syvves
syvyo
syvys
syvyshehku
syvyshehkua
syvyskuu
syvyskuudu
syvyskuul
syvyskuun
syvyskuus
syvyskuussah
syy
syylo
syynny
t
ta
taba
tabah
table
taboi
tabua
tac
tachybaptus
tadorna
tadtan
tadz
taga
tagaka
tagan
tagaperin
tagua
taguo
tah
tahko
tahnut
tahtahah
tahtahas
tahto
tahtoi
tahton
tahtonet
tahtotah
tahtottaneh
tahtottih
tahtou
tai
taidehen
taidehmualari
taidehmualuajis
taidehmualuaju
taido
taidoilii
taidoilijan
taidoilijannu
taidoilijoin
taidoloi
taidomualuaju
taidos
taiduo
taigin
taijon
taikurin
tailandan
tailed
taipei
taivahah
taivahan
taivahankarvaine
taival
taivan
taivas
taiwan
takala
take
taket
tal
talkun
talkunua
tallele
tallendai
tallendetah
tallendettih
tallendettu
tallii
tallinn
tallinnan
talo
talohus
taloi
taloidu
taloih
taloile
taloin
talois
taloispa
taloit
taloloi
taloloin
talolois
talovehellizen
talovuon
talovus
talovustiijon
talttu
talvehtitah
talvehtiu
talvekse
talvel
talvela
talven
talvet
talvi
talvidvorc
talvie
talvikirikko
talvikiz
talvikuu
talvikuudu
talvikuul
talvikuun
talvikuus
talvilindu
talvioja
talviojan
talviolimpiadukiz
talvisovan
talvisovat
talvivoinan
talvivoinu
tam
tamara
tambic
tammi
tampere
tampereen
tan
tanan
tankua
tannu
tansi
tansii
tansiloin
tansin
tantal
tantalan
tantalua
tanzanienke
tanzanii
tapahtui
tapahtumien
tapahtumii
tapahtumu
tapahtuu
tapani
tapettih
tapettu
tapettuloile
tapettuloin
tapetun
tapio
tappamizes
tappisolut
taprobanis
tarasov
tarasova
tarasovin
taric
tarin
tarina
tarinan
tarinoita
taritah
tarittu
tarja
tarkah
tarkastettih
tarkembah
tarkembi
tarkoi
tarkoitetah
tarkoitettu
tarkoittanuh
tarkoittau
tarkoitti
tarkoittua
tarkoituksen
tarkoituksennu
tarkoitukset
tarkoituksih
tarkoitus
tarkovskii
tarku
tarkua
tarnovo
tarojeva
tarton
tartu
tartun
tartupaluk
tarvic
tarvita
tarvitah
tas
tasavallan
tasavalta
taschen
task
tasman
tat
tata
tatarstuanan
tatarstuanu
tatjana
tatuaroin
tatuarua
taudi
taudii
taudiloih
taudiloin
taulukos
taun
taval
tavalline
tavallinel
tavallistu
tavallizeh
tavallizen
tavallizes
tavallizesti
tavallizet
tavallizii
tavallizinnu
tavan
tavanmugastu
tavannu
tavarua
tavat
tavata
tavatah
tavattih
tavattu
tavi
tavoiteh
tavoittehennu
tavoittehet
tavoittelou
tavottu
tavu
tavukirjutuksen
tavukirjutukses
tavukirjutus
tavukirjutussistiemoi
tavuloi
tavuloin
tavulois
tavun
tavvin
tavvit
tay
taylor
tazango
tazangol
tazavaldah
tazavaldan
tazavaldanke
tazavaldu
tazavallakse
tazavallal
tazavallan
tazavallanke
tazavallas
tazol
tazos
tazuo
tbiliisi
te
team
teatrah
teatral
teatran
teatras
teatru
teatrua
teau
tedja
tedret
tedri
tedrilo
teema
teemannu
teemas
teemoin
teemu
tegoloi
teh
tehera
tehniekan
tehniekku
tehniekky
tehnikuman
tehnikumas
tehnolougien
tehta
tehty
teifi
tein
teinan
tekija
tekstan
tekstas
tekstat
teksteja
teksti
tekstiili
tekstoi
tekstoin
tekstu
tekstua
tel
telefon
telekanualastu
telekanualat
telekanualu
telekeskus
telescope
televiizoran
televiizoras
telka
telkien
telky
tella
tellur
telluran
telmu
temperature
temperatuuru
template
temple
templo
temps
ten
tenii
tennant
tennessee
tennissu
tension
teodor
teoksessa
teoksia
teoretiekku
teoriedu
teorieloi
teorien
teos
teouriedu
teourien
teourietikku
teourii
ter
tera
terbii
terentjev
terentjevan
teria
terijoven
termina
terminal
terminia
terra
terva
terveh
tervehelline
tervehyo
tervehys
tervehytty
tes
tesla
teslan
test
teta
tetta
tettih
tetty
teurii
tevokseh
tevoksen
tevoksennu
tevokses
tevokset
tevoksien
tevoksih
tevoksii
tevoksis
tevolliz
tevollizuon
tevos
tevostu
text
texte
tfil
th
thai
thaimua
thaimuan
thaimuanke
thalasseus
thames
that
thatta
the
theater
their
thekkady
theodor
theodore
there
this
thom
thomas
thompson
three
through
thrush
thudufushi
thumb
thumbnail
ti
tia
tiaine
tiainen
tibetan
ticrk
tie
tieda
tiede
tieden
tiedia
tiedo
tiedoakadeemien
tiedoakademien
tiedoakadiemien
tiedoalan
tiedoh
tiedoiniekan
tiedoiniekat
tiedokeskuksen
tiedokeskus
tiedokirjutustu
tiedokoneh
tiedokonehen
tiedokonehes
tiedokonehien
tiedokonferensii
tiedokundu
tiedokunnale
tiedokunnan
tiedoloi
tiedoloin
tiedoloinka
tiedomiehen
tiedomiehet
tiedomiehien
tiedomies
tiedomiesty
tiedoruadai
tiedoruadajannu
tiedoruado
tiedoruaduo
tiedoruavon
tiedoruavot
tiedosanakniigu
tiedotehniekku
tieduo
tiel
tielo
tiemah
tiemannu
tiemoi
tienoru
tiet
tieta
tieto
tietois
tietoja
tietosanakirja
tietta
tiettih
tietty
tietyl
tietyn
tietys
tiezi
tiger
tihien
tihverinja
tihvina
tiija
tiijo
tiijolline
tiijollistu
tiijollizen
tiijollizii
tiijon
tiijonala
tiijonaloi
tiijos
tiijostoloi
tiijot
tiijustelun
tiijustetah
tiijustettih
tiijusti
tiijustua
tiiks
tikka
tikko
tiko
til
tila
tilah
tilal
tilan
tilandeh
tilandehis
tilas
tilat
tilata
tilavus
tile
tilkuzet
tilkuzien
tilois
tiluandu
time
timelapse
times
timo
timofejevna
timoi
timonen
timor
timoran
timothy
timozen
tin
tina
tinan
tinua
tio
tirana
tis
tit
titanic
titanium
title
titov
titovan
tiveri
tja
tkac
tkemba
tken
tkie
tkuu
tkuudu
tkuul
tkuun
tkuus
tmi
to
tobago
tobi
toc
today
todevutettih
todevuttua
togo
tohmajogeh
tohmajoki
tohmajoven
toi
toic
toim
toimehpaniikomitietan
toimehpanokomitietan
toimi
toimii
toimindah
toimindan
toimindu
toimindua
toimisto
toimitettu
toimitetus
toimittai
toimittajakse
toimittajan
toimittajannu
toimittajat
toimittajinnu
toimittajua
toimitukseh
toimitukses
toimitus
toimitusjohtai
toimitussekretarinnu
toimiu
toin
toinah
toine
toinen
toivo
toizeh
toizekse
toizel
toizele
toizella
toizen
toizenke
toizennu
toizes
toizet
toizetgi
toiziel
toizien
toizih
toizii
toiziigi
toizil
toizile
toizin
toizis
tok
tokio
tokion
toko
tokyo
tol
tolmac
tolstoi
tolstoin
tolstoy
tolvaja
tolvoja
tom
tomberg
tome
tommi
tommy
tonga
tonnua
top
topasja
topelius
topic
torai
torasja
torasjogeh
torasjoki
torielkat
torielku
torii
tormozuvagonu
tornionlaakson
toronto
torppa
torpua
torquilla
toruamah
torvi
torvie
tossu
tossuvuon
tostu
tostugi
total
totalituarizen
totanus
tottu
totuus
toukkii
toukkua
tour
tourism
toute
tove
tovelline
tovelliz
tovellizet
tovellizuska
toven
tovenna
tovesti
tovvelline
tower
town
tozi
tr
tractor
tragiedieloin
trail
trailer
train
training
trains
traktoru
traktuatan
transit
transportu
transportukeskus
transportukohtu
trappiloin
tratin
traus
trausan
travel
traviata
tre
tree
trees
tretjak
tretjakua
tridactylus
trier
trifanova
tringa
trinidad
trip
tripoli
trofimov
troitskoi
trojany
trolleibussu
trophy
tros
truafukierros
truck
true
trumpetistu
ts
tsarevic
tsel
tsiedu
tsien
tsirkan
tso
tsoi
tsoin
tsuari
tsuarikunnan
tsuarin
tsuarittaren
tt
tta
ttar
tte
ttehenny
ttehet
ttenic
tti
ttia
ttie
ttiekse
ttih
ttii
ttilo
ttimuailmu
ttinen
ttizen
tto
tts
tty
ttylo
ttyy
tu
tua
tuac
tuakse
tuas
tuatal
tuatale
tuatan
tuatannu
tuatas
tuaton
tuattah
tuatto
tuattua
tuba
tugie
tuh
tuhala
tuhanden
tuhanzii
tuhat
tuhattu
tuhjo
tuhjoine
tuhjoloin
tuhjoz
tuhkamukki
tuhukuu
tuhukuudu
tuhukuul
tuhukuun
tuhukuus
tuhukuussah
tuhulindu
tuija
tuijan
tuijua
tukat
tukkuh
tukkukoskelo
tukkukoskelol
tukkunah
tukun
tuldih
tuldu
tulduu
tule
tulee
tulel
tulemah
tulemaja
tulen
tulendu
tulenis
tuli
tuliedu
tulieh
tuliel
tulieloin
tulien
tuliennu
tulies
tuligi
tulii
tulima
tulimmo
tulipalo
tulipalos
tulkintoja
tulla
tullaan
tullah
tullei
tulli
tulluh
tuloksennu
tulokset
tuloksien
tuloksii
tulomda
tulomja
tulos
tulou
tummembat
tundemah
tundematoi
tundemattoman
tundietah
tundiettih
tundiettu
tundiettuloi
tundiettuloin
tundiettuu
tundietuimbii
tundietuin
tundietumis
tundietun
tundietunnu
tundietut
tundoloin
tundra
tundran
tundras
tundruhanhi
tundrukuikku
tundrumec
tungudan
tunguol
tunguon
tunguonjoven
tungutja
tunisu
tunnetah
tunnettu
tunnetuin
tunnetukse
tunnetut
tunney
tunniste
tunnus
tunnustettu
tunnusti
tunnustua
tunnustus
tunnustustu
tuns
tuodih
tuodu
tuohes
tuohi
tuohikirjaine
tuohuz
tuolleh
tuomah
tuomas
tuomen
tuomes
tuomi
tuomie
tuomipihl
tuonilmazih
tuoppaja
tuotando
tuotandokauttu
tuotandon
tuotandos
tuoteh
tuotehtu
tuottehet
tuottehien
tuottehii
tuou
turbei
turbu
turdus
turing
turingan
turistat
turistoih
turistoile
turistua
turistukeskus
turizman
turizmu
turjansaami
turkey
turki
turkin
turkmenistuanan
turkmenistuanu
turku
turtsien
turtsienke
turtsii
turu
turun
turunen
turvalliz
turvupielus
tus
tutah
tutki
tutkie
tutkii
tutkijal
tutkijan
tutkijannu
tutkijat
tutkijoin
tutkijois
tutkimah
tutkimizeh
tutkimuksen
tutkimukses
tutkimukset
tutkimuksii
tutkimuksis
tutkimus
tutkimuskeskuksen
tutkimuskeskus
tutkimuslaitos
tutkimusmatkailii
tutkimusmatkan
tutkimusmatkat
tutkimusmatkoih
tutkimusruado
tutkimusruaduo
tutkimustu
tutkinuh
tutkitah
tutkittih
tutkittu
tutkiu
tuttavui
tuttavuo
tuttavuttih
tuttavuu
tuttu
tuuc
tuuhei
tuuhoine
tuuksen
tuuksenjogeh
tuula
tuulel
tuulen
tuuliajolla
tuuloksenjogeh
tuuloksenjoven
tuulos
tuulosja
tuurah
tuural
tuuran
tuuras
tuuroi
tuuroin
tuurois
tuuru
tuurua
tuurualal
tuurualan
tuurukeskus
tuurukodi
tuurukolledz
tuuruministrannu
tuuruopistos
tuuruperindo
tuururistikanzat
tuururuavon
tuurutaloi
tuurutaloin
tuva
tuvakse
tuvalu
tuvan
tuvas
tuvekse
tuvva
tuvvah
tv
tver
tverin
tverinkarjala
tverinkarjalakse
tverinkarjalan
tveris
twain
twerking
two
twrch
tyd
tyddewin
tyden
tyhja
tyhjia
tyhjyo
tyn
tyo
type
typykki
tyrant
tyrma
tyrva
tyt
tyta
tytit
tyto
tytta
tyttiteatran
tytto
tyveh
tyves
tyyneh
tyynen
tyynenmeren
tyynesmeres
tyyni
tyynimeren
tyynimeri
u
ua
uadu
uajah
uajal
uajan
uajat
uajien
uajoin
uaju
uajua
uajus
uajuu
uakku
ual
uale
uallonpiduhus
uamah
uan
uanan
uananke
uanu
uapku
uarah
uari
uaritah
uaru
uaruu
uas
uassuu
uasti
uastiloin
uasun
uau
uazan
ubit
ubl
ubov
uc
ucien
ucoz
udes
udmila
udmurtakse
udmurtan
udmurtielazii
udmurtien
udmurties
udo
udvig
udz
uef
ufatku
uffizi
ugandan
ugandanke
ugandu
ugrilaine
ugrilainen
ugrilaisen
ugrilaizen
ugrilastu
ugrilazeh
ugrilazen
ugrilazet
ugrilazien
ugrilazih
ugrilazis
uguivda
ugunua
ugunzavodu
uh
uhanhi
uhc
uhd
uhta
uhttp
uhtua
uhtuan
uhtuol
uhtuon
ui
uic
uidau
uidua
uija
uijah
uikku
uikkuloin
uikuja
uikujogeh
uikujoki
uikujoven
uikunsuaren
uikunsuari
uiljam
uindu
uinduallikko
uinduallikot
uine
uiniemi
uinottamah
uivelo
uja
ujeva
ujevan
ujezdah
ujezdan
ujezdu
uk
ukan
ukirikko
ukiyo
ukki
ukko
ukkoh
ukon
ukonla
ukonlammas
ukova
ukovskii
ukrainal
ukrainalastu
ukrainalazet
ukrainan
ukrainanke
ukrainas
ukraine
ukrainu
uks
ukseh
uksemburgu
uksen
ukses
uksespa
ukset
uksien
uksii
uksis
ul
ulan
ulanov
ulgomualaine
ulgomualastu
ulgomualazet
ulgomualazien
ulgomualoin
ulgona
ulgopuolel
ulgopuolelgi
ulgopuolizet
uli
uljaat
uloi
uloidu
ulomaine
ulouzu
ulouzun
ultra
ulyss
um
umah
umbitavus
ume
umiinien
umiinii
umskaja
un
una
und
under
underside
undukera
une
unelma
unesco
unescon
ungarin
ungiittu
ungiittua
uni
unidos
union
unionin
united
unituarine
universal
university
unohti
unohtuksih
uo
uoh
uojan
uojogi
uojoven
uoju
uojuh
uojun
uokse
uol
uoliston
uon
uonnu
uontutkii
uorei
uos
uot
up
upa
uploads
uppoi
uppu
upraznenjoin
upright
ups
upul
upun
upus
ura
uralilaine
uralilais
uralilaizen
uralilazen
uralilazet
uralilazien
uran
urbicum
urbino
urd
urdun
urheilupuisto
urho
urhoi
urholliz
urhomies
uri
urii
urik
uril
urin
urku
urnalistoin
urnalistu
urnualah
urnualan
urnualas
urnualat
urnualoih
urnualois
urnualu
urnualua
uro
uroc
uroja
uron
urosja
urpo
ursa
uruajien
urualal
urualan
uruanan
uruandas
uruanu
urugvai
us
usad
usaloveh
usarvostelii
use
used
useru
uskeskus
usko
uskoh
uskohtu
uskoi
uskolline
uskomukset
uskomuksii
uskon
uskondo
uskondolline
uskondollistu
uskondollizii
uskondolois
uskondon
uskondos
uskondot
uskotah
uskottih
uskou
uskriitiekku
usmies
uspenn
uspenskaja
uspenskoi
uss
usseru
ussuyo
ust
ustu
ustuavu
ustulatus
usuan
ut
utah
utahgi
utc
utecii
utja
uttih
uttu
uu
uudeh
uudissanastoa
uudizet
uudizien
uudizii
uuhu
uuksun
uuksunjogi
uulic
uumajansaami
uupan
uuppu
uuruine
uuruzii
uusi
uusikyla
uut
uutiset
uutja
uutkua
uuttu
uuvven
uuzi
uuzien
uuzih
uuzii
uuzikyla
uuzis
uv
uvas
uvvekse
uvvele
uvvelleh
uvven
uvvennu
uvves
uvvessah
uvvet
uvvissana
uvvisti
uvvistuksien
uvvistustu
uyuni
uz
uzbekistuanan
uzbekistuananke
uzbekistuanu
uzes
uzii
v
va
vaarallinen
vaassilan
vac
vaccinium
vaclav
vador
vagavah
vagavembi
vagneran
vagoi
vagoin
vagoinkarvaine
vagonan
vahalaukku
vahalaukkuu
vahatja
vahja
vahnah
vahnal
vahnale
vahnan
vahnas
vahnat
vahnemban
vahnembat
vahnembi
vahnembien
vahnembii
vahnembile
vahnembis
vahnembua
vahnimat
vahnimii
vahnin
vahnoi
vahnoih
vahnoin
vahnois
vahnu
vahnua
vahnuaigaine
vahvaja
vai
vaigei
vaigu
vaihtandu
vaihtau
vaihteleh
vaihtelehes
vaihtelii
vaihtetah
vaihtoi
vaiku
vaikuta
vaikutannuh
vaikutetah
vaikutettih
vaikuttai
vaikuttanuh
vaikuttau
vaikuttehii
vaikutti
vaikuttua
vaikutukses
vaikutus
vaikutustu
vajai
vakkosalmen
val
valamoi
valamoin
valdah
valdai
valdain
valdimo
valdimon
valdivo
valdivoh
valdivolline
valdivollizen
valdivollizet
valdivoloin
valdivolois
valdivomies
valdivon
valdivonpalkindon
valdivonvallas
valdivonyliopisto
valdivonyliopistoh
valdivonyliopiston
valdivonyliopistos
valdivos
valdivot
valdivoyliopistos
valdivuo
valdu
valdua
valduamine
valduistuimes
valdukavven
valdukundah
valdukundu
valdukunnan
valdumereh
valdumeren
valdumerenke
valdumeres
valdumeri
valentin
valentina
valentinan
valetah
valettih
valgei
valgeipa
valgeipia
valgeiroz
valgeisiibic
valgeivigli
valgiedu
valgieloi
valgieloikse
valgieloil
valgieloin
valgien
valgies
valgiet
valgijastu
valgo
valgoven
valguo
valic
valistus
valittih
valittu
valitut
valkamaja
vallal
vallan
vallankumovuksen
vallankumovus
vallankumovusmies
vallankumovustu
vallas
vallattih
valle
vallenato
valles
valletta
valley
vallic
vallitah
vallittih
vallittu
vallitut
valloitti
valloituksen
vallon
valmehekse
valmehet
valmis
valmistai
valmistajes
valmistamah
valmistamine
valmistamizeh
valmistamizen
valmistamizes
valmistandua
valmistehen
valmistetah
valmistettih
valmistettu
valmisti
valmistua
valmistui
valmistustapoja
valpahanfiolietovoit
valpahankeldaine
valpahanmaksankarvaine
valpahansinine
valpahanvihandu
valpahembi
valter
valtijon
valtion
valtionu
valtionyliopiston
valtornua
valuu
van
vanadium
vancouver
vanellus
vangiloih
vangiloin
vanha
vanhan
vanhembat
vanhembi
vanhu
vanil
vanuatu
vanuatun
varaittau
varat
varata
varattavu
varattih
varavos
varbakas
varbazis
varc
vardalon
vardoic
vardoija
vardotter
varen
variant
variantua
varkaukses
varkaus
varmu
varoi
varoil
varoin
varoinmuarju
varoloin
varpaja
varrel
varren
varres
varret
vars
varsinais
vartu
varua
varustajes
varustetah
varustettih
varustettu
varustua
varvaran
varzi
varzii
varzinkarjal
varzinkarjala
varzinkarjalakse
varzinkarjalan
varzinkarjalanmurreh
varzinkarjalas
vas
vasen
vasil
vasili
vasilii
vasiljev
vasiljeva
vasiljevic
vasiljevna
vasiljin
vasken
vaskes
vaski
vaskic
vaskie
vaskisorzu
vastah
vastahnouzijoin
vastahnouzun
vastai
vastalpa
vastata
vastatah
vastavui
vaste
vastinehet
vastu
vastuandah
vastuau
vastukarai
vastustai
vastustajan
vastustajii
vastustannuh
vastusti
vastustua
vatikanan
vauhtil
vaz
vch
ve
veda
vedeh
vedehine
vedeltih
vedi
vedia
vedovoimalline
vegarus
vegarusja
vegas
vehkeh
vehkehet
vehkehii
vehkehty
veic
veicuarien
veikki
veikko
veikkolainen
veis
veitsarien
veitsarienke
veitsarii
vel
velda
veldetty
veldi
veldia
velenda
velendia
velet
velija
veliko
velikobritanien
velikobrituanien
veljet
vella
vellen
vellenke
velleskalmu
vellesto
vellesty
velli
vellie
vellin
vellit
velvet
velyn
ven
vena
venan
venas
venc
vend
veneh
venehen
venehes
venehet
venehil
venehja
venelampi
venesuela
venesuelan
venezuela
vengriela
vengrien
vengrienke
vengries
vengrii
vents
venus
veps
vepsa
vera
verbi
verbilo
verbit
verdi
verdin
verdy
vereksenny
vereksilleh
vereksis
verenpaine
veres
verez
vergilius
veri
veria
veriapel
verkkokirjasto
verkkosivusto
verkkosivut
verkkoviite
verko
verkon
verkos
verkosivul
verkosivut
vermeer
vernon
verokirju
verraten
verratunnu
versiedy
versielo
versien
versiet
versii
versio
version
verso
vertol
ves
vesa
vesi
vespuc
vessel
vessela
vest
vesta
vestos
vetkan
vetsuarielaine
vetty
vevon
vezat
vezi
veziala
vezibasseinan
vezii
vezikartu
vezilo
vezilumoidu
vezimia
vezirotan
vezirottu
vezisistiemah
vezisto
vezivoimalat
vezivoimalu
veziyo
vezoi
vezua
vi
via
viborgan
vic
victor
victoria
videlen
videlenjogeh
video
vie
viel
vielja
viema
vien
viena
vienakse
vienalaisie
vienalazet
vienan
vienankarjala
vienankarjalaine
vienankarjalaks
vienankarjalakse
vienankarjalaksi
vienankarjalan
vienankarjalazet
vienanmereh
vienanmeren
vienanmeri
vienda
vieno
viensa
vierahien
vieras
vierassanoin
vieres
vieron
vies
viestit
viet
vieta
vieteta
vietettih
vietnam
vietnaman
vietnamanke
vietta
vietti
viettih
vietty
view
viewed
views
viey
vigua
vih
vihandan
vihandat
vihandu
vihandua
vihaniekannu
vihaniekkua
vihaniekois
vihau
vihjatah
vihmumia
vihollizen
vii
viidan
viidanan
viideh
viidehet
viidutiaine
viii
viijen
viijendehtostu
viijendekse
viijendel
viijenden
viijendes
viijes
viikattehel
viikingoin
viiksinselka
viilehel
viinan
viinoin
viinu
viinua
viipurin
viisi
viitattu
viittehet
viittuau
viitty
viivat
viizahuon
viizi
viizitostuvuodizennu
vija
vijannu
viks
vikse
viktor
viktorianizen
viktorii
viktorovic
vil
vila
vilgan
vilgas
vilgu
vilhelm
vilho
viljam
villa
village
villalanja
villas
ville
vilu
viluc
vilulois
vilun
vilus
vilustuo
vilustutetah
vilut
viluu
vimis
vin
vinc
vincent
vinci
vinn
vinny
vinnyh
vinogruadan
vinsent
viola
violonc
viralline
virallinen
virallizekse
virallizesti
virallizet
virandaja
virdu
virdua
virduaju
virduau
virgin
virginia
virginii
virgo
viridis
viritetty
viritta
virkeh
virkehen
virkehoppi
viron
virralline
virrallizekse
virrallizen
virrallizes
virrallizesti
virrallizet
virrallizien
virrallizis
virran
virras
virratah
virret
virtarannan
virtaranta
virtual
virtuouzu
virujan
virujen
viruo
virutah
vis
visbeck
visit
vismuttu
vista
vita
vitali
vitamiinat
vitamiinoi
vitamiinoin
vitamiinua
viteta
vitettih
vitetty
vitta
vittia
vittih
viulu
viulul
vivaldi
vivaldin
vivo
vizakoivu
vizakoivun
vizakoivuu
vizantien
vizcr
vizualistu
vjentjan
vk
vkontakte
vkontaktes
vladimir
vladimirovic
vladislav
vlaoj
vlei
vnedoroz
vo
vodi
vodin
vodlaja
vodlajogeh
vodlajogi
vodlajoven
vodnikov
vodoruodu
voi
voib
voibi
voice
voidas
voidih
voidu
voigriba
voija
voijah
voikalat
voikukkii
voikukku
voima
voimah
voiman
voimattoman
voimattomuksien
voimattomus
voimatui
voimien
voimu
voin
voinah
voinal
voinan
voinas
voinat
voinien
voinil
voinke
voinnuh
voinu
voinua
voinuh
voinukohtannu
voinuokrugas
vois
voiskan
voiskat
voit
voitettih
voitetukse
voiton
voitot
voittai
voittajakse
voittajan
voittajannu
voittajua
voittau
voitti
voitto
voittua
voix
vojac
vojennoi
vojennoidu
vojennoin
vojennois
vojennoloih
vojennoloin
vokali
vokalien
vokalii
vokalikirjaimii
vokalikse
vokalin
vokalinnu
vokalit
vokualu
vol
volcanes
volcano
voldja
volga
volgalaine
volgan
volganrannikon
volhovan
volkov
volkswagen
vollaston
vologdan
voloman
volontir
volos
volost
volta
voltaire
voltairen
volume
von
vorenz
vorobei
voronkusieni
vorotoih
vorottoih
voskresenie
votto
vottovaara
vottovaaran
voulogdan
voulogdaspa
voulosti
voulostih
voulostin
voulostis
voyage
voz
vozn
vp
vrangel
vratari
vratarinnu
vremeni
vs
vsevoloz
vteta
vuakuna
vuaran
vuaras
vuarois
vuaru
vuaz
vues
vuitin
vuitis
vuitit
vuitti
vuittii
vulgaris
vulpes
vuodeh
vuodehine
vuodehizennu
vuoden
vuodessah
vuodet
vuodine
vuodizennu
vuoh
vuohtja
vuokkiniemen
vuokkiniemes
vuokkiniemi
vuoksa
vuoksahaine
vuoksen
vuon
vuonna
vuonnu
vuonnugi
vuorel
vuoren
vuoret
vuori
vuorileppylindu
vuoristo
vuoros
vuosi
vuosilta
vuoteh
vuotetah
vuotta
vuottoja
vuottu
vuoz
vuozi
vuozien
vuozii
vuozikera
vuozil
vuozin
vuozinnu
vuozipa
vuozis
vuozisada
vuozisadassah
vuozisadoin
vuozisadua
vuozisavoin
vuozisual
vuozisuan
vuozisuas
vuozisuat
vuozituhandel
vuuvennu
vuuvvennu
vuvennu
vuvvekse
vuvvel
vuvven
vuvvenaigua
vuvvenaijas
vuvvennu
vuvvenu
vuvves
vuvvespa
vuvvessah
vuvvet
vv
vva
vvedenskii
vvedenskoidu
vvedenskoin
vvelleh
vven
vvet
vveta
vvettih
vvetty
vvo
vvy
vvyta
vy
vyg
vyi
vykseh
vykset
vyksii
vyksis
vylline
vylo
vyn
vynda
vynnyh
vyo
vys
vyslinnat
vyslinnua
vysotskin
vysty
vyt
vyta
vytetty
vytta
vyttih
vyy
w
wa
wagner
wagneran
wales
walk
walker
walking
wall
walt
waltari
waltarin
walter
wand
war
warea
warner
warren
warsaw
was
washington
watch
water
waters
watt
waves
way
wcardiganislandcoastal
we
weaver
web
webb
webm
wedding
weibchen
weilin
welcome
wells
welsh
west
western
whale
what
whc
white
who
wide
width
wien
wienan
wiener
wiese
wiki
wikimedia
wikipedia
wikipedien
wikipedies
wikipedii
wil
wilbur
wild
wilde
wildpark
wilhelm
wilhering
will
willemstad
william
williams
wind
window
wing
winged
winnipeg
winston
winter
wire
with
without
wolfgang
wollaston
woman
women
wonderful
wood
woolf
word
work
works
world
worldwide
woude
wp
wright
wrightan
writers
wroclaw
wsoy
wu
wuorikosken
wuorikoski
ww
www
wyse
x
xcpsneamo
xi
xii
xiii
xiv
xix
xprcihhvhk
xv
xvi
xvii
xviii
xx
xxii
xxv
y
ya
yaholoil
yahoo
yda
ydi
ydia
ydih
ydimes
ydin
ydo
ydy
ydyi
ydyy
year
years
yela
yellow
yes
yh
yha
yhanhi
yhdistys
yheksa
yhessa
yhien
yhkiz
yhteh
yhtehine
yhtehisty
yhtehizeh
yhtehizen
yhtehizes
yhtehizet
yhtehizii
yhtehlangiemine
yhteiskundu
yhteiskunnalline
yhteiskunnallis
yhteiskunnallistu
yhteiskunnallizel
yhteiskunnallizen
yhteiskunnan
yhteisruavon
yhteisruavos
yhteistiijot
yhteizo
yhtekse
yhtel
yhtelaigua
yhtele
yhtella
yhten
yhtena
yhtendentostu
yhtenjyttyine
yhtenjyttyma
yhtenjyttyzet
yhtenjytyi
yhtenny
yhtes
yhteskunnas
yhtet
yhtevyksen
yhtevykses
yhtevyksis
yhtevyo
yhtevytty
yhtista
yhtistehet
yhtistehii
yhtisteta
yhtistettih
yhtistetty
yhtisti
yhtistia
yhtistykseh
yhtistyksen
yhtistykset
yhtistyksienke
yhtistynnyh
yhtistynnyo
yhtistynyo
yhtistynyzien
yhtistys
yhtistyta
yhty
yhtyi
yhtyma
yhtymy
yhtynyh
yhtyo
yhtys
yhtysvaldaine
yhtysvaldalaine
yhtysvaldalazii
yhtysvaldoih
yhtysvaldoin
yhtysvaldulaine
yhtysvallat
yhtysvalloin
yhtysvallois
yhtyta
yhtyttih
yhtyy
yhy
yiddish
yja
yk
ykana
yksellizin
yksen
ykses
yksi
yksii
yksika
yksikai
yksikko
yksiko
yksilo
yksin
yksina
yksipuoline
yksitavuzii
yksitellen
yksitostu
yksitta
yksityisia
yksivuodine
ykskai
yl
yla
yle
ylehizen
yleine
yleiskieles
ylemba
ylen
ylettih
yli
ylima
ylimia
yliopisto
yliopistoh
yliopistoloin
yliopistolois
yliopiston
yliopistos
yliopistot
yliopistuo
ylitti
ylla
yllo
ylo
ylyy
yma
ymandz
ymba
ympa
yn
yna
yndy
ynia
ynke
ynnyh
yny
ynys
yo
yoaysb
york
yorkah
yorkas
you
young
your
youtube
ypoc
ypunktu
yr
yritta
yrityspalvelu
yrjo
yrnjdsmcjy
yruadokeskus
yruadolois
yruadozavodu
yrunoloi
yrylaivan
yryy
ys
ysliikkehen
yspa
ysselmeeran
ysta
ysty
yt
yta
yteh
ytelma
ytelmii
ytelmykirjalliz
yteta
ytetta
ytettih
ytetty
ytettylo
yto
ytta
ytteita
ytti
yttia
yttih
ytto
ytty
yttyo
yttyy
yuko
yvigli
yy
yzavodu
yzi
yziiga
z
za
zagrebu
zaikov
zaitsev
zaitseva
zaitsevan
zakonan
zakonanvastastu
zakonoinhyva
zambien
zambienke
zambii
zanne
zaragoza
zarec
zas
zavaritah
zavodal
zavodan
zavodi
zavodoin
zavodu
ze
zealand
zedong
zeh
zeitung
zekse
zel
zelandii
zele
zema
zeml
zen
zenenny
zenet
zenii
zenkukan
zenkukku
zenkukkua
zenny
zensistieman
zensistiemu
zentrale
zenvalgien
zes
zespa
zesti
zet
zgf
zi
zien
zih
zii
ziifuw
zikirjuttai
zikirjutuksen
zikirjutukset
zikirjutuksien
zikse
zikunnan
zil
zile
zimbabue
zimbabve
zimbabvenke
zin
zinaida
zinny
zipuu
zipuudu
zipuun
zir
zirkalo
zis
ziteh
zitykset
zitys
zitysty
zo
zoja
zolotinskii
zone
zoo
zoroastrianizmah
zosima
zuaharii
zuaharinke
zuaharipeskuu
zualas
zualat
zualu
zum
zur
zvierilo
zy
zymys
zz
{
|
}
~
¡
§
©
«
¬
­
®
°
±
²
³
´
·
º
»
¾
×
æ
ð
ø
þ
đ
ŋ
ŋŋ
ǆordz
ɐ
ɪ
ʁ
ʰ
ʹ
ʻ
ʼ
ˈ
ː
˘
̀
́
̂
̃
̄
̆
̇
̈
̊
̋
̌
̓
̔
̣
̦
̧
̨
̯
͂
΄
α
β
δι
ε
ι
μα
ν
ξ
ο
ρ
ς
υ
ω
а
автоматически
адресов
азимутальная
аи
активные
альтернативная
альтернативнои
альтернативные
анисимов
антарктида
антарктиды
аральское
аргументы
асср
б
без
бианки
болото
больше
большевикои
братское
брюханов
будет
будут
буквари
были
быть
в
вана
варои
варте
василии
веи
венян
верхнего
верхнеи
верховнои
вешелуксе
вид
виде
википедия
вкп
вкпб
влево
внутренняя
во
водохранилище
волков
воспоминания
воттоваара
воттоваары
вправо
все
всесоюзнои
вставить
вторая
вызове
вызываются
высоты
вычислении
вяхя
г
га
гаи
географических
география
геометрического
глагол
года
гора
горе
город
горы
горькии
госиздат
государственнои
градусах
градусов
грамматика
границы
гурьев
д
дальше
даннои
данном
данные
данныи
дар
два
двумя
деи
демина
десятичном
диалект
длину
для
дня
до
доклуада
долгота
должно
должны
дом
дополнительных
доступных
другие
е
его
единица
единицу
ее
ездал
ездан
елисеева
если
есть
ж
жданов
же
з
задана
задеи
задуачои
заи
западного
записываются
заработало
земли
зет
зимин
значение
значении
значения
значениями
и
иванова
ивантер
иерархию
из
избранные
изд
издания
издательства
изображена
изображение
изображении
изображения
ил
или
именование
имя
исаков
искажение
искажения
используется
используются
истории
история
исходным
их
к
казахстанская
как
канд
каргосиздат
каргосиздатта
карел
карелии
карелия
карело
карельские
карельскии
карельских
карельско
карельского
карельскои
карельском
карельскому
кариэлан
карнц
карт
карта
карте
картои
карты
карьялан
кастрен
категория
качестве
ки
кианди
кижанка
кирья
киселев
китаи
китая
киэлен
киэлес
киянди
кки
класса
классал
классалла
классат
классов
классои
классуа
книга
ков
колмас
колме
коммунистическои
комплекс
конец
коническои
конкка
конструкция
координат
координатам
координаты
корректно
коткозерское
которои
которые
коэффициент
краи
краснои
краю
кроме
курса
кфсср
л
ла
лапсин
лапсиэ
левого
ленин
ленинград
лесная
лет
либо
литературан
лишь
лла
лодка
лои
луади
лувендакнии
лухут
м
макаров
маркера
мартан
маршак
мая
между
меридиан
меридиана
меридианом
минусом
мир
мишина
может
можно
монастырь
море
морфология
москва
н
на
набрать
наворожское
над
надо
надписи
надпись
название
названные
называть
нам
направленнои
например
народная
народнои
народные
населения
населенных
нати
наук
наука
науч
нах
начальнои
начальнолои
начиная
не
небылицы
него
недостаток
неи
нельзя
необходимо
неполнои
нескольких
нестандартная
нижнеи
никитин
николая
них
ничего
новая
нои
нужно
нужны
нулевым
о
области
область
образом
обрезки
объекта
объектами
обычно
одновременно
озеро
ои
около
олонецкая
он
она
оси
особенности
остальных
ось
осями
от
относительно
отображаться
отсчитывая
оценить
п
паи
панорама
парал
параллели
параллель
параметр
параметрами
параметров
параметром
параметры
партии
партиян
пе
пер
первая
переведи
переводан
переводи
пересекает
пересечения
периодика
песни
петров
петрозаводск
петрозаводска
по
повести
под
подгот
подписи
подпись
подставит
подставится
подставляться
подстраницах
подстраницы
позиционные
позиционных
позкарта
пои
поле
полную
полныи
половины
положение
положения
получившиеся
полушарии
полушария
полюса
полярная
помните
понадобятся
посадско
поселение
после
посмотреть
потребуется
появляется
правого
преимущество
преобразования
при
пригодится
примера
примеры
примеч
принимают
природныи
причитании
провинция
программа
проекции
проекция
произвольные
прорисована
простота
процентах
прямая
прямои
птицы
пунктов
пушкин
після
р
равен
равнопромежуточная
равнопромежуточнои
радианах
радианы
радиус
размер
разрезе
раи
ран
расстояние
растягивается
растяжение
расче
рахвахан
ред
результатом
рекомендуется
республика
республики
рисункат
россии
ругоева
рус
русскии
русско
рэсурс
рядом
с
саи
самого
самыи
санонда
сборникка
свадьба
святои
север
северно
северного
сельских
сельское
синтаксис
системы
сказка
сказки
ская
ское
следствие
следующие
слов
словарь
случаях
см
смещение
советскои
совпадают
современное
создания
соли
соответственно
соотношение
сост
составления
состояние
состоянию
сохранение
союзан
специально
список
среднеи
средние
среднии
средних
ссср
ссылки
ссылку
ст
ста
сталин
сталинан
стандартные
стать
ствовать
степанова
степановои
страницы
стрела
суарна
суарнат
суд
съездал
т
та
таи
так
также
таким
такои
те
текст
текста
тем
терехова
территориальная
тетюрев
тип
то
тов
тогда
тои
толстои
только
точек
точка
точки
точкои
точно
точности
тр
тригонометрические
тта
у
убирает
угла
угол
удобныи
узнать
укажите
указать
указываются
ул
уменьшить
умолчанию
упражнениеи
уровня
устава
устраивает
учебникка
ф
фаи
фалеев
физическая
физическои
финскои
флагификация
фона
фоне
формулах
формулы
фортеця
фотогалерея
функции
х
ха
хозяи
хор
хорватии
хорватия
худож
цвет
цева
центра
центральнои
церковь
цилиндрическая
цк
ч
часовня
чем
чехов
численность
чистом
что
чтобы
чуасти
ш
шаблон
шаблона
шаблоне
шаблонов
шаблоны
ширины
широта
школ
школан
школил
школилла
школиэн
шюндю
ы
ь
э
экватора
эльбрус
энзимяне
эрдели
эрзянь
эти
это
этом
ю
юг
южная
южного
я
являются
яз
язык
языка
языке
языкознание
января
і
ћ
ӡ
ְ
ִ
ֵ
ַ
ָ
ׂ
א
ד
י
ל
מ
ר
ש
ת
،
ا
ِ
ٔ
ٕ
ހ
ރ
އ
ވ
މ
ދ
ލ
ގ
ޔ
ޖ
ާ
ި
ު
ޫ
ެ
ޭ
ް
ज
त
न
प
भ
य
ल
ा
े
्
ম
য
র
়
া
ে
க
ட
ப
ய
ற
ழ
வ
ா
ி
ீ
்
ည
တ
န
ပ
ာ
ေ
်
ြ
‎
‏
‑
‒
–
—
―
‘
’
“
”
„
‟
•
…
‰
′
″
⁄
№
←
↑
→
↔
↷
−
③
④
⑦
☉
☾
☿
♀
♂
♃
♄
♆
♇
⛢
⯓
⺀
⺄
⺆
⺈
⺊
⺌
⺕
⺝
⺸
⺼
⿰
⿱
⿲
⿳
⿴
⿵
⿶
⿷
⿸
⿹
⿺
⿻
《
》
「
」
〢
あ
す
゙
コ
ユ
㇁
㇂
㇄
㇇
㇈
㇉
㇓
㐁
㐄
㐅
㐌
㐫
㐬
㐭
㐮
㐱
㑒
㒵
㒸
㒼
㓁
㓞
㔾
㕛
㕣
㖾
㘝
㚅
㚇
㚔
㚘
㝉
㝡
㝴
㝵
㞋
㞢
㞷
㠩
㠭
㠯
㡀
㡭
㡿
㢲
㢴
㣇
㣺
㥯
㪅
㫄
㫐
㫒
㫺
㬅
㬎
㬥
㬰
㲋
㳄
㷠
㸒
㸚
㸦
㼌
㼲
㽞
㿟
䀠
䂞
䍃
䏍
䒑
䖍
䖒
䖝
䖵
䙴
䚻
䜌
䝿
䡛
䧹
䪞
一
丁
丂
七
丄
丅
丆
万
丈
三
上
下
丌
不
与
丏
丐
丑
专
且
丕
世
丘
丙
业
东
丞
丢
丣
两
严
並
丨
丩
个
丫
丬
中
丮
丰
丱
串
丵
丶
丷
丸
丹
为
主
丽
丿
乀
乂
乃
久
乆
乇
么
义
之
乌
乍
乎
乏
乐
乑
乔
乖
乗
乘
乙
乚
乛
乜
九
乞
也
习
乡
乳
乾
亀
亅
了
亇
予
争
事
二
亍
于
亏
亐
云
互
亓
五
井
亘
亚
亜
亞
亟
亠
亡
亢
交
亥
亦
产
亨
亩
享
京
亭
亮
亯
亰
亲
亳
亶
亷
人
亻
亼
亾
仁
今
介
仌
从
仐
仑
仒
仓
仔
仕
他
付
仝
代
令
以
任
企
伊
伏
伐
休
会
伯
但
位
何
佘
余
作
你
佥
使
來
侈
侌
侖
侯
侵
便
保
俞
信
修
倉
倍
倒
候
倠
做
備
僉
僕
儿
兀
允
兂
元
兄
充
兆
兇
先
光
兊
克
兌
免
兑
兒
兓
兔
党
兜
兟
入
全
兩
兪
八
公
六
兮
兰
共
关
兵
其
具
典
兹
兼
冀
冂
冃
冄
内
冈
冉
冊
冋
册
再
冎
冏
冐
冒
冓
冖
冗
冘
军
农
冝
冠
冡
冥
冫
冬
冷
几
凡
凢
凵
凶
凷
凸
凹
出
函
凾
刀
刁
刂
刃
刄
刅
分
切
刍
刑
刕
刖
列
刘
则
初
別
利
别
到
制
刺
則
削
剌
前
剡
剽
劉
力
功
加
劦
动
助
劫
劳
劵
勃
勇
勉
勒
動
務
勞
勤
勹
勺
勻
勾
勿
匀
匂
包
匆
匈
匊
匋
匍
匕
化
北
匚
匝
匡
匪
匱
匸
匹
区
医
匽
匿
區
十
卂
千
卄
卅
卆
升
午
卉
半
卌
华
卑
卒
卓
单
卖
南
卜
卝
卞
占
卡
卢
卣
卤
卦
卩
卪
卬
卯
印
危
即
却
卵
卷
卸
卻
厂
厃
厄
历
厈
厉
厌
厓
厘
厚
原
厤
厥
厨
厭
厲
厶
厷
厸
去
厼
厽
叀
参
參
叅
又
叉
及
友
双
反
叐
发
叒
叔
叕
取
受
叚
叜
叟
口
古
句
另
叩
只
召
可
台
叱
史
右
叵
号
司
叹
吂
各
吅
合
吉
吊
吋
同
名
后
吏
向
吕
君
吝
吞
否
含
启
吳
吴
吹
吾
呂
呆
呈
告
员
呙
周
呼
命
咅
和
咎
咠
咢
咨
咸
咼
哀
品
哉
員
哥
哲
唐
商
啇
問
啚
啬
啻
善
喜
喬
單
喿
嗇
噩
嚴
囊
囗
囘
囙
囚
四
回
囟
因
囧
囬
困
囱
囷
固
国
圂
圅
國
圍
圓
團
土
圡
圣
圥
在
圭
地
圶
圼
坐
坒
坚
坴
垂
垔
垚
埀
埋
埶
執
基
堂
堅
堆
堇
堡
堯
場
塞
墨
壘
士
壬
壯
声
壳
壴
壹
壺
壽
夂
处
夅
夆
备
夊
夋
夌
复
夏
夒
夕
外
夗
夘
多
夜
夢
大
夨
天
太
夫
夬
夭
央
失
夲
头
夷
夸
夹
夻
夾
奂
奄
奇
奈
奉
奎
奏
奐
契
奓
奔
奚
奞
奠
奢
奥
奭
女
奴
奻
好
如
妄
妙
妟
妥
妻
妾
姑
委
姜
威
娄
婁
婆
婴
嬰
嬴
子
孑
孔
孕
孖
字
存
孚
孛
孝
孟
季
孤
学
孫
孱
學
宀
宁
宂
它
宅
宇
守
安
宋
完
宏
宓
宗
官
定
宛
宜
宝
客
宣
室
宮
宰
害
家
容
宾
宿
寄
寅
密
富
寒
察
實
寧
審
寫
寬
寮
寸
对
寺
寻
寽
対
寿
封
尃
射
将
將
專
尉
尊
尋
尌
對
小
少
尒
尓
尔
尖
尗
尚
尞
尢
尣
尤
尧
尨
尭
就
尸
尹
尺
尻
尼
尽
尾
尿
局
居
屆
屈
屋
屎
屏
屑
展
屖
屚
属
屠
屡
屬
屮
屯
屰
山
屵
屾
岁
岂
岑
岡
岩
岳
岸
峯
島
崇
崑
崔
崖
崙
崩
嵬
嶲
巂
巛
川
州
巟
巠
巢
巤
工
左
巧
巨
巩
巫
差
己
已
巳
巴
巷
巸
巽
巾
巿
帀
市
布
师
希
帚
帛
帝
带
師
席
帶
常
干
平
年
幵
并
幷
幸
幺
幻
幼
幽
幾
广
広
庄
床
底
店
庚
府
度
庫
庭
庶
康
庸
廉
廌
廛
廟
廣
廩
廴
延
廷
建
廾
廿
开
弁
弃
弄
弇
弋
式
弓
弔
引
弗
弘
弜
弟
弥
弦
弱
張
強
强
彊
彌
彎
彐
彑
当
彔
录
彖
彗
彡
形
彥
彦
彧
彭
影
彳
役
彼
往
待
律
後
徑
徒
得
徙
從
復
微
徳
徵
心
忄
必
忌
忍
志
忝
忠
忩
快
念
忽
忿
思
怠
怡
急
怱
恆
恒
恩
恭
息
悉
悠
患
悤
悲
悶
情
惠
惡
惢
愁
愈
意
愛
感
慈
慧
慮
憂
憲
應
戀
戈
戉
戊
戋
戌
戍
戎
成
我
戒
戔
或
戚
戠
戢
截
戲
戶
户
戹
戼
戾
房
所
扁
扇
手
扌
才
打
托
执
承
抗
折
抜
拉
拍
拜
拿
振
掌
推
提
損
摩
撤
擊
攝
支
攴
攵
收
攸
改
放
政
敄
敏
敕
敖
敗
教
敝
敞
敢
散
敦
敫
敬
数
敷
數
斂
文
斉
斊
斗
斤
斥
斩
斬
斯
新
方
於
施
斿
旁
旋
族
无
旡
既
旣
日
旦
旧
旨
早
旬
旱
旲
时
旾
昆
昇
昌
昍
明
昏
易
昔
昗
昜
星
春
昬
是
昱
昴
昷
時
晃
晉
晋
晏
普
景
晶
智
暑
暴
曇
曩
曰
曲
曳
更
曷
書
曹
曼
曾
替
最
朁
會
月
有
朋
服
朔
朕
朗
望
朝
木
朩
未
末
本
札
朮
术
朱
朵
朶
朿
杀
杏
杜
束
条
来
東
杲
杳
松
析
林
枚
果
枝
枲
枼
某
柔
查
柬
柰
柴
栗
格
桀
桑
桼
梁
條
梟
梨
棘
棠
棥
森
楚
業
楽
榮
樂
樊
樓
標
欠
次
欣
欮
欲
欶
欽
款
歆
歇
歛
止
正
此
步
武
歨
歪
歮
歯
歰
歲
歴
歷
歸
歹
歺
死
殳
段
殷
殸
殹
殺
殻
殿
毀
毋
毌
母
每
毒
比
毕
毚
毛
毳
氏
氐
民
气
氣
水
氵
氶
氷
永
氺
氾
求
汝
汞
江
沃
沓
沙
沝
河
況
泉
法
波
泣
泥
泰
洛
津
洪
活
派
流
浦
浪
浮
消
淡
淮
清
渚
渠
港
湯
滿
漫
漸
灣
火
灬
灭
灰
灵
灷
炅
炎
炏
炗
炙
炭
為
烈
烏
烝
焉
無
焦
焱
然
煞
熊
熏
燕
營
燮
爪
爫
爭
爯
爰
爱
爲
爵
父
爻
爽
爾
爿
片
牙
牚
牛
牜
牟
牢
牧
牪
特
牽
犀
犬
犭
犮
狂
狄
狊
独
狺
猋
猒
猪
献
獻
玄
率
玉
王
玟
玨
珎
班
現
球
琴
瑟
瑩
環
瓜
瓦
甘
甚
生
産
用
甫
甬
田
由
甲
申
电
甶
男
甸
甹
画
甾
畀
界
畏
畐
留
畜
畟
畢
畧
畨
番
畫
異
畱
當
畺
畾
疊
疋
疌
疑
疒
疾
癶
癸
癹
登
發
白
百
皀
皃
的
皆
皇
皋
皐
皕
皮
皷
皿
盃
盆
盇
盈
益
盍
盎
监
盒
盖
盛
盡
監
盤
盧
目
直
相
盾
省
眇
眉
看
眔
眞
真
眷
眼
眾
着
睘
睪
睿
瞏
瞢
瞿
矍
矛
矞
矢
矣
知
矦
短
石
砲
破
碎
碧
磊
磨
示
礻
礼
神
祟
票
祭
禀
禁
福
禸
禹
禺
离
禽
禾
禿
秀
秃
秉
秋
科
秒
秝
秦
移
程
稟
穀
穌
穴
究
穹
空
穿
突
窄
窒
立
竒
竜
竝
竟
章
童
竹
笑
笠
第
筆
等
答
箕
算
箴
節
篇
篤
篭
米
粉
粛
粟
粤
粦
粲
粵
糞
糸
糹
系
約
納
素
索
紫
累
細
絜
絫
絲
維
綿
線
縣
總
繇
纍
纟
缶
网
罒
罔
罕
罗
罙
罡
罢
罪
署
罷
羅
羊
羌
羍
美
羔
羕
羗
羞
羡
羣
群
義
羲
羸
羽
翁
翏
習
翕
翟
翠
翼
老
耂
考
者
耆
而
耎
耑
耒
耳
耴
耶
耷
聂
聊
聖
聚
聶
聿
肀
肃
肅
肉
肖
肙
肥
肩
肯
育
肴
胃
背
胡
胥
能
脊
脩
腐
膚
臣
臤
臧
自
臬
臭
臯
臱
至
致
臺
臼
臽
臾
臿
舀
舂
舄
與
興
舉
舌
舍
舛
舜
舞
舟
航
般
艮
良
色
艸
艹
艾
芒
芔
芬
芮
花
芳
芺
芻
苔
苗
苟
若
苦
英
茶
茸
荅
草
荒
荣
荼
莆
莧
莫
莽
菆
菊
菐
菜
華
萬
落
葉
著
葛
董
葵
蒙
蒦
蒲
蒼
蓋
蓬
蓺
蔑
蔡
蕉
蕭
薄
薛
薦
薰
藍
藏
藥
蘭
虍
虎
虐
虒
虔
處
虖
虗
虘
虚
虛
虜
虞
號
虫
虽
蚤
蚩
蜀
蜜
蟲
蠡
血
行
衍
衛
衣
衤
表
衮
衰
袁
袞
褭
褱
襄
襲
襾
西
覀
要
覃
見
規
覓
覧
親
覽
见
角
解
言
訁
訇
計
記
訪
詹
語
誩
諸
議
讠
谷
豆
豈
豊
豐
豕
豖
豙
象
豦
豩
豪
豸
貇
貝
貞
貟
負
貢
貧
貪
貫
責
貳
貴
買
費
賁
資
賈
賏
賓
賔
賛
賞
賢
賣
質
賴
賽
贊
贝
贡
责
贯
贲
贵
赖
赞
赤
赦
走
越
趙
足
路
蹇
蹋
身
躬
車
軍
軎
軟
輦
輪
车
辛
辜
辟
辥
辰
辱
農
辵
辶
边
达
过
近
连
迷
追
退
送
逆
逐
通
速
造
逢
連
逮
進
遀
遂
過
道
達
遣
適
遷
選
遺
邊
邑
邕
那
邦
邪
郎
部
郭
都
鄉
鄞
酉
酋
配
酒
酓
釆
采
里
重
野
量
金
釒
鋒
錢
錦
錫
钅
長
镸
长
門
閃
閉
開
閏
閑
閒
間
閔
閵
閻
闌
门
问
间
闷
阑
阜
阝
阿
附
降
陳
隆
隊
隋
際
隡
隨
隱
隶
隹
隺
隻
隼
隽
难
雀
雁
集
雈
雋
雍
雐
雔
雙
雚
雜
雝
離
難
雨
雩
雪
雲
零
雷
電
需
霍
霜
霝
霞
霸
靈
靑
青
非
靡
面
靣
革
韋
韦
韭
韯
韱
音
頁
頃
項
須
頗
頡
頻
顛
页
風
颱
风
飛
飞
食
飠
養
饣
首
香
馬
馮
駦
驅
马
骨
高
髟
鬥
鬯
鬲
鬼
魚
魯
鮮
鯉
鱼
鲁
鳥
鳳
鴨
鸟
鹵
鹿
麃
麗
麥
麦
麻
黃
黄
黍
黎
黑
黒
黨
黹
黽
黾
鼎
鼓
鼠
鼻
齊
齋
齐
齒
齿
龍
龙
龜
龟
龠
龰
龱
龴
龵
龶
龷
龸
龹
者
艹
﻿
，
／
：
？
🜨
𠀁
𠀃
𠀆
𠀉
𠀎
𠀐
𠁁
𠁣
𠂆
𠂇
𠂈
𠂉
𠂊
𠂋
𠂎
𠂒
𠂔
𠂛
𠂡
𠂢
𠂤
𠂬
𠂭
𠂹
𠃊
𠃋
𠃌
𠃍
𠃎
𠃑
𠃓
𠃔
𠃜
𠄌
𠄎
𠄠
𠄢
𠆢
𠆥
𠇍
𠈌
𠌵
𠓜
𠔉
𠔥
𠔼
𠔽
𠔿
𠕀
𠕁
𠕋
𠘧
𠘨
𠙻
𠙼
𠚏
𠚒
𠚤
𠚪
𠣏
𠤎
𠤕
𠥓
𠦄
𠦑
𠦝
𠧒
𠧗
𠧪
𠩺
𠪚
𠫓
𠫔
𠫤
𠬛
𠬝
𠬞
𠬢
𠬤
𠬶
𠮛
𠮦
𠮷
𠯑
𠱠
𠳮
𠷎
𡈼
𡉀
𡉵
𡌥
𡍮
𡏳
𡕒
𡕩
𡕰
𡖅
𡗗
𡗜
𡘆
𡘤
𡧱
𡨄
𡩧
𡬠
𡭽
𡰣
𡰥
𡰪
𡰯
𡰱
𡷈
𡸁
𡿨
𡿩
𡿪
𡿺
𢀖
𢀛
𢀩
𢁙
𢆉
𢆰
𢆶
𢇁
𢇇
𢉖
𢌬
𢌿
𢏚
𢑑
𢑚
𢖻
𢙣
𢛳
𢦏
𢦒
𢧵
𢼄
𢾕
𣁋
𣄼
𣅀
𣅽
𣍘
𣎳
𣎵
𣏋
𣏼
𣗥
𣥂
𣥖
𣦵
𣦼
𣧄
𣪊
𣪠
𣬉
𣳾
𣶒
𤇾
𤊽
𤐫
𤓰
𤔔
𤕨
𤣩
𤰇
𤰔
𤰞
𤴓
𤴔
𤽄
𥁑
𥁕
𥃦
𥃩
𥃭
𥇡
𥑟
𥘅
𥘈
𥝢
𥫗
𥱡
𦈢
𦉪
𦉬
𦉼
𦍌
𦍒
𦎧
𦐇
𦓔
𦔮
𦘒
𦙃
𦚏
𦣝
𦣞
𦣻
𦥑
𦥔
𦥯
𦨉
𦭝
𦰩
𧆞
𧈧
𧘇
𧰨
𧴪
𧴮
𧵩
𧾷
𨸏
𨾴
𩙿
𩠐
𩫏
𩵋
𪉷
𪜀
𪟽
𪠲
𪩲
𫇦
𫔭
𫜸
𫝀
𫠣
𫠩
𫢉
𫥞
𫩏
𫩠
𫪡
𫲽
𫶧
𬀷
𬐘
𬗌
𬙙
𬛸
𬜯
𬟩
𬯁
𬴘
𬺻
𬼉
𬼖
𭀰
𭁈
𭁨
𭅰
𭑈
𭕄
𭗼
𭤨
𭥫
𭻾
𮅕
𮊿
𮍌
𮍏
𮓗
𮥼
𮧮
廾
𰀁
𰀄
𰀈
𰀉
𰀕
𰀠
𰀡
𰀢
𰀪
𰁜
𰃮
𰆊
𰆘
𰋙
𰕎
𰢴
𰧭
𰯲
00--
01--
02--
03--
05--
06--
07--
08--
09--
150--
153--
154--
157--
158--
201105--
2014--
2019--
2020--
46--
496--
50--
52--
55--
57--
59--
60--
73--
75--
81--
83--
84--
85--
88--
978--
a--
aa--
ab--
abi--
abin--
abr--
abu--
abuniek--
ac--
acro--
ad--
additiiv--
adjek--
adjekti--
adrian--
aeg--
aen--
aes--
af--
afgan--
afganis--
ag--
agan--
agen--
ah--
ahmat--
ahtistu--
ahven--
ai--
aiga--
aigu--
aihi--
aijan--
aikov--
ainie--
ainos--
air--
aitto--
aivol--
aja--
ajat--
ajattel--
ajel--
ak--
akade--
akadie--
akk--
ako--
akt--
aktiivi--
aktivis--
aku--
akva--
al--
ala--
alal--
alango--
ale--
aleks--
alex--
alga--
alge--
algu--
ali--
alima--
allan--
alle--
alo--
aloveh--
alt--
am--
amburija--
ame--
ameri--
ameriekkala--
amerikka--
amie--
amierie--
ammatil--
ammatti--
ammundu--
an--
ana--
and--
ane--
ange--
animaci--
antarkti--
anti--
antisept--
anto--
anu--
anuksen--
ao--
ar--
ara--
arago--
arde--
are--
argen--
argi--
arhe--
arheolou--
arhi--
arhii--
arhijepi--
ari--
ark--
arkan--
arma--
arnol--
arri--
art--
arvo--
arvos--
as--
askel--
aski--
asta--
astr--
astron--
at--
atlan--
atlet--
atmosfi--
atom--
au--
audd--
aus--
austr--
auto--
autono--
av--
avav--
ave--
avto--
avtokil--
avtonoum--
avtou--
avut--
avvut--
ay--
az--
aze--
azet--
aziel--
azii--
azum--
azut--
b--
ba--
bai--
bal--
balie--
baliettu--
ban--
bar--
barabuan--
bas--
bay--
be--
bel--
belomor--
ben--
ber--
berin--
bhu--
bi--
biat--
bib--
bibli--
bil--
bio--
biogr--
biolou--
bioteh--
bir--
bis--
biz--
biznes--
bla--
blo--
bo--
bog--
boha--
boju--
bokk--
bol--
bon--
bor--
boret--
bos--
br--
bra--
brea--
bret--
brituan--
bronzu--
bru--
brys--
bu--
buha--
bul--
bumua--
bur--
but--
butil--
by--
c--
ca--
cali--
can--
capi--
capr--
car--
cara--
carn--
caro--
cat--
cb--
ce--
celebra--
cen--
ch--
cha--
che--
choc--
chry--
ci--
cirk--
citr--
civil--
cla--
clau--
cli--
co--
cog--
collec--
colo--
com--
con--
contr--
cor--
corr--
cou--
cour--
cra--
cre--
cro--
cry--
cu--
cup--
cy--
cyg--
cym--
cyn--
d--
da--
dam--
dan--
dar--
data--
de--
del--
delegua--
delp--
demokruatti--
den--
der--
des--
detr--
deut--
di--
dia--
diato--
digi--
digita--
digitua--
dik--
dinam--
dipl--
disc--
disp--
dist--
divi--
do--
doc--
dom--
don--
dorm--
doro--
dostojevs--
dr--
dram--
drua--
du--
dub--
duum--
dy--
dyna--
dz--
e--
ea--
eb--
ec--
ed--
edin--
edu--
ee--
eehiela--
eepp--
ef--
effek--
eg--
egy--
eh--
ehoit--
ei--
eineh--
einehel--
eivis--
ek--
ekolou--
ekonou--
ekonoumiel--
ekosis--
eksku--
eksp--
ekzis--
el--
ela--
ele--
elektr--
elektron--
elektrou--
eli--
elin--
ellendy--
elo--
eloi--
elos--
elvyt--
emen--
emirua--
emp--
en--
end--
endiz--
endu--
ene--
ener--
energii--
eni--
enieru--
enne--
ennustus--
entr--
enzi--
epi--
epide--
epizoudu--
er--
erakko--
eri--
erijy--
erikois--
erila--
erino--
erinoma--
ero--
ertv--
es--
esta--
esti--
et--
eta--
eth--
etimolou--
etnil--
etno--
etnogruafiel--
eu--
euge--
euro--
ev--
eva--
ex--
expl--
explora--
ez--
ezi--
ezit--
f--
fa--
face--
fak--
fan--
far--
farf--
fe--
fed--
federual--
fell--
fermen--
ff--
fi--
fial--
figu--
fiiz--
fiiziel--
fil--
film--
filolou--
filolougie--
filosou--
fin--
finn--
fioli--
fiolietov--
firm--
fis--
fiziolou--
fl--
flei--
flic--
flor--
flu--
fly--
fok--
fol--
fon--
fonee--
fonogra--
for--
fort--
foto--
fou--
fr--
fransiela--
frat--
frauen--
frazeolo--
fre--
fred--
friizan--
fruk--
fu--
fun--
g--
ga--
gado--
gal--
gan--
gar--
garba--
gas--
gau--
gav--
gazi--
ge--
gek--
gemy--
gen--
geomet--
ger--
geras--
germuan--
gi--
giat--
gibra--
gie--
gihy--
gil--
ginz--
gl--
gla--
glet--
gno--
go--
god--
gogu--
gol--
gor--
gos--
gosu--
gr--
gra--
grafi--
gri--
grid--
griz--
gro--
grua--
gruadu--
gu--
guaz--
gw--
gy--
h--
ha--
haah--
haapa--
haav--
habi--
hac--
hajo--
hal--
hall--
hallindo--
hamba--
han--
hapa--
hapan--
hapatu--
happa--
har--
hard--
harja--
harjait--
harjaittel--
harjo--
harjoit--
harjoitus--
harm--
harmua--
hartika--
harv--
harvina--
has--
hauk--
haut--
hav--
he--
heimo--
hein--
heiny--
heit--
hel--
hengi--
her--
hern--
herr--
herras--
hertseg--
het--
hi--
hib--
hiek--
hiekku--
hiero--
hieta--
hii--
hiid--
hiihto--
hiijen--
hiila--
hiili--
hiilidi--
hiimiel--
hiimii--
hil--
hindu--
hipp--
hirv--
hisu--
hk--
ho--
hob--
hobjan--
hoch--
hoik--
hoikkaz--
hokkei--
hol--
holli--
hon--
hor--
horeo--
hos--
hot--
hotin--
hris--
hs--
hte--
hteis--
hti--
htien--
hty--
hu--
hua--
huabu--
huav--
huave--
huoga--
huogav--
huole--
huomat--
huon--
huonde--
huov--
hurric--
huuh--
hy--
hybr--
hyk--
hykke--
hypp--
i--
ia--
ic--
id--
ide--
iden--
ie--
iel--
ien--
ig--
igi--
igu--
ih--
ihai--
ihmeel--
ii--
iiva--
iivatan--
ik--
ika--
iko--
il--
ila--
iljins--
illu--
illum--
ilmasto--
ilmes--
ilmesty--
ilmoi--
ilmu--
ilo--
iloitu--
ilomants--
ilytys--
im--
ima--
imi--
impe--
in--
inde--
indepe--
indi--
indiela--
individuali--
indo--
indojevroup--
ineh--
infark--
inge--
ino--
inst--
instrumen--
inter--
io--
ipain--
ir--
irid--
is--
isp--
isto--
istu--
istute--
it--
ita--
itual--
ity--
iv--
ivy--
iz--
izdan--
izotou--
j--
ja--
jaga--
jagav--
jal--
jall--
jalla--
jam--
jan--
japo--
japouni--
jar--
jarman--
jaro--
jas--
jat--
jatkaj--
jatko--
jatku--
jauh--
javo--
jaz--
je--
jekaterin--
jepi--
jepisko--
jere--
jerus--
jes--
jeuro--
jev--
jevra--
jevro--
jevroup--
jevrouppala--
jeyr--
ji--
jo--
joga--
jogi--
jogu--
johta--
johto--
jor--
jou--
joudo--
jouh--
jouk--
joukko--
joul--
jovan--
joven--
ju--
jugosla--
jugosluav--
juh--
julga--
julgu--
julla--
jumoristi--
jun--
juo--
juoks--
juom--
juondu--
juu--
juum--
jy--
jygie--
jyrk--
jytty--
k--
ka--
kabrio--
kaheksa--
kai--
kaije--
kaiken--
kaiva--
kaivandu--
kaiver--
kaivos--
kaj--
kajaa--
kakao--
kaks--
kaksi--
kal--
kala--
kalan--
kalastus--
kalinin--
kalle--
kalli--
kallivo--
kalmi--
kamp--
kan--
kanda--
kando--
kandu--
kangas--
kansan--
kanza--
kanzala--
kanzall--
kanzallis--
kanzanrunoh--
kapus--
kar--
kara--
karha--
karto--
kas--
kat--
katos--
kau--
kauk--
kauppu--
kavk--
kavo--
kaz--
kazva--
kazvatta--
kazvi--
ke--
keb--
kebje--
kebji--
kehi--
kehitty--
kehityn--
kehoit--
keil--
keit--
kel--
keldu--
kello--
kem--
kemi--
ken--
ker--
kerdom--
kerdomus--
kesk--
keskei--
keski--
keskus--
key--
kh--
khu--
ki--
kia--
kieh--
kiel--
kieli--
kier--
kies--
kih--
kii--
kiihu--
kiimu--
kiini--
kiinn--
kil--
kilbu--
kim--
kin--
kino--
kir--
kirgi--
kiril--
kirja--
kirju--
kirjutus--
kirk--
kirves--
kis--
kisal--
kislo--
kisloruo--
kit--
kivi--
kk--
kkeh--
kki--
kl--
kla--
klas--
klassie--
klassifikat--
klave--
klouru--
kluas--
kluu--
kn--
ko--
kodi--
kodialoveh--
kodoim--
koge--
kogo--
kohe--
kohti--
koi--
koivu--
kok--
koko--
kol--
kola--
kolg--
kollas--
kollekti--
kolman--
kolme--
koltan--
kolu--
kombinu--
komm--
kommuni--
kommunikatiiv--
komp--
kon--
konfe--
konser--
konserv--
kontio--
kontr--
kontra--
koo--
kope--
kopp--
kor--
korb--
korgev--
korho--
korja--
korpi--
korr--
kos--
koske--
koski--
kot--
kottara--
kouk--
koul--
kov--
koz--
kozlo--
kr--
kra--
krasn--
krasnobor--
kre--
krei--
kres--
kri--
krii--
kriitie--
kris--
krit--
kroli--
kruatte--
ks--
ksy--
ku--
kua--
kuadu--
kuha--
kui--
kuikka--
kuiva--
kuivi--
kukka--
kukko--
kukku--
kukoin--
kul--
kuldu--
kulgu--
kumb--
kumma--
kun--
kunna--
kunni--
kuoh--
kuok--
kuokkanie--
kuol--
kuole--
kur--
kurgi--
kus--
kuu--
kuun--
kuurniz--
kuuzi--
kuv--
kuva--
kuvasana--
kuvi--
kuz--
kv--
kvar--
ky--
kyl--
kymin--
kymm--
kynz--
kyps--
kyzymy--
l--
la--
laaks--
labja--
lad--
lah--
lahden--
lahko--
laihin--
lait--
laito--
laitteh--
lamba--
lammin--
lan--
lang--
lappeen--
lapsien--
las--
laski--
lasten--
lat--
lau--
lauhki--
lauk--
lav--
le--
lea--
leen--
leg--
leh--
lehti--
lei--
leijo--
leik--
leikatt--
leikkav--
leitena--
lem--
lemme--
len--
lendo--
leo--
leppy--
lept--
les--
let--
leu--
leuc--
lev--
levevys--
levi--
lgeh--
lgi--
li--
lia--
liber--
libr--
lic--
lif--
ligu--
liha--
lii--
liideh--
liikendeh--
liikku--
liiku--
liipo--
liipu--
liitto--
lik--
lil--
limon--
limonua--
lin--
linah--
lindu--
linnan--
linnu--
linnun--
lipp--
lit--
litera--
liu--
livo--
ll--
lla--
lle--
lliz--
lo--
lodie--
lohi--
loit--
loito--
loitto--
loko--
lope--
lopp--
loppu--
lopul--
lor--
lou--
louna--
lounas--
love--
lu--
luadu--
luc--
luge--
lugu--
luistel--
luji--
lujitta--
lujo--
lum--
luo--
luodeh--
luola--
luondo--
luonno--
luonnon--
luter--
luusal--
luve--
luz--
ly--
lyh--
lyky--
lynim--
lys--
lyydin--
m--
ma--
maa--
maailman--
mac--
mad--
madagas--
mag--
magavo--
magniet--
magnietti--
magniettu--
maha--
mai--
maido--
main--
makar--
makedo--
maki--
maks--
mal--
malitt--
man--
mando--
manha--
mar--
mari--
mark--
mars--
mas--
mat--
matema--
matemuat--
materju--
mathe--
matkailu--
matku--
mau--
mav--
max--
maz--
mc--
mcc--
me--
medi--
mega--
mehanie--
meksi--
mel--
meliorativ--
memori--
men--
mer--
meren--
meri--
mes--
met--
metou--
metropolii--
mi--
mid--
mieh--
miek--
miel--
miele--
mieli--
mies--
miet--
mifolou--
mii--
miif--
mikr--
mil--
mill--
mir--
mis--
mit--
mitro--
mittu--
mizen--
mjan--
mmi--
mo--
moi--
molda--
molle--
mon--
monen--
moni--
mono--
mont--
mor--
mord--
mos--
mot--
mou--
mra--
mrua--
mu--
mua--
muahpan--
mual--
mualav--
muan--
muarju--
muat--
muh--
muho--
muinas--
muju--
mul--
mullo--
muok--
muokkuam--
murm--
murr--
murreh--
murte--
mus--
musii--
mustan--
musto--
mustu--
muu--
muuanno--
muumi--
muuttam--
muuzikal--
muuzikku--
muuzikua--
muz--
muzavan--
muzei--
my--
mylly--
myrk--
mys--
n--
na--
nagr--
nai--
naisp--
nakk--
nami--
nanomet--
nar--
nat--
nau--
nav--
naz--
nc--
nde--
ndy--
ne--
nec--
nef--
neili--
neitrua--
nek--
nel--
nelli--
nen--
nenet--
nengo--
neoli--
nes--
net--
neu--
nevs--
nevvo--
nevvosto--
ng--
nho--
ni--
nic--
niek--
nigs--
nii--
nik--
niki--
nil--
nimi--
nimitt--
nis--
nit--
nke--
nlasku--
nmual--
nn--
nne--
nneh--
nnouzu--
nny--
no--
noi--
nolja--
nor--
norve--
norvie--
nos--
nosta--
noste--
not--
nou--
nouz--
novo--
np--
nr--
nreu--
nrua--
nruada--
ns--
nta--
nu--
nuaburi--
nuag--
nuor--
nuore--
nuorus--
nurm--
nuuttipu--
ny--
nyg--
nygy--
nygya--
nygyaiga--
nyky--
nyt--
o--
oa--
ob--
obin--
obit--
objek--
obra--
oc--
occiden--
ofic--
og--
ogaha--
oh--
ohja--
ohjel--
ohjuam--
oi--
oigev--
oigevus--
oin--
oit--
oja--
ok--
okea--
oks--
oksiidu--
ol--
olavin--
ole--
olimpi--
olimpiadu--
olimpii--
olo--
olonet--
oly--
om--
oma--
omaelos--
omaks--
omal--
oman--
ombel--
omendu--
omis--
on--
onda--
oniegu--
oopp--
op--
opas--
opastu--
opastus--
operiet--
oppi--
opti--
or--
ora--
oravan--
orbi--
org--
organ--
organiz--
organiza--
orien--
orju--
orke--
orkest--
orkestru--
oro--
orz--
os--
ostan--
ostrov--
ot--
ottam--
otto--
ou--
ouper--
ouperu--
our--
ov--
oven--
ovvo--
ox--
oxyco--
oz--
oza--
ozru--
ozut--
ozutel--
ozutet--
ozutta--
ozuttam--
ozuttelu--
p--
pa--
paarden--
paas--
pac--
pada--
paf--
pagin--
pagiz--
pagizut--
paha--
pahe--
paika--
paikalliz--
pais--
paje--
pajo--
paju--
pakas--
pakiet--
pakis--
pakka--
pal--
pala--
pallon--
palvel--
pam--
pan--
pap--
papi--
papia--
papin--
pappi--
par--
parah--
parahim--
parand--
parii--
parik--
parla--
part--
pas--
pasku--
pastu--
patr--
pav--
pe--
pedagougu--
pedo--
peh--
peit--
peitto--
pek--
pel--
peldo--
pella--
pellasta--
pelo--
pen--
penal--
penger--
per--
pereh--
perga--
perinde--
persouna--
peru--
perusta--
perustamis--
pes--
petr--
pezo--
philosop--
pho--
pi--
pia--
pic--
pid--
piduh--
pie--
pielu--
piene--
pieni--
pii--
piipl--
piir--
piiri--
piirr--
piirus--
pika--
pikkara--
pikku--
pil--
pin--
pir--
pira--
pit--
pitky--
pl--
pla--
platina--
po--
pod--
podgor--
podi--
poe--
pohja--
pohjas--
pohjaze--
pohjazi--
pohjo--
poiga--
poik--
poikkev--
pol--
polic--
polii--
poliitie--
poliitiekal--
poliitil--
poliitti--
polimee--
polit--
pomor--
pop--
por--
pos--
post--
pot--
pozitiiv--
pp--
pr--
pras--
pravos--
pravosla--
pravoslaun--
pre--
pree--
prefek--
prepodob--
pres--
pri--
priho--
prin--
princi--
prinsi--
pro--
proce--
progra--
propa--
proto--
protses--
prouzu--
pruaz--
pruazniek--
ps--
psiholou--
pt--
pu--
puar--
puhaldu--
puhta--
puhu--
puhundu--
pun--
punk--
puol--
puola--
puoli--
pur--
pus--
put--
puu--
puuh--
puut--
px--
py--
pyhi--
pyrr--
pysty--
pyzy--
q--
qu--
que--
r--
ra--
raam--
rabindr--
rag--
rah--
raho--
rahvahan--
rahvas--
raiko--
raikon--
raja--
rakenda--
rakendu--
rakendus--
rakka--
ran--
randu--
ras--
ratas--
ratta--
rau--
rauda--
raudu--
raudutie--
rauh--
rauhan--
raum--
raus--
raut--
raz--
razv--
re--
reag--
red--
refor--
reik--
rel--
remon--
ren--
reper--
res--
resta--
resto--
restora--
ret--
reus--
rev--
reve--
rez--
rezer--
reziden--
rgi--
rgie--
rh--
ri--
ria--
rie--
rii--
ril--
rimal--
rin--
rinnal--
ripoit--
ris--
risti--
rit--
ritari--
rjes--
rjeste--
rk--
rn--
ro--
rock--
rod--
rodiv--
rodu--
roh--
roi--
roindu--
roinn--
rok--
romantiel--
ross--
rossij--
roto--
rou--
roz--
rr--
rres--
ru--
rua--
ruada--
ruadi--
ruadivo--
ruado--
ruahto--
ruis--
run--
runo--
runon--
ruok--
ruokola--
ruos--
rupp--
rus--
ruski--
ruspa--
ruus--
ruut--
rv--
rven--
rvi--
ry--
rygi--
ryy--
s--
sa--
saa--
saari--
sada--
sadu--
sah--
sahan--
sai--
sal--
salbav--
salduat--
salua--
sam--
saman--
sammat--
sammu--
san--
sana--
sanan--
sanomuleh--
sar--
sara--
sarja--
sarju--
sarka--
sarv--
sat--
satat--
satii--
savi--
sc--
sca--
sch--
scho--
scien--
scom--
scul--
se--
sec--
see--
seel--
sef--
sega--
sein--
seiz--
sek--
sel--
sellit--
sem--
sen--
seneg--
sent--
seppy--
serdo--
seu--
sevas--
seve--
sevoit--
sgo--
sha--
she--
shi--
sho--
si--
sic--
sie--
siemen--
sig--
sii--
siinu--
siir--
siirdy--
siiv--
sijo--
sijoit--
sijoittu--
siktivk--
sil--
sillo--
sim--
simfou--
simvol--
sin--
sino--
sir--
sisti--
sit--
sivil--
sivo--
sivu--
sk--
ska--
skept--
ski--
sko--
sky--
sl--
slav--
slov--
slua--
sm--
sn--
snima--
so--
soan--
sobi--
sobimu--
sociualu--
sof--
soin--
soinnil--
soit--
soita--
sol--
son--
sor--
sorok--
sorzu--
sosia--
sosn--
sot--
sotsi--
sotsia--
sotsiual--
sou--
souh--
sov--
sovets--
sp--
spa--
spec--
spek--
spiel--
spir--
spor--
sport--
sportu--
sr--
sroji--
ss--
ssel--
st--
sta--
stan--
stanc--
star--
ste--
stein--
ster--
sti--
stipe--
stol--
stra--
strand--
stras--
strate--
stre--
stro--
struk--
stu--
stuatus--
stuu--
sty--
stys--
su--
sua--
suandu--
suari--
suavut--
sub--
sugu--
suhte--
suku--
sul--
sulat--
sum--
sun--
suo--
suoju--
suom--
suomela--
suomen--
super--
sur--
survott--
susiedu--
suu--
suunu--
suur--
suuri--
suut--
suv--
suve--
suvi--
sv--
svazi--
sved--
svir--
sw--
sy--
syl--
syn--
synnyin--
syr--
syrac--
sys--
syt--
syvys--
t--
ta--
taba--
taga--
tagu--
tah--
tai--
taide--
taideh--
taido--
taite--
taiva--
taivut--
tal--
talle--
talove--
talovus--
talvi--
tam--
tan--
tapahtu--
tara--
taras--
tarb--
tarka--
tarkast--
tarke--
tarvi--
tau--
tavan--
taza--
te--
teat--
teatru--
tech--
teh--
tehniel--
tekstu--
tel--
telek--
teleozut--
telev--
televii--
temuat--
ten--
tenhu--
teolo--
teolou--
teor--
teourie--
ter--
termod--
tetr--
tevo--
th--
the--
thor--
ti--
tia--
tie--
tiede--
tiedo--
tiedoin--
tieto--
tih--
tihe--
tii--
tiijust--
til--
tilav--
tina--
tir--
tit--
tiu--
to--
todev--
todevut--
toi--
toiva--
tok--
tol--
tolva--
tom--
top--
topogruafiel--
tor--
tora--
toras--
torgu--
torr--
touk--
tove--
tovest--
tozi--
tr--
tra--
tradic--
trag--
tragie--
trakt--
tram--
tran--
trans--
transur--
tre--
treni--
tri--
trom--
trop--
tru--
ts--
tt--
tte--
tti--
tu--
tua--
tuber--
tugi--
tuh--
tul--
tulema--
tuli--
tull--
tulo--
tun--
tunde--
tung--
tunn--
tunnetu--
tunnetuim--
tunnus--
tuo--
tuohi--
tuoks--
tuor--
tuot--
tuota--
tur--
tura--
turistu--
turk--
turn--
turv--
turvupiel--
tus--
tutkimus--
tuttav--
tuu--
tuul--
tuuli--
tuuri--
tuuru--
tuus--
tw--
ty--
tyd--
tyh--
tyr--
tyt--
tyy--
u--
ua--
uaju--
ual--
uale--
uan--
uas--
uaz--
ubi--
uc--
udar--
udmur--
udotvor--
udu--
ufat--
ugl--
ugr--
ugrila--
ugu--
uh--
uhana--
ui--
uindu--
uinotus--
uk--
ukii--
ul--
ulgo--
uljanov--
um--
umbi--
umii--
umin--
un--
und--
under--
une--
ungii--
uni--
univers--
universit--
unoh--
uo--
uol--
uon--
uoriv--
up--
ura--
urb--
urba--
urha--
urn--
urnual--
uro--
urugva--
us--
usko--
uslaito--
uss--
ut--
uu--
uuban--
uudi--
uuni--
uuzi--
uv--
uvve--
uvvistu--
uvvon--
uz--
v--
va--
vaga--
vah--
vaha--
vahni--
vai--
vaigev--
vaih--
vaihe--
vaihi--
vaihto--
val--
valdivo--
valdivon--
valdu--
valgei--
valgo--
valke--
vallas--
vallo--
valloitta--
valpa--
valpahan--
valut--
van--
vanhe--
var--
vara--
varba--
vardo--
varia--
varie--
varka--
varpa--
varus--
varustandu--
varzi--
vas--
vaski--
vasta--
vastavu--
vastu--
vastusta--
vati--
vavil--
ve--
vedo--
vehka--
veits--
vel--
veldy--
veldyst--
velle--
ven--
venet--
vente--
ver--
verdai--
verdu--
vere--
veren--
veri--
verko--
verr--
vet--
veter--
vezi--
vi--
vie--
vien--
vienan--
viera--
vierola--
vih--
vihan--
vii--
viikin--
viinan--
viitty--
viiza--
viizi--
vil--
viligrii--
vimm--
vin--
vintouh--
vir--
vira--
virgu--
virr--
virta--
virz--
vis--
vite--
vlad--
vo--
vogel--
voi--
voinan--
voinu--
voj--
vol--
volks--
voro--
voron--
voskresen--
vua--
vuadimu--
vuitin--
vuo--
vuoro--
vuot--
vuotto--
vuozi--
vuu--
vuv--
vv--
vvel--
vy--
vys--
w--
wa--
wald--
was--
water--
we--
web--
wie--
wil--
win--
wor--
wu--
x--
y--
ya--
ydi--
yh--
yhdi--
yhdysvall--
yhte--
yhteis--
yhteiskunna--
yhten--
yhtes--
yhtevys--
yhtis--
yhty--
yhtys--
yk--
yksi--
yksiat--
yl--
yla--
yle--
yleis--
yli--
yn--
yo--
yr--
yrity--
yrua--
yruado--
ys--
yt--
ytel--
yzi--
z--
za--
zakonoin--
zara--
zas--
zavo--
ze--
zel--
zems--
zen--
zi--
zin--
zit--
zitte--
zittely--
zo--
zoo--
zoroastria--
zpa--
zu--
zuaha--
zual--
zvie--
zy--
ν--
ο--
ρ--
а--
ав--
ал--
алекс--
ан--
анса--
ар--
ат--
б--
ба--
бал--
бар--
библи--
бо--
бол--
больш--
бр--
бу--
в--
вали--
ве--
вес--
вики--
во--
вос--
вот--
вс--
все--
вы--
выб--
г--
га--
гер--
го--
гр--
д--
дан--
де--
десят--
ди--
докумен--
е--
евр--
ел--
естест--
ж--
з--
за--
зад--
заду--
зак--
зим--
и--
им--
ис--
к--
ка--
ке--
ко--
комите--
кр--
кра--
ку--
кук--
кы--
л--
лапс--
ле--
леген--
лу--
ль--
лю--
м--
ма--
мар--
ме--
мер--
метафоричес--
ми--
мих--
мо--
мол--
мор--
му--
мы--
н--
набереж--
не--
нн--
но--
ном--
о--
об--
обр--
общ--
обяза--
од--
оз--
ол--
отрица--
отсут--
п--
па--
пе--
по--
пр--
пра--
продук--
пу--
р--
ра--
раскра--
расс--
ре--
реги--
рн--
ро--
руа--
руохты--
с--
са--
саам--
св--
све--
священ--
се--
сер--
сиб--
ск--
скр--
сл--
сле--
слу--
сн--
со--
соз--
соответ--
сп--
ст--
су--
сы--
т--
тол--
тр--
ту--
ты--
у--
указ--
упа--
уст--
ух--
учи--
ф--
фе--
фи--
фо--
фор--
х--
хр--
хри--
цы--
ч--
ча--
чер--
чу--
чук--
ш--
ша--
шриф--
э--
энзим--
юж--
юмо--
я--
پ--
--0
--00
--03
--06
--09
--1
--10
--11
--13
--15
--16
--2
--20
--23
--25
--27
--3
--30
--31
--33
--35
--39
--4
--42
--45
--46
--48
--5
--52
--6
--63
--66
--7
--73
--75
--786
--8
--9
--a
--aa
--aal
--aamelazien
--aari
--ab
--ac
--aca
--ach
--ad
--ada
--ado
--ador
--adu
--ae
--af
--ag
--age
--ager
--agjal
--agjaspa
--ago
--ah
--ahes
--ahti
--ahttp
--ai
--aigah
--aigazen
--aigu
--aigua
--aijan
--aine
--ais
--aizii
--aizis
--aja
--ajan
--aju
--ak
--aks
--akse
--al
--ala
--alal
--alan
--alat
--ale
--alle
--allic
--allikos
--almi
--aloi
--aloveheh
--alu
--am
--ama
--amah
--ammen
--amo
--an
--anan
--andu
--ang
--ani
--anke
--ann
--ans
--ante
--anu
--ap
--ar
--ara
--ard
--ari
--arjua
--aro
--arvoine
--ary
--as
--assa
--assu
--astu
--at
--ata
--atan
--ated
--atettih
--ation
--ato
--atoi
--ators
--atoru
--atre
--attu
--attua
--atus
--atut
--au
--aukku
--avi
--ax
--ay
--az
--azeh
--azen
--azes
--azet
--azii
--azil
--azile
--azis
--b
--ba
--bat
--berries
--bi
--bird
--ble
--brujii
--bs
--burg
--bus
--by
--c
--ca
--cal
--car
--cca
--ce
--ceae
--cer
--ces
--ceus
--ch
--cho
--chus
--ci
--cien
--cies
--ciet
--ck
--ckoi
--cle
--co
--cope
--ct
--cule
--cus
--cy
--d
--da
--dae
--dah
--daja
--dakse
--dal
--dan
--das
--dau
--dd
--de
--deh
--dekse
--del
--dele
--den
--des
--det
--dettu
--di
--dia
--dii
--dinavian
--do
--doi
--doin
--dois
--doloi
--doloih
--dorogoin
--dos
--doz
--ds
--dt
--du
--dua
--dukses
--duo
--duu
--dy
--dz
--dzin
--e
--ea
--ec
--eca
--ed
--eda
--edu
--edy
--ee
--een
--eg
--eh
--ehen
--ehii
--ehis
--ehko
--ehtu
--ei
--ein
--eina
--eis
--eja
--ek
--eka
--ekan
--ekas
--ekat
--ekku
--ekse
--el
--ela
--elaziin
--ele
--elf
--elgy
--ell
--elli
--elluh
--elma
--elo
--eloi
--elos
--elt
--eltih
--elu
--em
--ema
--embi
--en
--ence
--enke
--ennu
--enny
--eno
--ens
--ensis
--ent
--eon
--ep
--er
--era
--eran
--eren
--erg
--ering
--ern
--ero
--ers
--eru
--es
--ese
--esin
--espa
--ess
--essa
--est
--esti
--et
--eta
--etah
--ets
--etta
--ettih
--ettu
--ettuu
--etty
--etus
--etut
--eura
--eus
--ev
--evic
--evo
--ewydd
--ex
--ey
--ez
--eza
--ezan
--f
--fe
--fer
--ff
--ffan
--fier
--fighting
--fii
--fro
--ft
--fucelaiz
--g
--ga
--gah
--gang
--gas
--gat
--ge
--gen
--ger
--ges
--gh
--gham
--ght
--gi
--gia
--gin
--ging
--git
--gle
--gne
--go
--goi
--gon
--gozero
--grammu
--graphy
--gruafii
--gs
--gt
--gu
--gua
--gue
--guh
--guo
--gus
--gy
--h
--ha
--hae
--hah
--haigari
--hal
--ham
--han
--hanhi
--hat
--hden
--he
--hed
--heh
--hel
--hen
--hennu
--her
--hes
--het
--hi
--hii
--hin
--his
--histu
--hizet
--hko
--hl
--hm
--hn
--ho
--hof
--hoidajannu
--hr
--ht
--hti
--http
--https
--htu
--hu
--hua
--huon
--huos
--hven
--hy
--i
--ia
--iae
--ial
--ian
--iano
--ianum
--ias
--ic
--ica
--ical
--ican
--ick
--icus
--id
--idae
--ide
--idu
--idua
--ie
--iec
--ied
--iedu
--ieh
--iekse
--ielaine
--ielastu
--ielazen
--ielazet
--ielazii
--ielazis
--iemi
--ien
--ier
--ieri
--ies
--iet
--if
--ig
--iga
--ight
--igu
--igua
--ih
--ii
--iin
--iira
--iiruic
--iitas
--iivu
--ij
--ija
--ijah
--ijen
--ik
--ikat
--ikka
--ikse
--ikum
--il
--ila
--ilas
--ile
--ilijat
--ilijua
--ille
--ilou
--ilpa
--ilu
--im
--in
--ina
--inan
--indu
--indua
--ine
--inehet
--inen
--ing
--ings
--ini
--iniemi
--inien
--inke
--innu
--ins
--inu
--inus
--io
--iog
--ion
--ions
--ior
--ip
--iri
--iro
--is
--isei
--isesti
--iset
--ish
--isk
--issa
--ist
--istat
--isten
--istizii
--isto
--istu
--isty
--it
--ita
--ite
--itettih
--itin
--ittu
--itus
--ium
--ius
--ive
--ivi
--ivu
--ix
--iz
--ization
--ize
--izeh
--izekse
--izel
--izele
--izen
--izennu
--izes
--izet
--izien
--izih
--izii
--izinnu
--izis
--izmah
--izman
--izmu
--j
--ja
--jaa
--jah
--jak
--jakse
--jal
--jale
--jan
--jannu
--jas
--jat
--je
--jen
--jer
--jes
--jet
--jev
--jeva
--jevna
--jevo
--ji
--jia
--jien
--jii
--jile
--jinnu
--jis
--jo
--jogeh
--jogi
--jogikse
--joi
--joile
--join
--jois
--joki
--jon
--joukko
--joukos
--joven
--ju
--jua
--jyttymia
--jyttymii
--k
--ka
--kah
--kal
--kan
--kandu
--kanoin
--karvaine
--kas
--kat
--kauhan
--ke
--ked
--keh
--kei
--kera
--kerdaine
--kerhoh
--kerroksine
--kes
--keskus
--ki
--kia
--kie
--kieles
--kieli
--kieline
--kielizeh
--kielizekse
--kielizen
--kielizes
--kielizet
--kies
--kiet
--kin
--kirche
--kirju
--kiz
--kk
--kka
--kkah
--kkahas
--kkahasti
--kkahat
--kkehet
--kko
--kkolois
--kku
--kkua
--kky
--kkyo
--kl
--kle
--kniigu
--ko
--kogomus
--kohtat
--kohtehii
--kohtu
--koin
--kois
--kolc
--komitiettu
--kompleksu
--kondu
--konferensii
--kos
--kot
--ks
--ksa
--ksan
--kse
--kseh
--ksen
--kses
--kset
--ksi
--ksii
--ksja
--ksu
--kt
--ktu
--ku
--kuja
--kul
--kundah
--kundu
--kunnal
--kunnale
--kunnan
--kuo
--kuvia
--ky
--kyla
--l
--la
--lah
--lahten
--lahtes
--lahti
--lai
--laine
--laisten
--laitoksis
--laizii
--laji
--lal
--lan
--land
--las
--lat
--lav
--lazeh
--lazen
--lazes
--lazet
--lazien
--lazii
--lazil
--ld
--le
--led
--lee
--leh
--leiri
--len
--ler
--ley
--lf
--li
--lia
--lieh
--lien
--lies
--liha
--lii
--liida
--liiton
--liitto
--lijat
--lijev
--line
--linnu
--lis
--listu
--lizeh
--lizes
--lizet
--lizii
--lizin
--lizis
--lk
--ll
--lla
--llah
--lle
--lli
--lline
--llistu
--lliz
--llizeh
--llizekse
--llizel
--llizen
--llizes
--llizien
--llizil
--llizis
--lloi
--lluo
--llus
--lmi
--lo
--loi
--loih
--loil
--loile
--loin
--loinnu
--lois
--loispa
--lon
--lou
--lougu
--loveh
--lpa
--ls
--lt
--lto
--lu
--lua
--luadu
--luadustu
--luaduzii
--luh
--luloi
--lun
--luo
--lus
--luu
--ly
--m
--ma
--maa
--mah
--mal
--man
--map
--mas
--mat
--matkah
--matkoi
--matkoil
--matkois
--matku
--matoi
--mattah
--mbat
--mbi
--mbua
--mc
--me
--mec
--meh
--mehu
--mei
--mein
--men
--ment
--merdy
--mereh
--merel
--meren
--meri
--merki
--mes
--met
--mi
--mia
--mie
--mieh
--miehii
--mii
--mine
--mis
--mistu
--mja
--ml
--mmo
--mmoi
--mmu
--mo
--mov
--ms
--mu
--mua
--muan
--muas
--mukseh
--mun
--muodo
--mus
--muzei
--my
--myo
--n
--na
--nah
--nakan
--nal
--nale
--nan
--nas
--nat
--nazen
--nce
--nch
--ncourt
--nd
--nda
--ndah
--ndan
--ndas
--ndoi
--ndoloin
--ndon
--ndu
--ndua
--ndy
--ne
--nen
--ner
--nerannu
--nes
--ney
--ng
--nge
--ngi
--ni
--nia
--nie
--niekan
--niekas
--niekat
--niekoin
--niekse
--niemi
--nien
--nies
--nii
--nik
--nizen
--nja
--nk
--nka
--nke
--nnan
--nni
--nnon
--nnu
--nnuh
--nny
--no
--noi
--nois
--noja
--noje
--nolline
--non
--not
--nouzu
--nouzun
--nouzuu
--nov
--ns
--nsis
--nskoi
--nt
--nte
--nts
--ntu
--nu
--nua
--nuh
--nun
--nuon
--nuos
--nuot
--nus
--nut
--nuttu
--ny
--nybla
--nyh
--nyt
--nza
--nzan
--o
--oc
--od
--oda
--odki
--odu
--offame
--og
--ogy
--oh
--ohus
--oi
--oih
--oil
--oin
--oinnu
--ois
--oja
--ok
--oksen
--oksien
--ol
--olo
--ols
--om
--ome
--omus
--on
--onal
--one
--ong
--onoi
--ons
--onu
--onus
--ony
--oon
--opistoh
--opiston
--or
--ord
--ore
--ors
--orsa
--os
--osoufies
--ot
--otku
--ots
--ou
--ougine
--ounu
--ov
--ova
--oveh
--ovic
--ovna
--ovo
--ovoi
--ovon
--ow
--oz
--oza
--ozah
--ozaine
--ozan
--ozas
--ozat
--ozen
--ozet
--ozis
--ozua
--p
--pa
--palkindon
--panendu
--pat
--pc
--pe
--pel
--pen
--perindo
--peza
--ph
--phere
--pi
--pia
--piirin
--platz
--po
--poc
--pohja
--poi
--poigien
--pol
--pos
--ppu
--pruazniekas
--ps
--puolizel
--pur
--puun
--pyo
--q
--r
--ra
--rac
--rad
--ragus
--rah
--raja
--ral
--rale
--ran
--randu
--rannan
--rannu
--ras
--rat
--rated
--rche
--rd
--rdi
--rds
--re
--ren
--res
--rev
--rey
--rf
--rg
--rgies
--ri
--ria
--rien
--ries
--rin
--ris
--rit
--rju
--rk
--rl
--rn
--rnis
--rnoi
--ro
--roi
--rois
--ror
--ros
--rostra
--rov
--rren
--rs
--rt
--ru
--rua
--ruadai
--ruado
--ruadoh
--ruavon
--ruavos
--ruic
--ruittu
--ruvas
--rvi
--ry
--rz
--s
--sa
--saami
--saari
--sade
--sah
--san
--sas
--sat
--scape
--se
--sed
--seh
--sel
--selgy
--sen
--sepa
--ser
--ses
--set
--seuran
--sh
--si
--sid
--sien
--siet
--sii
--sin
--sion
--sis
--sistiemah
--sk
--skaja
--skaya
--ske
--sker
--ski
--skin
--skirche
--skoi
--skoin
--sky
--so
--sobimus
--soi
--son
--sov
--sovan
--spa
--ss
--ssa
--ssah
--sse
--ssi
--sson
--ssu
--ssua
--st
--sta
--stajat
--stajien
--stamah
--stan
--stannu
--stansien
--stein
--sten
--ster
--stettu
--sti
--sto
--ston
--struktsii
--stu
--stui
--stunnuh
--stus
--sty
--su
--sua
--suan
--suandan
--suardu
--suo
--suomen
--suomi
--sus
--suu
--suun
--sy
--syo
--t
--ta
--taa
--taan
--taba
--tae
--tah
--tai
--taja
--tajan
--tajat
--tajen
--tajes
--tajii
--tajis
--tajua
--takse
--tal
--tale
--talo
--tamah
--tamine
--tamistu
--tamizeh
--tamizekse
--tan
--tandan
--tandua
--tannuh
--tanuh
--tar
--taren
--tari
--tas
--tat
--tau
--tavah
--taval
--tavan
--tavat
--tavu
--tazon
--tc
--te
--ted
--tehet
--tehien
--tehii
--tehis
--teli
--teltih
--telu
--telun
--ten
--ter
--tera
--tes
--tet
--tetah
--tettu
--tettuu
--tetun
--tetut
--tevos
--th
--ti
--tic
--tie
--tiedo
--tiedy
--tiekku
--tien
--tih
--tii
--tiijon
--tiivas
--tiivu
--tika
--tikku
--til
--tilo
--tinda
--tine
--tio
--tion
--tizen
--tku
--tl
--tle
--to
--toh
--toi
--tois
--toja
--toloi
--tomat
--tomii
--tomua
--ton
--tor
--toran
--toru
--tos
--tostu
--tot
--tr
--tra
--tre
--tro
--trol
--try
--ts
--tsa
--tsi
--tsies
--tsii
--tsua
--tt
--tta
--ttah
--ttai
--ttain
--ttaja
--ttajas
--ttajen
--ttajien
--ttajii
--ttajile
--ttajis
--ttamah
--ttamistu
--ttanut
--ttas
--ttavu
--tti
--ttih
--ttomat
--ttomii
--ttp
--ttu
--ttua
--ttuu
--tty
--tu
--tua
--tuh
--tui
--tujis
--tukse
--tukseh
--tuksekse
--tuksel
--tuksen
--tukses
--tukset
--tuksih
--tuksis
--tul
--tuloin
--tumah
--tun
--tundii
--tunnu
--tunnuh
--tunuh
--tuo
--tura
--ture
--tus
--tut
--tuu
--tva
--ty
--tylo
--tyn
--tyo
--tys
--tyy
--tz
--u
--ua
--uadan
--uahua
--uattu
--uaz
--uc
--ud
--uda
--udu
--ue
--uel
--ug
--ugat
--ugh
--ugii
--ugine
--ugu
--uh
--uhos
--uhuo
--ui
--uic
--uil
--uksih
--ul
--ula
--um
--uman
--un
--ung
--unnu
--uo
--uon
--uos
--ur
--ure
--urt
--uru
--us
--usja
--ut
--uta
--utus
--uu
--uun
--uus
--ux
--uz
--uzan
--uzas
--uzu
--v
--va
--vaara
--vaaran
--vah
--vaine
--vaja
--vakse
--valdu
--vallan
--van
--vannu
--var
--vari
--vas
--vat
--vc
--ve
--ved
--veda
--ven
--vepsa
--ver
--ves
--vetty
--vezi
--vi
--vic
--vien
--vies
--vik
--vin
--vity
--vkin
--vna
--vo
--voh
--voi
--volok
--von
--vos
--vot
--vs
--vskii
--vsky
--vu
--vua
--vui
--vun
--vunnuh
--vuo
--vuodizen
--vuodizet
--vuottu
--vus
--vuu
--vvan
--vy
--vz
--w
--wa
--weg
--wi
--wn
--wr
--ws
--wy
--wyn
--x
--y
--ya
--yc
--ye
--yh
--yi
--yk
--yl
--ymba
--yn
--ynny
--yo
--ys
--yt
--yu
--yy
--z
--za
--zan
--zannu
--zat
--zavodu
--ze
--zee
--zeh
--zel
--zele
--zen
--zennu
--zero
--zes
--zet
--zi
--zien
--zies
--zih
--zii
--zil
--zile
--zin
--zis
--zman
--zoi
--zowa
--zu
--zua
--zy
--ʁi
--ι
--ς
--а
--ан
--ании
--ась
--ат
--ать
--ах
--ая
--б
--в
--ва
--ван
--вания
--вать
--вая
--ве
--ви
--вие
--вич
--вка
--вня
--вует
--вы
--вые
--выи
--г
--го
--гов
--гу
--д
--да
--ду
--ды
--е
--ев
--ева
--ед
--еи
--ека
--ен
--ения
--ет
--жи
--и
--ив
--ие
--иев
--ии
--ик
--ика
--им
--ин
--ит
--ить
--ица
--иэн
--ия
--к
--ка
--ках
--ке
--ки
--ко
--кого
--ку
--л
--ла
--ле
--ли
--лов
--ль
--льная
--льно
--льныи
--льных
--люция
--ля
--м
--ма
--ман
--ми
--му
--н
--на
--ная
--нда
--ндии
--ние
--нии
--ник
--ния
--нка
--но
--нты
--ны
--ные
--ныи
--нь
--ня
--о
--ов
--ова
--ован
--ого
--ое
--ок
--ом
--п
--пы
--р
--ра
--ри
--рк
--ров
--рт
--рян
--с
--са
--си
--ска
--скии
--скои
--ська
--т
--тика
--тся
--тту
--ту
--ты
--ть
--у
--ует
--уи
--ую
--х
--ции
--шка
--ъ
--ы
--ыи
--ым
--ь
--ьев
--ьного
--ью
--ю
--ют
--я
--ян
--і
--ם
--ن
