!
"
#
##0
##1
##10
##11
##12
##13
##14
##15
##16
##17
##18
##19
##2
##20
##21
##22
##23
##24
##25
##26
##27
##28
##29
##3
##30
##31
##32
##33
##34
##35
##36
##37
##38
##39
##4
##40
##41
##42
##43
##44
##45
##46
##47
##48
##49
##5
##50
##51
##52
##53
##54
##55
##56
##57
##58
##59
##6
##60
##61
##62
##63
##64
##65
##66
##67
##68
##69
##7
##70
##71
##72
##73
##74
##75
##76
##77
##78
##79
##8
##80
##81
##82
##83
##84
##85
##86
##87
##88
##89
##9
##90
##91
##92
##93
##94
##95
##96
##97
##98
##99
$
%
&
'
(
)
*
+
,
-
.
/
0
00
000
001
003
007
01
019
02
025
03
030
04
05
050
06
07
08
080
09
1
10
100
1000
101
1017
102
1024
1025
1026
103
1035
104
1040
1046
105
1050
1054
106
1063
1066
107
1070
108
1085
1086
109
11
110
1100
1101
111
112
1122
1129
113
1134
1139
114
1143
115
1150
1157
116
1160
1169
117
1170
1179
118
1180
1181
1182
1183
1184
1185
1186
1187
1188
1189
119
1190
1191
1192
1193
1194
1195
1196
1197
1198
1199
12
120
1200
1201
1202
1204
1209
121
1210
1219
122
1220
1223
1225
1226
1227
1229
123
1230
1231
1232
1233
1234
1235
1236
1237
1239
124
1240
1241
1243
1244
1245
1246
1247
1249
125
1250
1251
1254
1259
126
1260
1265
127
1270
1272
1275
1276
1277
128
1280
1284
1285
1286
1288
1289
129
1290
1294
1296
1298
1299
13
130
1300
1301
1302
1304
1309
131
1312
1313
1315
1316
1319
132
1320
1321
1325
1326
1327
1328
1329
133
1330
1333
1334
1337
1339
134
1340
1343
1346
1347
1349
135
1350
1354
1355
1356
1357
1358
1359
136
1360
1361
1362
1363
1364
1365
1366
1367
1368
1369
137
1370
1371
1372
1373
1374
1375
1376
1377
1378
1379
138
1380
1381
1382
1383
1384
1385
1386
1387
1388
1389
139
1390
1391
1392
1393
1394
1395
1396
1397
1398
1399
14
140
1400
1401
1402
1403
1404
1405
1406
1407
1408
1409
141
1410
1411
1412
1413
1414
1415
1416
1417
1418
1419
142
1420
1421
1422
1423
1424
1425
1426
1427
1428
1429
143
1430
1431
1432
1433
1434
1435
1436
1437
1438
1439
144
1440
1441
1442
1443
1444
1447
1448
1449
145
1450
1451
1452
1453
1454
1455
1456
1459
146
1460
1464
1465
1466
1469
147
1470
1471
1472
1473
1474
1475
1477
1478
1479
148
1480
1481
1482
1483
1484
1485
1489
149
1490
1491
1492
1494
1496
1497
1498
1499
15
150
1500
1502
1503
1504
1505
1506
1507
1508
1509
151
1510
1511
1512
1514
1515
1516
1517
1519
152
1520
1521
1522
1523
1524
1525
1526
1527
1528
1529
153
1530
1531
1532
1533
1534
1535
1536
1539
154
1540
1541
1542
1543
1544
1545
1546
1547
1548
1549
155
1550
1551
1553
1554
1555
1556
1557
1558
1559
156
1560
1561
1562
1563
1564
1565
1566
1567
1568
1569
157
1570
1571
1572
1573
1574
1575
1576
1577
1578
1579
158
1580
1581
1582
1583
1584
1585
1586
1587
1588
1589
159
1590
1591
1592
1593
1594
1595
1596
1597
1598
1599
16
160
1600
1601
1602
1603
1604
1605
1606
1607
1608
1609
161
1610
1611
1612
1613
1614
1615
1616
1617
1618
1619
162
1620
1621
1622
1623
1624
1625
1626
1627
1628
1629
163
1630
1631
1632
1633
1634
1635
1636
1637
1638
1639
164
1640
1641
1642
1643
1644
1645
1646
1647
1648
1649
165
1650
1651
1652
1653
1654
1655
1657
1658
1659
166
1660
1661
1662
1663
1664
1665
1666
1667
1668
1669
167
1670
1671
1672
1673
1674
1675
1676
1677
1678
1679
168
1680
1681
1682
1683
1684
1685
1686
1687
1688
1689
169
1690
1691
1692
1693
1694
1695
1696
1699
17
170
1700
1701
1702
1703
1704
1705
1706
1707
1708
1709
171
1710
1711
1712
1713
1714
1715
1717
1718
1719
172
1720
1721
1722
1723
1724
1725
1727
1729
173
1730
1732
1733
1735
1736
1737
1738
1739
174
1740
1741
1742
1744
1745
1746
1747
1748
1749
175
1750
1751
1752
1753
1754
1755
1756
1758
1759
176
1760
1762
1763
1764
1765
1766
1767
1768
1769
177
1770
1771
1772
1774
1775
1776
1777
1778
1779
178
1780
1781
1782
1783
1784
1785
1786
1787
1788
1789
179
1790
1791
1792
1793
1794
1795
1796
1797
1798
1799
18
180
1800
1801
1802
1803
1804
1805
1806
1807
1808
1809
181
1810
1811
1812
1813
1814
1815
1816
1817
1818
1819
182
1820
1821
1822
1823
1824
1825
1826
1827
1828
1829
183
1830
1831
1832
1833
1834
1835
1836
1837
1838
1839
184
1840
1841
1842
1843
1844
1845
1846
1847
1848
1849
185
1850
1851
1852
1853
1854
1855
1856
1857
1858
1859
186
1860
1861
1862
1863
1864
1865
1866
1867
1868
1869
187
1870
1871
1872
1873
1874
1875
1876
1877
1878
1879
188
1880
1881
1882
1883
1884
1885
1886
1887
1888
1889
189
1890
1891
1892
1893
1894
1895
1896
1897
1898
1899
19
190
1900
1901
1902
1903
1904
1905
1906
1907
1908
1909
191
1910
1911
1912
1913
1914
1915
1916
1917
1918
1919
192
1920
1921
1922
1923
1924
1925
1926
1927
1928
1929
193
1930
1931
1932
1933
1934
1935
1936
1937
1938
1939
194
1940
1941
1942
1943
1944
1945
1946
1947
1948
1949
195
1950
1951
1952
1953
1954
1955
1956
1957
1958
1959
196
1960
1961
1962
1963
1964
1965
1966
1967
1968
1969
197
1970
1971
1972
1973
1974
1975
1976
1977
1978
1979
198
1980
1981
1982
1983
1984
1985
1986
1987
1988
1989
199
1990
1991
1992
1993
1994
1995
1996
1997
1998
1999
2
20
200
2000
2001
2002
2003
2004
2005
2006
2007
2008
2009
201
2010
2011
2012
2013
2014
2015
2016
2017
2018
2019
202
2020
2021
2022
2023
2024
2025
2026
2027
2028
2029
203
2030
2031
2032
2033
2034
2035
2036
2037
2038
2039
204
2040
2041
2042
2043
2044
2045
2046
2047
2048
2049
205
2050
2051
2052
2053
2054
2055
2056
2057
2058
2059
206
2060
2061
2062
2063
2064
2065
2066
2067
2068
2069
207
2070
2071
2072
2073
2074
2075
2076
2077
2078
2079
208
2080
2081
2082
2083
2084
2085
2086
2087
2088
2089
209
2090
2091
2092
2093
2094
2095
2096
2097
2098
2099
21
210
2100
2101
2102
2103
2104
2105
2106
2107
2108
2109
211
2110
2111
2112
2113
2114
2115
2116
2117
2118
2119
212
2120
2121
2122
2123
2124
2125
2126
2127
2128
2129
213
2130
2131
2132
2133
2134
2135
2136
2137
2138
2139
214
2140
2141
2142
2143
2144
2145
2146
2147
2148
2149
215
2150
2151
2152
2153
2154
2155
2156
2157
2158
2159
216
2160
2161
2162
2163
2164
2165
2166
2167
2168
2169
217
2170
2171
2172
2173
2174
2175
2176
2177
2178
2179
218
2180
2181
2182
2183
2184
2185
2186
2187
2188
2189
219
2190
2191
2192
2193
2199
22
220
2200
2209
221
222
223
224
225
226
227
228
229
23
230
2300
231
232
233
234
235
236
237
238
239
24
240
2400
241
242
243
244
245
246
247
248
249
25
250
2500
251
252
253
254
255
256
257
258
259
26
260
261
262
263
264
265
266
267
268
269
27
270
271
272
273
274
275
276
277
278
279
28
280
281
282
283
284
285
286
287
288
289
29
290
2900
291
292
293
294
295
296
297
298
299
3
30
300
3000
301
302
303
304
305
306
307
308
309
31
310
311
312
313
314
315
316
3166
317
318
319
32
320
321
322
323
324
325
326
327
328
329
33
330
3300
331
332
333
334
335
336
337
338
339
34
340
341
342
343
344
345
346
347
348
349
35
350
3500
351
352
353
354
355
356
357
358
359
36
360
3600
361
362
363
364
365
366
367
368
369
37
370
371
372
373
374
375
376
377
378
379
38
380
381
382
383
384
385
386
387
388
389
39
390
391
392
393
394
395
396
397
398
399
4
40
400
4000
401
402
403
404
405
406
407
408
409
41
410
411
412
413
414
415
416
417
418
419
42
420
421
422
423
424
425
426
427
428
429
43
430
431
432
4329
433
434
435
436
437
438
439
44
440
441
442
443
444
445
446
447
448
449
45
450
4500
451
452
453
454
455
456
457
458
459
46
460
461
462
463
464
465
466
467
468
469
47
470
471
472
473
474
475
476
477
478
479
48
480
481
482
483
484
485
486
487
488
489
49
490
491
492
493
494
495
496
497
498
499
5
50
500
5000
501
502
503
504
505
506
507
508
509
51
510
511
512
513
514
515
516
517
518
519
52
520
521
522
523
524
525
526
527
528
529
53
530
531
532
533
534
535
536
537
538
539
54
540
541
542
543
544
545
546
547
548
549
55
550
551
552
553
555
559
56
560
563
566
569
57
570
577
579
58
580
584
589
59
590
6
60
600
6000
605
61
610
611
614
618
62
620
621
622
625
626
629
63
630
632
634
639
64
640
642
645
646
6466
647
648
649
65
650
651
652
653
654
655
656
657
658
659
66
660
661
662
663
664
665
666
667
668
669
67
670
671
672
673
674
675
676
679
68
680
685
689
69
690
693
699
7
70
700
7000
701
707
71
715
718
719
72
728
73
730
732
74
740
741
744
747
75
750
7500
754
758
76
760
762
765
768
77
770
772
773
774
775
777
78
780
782
784
785
789
79
790
793
797
798
799
8
80
800
8000
801
804
806
809
81
814
82
820
821
825
828
829
83
830
834
835
838
839
84
840
843
847
85
850
851
855
86
86133
863
866
87
870
877
88
880
882
885
89
890
896
9
90
900
902
91
915
92
923
925
927
93
939
94
946
947
95
950
96
960
965
966
97
970
972
973
978
98
980
988
99
990
999
:
;
<
=
>
?
[
\
]
^
_
`
a
aa
aacht
aachter
aachtergrond
aachtervougsels
aai
aaid
aaier
aaigen
aaigens
aaigense
aailaand
aailand
aailanden
aait
aajt
aaktervoogsel
aaktervoogsels
aal
aalbert
aalborg
aalburg
aale
aalgemain
aalgemaine
aalmoal
aals
aalsmeer
aalst
aalt
aalten
aalterpoorte
aaltied
aaltieds
aaltien
aaltje
aan
aanaar
aanaarsamisk
aanboden
aand
aandacht
aander
aandere
aanderen
aanderhalf
aanderhalve
aandern
aanders
aandersomme
aandersumme
aanderszins
aanderworens
aanderzieds
aandocht
aandre
aanduden
aanduud
aangaait
aangeft
aangeven
aangrenzende
aanhoalt
aanholden
aanlaaiden
aanleg
aannomen
aans
aanse
aanslag
aansloten
aansom
aansumme
aantal
aantel
aanvulling
aanwezeghaid
aanzain
aap
aapn
aar
aarbaiders
aard
aarde
aarf
aarg
aargens
aarhus
aarm
aarme
aaron
aarst
aart
aarten
aarts
aartsbisdom
aartsbiskop
aartsbisschop
aau
aauwerk
ab
abba
abbey
abc
abchazie
abcoude
abdi
abdieje
abel
aber
abn
aboe
aboriginals
abortus
about
abraham
absalon
absolute
absoluut
abstrakt
abstrakte
abt
abu
ac
acade
academici
academie
academy
accademia
accent
accordeon
acer
ach
achievement
acht
achte
achten
achter
achteran
achterberg
achterblyvers
achtereenvolgens
achtereleuten
achteren
achtergroand
achtergrond
achtergroond
achtergrund
achterhen
achterhoek
achterhoeks
achterhoekse
achterhook
achterhooks
achterhookse
achterhooksen
achterhooksk
achterhuus
achterienvolgens
achterin
achterkaante
achterkante
achterkwab
achterlaand
achterloaten
achtern
achternaam
achternaamn
achtername
achternamen
achteroet
achterof
achterop
achterplaksel
achterstand
achterste
achtertune
achteruut
achterveld
achtervo
achtervoegsel
achtervoegsels
achtervoogsel
achtig
achtige
achtigen
achtkarspelen
achtste
achtsten
achttien
achttiende
across
act
acteur
actie
actief
acties
actieve
action
activiteiten
actrice
ad
ada
adam
adams
adder
adderbladen
addervere
addis
ade
adel
adela
adellek
adelleke
adelleken
aden
adiemus
adig
adige
adjektiven
administratieve
administrative
admiraal
admiraliteit
admiraliteiten
admiraol
admiroal
adn
adolf
adonai
adres
adressen
adriaan
adriaen
adrian
adriatiese
adriatische
adrillen
advekaot
advies
advoka
advokoat
ae
aefde
aegen
aende
aenesidemus
aengwirden
aer
aerde
aeschines
aeten
aeven
af
afar
afbealdingen
afc
afdh
affaire
affeer
afferden
afganistan
afghanistan
afhangelik
afhangelike
afko
afkomstig
afkumst
afleided
aflevering
afleveringen
aflo
afon
africa
african
afrika
afrikaans
afrikaanse
afrikaansen
afrikaansk
afrikaanske
afrikanen
afrikaner
afrikaners
afrikaon
afro
afscheid
afstammeling
afstammelingen
afstamming
afstamt
afstand
afsu
after
afvaerdiging
afweasigheid
afwykende
ag
again
against
agapanthus
agatha
agathe
age
agen
agency
agenda
aggesen
agglomerasie
agios
agn
agnes
agnietenbarg
agnostici
agnosticism
agnosticisme
agrarisch
agrarische
agricola
agriculture
agt
agte
agteresch
ah
ahaus
ai
aid
aide
aiden
aider
aidn
aids
aien
aiende
aigelks
aigen
aigender
aigens
aigenschop
aigense
aigenst
aigenste
aiglieks
aiing
ailaand
ain
ainander
aine
ainege
ainegste
aingoal
ainhaid
ainrom
ains
ainsworth
air
aire
aires
airlines
airport
ais
aise
aisen
ait
aite
aitn
aive
aiven
aiw
aiwen
aiwse
aj
ajax
ak
akademia
akademie
akademiske
akademy
akan
ake
aken
akhenaten
aki
akkedemie
akkenailtje
akker
akkerbouw
akkers
akkerwinde
akkoord
akkoorden
akkoordn
akkupakket
akkusativ
akoestische
akseant
aksent
aksenten
aksepteerd
aksi
aksie
aksies
akster
akte
akteur
akteurs
aktie
aktief
aktieve
aktiv
aktiva
aktiviteit
aktiviteiten
aktiviteitn
akto
aktrice
aktrise
akty
al
ala
alabama
alain
alan
alanen
alarik
alarm
alaska
alaskaanse
alba
albaans
albaanse
albanees
albanie
albeargn
albert
alberta
alberti
albertine
alberts
albertus
alblasserdam
alblasserweerds
alborosie
albrecht
albu
album
albums
alchemie
alcohol
ald
alden
aldenburg
alder
alderba
alderbarstends
alderbarstens
alderbastend
alderhaand
alderhaande
alderhande
aldeur
aldn
aldus
ale
aleid
aleksander
alem
alen
alene
ales
alex
alexander
alexandrie
alexia
alf
alfabet
alfabetische
alfred
alfrida
alg
algemain
algemean
algemeen
algemene
algemeyn
algemeyne
algemien
algemiene
algen
algerak
algerieje
algerije
algerye
algoritme
alhoewel
ali
alias
alicante
alice
alighieri
aliis
alkemade
alkibiades
alkmaar
alkmoar
alkohol
all
allah
allain
allan
allange
allard
allardsoog
alle
allean
alleane
alleanig
alleannig
allebei
allebeie
alledaagse
alleen
alleend
alleene
allema
alleman
allemaol
allemaole
allemoal
allemoale
allen
allend
allendeg
allene
alleneg
allenig
allenneg
allennig
allens
allent
aller
allergie
allerhaand
allerhaande
allerhande
allerheiligen
allerlei
allerselen
allertyden
alles
allewal
allewel
alleyn
alleyne
alleynig
alli
alliantie
allieerden
allien
alliene
allienig
allinnig
allium
allochtone
allofonen
allum
alm
alma
alman
almanak
almaol
almar
almelo
almelose
almen
almere
almoal
aln
alns
alnus
alonso
alpe
alpen
alpenland
alphen
als
alse
alsmar
alsmer
alsnog
also
alsta
alstea
alstuks
alt
alta
alte
altemet
alten
altena
altenburg
alternatief
alternatieve
alternative
alteveer
altied
altijd
alto
altsa
altyd
aluminium
alva
alve
alven
alverdan
alweer
alwie
alwier
alwies
aly
alzo
am
amadeus
amalia
amateur
amateurs
amazone
ambacht
ambachten
ambassade
ambassadeur
ambassado
ambeeld
ambiorix
ambities
ambt
ambtelike
ambten
ambtenaar
ambtenaor
ambtenaren
ambtenoar
ambtenoaren
ambthuus
amd
ame
amelaand
amelaanders
amelaands
amelaandse
amen
amer
america
american
americana
amerika
amerikaan
amerikaann
amerikaans
amerikaanse
amerikaansen
amerikaansk
amerikaanske
amerikaansken
amerikanen
amerikaonse
amerike
amerikoa
amerikoanse
amerongen
amersfoort
amesfoort
amfibiee
amfitheater
amin
ammersoyen
ammerzoden
amo
amore
ampa
ampart
amparte
ampartheid
amper
ampt
amrum
amsberg
amstel
amstelvene
amsterdaam
amsterdam
amsterdammers
amsterdams
amsterdamsche
amsterdamscheveld
amsterdamse
amsterdamsen
amsven
amt
amulet
amygdala
an
ana
analoog
analyse
analysis
anara
anarchist
anarcho
anas
anatidae
anatolie
anatomie
anbeaden
anbeden
anbelangt
anbidden
anbidding
anbieden
anblik
anbo
anbod
anbouw
anbud
anchorage
ancien
ancient
and
andach
andacht
andag
andalusie
andalusische
andeel
ander
andere
anderen
anderhalve
andern
anders
andersen
anderson
andersu
anderzieds
andesgebargte
andeyl
andiek
andiel
andievie
andoening
andoeningen
andorra
andre
andrea
andreas
andrew
andries
andrieving
andringen
android
andu
anduden
anduding
anduud
ane
anebeuden
anedu
aneduud
anegeaven
anegeven
anehaald
anekdotes
anelegd
anemeuken
anen
aneno
anepasde
anepast
aner
anerkend
aneslo
anesteld
anetro
anevuld
anfietern
anfieterpries
angaot
angeaven
angeet
angef
angeft
angel
angela
angelen
angeles
angeln
angelo
angels
angelsaksen
angelsaksische
angelsassen
angelsassies
angelsassiese
angelsassiesen
angelsassiske
angelus
angenent
angere
angeren
angers
angeven
angevt
angeyt
angiet
angif
angifte
anglicaanse
anglo
angola
angolese
angrboða
angre
angreenzende
angrensende
angrenzende
angst
angstig
angul
anhalt
anhang
anhanger
anhangers
anholden
anholt
anig
animal
animisme
aningn
anjagen
anjager
anjou
ank
anke
ankh
anklachten
anko
ankommen
ankomst
ankomt
ankondiging
ankoop
ankum
ankwammen
anleg
anlegd
anlegde
anleggen
anleiding
anliggende
anlo
anmaak
anmaken
anmarking
ann
anna
annalen
annales
anname
anne
annegien
anneke
annemen
annemmelek
annemmelik
annemmen
anner
annere
anners
annette
anneumen
annex
annexeerd
annie
annije
annink
anno
anoniem
another
anous
anpak
anpakken
anpakt
anpassen
anpassing
anpassingen
anpassings
anpast
anraken
anraking
anrichten
ans
anse
anseen
anset
anskaf
anslag
anslagen
ansleut
anslo
anslot
ansluten
ansluting
ansluut
anspra
ansproak
ansteld
anstelling
ant
antal
antallen
antarctica
antarktiese
antarktika
antarktische
antasting
ante
antennen
anteykeningen
anthony
anti
antibiotika
antillen
antiochie
antiquity
antje
antoine
anton
antoni
antonio
antonius
antoon
antreffen
antrekkelik
antrekkeliker
antrekken
antrekt
antro
antropologie
antwaarp
antwarpen
antwerpen
antwoord
antwoordden
anubis
anvaank
anval
anvallen
anvallende
anvaller
anvallers
anvaln
anvang
anvangelik
anvangen
anvankelek
anvankelijk
anvankelik
anvo
anvoerder
anvoering
anvra
anvroagn
anvu
anwaezig
anwas
anwb
anweasig
anweazig
anwezig
anwezige
anwezigheid
anwezzig
anwiezen
anwiezing
anwiezingen
anzeen
anzeenlek
anzeenleke
anzestad
anzet
anzetten
anzicht
anzien
anzienlike
ao
aodel
aof
aofbeeldingen
aofekort
aofeleid
aofeneumen
aofeschaft
aofhankelik
aofkomst
aofkomstig
aofstaand
aofwisselend
aol
aolde
aole
aolkruud
aone
aor
aord
aordig
aore
aoren
aorend
aorig
aosem
aost
aoven
aovend
aovends
aoventuren
aover
aovereneumen
aoverheid
aoverhenne
aoveriessel
aoveriessels
aoveriesselse
aoverkoepelnde
aoverlieden
aoverzetting
aoverzettings
ap
apaart
apaarte
apart
aparte
aparten
apartheid
apartn
apatte
ape
apeldoorn
apeldoorne
apeldoorns
apeldoornse
apen
apfelstrudel
apg
apiaceae
apmoal
apokope
apokriefen
apollo
apologische
apostel
apostelen
apostels
apostoliese
apostoliske
app
appalachen
apparaat
apparaten
appatte
appel
appels
appelsap
appelsche
appelsien
appelsienen
appelsmotse
appen
apperaot
appingedam
apple
apps
april
aquatilis
aquino
aquitanie
ar
arabie
arabieren
arabiern
arabies
arabiese
arabisch
arabische
arabise
arabisk
arabiske
arabyren
arafat
arago
aramees
aramese
arbeid
arbeiders
arbeiderspartieje
arbeidsvitaminen
arborea
arc
arcen
archai
archeologen
archeologie
archeologies
archeologiese
archeologisch
archeologische
archeologiske
archeoloog
archief
archieven
archipel
architect
architectuur
architek
architekt
architekten
architektuur
archive
archiveerd
archives
arctium
ard
arde
ardebeuke
ardebook
ardennen
ardere
ardeskat
are
area
arean
areas
arem
aren
arena
arend
arf
arfden
arfelek
arfenisse
arfgoed
arfgood
arfopvolging
arfprins
arft
arg
argens
argentiense
argentinie
argos
argument
argumenten
aria
ariaanske
ariane
arianisme
arie
ariel
arig
arigen
aristide
aristoteles
arizona
arjan
arjen
arkansas
arkel
arkemerbarg
arktische
arlik
arm
armada
armagnacs
arme
armeens
armeense
armeensk
armeenske
armelo
armeloos
armen
armenie
armeniers
armeu
arminius
armoe
armoede
arms
armste
armstrong
armte
arn
arnbarg
arne
arnem
arnhem
arningn
arno
arnold
arnsberg
arp
arpe
arpken
arpkes
arrangeur
arreg
arresteerd
arriva
arrondissement
arrow
ars
art
arte
artesie
artez
arthur
article
artiest
artieste
artiesten
artiestennaam
artiestn
artikel
artikelen
artikels
artist
artiste
artisten
artistieke
artois
arts
artsach
aruba
arve
arven
arvgood
arzeern
as
asatru
ascension
asen
asfalt
asgard
asi
asia
asiatiske
asie
ask
aske
asmis
asnog
asof
asok
aspasia
aspecten
aspekt
aspekten
asperen
aspirine
aspx
asse
assel
asselt
assen
assendelft
assendo
asser
asset
assistent
associatie
association
associeerd
assosjasie
assr
assyrie
ast
asten
asteraceae
asterix
astrid
astrologie
astronomische
astronoom
at
ata
atatu
ate
ateisme
atelier
atene
athaulf
athei
athene
atje
atlanta
atlantiese
atlantiesen
atlantiesn
atlantis
atlantische
atlantiske
atlantisken
atlas
atleet
atletiek
atmosfeer
atomen
aton
atoombom
atoomnummer
atra
atrecht
attem
attems
atten
attinsioa
attractiepark
attracties
attraktie
au
auch
audiobestaanden
auf
augsburg
august
auguste
augustes
augustiener
augustin
augustinus
augusto
augustus
auke
aule
aulken
aureus
aurich
aus
auschwitz
auste
austerlitz
austin
australie
australies
australiese
australische
australiske
australisken
austroalie
aut
autenome
auteur
auteurs
auteursrecht
authentieke
autisme
auto
autobaan
autobahn
autobane
autobiografische
autochtone
automark
automebiel
automoatisch
autonome
autonomie
autonomy
autonoom
autootjen
autoriteiten
autorodeo
autosnelweg
autosport
autoweg
auwerd
auwerk
auwerkerlaand
aux
av
ave
aven
avenue
aver
averarda
avereest
averiest
avicii
avignon
aviv
avond
avonturen
avro
avsenik
avvekaot
aw
award
awards
awd
awen
awn
ay
ayaan
ayrton
aythya
az
azem
azen
azerbaidjaanske
azerbaidjan
azerbaidjanen
azerbeidjan
azerbeidzjaans
azerbeidzjan
azerbeidzjanen
aziaties
aziatiese
aziatisch
aziatische
azie
azien
azoren
azteken
azuur
azzen
b
ba
baai
baaide
baaident
baaien
baal
baalterm
baan
baand
baanden
baandn
baandrekel
baank
baanke
baanken
baarg
baarge
baargen
baarle
baarlo
baarm
baarmen
baarn
baartman
baas
baauw
baauwd
baauwden
baauwen
baauwt
baauwwaark
baauwwaarken
baawd
babangida
babe
babel
baby
babyboomers
babylon
babylonie
bach
back
bacon
bad
badde
baden
badhuus
badkupe
badplaatse
baeide
baek
baeke
baer
baerent
baeter
bag
bagdad
bagger
bagraain
baha
bahia
bahrein
bai
baiern
baird
bak
baka
baker
bakhuus
bakje
bakjen
bakkeie
bakken
bakker
bakkeri
bakkers
bakkevene
bakkie
bakkien
bakkiesman
bakn
bakoe
baksteen
bakstien
bakstiender
bakstiengotiek
bakterie
bakteries
bakworst
bal
balada
balans
balder
balderik
balearen
balejoarn
balg
bali
balk
balkan
balke
balken
balkenende
balkns
balkon
ballade
ballades
ballen
ballingschap
balneologie
balthasar
baltiese
baltimore
baltische
baltiske
balye
bamboe
ban
banaan
band
banda
banden
bandleden
bands
bane
banen
bang
bange
bangladesh
banier
banjo
bank
banke
banken
bant
bantege
banthu
banthum
bantoe
bantu
bantus
bantuspra
bantuvolker
baodem
baoge
baok
baord
baos
baosis
baosisschoele
baoven
baovendien
baptist
bar
barack
barak
barbaar
barbados
barbara
barbaren
barbarossa
barbecue
barcelona
barchem
bardische
barend
bareveld
barg
bargachtig
bargachtige
bargen
bargente
barger
bargerveen
bargeyk
bargh
barghuzen
bariton
barkearl
barkhuis
barlo
barm
barnabas
barneveld
barok
baron
baronesse
barre
barreveld
barrevelds
barreveldse
barrie
barselona
bart
barteld
bartelink
bartels
bartje
baruch
bas
base
based
baseerd
baseert
basgitaar
basgitaren
basiliek
basis
basisonderwies
basisschoele
basisschoelen
basisschole
basisschool
basisskoelen
basisskole
basisskolen
basken
basketbal
baskisch
baskisk
baskiske
basn
basque
bass
bassdrum
basse
basserveld
basshunter
bassist
bast
bastiaan
bastion
bastionnen
bastions
bat
bataafse
bataofs
bataofse
bataven
batavorum
batenburg
bates
bath
batoafse
bator
bats
batse
batte
battem
batteri
batterieje
batting
battista
battle
bavel
bay
bayern
bazel
bb
bbc
bbele
bben
bbp
bd
be
bea
beach
beade
beaide
beak
beake
beaken
beald
bealden
beale
beant
beantel
beantem
beantemer
beantwoorden
bear
bearendina
bearg
bearnd
beasig
beasley
beast
beat
beate
beaten
beater
beatere
beatles
beatrix
beautiful
bebost
beboste
bebouwd
bebouwde
bebouwden
bebouwing
bec
beck
beckum
bed
beda
bedacht
bedachte
bedachten
bedde
beddestee
bede
bedeankn
bedeenn
bedekked
bedekken
bedekt
bedekzaojigen
beden
bedenken
bedet
bedford
bedo
bedocht
bedoeld
bedoelen
bedoeling
bedolige
bedoling
bedoold
bedoolt
bedould
bedoulen
bedrag
bedragen
bedreigd
bedreigde
bedreigen
bedreiging
bedrieben
bedrief
bedrieve
bedrieven
bedrieventerrein
bedrieventerreinen
bedrievigheid
bedriewe
bedrijven
bedrijvigheid
bedrog
bedroog
bedryf
bedryv
bedryve
bedryven
bedu
beduden
beduding
bedum
beduudt
bee
beedt
beef
beek
beekbargen
beeld
beelden
beeldend
beeldende
beeldenstorm
beeldhouwer
beeldjen
beeldmaark
beeldn
beelen
beem
beemster
beemte
been
beendigeden
beendmiddel
beene
beent
beentjes
beentjesgraven
beer
beernd
beerte
bees
beesel
beest
beeste
beesten
beethoven
beetie
beetien
beetje
beets
beetsterzwaog
begeent
begeleid
begeleiding
begin
beginn
beginne
beginnen
beginners
beginnet
beginpunt
beginsel
begint
begintied
bego
begon
begonnen
begraafplaatse
begraavplaatse
begraeven
begraven
begreawen
begreefplak
begreefplakken
begreensd
begreep
begrensd
begrepen
begreuiing
begreven
begrezing
begri
begriepen
begriepn
begrip
begrippen
begro
begroaven
begruuiing
begrypen
begu
begun
begund
begunde
begunden
begunn
begunnen
begunt
beguntied
beha
behaald
behaalde
behaalden
behaalve
behaandeld
behaandeling
behaandelt
behaleden
behalve
behalven
behalwe
behandeld
behandeling
behandelt
behaord
behear
beheard
beheeld
beheer
beheerd
beheerde
beheersen
beheersing
beheerst
beheert
beheren
beheurd
beheurde
beheurden
beheurdn
beheuren
beheurende
beheurlek
beheurlijk
beheurlik
beheurt
beheyr
beheyrd
beho
behoald
behoeft
behoefte
behold
beholden
beholdend
beholdende
behoofte
behoold
behoolden
behooldn
behoort
behoud
behouwen
behrns
behuil
behulp
bei
beide
beiden
beidend
beie
beien
beienvloud
beieren
beierlaand
beiern
beierse
beijer
beijerinck
beilen
being
beins
beintem
beinvlo
beinvloud
bejaordenhuus
bek
bekaant
bekaend
bekand
bekant
bekbargen
beke
bekeaken
bekeand
bekeande
bekeanden
bekeandheaid
bekeandn
bekeandst
bekeandste
bekeandsten
bekeerd
bekeern
bekeken
bekekken
bekekn
beken
bekend
bekende
bekenden
bekender
bekendheid
bekendst
bekendste
bekendsten
bekennen
bekent
beker
bekeren
beki
bekieken
bekiekn
bekiekt
bekik
bekind
bekinde
bekke
bekken
bekkens
bekleed
bekleedt
beklimmen
bekns
beko
bekritiseerd
bekroond
bekske
bekwoame
bekyken
bel
belaangriek
belaangrieke
belaangriekste
belaank
belaankrieke
belaankriekste
belaegerd
belaegering
belang
belangen
belangriek
belangrieke
belangrieken
belangrieker
belangriekn
belangriekste
belangrieksten
belangrijk
belangryk
belangryke
belangryker
belangrykste
belangryksten
belangstellenden
belangstelling
belasting
belastingen
belcampo
bele
beleagerd
beleagerden
beleagering
beleaving
beleefd
beleg
belegerd
belegeringe
belegeringen
beleid
belening
belevenissen
belfast
belgen
belgie
belgies
belgiese
belgiesen
belgisch
belgische
belgiske
belgisken
belgrado
belicht
belize
bell
belle
bellen
bellever
bello
beln
belo
belofte
belonen
bels
belstone
belt
belterwiede
beltman
beltmo
beltrum
beluuster
beluustern
belvedere
belzen
bemanning
bemanningsleu
bemest
bemesting
bemiddeling
bemmel
bemo
ben
bena
benaam
benaamd
benaemen
benaeming
benaemings
bename
benaming
benamingen
benaodrokken
benaoming
benauwd
bend
bende
bendjen
bene
beneaden
beneajn
beneden
benedicta
benedictus
benelux
benen
beneumd
beneumden
beneumen
beneuming
bengalen
benghazi
benin
benito
benjamin
bennebrook
bennegien
bennekum
bennen
bennewold
bennie
benny
beno
benoadrukn
benoadrukt
benoam
benoamen
benoamens
benoaming
benrather
bent
bentem
bentheim
bentheimer
benthem
benthemer
bentinck
benu
benuimd
benul
benuumd
benz
beoefend
beoort
beowulf
bepa
bepaald
bepaalde
bepaarkt
bepaarkte
bepaold
bepaolde
bepaolden
bepaolen
bepaolt
beparked
beparken
beparking
beparkt
beparkte
bepo
bepoald
bepoalde
bepoalden
bepoaldn
bepoalen
bepoalingen
bepoaln
bepoalt
beppe
ber
berber
berbers
bere
bereik
bereikbaor
bereiked
bereikeden
bereiken
bereikn
bereikt
bereikte
bereikten
berek
beren
berend
berends
berent
berg
berge
bergeijk
bergen
bergh
berghuis
bergmans
bergsma
bergveld
berich
bericht
berichten
berieken
beriekt
beringstroat
berkel
berkeley
berkelland
berkenbosch
berkoop
berkum
berlage
berlien
berliense
berlijn
berlin
berlyn
bermensch
bern
bernard
bernardus
bernhard
bernheze
bernold
bero
beroemd
beroemde
beroep
beroepen
beroomd
beroomde
beroop
beropen
berouw
berre
berry
bers
bersetzung
berskappen
bert
bertha
bertrand
bertus
beru
berucht
beruchte
bes
beschaafd
beschaarmd
beschaarmen
beschaauwd
beschadigd
beschaeving
bescharmd
bescharmde
bescharmen
bescharmende
bescharmheilige
bescharming
bescharmp
bescharmt
beschaving
bescheiden
beschermd
beschikbaor
beschikber
beschikboar
beschikken
beschikking
beschildern
beschoaven
beschotten
beschouwd
beschouwing
beschouwingen
beschouwt
beschreef
beschref
beschreven
beschrieft
beschrieven
beschrieving
beschrievingen
beschrievings
beschrif
beschuldigd
beschut
beschuut
besef
besetting
besit
besittingen
beskarmd
beskarmde
beskarmen
beskarming
beskarmsta
beskermd
besko
beskoarmd
beskoarmen
beskoarming
beskouwd
beskraeven
beskreav
beskreaven
beskreef
beskreewn
beskrev
beskreven
beskrevven
beskrewen
beskrieven
beskrieving
beskriewen
beskriewing
beskriewings
beskriewn
beskriewt
beskrif
beskrivt
beskryven
beskryving
beskryvingen
besku
beskuut
beslag
beslagt
beslaot
beslat
besleug
besleut
besleuten
besleutn
beslissing
beslissingen
beslissings
beslist
beslo
besloat
besloet
besloeten
besloot
beslot
besloten
beslotenheid
beslotten
beslu
besluten
besluut
besmet
besmette
besmettelike
besmetting
beso
bespo
besprek
bespreker
bespreking
besprekings
bespreuken
bespro
besproken
bessem
bessems
besstee
best
besta
bestaait
bestaand
bestaat
bestait
bestand
bestandsaufnahme
bestaon
bestaond
bestaonde
bestaot
bestbeta
beste
besteed
besteet
bestek
bestemd
bestemming
besten
bestet
besteund
besteunden
besteur
besteurd
besteurden
besteurlike
besteurn
besteuven
besteyt
besthemerbarg
bestiet
bestn
bestoan
bestoand
bestoande
bestoanden
bestoat
beston
bestond
bestonden
bestot
bestraft
bestrieding
bestriedn
bestu
bestudeerd
bestudeert
bestuderen
bestudering
bestun
bestund
bestunden
bestung
bestungen
besturen
besturingssysteem
bestuur
bestuurd
bestuurde
bestuurden
bestuurder
bestuurders
bestuurlek
bestuurleke
bestuurlijk
bestuurlijke
bestuurlik
bestuurlike
bestuurscentrum
bestuurslid
bestuurt
bestuving
bestverkoupende
besu
besunder
bet
beta
betaald
betaalde
betaalden
betaalmiddel
betaaln
betaalt
betaikende
betaikenen
betaikenis
betaikenissen
betaikent
betalen
betaling
betalingen
betaolen
beteakend
beteakeneden
beteakenis
beteakent
beteekn
beteeknt
beteken
betekend
betekende
betekenden
betekenen
betekenis
betekenisse
betekenissen
betekent
betekkend
betekkenden
betekkenis
betekkenisse
betekkent
beteknt
beten
beter
betere
beteykenisse
beteykent
beth
bethlehem
betiekenis
betiekenissen
betiekent
betien
betjen
betlum
betn
beto
betoald
betoalen
beton
betonnen
betreffende
betreft
betrekken
betrekking
betrekkingen
betro
betrokken
betten
better
bettere
betty
bettyn
betula
betuun
betuwe
betuws
between
betwist
betwiste
beud
beuk
beuke
beuken
beukn
beulakerwiede
beume
beumpie
beun
beundel
beunder
beune
beuningen
beurs
beurt
beurte
beusebarg
beuten
beva
bevalling
bevat
bevatte
bevatten
bevattet
beveendt
bevel
bevelaand
bevelhebber
bevern
beverwiek
bevestigd
bevestigden
bevestiging
beveurbeeld
beveurbield
beveurrechte
bevindet
bevindt
bevo
bevoegdheden
bevolked
bevolken
bevolkensdichtte
bevolking
bevolkingsantal
bevolkingsdichtheid
bevolkingsgroep
bevolkingsgroepen
bevolkingsgruppen
bevolkingsontwikkeling
bevolkt
bevolkte
bevond
bevonden
bevoogdheden
bevorderen
bevordern
bevordert
bevreuren
bevri
bevried
bevrieding
bevriejing
bevrijding
bevro
bevroren
bevruchting
bevund
bevundt
bewa
bewaakt
bewaard
bewaarken
bewaord
bewaorde
bewaoren
bewarken
bewarking
bewarkingen
bewarkt
bewarkte
beweagen
beweagende
beweaging
beweagingen
beweagn
beweard
beweart
beweegt
beweend
beweerd
beweert
bewegen
beweging
bewegingen
beweren
bewering
bewervorde
bewezen
bewiend
bewies
bewiest
bewiezen
bewind
bewing
bewingn
bewo
bewoand
bewoaners
bewoard
bewoarde
bewoaren
bewoend
bewoeners
bewond
bewonen
bewoner
bewoners
bewoning
bewonners
bewonning
bewoond
bewoonde
bewu
bewust
bewys
bewysen
beyde
beyld
beyne
beyond
bezat
beze
bezeensweerdeg
bezeg
bezemdopheed
bezemheed
bezen
bezet
bezette
bezetten
bezetter
bezetters
bezetting
bezeuk
bezeuken
bezeukers
bezichtigen
bezig
bezigheden
bezigho
bezigholdt
bezighoolt
bezinning
bezit
bezittelk
bezittingen
bezittings
bezo
bezoch
bezocht
bezochte
bezoen
bezuden
bezuikers
bezuken
bezukers
bezukerscentrum
bezunder
bezundere
bezuuk
bezzem
bi
biafra
bibliografie
biblioteek
bibliotheek
bid
bidden
biddinghuzen
biden
bie
bieb
biebeheurende
biebel
biebelboek
biebels
biebelse
biebeltheek
biebelvertaling
bieber
bieden
biedroagen
biedt
biegeleuf
bieheurende
biej
biejen
biejevreter
biejevreters
biejnoa
biejveurbeald
biejvuurbeeld
biekeuken
bield
bieldende
biele
bielefeld
bielen
biemekoar
bien
bienaam
bienaamn
bienao
bienen
bienoa
bienoam
bier
bierschwale
bieslook
biest
biesten
biester
biesterfeld
biet
bieten
bietjen
biev
bieveurbeeld
bieveurbield
bievooglike
bievuurbeeld
bieze
biezeunder
biezeundere
biezo
biezunder
biezundere
biezunderhaid
biezunderheden
big
bigband
biggen
bign
bij
bijbeheurende
bijdrage
bijdragen
bijedreugen
bijienkomst
bijienkomsten
bijna
bijname
bijnamen
bijveurbeeld
bijvoorbeeld
bijzonder
bildt
bildts
bilja
biljoen
bill
billboard
billie
billion
billy
bilt
bin
binao
binden
bingen
binh
binn
binne
binnen
binnenalster
binnenkaante
binnenkommen
binnenkriegen
binnenlaand
binnenlaandse
binnenlaanse
binnenland
binnenlandse
binnenlandske
binnenmaas
binnenstad
binnenste
binnenwark
binnenzee
binnet
binnkaante
binnlaand
binnstad
binoa
bint
bio
biografie
biografisch
biografische
biography
biologie
biologiese
biologiske
biology
bioloog
bioscoop
biotechnologie
biotoop
bip
bird
birds
birgit
birk
birmingham
bis
bisdom
bisdommen
biseksualiteit
biseksueel
bisko
biskop
bismarck
bison
bissau
bisscho
bisschop
bisschoppelijke
bisschoppen
bisschops
bissing
bisskop
bist
bit
bitcoin
bitke
bitter
bittere
bjo
bla
blaadn
blaank
blaanke
blaanken
blaankenbarg
blaankn
blaauw
blaauwe
black
blad
bladen
blader
bladeren
bladsyden
bladziede
bladzieden
bladziedes
blaeder
blaeven
blaffen
blangen
blank
blanke
blanken
blankenberge
blankenham
blaodjes
blaojen
blaozen
blaricum
blasmusik
blatt
blauw
blauwbloem
blauwe
blauwgro
blauwpaapjen
ble
bleak
bleav
bleaven
bleef
bleek
bleewn
blef
blek
bleken
bleker
blekken
bler
blesdieke
blesente
blesse
bleu
bleui
bleuien
bleuiende
bleuiperiode
bleuit
bleuitied
bleuiwieze
bleuj
bleujsels
bleujtied
bleume
blev
bleven
blevt
blevven
blewen
bleyv
bleyven
bli
blica
blie
bliede
blief
blieft
bliej
bliek
blieken
bliekt
bliende
blieven
blievend
blievende
blievt
bliewen
bliewn
bliewt
blif
blift
blijdenstein
blijft
blijkt
blijven
blik
blikken
bliksem
blikt
blind
blinden
blinds
blivt
blizzards
blo
bloader
bloasbalg
bloasinstrumeantn
bloazers
bloazn
block
blockchain
blocos
bloed
bloedbleer
bloeddrok
bloem
bloemblaojen
bloembojem
bloemdelen
bloeme
bloemen
bloemetjes
bloemhof
bloemhoff
bloemknoppe
bloemkrone
bloemlezing
bloemlezings
bloempjes
blog
blok
blokgooien
blokken
blokziel
blom
blome
blomen
blommen
blond
blood
bloodbad
bloodma
bloom
bloomberg
bloomendaal
bloomn
bloot
bloots
blote
bloud
bloum
bloumen
blouts
bls
blu
blue
blues
blui
bluit
blukke
blut
bluui
blyde
blyven
blyvet
blz
bnn
bo
boadem
boaden
boage
boake
boaken
boakens
boan
board
boaren
boarg
boargen
boargn
boarn
boarne
boarnebrook
boas
boases
boasis
boaven
boavenan
boavendeen
boavendien
boavengraofschop
boavenkante
boavenste
boavenup
boawen
boawn
boawnop
bob
bobby
boccoli
bocht
bochte
bochten
bod
bodbreef
bode
bodegraven
bodegrawen
bodem
boden
bodenmeer
bodhra
body
boe
boedapest
boeddha
boeddhisme
boeddhistische
boeing
boek
boekbesprekings
boeke
boeked
boekel
boekelo
boeken
boekenbestellen
boekenkaste
boekhandel
boekhandelaar
boekholte
boekien
boekje
boekjen
boekvo
boekvorm
boekweite
boel
boele
boelens
boenen
boengerds
boer
boerd
boerderi
boerderie
boerderiej
boerderieje
boerderiejen
boerderiejn
boerderij
boerderijen
boere
boerekool
boerema
boeren
boerengezin
boerengolf
boerenle
boerenleven
boerenrock
boerenrockband
boerenrockgroep
boerenspillen
boerenwurmkruud
boergondie
boergondische
boerkabeljauw
boerma
boermarke
boermoarke
boern
boernrock
boers
boerschap
boerschop
boerschopn
boerse
boerskop
boerskopn
boerskoppen
boertang
boertanger
boertje
boerum
boeskool
boete
boeten
boetenaf
boetenders
boetendiek
boetenlaand
boetenlaanders
boetenlaandse
boetenof
boetenste
boetenwiek
boetenwieken
boeteprediker
boetn
boetngebeed
boetnlaand
boetnlaandse
boetnste
boh
bohemen
boi
bojem
bok
bokel
bokelt
boken
bokma
boks
boksdoorne
bokse
boksebier
boksem
bol
boland
boldewien
bolivia
bolko
bolle
bollen
bologna
bolstoen
bolsward
bolvormige
bolwark
bolwarken
bom
bomanslag
bomanslagen
bombardeerd
bombardement
bombardementen
bombay
bomen
bomhof
bommel
bommelerweerd
bommen
bommenwarper
bomn
bonaire
bonaparte
bond
bondgenootskop
bondscoach
bondsdag
bondskanselier
bondsrippebliek
bondsroad
bondsstoat
bonen
bongerd
bongo
bonifatius
bonk
bonn
bonnard
bonnen
bonobo
bont
bonte
bontebok
bontebrug
boodem
boodschap
boodschappers
boog
book
bookhalle
bookholding
bookmoal
books
bool
boom
boomheed
boomleuper
boon
boond
boondn
boondslaand
boord
boorko
boorn
boornerbrook
boornse
boornsterhem
booschap
boot
booth
bootje
bootn
boots
bootsing
boozn
boppe
borch
borckink
borculo
bord
bordeaux
borg
borgemeister
borger
borgers
borgt
boris
borkeld
borken
borkense
borklo
borkulo
borkum
born
borneo
borre
borrel
borreltje
bors
borsato
borsele
borsla
borssele
borst
bos
bosbarg
bosbees
bosbeze
bosbezen
bosbouw
bosch
boserebeie
bosgebied
boshoek
boshoven
bosklopper
boskop
bosnia
bosnie
bosnies
bosporus
bosriek
bosrieke
bossa
bosschop
bosschoppen
bossen
bossien
bosskop
boston
boswachteri
bot
botanische
boten
botje
botniese
botnische
botseden
botsing
botsingen
botswana
bottas
botten
botter
botterbloeme
boudel
boudewijn
bouillon
bouk
bouken
boukenkist
boulevard
boum
boumen
bourbon
bourgondie
bourgondiese
bourgondiesen
bourgondische
bouw
bouwbedrief
bouwd
bouwde
bouwden
bouwdn
bouwen
bouwer
bouwers
bouwhoes
bouwhuis
bouwkeunst
bouwkundig
bouwkunst
bouwlaand
bouwman
bouwn
bouwsels
bouwstiel
bouwt
bouwwark
bouwwarken
boven
bovenan
bovenboer
bovendien
bovenkaante
bovenkant
bovenkarspel
bovenop
bovenstaonde
bovenste
bovenstoande
bovven
bowen
box
boxmeer
boxtel
boy
boys
bozen
bp
bpm
br
bra
braai
braak
braaksma
braand
braanden
braandenbo
braandewien
braandn
braandnetel
braandnetels
braandstof
braandstoffen
braandweer
braauwen
brabant
brach
brachen
brachn
bracht
brachteden
brachten
braderie
brahms
braid
braif
brak
brals
bram
brama
brammel
brammelerbrook
brammershoop
brammert
brand
branden
brandenbo
brandenburg
brandende
brandewien
brandt
brandweer
brans
braobaans
braobaant
braobaants
braobanse
braobant
braobants
braobantse
bras
brasiliaansken
brasilie
braun
brazielje
braziliaans
braziliaanse
brazilianen
brazilie
braziljaanse
braziljaansen
brazzaville
bre
bread
breaidn
breaking
brech
bred
breda
brede
breder
bredero
brederode
brederwiede
bredevoort
breds
breed
breedenbroek
breedn
breedte
breedtegraod
breef
breek
breekbonen
breeko
breem
breemn
breenk
breenke
breev
breevoort
breevoortse
brefi
breid
breidde
breidden
breiden
breidt
breien
breje
brek
breken
breking
brekken
brekking
breklenkaamp
brekt
bremen
bremer
breng
brengen
brengn
brengt
breslau
bretagne
bretanje
bretannie
breton
bretons
bretonse
bretonsk
breujen
breuk
breuken
breur
breurs
breve
breven
brevenbusse
brexit
breyd
breyde
breyder
brezhoneg
bri
brian
bridge
bridges
bried
briede
brieder
briedere
briederwiede
brief
briel
brielle
brien
briese
brieven
brievenbusse
brij
brikken
bril
brill
brille
brilon
brinckman
bringen
brink
brinkdo
brinkheurne
brion
bristol
brit
britain
britannia
britannica
british
britn
brits
britse
britsen
britsk
britske
britsken
brittanie
brittanje
brittannie
britten
bro
broabaant
broabands
broabant
broabants
broabantse
broad
broadstip
brobargen
brocht
brochten
broec
broeck
broed
broeder
broeders
broek
broeken
broekhuizen
broeklaand
broekland
broekn
broekt
broekte
broekten
broen
broene
broenehaar
broenswiek
broersma
brog
brogge
broggen
broggien
brokken
brommel
bron
bronckhorst
bronkhorst
bronne
bronnen
brons
bronstied
bronstyd
bronx
bronzen
brood
brook
brooklyn
broons
broonstied
broonzen
brother
brothers
broukmerlaand
brouwen
brouwer
brouweri
brouwerieje
brown
bru
bruce
bructeren
bructeri
bruden
brug
brugge
bruggen
bruid
bruidspaor
bruier
bruijn
bruked
bruken
bruket
brukjen
brulfte
brulften
brummel
brummels
brummen
brune
brunne
brunnen
bruno
brunssem
brunswiek
brussel
brussels
bruto
bruud
bruuk
bruukber
bruukt
bruukte
bruukten
bruun
bruunsbarg
bruur
bruxelles
bruzzel
bryggen
brythonies
bu
buada
bubble
buchte
buchten
budel
budget
buenos
buffer
bugle
buil
builefeld
buis
buisman
buiten
buitenlui
buize
buizen
buk
bukkem
bukkes
bukse
bulawayo
bulgaarse
bulgarije
bulgarye
bulgerije
bull
bullerdiek
bulletin
bult
bulte
bulten
buma
bun
bundel
bundeling
bundels
bunder
bunders
bundesstraße
bundsland
bunkers
bunny
bunschoten
bunsjoots
bunsjoten
bunskoek
bunt
burcht
bureau
buren
burg
burgemeester
burgemeister
burgemeisters
burger
burgerleu
burgerlijke
burgerlike
burgeroorlog
burgers
burgstemmert
burj
burkina
burn
buro
burrator
burundi
bus
busbedrief
busekool
bush
business
busje
busk
buske
busken
buskruut
busliende
busn
busse
bussen
bussien
bussloo
bussum
but
buten
butenalster
butendat
butengebied
butengewoon
butenkaante
butenkante
butenlaand
butenlaanders
butenlaands
butenlaandse
butenlaanse
butenland
butenlandse
butenlandske
butenof
butenplaatse
butenplaetse
butenpost
butenste
butenwereld
butje
butte
butter
button
buuk
buul
buur
buurderyen
buurlo
buurman
buurschop
buurse
buursebekke
buursink
buurskop
buurt
buurte
buurten
buurthuus
buurtn
buurtschap
buurtschappen
buurtschop
buurtschoppen
buurtskap
buurtskappen
buurtskop
buurtskoppen
buurtverenige
buurtvereniging
buut
buuten
buutenlaandse
buutenplaetse
buyse
buze
bv
by
bybel
bybelske
byho
byleveld
byna
byname
bysantynske
bysu
byvo
byzantienen
byzantienn
byzantiense
byzantium
c
ca
cabaret
cabo
cabral
cacao
caerdydd
caesar
cafe
cai
caithness
cake
calais
calcium
calidris
california
californie
calixtuskarke
call
calluna
calvijn
calvin
calvinisme
calvinisten
calvinistiese
calystegia
cambridge
camera
cameron
campagne
campherbeek
camping
campings
campylorhynchus
can
canada
canaria
cannenburgh
canon
cante
canter
canyon
cap
cape
capital
caquetio
car
carbo
cards
carduus
carel
carl
carlo
carlos
carmen
carnaval
carol
carolina
caroline
carolus
carpe
carre
carrie
cars
carter
case
caselle
casimir
casino
caspar
castafiore
castella
castellum
castle
castra
castricum
castro
castrum
catharina
catherine
cato
cats
cavaquinho
cave
cavia
cbs
cc
cd
cda
cdu
ce
cedi
cees
cefet
cele
celebes
cellen
cello
celsius
celtic
cement
census
cent
centaurea
centen
center
centeri
centerije
centimeater
centimeter
centra
centraal
central
centrale
centraol
centraole
centre
centro
centroal
centroale
centroalen
centrum
century
ceratopsianen
ceremonie
ceremony
ceres
ceylon
cf
ch
cha
chaam
chagall
challenge
chalon
chamoaven
champagne
champions
champs
chan
changes
channel
chaos
charleroi
charles
charlotte
chatten
chauken
che
chef
chemie
chemiese
chemisch
chemische
chemiske
chemnitz
chen
cherusken
chf
chi
chicago
chick
chie
child
children
chili
chillout
chimpansee
chimpansees
chin
china
chinees
chineesk
chineeske
chineesken
chinese
chinezen
chip
chips
chlidonias
chloroquine
chopin
chr
chris
christeleke
christelijk
christelijke
christelik
christelike
christen
christendom
christenen
christenunie
christi
christiaan
christian
christina
christine
christmas
christoffel
christoph
christopher
christus
chroesjtsjov
chromosoom
chronik
chsische
cht
chtba
chtbaarheid
chte
chten
chter
chtigheid
chtn
chu
church
churchill
ci
cia
cicero
cichorium
cie
ciefers
cinerea
circa
circle
circuit
circumvallatieliene
cirkel
cirkels
cistothorus
citaat
citadel
citaot
cite
cities
citroe
city
civiele
civil
civilis
ck
cke
cken
cker
cl
clade
claes
claim
claims
clara
clark
clarks
classe
classic
classis
claude
claudius
claus
clemens
clemme
cleopatra
cleveland
clewits
cliff
climate
clinical
clinton
clooster
close
closer
clovis
club
cluster
clyde
cm
cnn
co
coach
coast
coburg
coca
cock
code
codepraoters
codex
coen
coesfeld
coevern
cohen
cois
cola
collectie
collection
collega
college
collendoorn
colombia
colonel
color
colorado
colorguard
columbia
columbus
column
columnist
columns
com
combinatie
come
comite
commerce
commercie
commercieel
commissaris
commissie
commission
committee
common
commons
communicaotie
communicatie
communistische
como
comomeer
comp
compagnie
company
comparative
compas
compenis
compenist
compleet
complete
complex
componist
componisten
computer
con
conan
concepcio
concept
concert
concerten
concilie
concours
concrete
concurrentie
confessions
conflict
congo
congres
congress
connacht
connecticut
connell
connexxion
connor
conrad
conservatief
conservatieve
conservato
conservatoire
conservatorio
conservatorium
conservatory
constant
constantien
constantijn
constantinopel
constapel
constitution
constructie
consul
contact
contacten
content
context
continent
continental
continenten
continuu
contra
contrabas
contract
contrei
contreien
control
controle
convente
convolvulaceae
coo
cool
copernicus
cor
corea
cork
cornelis
cornelissen
cornelius
cornielje
cornwall
corona
coronavirus
corop
corp
corporation
corps
corpus
correct
corrie
corsu
corte
cortenoever
corymbosum
costa
coster
could
council
counties
countries
country
countrymusik
county
coup
couplet
coupletten
courant
court
courtine
cov
cover
covers
covid
covorden
covordia
crash
crataegus
cre
creative
cree
crisis
cristatus
cristo
criticus
cromwell
cronike
cronus
cross
cruiskeen
cruz
crypte
csi
ct
cu
cuba
cuby
cui
cuijk
culemborg
culture
cultureel
culturele
culturen
cultuur
cultuurpries
cultuurtaal
cum
cumbria
cunha
cup
curac
curie
curitiba
currency
cursus
cursussen
curtis
cuscuta
cuypers
cv
cwm
cycloon
cyclus
cyfers
cymraeg
cymru
cyprus
d
da
daage
daagn
daagns
daags
daaier
daaiern
daal
daalden
daalt
daam
daamp
daampkring
daan
daank
daanken
daankn
daankt
daankzi
daans
daansen
daanser
daansers
daansn
daanst
daanswoede
daar
daarde
daarden
daarlerveen
daarom
daarp
daarpen
daartig
dach
dacht
dachten
dachtten
dadde
daegelikse
daegen
dael
daele
daenken
daer
daeventer
dafrika
dafrikaanske
dag
dagblad
dagboek
dage
dageleks
dagelekse
dagelijks
dagelijkse
dageliks
dagelikse
dagen
dagense
dagomba
dagvlinders
dahomey
dai
dail
dailen
dails
dailstoat
dailstoaten
daily
dainst
daint
daip
daipen
daj
dak
dakota
dakpannen
daktyl
dal
dale
dalen
daleskreaven
dalezet
dalfsen
dalfser
dalsen
dam
damaskus
dame
damerika
damme
dammen
dampkring
damsterdaip
damwoolde
dan
dance
dancehall
danie
daniel
dank
danken
dankert
danket
danks
dankt
dankzi
dann
dannenberg
danny
danorum
dans
dansen
dansmusik
dante
dantemediel
dantzig
danzig
dao
daod
daon
daor
daorachter
daoraj
daoran
daoraover
daoras
daorbi
daorbie
daorbij
daorbuten
daordeur
daorentegen
daorin
daorintegen
daormee
daormet
daormit
daorna
daornao
daornaos
daornaost
daoromme
daoronder
daorop
daoropvolgende
daorum
daorumme
daoruut
daorvan
daorveur
daotum
daphne
dar
darde
dardegro
darden
dardes
darius
dark
darmen
darp
darpen
darpjen
darpsgezichte
darpshuus
darpskarke
darpskern
darpsraod
darstellende
dart
darteen
darter
dartien
dartiende
dartig
dartiger
dartigjoarigen
dartmeet
dartmoor
dartmouth
darwin
darwinkel
das
daslouk
dasse
dassen
dat
data
dateert
datering
dativ
datselvde
datum
datzelfde
dave
david
davies
davis
dawkins
day
dbnl
dc
dce
dci
dd
ddakota
dde
ddel
dden
dder
ddn
ddr
de
dea
dead
deade
deaden
deage
deal
dealden
dealdn
dealdner
deale
dealer
deals
dealsto
dealstoat
dealstoaten
dealten
deamter
dean
deanekaamp
deanemarkn
deanemoarkn
deankaamp
deanken
deankn
deankt
death
deaventer
deawenter
deawnter
debat
debiet
debuteerden
debuut
debuutalbum
dec
decca
december
decennia
decennium
decentraliseerd
dech
decor
ded
dede
dedem
dedemsvaart
dedemsvaartsche
dedemsvaort
dedemsvoart
deden
dee
deed
deedn
deeg
deei
deeil
deel
deelden
deelen
deelgemeente
deeln
deelname
deelnemers
deelnemmers
deels
deelstaat
deelstaot
deelstaoten
deelstoat
deelstra
deelt
deemster
deen
deenden
deengn
deenk
deenkel
deenkellaand
deenn
deens
deensdag
deense
deensen
deenst
deenste
deensten
deenstverlening
deent
deep
deepe
deepn
deepste
deepte
deeptegesteente
deer
deern
deerne
deerns
deers
deersoorten
deeselvde
deezelfde
defensie
definisie
definitie
definitief
definitieve
definitsie
definity
deftige
degene
deheleboel
dei
deil
dein
deinse
deit
dej
dek
deken
dekken
dekker
deksel
dekt
del
delange
delaware
delden
dele
delen
delf
delfstrehuzen
delft
delfziel
delgada
delhi
delia
delik
delike
delikte
deling
dell
della
delle
delta
dem
demo
democraten
democratic
democratie
democratisch
democratische
demographic
demokrasie
demokraten
demokraties
demokratiese
demokratiske
demokraty
demonen
dempen
dempt
den
denbarchyn
dendom
dene
denemaarken
denemarken
denen
deng
denge
denis
denk
denke
denken
denket
denkt
denmaark
denn
denne
dennen
dennis
denselvden
denver
denzelfden
deo
depa
departement
departementen
department
depe
depen
deper
depressie
depressieve
der
derachter
deran
derbi
derbie
derbij
derby
derde
deren
dergeleke
derin
derk
dermit
dernao
dernaor
dernaost
derof
deronder
derop
ders
dertig
dertoe
dertoo
derumme
derup
deruut
dervan
derveur
dervo
des
dese
deselvde
desember
deskundigen
desmond
deso
desondaanks
destentor
destieds
destyds
desu
det
detail
details
detmold
detroit
detzelfde
deu
deud
deuden
deudn
deuk
deup
deupen
deuper
deupsgezinde
deupsgezinden
deupt
deur
deurboord
deurda
deurdat
deurdet
deurdeweeks
deure
deuren
deurga
deurgaonde
deurgaons
deurgoan
deurgoans
deurhen
deurhenne
deurkruust
deurne
deurregen
deursnae
deursneden
deursnee
deurzichtig
deus
deusien
deutekem
deutsch
deutsche
deutschen
deutschland
deuze
deuzendschonen
development
deventer
deventers
dever
devils
devon
devotie
dey
deyl
deylde
deylen
deyls
deylsta
deyltrekkers
deze
dezelde
dezelfde
dezelfden
dezember
dezi
dezo
dezulfde
dh
dhabi
dhekelia
dholland
di
dia
diachronic
diagnose
diaken
dialect
dialectcontinuu
dialecten
dialectgroep
dialectgroepen
dialecticon
dialectkring
dialectkringen
dialectliteratuur
dialectmaond
dialectologie
dialectoloog
dialectrenaissance
dialects
dialek
dialekken
dialekt
dialektatlas
dialekte
dialekten
dialektgebeed
dialektgebied
dialektgroep
dialektgroepen
dialektgrup
dialektkontinuu
dialektkontinuum
dialektkringe
dialektkringen
dialektn
dialektologe
dialektologie
dialektwoorden
dialexicon
dialogen
dialoog
diamanten
diameter
diamond
diana
diaspora
dibaba
dich
dichrorampha
dicht
dichtbie
dichtbu
dichtbundel
dichtbundels
dichte
dichtebi
dichtedda
dichten
dichter
dichteres
dichterij
dichterlijke
dichterlike
dichters
dichterschap
dichterye
dichtkeunst
dichtku
dichtst
dichtstbevolkte
dichtste
dichtvo
dichtwaark
dichtwark
dick
dickens
dickninge
dictator
dictionary
dictionnaire
did
die
diederik
diedrich
dieet
diego
diej
diek
dieken
diekerhook
diekhook
diekhuzen
dieks
diel
dielen
dielnemers
diels
dielstaot
dielstaoten
dielt
dielties
dielwoord
diem
diemen
diemer
dien
diende
dienden
diene
dienen
diensdag
dienst
diensten
dient
diep
diepe
dieper
diepere
diepte
dier
dierbaar
dierbren
dieren
dierenpark
dierenrechten
diern
diersoort
diersoorten
dies
diesel
dieselmotor
diest
diet
dieter
dietrich
diets
dietz
dieverdaotsie
dieze
diezerpoorte
diezerstraote
diffusus
diftong
diftongen
dig
digan
digd
dige
digen
digendaagse
diggelen
diggelgoed
diggelhoes
diggelhuus
diggelwark
digiscoping
digiskopy
digitaal
digitale
digitalis
dij
dijent
dijk
dijkhuis
dijkman
dijkstra
dik
dika
dikke
dikkels
dikken
dikker
dikkere
dikn
dikste
diktator
dikte
dillenburg
dimensie
dimitri
dimter
din
dinar
ding
dinge
dingeldein
dingen
dingspel
dinie
dink
dinkel
dinkelweite
dinkelweitekorrels
dino
dinoland
dinosauriers
dinosaurs
dinosaurussen
dinsdag
dinsper
dinxper
dinxperlo
dio
diogenes
dion
diploi
diploma
diplomatieke
direct
directe
directeur
directory
direks
direkt
direkte
direkteur
direkto
direkts
dirigeant
dirigent
dirk
dirks
dis
disch
discipline
disciplines
discovery
discussie
disease
disko
diskotheek
diskussie
diskussies
disn
disney
displaystyle
diss
disse
dissen
dissend
dissent
dissertatie
distribution
district
distrikt
distrikten
distriktn
dit
ditmoal
diva
diverse
diversis
diversiteit
divisie
division
dixieland
dizn
dizze
dizzen
dizzend
dizzent
dj
djembee
djembees
djen
djibuti
dju
dke
dken
dkes
dkorea
dl
dn
dna
do
doad
doagelks
doagen
doan
doar
doarachter
doaran
doarbi
doarbie
doarbiej
doarboetn
doarde
doardegro
doardeur
doardn
doarduur
doarhen
doarien
doarin
doarle
doarmet
doarmit
doarna
doarno
doarnoa
doarnoast
doaro
doaroawer
doaroet
doarom
doaroonder
doarop
doaropvolgende
doarp
doarseveld
doartoo
doarum
doarumhen
doarumme
doarvan
doarveur
doarvuur
doatum
doberan
doc
docent
doch
dochs
docht
dochten
dochter
dochteren
dochters
docs
doctor
document
documentaire
documentatiecentrum
dode
doden
dodo
doe
doebai
doedelzak
doedens
doedertied
doedestieds
doek
doel
doelen
doelstelling
doem
doempien
doen
doende
doer
doerden
doeren
doern
doert
doesburg
doester
doet
doeven
doew
doezebarg
doezend
doezende
doezenden
dof
dog
dogma
doi
dokement
dokementen
dokkum
dokter
dokters
dokument
dokumenta
dokumenten
dolf
dolfien
dolfienen
dolfinarium
dollar
dollard
dollart
dolle
dollen
dollert
dolly
dom
doma
domein
domeneer
domesticus
domie
dominaante
dominant
dominante
dominantsy
dominee
domineer
domini
dominikaanse
dominion
dominique
domino
domitianus
domkarke
domme
dommel
dommersknaal
domtoren
don
donald
donar
donars
donau
donder
donderdag
donderpadden
dong
dongerediel
doniawerstal
donjon
donk
donker
donkerbroek
donkerder
donkere
donna
donne
donsker
doo
dood
doodgaon
doods
doodstraf
doof
dooie
dooien
dook
dool
dooldersum
doolman
doom
doomoalig
doomoalige
doon
doonder
doonderdag
door
doordeur
doorn
doornbos
doornenburg
doornestruke
doornik
doorns
doornspiek
doorspiek
doorveur
doorwerth
doos
doosje
doospiek
doot
dootieds
doowop
dop
dopheed
dor
dordrecht
dorian
dormitorium
dorp
dorpel
dorpen
dorst
dorsten
dorstn
dorth
dortmund
dorumme
dorus
dos
dossetie
dossier
dot
dotyds
dou
douane
double
doud
doude
douden
doudestieds
douglas
dougong
doul
doun
doustelik
dousten
douwe
douwsma
dove
dover
dow
down
dozien
dpleegd
dr
dra
draag
draagt
draai
draaien
draait
draak
draank
draat
drachenfels
drachten
draegen
draeger
draegers
draeget
drag
dragen
drager
dragon
dragt
drai
draiden
draien
drait
drake
drama
dramariege
drammen
drang
drank
dranken
draod
draoden
drassige
draw
dre
drea
dreagen
dreager
dreagers
dreagn
dreagnt
dreain
dreait
dreajen
dreajt
dream
dreams
dreante
dreanthe
dreants
dreantse
drechterlaand
dree
dreef
dreehook
dreei
dreeien
dreein
dreeinde
dreeit
dreekleure
dreekwart
dreemoal
dreenerl
dreenken
dreenkn
dreetal
dreg
drei
dreie
dreien
dreigden
dreiging
dreihoek
dreischute
dreit
dreje
drek
dreks
drekt
drekte
drempt
drent
drente
drenten
drenthe
drenthina
drents
drentsche
drentschen
drentse
drentsk
drentske
dresden
dreug
dreugde
dreuge
dreugen
dreuger
dreugere
dreuglegen
dreugmakeri
dreugn
dreugt
dreugte
dreum
dreuwge
dreven
drey
dri
drie
driee
driegde
driehoek
drieje
driemaandelijkse
dries
driesprong
driessen
driete
drieten
drieven
drievend
drievende
drievoudig
drif
drij
drijainhaid
dringen
dringt
drinken
drinkt
drint
driver
drivt
drk
dro
droad
droagen
droeve
droeven
droevensoorte
drogen
drok
drokke
drokken
drokker
drokst
drokt
drokte
dronge
dronken
dronten
droog
drop
drost
drostambt
drosten
drs
dru
drug
drugs
druk
drukken
druklichten
drukn
drukst
drukstbevolkede
drukt
drum
drumkorps
drumkorpsn
drummer
drummers
drumpel
drums
drumstel
drung
drunken
drusus
druten
druven
ds
dse
dske
dskn
dsm
dsotho
dsudan
dt
dte
dtien
dtirol
du
dub
dubai
dubbel
dubbeld
dubbeldam
dubbelde
dubbele
dubbeln
dublin
dubreggae
dubrovnik
duchtig
duck
dudden
dudelek
dudeleke
dudelijk
dudelijke
dudelik
dudelike
dudeliker
dudelk
dudelke
dudelker
duden
due
duenk
duftig
duidelijk
duil
duin
duisenberg
duitse
duitsland
duizend
dujen
duke
duken
duklja
dullert
dum
dun
dunbevolkt
dunder
dunderdag
dunen
dung
dungen
dunker
dunne
dunner
dunstbevolkte
duo
durch
dure
duren
durende
durf
durp
durrep
durum
dus
dusdo
dusend
dusende
dusenden
dusseldo
dust
dut
dutch
dutroux
duudelik
duudn
duudt
duun
duunkarke
duur
duurdat
duurde
duurden
duurdet
duurhen
duursnee
duurste
duurstede
duurstoan
duurswold
duurswoldsters
duurt
duurzame
duuster
duustere
duusternis
duuts
duutse
duutsen
duutser
duutsers
duutske
duutslaand
duutsland
duutstalige
duve
duvel
duvelsneigaoren
duven
duwen
duzend
duzenden
dvd
dvhn
dwaars
dwarg
dwargen
dwargplaneet
dwargstoaten
dwars
dweilorkest
dwest
dwesten
dwingel
dwingen
dwu
dwung
dy
dyk
dylan
dyn
dynastie
dynasty
e
ea
eagen
eagenlik
eagn
eagne
eagnskappn
eaigne
eailaand
eailaanden
eailaandn
eaileandkes
ealsen
ealsn
ean
eand
eande
eandigt
eandn
eane
eangn
eanige
eanigste
eankel
eankeld
eankelde
eankele
eankelklaank
eankelstieligen
eankelt
eankelvoold
eann
eanske
eanskes
eanter
eanters
eanterse
eantersen
ear
eardbewing
eardbewingn
earde
earder
eardgas
eardkorst
eare
earen
earlike
early
earpel
earresteerd
earst
earste
earsten
earstn
earth
earvolle
east
eastern
eat
eaten
eaven
eavenaar
eavenens
eaveneyns
eavenvo
eavenwicht
eawen
eawerdasn
eawn
eb
ebakken
ebaseerd
ebben
ebeeld
ebeugen
ebeujen
ebeurd
ebionieten
eblaeven
eblaozen
eble
ebleaven
ebleben
ebleewn
ebleken
ebleven
eblevven
ebn
ebo
eboaden
eboerd
ebola
ebonden
ebouwd
ebouwde
ebouwden
ebouwed
ebowd
ebraand
ebrach
ebrached
ebracht
ebrand
ebreid
ebreuken
ebro
ebrocht
ebroek
ebroekt
ebrokken
ebrouwen
ebru
ebruked
ebruuk
ebruukt
ebt
ebundeld
eburonen
ebuurd
ec
ech
echo
echt
echte
echten
echtenerbrogge
echter
echternach
echtgenoot
echtgenote
echtn
echtpaar
eck
eckernfo
ecologische
econcentreerd
econfronteerd
economic
economie
economisch
economische
economy
ecser
ecuador
ed
eda
edaald
edacht
edam
edamd
edaon
edaone
edda
eddy
ede
edeald
edeeld
edefinieerd
edek
edel
edele
edelen
edelhart
edelleu
edelman
edempt
eden
edeupt
edeyld
edgar
edield
edik
edikt
edinburgh
edison
editie
edition
editions
edmund
edo
edoan
edoane
edocht
edocumenteerd
edood
edragen
edreagen
edreagn
edreaven
edreeid
edreid
edreugd
edreugde
edreugen
edreunkn
edreven
edro
edroagen
edrok
edrokt
edrongen
edru
edrukt
eds
edu
eduard
educac
education
eduud
eduudt
eduurd
edvard
edward
edwin
edwongen
edwungen
edwungn
ee
eed
eeden
eefde
eeftink
eegn
eegne
eegnen
eei
eein
eek
eekmulder
eekn
eeknprosessieroepe
eel
eelde
eem
eemdiek
eemlangds
eemnes
eems
eemse
eemslaands
eemtepol
een
eend
eendracht
eene
eenheaid
eenheid
eenige
eenjaorige
eenling
eenlingen
eenmoal
eenn
eens
eenvoudig
eenvoudige
eenzelfde
eer
eerappels
eerbeek
eerbetoon
eerd
eerdappels
eerdatmosfeer
eerdbeving
eerde
eerden
eerder
eerdere
eerdeulje
eerdewark
eerdgas
eerdkeern
eerdoppervlak
eerdriekskundige
eerdwetenschoppen
eere
eerelman
eerenbroek
eerpel
eerpels
eers
eerst
eerste
eersten
eerstens
eerstmoal
eerstn
eertieds
ees
eese
eeskn
eesti
eet
eetbaor
eetbaore
eeuw
eeuwe
eeuwen
eeuwenlang
eeuwenlange
eeuwig
eeuwige
eeuwn
eeuwnlange
eeuws
eeuwse
eeuwsen
eew
eewe
ef
efde
efden
efermenteerd
effect
effecten
effekt
effekten
effektief
effen
efilmd
efo
eft
efter
eg
ega
egaeven
egaon
egaone
egbert
egberts
ege
egeaten
egeaven
egede
egee
egeewn
egen
egene
egerla
egerland
egeten
egetn
egetten
egeuven
egeven
egevven
egewen
egiewn
egilsstaðir
egmond
egmont
egoan
egoane
egoaven
egooid
egotten
egovven
egra
egraoven
egraven
egreawen
egreawn
egrepen
egreuid
egreujd
egro
egroand
egroaven
egroondt
egruuid
egypte
egyptenaren
egyptenoarn
egyptiese
egyptische
eha
ehaald
ehad
ehaeven
ehaold
ehbo
eheaven
eheten
eheulden
eheuldn
eheurd
eheven
eho
eholden
ehollen
ehouwen
ehrentraut
ehret
ehs
ehu
ehuilen
ehulpen
ehulpn
ehungen
ehuurd
ei
eibarge
eibargen
eibergen
eier
eiers
eifel
eiffeltoorne
eigen
eigenaar
eigenaor
eigendom
eigene
eigenheid
eigenlek
eigenlijk
eigenlijks
eigenlik
eigenlike
eigenliks
eigenoar
eigenoaren
eigens
eigenschappen
eigenschop
eigenschoppen
eign
eijsden
eike
eikes
eila
eilaand
eilaanden
eilaandengroep
eilaanders
eilaandjes
eilaandn
eiland
eilanden
eilanen
eilannen
eileandkes
eileen
eileuvers
eilige
eilish
eiloanden
ein
eind
einde
eindhoown
eindhoven
eindig
eindigen
eindigt
eine
einem
einen
einer
eines
einfu
eing
eins
einstein
eis
eisden
eisen
eisenach
eist
eisten
eitjes
eiw
eiwit
eiwitten
ejaagd
ejag
ejagd
ejeugen
ek
ekaozen
ekapt
ekdom
ekeaken
ekeerd
ekeken
ekekken
ekekn
ekelogische
ekels
eken
ekend
ekenmarked
ekenmarkt
ekenmoarkt
ekenomische
eker
ekeumen
ekeurd
ekeuzen
ekeuzn
ekkelboom
eklemd
ekleurd
ekleurde
eklo
eknapt
eko
ekocht
ekoeld
ekoemen
ekokt
ekologiese
ekology
ekomen
ekommen
ekommn
ekondigd
ekonomie
ekonomien
ekonomies
ekonomiese
ekonomisch
ekonomische
ekonomisk
ekonomiske
ekonomisken
ekonomy
ekonomyen
ekookt
ekoppeld
ekort
ekortt
ekost
ekosysteem
ekosystemen
ekozen
ekozzen
ekreagen
ekreegn
ekregen
ekreggen
ekreygen
ekroond
eks
eksel
eksempelwyse
ekspres
ekspressionisme
ekster
ekstra
ekte
eku
ekuierd
ekummen
ekweek
ekweekt
el
ela
elaegen
elaoten
elba
elbe
elburg
elburgs
eld
elderink
elders
eldrik
ele
eleaden
eleagen
eleaidt
eleard
eleasen
eleaved
eleaverd
eleawerd
election
eleden
eleefd
eleegd
eleen
eleerd
eleg
elegd
elegde
elegden
elegen
elegged
eleggen
eleid
eleide
eleided
elejen
elektriciteit
elektries
elektriese
elektrisch
elektrische
elektrisiteit
elektriske
elektromotor
elektroniese
elektronische
elektronisk
elektroniske
elemeant
element
elementen
eleupen
eleuten
eleverd
elezen
elf
elfdals
elfde
elfstedentocht
elfstedetocht
elftal
elias
eliefd
eliot
elisabeth
elite
elizabeth
elk
elkaar
elkander
elke
elken
elkenain
elkn
ella
elle
ellektries
ellektriese
ellektriesen
ellemeantn
ellen
ellende
ellert
ellertsveld
elliot
ellis
elo
eloaten
eloatn
elokt
elop
elopen
elost
elp
els
elsas
elsassisk
else
elsevier
elsien
elspeet
elspeterbosweg
elten
elu
elv
elve
elven
elvis
elze
em
ema
emaak
emaakt
emaakte
emaked
emaket
emalen
emanuel
emaokt
emaolen
emaotigd
emarkeerd
emarkt
emarteld
emden
emeaten
emel
emeld
emelded
emengd
emeten
emetseld
emetten
emeuken
emeynd
emi
emile
emilia
emily
emiraot
emiraoten
emiraten
emma
emmanuel
emmelkaamp
emmelkaump
emmeloord
emmen
emmentaler
emmer
emmerik
emmy
emoties
empe
empel
empetrum
empire
empiricus
ems
emsdelta
emsla
emslaand
emslaands
emsland
emsmond
emst
en
enaamd
enclave
enclaves
encycliek
encyclopedia
encyclopedie
encyclopædia
encyklopedie
encyklopediee
end
ende
endegt
endelek
endemiese
endigden
endigeden
endigen
endigt
endpunt
endredacteur
endtien
ene
enege
enen
energie
energy
eneugnd
eneumd
eneumde
eneumden
eneumen
eng
engel
engelaand
engeland
engelbrecht
engelen
engels
engelse
engelsen
engelsk
engelske
engelsken
engelsman
engelsn
engelstaelige
engelstalige
englaand
england
english
enig
enige
enigen
enigste
enigszins
enk
enkel
enkeld
enkelde
enkele
enkelen
enkelvold
enkelvoud
enken
enkhuzen
enkhuzens
enklave
enkv
ennemoabo
ennergie
ennigste
ennigsten
eno
enoemd
enomineerd
enommen
enorm
enorme
enque
ens
enschede
enschedese
ense
enselijke
ensemble
ensen
ensk
enske
enskede
enst
ensyklopedie
ent
ente
entegen
entekruus
enten
enter
entertainment
enthe
entjes
entre
entrecasteaux
ents
entse
entstalig
entstalige
entstaolige
enuumd
enuumde
enuump
enya
enz
enze
enzen
enzend
enzende
enzowieder
enzowieter
enzymen
eo
eoogs
eopend
ep
epakt
epast
epaste
epasteuriseerd
epe
episcopis
eplaant
eplaatst
eplakt
eplant
eplaos
eplaotst
epleegd
eplu
eplunderd
epnzoalder
epraot
eprissenteerd
eproduceerd
epse
epubliceerd
er
era
eraakt
eraodpleegd
erasmus
erbeid
erd
erde
ere
ereageld
ereakend
erealiseerd
erebeie
erebeien
erectus
ered
ereden
eredivisie
eregeld
erejen
erekend
erekkend
ereknd
erekte
eren
erestaureerd
ereupen
ereveen
erf
erfgoed
erfgoedcentrum
erg
ergens
eric
erica
ericaceae
erich
erichet
ericht
erichte
erichted
erichtet
erik
eriksson
erin
eritrea
erkeand
erkeant
erkend
erkende
erkenden
erkennen
erkenning
erkent
erker
erna
ernst
ernstig
ero
eroepen
eroopen
erop
eropen
erosie
erotische
erremm
ers
ert
erts
erva
ervaoring
ervaren
ervaring
ervarings
erve
erven
ervo
ervoaren
erwin
es
esa
esat
esbjerg
escape
esch
eschaf
eschaft
eschat
escheiden
escheien
escheurd
escheuten
escheuven
eschilderd
eschmarke
eschonken
eschotten
eschre
eschreaven
eschreben
eschreven
escola
esdo
ese
eseen
esegd
esen
esene
eset
esetted
eskat
eskatt
eskatted
eskeiden
eskeunkn
eskikt
eskimo
esko
eskreaven
eskreben
eskreewn
eskreven
eskrewen
eslaagd
eslach
eslacht
eslagen
esleugen
esleuten
eslo
eslohe
esloopt
eslotten
esmetten
esmolten
esneden
esnejen
eso
espand
espannen
espeld
esperanto
espeuld
espi
esplitst
espo
espoanse
espoord
esport
espreuken
espro
esproaken
esproken
esprokken
espruken
espuuld
essays
esse
essen
essex
est
esta
estaon
estaone
estart
esteeld
estegen
esteld
estelde
estelden
estelled
estemd
estemde
esteuken
esteulen
esteund
esteurd
esther
esthetische
estich
esticht
estichted
esties
estiese
estimates
estlaand
estland
esto
estoan
estoane
estoarven
estokken
estopped
estopt
estort
estrekt
estu
estudeerd
estuoarium
esturven
estuurd
esu
esw
eswatini
et
eta
etast
etc
eteeld
etekend
etekkend
eteld
eten
eteund
ethiek
ethiopia
ethiopie
ethiopiese
ethnologue
etiekend
etikt
etiopie
etiopiske
etiopisken
etn
etniese
etnische
etniske
eto
etraind
etro
etroffen
etrokken
etrouwd
etselvde
etsu
ett
etten
etymologiebank
etymologisch
etymology
etzelde
etzelfde
etzo
eu
eudyptes
eufdstad
eufraat
euge
eugen
eugenius
eugte
euifeest
eul
eulder
euldere
euldst
euldste
eulie
eulifaanten
eulifaantn
eulje
eum
eupen
eupenbaore
eupend
eupenlochttheater
eur
eurasie
eurazie
eurdeel
eure
euren
eurlui
eurluiers
euro
eurocommerce
europa
europe
europeaann
european
europeanen
europees
europeesk
europeeske
europese
europesen
eurovisie
eurovisiesongfestival
eurozone
eursinge
eurspro
eursprong
eurspronkelek
eurspronkeleke
eurt
eus
eusten
eustn
eut
eutspraak
euver
eva
evalen
evallen
evangelie
evangelien
evangelies
evangelisch
evangelische
evangely
evangelys
evangen
evans
evat
eveerd
even
evenaar
evenaor
evenboer
evenement
evenementen
eventueel
eventuele
eventuweel
evenwicht
ever
everdesse
everest
everhard
everlo
evers
evert
evestigd
evestigde
eveugd
eveunden
eveundn
evia
evic
evierd
evink
evlagd
evlo
evo
evochten
evoegd
evoerd
evoerde
evolgd
evollen
evolusie
evolusietheorie
evolutie
evolutietheorie
evolution
evolutiona
evoluty
evonden
evoogd
evoord
evormd
evormp
evra
evraogd
evu
evuld
evunden
evungen
evunnen
evyrd
evyred
ewa
ewaarket
ewaezen
ewald
ewarked
ewarkt
ewassen
ewe
eweasd
eweasen
eweest
eweezn
ewekt
ewen
ewend
ewes
ewesd
ewest
ewezen
ewezzen
ewi
ewiedt
ewiek
ewijd
ewisseld
ewo
ewoarket
ewodden
ewoend
ewond
ewonnen
ewoond
eworden
eworren
ewsum
ewu
ewunn
ewunnen
ewyded
ex
exakte
examen
exclave
exclaves
exemplaoren
exemplaren
exodus
exoniemen
exotische
expansie
expeditie
experiment
exploiteren
expo
exponenten
export
express
extra
extreem
extreme
extroa
ey
eye
eygen
eygene
eygenen
eyjafjallajo
eyn
eyne
eynen
eynheid
eynheiden
eynig
eynige
eynigste
eynma
eyns
eyr
eyrder
eyrdere
eyre
eyrst
eyrste
eyrsten
eyrtyds
eyw
eywe
eywen
eywige
eywske
ezat
eze
ezeegd
ezeen
ezeg
ezegd
ezegt
ezeid
ezel
ezene
ezet
ezeten
ezetten
ezeundn
ezien
eziene
ezo
ezocht
ezonden
ezorgd
ezunden
ezungen
ezungn
ezunnen
ezw
f
fa
faailieks
faam
fabriek
fabrieken
fabriekn
fabriken
face
facebook
facebookziede
fact
factbook
facto
factor
facts
faero
failliet
fair
fakto
faktor
faktoren
falderaldera
falderalderare
falderalderiere
falen
fall
falla
fame
familie
familienamen
families
family
famous
fan
fanfare
fanoog
fans
fantasie
fantasiee
fantasy
farao
faraos
farish
farm
farnese
faro
fase
fashion
faso
fast
fat
father
fats
fatsoen
fauna
faust
favorite
faxi
fbi
fbroken
fc
fe
feailik
feaitelik
feajlek
featelik
feberwaori
febrewaori
febrewoari
febriek
febrieken
februa
februari
february
februwoari
fechter
federaal
federal
federale
federaosie
federasie
federatie
federoal
federoale
feenstra
fees
feesdag
feest
feestdag
feestdagen
feeste
feestelijk
feesten
feestjes
feestn
feguren
feguur
feil
feilijk
feit
feite
feitelek
feitelik
feiten
fel
felipe
felix
felle
feller
fels
femilie
femiliename
femilienoamen
femilies
femke
fenna
fenomeen
fenrir
feodaal
feodale
feodalisme
ferdi
ferdinand
fering
fermaot
fermele
fernando
fernuus
ferrari
ferries
ferry
ferwerderadiel
ferwerderediel
fest
festival
festivals
fever
feyenoord
ff
ffe
ffen
ffies
fgelaaide
fhaankelk
fi
fia
fiches
fictie
fiction
fidel
fiedel
fieke
fien
fiene
fier
fietern
fiets
fietse
fietsen
fietsers
fietsn
fietspad
fietsroute
fifa
figuratieve
figuren
figuur
figuurn
fijn
fiks
fikse
fiktieve
fiktive
file
filedrok
files
filesefie
filesofen
filesofie
filesoof
filetop
filip
filipienen
filippus
filips
film
filmken
filmkes
filmpies
filmregisseur
films
filoloog
filosofen
filosofie
filosofiske
filosofy
filosoof
filter
filters
fin
final
finale
finales
financie
financieel
finansie
finansjele
finaol
finaole
fine
finish
finkers
finlaand
finland
finnewo
finnisk
fins
finse
finsk
finske
fioul
fire
firma
first
fischer
fitis
five
fivel
fivelgo
fjo
fjord
fjorden
fken
fko
fkomst
fkomsteg
fla
flaaiden
flags
flakkee
flamenco
flanken
flann
flash
flat
flavius
fleenk
fleenke
flekteret
fleming
flensbo
flesse
flessen
fleur
flevo
flevolaand
flevoland
flevopolder
flink
flinke
flinken
flip
fljo
flo
floams
floamse
floandern
floor
flopen
flora
florence
florens
flores
florida
floris
flu
fluite
fluitekruud
fluithout
flying
fm
fn
fnp
fo
foar
fochtel
fochtelervene
fock
foederati
foei
foeke
foekepot
foekepotterij
foezel
fofftig
foi
fok
fokke
fokken
fokker
fokko
folk
folklore
fon
fonds
foneem
fonemen
fonetiek
foneties
fonetiese
fonetisch
fonetisk
fonologie
fonologiske
fontein
food
foodvalley
football
for
forbes
force
ford
foreign
forest
foriining
form
formatie
formde
formeel
formele
formen
formt
formule
fors
fort
forten
fortnite
fortuyn
forum
fosfaat
fossa
fossiele
fossile
fossilen
foto
fotograaf
fotograferen
fotografie
fotoos
fotosyntese
found
foundation
four
fournaise
fout
fouten
fox
fr
fra
fraanken
fraankische
fraankriek
fraans
fraanse
fraansen
fraansk
fraanske
fraansken
fraanskn
fraansn
fraanstalig
fractie
fragaria
fragment
fragmenten
frais
fraise
fraislaand
fraistoaleg
fraistoalege
fraize
fraizen
fraksie
fraksieveurzitter
framboos
framboze
frame
frames
franc
franca
france
francesco
francis
francisbaai
francisceum
francisco
franciscus
franco
francophonie
francorum
franeker
franekerediel
frank
franken
frankfort
frankfurt
frankiese
frankisch
frankische
frankiske
franklin
franko
frankriek
frankrijk
frankryk
frans
franse
fransen
fransk
franske
fransken
franz
fre
fred
frederik
frederiks
free
freedom
freek
freerk
frees
freese
freesen
freesk
freeske
freesken
freeskland
freeslaand
freesland
freezen
freiburg
freije
freinet
freiske
french
fresen
fret
frets
freud
freudenthal
freule
frey
freya
freyr
frezenboarg
fri
friderico
friedel
friedrich
frieja
friends
fries
friesch
friesche
friese
friesen
friesepaolen
frieslaand
friesland
friestaelig
friestaelige
friestalige
friezen
frigg
friisk
frikativen
frisia
friso
frisse
frits
fritz
fro
froai
from
frommes
front
fronten
frontwoark
frouke
fru
fruit
frullie
frya
frysk
fryske
frysla
fskap
fstand
ft
fu
fuchsia
fudge
fuga
fula
fulica
full
fulleton
fulletons
fun
functie
functies
fundamenten
fundering
funds
funk
funksie
funksies
funktie
funkty
funnen
fur
fuseren
fusie
fusiegemeente
futen
futhark
future
fuut
fy
fysieke
fysische
fytsen
fzetten
g
ga
gaai
gaait
gaan
gaanderen
gaange
gaank
gaanks
gaans
gaanze
gaanzen
gaanzn
gaar
gaard
gaast
gaasterlaand
gaat
gaauw
gaauwer
gaaw
gabon
gabrie
gabriel
gaddafi
gadderaars
gaddering
gaddern
gaele
gaellieerden
gaerne
gaeter
gaeven
gaf
gaffel
gaffeltaand
gaffeltaandn
gaffen
gaga
gagarin
gagel
gaia
gain
gainent
gaist
gaisten
gait
gaius
gal
gala
galapagoseilaanden
galen
galerie
galgen
galicie
galicisch
galilea
galilei
galileo
galle
gallerieje
gallery
gallia
gallie
gallo
gallus
galway
gambia
game
games
gammelke
gandhi
gang
gangboar
gangen
gangs
gank
ganks
gans
ganse
ganzen
gao
gaols
gaon
gaor
gaot
gaoten
gar
gardameer
garde
garder
garderbroek
garrelsweer
garriet
garrit
garste
garven
garw
gary
gas
gasselt
gasselte
gasselternijveen
gassen
gast
gasten
gastheer
gasthuus
gat
gatbezen
gatdarm
gaten
gauguin
gaulle
gauw
gauwer
gav
gave
gavel
gaven
gavn
gavven
gcopaleen
gd
gdan
gdansk
gde
gdp
ge
gea
geal
geald
geale
geallieerde
geallieerden
gearne
geater
geavels
geaven
geavet
geavt
geawen
geb
geba
gebaauw
gebaauwen
gebak
gebakje
gebargte
gebargtes
gebed
gebeden
gebeed
gebeeden
gebeedn
gebejen
gebelschop
gebelskop
gebelskops
geben
gebeurd
gebeurde
gebeurden
gebeuren
gebeurn
gebeurt
gebeurtenis
gebeurtenisse
gebeurtenissen
gebied
gebieden
gebiejen
gebiet
gebleven
gebo
geboaren
geboarn
geboarte
gebod
geboorn
geboorte
geboortedag
geboortedoatum
geboortejaor
geboorteplaatse
geboortes
geboren
gebouw
gebouwd
gebouwen
gebouwn
gebr
gebracht
gebrek
gebreuk
gebreuken
gebreukn
gebreukt
gebro
gebroeders
gebroek
gebroekelik
gebroekelk
gebroeken
gebroeker
gebroekers
gebroekn
gebroekt
gebroekte
gebrok
gebru
gebruik
gebruikt
gebruked
gebrukelek
gebrukelijk
gebrukelijke
gebrukelik
gebrukelike
gebruken
gebruker
gebrukers
gebruket
gebrukt
gebruuk
gebruukn
gebruuksveurwarpen
gebruukt
gebruukte
gebruukten
geburen
gebuurn
gebuurt
gebuurtenisse
ged
gedaan
gedachte
gedachten
gedachtengood
gedachtn
gedailte
gedailtelk
gedeelte
gedeeltelek
gedeeltelijk
gedeeltelik
gedeeltes
gedekt
gedenken
gedenkteken
gedeputeerde
gedeylde
gedich
gedichies
gedicht
gedichte
gedichten
gedichtn
gedielde
gedielte
gedieltelik
gedieltes
gedien
gedoerende
gedoernde
gedoo
gedoonder
gedrag
gedurende
gee
geef
geeft
geeiten
geel
geeld
geelderlaand
geeldt
geen
geer
geern
geerne
geerstraote
geert
geertrudenbarg
geertruudenbarg
gees
geest
geesteleke
geesteleken
geestelik
geestelike
geesteren
geestern
geet
geevn
geewn
geewt
gef
gefho
gefn
geft
gegeavens
gegeewn
gegeewns
gegeven
gegevens
gehad
gehail
gehaim
gehalte
geheel
geheels
geheim
geheime
geheimen
gehele
geheugen
geheyl
geheyle
geheyls
gehiel
geho
geht
gehucht
gehuchten
gei
gein
geisha
geist
geit
geiten
gek
gekeken
gekleurde
gekregen
gel
geld
geldeleke
gelden
geldende
gelder
gelderen
gelderlaand
gelderland
gelderlaond
geldermalsen
geldern
gelders
geldersch
geldersche
gelderse
geldersen
geldet
geldgebrek
geldig
geldrop
geldsaken
geldt
gele
geleaidelik
gelearde
gelearden
geleardn
geleefd
geleefde
geleefden
geleen
geleerde
geleerden
geleevd
geleevde
geleevden
geleewde
gelegen
gelegenheden
gelegenheid
geleidelek
geleuf
geleufden
geleuft
geleuve
geleuven
geleuvigen
geleuwe
geleuwig
geleuwt
geleyrden
geliefd
geliefde
geliek
gelieke
gelieken
geliekenis
geliekenissen
geliekn
gelieknaemige
gelieknamige
gelieknaomige
gelieknoamege
geliektiedig
gelik
gelike
gelikheid
gelikheiden
gelikheyd
gellandplatt
gelle
gellemuden
gellen
gelo
gelok
gelokkig
geloof
gelre
gels
gelselaar
gelster
gelt
gelu
geluden
gelujen
geluk
gelukkig
geluud
gelyk
gelyke
gelyknamige
gem
gema
gemaakt
gemaal
gemaente
gemain
gemainschop
gemainte
gemaintelke
gemainten
gemainteroad
gemainteroaden
gemaintes
gemak
gemakkelik
gemakseten
gemaol
gemaolen
gemaotigde
gember
gemeante
gemeanten
gemeantn
gemeeinte
gemeeinten
gemeen
gemeende
gemeenschap
gemeenschappelijk
gemeenschappelijke
gemeenschappelike
gemeenschappen
gemeenschop
gemeenschoppeleke
gemeenskop
gemeenskopn
gemeente
gemeentebestuur
gemeentegrenze
gemeentegrenzen
gemeentehoes
gemeentehuus
gemeentelek
gemeenteleke
gemeentelike
gemeenten
gemeenteraod
gemeenteroad
gemeentes
gemeentewet
gemeentewoapen
gemeentn
gemeinte
gemenebest
gemengd
gemengde
gemert
gemeyn
gemeynde
gemeyndelike
gemeynden
gemeyndera
gemeyndes
gemeyndewebsteade
gemeynebest
gemeynskap
gemeynskappelike
gemeynskappen
gemeynte
gemiddeld
gemiddelde
gemiddelden
gemien
gemiene
gemienschap
gemienschop
gemienschoppen
gemienskop
gemiente
gemientehuus
gemientelijke
gemientelike
gemienten
gemienteraod
gemienteraoden
gemientes
gemoal
gemoatigde
gen
genaamd
genade
genaeskeunde
gend
gende
gendringen
gendt
gene
genealogie
geneeskrachtige
geneeskunde
genemuden
genemuiden
genen
generaal
general
generaol
generasie
generaty
generoal
generoatsie
genes
genesis
geneties
genetiese
geneumd
geneutschap
geneve
genezen
genie
geniene
geniet
genieten
genitief
genitiv
genne
gennep
genneraal
geno
genoat
genocide
genoeg
genoegen
genoemd
genog
genogt
genoog
genootschap
genootschop
genot
genre
genres
gens
gent
gentleman
genua
genuumde
genwoordig
genwoordige
geoffrey
geograaf
geografie
geografies
geografiese
geografisch
geografische
geografisk
geografiske
geographia
geographic
geography
geogroafisch
geogroafische
geologie
geologiese
geologisch
geologische
geoloog
georg
george
georges
georgia
georgie
georgiers
georgiske
geplaatst
ger
geraadpleegd
geraamte
gerais
gerak
geral
gerald
gerard
gerards
gerardus
gerben
gerco
gerd
gere
gerech
gerecht
gerechten
gereedschap
gereedschop
gereedschoppen
gerefformeerde
gerefformeerdn
gereformeerd
gereformeerde
geregeld
geregisseerd
gerei
gerhard
gerhardus
gericht
gerichtheid
gerichthied
germaann
germaans
germaanse
germaansen
germaansk
germaanske
german
germanen
germania
germanicus
germany
germaonen
germaons
germaonse
germoanen
germoans
germoanse
germs
gerriet
gerrit
gerritsen
gerritsflesch
gers
gersloot
gert
gerwen
geschei
gescheiden
geschenken
geschetst
geschichte
geschichten
geschiedenis
geschiedenisse
geschiedkundige
geschiednis
geschiedschrieving
geschikt
geschikte
geschil
geschreven
geschrift
geschriften
geschut
gesellschaft
gesichte
gesink
gesinnen
gesinus
geskedenisse
geskeedku
geskiedenis
geskiedenisse
geskiedkeundige
geskiedkeundigen
geskiednis
geskikt
geskrift
geskriften
geskrivt
geskrivten
geskydenis
geskydenisse
geskydskryver
gesla
geslaacht
geslaachten
geslaagde
geslach
geslachen
geslacht
geslachte
geslachten
geslachtn
geslo
geslotten
gespin
gesprek
gesprekken
gesprekn
gespro
gesproken
gesta
gestalte
gesteente
gesteld
gesticht
gesundheid
gesundheidswarkers
get
getal
getallen
geten
getugen
getuugt
geude
geul
geulden
geuldene
geunstige
geur
geut
geute
geuzen
geva
gevaal
geval
gevalen
gevallen
gevangen
gevangenen
gevangenis
gevangenisse
gevangenisstraf
gevangenschop
gevaor
gevaoren
gevaorlijke
geve
gevecht
gevechten
gevel
geven
geveul
geveulens
geveulig
gevo
gevoar
gevoarlik
gevolg
gevolge
gevolgen
gevt
gevuil
gevulens
gevuul
gevven
gewaar
gewas
gewassen
geweald
gewear
geweeld
geweer
geweest
gewei
geweld
gewelteekns
gewen
gewes
gewesen
gewest
gewesten
geweunterecht
gewicht
gewichten
gewijd
gewild
gewilde
gewo
gewoan
gewoane
gewond
gewonden
gewone
gewonen
gewoon
gewoond
gewoonlek
gewoonlijk
gewoonlik
gewoonte
gewoontes
geworden
geyn
geyne
geyneyne
geyst
geystelike
geysteliken
geysten
geyt
gezag
gezamenlijke
gezangen
gezegde
gezegdes
gezel
gezellig
gezellige
gezelschop
gezicht
gezichte
gezichten
gezien
gezin
gezinnen
gezond
gezonde
gezondheid
gezoond
gezoondhead
gezweln
gg
gge
ggel
ggeln
ggels
ggen
gger
ggere
ggeren
ggesprek
ggsken
gh
ghana
ghanese
gi
gibraltar
gibralteezn
gibraltese
gids
gidsen
giel
gien
gieniene
gier
gies
giesbrogge
giessen
giestelijke
giet
gietel
gietelink
gieten
gieteren
gietern
gietersebrogge
giethoorn
giewn
gif
giffen
gift
giften
giftig
giftige
gigengack
gij
gijs
gilbert
gilde
gildehoes
gilden
gildes
gilhoes
gill
gillatt
gime
gin
ging
gingen
ginn
ginne
ginneken
ginnen
ginneraal
ginneraol
ginneraotie
ginnerasie
ginneratie
ginstkatte
gion
gional
giorgio
giovanni
girl
girls
girm
gis
gist
gisteren
gitaar
gitaarn
gitaarspo
gitare
gitaren
gitarist
gitoar
giuseppe
give
givt
giza
gl
glad
gladde
glanerbrug
glaozekleed
glas
glasgow
glass
glazen
gld
gleasken
glen
gletsjer
gletsjern
gletsjers
gli
gliadines
gliend
glik
glimlach
glimmen
glju
glo
gloazen
global
globalization
globaol
globe
gloepen
gloepens
glood
glorie
glottisslag
gluten
glutenallergie
glutenintoleransie
glutenvrie
glutinosa
gmail
gn
gnosis
gnosticisme
gnostiek
gnostiese
gnostik
gnostiken
gnostisk
gnostiske
gnostyk
gnostyken
gnpc
gnu
go
goa
goaitsen
goale
goalen
goals
goan
goans
goaren
goarn
goastok
goat
goch
god
godard
goddelike
gode
goden
goderen
goderenvervoor
godern
godfried
godin
godinne
godinnen
gods
godschalk
godsdeenst
godsdeensten
godsdeenstige
godsdienst
godsdiensten
godsdienstige
goed
goeddiels
goede
goedemorgen
goedereede
goederen
goedkoop
goedkope
goeie
goeien
goenend
goeree
goes
goesharders
goethe
goeverneur
gogh
goia
goidag
goideliske
goie
gold
golda
goldberg
golden
goldene
golf
gols
golve
golven
golvn
gomero
gondel
gondels
gondelvoart
gondelvoarte
gone
gong
gongen
gonk
goo
good
goode
gooden
goodgoan
goodko
goodkoop
goodn
gooe
googie
google
gooi
gooid
gooiden
gooien
gooin
gooise
gooit
goold
goolden
gooldne
gooldwaagn
goor
goorse
goossens
goot
gora
gorch
gorcum
gordel
gordien
gordon
gore
gorilla
gorinchem
gorkum
gorrediek
gorssel
gort
gorte
gortel
gossel
gosselaar
got
goten
gotha
gothic
gotiek
goties
gotiese
gotisch
gotische
gotlaand
gotland
gotlandsk
gott
gotte
gottfried
gottschalk
goud
gouda
gouden
gouder
goudse
gough
gouie
gounend
gouverneur
gouverno
gouw
gouwe
gouwen
gov
government
gozelo
gozlin
gozo
gp
gr
gra
graaf
graafschap
graafschopper
graag
graan
graaskamp
graawn
grace
gracht
grachte
grachten
gradeerwark
graefschoppen
graeg
graenzen
graf
grafen
graffest
graffiti
grafheuvels
grafheuwels
grafiet
grafschaft
grafschafter
graft
graham
graikenlaand
gram
grambarge
grambargen
grammar
grammatica
grammaticus
grammatik
grammatika
grammatikaal
grammatikale
grammoatiek
grammofoonmuseum
grammy
gran
grand
grande
graniet
graod
graoden
graof
graofschap
graofschappen
graofschop
graofschopper
graofschops
graofschup
graojen
graon
graond
graonen
graoven
grap
grappen
grappenmaakster
grappenmaker
grappige
gras
gratis
graubu
grauwe
grav
grave
graven
gravenhage
gravenhuus
gravin
gravinne
gray
graz
gre
greans
greanst
greante
greanze
greanzen
greanzet
greanzn
great
greawn
greeksk
greekske
green
greene
greens
greenst
greenze
greenzen
greep
greet
greffelkemp
grege
gregoriaanse
gregorioanse
gregorius
gregoriuskarke
grei
greiden
greins
greinze
greken
grekenland
grel
grens
grense
grensen
grenset
grensgebied
grenst
grenze
grenzen
grenzend
grep
grepe
grepen
gres
greslaand
greta
greui
greuiden
greuien
greuiende
greuin
greuit
greuj
greujden
greujende
greujt
greun
greune
greunen
greunlaand
greunlinks
greunte
greunten
greuntes
greuntetune
greupe
greuts
greutste
greutte
greuven
greve
grevelingen
greven
grezen
gri
grieg
griegs
griekelaand
grieken
griekenlaand
grieks
griekse
griend
griep
gries
grieteni
grietje
grieze
griezen
griezn
griffemeerde
griffermeerde
griffier
griffin
grift
grijp
grillen
grimm
grind
grins
grinst
grip
gro
groad
groaden
groadn
groaf
groafschap
groafschappen
groafschop
groafschoppen
groafschops
groafschupper
groafskop
groafskoppen
groafskops
groan
groand
groanden
groandgebeed
groandwet
groaven
grode
grodegast
groei
groen
groenbroek
groend
groendwet
groene
groenedijk
groeneveld
groening
groenlinks
groenlo
groep
groepen
groepn
groesbeek
groessen
groet
groeten
grof
groffe
groft
grofva
grofweg
groi
groiden
groien
groiende
groit
grol
grolle
grols
grolsch
grolse
grolsen
gronau
gronauwe
grond
gronden
grondgebeed
grondgebied
grondig
grondlegger
grondslag
grondstof
grondwet
groningen
groninger
groninghe
gronings
groningse
groond
groondbezit
groonden
groondgebeed
groondleggers
groondstoffen
groondwet
groondwette
groondwettelike
groop
groot
groote
groothartog
grootkaans
grootn
grootooldn
groots
grootschaolige
grootse
grootst
grootste
grootsten
grootte
gros
grosse
grot
grote
groten
grotendails
grotendeels
grotendiels
groter
grotere
groth
grotmoo
grotte
grotten
grotva
grotvaa
grou
group
grout
groutbrittanie
groutbrittannie
groute
grouten
groutendeyls
grouter
groutere
groutste
grouw
grove
grover
growth
gru
grui
gruid
gruide
gruiden
gruien
gruiende
gruin
gruine
gruinlaand
gruinte
gruit
grund
grunden
grundgebeed
grundleggers
grundslag
grundstoffen
grundwet
grune
grunendaal
grunn
grunneger
grunnegers
grunnegs
grunnegse
grunnegstoalege
grunnen
grunneng
grunniger
grunning
grunningen
grunninger
grunningers
grunnings
grunningse
grunningstalig
grunningstalige
grup
grupen
grupo
gruppe
gruppel
gruppen
gruto
gruui
gruuide
gruuiden
gruuien
gruuit
gruun
gruune
gruunlaand
gruunte
gruup
gruupskerk
gruyter
gryken
grykenland
grykske
grypen
gskolan
gt
gte
gtrekking
gu
guadalajara
guadeloupe
guangxi
guard
guardian
guatemala
gud
guden
gudinne
guernsey
guf
guide
guillaume
guine
guinea
guinee
guineeske
guinness
gulden
guldensporenslag
gulf
gulik
gullen
gulpen
gulv
gung
gungen
gungn
gunk
gunsteg
gunstig
gunstige
gupta
gussinklo
gustaaf
gustav
guster
gut
gutama
guten
gutenberg
guus
guy
guyana
gylfaginning
gymnasium
gynt
gyo
h
ha
haag
haagse
haaide
haakjes
haaksbergen
haal
haald
haalde
haalden
haaldn
haalf
haalfaailaand
haalfweg
haaln
haals
haalt
haalve
haan
haand
haande
haandel
haandelen
haandeling
haandelingen
haandelings
haandeln
haandelsleu
haandelsmoark
haanden
haandleiding
haandn
haandrik
haandschrift
haandschriften
haandvat
haandvest
haandvol
haank
haanstra
haantien
haanze
haar
haarbig
haard
haarde
haarfst
haarlem
haarlemmermeer
haarm
haarn
haarst
haart
haarten
haas
haat
haavn
haavns
haawn
habsbo
habsburg
habsburgers
habsburgse
habsburgsen
hachiko
hackfort
had
hadde
hadden
haddenbarreg
hadderingh
hadders
haden
hadn
hadrianus
haeg
haelen
haelweg
haer
haersma
haersolte
haeven
hagel
hahn
hai
haifa
haiku
hail
haildaal
haildal
haile
haileg
hailege
hailemoal
hailige
hailmoal
haim
hainaut
hainego
hait
haiten
haitte
haj
haken
hakke
hakken
hakt
hal
halen
half
halfbreur
halfroend
halfrond
halfroond
halfweg
hall
halle
hallen
hallenkarke
halli
halligen
halligers
hallo
halloween
hallozie
halmahera
hals
halsema
halsteren
halte
halv
halve
halven
halverweage
halverweagen
halverwege
halverwegen
halvrund
ham
hamaland
hambo
hamborg
hamburg
hamburger
hameln
hamer
hamilton
hamiltons
hamlet
hammadi
hamme
hammerk
hamminga
hammond
hammondo
hampshire
hamrik
hams
han
hand
handboek
handbook
handbuch
hande
handel
handelen
handeling
handelingen
handels
handelsblad
handelslu
handelsroutes
handelsstad
handelstaal
handen
handene
handig
handskrivt
handskrivten
handva
handwoordenboek
hane
hanen
hang
hangen
hangende
hangn
hangt
hank
hankey
hann
hanna
hanneke
hannekema
hannen
hannover
hanny
hanoi
hans
hanse
hansen
hansestadt
hansetyd
hanze
hanzedag
hanzekantoor
hanzekantoren
hanzeland
hanzen
hanzestad
hanzesteden
hanzetied
hanzeverbond
haoks
haolen
haolt
haonepoot
haor
haoren
haorenkarspel
haorle
haorlem
haorlemmerliede
haorlemmermeer
haorste
haos
haost
haoste
haovelte
haozenoeteboom
haplogrup
happy
har
harald
harbarg
harbargen
harbargt
harbers
hard
hardcore
harde
harden
hardenbarg
hardenberg
harder
harderhaven
harderwiek
harderwieker
hardrock
hardst
hardy
hare
haren
harfst
haring
harke
harlekijn
harlingen
harlinger
harlingerlaand
harlingerlaands
harm
harmonie
harn
harnbarg
harp
harrem
harren
harres
harreveld
harrie
harris
harry
hars
harselaor
harsenanhangsel
harsens
harskamp
hart
hartanval
harte
hartekamp
harten
hartn
hartoagen
hartog
hartogdom
hartogen
hartstikke
hartz
harvard
harvst
has
hasj
hasje
haskerdieken
haskerhorne
haskerlaand
hassebaarg
hasselt
hastings
hat
hatte
hattem
hattemerbroek
haule
haulerwiek
haus
hausa
hautvilliers
hauwen
have
haven
havens
havenstad
haver
havezate
havezaten
havezates
havezathe
havezoate
havixhorst
havre
hawai
hawaii
hawen
hawking
haze
hazes
hbs
hd
hdmi
hdt
he
head
heade
heag
heailige
healdern
heale
healige
healigen
health
heamel
hean
heanig
hear
hearlikheaid
hearn
hearser
hearsers
hearskoppieje
hearst
heart
hearts
heat
heate
heaven
heavig
heavige
heavy
heb
hebbe
hebbed
hebben
hebbet
hebbn
hebm
hebn
hebreeuws
hebreeuwse
hebreews
hebreewse
hebriden
hebt
hecht
hechte
hectare
hedel
heden
hedendaagse
hee
heeckeren
heed
heede
heedfamilie
heedfemilie
heedgebied
heedgebiejen
heednse
heedvelden
heeft
heeg
heek
heekplein
heel
heelal
heeld
heelden
heele
heelmoal
heelmoals
heeln
heeltied
heem
heemenkes
heemennekes
heemse
heemskarke
heemskerk
heemsteade
heemstede
heemtuun
heen
heer
heerd
heerde
heere
heeren
heerenbarg
heerenveen
heerhugoweerd
heerkomst
heerleke
heerlekhaid
heerlekheden
heerlekheid
heerlen
heerlens
heerlijk
heerlijkheden
heerlijkheid
heerlikheid
heern
heeroma
heerschoppi
heersende
heerser
heersers
heerst
heertogdom
heesters
heet
heeten
heetn
heett
heette
heetten
heetveld
hef
heffen
heft
hege
hegel
hegen
hegge
heggen
hei
heid
heide
heidegebied
heidelberg
heiden
heidendom
heidenen
heidense
heidenske
heideveld
heidevelden
heijink
heijn
heikant
heike
heil
heile
heilig
heiligdom
heilige
heiligen
heiligerlee
heiloo
heim
heimat
heimatbund
heimatmuseum
heimatverein
heimdall
heimskringla
heimwee
hein
heinen
heino
heinrich
heinsboarg
heinz
heit
hej
hek
hekke
hekken
heks
hekse
heksel
heksen
hektare
hel
held
helden
helder
heldere
heldern
helderns
helderrooie
hele
heleboel
heleen
helemaal
helemaol
helemaole
helemoal
helemoale
helen
helena
helft
helfte
helga
helge
helgolaand
helgolaands
heliand
helige
heligen
helikopter
helium
hell
hella
helle
hellegolaand
hellendoorn
hellevootsluus
hellig
hellige
helligen
helligheid
helling
hellingen
hellmanngetal
helm
helmich
helmond
helms
helmut
help
helpen
helpers
helpet
helpn
helpt
helsinki
helte
hem
hemd
hemel
hemelik
hemelopneming
hemelpaort
hemelsbreed
hemelvaort
hemelvaortsdag
hemert
hemmel
hemmelvoart
hemmen
hen
hende
hendrick
hendrickje
hendrickjen
hendrieksken
hendrik
hendrika
hendriks
hendrikus
henegouwen
hengaon
hengel
hengeler
hengelo
hengelse
hengeveelde
hengst
henk
henne
hennegien
hennep
hennie
henning
henny
henri
henricus
henrie
henry
hensen
henxel
her
hera
heracles
heraldiek
herbert
herbouwd
hercegovina
hercules
herdacht
herdenking
herder
herders
herdrok
herdrokt
here
heren
herenhuizen
herenhuus
herford
herge
herhaald
herhaling
herindaeling
herindailen
herindealing
herindelige
herindeling
herindieling
herindielings
hering
herinneren
herinnering
herinneringen
herinnerings
herinnert
heritage
herkenba
herkenboar
herkenbosch
herkend
herkenn
herkennen
herkeuzen
herko
herkomst
herkumst
herm
herman
hermann
hermans
hermas
hermen
hermes
hermien
herneumd
hernuumd
hero
heroaverden
herodes
herstel
hersteld
herstelleden
herstellen
herte
hertem
hertgers
hertog
hertogdom
hertogdommen
hertogenbosch
hertogin
hertoogdom
herverdelige
hervo
hervormd
hervormde
herz
herzegovina
herziene
herzogenrath
hes
hesen
hesselink
hesseln
hessen
hessenpoorte
hessenweg
hest
het
hete
heten
heteroseksualiteit
heteroseksueel
heteroseksuele
hetn
hett
hette
hetzelfde
heubach
heufd
heufdartikel
heufddarp
heufddialekten
heufdgebouw
heufdgroepen
heufdkantoor
heufdpersoon
heufdplaats
heufdplaatse
heufdplak
heufdplaots
heufdploats
heufdredacteur
heufdrolspeulers
heufdstad
heufdsteden
heufdstok
heufdstuk
heufdvakdocent
heufdvaort
heufdweg
heufdzakelijk
heufdzakelik
heufplaose
heufstad
heufzakelijk
heug
heuge
heugen
heuger
heugerder
heugere
heugleraar
heugn
heugst
heugste
heugsten
heugt
heugte
heugtepeunt
heugtepunt
heugtes
heugteverskil
heui
heukelum
heul
heuld
heulden
heuldn
heule
heult
heultene
heumen
heumsen
heupe
heur
heurd
heurde
heurden
heurdn
heure
heurem
heuren
heurende
heurigen
heurn
heurne
heurspo
heursproake
heurt
heurtin
heurzels
heurzo
heusden
heuvel
heuvellaander
heuvelrogge
heuvelrug
heuvelrugge
heuvels
heuven
heuwd
heuwdkantoor
heuwdplaatse
heuwdsproake
heuwdstad
heuwdzakelik
heuwel
heuwelrugge
heuwels
hev
heves
hevig
hevt
hew
hexaploi
hexworthy
hey
heyl
heylal
heyle
heylema
heylen
heyr
heyrskers
heyte
heyting
hezingn
hgl
hh
hi
hibbrais
hiddes
hidding
hiddink
hie
hiej
hiel
hielal
hield
hiele
hielemaol
hielemaole
hielendal
hielijk
hieltied
hiemse
hiemstra
hienebees
hienebezen
hier
hieran
hierbi
hierbie
hierboven
hierden
hierdense
hierdeur
hierduur
hierien
hierin
hiermee
hiermet
hiermit
hiernao
hiernoa
hiernoast
hieroaver
hieroawer
hieroet
hieronder
hieronymus
hieroonder
hierop
hierover
hiertoe
hierumme
hierunder
hieruut
hiervan
hierveur
hiervuur
hiesen
hiet
hiete
hieten
hiette
hietten
high
highway
hihat
hij
hijlkema
hil
hilbers
hilbert
hilbrink
hildebrand
hildegard
hilgelo
hill
hillege
hillegom
hilversum
him
himalaja
himalaya
himmel
himrik
himzels
hin
hincmar
hindeloopen
hindeloopers
hindi
hindoei
hindoeisme
hing
hinne
hinnerk
hip
hiphop
hippies
hirmin
hiroshima
hirsi
his
hispania
hispaniola
histo
histoire
historia
historical
historici
historicus
historie
histories
historiese
historikus
historisch
historische
historisk
historiske
history
hit
hitler
hitliest
hitliesten
hitlysten
hits
hiv
hl
hle
hmann
hn
hne
ho
hoaks
hoaksboargen
hoald
hoalden
hoaldn
hoaldt
hoalen
hoaln
hoalt
hoantje
hoape
hoar
hoaren
hoarfst
hoarle
hoarlem
hoarns
hoast
hoaste
hoaven
hoch
hochdeutsch
hochschule
hockendes
hockey
hoe
hoed
hoeden
hoef
hoeft
hoek
hoeke
hoeken
hoekien
hoeksche
hoenderd
hoenderloo
hoening
hoes
hoeskes
hoessein
hoeve
hoeveelheid
hoevelaken
hoeven
hoeveule
hoeveulheid
hoeveulhejen
hoevo
hoewel
hoezen
hof
hoff
hoffman
hofman
hofstede
hoft
hoge
hogelaand
hogelaandsters
hogen
hogepriester
hoger
hogere
hogeschool
hogeskole
hogezaand
hohenlohe
hohenzollern
hohner
hoi
hok
hoken
hokke
hokken
hoksebarge
hol
hold
holden
holdet
holding
holdt
holen
holiday
holkerveen
hollaand
hollaanders
hollaands
hollaandsche
hollaandscheveld
hollaandse
hollaandsen
hollaans
hollaanse
holland
hollanders
hollands
hollandsche
hollandse
hollandsen
hollandsk
hollangd
hollangds
hollanse
holle
hollen
hollywood
holmes
holne
holocaust
holoceen
holst
holstain
holsteen
holstein
holsteyn
holstien
holstiense
holt
holte
holten
holterbarg
holterhook
holthuuzn
holthuzen
holtrop
holtwallen
holwerd
holwerda
hom
home
homer
hommels
homo
homohuwelik
homoseksualiteit
homoseksueel
homoseksuele
homoseksuelen
homsterlaand
homsterland
hond
hondebloeme
hondebloemen
honden
honderd
honderddoezend
honderden
hondje
hondsrog
hondsrug
honduras
honemann
honesch
hong
hongaarnlaand
hongaars
hongaarse
hongaarsken
hongaren
hongari
hongarieje
hongarije
hongen
honger
hongerige
hongerije
hongersnood
hongkong
honkbal
honorius
hoo
hood
hoof
hoofd
hoofden
hoofdstad
hooft
hoog
hoogduuts
hoogduutse
hooge
hoogelaand
hoogelaandsters
hoogeland
hoogelandsters
hoogenband
hoogeveen
hoogeveense
hoogezaand
hooghalen
hoogheemraadschap
hoogheid
hooghoudt
hoogke
hooglaand
hooglaanden
hoogland
hoogleraar
hooglerer
hoogleroar
hoogn
hoogst
hoogste
hoogsten
hoogte
hoogten
hoogtepunt
hooguut
hoogveen
hoogvene
hook
hookse
hooktoorns
hool
hoolden
hoolding
hooldn
hooldt
hoolt
hoolten
hoolterboarg
hooltkap
hooltn
hooltne
hoond
hoonderd
hoonderden
hoonhorst
hoop
hoor
hoorde
hoorn
hoorne
hoorns
hoornse
hooupe
hoovo
hoovt
hoowal
hoown
hoowt
hop
hope
hopkins
hoppe
hoppen
hopsasa
hor
horde
horeca
horeka
horens
horizo
horizon
horizontaal
horizontale
horizontaole
horizonte
horizontoale
hormonen
hormoon
horn
horne
horre
horst
horsterhoek
horstmar
hortjen
hospital
hot
hotel
hotels
hottenhuis
hottien
hou
houd
houden
houdt
houg
hougdu
houge
houger
hougere
hougeskole
houglanden
hougste
houk
hounder
houp
houpe
house
housemusik
houston
hout
houten
houtribdiek
houtwallen
houveul
houveulhaid
houwel
houwen
houwn
houwt
hov
hove
hoven
hovinga
hovo
how
howal
howard
howel
hoze
hr
hrabanus
hraunfossar
hrsg
hrung
htm
html
http
https
hu
huang
hubert
hudege
hudige
hudigen
hudson
huessen
huet
huez
hugenoten
hugh
hugin
hugo
huia
huidige
huil
huile
huilen
huis
huisje
huisman
huissen
huize
huizen
huizing
huizinga
hul
hulen
hulk
hull
hulle
hullen
hullie
hulp
hulpe
hulpmiddel
hulpmiddels
hulshorst
hulsn
hulst
hulzebosch
hum
human
humanisme
humanist
humanisten
humans
humansdarp
humansdorp
hummel
hummelen
hummelo
humor
humoristisch
humoristische
humpa
humphrey
humzelf
humzo
hun
hund
hunde
hunderd
hunderden
hunebed
hunebedden
hunen
hungarye
hunnebed
hunneman
hunnen
hunnerbarg
hunsingo
huntenpop
hunze
hunzego
huppel
huren
hurwenen
hus
hut
hutte
hutten
huttenkloas
hutus
huud
huudige
huulbessem
huur
huus
huusden
huusdieren
huusdokter
huusholden
huuslook
huusmosse
huussen
huussien
huusvest
huusvesting
huuze
huuzn
huwelek
huwelijk
huwelik
huweliken
huygens
huys
huze
huzen
hvi
hy
hybride
hybriden
hydrotherapie
hygie
hygromeater
hymenoptera
hymir
hypothalamus
hyr
hyrboaven
hyrby
hyrdo
hyrin
hyrmed
hyrna
hyrunder
hyrup
hyrvan
hyrvo
hyves
hz
i
ia
iaith
ian
ibben
iberisch
ibid
ibiza
ibn
ic
ice
iceland
ich
ichs
ick
iconen
id
ida
idaea
idaho
ide
ideaal
ideal
ideale
idee
ideee
ideejn
ideen
iden
identiteit
identity
idey
ideyen
idhlig
idi
idioot
ido
ie
ied
ieden
ieder
iedere
iedereen
iederen
iederene
iederiene
iedern
iee
iegypte
iej
ieje
ieken
iekst
iekus
iel
iele
ielst
ieluu
iem
iemand
ieme
iemn
ien
iene
ienheid
ienheidsmeervold
ienhied
ienig
ienige
ienigste
ienkaarvens
ienmaol
iens
ientaelig
ienvloed
ienvloud
ienvlouden
ienvoldig
ienvoldige
ienwoner
ienwoners
ienzaam
iepeloo
ier
ieren
ierlaand
ierland
iern
iers
ierse
iersn
ies
iesbaene
iesel
ieskappe
ieslaand
ieslaands
ieslaandse
ieslaans
ieslaanse
iesland
iessel
iesselakademie
iesselakkedemie
iesselbrugge
iesseldelta
iesseldiek
iesselgouw
iesselham
iessellaands
iesselmeer
iesselmeerpolders
iesselmuden
iesselstreek
iesselvallei
iestied
iestieden
iesvene
ieszee
iet
iets
ieuw
ieuwen
ieuwenlaank
ieuwenlange
ieuwse
iew
iewig
iezel
iezelig
iezer
iezeren
iezergeteri
iezerindustrie
iezerlo
iezerne
iezeroer
iezers
iezertied
iezig
if
ig
igbo
ige
ignatius
ihre
ihrer
ii
iii
ij
ijhorst
ijmeer
ijmker
ijmuden
ijs
ijssel
ijsselacademie
ijsselakademie
ijsselhallen
ijsselmeer
ik
ike
ikke
ikko
ikster
il
ile
ille
illegaal
illinois
illustraotor
illustraties
illustrator
ilse
im
imago
imbolc
imdb
imf
immanuel
immer
immers
immigraanten
immigraantn
immigranten
immuniteit
imperial
imperium
import
importance
importeerd
impressionisme
improviseern
impuls
in
ina
inas
inbegrip
inbreng
inc
inch
incident
inclusief
indaild
indailen
inde
indealing
indeeld
indelige
indeling
inderdaod
inderdoad
indertied
index
indeyld
india
indiaann
indiaanse
indiana
indianen
indiase
indiaske
indie
indield
indieling
indielings
indiese
indiesen
indirekt
indische
indisken
individu
individuele
individuelen
indo
indonesie
indonezie
indoor
indringers
indro
indrok
indruk
industria
industrialisasie
industrialiseerd
industrie
industrieel
industriegebeed
industriele
industriestad
industrieterrein
industrieterreinen
industry
ine
ineenn
inenommen
inericht
ines
ineslo
inesteld
inevoerd
inevoord
inezet
infeksie
infermaosie
infermaotie
infermasie
infermatie
infermatika
infermeel
infinitief
inflasie
info
informaosie
informaotie
informasie
informatie
informatieve
information
informaty
informeel
informele
informoatsie
infrastructuur
infrastruktuur
ing
ingaang
ingaank
ingang
inge
ingeborg
ingeet
ingeleid
ingels
ingelse
ingelsk
ingenieur
ingenio
ingewanden
ingewikkeld
ingewikkelde
ingewikkelder
ingredie
ingrid
ingriepend
ingriepende
ingvaeones
ingveoonske
inha
inham
inhammen
inheems
inheemse
inheemsen
inhef
inheymsk
inheymske
inheymsken
inho
inhold
inhoold
inhoud
inienen
iniens
initiatief
initiatieven
ink
inka
inkeld
inkelde
inklusief
inklusiv
inko
inkoamen
inkommen
inkomsten
inkomstn
inkt
inkummen
inkumsten
inleiding
inlieving
inmenging
inmiddels
inn
innam
inname
inne
innemen
innemmen
inno
innocentius
innsbruck
inpoldering
inquisitie
inricht
inrichten
inrichting
ins
insat
insecten
insekken
insekt
insekten
insektn
insel
insicht
inslag
inslo
inspecteur
inspiraotie
inspiratie
inspireerd
inspireren
instagram
instansy
insteld
instellen
instelling
instellingen
instellings
institut
institute
instituten
instituto
instituut
insto
instrement
instrumeant
instrumeanten
instrumeantn
instrument
instrumentale
instrumentalis
instrumenten
int
integraal
integratie
intellectuelen
intelligence
intensieve
inter
interessant
interesse
interesseerd
interesses
interland
internasionaal
internasionale
internasjonaal
internasjonaaln
internasjonale
internasjonalen
internasjonoale
internationaal
international
internationale
internationalen
internationaol
internationaole
internationoale
interne
internet
internetmeems
internoat
interregio
interview
interviews
intied
into
intolerant
intonaty
intreade
intrek
intrekkers
intro
introduceerd
introduction
introduksie
intui
intussen
inuit
inval
invallen
invasie
invasy
inventaris
investeren
investering
investeringen
invleud
invleujen
invlo
invloden
invloed
invloeden
invloedrieke
invlood
invloodn
invloodrieke
invloodryke
invloud
invlouden
invoerd
invoering
invoor
invoord
invoring
inw
inweuners
inweva
inwo
inwoaners
inwoanertal
inwoenerantal
inwoeners
inwoner
inwonerantal
inwoners
inwonertal
inwonner
inwonners
inwonnertal
inwonning
inwuners
inwunners
inzet
inzetten
inzicht
inzichten
inzittenden
io
ioc
ioniese
ionische
ios
iowa
ipa
iprage
ir
ira
iraanse
irak
iran
ireland
irene
irian
irish
irma
irmin
irminsu
irminsul
irminsule
irminsulen
irnsum
iron
ironisk
irony
is
isa
isaac
isaak
isabella
isala
isbn
isis
isla
islam
islamities
islamitiese
islamitisch
islamitische
islamitiske
island
islands
islas
isle
ismael
iso
isoglos
isoglosse
isoglossen
isola
isoleerd
isoleerde
israe
israel
israelites
isse
issel
issn
issue
ist
istanboel
istanbul
istrie
it
italiaan
italiaans
italiaanse
italiaansen
italiaansk
italiaanske
italiaansken
italianen
italiaons
italiaonse
italie
italioanse
italjaans
italjaanse
italjoans
itarana
itoalie
itoalje
its
iu
iubes
iulius
iv
ivan
ivo
ivoor
ivoorku
ivoorkuste
ix
iz
izzerd
j
ja
jaagbaand
jaagden
jaagn
jaagt
jaaije
jaap
jaar
jaarboek
jac
jacht
jachthaven
jachthavens
jachthuus
jack
jackson
jacob
jacoba
jacobs
jacobus
jacques
jade
jaegen
jag
jagen
jager
jagers
jagger
jaguar
jaguars
jah
jahre
jahrhunderts
jahweh
jajem
jakarta
jakob
jakobus
jalvingh
jam
jamaica
jamaika
jamaikaann
jamaikaans
jamaikaanse
jamaikaansen
jamaikaanske
jamaikaansken
james
jan
jand
jandeleke
jandelekheden
janden
jane
janeiro
janis
janken
janna
jannes
jannewaori
jannewari
jannewoari
jannewoarie
jannie
jannink
janno
jannuwoari
janny
jans
jansen
jansklooster
jantinus
jantje
janua
januari
january
januwoari
janvoerder
janwillem
jao
jaopik
jaor
jaorboek
jaorege
jaoren
jaorenlang
jaorenlange
jaorgaank
jaorgang
jaorig
jaorige
jaorlijks
jaorlijkse
jaorliks
jaorlikse
jaortal
jaortelling
japan
japanners
japans
japanse
japansen
japie
jaren
jarno
jas
jason
jassen
jassien
jat
java
jaz
jazz
jazzerieje
jbeheurende
jberkoop
jbouw
jbouwwiek
jc
jd
jdag
jde
jden
jding
jdrage
jdragen
jdrages
je
jean
jeanne
jebrogge
jeferd
jeff
jefferson
jeffrey
jeffreysbaai
jeg
jegein
jehan
jehann
jehannes
jehannesge
jehaske
jehoorn
jehova
jehovah
jelle
jellinghaus
jelmer
jeltsin
jen
jende
jeneawer
jenever
jeneverbees
jeneverbezen
jenhoes
jenisejische
jenkaampen
jenkins
jenny
jens
jensema
jenson
jepan
jepanse
jer
jerd
jere
jeremy
jern
jeroen
jerry
jers
jersey
jerusalem
jeruzalem
jeruzalum
jerwetse
jeschoot
jesus
jetses
jeu
jeud
jeude
jeuden
jeudendom
jeuds
jeudse
jeugd
jeugnd
jeugndklasse
jewilmke
jewish
jezelf
jezua
jezui
jezus
jgangers
jgebouw
jgebouwen
jgelieks
jheid
jhied
jhooltpae
jhuus
jhwh
ji
jicht
jidder
jiddisch
jiddisj
jie
jienkomsten
jier
jij
jim
jimke
jimmy
jing
jip
jirre
jjaor
jk
jkaans
jkommen
jkoop
jlanges
jluseger
jlusen
jluusn
jmegen
jmoodse
jna
jnaam
jnaeme
jname
jnamen
jnao
jnoa
jo
joa
joachim
joan
joar
joareg
joarege
joaren
joarenlaank
joarenlang
joarho
joarhonderd
joarhonnerd
joarhoonderd
joarhoonderden
joarhoonderte
joarig
joarige
joarigen
joarleks
joarlekse
joarleksen
joarlieks
joarliks
joarlikse
joarmarkt
joarn
joartal
joartelling
job
jodelen
joden
jodendom
jodenmeensen
joe
joegoeslavie
joegoslavie
joel
joen
joep
joew
joggert
joggertkultuur
joh
johan
johann
johanna
johannes
john
johnny
johnson
jolande
joling
jolink
joly
jon
jonas
jonathan
jonen
jones
jong
jongbloed
jonge
jongeleu
jongelu
jongeluui
jongen
jongens
jonger
jongere
jongeren
jongern
jonges
jonggien
jongkerel
jongluu
jongn
jongs
jongste
jongsten
jonk
jonker
jonkheer
jonkvrouwe
jood
joods
joodse
joonk
joop
joor
joost
joppie
joppiesaus
jordaan
jordanie
jorge
joris
joriskarke
jork
jos
jose
josef
joseph
jou
jouk
journaal
journal
journalist
journalisten
journalistiek
journey
jouwer
jovink
jow
joyce
jozef
jpeard
jpoort
jpoorte
jr
js
jstad
jste
jstor
jt
jtieden
jtriene
ju
juan
jubbege
jubeleum
jubileum
juda
judith
juf
juffrouw
juk
julen
jules
juli
julia
juliaanse
julian
juliana
julie
julius
jullen
jullie
july
jump
june
juneau
jung
junge
jungelu
jungen
junger
jungere
jungeren
jungle
jungste
jungvolk
juni
junie
junior
jupiter
jura
jurgaityte
juridies
juridiese
juridische
juridiske
jurist
jurjen
jury
jus
just
justin
justinianus
justitie
justus
juten
jutlaand
jutlaandse
jutphoas
jutta
jutten
juu
juul
juust
juuste
jverheid
jveurbeeld
jveurzitter
jwal
jwel
jwillige
jy
jytlaand
jzunder
jzundere
k
ka
kaag
kaai
kaal
kaamp
kaampen
kaampn
kaande
kaanker
kaans
kaant
kaante
kaanten
kaantn
kaap
kaapse
kaapstad
kaapverdie
kaark
kaarke
kaarken
kaarms
kaars
kaart
kaarte
kaarten
kaarvel
kaas
kabaal
kabaret
kabel
kabeljauw
kabeljauwse
kabinet
kachel
kaczynski
kade
kader
kaderwetgebied
kado
kaelenbarg
kaemer
kaerl
kaf
kafee
kafees
kahl
kai
kairo
kaiser
kaizen
kaizer
kak
kakao
kakou
kakoubonen
kakouboom
kakoubutter
kakoupouder
kalabrie
kalahari
kale
kalender
kalenders
kalf
kali
kalief
kalifornie
kaliningrad
kalium
kalk
kalkar
kallebroek
kallinge
kalm
kalsium
kam
kamala
kamer
kamera
kameraoden
kamerlid
kamero
kameroad
kameroen
kamers
kamerverkiezingen
kamme
kammeraod
kammeraoden
kammeraojen
kamp
kampagne
kampanie
kampanje
kampen
kamper
kampereilaand
kamperfoelie
kamperpoorte
kampers
kamperveen
kampervene
kamperzeediek
kamping
kampioen
kampioene
kampioenskop
kampioon
kampioonskap
kampioonskappen
kampman
kan
kana
kanaal
kanada
kanadeeske
kanadeesken
kanadese
kanagawa
kanalen
kanariese
kanariske
kandida
kandidaat
kandidaatlidsta
kandidaot
kanji
kanker
kann
kannabis
kannada
kanneda
kannede
kannedemeer
kannedese
kanner
kannes
kano
kanoal
kanon
kanonnen
kans
kansas
kansen
kant
kante
kanten
kantine
kanton
kantons
kantoor
kantoren
kanu
kanunnik
kaode
kaole
kaonderen
kaorel
kaort
kaorte
kaorten
kaos
kap
kapbaarg
kapel
kapelle
kapelleken
kapellen
kapeln
kapers
kapitaal
kapitalisme
kapitalistiske
kapitein
kapiteins
kapittel
kapot
kappe
kappeln
kappen
kapstok
kapstokke
kapt
kaptein
kar
karabach
karakter
karakteristiek
karakteristieke
karakters
karaktertrek
karbietskeetn
kardashian
kardinaal
kardinaol
kardinaolen
karel
karemelk
karen
kariben
karibies
karibiese
karibisk
karibiske
karin
karinten
karinthie
kark
karkdarp
karkdarpen
karkdienst
karkdo
karke
karkeleke
karkelijk
karkelijke
karkelik
karkelike
karken
karketoren
karkgebouw
karkhervo
karkhervormer
karkhof
karkhov
karkien
karkjen
karkraode
karkraods
karktoorn
karktoren
karl
karlsruhe
karmis
karmisse
karmse
karn
karnaval
karnavalsoptocht
karnemelk
karnen
karnevaal
karneval
karolingiese
karpaten
karre
karrharders
karriere
kars
karspel
karst
karsta
karstboum
karstboumen
karstening
karstfeest
karstmis
karten
karvel
kas
kasper
kaspiese
kassel
kassen
kast
kaste
kasteel
kasteelen
kastelain
kastele
kastelein
kastelen
kasten
kasus
kat
kate
kategorie
kateker
katekers
kathedraal
kathelieke
katholiek
katholieke
katholieken
katja
katjes
katliek
katmandoe
katoele
katoen
katolicisme
katolik
katolike
katoliken
katolyke
kats
katte
kattedraal
kattegerie
kattelaans
kattelicisme
katteliek
kattelieke
kattelieken
katteliekn
katten
kattenbras
kattewiets
kattolieke
katwiek
kau
kaukasus
kauwgom
kavels
kavort
kavvee
kazachstan
kazakn
kazaks
kazakse
kazakstan
kazerne
kch
ke
keaizer
keandn
keant
kear
keark
kearkdoarp
kearke
kearl
kearlken
kearls
kearlsnaamns
ked
kedavers
kede
keden
kedingen
keek
keel
keeltsie
keen
keend
keender
keep
keer
keerden
keerl
keerlke
keerls
keern
keers
keerse
keersen
keert
keerze
kees
keet
kefalonia
kefe
kefee
kefees
keflavi
kei
keie
keien
keileem
kein
keis
keiser
keith
keizer
keizerriek
keizers
kek
keken
kekken
kelder
kelders
kelender
kelik
kelk
kelkblaojen
keller
kelly
kelonie
kelonies
kelten
kelties
keltiese
keltiesen
keltische
keltisk
keltiske
kemal
kemille
kempen
kempis
ken
kenaal
kenaol
kenaolen
kend
kende
kenden
kene
kenia
keniaanske
kenianen
kenku
kenma
kenmaark
kenmaarken
kenmaarkend
kenmaarkende
kenmaarkt
kenmark
kenmarken
kenmarkend
kenmarkende
kenmarkenden
kenmarkt
kenmarkten
kenmoark
kenmoarken
kenmoarkend
kenmoarkende
kenmoarkn
kenmoarknde
kenn
kennedy
kennemerlaand
kennemerland
kennen
kenner
kenners
kennes
kennet
kenneth
kennis
kens
kent
kente
kentucky
kenya
kenyatta
kepot
keppel
ker
kerakter
kerakteristiek
keramiek
kere
kerel
kerels
keren
kerguelen
kerk
kerke
kerken
kerkhof
kerkplein
kerkstraat
kerkyra
kermis
kern
kerne
kernen
kers
kerspel
kerst
kerstening
kertaaier
kes
kesen
keset
kessel
kestail
kestailen
kesteel
kestiel
ket
ketel
keten
ketn
ketoor
kets
kettel
kettels
ketten
kettenzage
ketteri
ketters
ketterse
ketting
keu
keuievangers
keuken
keulder
keulen
keulkes
keulstra
keump
keunegin
keunen
keuneng
keunenkriek
keunenkrieken
keunigin
keuniginne
keuning
keuningin
keuninginne
keuninginnedag
keunings
keuningsbook
keunink
keuninklike
keuninkriek
keuninkrieken
keuninkriekn
keuninkrieksrelaosies
keuninks
keunst
keunsten
keunstenaor
keunstener
keunstmoatige
keunstschilder
keunststof
keuper
keur
keurvo
keurvorstendom
keus
keuterboer
keuze
keuzen
keuzes
keuzn
kevers
kevin
keyser
keze
kezen
kfc
kg
kgebeed
kh
khalifa
kham
khan
kheops
khoe
khoi
khoikhoi
khoisan
ki
kibaki
kie
kieft
kiefte
kieftsbloeme
kiek
kieken
kieker
kiekers
kiekkaste
kiekleu
kiekn
kiekt
kiel
kiela
kiele
kielen
kiend
kiender
kienderboek
kienderboeken
kienderboekenskriever
kienders
kiengeren
kiep
kiepe
kiepehokke
kiepen
kiepkoaren
kierkegaard
kies
kiesraad
kiest
kiev
kievitshaar
kievitsnest
kiewiet
kieze
kiezen
kiezet
kiezn
kig
kige
kijk
kijken
kik
kikker
kikkers
kikkertien
kikt
kikuyu
kikvo
kikvors
kilder
kilemeter
kilemeters
kilimanjaro
kilo
kilogram
kilomeater
kilometer
kilometers
kim
kin
kinau
kind
kinder
kindere
kinderen
kinderrijmen
kinders
kindness
king
kingderen
kingdom
kings
kingston
kinmaarkt
kinne
kinnen
kinner
kinshasa
kinsjasa
kint
kip
kippe
kirchro
kirgizie
kiribati
kirje
kirrel
kiss
kissien
kist
kiste
kiswahili
kizomba
kj
kjunt
kk
kke
kked
kkede
kkeden
kken
kkene
kker
kkeroepe
kkers
kkes
kket
kkie
kkien
kkies
kking
kkn
kku
kkum
kkyn
kla
klaai
klaank
klaankbro
klaanken
klaankenskrift
klaankkaste
klaankn
klaankverschoeving
klaankverschoevingen
klaankverskoeving
klaankverskoevings
klaant
klaanten
klaas
klaassen
klaassens
klabatse
klacht
klachten
klaetert
klaiden
klaider
klain
klaindere
klaine
klainste
klan
klanenbeek
klank
klanken
klankleer
klankversku
klant
klaor
klaos
klap
klapheck
klappen
klar
klarenbeek
klarinet
klas
klasse
klassen
klasses
klassiek
klassieke
klassieken
klassiekers
klassiekn
klassik
klassike
klaus
klavecimbel
klavinet
klazien
klazienaveen
klazieneveen
kle
kleain
kleainder
kleaindere
kleaine
kleainen
kleainer
kleainn
kleainste
klean
kleane
kleanere
kleanste
klear
kleare
klederdracht
kleding
kledingstuk
kleed
kleef
kleefs
kleenken
kleenker
kleenkers
kleenkt
klei
kleifries
klein
kleinder
kleindere
kleindochter
kleine
kleinen
kleiner
kleinere
kleinschaolige
kleinste
kleinsten
kleinzo
klejerdracht
klemtoon
klep
klepperman
kleraosie
kleraozie
kleren
klerk
kleur
kleure
kleuren
kleurige
kleurn
kleusien
kleve
kleverlaands
kleyder
klieren
kliff
kliffen
klik
klimaat
klimaot
klimaoten
klimaten
klimmen
klimoat
klingon
klingonen
klinieken
kliniese
klink
klinke
klinken
klinker
klinkerla
klinkers
klinkt
klippen
klitse
klm
klo
kloar
kloarmaakn
kloarn
kloas
kloeke
klok
kloke
klokhuis
klokje
klokjes
klokke
klokken
klokkestoel
klokkestoelen
klokkien
klombe
klomp
klompe
klompen
klompenvincent
klonie
kloof
klook
kloomp
kloompn
kloon
klooster
kloosterboeren
kloosterhaar
kloosterhervo
kloosterholt
kloosters
klootschieten
kloppen
klopt
klosse
klouster
kloutsketen
klu
klub
klubs
klucht
kluchten
kluitman
kluren
klurige
klusters
kluur
kluurn
kluus
kluwer
km
kn
knaagdeers
knaagdieren
knaal
knap
knaw
kne
knech
knecht
knechte
knee
knegt
knelis
kneupe
kneuppunt
knief
knien
kniende
knienen
kniepe
knieperd
knieperkes
knieperties
kniepertje
kniepiezer
kniewe
knij
knik
knikkers
knipn
knippe
knippen
knmi
kno
knoal
knoalen
knoalsters
knoepbees
knoeps
knoet
knoflook
knol
knolle
knollen
knooien
knoop
knooppunt
knop
knoppe
knoppen
knovlouk
known
knup
knuppe
knvb
ko
koaderwetgebeed
koaken
koale
koalen
koamen
koamer
koamers
koamet
koamt
koaningryk
koar
koare
koarel
koaren
koarkdoarp
koarke
koarken
koarkn
koarte
koarten
koartke
kobes
koch
kocht
kochten
kocks
koda
kode
kodeks
kodes
koe
koeien
koek
koekange
koekien
koekies
koekkoek
koekoek
koel
koele
koelen
koelkaste
koeme
koemen
koen
koendert
koenen
koerier
koers
koervo
koetse
koetshuus
koevern
koeweit
koeze
koezen
koffee
koffie
koffiemesine
koffy
kogels
kogge
koggels
koggenlaand
koggenland
kognitieve
kohl
koine
koj
kok
koken
kokn
koko
kokt
kold
kolde
kolder
kolderveense
kolding
koldste
kolen
kolk
kolke
kolkman
kolle
kollega
kollege
kolleksie
kollen
kollenmienen
kollum
kollumerlaand
kollums
kolombia
kolonel
koloniaal
koloniale
kolonialen
kolonialisme
kolonie
kolonies
kolonisasie
kolonisaty
koloniseerd
koloniseerden
koloniseren
kolonisten
kolonistn
kolony
kolonys
kolorado
kolumbia
kolumn
kom
koman
kombinaosie
kombinasie
kombineerd
kombinoatsie
kombinoatsies
komen
komiek
komies
komik
komische
komm
komma
komme
kommen
kommende
kommentaar
kommercia
kommersie
kommet
kommissie
kommissoaris
kommn
kommt
kommunikasie
kommunikaty
kommunisme
kommunisten
kommunistiese
kommunistische
kommunistiske
komn
komodo
komodovaraan
komodovaraann
komoren
komorenverbund
komp
kompagnie
kompanjie
kompas
kompejonsvaort
kompenis
kompenist
kompleet
komplete
komplex
komponist
komputer
komputers
komst
komt
kon
koncept
koncepten
koncerten
konde
konden
kondigden
kondigeden
kondigen
konegin
koneginne
koneginnedag
konfederasie
konflikt
konflikten
konfusius
kong
kongo
kongolese
kongorivier
kongospra
kongres
koniferen
koning
koningin
konings
koningsdag
koningshuus
koninklijk
koninklijke
koninklik
koninklike
koninkriek
koninkrijk
konjugaatsie
konklusie
konkrakt
konn
konnen
konrad
konsekwent
konsept
konsert
konserten
konsertn
konservatief
konservatieve
konservative
konservatorium
konsilie
konstantien
konstantinopel
konstelloatsie
konstelloatsies
konstruksie
konstrukteurs
konstruktie
kont
kontakt
kontakten
konte
kontekst
kontinent
kontinentaal
kontinenten
kontinentoal
kontini
kontinint
kontra
kontrabas
kontrakt
kontreien
kontreinen
kontrole
kontroleerd
kontroverse
konvenant
koo
koobeeste
koog
kooi
kooj
kookpunt
kookt
kool
koold
koolde
koolhydraoten
koolstof
koomp
koomt
koon
koop
koopkracht
koopleu
kooplu
koopluden
koopman
koopn
koops
koopt
koor
koornmo
koorts
koos
kootjebroek
kootwiek
kootwiekerzaand
kop
kopen
kopenhagen
kopenhoaven
koper
koperen
kopernikus
kopers
kopie
kopke
koppel
koppelen
koppels
koppen
kopper
kopperbloazers
kopperne
koppertied
kopsto
kopstubber
kopy
kopzearte
kopzeerte
koran
korea
koreaanse
koren
korenmeule
korenmo
korf
korfoe
korhoonder
korhoonders
kornelis
kornies
kornwallis
korona
koronavirus
koronavirussen
korpora
korps
korpsen
korpsn
korrekt
korrels
korrigeerd
korsika
korsikaans
korsikaanse
korsmossen
korst
kort
kortbi
kortbie
kortby
korte
korten
korter
kortere
kortisol
kortn
kortns
kortriek
kortste
kortweg
kos
koskimies
kosmos
kosovo
kost
kostboar
koste
kosten
koster
kostn
kot
kotbi
kotor
kots
kotte
kotten
kotweg
kou
koud
kouga
kouk
koupen
koureur
koureurs
kouse
kouwe
kovvie
kozen
kozzen
kr
kra
kraa
kraak
kraande
kraant
kraante
kraanten
kraantn
krabben
krach
kracht
krachten
krachtig
krachtige
kraien
kraig
kraijer
kraitsen
krakau
kraken
krako
kramer
krane
kranenbo
kranenburg
krang
krange
krank
krans
kransen
krant
krante
kranten
kraoters
krap
krapan
krappe
kreag
kreagen
kreagn
kreativiteit
kree
kreeg
kreegn
kreenk
kreet
kreg
kregen
kreggen
kregt
kreien
kreis
kreisfreie
kreits
krek
krekt
krekte
kremer
kreng
krenten
krentenplassien
krentenstoete
kreool
kreoolsproake
kreoolsproakn
kreta
kreuze
kreyg
kreygen
kri
kribbe
krie
krieg
kriege
kriegen
krieger
kriegers
kriegn
kriegnt
kriegs
kriegsgeweld
kriegsheer
kriegsleu
kriegt
kriej
kriet
krig
krigst
krigt
krijgen
krijgt
krim
krimpen
kring
kringe
kringen
kringloop
krinkloup
krips
krisis
kristelik
kristelike
kristeliken
kristelke
kristen
kristendom
kristendum
kristenen
kristlik
kristlike
kristndom
kristus
kriteria
kritiek
kritik
kritisch
kritische
kro
kroam
kroasie
kroaten
kroaties
kroatiese
kroeg
kroepdeers
kroepn
kroes
kroese
kroeze
kroezeboom
krol
krom
kromho
kromme
krommen
krommerivier
krone
kroniek
kronieken
kroning
kronkelt
kroon
kroonblaojen
kroond
kroondomein
kroonprins
krop
kropotkin
kropp
krosenbrink
kroune
krounen
krowatie
kru
kruden
kruis
krujen
krulewagen
kruningen
krupen
krupende
krusing
kruud
kruudachtige
kruudmoes
kruudmoos
kruudn
kruudnoagel
kruupdeers
kruus
kruuskarke
kruuspunt
kruust
kruustoch
kruustocht
kruustochten
kruuttoorn
kruzen
kruzing
kryg
krygen
krygers
kryget
krygt
kryner
kryptogeld
kryptografy
kryptomu
kryt
ks
kske
ksken
kskes
kskn
kt
kte
kten
kts
ku
kuba
kubieke
kudde
kuierd
kuierden
kuieren
kuiern
kuierstok
kuierstokken
kuiert
kuifje
kuik
kuiken
kuiper
kuipers
kuj
kukeleku
kukeluusjen
kukeluusjes
kuken
kukens
kule
kulen
kulenburg
kull
kultivars
kulture
kultureel
kulturele
kulturen
kulturhus
kultuur
kultuurkamer
kultuurn
kumis
kummen
kummende
kummet
kump
kumpt
kumrie
kumries
kumriese
kumst
kumste
kumt
kun
kunde
kunden
kunen
kung
kungres
kuning
kunnen
kunnig
kunnigheaid
kunnigheid
kuns
kunsschilder
kunst
kunsten
kunstenaar
kunstenaars
kunstenoars
kunstgeschiednis
kunstklookte
kunstmaotig
kunstmaotige
kunstmoateg
kunstmoatege
kunstmoatige
kunstschilder
kunstskilder
kunstvo
kunstwarken
kunt
kurasau
kurendriever
kurkezaosie
kuro
kursus
kursussen
kurt
kurzussen
kus
kussen
kussing
kust
kuste
kusten
kustliende
kustliene
kuststrook
kuukn
kuul
kuunder
kuunen
kuurn
kuuroord
kuuroorden
kuusjen
kuuskalf
kuuva
kv
kvd
kw
kwa
kwaam
kwaamn
kwaamp
kwak
kwalificeerde
kwalificereden
kwalifikatsy
kwaliteit
kwam
kwamen
kwammen
kwamn
kwamp
kwamt
kwaod
kwaoje
kwart
kwartaolblad
kwarteer
kwarteren
kwartier
kwarts
kwast
kweekn
kweem
kweken
kwel
kwelle
kwestie
kwesties
kwh
kwiet
kwik
kwispeldoor
kwo
kwoad
kwoade
kwyt
kyeimi
kyk
kyken
kyket
kykt
kylie
kymrie
kyodan
kyoto
kys
l
la
laag
laaiden
laaidende
laan
laand
laandaarbaiders
laandbaauw
laandbouw
laandbouwenklaove
laandbouwgebied
laandbouwgrond
laandelek
laandeleke
laandelijk
laandelijke
laandelik
laandelike
laandelke
laanden
laanderi
laanderiejn
laandgoed
laandgood
laandgraaf
laandhoes
laandhuus
laandhuze
laandies
laandklimaat
laandkode
laandkrais
laandkraits
laandkraitsen
laandleven
laandmassa
laandmoat
laandn
laandoppervlak
laandoppervlakte
laandrecht
laandschap
laandschop
laandsheer
laandskap
laandskop
laandskoppen
laandsmeer
laandsstrekke
laandstaal
laandstreek
laandvoogd
laang
laange
laanger
laangs
laangzoam
laank
laanke
laankhaals
laanks
laanksoam
laankzaam
laankzame
laankzamer
laar
laars
laat
laatste
laauwers
laauwersmeer
laauwersoog
laauwerszee
laboratorium
lach
lachen
lacht
lacus
laden
lading
ladinies
ladino
lady
lae
laefden
laeft
laeg
laege
laeger
laegere
laegers
laegste
laeren
laeste
laete
laeter
laetere
laeven
laezen
lag
laga
lage
lagen
laggen
lago
lagos
laguna
lagune
laid
laiden
laidje
laidjes
laidke
laifde
laifkozend
laik
lains
lainwoorden
laive
laiver
laiverd
lajiopas
lake
laken
lakota
laktose
lam
lambert
lambertus
lamm
lammert
lammertno
lampe
lampepoetser
lan
lana
lancaster
land
landbouw
landbow
landdrost
lande
landelek
landeleke
landelijke
landelik
landelike
landen
landgoed
landgood
landgraaf
landheer
landhuus
landi
landklimaat
landkreis
landkroon
lands
landschap
landskap
landskappen
landskop
landstreek
landt
landvoogd
landvoogdes
lane
lanen
lang
langdurig
langdurige
lange
langediek
langel
langelille
langen
langer
langerak
langere
langerst
langes
langest
langezwaog
langli
langn
langnven
langrekte
langs
langsa
langst
langste
langsten
language
languages
langues
langwarpig
langweer
langzaam
langzoam
lank
lanka
lankhorst
lansink
lanteern
lantschap
lao
laoge
laogen
laogien
laor
laoren
laorne
laot
laote
laoten
laoter
laotere
lap
larcom
laren
larix
larry
lars
larve
larven
las
lasch
last
lastig
lastiger
lat
latain
latainse
late
laten
later
lateranen
latere
lateren
latien
latiens
latiense
latiensen
latijn
latin
lattrop
latyn
latynsk
latynske
lauenburg
laura
laurens
laurent
laurentien
lauwers
lauwersmeer
lauwersoog
lava
law
lawine
lawines
lawn
lawrence
laxa
lazarus
ld
lde
lden
lder
ldere
lderen
ldheid
ldigeden
ldn
lds
ldse
ldskaparma
ldste
ldt
le
lea
leade
leaden
leader
leaderdoarp
leadn
leaf
leafden
leafgebeed
leaft
leaftied
leage
leager
leagerbesteur
leagere
leagerkamp
leagerplaatse
leagers
league
leaider
leaidige
leaiding
leaidn
leaidt
leak
lean
leankte
leante
leanzn
lear
learaar
leard
leardn
learen
learn
leart
leasen
leasers
least
leavden
leaven
leavend
leavende
leavens
leavensstandaard
leavenswyse
leaverden
leaveren
leavet
leavgebeed
leavn
leavt
leavtyd
leawden
leawdn
leawen
leawensvo
leawensvorm
leawerden
leawern
leawert
leawn
leawnde
leawnsboom
leawt
leazen
leazers
leazings
leazn
leben
lebui
lech
lecht
lechte
lechten
lechtenvoorde
lechter
lectuur
led
ledder
ledders
leden
leder
ledig
ledt
lee
leed
leedjes
leedke
leedkes
leedkesmaker
leedn
leef
leefde
leefden
leefgebied
leefhebberieje
leefhebbers
leeft
leeftied
leeg
leegduuts
leegduutse
leege
leegfranken
leegfrankisch
leeghwater
leeglaand
leeglaanden
leegsaksen
leegsaksisch
leegsaksische
leegst
leegste
leegte
leegvene
leek
leem
leemans
leemputten
leen
leengraaf
leenheer
leenkaerl
leenks
leenman
leenrecht
leenstelsel
leenwo
leenwoorden
leep
leer
leerd
leerdam
leerde
leerden
leerling
leerlingen
leermeister
leern
leers
leerstoel
leert
leerze
leest
leet
leeuw
leeuwarden
leeuwarder
leeuwe
leeuweld
leeuwen
leeuwerd
leeuwte
leevde
leeve
leevn
leewste
lef
leg
legaal
legd
legde
legden
lege
legen
legende
legenden
legendes
leger
legere
legers
leggen
legioenen
legislation
legn
legnt
legt
legtenberg
lei
leibniz
leicester
leid
leidde
leidden
leided
leideden
leiden
leidende
leider
leiders
leidet
leiding
leidn
leidschendam
leidse
leidt
leien
leier
leif
leinster
leipzig
leit
lejen
lek
lekaole
leken
lekken
lekker
lekt
lellik
lely
lelystad
lembekke
lemele
lemelerbarg
lemelerveld
lemiers
lemmas
lemmer
lemna
lemsel
lemsterlaand
len
lend
lende
lenen
lengel
lenger
lengs
lengte
lengtegraod
lenin
lening
leningen
leningrad
lenisie
lennep
lens
lent
lente
leny
leo
leon
leonard
leonardo
leone
leonees
leopold
lepejou
lepen
lepidoptera
leppel
leppels
ler
leraar
leraren
lerares
lere
leren
lerer
lering
lers
les
lesn
lesotho
lesse
lessen
lessing
lest
leste
lesten
lestn
lesturgeon
let
letlaand
lets
letsk
letske
letste
letsten
lett
lettele
letten
letter
letteren
lettergreape
lettergreapen
lettergreep
lettergreepn
lettergrepe
lettergrepen
lettergreyp
lettergreypen
letterkunde
letterkundig
letterkundige
letterlek
letterlieks
letterliekse
letterlijk
letterlik
letterlike
letters
lettertype
lettink
lettres
leu
leuf
leuft
leug
leugenbuul
leuk
leup
leupen
leupn
leur
leusden
leut
leuten
leutje
leutn
leuven
leuvenheim
leuvenhorst
leuvenum
leuvenumse
leve
levelde
levels
leven
levend
levende
levens
levenslange
lever
leverde
leverden
leveren
levert
levt
lewen
lewer
lewis
lex
leyden
leyger
leynden
leynwo
leynwoord
leynwoorden
leyraar
leyrden
leyre
leyren
leyrling
leyverden
leyvert
lezen
lezer
lezers
lezing
lezingen
lezings
lf
lfde
lfdn
lfs
lfstaandig
lfstaandige
lfstandege
lfstandige
lft
lg
lgd
lgebied
lgen
lgende
lgens
lgers
lgie
lgnde
lgood
lgt
lheid
li
lia
libanon
libe
liberaal
liberale
liberie
liberty
libie
libies
libiese
libise
library
libya
licentie
lich
lichaam
lichamelijk
lichamelike
lichem
lichoam
licht
lichte
lichten
lichtenvoorde
lichter
lichtere
lichtkaans
lichtmis
lid
lidma
lidsta
lidstaot
lidstaoten
lidstoaten
lidwoard
lidwoord
lidwoorden
lie
liechtenstein
lied
liedboek
lieden
liedend
liederen
liedje
liedjen
liedjes
liedjesschriever
liedn
liedteksten
liedtien
liedties
lief
liefde
liefdes
liefdesverdriet
liefst
liejen
liek
liekas
lieke
liekegoed
lieken
liekende
liekewel
liekewels
liekn
lieknamige
lieknoamege
liekt
liem
liemers
liemerse
lien
liende
lienden
liene
lienen
lienn
lienpost
lient
lienwoorden
liep
liepen
lier
lierderholthuus
lieren
lierzang
lies
liesbeth
liese
liest
lieste
liester
liesters
liesttrekker
liet
lieten
lieties
lieuw
lieve
lieven
liever
life
lifetime
liffey
lifte
lig
liga
lige
ligen
liggen
liggend
liggende
liggent
ligget
ligging
light
lign
lignt
ligt
liisa
lijk
lijkt
lijn
lijst
lik
like
likt
likwide
likwiditeat
lille
lillijke
lily
limbo
limburg
limburgers
limburgs
limburgse
limerick
limericks
limes
limit
lincoln
linda
linde
lindeboom
linden
line
lineke
ling
linge
lingen
lingewaard
lingua
lingui
linguistic
linguistique
linie
link
linker
linkerhaand
linkerkaante
linkerover
links
linkse
linkshaandig
linkshaandige
linkshaandigen
linkshaandigheid
linnaeus
linnen
linnengood
linngood
linnut
lint
lintbebouwing
lintdo
lintel
linux
lionel
lipken
lipn
lippe
lippen
lis
lisa
lische
lisensie
lisk
liske
lissabon
lisse
lissoeba
list
liste
liszt
litausk
liter
litera
literaere
literair
literaire
literatur
literatuur
literatuurhistoricus
literatuurpries
litere
literetuur
litouwen
litouws
litouwse
litte
litteken
littenserediel
little
liudger
live
livingstone
liwwadden
liwwadderediel
ljouwert
ljubljana
lk
lke
lken
lker
lking
lkraie
ll
llanelli
llanfair
lle
llegien
llegies
lleider
lleke
lleken
llekes
llemuden
llemuun
llen
llenboer
llenoar
llenoars
llens
ller
llers
lles
llet
llie
llieknepn
lliemo
llnir
lloyd
llum
llumerlaand
llumerland
llumerlands
llynfi
lme
ln
lng
lo
loag
loage
loagen
loan
loand
loat
loate
loaten
loater
loatere
loatn
loatste
loatt
lobith
local
locatie
locaties
loch
lochem
lochemsen
lochhaven
locht
lochte
lochter
lochthaven
lochthawen
lochtkussenvoertuug
lodewiek
lodewijk
loek
loeks
loen
loenen
loeren
loes
loevestein
lof
loft
log
logika
logisch
logischerwies
logo
lohn
lohues
loil
loire
lois
lokaal
lokale
lokalen
lokaole
lokasie
loki
lokken
lokkeri
lokoal
lokoale
lokoasie
lokt
lokte
lombok
lon
londen
london
lonely
lonen
long
longen
longobarden
lonicera
lonneker
loo
lood
loof
loofbossen
look
lool
loon
loop
loopbaan
loopgoed
loophek
loopn
looprekke
loopt
loos
loosdrecht
lop
lope
lopen
lopende
loppersom
loppersum
lopt
lord
lorenzo
lork
los
loschbour
losker
losse
lossen
losser
losstaonde
lost
loster
lot
lotharingen
lotte
lottmann
loug
lougen
louis
louise
louisiana
loup
loupbane
loupen
loupet
louvre
lov
love
lovelock
lover
lovink
low
lower
lowina
lowlands
lozie
lp
lpe
lpen
lring
ls
lse
lsk
lskarke
lske
lstegen
lt
lte
lten
lter
ltyd
lu
lubbert
lubeek
lubeker
lublin
lucas
luch
lucht
luchtenberg
luchthaven
luchtmacht
luchtvo
lucia
lucifer
lucius
lucky
luddevede
luden
ludger
ludwiek
ludwig
lue
lui
luie
luik
luinge
luip
luipen
luis
luit
luiten
luizenmoeder
luk
lukas
luken
lukevent
lukken
lukn
lukt
lukten
lund
lundy
luntere
lunteren
lunze
lus
lusen
luspa
lussevars
lust
lusteren
lut
lute
luther
lutheranisme
luthers
lutherse
lutje
lutte
lutteg
lutten
luttenbarg
luttn
luu
luudt
luui
luuk
luuks
luukse
luunjeberd
luusen
luuster
luusteraars
luustern
luxe
luxembo
luxembourg
luxemburg
lv
lva
lvde
lvden
lve
lven
lvs
lvte
ly
lyceum
lyden
lydend
lyf
lyk
lykas
lyke
lyken
lyket
lykewels
lyknamige
lykt
lynden
lyne
lynn
lyon
lyse
lyste
lysten
lytse
lyv
læsø
m
ma
maa
maag
maagd
maagie
maagien
maagies
maai
maaike
maak
maakn
maakt
maakte
maakten
maal
maalden
maan
maand
maandag
maandblad
maande
maanden
maander
maandewark
maank
maanks
maar
maark
maarkel
maarkelsebrook
maarkt
maart
maarten
maas
maasbree
maaschappi
maasdriel
maasgouw
maastricht
maat
maatschappij
mabel
mac
macau
macbeth
macedonie
macfarlane
mach
machen
machine
machines
macht
machte
machtege
machten
machtig
machtige
machtigen
machtigste
machtsstried
machu
macrophylla
madagaskar
made
madeira
madeleine
madonna
madrid
maeken
maekt
maekte
maekten
mael
maense
maensen
maer
maerssen
maert
mag
magazine
magda
magdalena
mage
magel
magere
maggen
maggie
magic
magisch
magiske
magma
magna
magnesium
magni
magnt
magnus
magt
mai
maiden
maikel
mail
main
mainbarg
maind
maine
mainen
mainste
maint
mainz
mais
maist
maiste
maisten
maistieds
maisttied
maisttieds
majafra
majeur
major
majorka
mak
make
maked
makede
makeden
makelaar
maken
maker
makers
maket
makkelek
makkeleker
makkelijk
makkelijker
makkelik
makkeliker
makkelk
makkelker
makket
makkinga
makkinge
maksimaal
mal
malakka
malaria
malawi
male
maleisie
malen
maleysie
maleysisken
mali
malindi
mallem
mallorca
malmo
malt
malta
maltees
maltese
mama
man
management
manager
manchester
mande
mandela
mander
manderoog
mandielig
mandielige
maneere
maneern
manen
manere
maneren
mang
manges
mangs
mangsmaol
mangsmoal
manhattan
mani
manier
maniere
manieren
manifest
manitoba
manks
manlu
manluu
manluui
mann
mannegien
mannelek
manneleke
mannelijk
mannelijke
mannelik
mannelike
manneliken
mannelk
mannen
mannenkoor
mannetjen
mannetjes
mannheim
manon
mans
manschot
mansholt
manskap
manskappen
mansleu
manslu
mansluden
mantel
manuel
manuscript
manx
many
mao
maogere
maoi
maoken
maokt
maokte
maol
maolen
maon
maond
maondag
maondblad
maonden
maone
maonen
maor
maori
maos
maot
maote
maoten
maotig
maotige
maotregels
maotriegels
maotschoppelijke
maotschoppi
maotskappi
map
maps
mar
marbo
marc
marcel
march
marching
marco
marcus
mare
marga
margarete
margaretha
marge
margraoten
margriet
margroaten
marhulsen
mari
maria
mariakarke
marian
marianne
mariaparochie
marie
marieke
mariekolver
marihuana
marijke
marile
marilyn
marimba
marina
marine
marino
marinus
marion
maritime
marius
marja
mark
markante
marke
markeerd
markeert
marken
markeren
markermeer
markers
markerweerd
market
markies
markloawe
marknesse
marksk
markt
markte
markten
marktrechten
marle
marleen
marlene
marley
marmont
marne
marokkaanse
marokko
marreveld
mars
marseille
marsmuziek
mart
martelaar
marten
martens
marters
martes
martha
marti
martijje
martijn
martin
martina
martini
martinique
martinus
martinuskarke
marum
marx
marxisme
mary
maryland
maschinen
masker
massa
massaal
massachusetts
massage
massale
massamedia
mastenbroek
master
masters
mat
mataram
materia
materiaal
materiaaln
materialen
materiaol
materie
materioal
mathfrak
mathilde
matijn
matricaria
matrijs
matt
matte
matten
matter
matteu
matthias
mau
maurice
mauritanie
mauritius
maurits
max
maximaal
maxime
maximiliaan
maximus
may
maya
mayotte
mba
mbad
mbaden
mbeki
mber
mc
mcferrin
mclaren
mcquaid
md
mdat
mde
mden
mdet
mdevo
me
mea
mead
meadeklinker
meadeklinkers
meaister
meakelenbo
meaken
meal
meanden
meander
meandn
meaning
meann
means
meanse
meansen
meanske
meanskelike
meansken
meanskenrechten
meanslike
meansn
meant
mear
meardere
mearderheaid
meardre
mearen
mearn
meart
mearvoold
meast
measte
meaten
meater
meavy
mechaniese
mechanische
mechelen
mecklenburg
med
medaille
medalje
meddo
mede
mededelingen
medeklinker
medeklinkers
medel
medemblik
meden
meder
medern
mederne
medewarkers
medeyne
media
medici
medicine
medicyn
medicynen
mediese
medieval
medina
medioane
medisch
medische
medisien
medisienen
medisk
mediske
meditatie
meditation
medium
medrid
medspo
medwarkers
mee
meei
meeist
meel
meeld
meeldn
meeldraojen
meele
meem
meems
meende
meender
meendere
meenderheaidsgroepn
meenderheedn
meene
meens
meense
meenselik
meenselike
meensen
meenske
meensken
meenstens
meent
meente
meer
meerdere
meerderhaid
meerderheid
meerderhied
meerlo
meermaols
meermoals
meern
meerssen
meerst
meerstal
meerstalblok
meerste
meert
meerten
meertens
meertien
meertmaond
meervold
meervolden
meervoldsvo
meervoold
meervoud
meerwiek
meest
meestal
meeste
meesten
meestentieds
meester
meestgebroekte
meestieds
meestn
meesttieds
meet
meeuw
meeuwen
meeuwis
mega
megchelen
meginhard
mehr
mei
meiboom
meid
meiden
meidoorn
meie
meier
meijel
meijer
mein
meindert
meine
meinse
meinsen
meir
meisje
meisjes
meist
meiste
meister
meisters
meitied
mek
meka
mekaander
mekaar
mekaars
mekaer
mekander
mekandere
mekaor
mekare
mekeer
mekelenborg
mekelnbo
mekka
mekoar
meksiko
melancholie
melanesie
melbourne
melden
melding
melik
melk
melkbussen
melle
mellodie
melodie
melodika
melody
mem
meme
mement
memes
memetik
memmetael
memoires
memorial
memory
memphis
men
menaaier
menaar
menaldumediel
menare
mendes
mene
menear
meneer
mengd
mengden
mengeling
mengen
mengn
mengsel
mengspra
mengt
mengvo
menier
meniere
menieren
mening
meningen
menister
menneleke
mennig
mennige
menno
mennonieten
mennonitische
mens
mensch
menschen
mense
menseleke
menselijk
mensen
mensheid
menskachtige
menskachtigen
menske
menskelik
menskelike
mensken
menskenrechten
menskn
ment
menterwolde
mento
menuten
meppel
meppeler
meppen
mer
merakel
merakels
meras
mercedes
mercury
mere
meren
merendeel
merendiel
merengue
merewyn
meridiaan
merkurius
merovingische
merrie
merula
merwede
mes
meschien
mesiene
mesienes
mesines
mesjester
meskeen
mesopotamie
messchain
messe
messel
messen
messiaanse
messias
messiasbeliedende
messmer
mest
mestricht
met
metaal
metaaln
metaalne
metafysica
metal
metalband
metalen
metaol
metdoon
metdoot
meteen
meten
meteorologie
meteorologische
meter
meters
metgaon
methode
methodes
metkleenker
metkleenkers
metn
metno
metoal
metoalen
metod
metro
metronoom
metronooms
metropole
metropolitan
metropool
metropoolregio
metropoolstrekke
metrum
metselaar
metspo
metstasjon
metten
metwo
metwos
metz
meu
meubels
meug
meugelek
meugeleke
meugelekheden
meugelekheid
meugelijk
meugelijke
meugelijkheid
meugelik
meugelike
meugelikheaid
meugelikheden
meugelikheedn
meugelikheid
meugelk
meugelke
meugelkhaid
meugelkheden
meugen
meugendheden
meuglik
meugn
meugt
meuie
meuilik
meuiste
meuite
meuje
meujte
meuk
meuken
meul
meule
meulehoeke
meulen
meules
meulunteren
meunster
meunsterlaand
meunsterman
meunt
meurs
mevrouw
mexico
mexikaanse
mexiko
mey
meyer
meyers
meynden
meynet
meynt
meyr
meyrdere
meyrderheid
meyrere
meyrvold
meyst
meystal
meyste
meysten
meystentyds
meyster
meysttyds
meziek
meziekgroep
meziekstiel
mezikaant
mg
mgeaving
mgeffige
mhen
mi
mia
miami
mich
michae
michael
michail
michel
michelangelo
michelle
michiel
michigan
mickey
micro
microsoft
mid
middag
middaglands
middel
middelaiven
middelaiwen
middelaiwse
middelaor
middelba
middelbaore
middelbere
middelboare
middelburg
middelduuts
middelduutse
middeleeuwen
middeleeuwn
middeleeuws
middeleeuwse
middeleeuwsen
middeleewen
middeleewn
middeleewse
middelen
middeleywen
middeleywske
middelfreesk
middelfreeske
middelgrote
middelgrunnegs
middelharnis
middelieuwen
middelieuws
middelieuwse
middelkerwies
middellaandse
middellaanse
middellandse
middellanse
middeln
middelnederduuts
middelnederduutse
middelnederlaands
middelnederlaandse
middelpeunt
middelpu
middelpunt
middels
middelsassisk
middelsassiske
middelste
middelzee
midden
middendorp
middeneuropa
middenin
middenousten
middenpunt
middentieds
middewinterhoorn
middle
midgoardserpeant
midln
midn
midslaand
midslaands
midwesten
midwinter
midwinterhoorn
midwolle
mie
miegamp
miegampen
miegemp
miegen
miej
mien
mienbouw
miende
mienden
miene
mienen
miening
mient
miente
mier
mierlo
miest
miestal
mieste
miestentied
mieuw
miguel
miin
mij
mijl
mijn
mik
mike
mikro
mikronesie
milaan
milan
milano
mild
mildam
milde
mildn
milieu
milio
milita
militaere
militair
militaire
militairen
military
milite
militeare
miljard
miljoen
miljoenen
miljonen
miljoon
mill
millenium
millennium
miller
millet
milligen
millimeter
millingen
million
millom
milos
milt
miltiades
milton
mimme
min
mina
minas
mind
minden
minder
mindere
minderheden
minderheid
minderheidsspra
minderheidstaal
minderheidstalen
minderhejen
minderhied
mine
mineraalwaeter
mineralen
mineraolen
mineur
ming
minh
mini
minie
minimaal
minimum
minister
ministerie
ministern
ministers
ministery
ministry
minke
minne
minner
minnesota
minnig
minor
mins
minsen
minsk
minsken
minst
minste
minsten
minstens
minute
minuten
minuut
minuutn
mir
mirakels
mirre
mirrejoarho
mis
misbruuk
misda
misdaod
misdaodroman
miskien
mislok
mislu
mislukken
mislukte
mislukten
miss
misschien
misse
missen
missie
missingsch
mission
missionaris
missionarissen
mississippi
mississippirivier
misskien
misskyn
missouri
mist
miste
mister
mistig
misverstaand
misverstanden
mit
mitdielingsblad
mitene
mitiene
mitigge
mitklinker
mitklinkers
mitmoakt
mitrekend
mitteilungen
mittelniederdeutsche
mitwarker
mitwarkers
mix
mjo
mko
mliggende
mlynde
mm
mme
mmebracht
mmedo
mmedraid
mmel
mmen
mmeno
mmer
mmers
mmesat
mmet
mmige
mn
mo
moak
moaken
moakn
moakt
moal
moalen
moaln
moalstool
moaltied
moan
moand
moandag
moanden
moandn
moane
moar
moarke
moarkel
moarkn
moarkt
moarn
moarum
moas
moat
moate
moaten
moatn
moatschoppelek
moatschoppi
moatskoppieje
mobiel
mobiele
mobile
mobiliteit
moch
mochen
mocht
mochten
modder
modderputjen
mode
model
modellen
modeln
models
moder
modergodinne
modern
moderne
modernen
modernisering
moders
moderspra
moderspraoke
modersproake
modus
moe
moed
moede
moeder
moedern
moederne
moedertaal
moedertaalpraoters
moej
moeke
moen
moene
moer
moeras
moerassen
moerassig
moerassige
moerstaal
moes
moespot
moet
moeten
moezen
moffin
mogelijk
moggebiet
moggenbeet
mohammed
moi
moide
moien
moin
mokt
mol
moldavie
moldova
molen
mollebone
molukken
molukkers
molukse
mombasa
momeant
moment
momenteel
momenten
mommeriete
mon
mona
monaarchie
monaco
monako
monarch
monarchie
mond
monde
mondeling
mondelinge
monden
monding
mondoarden
mondragon
mondriaan
mondt
monegaskies
monement
moneta
mongolen
mongolie
mongoolse
monique
monitor
monkie
monnik
monniken
monocle
monothei
monroe
mons
monster
monsters
mont
montana
monte
montenegrienen
montenegriens
montenegriense
montenegro
montferlaand
montferland
montfort
montgomery
monthly
montre
montreal
monument
monumentale
monumenten
monumentenwet
monumentenzo
monumentenzorg
monumi
moo
mood
mooglik
mooi
mooie
mooien
mooier
mooin
mooiste
mook
mookerheide
moond
moondo
moondstukke
moor
moord
moordanslag
moorden
moore
mooring
mooringer
moormerlaand
moors
moorst
moos
moppen
mor
moraal
morawie
more
morele
moren
moresnet
morgan
morgen
morgens
morio
mormon
mormonen
mormoonse
morn
morottaja
morris
mors
mos
mosambyk
mosch
moscou
mosden
moskou
moslim
moslims
mosn
mossel
mossen
most
mosten
mostert
mostertstip
mot
motblik
motel
motels
mother
motief
motieven
motor
motorcross
motorcrosser
motoren
motoriek
motorsport
motte
mottekasteel
motten
motto
mouder
moudertoal
mount
mountain
mountainbike
mountainbiken
mountainbikes
mountains
mous
mout
mouten
mouth
movement
mozai
mozambiek
mozambik
mozart
mozes
mozzen
mp
mpel
mpelders
mping
mpings
mr
mrang
mroop
ms
msgevear
mskreaven
mslo
mst
mstanden
mstandigheiden
mstandigheyden
mstig
mstige
mstreaks
msu
mswati
mt
mtv
mu
muammar
mubarak
much
muchen
mudde
muden
muderslot
mueller
mugge
muggen
muhammad
muik
muite
muj
mulatten
mulder
mulders
mulisch
mullegen
muller
mulo
multi
multiple
mun
mund
mundart
mundartatlas
mundarten
munding
mundt
municipal
munin
munn
munnikeburen
munster
munsterlaands
munt
muntainhaid
munte
munten
muntjes
muntjeziel
muntrecht
mur
mure
muren
murphy
murray
mus
muscari
muse
musea
museum
museumfabriek
museums
music
musica
musical
musicals
musicus
musik
musikaal
musikale
musikant
musikanten
musikho
musikkonservatorium
musikskryver
musikstyl
musikstylen
musique
musk
muskee
musschenga
musse
mussen
mussolini
must
mustafa
musten
mut
mute
mutn
mutten
muuilik
muun
muunster
muur
muurn
muus
muzen
muziek
muziekacademie
muziekgroep
muziekinstrumeant
muziekkorps
muziekkorpsen
muziekskriewer
muziekstiel
muziekstielen
muziekstieln
muziekstuk
muziekstukke
muziekvideo
muzijom
muzikaal
muzikaant
muzikaanten
muzikaantn
muzikale
muzikant
muzikanten
muzyczna
muzzelknoal
mv
mvang
mvat
mvv
my
myeon
myles
myn
mynbouw
myne
myrtillus
myspace
mysterie
mysteries
mystery
mysticus
mystieke
myt
mythe
mythologie
mythologiese
mytology
n
na
naacht
naachtoelen
naal
naam
naamn
naamns
naamp
naams
naamval
naamvallen
naamwo
naamwoard
naamwoord
naamwoorden
naar
naarden
naarding
naargens
naarm
naarms
naast
naats
naauw
naauwlieks
naber
nach
nachlampjen
nachs
nacht
nachtegaal
nachten
nachtes
nachts
nachtschaofamilie
nacional
nadat
nae
naederzetting
naederzettingen
naeme
naemelik
naemen
naemwoorden
nag
nagasaki
nagel
nagorno
nairobi
nait
nakend
nakke
nam
name
namelek
namelijk
namelik
namen
namens
names
namibie
nammen
namn
nant
nantes
nao
naober
naobernde
naobers
naoberschop
naobi
naobie
naoburige
naoda
naodat
naodeel
naodet
naodiel
naodrok
naodruk
naogedachtenis
naojaor
naojem
naom
naomen
naoorlogse
naor
naos
naosies
naost
naoste
naovolging
nap
napels
napoleon
napolitaansk
narcissus
nargens
narms
narracio
nasa
nasale
nasalen
nashville
nasies
nasionaal
nasionale
nasionaol
nasjonaal
nasjonaaln
nasjonale
nasjonoal
nasjonoale
nassau
nassaus
nat
nathalie
natie
naties
nation
nationaal
national
nationale
nationalisme
nationaliteit
nationaol
nationaole
nations
native
nato
natsjonoalpaark
natte
natter
nattere
natu
natur
natura
natural
nature
natuur
natuurgebeden
natuurgebeed
natuurgebied
natuurgebieden
natuurkeuze
natuurkrachten
natuurkunde
natuurkundige
natuurkundigen
natuurlek
natuurleke
natuurlijk
natuurlijke
natuurlik
natuurlike
natuurmonumenten
natuurmuseum
natuurpark
natuurparken
natuurreservaat
natuursteaden
natys
nau
nauro
nauroaanse
nautische
nauw
nauwe
nauweleks
nauwelijks
nauweliks
nauwko
nauwkurig
navajo
navo
navvel
nazareth
nazi
nazoreee
nb
nba
nbarg
nbv
ncavo
nchen
ncipe
ncov
ncpn
ncrv
nd
ndaanks
ndag
ndanks
nde
ndebele
ndegde
ndegen
ndegt
ndel
ndelek
ndelk
nden
nder
nderd
ndere
nderen
ndering
nderlik
nderlike
ndern
nderns
nders
ndig
ndigan
ndige
ndigen
ndisch
ndische
ndischen
ndje
ndn
ndr
nds
ndst
ndste
ndsten
ndtys
ne
nea
neader
neaderesetted
neaderfrankiske
neaderland
neaderlanden
neaderlanders
neaderlandse
neaderlandsk
neaderlandske
neaderlandsken
neaderloag
neadersassisk
neadersassiske
neadersetting
neadersettingen
neaderslag
neaderzetting
neagel
neagelhoolt
neagen
neagentig
neamen
neamet
neamp
neamt
neanderthaler
neanderthalers
nearslag
neave
nebraska
nectar
ned
nedap
nedc
nedderdu
nedderduutse
nedderlaand
nedderlanden
nedderlandske
neddersassen
neder
nederduitsch
nederduitsland
nederduuts
nederduutse
nederduutsk
nederduutske
nederfrankies
nederfrankiese
nederfrankisch
nederfrankische
nedergraofschop
nederhemert
nederhorst
nederlaand
nederlaanden
nederlaander
nederlaanders
nederlaands
nederlaandse
nederlaandsen
nederlaandstalig
nederlaandstalige
nederlaans
nederlaanse
nederlaanstaelige
nederlaanstalige
nederland
nederlanden
nederlanders
nederlands
nederlandsch
nederlandsche
nederlandse
nederlandsen
nederlandsk
nederlandske
nederlanen
nederlangd
nederlangds
nederlangdse
nederlans
nederlanse
nederlaonds
nederlaondse
nederloag
nederrien
nedersakische
nedersaksen
nedersaksie
nedersaksies
nedersaksiese
nedersaksisch
nedersaksische
nedersaksischtalige
nedersaksn
nedersassisch
nedersticht
nederweert
nederzetting
nederzettingen
nederzettings
nee
need
neede
neef
neegn
neegnde
neegntiger
neeit
neem
neemt
neengtiende
neer
neerdoarp
neerezet
neerijnen
neerlaand
neerlaanders
neerlaands
neerlaandse
neerlaandsen
neerland
neerlandistiek
neerlands
neersasse
neersassen
neersassies
neersassiese
neerslag
neerzetten
neerzettige
neet
nefertiti
neffens
neg
negatief
negatieve
negen
negende
negentiende
negentig
negentiger
negoatief
negoatieve
nei
neidre
neie
neiging
neijaor
neijaorskoek
neil
neilusen
neis
neisblad
neit
nek
nekke
nekken
nektar
nelson
nem
nemark
nemarken
nemen
nemmen
nemmers
nemmet
nemn
nemp
nemt
nen
neo
neolithicum
neologismen
neosassisme
nep
nepal
nepalese
nepoleon
neptunus
ner
nergena
nero
ners
nervie
nes
nesbitt
nest
nesten
net
netflix
netherlands
netjes
netterden
neture
netuur
netuurgebied
netuurgebieden
netuurkunde
netuurkundige
netuurlijk
netuurlijke
netuurlike
netuurmonementen
netwark
netwoark
network
neucha
neud
neudeg
neudig
neudige
neugen
neuken
neum
neumd
neumde
neumden
neumdn
neumen
neumn
neump
neumt
neurden
neurdeustn
neurdlike
neurdn
neuss
neut
neuteboom
neuten
neutenschaiten
neutraal
neutrale
neutraliteit
neutroale
neuze
nevada
neve
nevel
nevelhekse
neven
never
nevven
nevvens
new
newar
newfoundland
newport
news
newton
next
neyt
nez
nfeld
ng
ngde
nge
ngelik
ngen
ngene
nger
ngere
ngeren
ngeresse
ngeressen
ngers
ngn
ngs
ngste
ngsten
ngte
ngua
ngwane
nh
nheem
nhi
ni
nia
nicaragua
niccolo
nice
nicea
nicephore
nich
nicholas
nicholson
nicht
nichte
nick
nico
nicolaas
nicolai
nicolas
nicolaus
nicoline
nicosia
nie
niebaum
niebroek
niedarp
niederdeutsch
niederdeutsche
niederdeutschen
niederla
niederlande
niedero
niederrhein
niedersa
niedersachsen
niej
nieje
niejen
niejenborg
niejenhoes
niejere
niejjaor
niejjoar
niejn
niejs
niejsblad
niejste
niekark
niekarkernauw
niekarkerveen
niekarks
niekarkse
niel
niels
niemand
niemeyer
nienhuis
nienoord
niers
niersen
niet
niets
nietzsche
nieuw
nieuwe
nieuwenhuis
nieuwland
nieuwleusen
nieuws
nieuwsblad
nig
nige
niger
nigerdelta
nigeria
nigeriaanse
night
niginne
nigrum
nihilisme
nij
nije
nijen
nijenhuis
nijevene
nijgrunnegs
nijhof
nijhoff
nijhoof
nijhuis
nijjoar
nijkeuter
nijkruusland
nijland
nijmegen
nijmoodse
nijs
nijsingh
nijt
nijverdal
nijweide
nikita
nikola
niks
nimp
nimt
nimwaege
nimweage
nimweeg
nina
ning
ningen
ninglike
ningryk
ningryken
ningtien
ninklek
ninklik
nino
nipetang
nis
nisse
nit
niveau
nivo
nivoo
nj
njo
nk
nkander
nkarke
nkelek
nkeleke
nkeleken
nkelekheid
nken
nksien
nl
nland
nle
nlike
nn
nne
nneger
nneginne
nnegs
nnegse
nneke
nneken
nnekes
nnelich
nnelike
nnen
nner
nnerd
nnerdeal
nnerdn
nnergang
nnern
nnerverdeild
nnet
nnevear
nnewende
nnig
nnige
nnigen
nnigheaid
nnigriek
nning
nningen
nninger
nningin
nninginne
nninginnedag
nningn
nnings
nningschop
nningse
nningsk
nningske
nnink
nninklek
nninkleke
nninkriek
nninkrieken
nnker
no
noa
noaber
noabergemeente
noabers
noaberschap
noaberschop
noaberschoppen
noaberschup
noabersk
noaberske
noaberskop
noaberskoppen
noabi
noabie
noabiej
noadat
noadeel
noadeen
noadet
noadro
noadrok
noadruk
noajoar
noakommelingen
noaldbeume
noam
noame
noamelek
noamelk
noamen
noamens
noamlik
noamwoord
noamwoorden
noapikn
noar
noardoosten
noast
noaste
noavolging
noawas
noazoaten
nobel
nobelpries
nobis
noch
noddy
nodig
noe
noeit
noemi
noen
noesel
noeten
nog
nogal
nogmoals
noir
noit
nok
nolan
nolans
nolnkoor
nomen
nominatief
nominativ
nomineerd
nommer
nommers
non
nong
nonnen
noo
nood
noodzoak
nooit
noom
noor
noord
noordafrika
noordamerika
noordbra
noordbroabant
noorddakota
noorddu
noordeinde
noordelek
noordeleke
noordelijk
noordelijke
noordelijkste
noordelik
noordelike
noordeliken
noordeliker
noordelikste
noordelk
noordelke
noorden
noordende
noordenveld
noordenvelds
noorder
noorderbreedte
noorderheide
noordeuropa
noordfrais
noordfraislaand
noordfreesk
noordfries
noordfriese
noordfrieslaand
noordgermaanske
noordgrens
noordho
noordhoeks
noordhollaand
noordholland
noordhorn
noordkaant
noordkaante
noordkante
noordloaren
noordmacedonie
noordn
noordoost
noordoostelijke
noordoostelik
noordoostelike
noordoosten
noordoostn
noordoostpolder
noordoostpoolder
noordosen
noordoustelike
noordousten
noordpool
noordpoolgebied
noordrein
noordrhain
noordrien
noordrijn
noordryn
noords
noordsamisk
noordse
noordsey
noordseyku
noordske
noordve
noordvelds
noordwessen
noordwest
noordwestelik
noordwestelike
noordwesten
noordwestn
noordwiek
noordwoolde
noordzee
noordzeekust
noordzied
noordziede
noorma
noors
noorse
noorsen
noorsk
noorske
noorsken
noorweagen
noorweagn
noorweeg
noorwegen
noot
nootn
nor
nord
norden
nordfriisk
nordhoorn
nordhorn
nordic
nordrhein
noren
norm
norma
normaal
normaalgespro
normale
norman
normandie
normandiese
normandisk
normandiske
normaol
normaole
normen
normoal
normoale
norn
north
northern
norton
norðurland
nos
nostra
not
nota
note
noteerd
notendop
notes
nothing
nothoorn
notities
notoaris
nou
noudoags
noudoagse
nouten
nouw
nov
nova
novel
novelle
novellen
novelles
november
noven
novgorod
novi
noviomagus
now
np
npo
nr
nrc
nri
nrw
ns
nsb
nsd
nse
nsen
nsie
nsk
nske
nsken
nst
nste
nstenaar
nstenaars
nster
nsterla
nsterlaand
nsterlaands
nsterland
nsterse
nstersen
nstma
nstskilder
nsverdu
nt
nte
nteerde
nten
nter
nterkla
nthe
nther
ntien
nties
ntr
ntroal
ntroale
ntrum
nts
ntse
ntspro
ntstoan
ntwarp
nu
nuchter
nucleaire
nudaags
nudaagse
nuimd
nuimde
nuimden
nuimen
nuimt
nul
nuldernauw
numen
nummer
nummers
nums
nun
nunspeet
nunspeets
nuphar
nur
nus
nust
nut
nuth
nutter
nuumd
nuumde
nuumden
nuumt
nuver
nuwenspete
nv
nvl
nvleud
nvloed
nvlood
nvloud
ny
nyborg
nye
nyen
nyguinea
nyhampshire
nyhoff
nyjersey
nyjork
nylon
nymphaeales
nymphalidae
nynorsk
nys
nysassiske
nysleaser
nyste
nze
nzen
nzie
nzies
nzo
nzum
nørrebro
o
oa
oadel
oadelike
oadem
oader
oadm
oaf
oafboaken
oagel
oahoes
oal
oalborg
oald
oalde
oalden
oalders
oale
oan
oandre
oapen
oapenba
oar
oard
oarden
oardig
oare
oaren
oarfgood
oarhoes
oarm
oarme
oarmood
oarn
oars
oarven
oatmo
oavend
oavends
oavens
oaver
oaveral
oaverblyvende
oaverblyvsel
oaverblyvselen
oaverblyvsels
oaverdag
oaverdeenkel
oaverdracht
oaverdrachten
oaverdraegen
oavere
oaveren
oavereneumen
oavereno
oavereyne
oavereynkumsten
oaverga
oavergang
oavergave
oavergroute
oavergu
oaverhearsking
oaverheersende
oaverheersing
oaverheid
oaverhen
oaverheyrsking
oaveriessel
oaveriessels
oaveriesselse
oaverige
oaverigens
oaverkaante
oaverkante
oaverkwarteer
oaverla
oaverlaeden
oaverlead
oaverleaden
oaverleaved
oaverleaven
oaverleaveringen
oaverleaverings
oaverleden
oaverleed
oaverleg
oaverlieden
oaverni
oaverno
oaversat
oaversetting
oaverseyske
oaversicht
oaversticht
oaverstreumingen
oaverstro
oavertu
oavervallen
oaverweagend
oaverwicht
oaverwinning
oaverwinningen
oaveryssel
oaverysselske
oaverzeese
oaverzicht
oawer
oaweral
oawerbleewn
oawerbliefsel
oawerbliefsels
oawereen
oawereenkomst
oawergaank
oawerheaid
oawerheersing
oawerhen
oaweriessel
oaweriesselse
oawerleawen
oawerleawn
oawerleawt
oawerno
oawerzat
oawerzees
oawerzeese
oawerzetting
oawerzicht
oawnd
ob
obama
obdam
obergum
oberkrain
oberkrainer
oberon
objekt
objekten
oblast
obs
oceaan
oceanen
oceanie
och
ochtrup
october
octrooi
od
oda
odense
oder
odia
odin
odinga
odink
oe
oefend
oefenen
oefenn
oeganda
oeit
oek
oeke
oeken
oekrai
oel
oele
oelebred
oelebredden
oelenspegel
oelenspiegel
oelenwanne
oeleu
oem
oen
oender
oenderdeel
oenderscheien
oenderzeuk
oengeveer
oens
oenze
oep
oer
oeral
oerend
oergermaans
oergermaanse
oes
oet
oetbeundige
oetbo
oetbraaid
oetbracht
oetbreuk
oetbrocht
oetdrokken
oetdrukking
oetdrukkings
oete
oeteaindelik
oeteande
oeteandelik
oeteen
oeteenloopnde
oeteindelik
oeterste
oetespro
oetgaank
oetgave
oetgawe
oetgawes
oetgebreaid
oetgebreaide
oetgeewn
oetgeven
oetgong
oethoezen
oeti
oetkeump
oetko
oetkommen
oetkomst
oetkomsten
oetkomt
oetlangd
oetleg
oetmo
oetre
oetrecht
oetri
oetro
oetskeaidn
oetslag
oetsprekken
oetsprekn
oetsprekt
oetspro
oetsproak
oetsproake
oetsproaken
oetsproken
oetstaarven
oetsto
oetstroaling
oetveender
oetveending
oetvinder
oetvoerd
oetvoeren
oetvoering
oetvoerings
oetvoor
oetvoord
oetvoorprodukt
oetwoarking
oetzeandiges
oetzeanding
oetzeundering
oetzeundn
oetzicht
oetzo
oetzonden
oeuvrepries
oever
oevers
oeverse
oew
oewe
oewen
oezbekistan
oeze
oezo
of
ofbeeld
ofbeelding
ofbeeldingen
ofbeeldings
ofbielding
ofbraak
ofbreken
ofbrekken
ofbreuken
ofdelige
ofdeling
ofdieling
ofdielings
ofebreuken
ofegraven
ofeleid
off
offer
offers
office
officia
official
officie
officieel
officiele
officier
officieren
offisie
offisieel
offisjeel
offisjeeln
offisjele
offisjelen
ofgeleid
ofha
ofhaankelijk
ofhaankelik
ofhaankelk
ofhangt
ofhankelijk
ofis
ofko
ofkomst
ofkomstig
ofkorting
ofkumst
ofkumstig
ofleavering
ofleaverings
ofleggen
ofleid
ofleided
oflevering
ofleverings
ofloop
ofname
ofrit
ofschaffing
ofscheiding
ofslag
ofsluting
ofsluutdam
ofsluutdiek
ofsluuting
ofsplitsing
ofspraak
ofstaand
ofstaanden
ofstaandn
ofstammeling
ofstammelingen
ofstammen
ofstamming
ofstamt
ofstand
ofstaon
ofstoan
oft
ofte
oftelber
oftewal
oftewel
oftreden
oftreksel
ofval
ofveardigden
ofveardiging
ofvoer
ofvoerd
ofvoeren
ofwal
ofwaotering
ofwatering
ofweersysteem
ofwel
ofwesselend
ofwezen
ofwieken
ofwiekend
ofwiekende
ofwieking
ofwiekt
ofwiezing
ofwik
ofwisseld
ofwisselend
ofwisseling
ofwool
ofzet
ofzetten
ofzetting
ofzeunderlik
ofzeunderlike
ofzunderleke
ofzunderlijke
og
oge
ogen
ogenblik
ogene
ogeveine
ogledd
ogwr
oh
ohio
ohm
ohnsorg
oi
oil
ois
oit
ok
okehampton
okkenbrook
oklahoma
okrand
oksels
oktaaf
oktober
oktoploi
ol
olaf
olav
old
oldambsters
oldambt
oldambtster
oldambtsters
oldamtsters
olddoarp
olde
oldebroek
oldejaorsaovend
oldejaorsconference
oldemaark
olden
oldenbarnevelt
oldenbo
oldenburg
oldengelsk
oldensele
oldenzaal
oldenzel
older
olderdom
oldere
olderen
olders
olderwets
olderwetse
oldewater
oldfrais
oldfraise
oldfreesk
oldfreeske
oldfries
oldgermaanse
oldgotlandsk
oldgreeksk
oldgrieks
oldgrunnegs
oldhaid
oldheden
oldheid
oldheidkundige
oldhougdu
oldkarspel
oldlusen
oldmoods
oldneaderlandsk
oldnoordske
oldnoorsk
oldnoorske
oldnzel
oldsaksiese
oldsaksisch
oldsaksische
oldsassisk
oldsassiske
oldsheer
oldsher
oldst
oldste
oldsten
ole
olen
olga
olie
oliefbomen
olieven
olifant
olifanten
oliver
oljoar
oll
ollaands
ollaandse
olle
ollehoof
ollen
ollenbo
ollenborgs
oller
ollere
ollerom
olliemo
ollnborg
olst
olt
olthof
olthuis
oltvoort
olympies
olympiese
olympisch
olympische
olympiske
olympus
om
oma
omaha
oman
omdat
omdebi
ome
omenbi
omgeaving
omgeven
omgeving
omhoog
omkrieten
omlandia
omliggende
omloop
omm
omme
ommelaand
ommelaanden
ommelaander
ommelanden
ommelander
ommen
ommer
ommezet
omn
omnibus
omreden
omrezen
omringd
omringende
omroep
omrop
omschreven
omsloten
omstaandigheden
omstreken
omtrekken
omvang
omvat
omvatte
omvatten
on
onafankelik
onaofhankelikheid
onbekend
onbekende
onbeleefd
onbepoalden
onbevlekte
onbewoond
onbewoonde
onbruuk
once
ondaanks
ondanks
onde
onder
onderan
onderbanken
onderbokse
onderdail
onderdak
onderdeel
onderdelen
onderdiel
onderdukers
ondergang
ondergaon
ondergoan
ondergrond
ondergrondse
onderhaandelen
onderhaandelingen
onderhandelingen
onderho
onderhold
onderholden
onderkaante
onderklasse
onderkommen
onderkwartaaiern
onderling
onderlinge
ondermeer
ondernemer
onderorde
onderricht
onderschaaid
onderschaaiden
onderscheid
onderscheiden
onderscheidt
onderscheien
onderskeid
onderskeidt
ondersoorte
ondersoorten
onderstaonde
onderste
ondersteunen
ondersteuning
onderstoande
ondertekend
ondertekening
ondertitel
ondertussen
onderverdaild
onderverdeeld
onderverdeling
onderverdield
onderwaarp
onderwaarpen
onderwarp
onderwarpen
onderweg
onderwereld
onderwezen
onderwies
onderwiezer
onderwiezeres
onderwiezers
onderwijs
onderzeuk
onderzeuken
onderzeuker
onderzeukers
onderzo
onderzocht
onderzoek
onderzuik
onderzuken
onderzuker
onderzukers
onderzuuk
ondiep
ondiepe
ondudelik
one
oneindig
oneindige
ong
ongeletterdheid
ongeliek
ongelok
ongeluk
onger
ongerzoek
ongevaer
ongevear
ongeveer
ongewoon
onkel
onlaand
online
only
onmeugelik
onmeundig
onmeundige
onmeundigen
onmeunig
onmisboar
onna
onnen
onner
onneudig
onno
ono
onofficie
onofhaankelijke
onofhaankelik
onofhaankelike
onofhaankelikheaid
onofhaankelikheid
onofhaankelikhied
onofhankelijk
onofhankelijkheid
onofhankelijkheidsdag
onofhankelike
onomatopee
onontgonnen
onrechte
onro
ons
onstaon
onsteet
onsteund
onstoan
onstwedde
onswedde
ontario
ontbrek
ontbreken
ontbrekt
ontbunnen
ontdek
ontdekken
ontdekker
ontdekking
ontdekkingsreizen
ontdekkingsreiziger
ontdekt
ontdekte
ontdekten
onterecht
ontginnen
ontginning
ontginnings
ontgonnen
onthuld
ontkenning
ontkommen
ontleend
ontliend
ontplof
ontploffing
ontruumd
ontslag
ontslagen
ontsnapt
ontspanning
ontspringen
ontspringt
ontsta
ontstaait
ontstaan
ontstaon
ontstaone
ontstaot
ontsteet
ontsteund
ontstiet
ontsto
ontstoan
ontstoand
ontstoanden
ontstoane
ontstoat
ontston
ontstond
ontstonden
ontstong
ontstonnen
ontstund
ontstunden
ontstung
ontvangen
ontvangenis
ontvanger
ontvangt
ontving
ontvo
ontvung
ontwarp
ontwarpen
ontwarper
ontwikkeld
ontwikkelde
ontwikkelden
ontwikkelen
ontwikkeling
ontwikkelingen
ontwikkelings
ontwikkeln
ontwikkelt
ontwo
ontwoarp
ontworpen
ontzet
onweer
onwies
onychoprion
onze
onzen
onzevaoder
onziedig
onziedige
onzin
oo
oog
oogeveine
oogn
oognblik
oogne
oogpeunt
oogst
oogsten
oogstmaond
ooi
ooievaar
ooit
ook
oold
oolde
ooldehaske
ooldehoorn
ooldemark
oolden
ooldendo
ooldengels
ooldeouwer
oolder
ooldere
oolderen
oolders
ooldeschoot
ooldetriene
ooldfries
ooldheaid
ooldheaidkeunde
ooldheid
ooldhoogduuts
ooldn
ooldnoords
ooldnoors
ooldsassies
ooldsher
ooldste
oole
oom
oome
oonder
oonderdeel
oonderdeeln
oonderdoann
oondergroond
oonderling
oondernemmer
oonderskeaid
oonderskeid
oondersoortn
oondersto
oonderverdeeld
oonderwiel
oonderwies
oonderwoarp
oonderwoarpn
oonderzeuk
oonderzeuker
oonderzoch
oonderzocht
oons
oontdekt
oontvangers
oontvo
oontwikkeld
oontwikkeling
oonze
oonzen
oop
oor
oord
oordeyl
oorgermaansk
oorkonde
oorkondes
oorleuge
oorlog
oorlogen
oorlogse
oorlogsschippen
oorlogstied
oorn
oorspro
oorsprong
oorspronkelijk
oorspronkelijke
oorspronkelik
oorspronkelike
oorspronkelk
oorspronkelke
oorsproonk
oorsproonkelik
oorsproonkelike
oorspru
oorsprung
oorsprungelik
oorsprungelike
oorsprunglik
oort
oorzaak
oorzake
oorzaken
oos
oost
oostblok
oosteinde
oostelek
oosteleke
oosteleken
oostelijk
oostelijke
oostelik
oostelike
oostelk
oostelke
oosten
oostenbrink
oostende
oostendorp
oostenriek
oostenriekers
oostenrieks
oostenriekse
oostenrieksen
ooster
oosterbos
oosterd
oosterenk
oostergo
oostergreanze
oosterhof
oosterholt
oosterhout
oosterhuis
oosterhuzen
oosteringh
oosterleankte
oosterolt
oosterriek
oosters
oosterse
oosterskellings
oosterveen
oosterveld
oosterwiek
oosterwolde
oosterwoolde
oosterzee
oostfaalsk
oostfalen
oostfeels
oostfrais
oostfraise
oostfraislaand
oostfraizen
oostfreeske
oostfreisk
oostfreiske
oostfreisland
oostfries
oostfriese
oostfrieslaand
oostindische
oosting
oostkaant
oostkaante
oostkante
oostkust
oostlaauwers
oostn
oostnederland
oostnederlands
oostnederlandse
oostnriek
oostnriekse
ooststellingwarf
ooststellingwarfse
ooststellingwerf
oostvaardersplassen
oostveluwe
oostvoorne
oostwo
oostzaan
oostzee
oostzeegebied
oostziede
oou
oouwk
oover
op
opa
opan
opbouw
opbouwd
opbouwen
opbrengst
opdaild
opdeeld
opdeling
opdield
opdrach
opdracht
opdrachten
ope
opebouwd
opedield
opegruid
opeheven
open
openbaar
openbaor
openbaore
openbare
openboar
openboare
opend
openen
opener
openeumen
opening
openlochtmuseum
openlochttheater
openluchtmuseum
opent
opera
operasie
operation
operette
opericht
operichte
operoatsie
opeten
opevoerd
opevolgd
opezet
opgaon
opgoan
opgravingen
opgravings
opgruid
ophaalbrugge
ophef
opheffen
opheffing
opheven
opholden
opknapt
opko
opkommen
opkommende
opkoms
opkomst
opkwaamp
oplage
opleawert
opleawing
opleiding
opleving
oplo
oplopen
oplossing
opmaken
opmarkelijk
opmarkingen
opmars
opmeer
opname
opnames
opnaome
opnaomes
opnemen
opnemn
opneumen
opni
opniej
opnieuw
opnij
opno
opnoame
opnoames
opnomen
opoe
oppe
oppen
opper
opperbevelhebber
oppergod
oppervlaakte
oppervlak
oppervlakte
oppidum
opreur
opricht
oprichte
oprichten
oprichter
oprichters
oprichting
oprit
oproop
oprukkende
opschreven
opschrift
opslag
opsmuk
opsplitsing
opstaand
opstaandelingen
opstaanden
opstaandige
opstaandigen
opstalboom
opstand
opstandelingen
opstanding
opstel
opsteld
opstellen
opsterlaand
optiek
optimaal
optocht
optochtn
optreaden
optreadens
optreadn
optreadns
optreden
optredens
optreedn
optreedns
optrejen
opus
opvalend
opvalende
opvallend
opvallende
opvatting
opvattingen
opvattings
opvoeding
opvolgen
opvolger
opvolgers
opvolging
opweg
opzet
opzetten
opzeuken
opzicht
opzichte
opzichten
opzied
or
ora
orale
orange
orania
oranje
oranjebitter
oranjen
oranjes
oranjewoold
orbais
orchestra
orchidee
orchis
orde
ordening
order
orders
ore
oregon
oren
org
orgaan
organen
organiese
organisaosie
organisaotie
organisasie
organisasies
organisatie
organisaties
organisation
organisaty
organisatys
organiseerd
organiseerde
organiseerden
organiseern
organiseert
organiseren
organisierd
organismen
organismes
organisoatsie
organisoatsies
organist
organization
orgel
orgenisaosie
orgenisaoties
orgenisasie
orgenist
orie
origin
original
origineel
originele
oring
orka
orkaan
orkest
orkestn
orkney
orle
orleans
ornithogalum
oromo
orthodox
orthodoxe
orthodoxen
orthogroafie
ortodokse
ortografy
os
osaka
oscar
oseaan
oseanie
osen
oseoan
osiris
oskert
oslo
osnabru
osning
oss
ossel
ossemart
ossenbrogge
ossenbrugge
ossenziel
ost
ostara
oste
ostfriesland
ostrogoten
ot
other
otten
otter
otterlo
otters
ottink
otto
ottomaanse
ottomanen
ou
oud
oude
oudere
ouderwets
oudheid
oudheidkamer
oudheidkundige
oudleusen
oudsaksisch
oudsher
oudste
ouge
ougen
ougenblik
ougst
ouk
ounce
our
ouren
oust
oustafrika
oustelik
oustelike
ousten
oustenryk
ousteuropa
oustfa
oustfreesk
oustfreesland
oustkante
oustku
oustpommersk
oustsey
out
outre
ouver
ouwe
ouwer
ouwerdom
ouwere
ouwers
ouwerwets
ouwerwetse
ouwster
ov
ovale
oveine
oven
ovend
over
overaal
overain
overainkomst
overal
overbetuwe
overbleven
overbliefsel
overbliefsels
overblievende
overbrocht
overdag
overdroagen
overebleven
overeen
overeenkoms
overeenkomsten
overene
overeneumen
overflakkee
overg
overgang
overgaon
overge
overgong
overgrote
overhaid
overheden
overheid
overhied
overiene
overienkomst
overienkomsten
overiesel
overiessel
overiessels
overiesselse
overig
overige
overigens
overijssel
overijssels
overijsselsche
overijsselse
overisel
overkoepelende
overleden
overleed
overleefd
overleven
overleverd
overlevering
overlieden
overneumen
overnomen
overs
oversticht
overtoon
overvloed
overwegend
overwienteren
overwinnen
overwinning
overzeas
overzeese
overzicht
overzichte
ovis
ovver
ovverheden
ovverheid
ovverlead
ovverni
ovverwinning
ovverwinningen
ow
owen
oxford
oxycoccus
oy
ozeoan
p
pa
paais
paand
paaps
paar
paard
paark
paart
pablo
pabo
pacht
pad
padde
paddenvanger
padua
paer
paerd
pag
page
pagina
pagode
pagus
pai
pak
pake
pakistan
pakkeden
pakken
pakket
pakn
pakt
pakte
pal
palace
palazzo
paleis
paleizen
paleontoloog
palermo
palestiense
palestina
pali
pallandt
palm
palma
palmatum
palthe
palthebos
palthehof
palts
palustris
pampus
pan
panama
pancras
pand
pandeiro
panden
pandheer
panhandle
pankouk
panne
pannerden
pannerdens
panorama
paolo
paor
paorel
paors
paorse
paosdag
paosen
paosken
paosloo
pap
papa
papegaai
papiaments
papier
papieren
papierindustrie
papiermo
papoea
papua
papyr
par
para
parade
paradies
paradise
paradox
paraguay
parallel
paramount
parana
pardo
parel
paries
parijs
paris
parish
parishes
park
parkeerplaatse
parken
parker
parks
parkstad
parlemeant
parlement
parlementaere
parma
parochie
parochiekarke
parochiekoarke
parochies
parodie
parool
parre
parreplu
pars
part
partai
partement
parten
parthenope
parti
particulier
partie
partieje
partiejen
partiejn
partij
partijen
partikel
partikulier
partikuliere
partizanen
partners
partnerstad
party
partye
partyen
parus
parys
parzische
pas
pascal
pasden
pasgeboren
pashoolder
pasn
paspoort
passage
passe
passen
passend
passeren
passie
passief
passieve
passiva
past
pasta
pastoor
pastor
pastorie
pastory
pat
patat
pateant
patent
pater
patie
patricia
patrick
patriotten
patronen
patroon
patterns
pattie
patwa
paul
paulo
paulowna
paulus
paus
pauw
pauwen
paxman
pays
pc
pce
pcr
pdf
pdt
pe
peace
peak
peard
pearde
peardeko
pebliek
peblieke
pebliekspries
pec
pechtold
pedaal
pedaaln
pedagoog
pedro
peel
peer
peerd
peerde
peerden
peerdesport
peil
pein
pekel
peking
pel
peleis
pelgrims
pelle
pellen
pelmo
pen
pendula
penis
penn
penne
pennevoegels
pennevogel
penning
penns
pennsylvania
pennsylvanie
pens
pensioen
pensionering
penstilstand
people
peoples
peper
peperbus
peperge
peperneuten
pepier
pepieren
pepijn
peppel
pepper
per
perasie
perbeerden
perbeert
perberen
perbleem
perblemen
perbusse
percelen
percent
percentage
percentages
perces
percessen
percies
percy
perdok
pereboom
peren
perfekt
perfekte
perfesser
perfester
performance
pergramme
periode
perioden
periodes
periodieke
periodieken
permanent
permanente
perochie
perron
perry
pers
perseant
persen
persent
persentazie
persepolis
perses
perseunlik
perseunlike
persie
persiske
persisken
perso
person
personage
personages
personeel
personele
personen
personenvervoor
persoon
persoonlek
persoonleke
persoonlijk
persoonlijke
persoonlik
persoonlike
persoonn
persoonsvo
perspectief
perspective
persvrieheaid
pertaol
pertie
peru
perveensiaole
perveensie
perveensies
pervi
pervinciaole
pervincie
pervincies
pervinsie
pervinzie
perzen
perzie
perziese
perzische
pes
peseta
pesisie
peso
pest
pet
peter
peters
petersborg
petersburg
petisie
petra
petret
petrieze
petro
petrus
pette
petten
peule
peuling
peunt
peunte
peunten
peuntn
peute
peutinger
pez
pezen
pg
ph
philadelphia
phileon
philip
philipp
philippe
philips
philo
philome
philomelos
philosophy
phoenix
phonemics
php
pi
pianist
pianisten
piano
pianospo
picardisch
pico
picten
picture
pictures
pidgin
pie
piek
piel
pieleboge
pien
pienakker
piene
piep
piepe
piepen
pieper
pier
piercing
piere
pierik
piern
pierre
pierweijer
piet
pieter
pietro
pigmeant
pik
pikken
pils
pim
pingorui
pingui
pink
pinkpop
pinkster
pinksterblom
pinne
pinyin
pioniers
piraat
piraatn
piramide
piramides
pirate
piraten
pirk
pis
pisa
pispo
pispot
pissen
pit
piton
pitstop
pitstra
pitte
pitten
pius
pizza
pke
pken
pkes
pkn
pl
pla
plaank
plaanke
plaanken
plaant
plaante
plaanten
plaantesoorten
plaantjen
plaantn
plaase
plaat
plaate
plaatje
plaatjen
plaatjes
plaatn
plaats
plaatse
plaatselek
plaatseleke
plaatseleken
plaatselijk
plaatselijke
plaatselik
plaatselike
plaatsen
plaatsengids
plaatsing
plaatsn
plaatsnaam
plaatsname
plaatsnamen
plaatst
plaatste
plaatsten
place
plaese
plaetse
plaetselik
plaetselike
plaetsen
plaetsien
plaetsken
plafond
plaggen
plains
plak
plakke
plakken
plakkien
plakkoeke
plakn
plaknaemandudings
plaknaembodden
plaknaemen
plaknoamen
plakt
plakvunnen
plan
planeet
planet
planeten
planke
planken
plann
plannen
planning
plant
plantage
plantages
plantago
plante
planteaters
planten
planteneaters
plantensoorten
plaos
plaose
plaoselijk
plaosen
plaot
plaote
plaoten
plaotien
plaots
plaotse
plaotselik
plaotselike
plaotsen
plaotsjen
plaotsnaam
plaotsnamen
plas
plase
plasen
plassen
plastic
plastik
plat
plataan
platanoides
platduuts
platduutse
platduutske
plate
plateau
platen
platform
platforms
platina
platn
plato
platskriewer
platt
plattdeutsch
plattdeutsche
plattdeutschen
plattdeutsches
plattdu
platte
plattegroond
plattelaand
platteland
plattmakers
plattproater
plautdietsch
play
pleanks
plearn
pleatsken
pleegde
pleern
plein
pleistoceen
pleit
plek
plekke
plekken
plekkenpol
plekn
plektrum
pleneet
plenter
pleseer
plestiek
plezeer
plicht
plichten
plietsie
plietsiepetten
plinius
plo
ploaten
ploatjes
ploats
ploatse
ploatsen
ploatske
ploatsnoam
ploatsnoambred
ploatsnoamen
ploatst
ploeg
plofklaank
plofklaanken
ploge
ploog
ploug
plu
plukken
plunderd
plunderden
plunderende
plus
plusregio
plusstrook
pluto
plym
plymouth
pm
pmid
pn
po
poal
poaltje
poar
poasen
poask
poaske
poaskearls
poasken
poasvuur
poaters
podagristen
podcast
podcasts
podgorica
podia
podium
podiums
podszun
poe
poeder
poederoijen
poems
poep
poepe
poepen
poers
poes
poetin
poetry
pogge
poging
pogingen
pogings
point
pointe
poker
pokkel
pol
polder
poldermo
poldernederlaands
poldernederlands
polders
pole
polen
poletiek
poletieke
police
policy
politeek
politica
political
politici
politics
politicus
politie
politiek
politieke
politieken
politieker
politiekvrouwe
politik
politika
politike
politiker
politikman
politikus
politsie
polity
polityk
polka
poll
polle
pollepel
pollitieke
polo
polska
polycarpus
polygonatum
polynesie
polypodium
pomerana
pomerano
pommeren
pommern
pomp
pompe
pompebloader
pompeii
pompen
pompsters
pona
pond
pont
ponta
pony
pook
pool
poolder
pooln
pools
poolse
poolsk
poolske
poond
poort
poorte
poorten
poortman
poot
pop
popelair
popfestival
popgro
popgroep
popko
popkultuur
popmeziek
popmusik
popmuziek
popping
popula
populaer
populaere
populair
populairder
populaire
populariteit
population
populatioon
populatsjoon
popule
populear
populeare
populeer
populoasie
popzangeres
porselein
port
porta
portal
portefeuille
porto
portrait
portret
portugal
portugees
portugeesk
portugeeske
portugeesken
portugeezn
portugese
portugesen
portugeysk
portugeyske
portugeysken
portugezen
pos
posisie
positie
positief
positieve
position
positions
positiv
positive
positsie
positsy
posity
post
postbridge
postkantoor
postkode
postuum
pot
poten
pothook
potje
potjen
potlood
potstal
potten
potter
potterwold
pottien
poverty
power
poze
poznan
pp
ppe
ppel
ppelerdiep
ppelhaene
ppelken
ppelkes
ppels
ppelt
ppen
pper
ppervlak
ppervlakte
ppervlokte
ppingen
pr
pra
praag
prachtig
prachtige
praetorium
prairie
praisen
praissen
praktiek
praktiese
praktijk
praktisch
praktische
praot
praoten
praotende
praoties
praotte
praotten
prat
pre
preake
prebeerden
prebeert
preberen
prebleem
preblemen
preces
precies
precieze
precys
precyse
predikaant
predikant
predukken
preens
preensesse
preesters
prefektuur
prefix
pregramma
prehistorie
prehistoriese
prehistorische
preject
preken
premie
premier
prenten
present
presentasie
presentator
presentatrice
presenteerd
presenteerden
presenteert
presenteren
presidaent
presideant
presideantsverkiezingen
president
presidenten
presidentia
presidential
presies
presley
press
prestige
prestigieuze
pretoria
pretpark
preut
preuten
preuven
previ
previnciaole
previncie
previncies
previnsiale
previnsie
previnsien
previnsies
prezenteerd
pri
pries
priester
priesters
prieze
priezen
priezengeld
priezn
prijs
prikkels
prima
primitieve
primitive
primitiven
primitivisme
prince
princetown
principe
principes
principia
prins
prinsbisdom
prinsdom
prinse
prinsekamp
prinsen
prinses
prinsesse
prior
prisedeant
prisma
prissedent
prissedentsverkiezingen
prissentator
prissenteerd
prissenteerde
prissenteert
prissenteren
prithviraj
private
prive
prix
pro
proat
proaten
proatn
probeerd
probeerden
probeerdn
probeern
probeert
probereden
proberen
proberet
probierden
probleem
probleemn
problemen
probleym
probleymen
proceedings
procent
proces
process
processen
produceerd
produceerde
produceert
producent
producer
produceren
product
producten
productie
produkseerd
produksie
produkt
produkte
produkten
produktie
produkty
proefschrift
proefskrift
proeme
proeve
proezen
prof
profeet
profesjoneel
professioneel
professionele
professor
profeten
profiel
profil
program
programma
programmamaker
progress
project
projecten
projekt
projekten
promoten
promoveerde
promoveerden
pronk
pronkjewail
pronkkamer
pronunciation
prooi
prooien
proost
proot
propaganda
proppe
proses
prosessen
protest
protestaans
protestaanse
protestaanten
protestaantisme
protestaantn
protestaants
protestaantse
protestanse
protestanten
protestantisme
protestants
protestantse
protestantske
protesten
proto
protokol
protte
prottestanten
prottestantse
prottestantsen
prove
proveensie
proveensies
proveensjale
proverbs
provi
providence
provinciale
provinciaole
provincie
provincies
provincy
provincys
provins
provinsiale
provinsiaole
provinsie
provinsien
provinsies
provinsy
provinsys
provinzie
provinzjoale
proza
pru
prunus
prusen
prusies
prusiese
prusische
pruus
pruusen
pruusies
prys
prysen
ps
psalmen
pseudoniem
pskov
pslag
pslage
psoriasis
psv
psychologie
psycholoog
pt
ptolemaeus
pu
public
publicaoties
publicatie
publicaties
publiceerd
publiceerde
publiceerden
publiceert
publiceren
publicist
publiek
publieke
publieken
publieksrapportage
publik
publikaosie
publikasies
publike
publique
publishing
publius
pude
puerto
pullepetaoter
pumpen
punda
punk
punt
punte
punten
punters
punthorst
puntige
pupe
pure
purmer
purmerend
purpurea
pusiole
put
pute
putke
putte
putten
putters
putterse
puun
puur
puut
puutje
pvda
pvv
pwo
pygoscelis
pyongyang
pyramid
pyramide
pyreneee
q
qadhafi
qaida
qatar
qu
qua
quakers
quang
quartet
quatre
que
quebec
quedam
queen
queens
queensland
quercus
questions
qui
quick
quickborn
quid
quod
quote
r
ra
raad
raai
raaize
raak
raakn
raakt
raakte
raakten
raalte
raam
raand
raanden
raandmeren
raandstad
raar
raauwe
rabeling
rabobaanke
rabobank
race
racen
raceoaverwinningen
races
racing
racisme
racistiske
rad
radboud
raden
radewiens
radikale
radio
radiofreak
radiopregramma
radioprogramma
radiostasjon
radiostasjons
radiostations
radiozender
raegelmoatig
raegen
raekt
raekte
raekten
raesfelt
raf
rafael
rafga
rage
ragnaro
ragusa
raiderlaand
raiderlaands
raila
rain
rainbow
raise
raises
raitdaip
rak
rakeden
raken
rakers
raket
ral
ralph
ram
ramen
ramp
rampjaor
rampjoar
ramses
ran
rand
randstad
rang
ranking
ransta
ranunculus
raod
raodhuus
raokte
raol
raolte
raom
raoze
rap
rappe
rappen
rapper
rappers
rapport
raps
rarchie
rare
ras
rasse
rassen
rasta
rastafarianisme
rather
ratio
rationalist
ratum
rature
ratzinger
rauw
rauwe
rave
raveliene
ravelienen
raven
ravenna
ravenstein
ray
raymond
razzia
rba
rbeald
rbealden
rbeskarming
rbeyld
rbi
rbinnen
rby
rcht
rd
rdan
rdat
rdde
rdden
rde
rdebo
rdebook
rded
rdel
rden
rdende
rder
rdere
rderen
rdering
rderlaand
rders
rdet
rdeyl
rdeylen
rdig
rdige
rdinaoten
rding
rdn
rdo
rdoba
rdt
rdva
re
reactie
reacties
readen
readenen
readme
readshop
reagan
reageert
reagel
reagelma
reagelmoatig
reagels
reagelt
reagen
reagent
reagenwoold
reagn
reagnt
reaize
reaizet
reakend
reakening
reaksie
reaksies
reaktie
reakty
real
realisme
realiteit
reality
really
rebellen
rebels
recensent
recente
recept
rech
rechen
recht
rechtbank
rechtdag
rechte
rechten
rechter
rechteren
rechterhaand
rechterover
rechters
rechtervoort
rechtevoord
rechtevoort
rechtevoortse
rechtn
rechtop
rechtopstaonde
rechts
rechtsbeuke
rechtsbook
rechtsgebeed
rechtsgebied
rechtsgeleerden
rechtshaandig
rechtshaandige
rechtshov
rechtspraoke
rechtsproak
rechtsproake
rechtstreaks
rechtstreeks
rechtstreekse
rechtstreyks
rechtstreykse
rechtupga
recklinghausen
reclame
reco
recognition
record
records
recreatie
rector
red
redacteur
redacteurs
redactie
redaksie
redakteur
redaktie
redden
rede
redelik
redelk
reden
redenen
redeneren
redens
reder
rederi
redt
ree
reed
reedn
reeds
reee
reeks
reem
reemst
reenk
reenkbas
reenkbasn
reep
rees
reest
reestdal
reet
reetmo
referendum
reformasie
reformatie
reformaty
reformed
refrein
reg
regeard
regearen
regearige
regearing
regearings
regearn
regeerd
regeerde
regeerden
regeern
regeernsvo
regel
regeld
regelden
regelen
regeling
regelingen
regelma
regelmaotig
regelmaotige
regelmoateg
regelmoatig
regeln
regels
regelt
regen
regenen
regent
regenten
regentes
regenwold
regenwolden
regeren
regerende
regerige
regering
regeyring
reggae
reggaeband
reggaeza
regge
regia
regie
regiering
regierungsbezirk
regierungsbezirke
regime
regio
regiolect
regiolekt
regionaal
regional
regionale
regionalgeschichte
regionalist
regionalistische
regionaol
regionaole
regionen
regionoal
regionoale
regioo
regioon
regioonn
regios
regiosoap
regiosoaps
regisseur
register
registers
registreerd
registreerde
reglement
regni
rei
reich
reid
reiderlaand
reiderlaands
reiderland
reiger
reigers
reijntjes
reikam
reims
rein
reinald
reinder
reiner
reinhard
reinier
reinke
reinoud
reis
reisde
reisden
reise
reisen
reist
reisverhalen
reize
reizen
reizigers
rek
reken
rekend
rekenen
rekening
rekent
reker
rekkelhoezn
rekken
rekkend
rekkenen
rekkening
rekkent
reklame
rekn
reknd
reknt
rekord
rekords
rekreasie
rekt
rektum
rel
relaosie
relasie
relatie
relatief
relativ
relatives
reld
relie
religie
religies
religieus
religieuze
religio
religion
religious
religy
religys
rellatief
rellen
reloatief
reloatsie
rembrandt
remkes
remmen
remmers
remo
remonstranten
remonstrantse
ren
renaissance
renaissancestiel
renate
renault
rend
rende
renderklippen
rene
renkum
renlange
renoveerd
renther
rentmeister
repertoire
repertorium
repgow
report
reppebliek
reppubliek
representative
reprint
repro
reptielen
reptieln
repu
republeek
republic
republiek
republik
republika
republikeinse
republyk
request
requiem
rer
reren
res
research
resept
reservaten
reserve
resistance
resolusie
resort
resp
respect
respectievelijk
respekt
respektievelik
respektivelik
rest
restanten
restaurant
restaurants
restaurasie
restauratie
restaureerd
restaureren
restaurierd
reste
resten
resulta
resultaat
resultaot
resultaoten
resulterende
resultoat
ret
reto
retoromaansk
reu
reuk
reumeroog
reumers
reums
reumse
reunion
reup
reupen
reur
reuren
reuriezer
reurle
reurmond
reus
reuskes
reuter
reuters
reuzen
reuzenclaim
reuzn
revier
revierdunen
reviere
revieren
revierke
reviertien
reviertjen
review
revolusie
revolutie
revolutionair
revolutsie
revoluty
revue
revues
revueskriewer
rey
reygen
reykjavi
reykjavik
rez
rezen
rezens
rezienen
rf
rfdfb
rfondou
rfoss
rg
rga
rgang
rgd
rgde
rgden
rge
rgeaven
rgeden
rgel
rgels
rgelspo
rgemeaister
rgemeester
rgemeister
rgemeisters
rgen
rgens
rger
rgeri
rgerleu
rgerlijke
rgermeister
rgeroorlog
rgers
rget
rging
rgingsplaats
rgingsplaatse
rgmeester
rgs
rgse
rgsk
rgske
rgt
rgte
rhaan
rhain
rhainlaand
rheden
rheebruggen
rheid
rhein
rheine
rhen
rhenen
rheyd
rhienderen
rhino
rho
rhode
rhodesie
rhododendron
rhodos
rhunderd
rhythm
ri
ria
ribben
ribbers
ribes
ric
ricciardo
rich
richard
richards
richen
richet
richt
richtden
richte
richteden
richten
richter
richterambt
richtet
richtige
richting
richtinge
richtingen
richtlijn
richtn
richtte
richtten
rico
rid
ridder
ridderbos
ridderleger
ridderleke
ridderorde
ridders
ridderschap
ridderschop
ridderskop
ridderslag
ridt
rie
riebewies
ried
riedel
rieden
rieder
rieders
riedt
rieg
riege
riegel
riegelmaotig
riegels
riegen
rieges
riejen
riejstroken
riek
riekdom
rieke
rieken
rieker
riekere
riekn
rieks
rieksakademie
rieksdag
rieksdienst
rieksmonument
rieksmonumenten
rieksmuseum
rieksstad
riekste
rieksuniversiteit
riekswaterstoat
rieksweg
riem
riemen
riempien
riempies
riemsdijk
riemsels
rien
rienlaand
rienlaandse
riep
riepe
riepen
riepse
riepsen
riept
ries
riesbees
riesbessem
riesel
riesewijk
riesn
riesnders
riesns
riesnse
riessen
riessender
riessenderboarg
riessenders
riessens
riessense
riessensen
riest
riestdal
rieste
riestenlaand
rieswiek
riet
rietdaip
riete
rietman
rieverst
rif
rifferendum
riffermaotie
riffermasie
rig
riga
rige
rigen
right
rihanna
rijden
rijk
rijke
rijkswegennet
rijn
rijnbark
rijnwaarden
rijssen
rik
rilke
rilletief
rilligie
rilligieuze
rin
ring
ringdiek
ringe
ringen
ringmure
rings
rink
rinus
rio
rippebliek
ripuarisch
ris
rise
risico
risiko
risseltaot
rit
rita
ritme
ritmes
ritmiese
rito
ritsebuul
ritueel
ritueeln
rituelen
riva
rivalen
riveer
rivella
river
rivier
riviere
rivieren
rivierenland
rivierken
riviern
rivm
rivyr
rivyren
rj
rja
rk
rke
rkem
rken
rkens
rko
rkomers
rkommen
rkomnij
rks
rkse
rksk
rkske
rksken
rkt
rkte
rku
rkum
rkummen
rkummende
rkye
rkyken
rlik
rlike
rliks
rlikse
rlo
rlouper
rloupers
rm
rma
rman
rmd
rmde
rmden
rme
rmead
rmed
rmege
rmen
rmer
rmere
rmet
rmgever
rmig
rmige
rmigen
rming
rmingen
rmingsbeweging
rmn
rmoale
rmode
rmp
rms
rmt
rmungandr
rn
rna
rnaam
rnaamste
rname
rnamelik
rne
rno
rns
ro
road
roadhoes
roadhuus
roadsleden
roadslid
roaken
roakt
roalte
roaver
rob
robaais
robaord
robert
roberts
robin
robinson
robot
roc
rock
rockband
rockers
rockgroep
rockmuziek
rocks
rocksteady
rocky
rococo
roda
rode
roden
rodney
rodos
rodrigues
roe
roeaan
roebel
roeg
roege
roegweg
roel
roelfe
roelof
roem
roemeens
roemeense
roemenie
roemer
roemere
roemte
roend
roende
roep
roepe
roepen
roepn
roept
roer
roerdalen
roerdompe
roergebeed
roerink
roermond
roes
roessingh
roest
roet
roete
roeten
roetenvene
roeve
roew
roewe
roewn
roewweg
rof
roger
rogge
roggebrood
roggemoder
roggen
rogliefen
rohel
rok
roken
rokoko
rol
roland
rolden
rolder
rolders
roll
rolle
rollecate
rollechies
rollen
rolling
rolof
rolt
rom
roma
romaans
romaanse
romaansen
romaanske
roman
romani
romans
romanschriefster
romanschriever
romantiek
romantiese
romantik
romantisch
romantische
romantiske
romaonse
rombom
rome
romein
romeinen
romeinn
romeins
romeinse
romeinsen
romeinske
romeinsken
rommel
rommelpot
romp
ron
ronald
rond
ronde
ronden
ronder
rondes
rondgang
rondje
rondlopen
rondom
rondomme
rondte
rondum
rondumme
ronduute
rondweg
ronnie
rono
ronymus
rood
roofdeers
roofdieren
rooie
rook
rookt
roolfs
room
roombekke
rooms
roomse
roomsen
roomsk
roomske
roomsken
roon
roond
roonde
roondum
roondumme
roop
roos
rooseboom
roosevelt
root
roots
rop
ropen
roppen
ros
rosa
rosberg
rose
roses
roskam
roskilde
ross
rossum
rostock
roswinkel
rot
rots
rotsachtig
rotsachtige
rotsen
rotsterhaule
rotte
rotten
rotterdam
rotterdamse
rottige
rottum
roubaix
roud
roude
rouden
rouen
rouge
rouke
roumsk
round
roupen
rousseau
route
routledge
rouw
rovers
roversverhaal
rowwen
roy
royal
royale
roza
roze
rozeboom
rozen
rozendaal
rozendom
rozet
rozinen
rp
rpe
rpen
rpie
rpien
rpies
rpke
rpken
rpkes
rpm
rpn
rps
rpsfeest
rpshuus
rpskarke
rpskern
rpskn
rpy
rr
rra
rre
rrel
rrels
rren
rreng
rs
rsa
rse
rsegster
rsens
rshavn
rsie
rsitter
rsk
rske
rsken
rskes
rskynlik
rsneyde
rspel
rsprong
rsprung
rst
rsta
rste
rsteades
rstel
rstellen
rstellingen
rsten
rstendom
rstendommen
rsting
rstman
rt
rtbi
rtbij
rtby
rte
rted
rtel
rtelling
rtels
rtement
rten
rtenisse
rtenissen
rter
rterbuch
rtere
rtewa
rtieste
rting
rtius
rtjen
rtl
rtn
rts
rtskap
rtst
rtste
rtsten
rtt
rttemberg
rtv
rtweg
ru
rubber
ruben
rubens
rubriek
rubus
rudiments
rudolf
rudolph
rudy
rug
rugbie
rugby
rugge
rui
ruil
ruimte
ruine
ruiten
ruitenveen
ruken
rulle
rullen
rum
rume
rumen
rumme
rummen
rumon
run
rund
runde
runden
runder
rundu
rundum
rundumme
rune
runen
runerwold
runes
runeskrift
runesteynder
runt
rup
rupee
rupvolgende
rur
rus
ruslaand
rusland
rusn
russell
russen
russies
russiese
russiesen
russisch
russische
russisk
russiske
rust
rusten
rustig
rustige
rute
ruten
ruter
ruters
rutger
rutgers
ruth
rutte
ruud
ruul
ruum
ruumte
ruumtes
ruut
ruuters
ruutsoort
ruw
ruwe
ruwweg
ruyter
rv
rvan
rve
rvearing
rven
rvene
rveur
rvo
rvoogsel
rwanda
rwarp
rwarpen
ry
ryan
ryden
ryder
ryge
rygel
ryk
rykdom
ryke
ryken
rykste
ryksuniversiteit
rym
rymskema
ryn
rynland
ryssen
ryssenders
ryssensk
ryssenske
rzie
rzn
rður
rømø
s
sa
saale
saalien
saam
saamn
saamngoan
saamnleawing
saamntrekking
saamnwoarking
saarlaand
saba
sabbat
sabine
sacha
sachsen
sacht
sachte
sacrum
saddam
saed
saemen
saemenleving
saemenstelling
saemenvoegd
saemenwarking
safety
sag
saga
sage
sagen
sages
saggen
sahara
sahel
sai
said
saint
sainte
sake
saken
sakrement
saks
saksen
saksenland
saksenoorlogen
saksenspegel
saksies
saksiese
saksiesen
saksisch
saksische
saksofoon
sal
salamanders
saldaoten
salemonszegel
sales
salische
salix
sallaand
sallaands
sallaandse
sallaans
sallaanse
salland
sallands
sallandse
sallandsk
sallandske
salm
salomo
salomon
salon
salsa
salt
salvador
salzburg
sam
samba
sambaskooln
same
samen
samenesteld
samenestelde
samenevoogd
samenga
samengaon
samengoan
samenhang
samenhangend
samenlaeving
samenleaving
samenleawing
samenleving
samensteller
samenstelling
samenstellingen
samenstellings
samentrekking
samenvatting
samenvoeging
samenvoging
samenwa
samenwaarking
samenwarken
samenwarking
samenwarkingsregio
samenwarkingsverbaand
samenwarkingsverband
samenwoarking
samhain
samisch
samiske
samisken
sammen
samn
samoa
samsom
samsø
samtgemeinde
samuel
san
sand
sander
sanders
sandra
sang
sanger
sangeresse
sankt
sanne
sanquin
sanskriet
santa
santana
santiago
santo
sao
saoedi
saomen
sap
sapiens
sapmeer
sara
sarah
sarcasm
sardies
sardiese
sardinie
sarek
sark
sarkasme
sars
sas
sashimi
saskia
sasland
sasnoot
sass
sassen
sassenland
sassenpoorte
sassiese
sassisch
sassische
sassisk
sassiske
sassisken
sassoe
sat
satanisme
satellietfoto
satire
satirisch
satirische
sator
satten
saturnus
satz
sau
saudade
sauerla
saul
sauna
saunders
sauropoden
sauropodomorfen
saus
sauvagerd
savanne
savannes
save
sax
saxnot
saxo
saxofoon
saxofoons
saxon
saxophone
say
sba
sbs
sc
scan
scandinavie
scandinavisch
scandinavische
sce
scenario
sch
scha
schaa
schaaiden
schaaidt
schaans
schaansen
schaanze
schaap
schaarmen
schaarp
schaarpe
schaarpezeel
schaarpezeels
schaars
schaatsen
schabbink
schade
schaep
schaetser
schagen
schaiper
schakel
schakelen
schakelt
schale
schans
schao
schaode
schaoduw
schaol
schaole
schaop
schaopen
schaorten
schapen
scharm
scharmen
scharmer
scharp
scharpe
scharpenzeel
scharpezeel
scharsterlaand
scharve
scharven
scharwolde
schat
schatliester
schatting
schattingen
sche
scheemde
scheepje
scheepsjager
scheepsjagers
scheepvaort
scheer
scheerwolde
scheet
scheidde
scheidden
scheiden
scheiding
scheidt
scheien
scheikunde
scheikundige
scheit
schelde
scheldwoord
schelle
scheloo
schem
schema
schematische
schemer
schemering
schenk
schenken
schenking
schepen
schependom
schepenen
scheper
schepers
scheppen
schepper
schere
scheren
scheten
schetsen
scheuper
scheupers
scheut
scheuten
scheuvel
scheuvellopen
scheuvels
scheveningen
schewo
schie
schiedam
schient
schier
schiere
schiereilaand
schiermonnikoog
schiermonnikoogs
schierste
schiet
schieten
schik
schil
schild
schilder
schilderde
schilderen
schilderi
schilderie
schilderiejen
schilderij
schilderijen
schilderkunst
schildern
schilders
schildknoap
schimmel
schimmels
schink
schinke
schinken
schinnen
schinveld
schip
schipbeek
schiphol
schiphorst
schipke
schippen
schipper
schippers
schleswig
schleyer
schlo
schlu
schmidt
schneider
schnitger
schnittgard
scho
schoal
schoap
schoapen
schoe
schoel
schoele
schoelen
schoelname
schoeltied
schoemaker
schoen
schoenen
schoer
schoeren
schoeven
schof
schoklaand
schokland
scholder
scholders
schole
scholen
scholt
scholte
scholten
scholtmeijer
schone
schonen
schonk
schonken
school
schoon
schoonebeek
schoonheid
schoonhoven
schoonspringen
schoorsteen
schoot
schop
schopenhauer
schot
schoten
schoterlaand
schoterlaanse
schoterziel
schotholder
schotlaand
schots
schotse
schottel
schotten
schoul
schoulen
schout
schouten
schouw
schouwburg
schouwe
schouwen
schraoie
schreef
schreeuwen
schref
schrei
schreijer
schreurs
schreven
schrief
schriefster
schrieft
schrieftaal
schriefwedstried
schriefwies
schriefwieze
schriefwiezen
schriefwiezes
schrieven
schriever
schrieveri
schrieverij
schrieverije
schrievers
schrieversbond
schrieversbund
schrieverskring
schrieverskringen
schrieversname
schrieverspetret
schrieversronte
schrievwies
schrif
schrift
schriftelijke
schriftelike
schrifttaal
schrijft
schrijven
schrijver
schrik
schrikkeljaor
schrikkeljaoren
schrikken
schro
schryvwys
schu
schubert
schuddeldouk
schuld
schulden
schuldig
schulen
schulk
schumacher
schumann
schune
schunk
schup
schuppe
schure
schuster
schuten
schutsloot
schutter
schutteri
schutters
schuttige
schuulname
schuun
schuur
schuurman
schwa
science
sciences
scientific
scots
scott
scottish
scouts
scrofa
sd
sdap
sden
sdu
se
sea
sead
seade
seaden
seaewald
seagen
seaker
seakere
seale
sean
seanten
seantn
seattle
seaven
seavendes
sebastian
seconden
secret
secties
sector
secundaire
security
sedaone
see
seed
seekde
seekdes
seelaand
seelterfries
seelterfriezen
seelterlaand
seempel
seempele
seen
seend
seends
seent
seer
seet
seg
segd
seggae
seggen
segget
segswysen
segt
sei
seil
seind
seine
seins
seisonen
seisoon
seizoen
seizoenen
seke
seken
sekenhu
sekonde
sekonden
sekretoaris
seks
seksualiteit
seksueel
seksuele
sekte
sektor
sekunden
sekuur
sel
selassie
selden
sele
selected
selectie
seleksie
selfies
selfish
selfoss
seln
selskip
selterfrais
selterlaand
selv
selvbeskikking
selvbestu
selvs
selvstandig
selvstandige
selvstu
selwerd
sem
semba
semenkhare
semi
semitische
sempervivum
sen
senaat
senator
senators
send
senden
sender
senegal
senior
senna
senryu
sentimeter
sentraal
sentrale
sentraol
sentraole
sentroal
sentrum
sepium
sepp
september
septi
ser
seram
seremonies
sergeant
serie
series
serieus
serieuze
serio
serious
serra
sers
serveerd
service
servie
servies
serviese
servo
sery
ses
sesamstraat
sesde
sesdes
sesse
sessions
sestig
sestiger
set
seth
setteden
setten
settlement
seuliakie
seurte
seven
sevene
sevenem
sevenum
severus
sevilla
seward
sex
sextus
sexy
sey
seychellen
seyd
seyland
seymour
seyr
seyt
sfeer
sforza
sg
sgp
sha
shakespeare
shanghai
sharon
she
sheepstor
shell
shelta
shetlaand
shetland
shetter
shirt
shirts
shkode
shooter
shot
show
showband
shows
shqipe
shuttle
si
sibculo
siberie
siberiese
sibolt
sic
sica
sich
sichsu
sicht
sichtba
sicilie
side
sie
sieben
siebo
siefers
siefkes
siegfried
siemon
sien
siep
siepel
sier
siero
sierra
sietske
sif
sig
signaal
sigurd
sijn
sijpkes
sijs
sijthoff
sik
sikke
sikkem
sikken
sikketaoris
sikkom
sikn
siknvel
sikselv
siksu
sil
silba
silbo
silent
silesauridae
silezie
silicon
sillevolde
silt
silva
silver
silverstone
simbool
simon
simone
simons
simpel
simpele
simpelveld
simpelweg
simpson
simpsons
sin
sina
sind
sinderen
sinds
sindsdien
sinen
sinesappel
sing
singapore
singaporeesken
singel
singels
singen
singer
single
singles
singulaar
sinne
sinnen
sinope
sins
sint
sinte
sioux
sir
siricius
sirkel
sis
sisiliaans
sisiliaanse
sisilie
sit
site
sittard
sitten
sittet
situaosie
situasie
situasies
situatie
situaties
situaty
sitze
six
sj
sjaal
sjaarpezeel
sjabbat
sjakie
sjamanisme
sjanghai
sjarpe
sjatten
sjem
sjetlaand
sjeun
sjibbolet
sjina
sjinees
sjineezn
sjinese
sjo
sjoksen
sjouken
sjoukje
sjuderaans
sjwa
sk
ska
skaanze
skaatsen
skade
skagen
skakelen
skakels
skandinavie
skandinaviers
skandinaviese
skandinavische
skandinavisk
skandinaviske
skandinoavie
skandinoavische
skap
skarp
skat
skatt
skatten
skatting
skattingen
ske
skeaid
skeaidn
skeape
skeba
skedel
skeeld
skeelderskeunst
skeeldnaam
skeeldnaamn
skeeldnaamns
skeeldnaams
skeeldwo
skeepn
skeepsbouw
skeepvoart
skeetn
skeetspellen
skeidden
skeiden
skeidsrechter
skel
skeldwoord
skelet
skeletten
skelle
skemer
sken
skendo
skepe
skepen
skeppen
skepper
skepping
sker
skes
skesma
sketen
sketsen
sketsies
ski
skie
skient
skier
skiereailaand
skiereilaand
skiereiland
skik
skild
skilder
skilderden
skilderen
skilderi
skildern
skilders
skilderye
skilderyen
skip
skipbekke
skiphol
skippen
skipper
skja
sko
skoale
skoap
skoarp
skoarpe
skoeftrompetn
skoel
skoele
skoelen
skoewn
skokkelaand
skokker
skokkers
skolder
skolders
skole
skolen
skone
skonwal
skoold
skoolder
skoolderbas
skoolders
skoole
skoolmeaister
skoolmeister
skooln
skoon
skoonwal
skoot
skop
skot
skotlaand
skotland
skots
skotse
skotsen
skotsk
skotske
skottegat
skotten
skoune
skounwal
skouwen
skreav
skreavden
skreaven
skreef
skreewn
skreewt
skref
skreven
skrevn
skrevven
skrewen
skreyv
skrief
skriefster
skrieft
skrieftaal
skriefwies
skriefwieze
skriefwiezes
skrieven
skriever
skrieveri
skrievers
skriewen
skriewer
skriewers
skriewn
skriewt
skrif
skrift
skriften
skrik
skrivt
skrivtelike
skrivtspra
skroetbalg
skryven
skryver
skryvers
skryverye
skryvster
skryvwyse
skryvwysen
skryvwyses
sku
skuld
skulden
skuppe
skure
skuuns
skuur
skv
sky
skynt
skyreiland
sl
sla
slaaf
slaagden
slaagn
slaand
slaanden
slaap
slaawn
slaawnhaandel
slacht
slachten
slachtoffer
slachtoffers
slag
slagen
slager
slaggitaar
slagharen
slagroom
slagveld
slagwark
slagwoark
slagwoarkers
slagwoarkinstrumeantn
slaif
slak
sland
slang
slange
slangen
slangenburg
slanke
slao
slaod
slaon
slaop
slaopen
slaot
slap
slapen
slat
slave
slaven
slavenhandel
slavernie
slaviese
slavische
slaviske
slavko
slawen
slawerieje
sle
slecht
slechte
slechten
slechter
slechts
sleef
sleen
sleeswiek
sleeswieks
sleeswyk
sleet
sleiderink
sleipnir
slekken
sleswig
sleug
sleurhutte
sleut
sleute
sleutel
sleuten
slicht
slichtehorst
sliekenborg
slien
sliepnir
slik
slikken
slikkerij
slim
slimme
slimmen
slimmer
slimste
slinge
slinger
slippen
slo
sloan
sloapen
sloapn
sloat
sloaten
sloaven
sloaviese
sloavische
slobodan
slochter
slochteren
sloes
sloet
sloeten
sloetn
slok
slome
slomp
sloog
sloop
sloopt
sloot
slot
sloten
slotten
sloveens
slovenie
slowaaknlaand
slowaaks
slowakije
slu
sluig
sluis
slurf
slut
sluten
sluting
sluus
sluut
sluuten
sluzen
sm
sma
smaak
smaakt
smak
smaken
smal
smalbrugge
smalholt
small
smalle
smallen
smallingerlaand
smallville
smalst
smartphone
smartphones
sme
smear
smearigen
smele
smelt
smelten
smeltpunt
smeltwater
smeren
smet
smeu
smid
smiet
smieten
smilde
smit
smith
smits
smo
smoak
smoapoeper
smolten
smyten
sn
sna
snakken
snakt
snapchat
snavel
sne
sneb
snede
sneden
snee
sneek
sneeuw
snei
sneilaoge
snel
snelheaid
snelheedn
snelheid
snelheyd
snelle
sneller
snelst
snelste
snelweg
snert
sneuvelden
sney
sni
snid
snieden
snieder
sniedn
sniejen
snij
snijders
snit
sno
snoare
snoaren
snoarn
snoartromme
snoeijing
snoetn
snooker
snoop
snorre
snorri
sns
snyden
so
soamen
soamengoan
soamenvougd
soamenvougen
soamenwaarken
soamn
soart
soasel
soavends
sobere
sociaal
social
sociale
socialisme
socialistische
sociaol
sociaole
socie
society
sociologie
sociologische
soda
sodat
sodmann
soedan
soedanese
soep
soeren
soesie
soest
soestdiek
soevereine
soevereiniteit
sofia
soft
software
sojabonen
sojasaus
sokkeloa
sokken
sokrates
sokratiske
sol
solana
solda
soldaot
soldaoten
soldaten
solde
solden
soldoat
soldoaten
soldoatn
sollen
solms
solo
solomon
solt
som
somalie
some
something
somme
sommege
sommelsdiek
sommer
sommerstop
sommige
sommigen
soms
somstieden
somtieds
son
sonata
sonde
song
songfestival
songs
songwriter
soninke
sonja
sonnetten
sons
sont
sony
soo
soop
soort
soorte
soortement
soorten
soortenbank
soortgeliek
soortgelieke
soortgelyke
soortgenoten
soortn
sophia
sophie
sopraan
sorbus
sorgden
sorgen
sorget
sosiale
sosjaal
sosjale
sosjalistiese
sosjoale
sosjologie
sotho
sou
souas
soudat
sougdeers
soul
sound
soundsystem
soundsystems
soundtrack
souno
sousafoon
south
southern
souvo
souwal
souwat
sovjet
sovjetrepublik
sovjetunie
sovjetuny
sovo
sovon
sowal
sowat
sowieso
sp
spa
spaans
spaanse
spaansen
spaansk
spaanske
spaansken
space
spange
spanjaard
spanjaarden
spanjaardn
spanjaorden
spanje
spanjoarden
spanjolen
spanjooln
spankeren
spannen
spannend
spannende
spanning
spanningen
spant
spaokenburg
spaons
spaorndam
spaornwolde
sparre
sparta
spatader
spaubaek
spd
spe
speare
spears
speciaal
special
speciale
specialiseerd
speciaol
speciaole
species
specifiek
specifieke
specifike
spectrum
speelt
speer
spegel
spegels
spek
spekdik
spekdikken
spektrum
spel
speld
spelen
spellegie
spellen
spelling
spellingsregels
spellingssystemen
spelt
spencer
speren
spesiaal
spesiale
spesifiek
spesifieke
spesjaal
spesjale
spesjoale
speul
speuld
speulde
speulden
speulen
speuler
speulers
speult
speulwieze
speuren
sphagnum
spheniscus
spi
spiegel
spiegelzael
spieje
spiejen
spiek
spieker
spiekermann
spiekeroog
spieren
spiering
spieringen
spierspanning
spies
spiet
spil
spilhennig
spinnen
spinola
spinoza
spionage
spirit
spirituele
spitfires
spits
spitsbargen
spitse
split
splitsing
splitst
splo
spo
spoans
spoanse
spoansen
spoarlyne
spoars
spoek
spoeken
spoelde
spoele
spoer
spoerliene
spoerlienn
spoers
spoken
spoor
spoorlien
spoorliende
spoorliene
spoorn
spoorweg
spoorwegen
sporen
sport
sportclub
sporten
sporthal
sportpark
sportvelden
spotify
spottend
spra
spraak
sprach
sprache
sprachen
sprak
sprake
spraoje
spraojen
spraok
spraoke
spraoken
spraokgebruuk
spreak
spreaken
spreakende
spreaker
spreakers
spreaket
spreakt
spreek
spreekt
spreektaal
spreektoal
spreekwoord
spreekwoorden
spreid
sprek
spreken
spreker
sprekers
sprekersantal
sprekken
sprekker
sprekkers
sprekn
sprekt
sprenge
sprengen
spreuk
spreuken
sprichwo
springen
springendal
springer
springfield
springruter
springruuter
springt
sprintel
spro
sproak
sproakbroeken
sproake
sproaken
sproakgebeed
sproaklear
sproakn
sproetels
sproken
sprokies
sprongen
sprouk
sprung
spu
spuit
spul
spullen
sr
sre
sri
ss
sse
ssel
sseldorf
ssen
sser
ssid
ssien
ssing
st
sta
staait
staal
staalboek
staan
staand
staandbeeld
staandpunt
staark
staarke
staarker
staarven
staat
staatn
staatsbos
staatsbosbeheer
stabiel
stabiele
stabil
stabiliteit
stabo
stad
stadhoes
stadholder
stadholderloze
stadholders
stadhoolder
stadhouwer
stadhuus
stadion
stadium
stadje
stadjeders
stadjen
stadjer
stadjers
stadke
stads
stadsbestuur
stadsbraand
stadscentrum
stadsdail
stadsdeal
stadsdeel
stadsdelen
stadsdialect
stadsdialekt
stadsdialekten
stadsdichter
stadsdiel
stadsdistrikten
stadsfries
stadsgezicht
stadsgezichte
stadsgrachte
stadsgrunnegs
stadsha
stadshagen
stadskanaal
stadskern
stadsknoal
stadsmure
stadsmuren
stadsmuseum
stadsmuurn
stadsplat
stadspoorte
stadspoorten
stadsrechen
stadsrecht
stadsrechten
stadsrechtn
stadsregio
stadsstrekke
stadsta
stadstoaten
stadsumroper
stadswal
stadswallen
stadt
stadtien
staeden
staedn
staf
stain
stainen
stait
stak
staken
stakkato
stal
stalen
stalin
stalingrad
stalknecht
stallen
stam
stamboom
stamde
stamden
stamme
stammen
stammet
stamn
stamp
stampers
stamppot
stamsnijder
stamt
stand
standaard
standaardchineesk
standaardda
standaardnederlaands
standard
standardnederlaands
standardspra
standardtaal
standbeeld
standen
standerd
standerdfries
standerdiseerde
standerdnederlaands
standerdnederlaans
standerdtaal
standerdtoal
standoard
standpunt
stanford
stanley
stao
staol
staolhof
staon
staond
staonde
staorigan
staot
staoten
staotsbewind
staotsbosbeheer
staotsgrepe
staotsheufd
staotsman
staotssikketaoris
staotus
stap
stapel
staphorst
stapn
stappen
stappest
stappester
stapt
stapte
stapten
star
starbucks
starf
starft
starfte
staring
stark
starke
starken
starker
starkere
starkste
starkte
stars
start
starte
starteden
starten
startn
startplaatse
startpositsy
starven
starvende
stasion
stasjon
stasjons
stat
state
staten
states
station
stations
stationsgebouw
statistics
statistiek
statistik
statistiske
statline
stattien
status
statuut
stavenhagen
staverden
stavoren
std
stden
ste
stea
steade
steadeleke
steadelike
steaden
steades
steadn
steads
steail
steaket
steam
steampel
stean
steans
steare
steark
stearns
steas
steavig
steavige
stede
stedelijk
stedelijke
stedelik
stedelike
steden
stee
steedn
steeds
steeg
steege
steeit
steek
steekt
steel
steelden
steeldn
steelt
steen
steenbergen
steender
steenderen
steenenkamer
steenkool
steentied
steenwiek
steenwieker
steenwiekerlaand
steenwijk
steenwijkerland
steerf
steern
steerns
steernsbeelden
steernskunde
steernskundige
steert
stees
steet
stefan
steg
stege
stegeman
steggerde
steiermark
steile
stein
steinfurt
steit
stejen
stek
stekels
steken
stekken
stekn
stekt
stel
steld
stelde
stelden
stelen
stella
stellen
stellenwaarfs
stellet
stelling
stellingen
stellingwarf
stellingwarfs
stellingwarfse
stellingwarfstaelige
stellingwarven
stellingwarver
stellingwerf
stellingwerfs
stellingwerven
stellingwerver
steln
stelsel
stelt
stem
stemd
stemde
stemden
stemhebbende
stemlous
stemlouse
stemloze
stemme
stemmen
stemmert
stemmige
stemming
stemn
stempel
stemrecht
stemt
sten
stenders
stenen
stengel
stengels
stentor
step
stepel
stephan
stephen
ster
sterd
stere
steren
stereo
stering
sterk
sterken
sterkste
sterkyken
sterling
stern
sterna
sternisse
sterns
sternskundige
sternula
sterre
sterreich
sterren
sters
stesjon
stet
stettin
steugien
steuk
steuken
steun
steund
steunden
steundn
steunen
steunpunt
steunt
steur
steurd
steurden
steuren
steurig
steurn
steve
stevel
stevels
steven
stevenage
stevens
stevie
stevig
stevige
stevin
stewart
stewig
steyds
steyn
steynder
steyne
steynen
steyntyd
steyt
sti
stichen
sticht
stichtden
stichted
stichteden
stichten
stichter
stichting
stichtn
stichtse
stichtten
stie
stieds
stief
stiefel
stiegen
stiekelstokkies
stiel
stielen
stieln
stien
stiender
stiene
stieneke
stienen
stiens
stientied
stienties
stientje
stienwiek
stienwieker
stienwiekerlaand
stienwiekerwold
stienwiekerwoold
stiepeltekens
stier
stierf
stiese
stiet
stieve
stiff
stift
stig
stigd
stigen
stijl
stik
stikke
stikken
stikstof
stikt
stil
stilicho
stille
stillen
stilte
stimmen
stimuleert
stimuleren
sting
stinken
stins
stip
stippen
stirum
stisch
stische
stl
stlyne
stn
sto
stoa
stoal
stoalen
stoan
stoand
stoande
stoanden
stoandermo
stoapelrecht
stoark
stoarke
stoarkn
stoarkste
stoat
stoaten
stoates
stoatkundige
stoatn
stoats
stoatse
stoatseigendom
stoatsen
stoatsgezinden
stoatsgreep
stoatsheufd
stoatsheuwd
stoatsman
stoatswebstea
stoatus
stobbe
stockholm
stoede
stoefzaand
stoefzaanden
stoel
stoer
stoere
stoet
stoete
stoetje
stof
stoffels
stoffen
stofzoeger
stok
stoken
stokjes
stokken
stokkien
stokkies
stokkum
stomme
stompen
ston
stond
stonden
stone
stonehenge
stones
stonnen
stook
stookhok
stool
stoom
stoommachine
stoomtram
stoomtramweg
stoot
stop
stopn
stoppen
stopt
stopten
stoptrein
stork
storm
stormen
stormvloed
stort
story
stot
stout
stoute
stove
stra
straand
straanden
straandloper
straandn
straeke
straf
strafboar
straffen
strafn
strafrecht
strak
strakke
straks
stralsund
strand
stranden
strang
straolen
straoling
straot
straote
straoten
straotnamen
strategies
strategiese
strategisch
strategische
strategy
strauss
strav
stre
streak
streake
streaken
streaktaal
streaktalen
streaven
streek
streekroman
streekromans
streekta
streektaal
streektaalconsulent
streektaalfunctionaoris
streektaalfunctionaris
streektaalletterkunde
streektaalliteraturen
streektaalliteratuur
streektaalmuziek
streektaalpries
streektaalschrievers
streektaalzang
streektaalzanger
streektael
streektaelen
streektalen
streektaol
streektaolen
streektoal
streektoalen
streep
street
strek
streke
streken
strekke
strekken
strekket
strekn
strekt
strektaal
strekten
stremsel
streng
strenge
strengen
strepe
strepen
streppel
stress
streuisukela
streum
streumden
streume
streumen
streumend
streumgebeed
streumgebied
streuming
streumingen
streumo
streumoog
streump
streumt
streven
stried
striede
strieden
strieders
striedkrachten
strieken
strigilis
strijd
strik
strike
strikt
strikte
strip
stripboeken
stripfiguur
strips
stripverhalen
stro
stroade
stroalen
stroaljager
stroat
stroate
stroaten
stroatn
stroatweg
stroe
strofe
stroke
stromen
stroming
stromings
stromtid
strook
stroom
stroomgebied
stroomt
stroop
strop
stropdas
strouming
stroumings
strow
structuren
structuur
struke
struken
struktuur
struktuurn
struuk
stryd
stryden
stu
stuart
studaaierde
studeanten
studeantn
studeerd
studeerde
studeerden
studeerdn
studeern
studeert
student
studenten
studeren
studi
studie
studiekring
studies
studio
study
stug
stuit
stuk
stukje
stukjen
stukjes
stukke
stukken
stukkie
stukkien
stukkies
stukn
stuks
stuksken
stukskes
stun
stund
stunden
stung
stungen
sturen
sturluson
sturm
sturven
stute
stuttgart
stuufzaand
stuurd
stuurde
stuurden
stuurn
stuurt
stuut
stuwen
stuwwal
stuwwalle
stuwwallen
stuyvesant
styl
su
sub
subdialekten
subkultuur
subsidie
subsp
subspecies
substantiven
substroat
subtropies
subtropiese
succes
successen
successieoorlog
succesvol
succesvolle
sudan
suderland
suderlandsk
suderlandske
sueben
sueven
suez
suffix
suid
suite
suja
sukela
sukelao
suker
sukerei
sukerjennigjen
sukerreed
sukers
sukkeloa
sukses
suksesvol
suksesvolle
suksesvulle
sul
sulda
sulla
sullivan
sult
sultan
sultanaat
sum
sumatra
sumerie
summege
summegen
summer
summerdag
summers
summige
sums
sumtieds
sumtyds
sun
sund
sundag
sunder
sunds
sung
sunnerklaos
sunnoa
sunt
sunte
sunterklaos
sunterkloas
supen
super
superfemilie
superhelden
superior
supermarkt
sur
surdo
surinaamse
suriname
surrealisme
survey
sus
susan
suske
susteren
sutton
suurstof
suzanne
suze
sv
svadilfari
svartifoss
sveden
sveeds
sven
svitzerlaand
svo
sw
swa
swaart
swaarte
swahili
swakke
swart
swarte
swarten
swasi
swasiland
sweden
sweder
sweedsk
sweedske
sweel
sweet
sweyden
sweydske
swien
swieniegeltje
swienters
swift
swim
swing
switch
switserland
swo
swoar
swoare
swoartekracht
swolle
sy
syd
syde
syden
sydenstaert
sydney
sylt
sylter
sylve
symbiose
symbolen
symboliek
symbolies
symboliese
symbolisch
symbolische
symboliseert
symboliske
symbool
symfony
symfonyen
symposium
symptomen
syn
synagoge
synchronic
syndroom
syne
synen
synode
synoniem
synonym
syntax
syntus
[...]
