!
"
#
##0
##1
##10
##11
##12
##13
##14
##15
##16
##17
##18
##19
##2
##20
##21
##22
##23
##24
##25
##26
##27
##28
##29
##3
##30
##31
##32
##33
##34
##35
##36
##37
##38
##39
##4
##40
##41
##42
##43
##44
##45
##46
##47
##48
##49
##5
##50
##51
##52
##53
##54
##55
##56
##57
##58
##59
##6
##60
##61
##62
##63
##64
##65
##66
##67
##68
##69
##7
##70
##71
##72
##73
##74
##75
##76
##77
##78
##79
##8
##80
##81
##82
##83
##84
##85
##86
##87
##88
##89
##9
##90
##91
##92
##93
##94
##95
##96
##97
##98
##99
$
%
&
'
(
)
*
+
,
-
.
/
0
00
000
0000
0001
0004
0006
001
0010
002
0025
003
004
005
0055
007
0076
008
01
010
012
0140
015
017
02
022
025
03
030
0313313334
033
036
0362
04
040
045217
047
048
05
050
052
055
06
0614
063085
067
07
073
075
076
0761867198
08
0810
083
084
09
090
1
10
100
1000
1001
1002
1007
1008
101
1010
1016
102
1021
1022
103
1039
104
1040
105
1050
1051
1055
1057
106
107
1071
1072
1073
1077
108
1080
1083
1086
1088
109
1092
1093
1095
1098
11
110
1100
110010884
1105
1107
111
1110
1111
1115
1116
1118
112
1126
113
114
1146
115
11525
1156
116
11653
117
1171
1177
118
1185
119
1190
12
120
1200
1204
1206
121
1211
12148
122
1228
123
124
125
1250
1258
126
1260
1261
126442
127
1271
1276
128
1280
1281
1282
1285
129
1299
13
130
1300
1304
131
1312
132
1326
133
1330
1332
134
135
136
1363
137
1371
13755
1377
138
1381
1383
1386
13868655
1389
139
1391
1398
14
140
1400
1401
1402
1403
1404
1405
1406
1407
1408
141
1411
1412
1413
1414
1415
1416
1418
142
1420
1421
1423
1424
1427
1429
143
1430
1431
1434
1435
1436
144
1440
1444
1446
145
1451
1453
146
1462
1468
147
1470
1474
148
1481
1487
149
1492
1496
15
150
1500
15000
1501
1507
151
1512
1513
1516
1517
152
1520
1521
1529
153
1532
1535836264
1536
1538
154
1540
1541
1542
1543
155
1551
1553
156
1566
157
1574
158
1584
159
1595
16
160
1600
1602
1605
1606
161
1612
162
163
164
1648
165
16591209
166
167
1670
168
1689
169
17
170
1700
1706
171
172
173
1732
1736
174
175
1750
1755
1757
176
1763
1768
177
1770
1774
17749
17753
1776
1777
178
1781
1783
1786
1787
1789
179
1790
1791
1792
1794
1798
18
180
1800
1801
1803
1808
181
1810
1811
1815
1818
1819
182
1820
1821
1822
1824
1825
1826
1827
1828
183
1830
1833
1834
1835
1836
1837
1838
1839
184
1840
1843
1844
1845
1846
1847
1848
1849
185
1850
1851
1852
1853
1854
1855
1856
1857
1858
1859
186
1860
1861
1862
1863
1864
1865
1866
1867
1868
1869
187
1870
1871
1872
1873
1874
1875
1876
1877
1878
1879
188
1880
1881
1882
1883
1884
1885
1886
1887
1888
1889
189
1890
1891
1892
1893
1894
1895
1896
1897
1898
1899
19
190
1900
1901
1902
1903
1904
1905
1906
1907
1908
1909
191
1910
1911
1912
1913
1914
1915
1916
1917
1918
1919
192
1920
1921
1922
1923
1924
1925
1926
1927
1928
1929
193
1930
1931
1932
1933
1934
1935
1936
1937
1938
1939
194
1940
1941
1942
1943
1944
1945
1946
1947
1948
1949
195
1950
1951
1952
1953
1954
1955
1956
1957
1958
1959
196
1960
1961
1962
1963
1964
1965
1966
1967
1968
1969
197
1970
1971
1972
1973
1974
1975
1976
1977
1978
1979
198
1980
1981
1982
1983
1984
1985
1986
1987
1988
1989
199
1990
1991
1992
1993
1994
1995
1996
1997
1998
1999
2
20
200
2000
20000
2001
2002
2003
2004
2005
2006
2007
2008
2009
201
2010
2011
20111015012701
2012
201202062200
201208220474
201211050009
2013
20130601
20130601606635
2014
20140202133148
2015
2016
2017
20170404
2018
2019
20190428194857
20190501184423
20190509154112
202
2020
20201225230924
2021
20210830225136
2022
20220314110714
20220411120242
2023
2024
2025
2026
203
2030
204
205
2050
206
207
208
209
21
210
2100
211
212
213
214
215
216
217
218
219
22
220
221
222
223
224
225
226
227
228
229
23
230
2307
231
232
233
234
235
236
237
238
239
24
240
2405
241
242
243
244
245
246
247
248
249
25
250
2500
251
252
2520
2522
2527
253
254
255
256
257
258
259
26
260
261
262
263
264
2640
265
266
267
268
269
27
270
2709
271
273
274
275
276
277
278
279
28
280
281
282
283
284
285
286
287
288
289
29
290
291
292
293
294
295
296
297
298
299
3
30
300
3000
30000
300311
301
302
303
304
305
306
307
308
309
31
310
311
312
313
31333
314
315
316
3166
317
318
3195
32
320
321
322
323
324
325
326
327
328
329
33
330
331
332
333
334
335
336
337
338
339
34
340
341
342
343
345
346
347
3477
348
349
35
350
351
352
353
354
355
356
357
358
359
36
360
361
362
363
364
365
366
367
368
369
37
370
371
372
373
375
376
377
378
379
38
380
381
382
383
385
386
387
388
389
39
390
392
393
394
395
397
398
398085
399
4
40
400
4000
40000
401
402
403
404
405
406
407
408
41
410
411
413
414
415
4150
416
4163
417
418
419
42
420
421
4217
422
423
424
426
427
428
429
43
430
431
432
433
4331
4344
435
436
437
438
439
44
440
4400
442
443
444
445
446
447
448
449
45
450
4500
451
452
453
454
455
456
458
46
460
461
463
464
465
466
467
468
469
47
470
472
474
475
477
479
48
480
481
482
484
485
486
488
49
490
4913
493
495
496
497
498
499
5
50
500
5000
501
503
504
505
507
508
509
51
510
51000
512
513
514
515
516
517
518
52
520
521
5212784
522
5226
523
524
525
526
527
528
529
52907
53
531
532
533
534
536
537
54
540
541
542
544
546
548
549
55
550
551
555
556
557
558
559
56
560
561
562
564
565
566
56667
567
57
570
571
576
57678
577
578
579
58
580
581
582
583
586
587
589
59
590
591
592
593
594
595
598
599
6
60
600
6000
600300
600309
602
604
605
607
609
61
610
611
612
614
615
616
617
618
619
62
620
621
622
623
624
625
626
627
628
629
63
630
631
632
633
634
636
6361
637
638
64
640
641
642
643
644
645
646
648
6483427
649
65
650
6500
651
652
653
654
656
657
658
659
66
660
661
662
663
663304
663340
664
666
667
668
67
670
671
672
6736
674
676
678
679
68
680
681
682
683
684
685
686
688
69
690
691
692
694
698
699
7
70
700
7000
700000
701
704
706
707
708
7094
7099
71
710
711
714
715
716
717
718
719
72
720
721
722
724
726
728
729
73
732
733
734
737
738
7385
74
740
742
743
744
745
746
747
748
75
750
754
756
757
76
760
765
76579
767
77
770
7701
771
775
778
78
780
781
783
784
785
786
787
79
791
792
794
8
80
800
8000
800300
801
801605
801904
802707
803100
81
810
8108
813
816
817
819
82
820
821
826
827
828
83
830
832
833
835
836
838
839
84
840
842
8450
846
847
85
850
851
852
853
855
857
86
8601
862
863
866
867
868
869
8696547
87
872
874209
87548
876
88
883
884
887
888
89
890
893
89412
895
9
90
900
9000
901
902507
902908
906
907
908
91
911
912
913
914
915
916
917
918
919
92
920
92000
921
922
923
924
925
926
927
93
930
932415
933
934
935
936
939
94
940
941
942
943
944
945
946
948
95
950
952
959
96
960
961
962
963
964
96667
967
968
969
97
970
974
975
978
9780252039973
9780253022301
9780810866041
9781135751753
9781136095702
9789953184432
98
980
983
986
99
990
991
995
9953
9953180474
997
998
999
:
;
<
=
>
?
@
[
\
]
^
_
`
a
aa
aaa
aaaaiaaj
aaad
aaan
aabaha
aabahaa
aabahay
aabaheed
aabaheen
aabahood
aabbaha
aabbahay
aabbaheed
aabbe
aabbeheed
aabbihii
aabbihiis
aabe
aabihi
aabihii
aabihiina
aabihiis
aabihiisa
aabihiisna
aabiihiis
aabo
aad
aada
aadaan
aadaanka
aadam
aadamaha
aadamahu
aadame
aadamiga
aadamka
aadamku
aadamnimada
aadamnimo
aadamuhu
aadan
aadanaha
aadane
aadanimo
aadanka
aadanku
aadannimada
aadantinimo
aadanuhu
aaday
aadayaan
aaddan
aadeen
aaden
aadi
aadin
aadka
aadki
aadkii
aadmiga
aadmigu
aadna
aado
aafo
aag
aaga
aagaga
aagagga
aagga
aaggaas
aaggan
aah
aakhirada
aakhirana
aakhirkii
aakhirkiina
aakhiro
aal
aala
aalaaba
aalad
aalada
aaladaha
aaladda
aalado
aalaha
aale
aaliyah
aalkolo
aallo
aallot
aalo
aalu
aamiin
aamin
aamina
aaminaad
aaminay
aamini
aaminka
aaminsan
aaminsanaa
aaminsanaayeen
aaminsanahay
aaminsanyahay
aaminsanyihiin
aaminta
aamir
aamiyaa
aamiyay
aamiyey
aamiyo
aamminsan
aamus
aamusan
aamusay
aamusnaan
aan
aana
aanad
aanada
aanan
aanay
aaney
aanka
aankii
aankiisa
aanku
aannu
aansadaan
aansaday
aansadeen
aansatay
aansatey
aanta
aanteed
aanu
aanuu
aaq
aar
aaran
aare
aargon
aargoosiga
aaron
aarsenik
aartifishal
aas
aasaan
aasaas
aasaasaan
aasaasaha
aasaasantay
aasaasay
aasaasayaasha
aasaasayaashii
aasaaseen
aasaasey
aasaasi
aasaasida
aasaasidda
aasaasiga
aasaasihii
aasaasin
aasaaska
aasaaskeedii
aasaaskii
aasaaskiisa
aasaaso
aasaastay
aasaasy
aasaha
aasan
aasanyahay
aasasay
aasay
aasayo
aaseen
aasey
aasha
aashaas
aashitada
aashu
aasi
aasiga
aasin
aasiya
aasiyaan
aasiyaanka
aasiyada
aasiyatik
aasiyo
aaska
aaskii
aaso
aay
aayad
aayada
aayadaha
aayadda
aayaddan
aayado
aayadood
aayah
aayaha
aaydhiin
aayron
aayronta
ab
aba
abaa
abaabul
abaabulan
abaabulay
abaabuleen
abaabulka
abaabushay
abaadir
abaajabal
abaajibil
abaal
abaaleey
abaalmarin
abaalmarinnada
abaalmarinno
abaalmarino
abaalmarinta
abaalmarisay
abaalmariyay
abaalmariyo
abaan
abaanduul
abaanduule
abaanduulihii
abaanduulkii
abaar
abaaraha
abaarihii
abaaro
abaarso
abaarta
abaartii
abaayo
ababa
abahani
abakar
abasguul
abba
abbaanduule
abbal
abbas
abbasid
abbasids
abbey
abboud
abc
abcas
abcnews
abd
abdalla
abdallah
abdalle
abdel
abdelaziz
abdi
abdiaziz
abdibari
abdifatah
abdihakim
abdillahi
abdille
abdirahman
abdirashid
abdirazak
abdirizak
abdisalam
abdisalan
abdishakur
abdul
abdulaahi
abdulahi
abdulaziz
abdulkadir
abdulla
abdullah
abdullahi
abdulle
abdulrahman
abdurahman
abe
abeba
abeeha
abella
abgaal
abgal
abhishek
abi
abid
abidjan
abii
abiib
abiibakar
abiidaalib
abiikar
abiy
abkhazia
abkoow
abkor
abo
abokor
aboo
aboon
aboor
aboowe
aboriginal
aborijiniska
abou
aboubakar
about
aboutun
above
abow
abraha
abraham
abriil
abril
abrill
abroad
abroone
abruzzi
abs
absame
abshir
abstract
absuge
abti
abtidoon
abtigeed
abtigii
abtirsada
abtirsadaa
abtirsadaan
abtirsado
abtirsataa
abtirsato
abtirsi
abtirsiin
abtirsiinta
abtirsilang
abtoow
abu
abualialkurdy
abubakar
abucay
abuja
abukar
abul
abuse
abuu
abuubakar
abuukar
abuur
abuura
abuuraa
abuuraan
abuuraha
abuuray
abuuraya
abuurayaasha
abuurayo
abuure
abuureen
abuureheenna
abuurey
abuuri
abuurida
abuuridda
abuurin
abuuris
abuurista
abuuritaanka
abuurka
abuurkii
abuurma
abuurnimo
abuuro
abuurtaa
abuurtay
abuurto
abwaan
abwaanada
abwaanadii
abwaanka
abwaankii
abwaanku
abwaannada
abwaanno
abwaano
abwan
abyan
abyoone
abyssinia
ac
acacia
academia
academic
academy
accept
accepted
access
accessdate
accessed
accord
according
account
accounting
accounts
accurate
accused
accuses
ace
aceh
acfu
achaemenid
achievement
acid
acp
acquired
acre
acres
across
acs
act
acteon
acting
action
active
activist
activities
activity
actor
actors
actress
actresses
acts
actually
aczino
ad
ada
adaa
adaan
adado
adag
adagtahay
adaha
adal
adalar
adaları
adam
adamku
adams
adan
adana
adani
adaraxmaan
adaraxman
adası
adayg
adb
add
adda
adde
added
addeeda
addiction
addidas
addimo
addin
addis
addition
additionally
addo
addoomadiisa
addoommada
addoomo
addoon
addoonka
addoonkii
addoonkiisa
addoonku
addoonsiga
addoonta
address
addu
addunka
adduun
adduunka
adduunkan
adduunku
adduunyada
adduunyadu
adduunyo
ade
adeeca
adeecaan
adeeco
adeeg
adeega
adeegaa
adeegaan
adeegan
adeegay
adeegaya
adeegayaasha
adeegga
adeeggu
adeegi
adeegidda
adeegii
adeego
adeegsada
adeegsadaa
adeegsadaan
adeegsaday
adeegsadeen
adeegsadey
adeegsado
adeegsan
adeegsanaayo
adeegsanaya
adeegsanayo
adeegsanaysa
adeegsatay
adeegsi
adeegsiga
adeegso
adeegta
adeegtaa
adeegtay
adeegto
adeegyada
adeegyadooda
adeegyo
adeer
adeerka
adeerkeed
adeerkii
adeerkiis
adeerkood
adeero
adeeygeeda
adel
adelaide
adele
aden
adhanom
adhi
adhiga
adhigii
adhigu
adi
adidas
adiga
adigaa
adigana
adigoo
adigu
adiguba
adiguna
adirna
adis
aditya
adjusted
adkaa
adkaadaan
adkaaday
adkaadeen
adkaado
adkaan
adkaata
adkaatay
adkaato
adkayd
adkayn
adkaysan
adkaysi
adkaystay
adke
adkeeyay
adkeeyeen
adkeeyo
adkeha
adkeynta
adkeysi
admin
administration
administrations
administrative
administrator
adna
adnan
ado
adolf
adonis
adoo
adood
adoomada
adoomaha
adoomo
adoon
adoonsado
adoonsi
adoonsiga
adopt
adopted
adrian
adriana
adriatic
adult
adunka
aduun
aduunka
aduunku
aduunyada
aduunyadu
aduunyo
advance
advanced
advances
advantages
advanzia
adverb
adverbo
advertising
advice
advocate
adyghe
ae
aegean
aek
aemet
aen
aeronautical
aespa
af
afadiisa
afaf
afafka
afakaadhuhu
afar
afaraad
afargees
afarta
afartaas
afartaasi
afartan
afartanka
afartii
afc
afcad
afcon
afduub
afduubay
afduubka
afentra
affairs
affect
affects
afgaab
afgaanistaan
afgaanistan
afgambi
afgambigii
afgan
afganbi
afganistaan
afganistan
afgarad
afgaranwaa
afgartey
afgarto
afgembi
afghan
afghanistan
afgooye
afguduud
afhayeen
afhayeenka
afi
afjaray
afjareen
afjaro
afjartay
afka
afkaarta
afkeena
afkii
afkiisa
afkooda
afku
aflaamta
aflaan
aflaanta
aflaaq
aflagaado
aflax
aflaxay
aflixi
afmadow
afo
afp
afqaanistaan
afqaanistan
afqanistaan
afraad
afrah
afrax
africa
african
africana
africanews
africans
africas
afrik
afrika
afrikaan
afrikaanka
afrikaans
afrikada
afrikan
afrikana
afrikanka
afriko
afrique
afro
afroasiatic
afrol
afsoomaaliga
aftahan
after
afti
aftida
aftidii
afuufo
afwayne
afweyn
afweyne
afxumo
afyare
ag
aga
agaasimaha
agaasimay
agaasimayaasha
agaasime
agaasimihii
agab
agabar
agabka
agabkii
agabyada
agagaaraha
agagaarka
agagaarkeeda
again
against
agaw
agder
age
aged
ageing
agencies
agency
agent
aggie
agglomerations
ago
agoomaha
agoon
agoonta
agoosto
agosto
agreement
agricultural
agriculture
agtaada
agteed
agteeda
agtiis
agtiisa
agtooda
aguilera
ah
aha
ahaa
ahaaa
ahaaan
ahaadaa
ahaadaan
ahaaday
ahaadee
ahaadeen
ahaado
ahaan
ahaana
ahaanayaa
ahaanba
ahaaneed
ahaanna
ahaanshaha
ahaansho
ahaanta
ahaantaana
ahaantaasna
ahaanteed
ahaantii
ahaantiisa
ahaataa
ahaatay
ahaataye
ahaate
ahaatee
ahaato
ahaay
ahaaye
ahaayeen
ahaayen
ahamed
ahan
ahana
ahay
ahayad
ahayd
ahaye
ahayeen
ahayen
ahayn
ahayni
ahba
ahe
ahead
ahee
aheed
aheen
aheeyd
aheyd
aheyn
ahi
ahin
ahina
ahli
ahlu
ahlusuna
ahly
ahmad
ahmed
ahmet
ahmiyad
ahmiyada
ahmiyadda
ahn
ahna
ahoo
ahow
ahu
ahukewi
ahun
ahyd
ahzab
ai
aid
aidoru
aids
aigles
aiib
aik
aika
aims
ain
air
airbus
aircraft
aires
airline
airlines
airport
airspace
airways
ais
aise
aisha
aivot
aj
ajaanib
ajaanibka
ajaanibta
ajaccio
ajakis
ajanabi
ajandaha
ajar
ajarka
ajax
ajay
ajman
ajnabi
ajnabiga
ajram
ajuran
ajuuraan
ak
aka
akadeemiyada
akadeemiyadda
akademi
akademiyada
akadhiga
akan
akb
akbar
akershus
akhbaar
akhbaarta
akhlaaq
akhlaaqda
akhri
akhrin
akhrinayaa
akhrinayo
akhrinta
akhris
akhrisan
akhriska
akhrisku
akhriso
akhristaha
akhristay
akhristayaal
akhristayaasha
akhristo
akhriyaa
akhriyaan
akhriyay
akhriyey
akhriyo
akhtar
aki
akkad
akkadiyaan
akkadiyaanka
akkadiyaanku
akon
akr
akra
aks
akshay
akslro
akslroakslro
aksum
aktarada
aktarka
al
ala
alaab
alaabada
alaabaha
alaabo
alaabooyin
alaabooyinka
alaabta
alaah
alaale
alab
alabama
alabka
alad
aladdin
alaha
alajuelense
alalbayt
alam
alamagan
alamin
alan
alanka
alarabiya
alaska
alba
albaab
albaabada
albaabka
albaani
albaaniya
albaaniyaan
albam
albamka
albamkeedii
albamkii
albania
albanian
albaniya
albaniyan
albawaba
albert
alberta
alberto
albion
album
albumka
albumkeeda
albumkeedii
albumkii
albumkiisii
albumkooda
albumkoodii
albums
alcajuus
alchemist
aldawaaif
ale
alejandro
aleksandr
alemu
aleppo
alert
alex
alexa
alexander
alexandra
alexandre
alexandria
alfa
alfaatix
alfonso
alfonsoo
alfonsoogii
alfred
alg
algae
algebra
algeria
algerian
algiers
alguuri
ali
alia
alianza
alice
alicia
alien
alif
alifa
alifay
alifba
alifbeet
alifbeetada
alifbeetka
alifey
alifka
alifle
align
aligned
alisha
aljazeera
aljaziira
aljebra
aljeeriya
alkali
alkalineta
alkimi
all
alla
allaa
allaah
allaahu
allaale
allafrica
allah
allaha
allahayoow
allahayow
allahi
allahu
allamagan
allaybaday
alle
allegorical
allen
allena
alliance
allied
allies
allifay
allihii
allkpop
allmusic
alloow
allow
allsbc
allure
alma
almaany
almalik
almanac
almansuur
almeida
almere
almis
almost
almu
alone
along
alongside
aloosan
alpaca
alpacas
alpes
alpha
alphabet
alphabets
alps
alqaacida
already
alsafaax
alshabaab
also
alt
alta
altai
alternative
although
alto
alukah
alula
alumiiniyaam
aluminium
alwaax
alwaaxa
alwaaxda
alwaaxyada
alwaaxyo
always
alxakiim
am
ama
amaah
amaahanay
amaahda
amaahdeen
amaal
amaan
amaanada
amaanay
amaaneen
amaanka
amaano
amaanreer
amaanta
amaasiya
amaba
amad
amakaag
amal
aman
amanda
amani
amar
amarada
amarami
amare
amarka
amarkii
amarkutaagle
amarrada
amarro
amartay
amas
amase
amateur
amazing
amazon
amb
amba
ambalat
ambasador
ambassador
ambedkar
amber
ambiguous
ambition
ambo
ambon
ambonese
ambouli
ambro
ambroso
ambush
ame
ameerika
ameerikaan
ameerikaanka
ameerikada
ameerikan
ameeriko
amelia
amelio
america
american
americana
americans
americas
amerika
amhara
amharic
ami
amid
amiibada
amiin
amiina
amiir
amiirada
amiirka
amiirkeeda
amiirkii
amiirrada
amiko
amin
amina
aminiga
amir
amisom
amistardam
amitabh
amma
ammaan
ammaanay
ammaanka
ammaano
ammaanta
amman
ammar
amnesty
amni
amniga
among
amor
amorite
amoriteka
amoud
amouduniversity
amp
ampang
ampere
amr
amra
amraa
amram
amran
amray
amrey
amri
amritsar
amsterdam
amt
amun
amundsen
amxaar
amxaarada
amxaari
amxaariga
amxaaro
amy
an
ana
anaa
anaadool
anacom
anadolu
anadool
anaga
anagaa
anagana
anagoo
anagu
anakkale
anal
analysis
ananas
ananya
anas
anatolia
anatomy
anay
anbar
anbiyaa
anbiyada
anbiyo
anc
ancaam
ancestor
ancestry
ancient
and
andaakiya
andaaliya
andacooday
andacoonaya
andaluci
andalus
andean
anders
anderson
andersson
andes
andhra
andorra
andre
andrea
andreas
andrei
andrew
andrews
andriy
android
andromeda
andronikos
andy
anemia
ang
angel
angela
angeles
angelina
angels
anger
angers
anges
anglo
angola
angus
ani
aniga
anigaa
anigana
anigoo
anigu
aniguna
aniis
animal
animals
animation
anime
animenewsnetwork
ankara
ann
anna
annaga
annagoo
annagu
anne
annex
anni
annie
anniga
annigana
annigoo
annigu
anniversary
anno
announce
announced
announces
annual
ano
anod
anoo
another
ans
ansaar
ansaari
ansaarta
anshax
anshaxa
ansixin
ansixinta
ansixisay
ansixiyaan
ansixiyay
ansixiyeen
ansixiyey
ansixiyo
answer
answers
ant
anta
antalya
antaraktika
antarctic
antarctica
antarktik
antarktika
antau
ante
anteeksi
antelope
antep
anthem
anthony
anthroboloji
anthropology
anti
antigua
antike
antiker
antilles
antimony
anto
antoine
antonio
anu
anuak
anubis
anwar
anxiety
any
ao
aoa
aoi
ap
apa
apart
apc
apink
apj
apne
apnews
apollo
app
apparently
appear
appeared
apple
application
applications
applied
appointed
appoints
appreciate
approach
approved
approves
approx
approximately
apps
appsso
apr
apriil
april
apsa
aqaan
aqaano
aqaba
aqable
aqal
aqalada
aqaladu
aqalka
aqbalaa
aqbalaan
aqbalay
aqbaleen
aqbali
aqbalin
aqbalo
aqbashay
aqbelay
aqlabiyad
aqlabiyadda
aqoon
aqooneed
aqoonin
aqoonraadis
aqoonsadaan
aqoonsaday
aqoonsadeen
aqoonsadey
aqoonsado
aqoonsan
aqoonsana
aqoonsanaa
aqoonsanayn
aqoonsanyahay
aqoonsanyihiin
aqoonsatay
aqoonsi
aqoonsiga
aqoonta
aqoontiisa
aqoonyahan
aqoonyahanada
aqoonyahanadii
aqoonyahanadu
aqoonyahanka
aqoonyahannada
aqoonyahanno
aqoonyahano
aqrin
aqrinayaa
aqrinayo
aqrineyn
aqrineysaa
aqrinta
aqrintooda
aqriska
aqriyay
aqriyey
aqriyo
aqsa
aquarius
aquatic
ar
ara
araarso
arab
arabi
arabia
arabian
arabic
arabiya
arabnews
arabs
arabsiyo
arafat
arag
araga
aragga
aragnaa
aragnay
aragnimada
aragnimadeeda
aragnimo
aragno
aragon
aragonese
aragtaa
aragtaan
aragtay
aragtey
aragti
aragtid
aragtida
aragtidan
aragtidiisa
aragtiyada
aragtiyaha
aragtiyo
aragto
aramaic
aramaygga
aramco
arap
araplar
ararsame
araweelo
arba
arbaaz
arbaca
arbacada
arbaco
arbe
arbor
arc
arcadia
arcep
archaeological
archaeology
archer
archipelago
architectural
archive
archived
archives
arctic
arda
ardaa
ardada
ardadii
arday
ardayda
ardaydaas
ardaydii
ardaydiisii
ardaydu
ardayga
ardencroft
ardey
ardeyda
ardeydii
ardeydu
ardo
ardogrol
are
area
areas
arema
arena
arendal
argagax
argagaxa
argagaxiso
argaggixisada
argagixisada
argagixiso
argentina
argentine
argon
ari
ariana
arid
ariel
ariga
arimaha
arimahaas
arimahan
arimo
arimood
arin
arinka
arinkaas
arinkaasi
arinkan
arinku
arinta
arintaa
arintaan
arintaas
arintaasi
arintan
arintani
arisona
aristotle
arizona
arjaeya
arjantiin
arjantiina
arjun
ark
arka
arkaa
arkaan
arkaayay
arkansas
arkay
arkayay
arkayey
arkaynaa
arkayo
arkaysaa
arke
arkeen
arkey
arkeyaan
arkeysaa
arki
arkid
arkin
arko
arktik
arm
armaajo
armania
armed
armeeniya
armenia
armenian
armeniya
armes
armiiniya
arms
army
arnold
aromatherapy
aroor
arooray
aroortay
aroortii
aroortu
aroos
arooska
arooskii
aroosku
aroosyada
arora
around
arqam
arrange
array
arrest
arrimaha
arrimahaas
arrimo
arrimood
arrin
arrinkaa
arrinkaas
arrinkan
arrinkii
arrinku
arrinta
arrintaa
arrintaas
arrintaasi
arrintan
arrintani
arrintu
arrogance
arrow
ars
arsalaan
arsenal
arslan
art
arta
arthur
article
articleid
articles
articleshow
articleview
artikel
artist
artists
arts
artsakh
aruba
aruurinta
aruuriyay
aruursaday
aruurshay
arxan
arxiv
aryabhata
aryan
arzanjaan
as
asaal
asaas
asaasay
asaaseen
asaasi
asaasiga
asaaska
asad
asadu
asaga
asagana
asago
asagoo
asagoon
asagu
asal
asaliga
asalka
asalkeeda
asalkiisa
asalkiisu
asalkooda
asalkoodu
asami
asasay
asay
asc
ascad
ascension
asean
aserbiijaan
asexual
asf
asfalt
ash
ashar
asharaaf
asharafta
ashcari
ashley
ashoka
ashraf
ashtar
ashton
ashtoncentralmosque
ashuur
asi
asia
asiae
asian
asiana
asiaone
asias
asiatic
asie
asiga
asigana
asigoo
asigoona
asiidh
asiidha
asimo
asin
asir
asiya
asiyriyaan
asiyriyaanka
ask
askandar
askandariya
askar
askari
askarta
askartii
askartu
asl
aslakooda
aslam
asli
asluub
asluubta
asma
asmaa
asmara
asn
asna
asnaamta
asoo
asp
aspects
asphalt
aspx
ass
assaasay
assad
assainie
assam
assamese
assange
assassination
assault
assembly
assessment
assets
assignment
assist
assistance
assistant
assiyriya
assiyriyaanka
associate
associated
association
associations
assyrian
astaamaha
astaamo
astaan
astaanta
astaantiisu
asteeyay
asteroid
asteroids
asto
aston
astonishment
astrid
astro
astronomical
astronomy
astrophysical
astrophysics
asturnaanta
asu
asuka
asvel
aswad
aswan
asxaab
asxaabi
asxaabiga
asxaabta
asxaabtaas
asxaabtii
asxaabtiisa
asxaabtiisii
asxaabtooda
asxaabtu
asylumlaw
at
ata
atal
atalanta
atam
atamka
atariishada
atariisho
atariishooyinka
atatu
ataturk
ath
atheist
athens
athletic
atirisho
atirishooyinka
atlaantiga
atlaantik
atlanta
atlantic
atlantiga
atlantik
atlantika
atlas
atle
atm
atmosphere
atmospheric
atom
atomic
atomiga
atomik
atomka
atomkeedu
atomkiisu
atomyada
atomyo
atoore
atp
attack
attacked
attacks
attapeu
attempt
attend
attended
attention
attitude
attribute
attributes
au
aubrey
auckland
aud
audi
audio
aug
august
augusto
augustus
aun
aung
aunt
aurinko
aus
auschwitz
aust
austin
australia
australian
australiya
australiyaanka
austria
austriya
author
authorities
authority
authors
auto
autobus
automobile
automobiles
autonomous
autonomy
autor
autorite
autumn
aux
av
available
avalites
avengers
avenue
average
aviation
aviv
avn
avogadro
avoid
aw
awaal
awaalka
awaare
awad
awal
awale
award
awards
awareness
awash
away
awbare
awdal
awdalland
awdheegle
awdigil
awe
awesome
aweys
awgaduud
awgeed
awgeedna
awgiis
awgood
awia
awiyah
awliyada
awliyo
awood
awooda
awoodaa
awoodaan
awoodaha
awooday
awoodda
awooddeeda
awooddii
awooddiisa
awooddooda
awoodeed
awoodeeda
awoodeen
awoodeestay
awoodi
awoodii
awoodiisa
awoodin
awoodna
awoodno
awoodo
awoodood
awoodooda
awoow
awoowaha
awoowayaasha
awoowayaashii
awoowe
awoowgii
awoowgiis
awow
awowgii
awowgiis
awqaafta
awr
awrtable
aws
awsaciid
awstaria
awstriya
awwal
ax
axaaddiis
axaaddiista
axaadiis
axaadiista
axad
axadda
axamed
axdi
axdiga
axdigii
axel
axis
axkaamta
axmad
axmed
axsaab
axum
axzaab
ay
aya
ayaa
ayaaba
ayaabay
ayaad
ayaan
ayaana
ayaanan
ayaanle
ayaannu
ayaanu
ayaay
ayada
ayadna
ayadoo
ayadoon
ayadu
ayaga
ayagana
ayagoo
ayagu
ayaguna
ayah
ayaka
ayan
ayana
ayasan
ayax
ayay
ayayna
ayaynu
aybeeriya
aydaan
aydhiska
aydiin
ayee
ayeena
ayeey
ayeeyna
ayeeyo
ayey
ayeyna
ayman
aymara
ayn
ayna
aynaan
aynan
aynnu
aynu
ayo
ayoo
ayris
ayrland
aysan
ayslaan
ayu
ayub
ayuu
ayuub
ayuubi
ayuubiyiinta
ayuun
ayuuna
ayyal
az
azalea
azam
azania
azc
azerbaijan
azeri
azhar
azhari
azic
aziz
aztec
aztecs
azwat
azərbaycan
b
ba
baa
baab
baaba
baabaa
baabba
baabbi
baabi
baabili
baabiloon
baabiyloon
baabiylooniya
baabtiisay
baabuloon
baabuur
baabuurka
baabuurkii
baabuurta
baabwa
baad
baadari
baadca
baadda
baadha
baadhayaasha
baadhe
baadhi
baadhis
baadhista
baadhitaan
baadhitaanka
baadhitaano
baadho
baadi
baadiya
baadiyaha
baadiye
baadiyo
baadka
baahan
baahanahay
baahantahay
baahanyahay
baahanyahey
baahanyihiin
baahay
baahda
baahdaan
baahday
baahdo
baahi
baahid
baahida
baahidooda
baahin
baahinta
baahiyaha
baahiyay
baahiyo
baahna
baahnaa
baahnayn
baahneyn
baahsan
baahubali
baajuuniga
baakistaan
baal
baalade
baalal
baalasha
baalcad
baale
baali
baalooto
baan
baane
baanis
baanka
baantuuga
baanu
baaq
baaqa
baaqan
baaqay
baaqayaa
baaqday
baaqi
baaqii
baar
baaraa
baaraan
baaraha
baaray
baarayaal
baarayaasha
baardheere
baare
baargaal
baari
baariis
baaris
baarista
baaritaan
baaritaanada
baaritaanka
baaritaano
baariyaam
baarka
baarlamaan
baarlamaani
baarlamaaniga
baarlamaanka
baarlamaankana
baarlamaankii
baarlamaanku
baarlamanka
baarliin
baarmagoog
baaro
baarri
baarto
baaruud
baas
baasaboor
baasaboorka
baasha
baashaa
baashaal
baashaalayo
baashe
baashi
baasifig
baasifiga
baasifigga
baasifik
baaskiil
baaskiiladaha
baaskiilka
baastada
baasto
baasuuke
baaxad
baaxada
baaxadda
baaxadeedu
baaxadiisu
baay
baayac
baayacmushtar
baaz
baazigar
bab
baba
babaay
babaayga
babuur
babuurka
baby
babylon
bac
bacaad
bacaadka
bacaadweyn
bacad
bacadle
bacaha
bacariminta
bacda
bacdi
bach
bachchan
bachelor
back
backed
background
backhoe
bacoolo
bacriminta
bacrin
bad
bada
badaan
badacas
badaha
badal
badalay
badali
badalo
badan
badana
badanaa
badanaaba
badanaana
badanba
badane
badani
badanina
badanka
badankiisu
badankood
badankooda
badankoodu
badankooduna
badanna
badantahay
badanyahay
badanyihiin
badar
badashaa
badashay
badatay
badato
baday
badbaada
badbaadaan
badbaadada
badbaaday
badbaadi
badbaadin
badbaadinta
badbaadiyay
badbaadiyey
badbaadiyo
badbaado
badda
baddaha
baddan
baddii
baddu
badeecad
badeecada
badeecadaha
badeecado
badeeco
badeecooyin
badeecooyinka
badeed
badeeda
badeedda
badeedka
badeednimada
badeel
baden
bader
badger
badh
badhaadhe
badhan
badhano
badhasaab
badhasaabka
badhasaabkii
badhe
badheha
badhkii
badhtamaha
badhtamihii
badhtanka
badhtankeeda
badi
badiba
badin
badisay
badiya
badiyaa
badiyay
badiyo
badka
badmaaxiinta
badmareen
badmareenada
badminton
badna
badnaa
badnaan
badnaana
badnaanta
badnaantooda
badnaayeen
badnayd
badnayn
badneyd
badneyn
badni
bado
badr
badraan
badru
badwayn
badwaynta
badweyn
badweynta
badweyntani
bae
baek
baekhyun
baeksang
bag
bagan
baghdad
bah
baha
bahabar
bahadhamal
bahal
bahalada
bahalka
bahalnimo
bahalo
bahamas
bahan
baharsame
bahasa
bahay
bahda
bahdil
bahgeri
bahia
bahir
bahmajeelo
baho
bahoobay
bahoobeen
bahood
bahowdey
bahrain
bahraini
bahri
bahsanbuur
bahweynta
baidoa
baik
baikonur
bailey
baillargeon
bailly
bajrangi
bajuni
bakaaraha
bakar
bakayle
baker
bakhaar
bakhayl
bakhit
bakhtiiye
bakhtiiyeyaasha
baki
bakistaan
bakistan
bakool
bakr
bakteeriya
bakteeriyada
bakteriya
bakteriyada
baku
bal
balaadhan
balaadhatay
balaadhinta
balaaran
balaaratay
balaariyay
balaarsiga
balaartay
balaasma
balaastikada
balaayiin
balaayo
balac
balaca
baladhan
baladiyaam
baladwayne
baladweyn
baladweyne
balaloo
balan
balanbaalis
balanbal
balanbale
balance
balanqaad
balanqaaday
balantii
balatiniyaam
balbiis
balcad
baldiiqa
baldwin
baledxawo
baleeyey
balgaraad
bali
balidhiig
baligubadle
balinese
balkan
balkans
ball
ballaadhan
ballaadhnaa
ballaaran
ballaarin
ballaarinta
ballaarisay
ballaariyay
ballaariyo
ballac
ballad
ballan
ballanqaaday
ballanqaadka
ballaran
balli
balliga
ballistic
ballon
balochistan
balqaan
balqiisa
balse
baltic
baltimore
baluug
balwad
balwada
balwadda
balwo
balwooy
balıkesir
bam
bamako
bambeelmada
bambeelmadu
bambeelmo
bamka
ban
banaa
banaadir
banaadiriga
banaan
banaana
banaanaa
banaani
banaanida
banaanka
banadir
banama
banan
banana
band
banda
bandar
bandhig
bandhiga
bandhigaa
bandhigaan
bandhigay
bandhigaya
bandhigayaa
bandhigayo
bandhigeen
bandhigey
bandhigga
bandhigi
bandhigidda
bandhigin
bandhigo
bandhigtaa
bandhigtay
bandhigto
bandhigu
bandhigyada
bandhigyo
bandiiradley
bandow
baneeyay
bang
bangaladesh
bangaladhesh
bangalore
bangi
bangiga
bangiyada
bangiyo
bangkok
bangkokpost
bangladesh
bangladhesh
bangui
bani
banii
banjar
bank
banka
banki
bankiga
banking
bankiyada
banknote
banks
banna
bannaan
bannaani
bannaanida
bannaanidii
bannaanka
banner
banooni
banque
banteay
bantoid
bantu
banu
banuu
baptist
baqal
baqara
baqay
baqaya
baqayeen
baqdaad
baqdin
baqi
baqiic
baqo
bar
bara
baraa
baraag
baraakofij
baraale
baraan
baraarug
baraaruga
baraarujinta
baraasiil
baraawe
barack
baradhada
baradho
baraf
barafka
barafku
baraha
baraka
barakaat
barakacay
barakacayaasha
barakada
barakaysan
barakeeyay
barakeeyo
barakeysan
barako
barakooyinka
barameter
baran
baranay
baranayay
baranayey
baranayo
baranaysay
barandhaha
barandho
barano
barar
bararka
baras
barashada
barashadiisa
barashadiisii
barasho
barasiil
barat
baratay
barato
baray
barayaal
barbaar
barbaaray
barbaarey
barbaarin
barbaarinta
barbaariyaha
barbaariyo
barbaartay
barbados
barbar
barbara
barbardhigo
barber
barbera
barboosa
barbuda
barcelona
barde
bardera
bardhere
bare
bareer
barelang
bargaan
bari
barida
bariga
barigana
bariidka
bariire
bariis
bariiska
bariisku
barin
barina
barisan
barista
barka
barkad
barkada
barkadaha
barkadda
barkado
barkhad
barkhadle
barkii
barlamaanka
barlamanka
barliin
barmuuda
barnaamij
barnaamijka
barnaamijkan
barnaamijkii
barnaamijku
barnaamijyada
barnaamijyadooda
barnaamijyo
barneen
barnes
baro
baron
barood
barqa
barqo
barracks
barrande
barre
barrel
barrelka
barri
barriga
barrle
barrleka
barrles
barrlka
barro
barrow
barry
barsane
barshada
barta
bartaa
bartaan
bartamaha
bartamihii
bartanka
bartay
barteeda
barteen
bartey
bartii
bartilmaameed
bartilmaameedka
bartilmaameedsaday
bartilmaameedyada
bartire
bartleby
bartlett
barto
barunay
baruur
baruurta
barwaaqa
barwaaqada
barwaaqo
barxad
barxada
barxadaha
barxadda
baryay
baryayaa
baryaynaa
baryey
barygaza
baryo
bas
basa
basal
basali
basaliga
basasha
basaska
basbaas
basbaaska
base
baseball
based
basel
bash
basha
bashar
bashiir
bashir
bashundhara
basic
basics
basin
basis
baska
basket
basketball
baskin
basliga
basque
basra
bass
bassa
basto
bastoolad
basu
bat
bataan
bataax
batak
batam
batay
bateen
bath
batista
batman
bato
batool
batrool
batroolka
batsman
batsmen
battambang
batters
battle
battuta
batuuta
bauxite
bavaria
bavarian
bawlo
bax
baxa
baxaa
baxaan
baxan
baxar
baxay
baxaya
baxayaa
baxayaan
baxayay
baxaysa
baxaysaa
baxayso
baxda
baxdaa
baxday
baxdey
baxdo
baxeen
baxey
baxiira
baxnaan
baxo
baxrayn
baxreyn
baxriga
baxsadaan
baxsaday
baxsadeen
baxsado
baxsan
baxshay
baxso
baxyo
bay
bayaan
bayaanka
bayax
bayazid
baybalka
baydhabo
baydka
bayer
bayern
bayla
bayle
bayoloji
bayoolaji
bayruut
bayt
baytul
baytulaxam
bazaar
bazin
bb
bbb
bbc
bbfc
bboom
bc
bce
bclub
bd
be
bea
beach
bean
beans
bear
beard
beast
beat
beatles
beatrice
beautiful
beauty
bebe
became
because
beckenbauer
become
becomes
becoming
bed
beddel
beddelaan
beddelay
beddelaya
beddeleen
beddeli
beddelidda
beddelin
beddelka
beddelkeeda
beddelo
beddeshay
beddesho
bedeka
bedel
bedela
bedelaan
bedelay
bedelayo
bedeleen
bedeley
bedeli
bedelin
bedelka
bedelkeeda
bedelo
beden
beder
bedeshaa
bedeshay
bedka
bedkeedu
bedr
bee
beebaris
beec
beef
beeg
beegan
beegantahay
beegantay
beegnaa
beegnayd
beegsaday
beegsanayo
beel
beela
beelaha
beelahaasi
beeldaajaha
beeldaaje
beeleed
beeleedyo
beelihii
beelka
beelo
beelood
beelwaynta
beelweeynta
beelweyn
beelweynta
been
beenaale
beenisay
beeniyana
beeniyay
beeniyeen
beenta
beer
beera
beeraa
beeraan
beeraha
beerahooda
beeralay
beeralayda
beeraleey
beeraley
beeraleyda
beeran
beerashada
beerasho
beeray
beereed
beereedka
beergadiid
beeri
beerida
beerin
beerista
beerka
beero
beeroleey
beeroley
beerood
beershiya
beerta
beertaan
beertay
beertii
beerto
beertu
beeruhu
beerwayso
beesha
beeshaan
beeshan
beeshani
beeshii
beeshiisa
beeshu
beeton
beey
beeyada
beeyo
befolkning
before
began
begedi
begin
beginning
begins
behind
beijing
being
beirut
beitar
beja
bek
beko
bel
bela
belaha
belarus
beled
beledwayne
beledweyne
beleza
belfast
belgian
belgium
belgrade
belief
beliefs
believe
belise
belize
beljim
beljimka
bell
bella
belle
belly
belo
belonging
belongs
below
belt
beluga
belzoni
ben
benaadir
benadir
bender
bene
benefits
benfica
bengal
bengali
bengaluru
benghazi
bengkulu
beni
benin
benishangul
benjamin
bennett
benson
benue
benz
ber
beratung
berber
berbera
berberiga
berbers
berdaale
berenice
beretta
berg
bergen
beri
beribiyood
berigaa
berigii
beriiliyaam
berito
berkeley
berlin
berlinale
bermuda
bernard
bernhard
berri
berriga
berry
berta
beryahan
beryo
bes
besbaaska
besha
bessarabiya
best
bet
beta
betawi
better
betty
between
beverly
bexeen
bey
beyd
beydariin
beydariintu
beydhabo
beydka
beyla
beyle
beymuud
beyog
beyonce
beyond
beyra
beyruut
beytka
bezoz
bf
bg
bh
bhaijaan
bhansali
bharat
bharuch
bhatt
bhopal
bhumibol
bhutan
bi
bia
bianca
bibalex
bibcode
bible
biblia
biblical
bibliography
biciid
biciide
bid
bidaar
bidaarta
bidacda
biday
bidcada
bidco
bidde
bide
biden
bidhaan
bidix
bidixda
bieber
big
bigg
biggest
bih
biid
biimaal
biir
biira
biiraan
biiray
biireen
biiri
biirin
biiro
biirtay
biirto
biixi
bikini
bil
bila
bilaa
bilaabaa
bilaabaan
bilaaban
bilaabanaya
bilaabanta
bilaabantaa
bilaabantay
bilaabantey
bilaabanto
bilaabata
bilaabataa
bilaabatay
bilaabato
bilaabay
bilaabaya
bilaabayaa
bilaabayo
bilaabeen
bilaabey
bilaabi
bilaabid
bilaabida
bilaabin
bilaabma
bilaabmaa
bilaabmaan
bilaabmay
bilaabmaya
bilaabmaysa
bilaabmeen
bilaabmey
bilaabmo
bilaabo
bilaah
bilaal
bilaalna
bilaamayso
bilaash
bilaashka
bilaawday
bilaawga
bilaawo
bilabay
bilabka
bilad
bilada
bilaha
bilateral
bilaw
bilawday
bilawdo
bilawga
bilawgii
bilays
bilayska
bildvortaro
bile
bili
bilic
bilicda
bilicdeeda
bilicsan
bilihii
bililiqo
biljim
bill
billaabay
billaabeen
billaabo
billad
billboard
bille
billion
billionaire
billo
billowday
billowgii
billy
bilo
bilood
biloow
biloowday
biloowgii
bilooyin
bilow
bilowday
bilowdey
bilowdo
bilowga
bilowgii
bilyan
bilyanaad
bilyaneer
bilyaneerka
bin
bina
binali
binary
bing
binh
bini
biniaadamka
biniaadanka
biniin
biniktojiin
binil
binladin
bint
bintang
binti
bintu
binu
bio
biography
biologia
biology
biosphere
bipasha
bir
biraambire
biraha
birbir
birbiris
bird
birds
biri
biribir
biribiri
biriizanda
biriizandiyiinta
birin
birinbir
biriq
biriqda
biritayn
biritishka
birka
biro
biroole
birqod
birr
birta
birth
birthday
birtii
biruni
bis
bisad
bisada
bisadaha
bisadda
bisadu
bisha
bishaareeyay
bishaaro
bishaas
bishan
bishani
bishii
bishiisa
bishuna
bisil
bisin
bisinka
bislaado
bislaan
bismi
bismuth
bissau
bit
bitch
bitstream
bitumen
biw
biweynos
bixi
bixida
bixin
bixinaya
bixinno
bixinta
bixisa
bixisaa
bixisay
bixiso
bixitaanka
bixitaankii
bixiya
bixiyaa
bixiyaan
bixiyaasha
bixiyaha
bixiyay
bixiye
bixiyeen
bixiyey
bixiyeyaasha
bixiyo
biya
biyaano
biyaanoda
biyacade
biyaha
biyeeye
biyihii
biyo
biyocas
biyoha
biyoka
biyoloji
biyood
biyoodka
biyoodyo
biyotechnology
biyuhu
biz
bizchina
bj
bk
bl
black
blackpink
blackpinks
blackstone
blade
blaise
blanc
blankinship
blast
blench
blica
blindness
bliss
block
blocker
bloemfontein
blog
blogger
blogs
blogspot
blonde
blondes
blood
bloody
bloomberg
bloomington
blow
blu
blue
bluetooth
bluff
bluto
blv
blvd
bm
bmatrix
bmj
bn
bnf
bnp
bo
boa
board
boarding
boat
bob
bobcat
bobsley
bocor
bocorka
bodies
body
bodø
boe
boeing
boeung
bog
boga
bogaadiyay
bogag
bogaga
bogagga
bogan
bogay
bogga
boggag
boggaga
boggan
boggeeda
bogota
bogsasho
bohemia
boho
bohol
bohriyaam
bokeo
boko
boland
bold
bole
boli
boliifia
boliiska
bolivarian
bolivia
bollywood
bollywoodhungama
bollywoodka
bologna
boloniyaam
bomb
bombay
bombing
bombings
bon
bonaire
bonaparte
bond
bone
bong
bongo
boob
boobay
boobe
boobka
boocame
boocle
bood
booday
boodh
boodhadhka
boodhari
boodhka
boodhley
boodo
book
bookcontents
bookh
booklets
books
boolaan
booliis
booliiska
booliisku
boolis
booliska
boom
boon
boondheere
booqan
booqanaya
booqashada
booqasho
booqatay
booqda
booqdaan
booqday
booqdo
booqo
boorama
boorame
boore
boorinta
boorisay
booriyay
boorka
booron
boorsada
boortaqiiska
boos
boosaaso
boosaha
boosaska
booska
booskii
booskiisa
boosniya
boost
boostada
boosteejo
boosto
boot
bootaan
booyad
boqol
boqolaad
boqolaal
boqolka
boqolkiba
boqolkii
boqolkiiba
boqollaal
boqon
boqor
boqorad
boqorada
boqoradda
boqoraddii
boqoradii
boqorka
boqorkii
boqorkooda
boqorkoodii
boqorku
boqornimada
boqornimadii
boqoro
boqorow
boqorrada
boqorradii
boqorro
boqortooyada
boqortooyadaan
boqortooyadaasi
boqortooyadan
boqortooyadani
boqortooyadii
boqortooyadiisa
boqortooyadu
boqortooyda
boqortooyo
boqortooyooyin
boqortooyooyinka
boqortooyooyinkii
boqortoyada
boqortoyadii
boqray
bora
borama
bordeaux
borden
border
borderlands
borders
borg
boris
born
borneo
borofisar
boromiin
boron
borotiin
borotiinka
borotoon
borotoonka
borotoono
borrow
bort
bortaqiis
bortaqiiska
bortland
bortuqaal
bortuqiis
bortuqiiska
bortuqiisku
borussia
bos
bosaaso
bosaso
bosna
bosnia
bosniya
bosporus
boss
boston
boswellia
bot
botanical
botany
botashiyaam
both
bother
botka
botswana
bottle
boulevard
boulogne
boundaries
boundary
bourges
bourgoin
bow
bowie
bowl
bowler
bowlers
box
boxing
boxo
boxoffice
boxofficeindia
boxofficemojo
boy
boyfriend
boyle
boys
bp
br
bra
brabant
brahim
brain
branch
brand
brandenburg
brandon
brands
brandt
brasi
brasil
bratislava
bratislavia
brave
brazil
brazilian
brazzaville
break
breakers
breakfast
breaking
breaks
breakup
breast
breasted
breathing
bren
brenda
breton
brian
brics
bride
bridge
brief
briefing
brigade
bright
brighton
brill
brings
brisbane
bristol
britain
britan
britannica
british
britishka
britney
brittany
broad
broadcast
broadcasting
broke
broken
bronze
bronzeka
brookings
brooklyn
brooks
bros
broterosoyig
brother
brothers
brotista
brotistaha
brought
brown
browne
browse
browser
bru
bruce
brunei
bruni
bruno
brunswick
brush
brussel
brussels
brutus
bruxelles
bryan
bs
bsec
bskn
bt
bts
btv
bu
bubble
bube
buburkii
buchenwald
bucul
bud
budada
budapest
budbud
buddha
buddhism
buddhist
budge
budget
budhcad
budny
budo
budunbuto
buenos
buffalo
buffaloes
buffer
bugdaan
buhari
buhoodle
build
building
built
bujumbura
bukaa
bukaan
bukaanka
bukeeni
bukhaari
bulaale
bulale
bulashada
bulawayo
bulaxaar
bulgaariya
bulgaria
bulgarian
bulgeeriya
bulgeriya
bull
bullaxaar
bulletin
bullock
bulls
bullying
bulo
bulsha
bulshada
bulshadda
bulshadeed
bulshadeeda
bulshadu
bulsheed
bulsho
bulshooyin
bulshooyinka
bulshooyinkii
bulshoweynta
buluug
buluuga
buluugga
buluuto
bulxan
bum
bun
bundesliga
bunduqiya
buni
bunka
bunni
buntukha
buq
bur
buraale
buraan
buraanbur
buraashka
burao
burbur
burburay
burbureen
burburin
burburinta
burburisay
burburiyaa
burburiyaan
burburiyay
burburiyeen
burburiyey
burburiyo
burburka
burburkii
burburo
burbursan
burburtay
burca
burcad
burco
burdhubo
bureau
bureaus
burger
burhaan
burhaanudiin
burhakaba
burinta
buriram
buriyay
buriyo
burj
burjikada
burjiko
burka
burkii
burkina
burkinabe
burma
burmese
burnham
burrard
bursa
bursaalax
bursaday
bursaspor
burtaqiiska
burtay
burte
burtinle
burton
burtuqaal
burtuqiis
buruc
burundi
bus
busan
bush
business
businessinsider
businessman
businessweek
busiweek
buske
buskerud
buskud
buskudka
busra
buste
bustle
but
butaan
butana
butane
buti
butida
butidu
butler
buu
buudiga
buuf
buug
buuga
buugaag
buugaagta
buugag
buugagga
buugaggan
buugan
buugga
buuggan
buuggii
buuggiisa
buugiisa
buugta
buuhoodle
buula
buulaburde
buule
buulo
buuloburde
buuloburte
buulomareer
buun
buuna
buundada
buundo
buundooyin
buundooyinka
buuni
buunka
buuq
buur
buuraha
buuralay
buuralayda
buuraley
buuraleyda
buuran
buurdhuubo
buurhakaba
buuri
buuriga
buurigu
buuro
buuroley
buuroleyda
buurood
buursa
buurta
buurtan
buurtii
buurtinle
buuruhu
buurweyn
buux
buuxa
buuxaan
buuxda
buuxdo
buuxin
buuxinta
buuxisay
buuxiya
buuxiyaan
buuxiyay
buuxiyo
buuxo
buuxsamay
buweehiyiinta
buy
buzz
bw
bwsf
bx
bxx
by
byhnins
byzantine
byzantium
c
ca
caa
caabbinta
caabin
caabinta
caabuda
caabudaa
caabudaadda
caabudaan
caabudi
caabudid
caabudno
caabudo
caabudwaaq
caabuqa
caad
caadada
caadadan
caadi
caadiga
caadil
caadiyan
caadka
caadleey
caadley
caado
caadooyin
caadooyinka
caadoyin
caafi
caafimaad
caafimaadka
caafimaadkaaga
caafimad
caag
caagane
caaisha
caajis
caajiska
caalam
caalami
caalamiga
caalamiya
caalamka
caalamkaba
caalamku
caalim
caalimka
caalin
caalmaka
caalmka
caam
caamir
caan
caana
caanaha
caanbaxay
caanbaxday
caanihii
caanka
caanku
caannimada
caannimadeeda
caano
caanood
caansan
caansana
caansanaa
caantahay
caanuhu
caaqil
caaqilka
caarada
caarif
caaro
caas
caasha
caashaq
caashaqa
caasho
caasi
caasimad
caasimada
caasimadaha
caasimadan
caasimadani
caasimadda
caasimaddeeda
caasimaddeedu
caasimaddu
caasimadeeda
caasimadii
caasimadiis
caasimadiisa
caasimadood
caasimadooda
caasimadu
caasiso
caasiyay
caasiyo
caateeye
caato
caawa
caawi
caawimaad
caawimada
caawimo
caawin
caawinaad
caawinin
caawinta
caawisaa
caawisay
caawiso
caawiya
caawiyaa
caawiyaan
caawiyay
caawiye
caawiyey
caawiyo
caayisha
cab
caba
cabaa
cabaad
cabaan
cabaas
cabaasiga
cabaasiya
cabaasiyiinta
cabane
cabay
cabba
cabbaar
cabbaas
cabbaasi
cabbir
cabbiraadda
cabbirka
cabbiro
cabbitaannada
cabbo
cabd
cabdala
cabdale
cabdalla
cabdalle
cabdi
cabdicasiis
cabdicaziiz
cabdikaafi
cabdikariim
cabdikariin
cabdil
cabdilaahi
cabdilahi
cabdile
cabdillaahi
cabdillahi
cabdille
cabdilmalik
cabdimajiid
cabdimalik
cabdimanaaf
cabdimudhalib
cabdinaasir
cabdinuur
cabdiqaadir
cabdiqaasim
cabdiqadir
cabdiqani
cabdirashid
cabdirashiid
cabdiraxmaan
cabdiraxman
cabdirisaaq
cabdisalaam
cabdisalaan
cabdishakuur
cabdiwali
cabdiweli
cabdu
cabdul
cabdulaahi
cabdulahi
cabdulcasiis
cabdulcaziiz
cabdule
cabdullaahi
cabdullah
cabdullahi
cabdulle
cabdulmajiid
cabdulmalik
cabdulqaadir
cabduqaadir
cabduraxmaan
cabi
cabidda
cabin
cabinet
cabir
cabiraa
cabiray
cabiri
cabirka
cabirkiisu
cabiro
cabista
cabitaan
cabitaanada
cabitaanka
cable
cables
cabo
cabsada
cabsaday
cabsado
cabsan
cabsanaya
cabsanayaa
cabsanayn
cabsi
cabsida
caburinta
cad
cada
cadaa
cadaab
cadaabi
cadaabin
cadaabo
cadaabta
cadaad
cadaadis
cadaadiska
cadaadiskii
cadaadiyo
cadaadley
cadaado
cadaalad
cadaalada
cadaaladda
cadaan
cadaanka
cadaatay
cadaawad
cadaawada
cadaawe
cadadka
cadakibir
cadal
cadale
cadami
cadan
cadar
cadarka
cadaw
cadawe
cadawga
caday
cadaymo
cadayn
cadaynaya
cadaynaysa
cadcad
cadceed
cadceeda
cadceedda
cadceedu
caddaa
caddaalad
caddaalada
caddaaladda
caddaan
caddaanka
caddaatay
caddahay
caddayn
caddaynaysaa
caddaynta
cadde
caddeeyay
caddeeyeen
caddeeyey
caddeeyo
caddeyn
caddo
caddoow
caddow
cade
cadeey
cadeeyay
cadeeyeen
cadeysay
cadhada
cadho
cadi
cadka
cadmeed
cadnaan
cadnaaniyiin
cado
cadoow
cadow
cadowga
cadowgiisa
caesar
caf
cafaan
cafar
cafari
cafariga
cafe
caffaan
caffan
caffe
cafha
cafimaad
cafimaadka
cafis
cafiyay
cag
caga
cagaar
cagaaran
cagaare
cagaarka
cagaarshow
cagaarshowga
cagaf
cagaha
cagajuglaynta
cagarshowga
cage
cagliari
cagta
cagtiisa
cahen
caicos
cain
cairo
caisha
cajaa
cajalad
cajaladaha
cajalado
cajam
cajiib
cajiibka
cal
cala
calaa
calaamad
calaamada
calaamadaha
calaamadaynta
calaamadda
calaamadeeyay
calaamadeeyo
calaamadisay
calaamadiyay
calaamadiyey
calaamado
calaamaduhu
calaaudiin
calabria
calaf
calamada
calan
calanka
calankii
calanku
calanle
calasow
calayhi
calcio
calcium
calculated
calculator
calcutta
calderan
caledonia
caleema
caleemaha
caleemihiisa
caleemo
caleemood
caleemuhu
caleen
caleenta
calendar
calender
calgary
cali
california
caliph
caliphate
caliyow
call
callaama
called
calling
callisto
calls
calool
caloosha
calooshood
calooshu
caluula
calvert
calvin
camaadudiin
camaar
camaara
camal
camalka
camar
cambaha
cambe
cambodia
cambodian
cambridge
cambuulada
cambuur
came
camel
camels
cameo
camera
cameron
cameroon
camiran
cammaan
camp
campaign
campbell
campora
camps
campus
camraan
camram
camuud
camuuriya
camwaas
can
cana
canaan
canaantay
canab
canabka
canada
canadian
canal
cananaas
cananiska
canary
canbaha
canberra
cancer
candala
candhuuf
candhuufta
canfarta
canis
canjeerada
canjeero
cannes
cannibalism
cannot
canon
cansanaa
canshuur
canshuuraha
canshuurta
cant
canton
cantonese
canug
canuuniga
cao
cap
capable
capacity
cape
capita
capital
capitals
captain
caption
capture
captured
caqaba
caqabad
caqabada
caqabadaha
caqabado
caqiidada
caqiidadiisa
caqiidadooda
caqiido
caqiil
caqli
caqliga
caqligal
caqligu
car
cara
caraale
caraay
carab
caraba
carabaha
carabi
carabiga
carabiya
carabka
carabku
carabta
carabtii
carabtu
carada
caraf
carafaat
carafo
carai
carara
cararaan
cararay
cararaya
carareen
caravan
carays
carbeed
carbistey
carbon
card
cardi
cardigan
cards
care
career
carfinta
cargo
cargoka
caribbean
caricom
cariga
cariif
caris
carjow
carl
carla
carlo
carlos
carmali
carmo
carnegie
caro
carolina
caroline
carooday
carpathian
carpenter
carra
carrab
carrabey
carrabka
carrada
carrefour
carrier
carriga
carro
carruur
carruurnimada
carruurta
carruurtaada
carruurteenna
carruurtiisa
carruurtooda
carruurtu
carshiga
carson
carta
cartan
carte
carter
carthage
caruuj
caruur
caruurnimada
caruurnimo
caruurta
caruurtii
caruurtiisa
caruurtooda
carwo
cas
casa
casaan
casaanka
casablanca
casamance
casar
casayr
case
cash
cashada
cashadu
cashara
casharada
casharkii
casharo
casheeyaan
cashir
casho
cashuur
cashuuraha
cashuurta
casiis
casilay
casilo
casimada
casino
casio
casir
casoowe
casoyiga
caspian
caspur
casqalaan
casri
casriga
casrigan
casrigii
casrisan
casriyeeyay
casriyeyn
casriyeynta
cassanelli
cassano
cassius
cast
castaro
castile
castillo
castle
castro
casuumay
casuus
cat
catalan
catalog
catalogue
catalogueoflife
catalonia
catania
categories
category
categoryid
cathedral
catherine
catholic
catid
catname
catus
caucasus
cause
causes
cave
cavendish
cawaale
cawaam
cawaaqib
cawad
cawed
cawf
cawil
cawke
cawl
cawlan
cawlyahan
cawramale
cawrmale
caws
cawska
cay
cayaar
cayaaraha
cayaaro
cayaaryahan
cayayaan
cayayaanka
cayayaanku
caydh
caydiid
cayiman
cayimay
cayimin
cayinnayn
cayman
caymis
caymiska
cayn
caynaan
caynaanshe
caynaba
caynabo
caynkaas
cayr
cayriin
cb
cbc
cbi
cbignore
cbn
cbs
cbsnews
cc
ccd
cd
cdate
cdc
cdistrict
cdma
cdn
cdot
ce
cecafa
cecilia
cedar
ceditor
cee
ceeb
ceeden
ceegaag
ceejin
ceel
ceelaayo
ceelafweyn
ceelal
ceelasha
ceelbarde
ceelbaxay
ceelbuh
ceelbuur
ceelcadde
ceelcade
ceelcali
ceeldaraad
ceeldhaab
ceeldheer
ceeldheere
ceele
ceelgaras
ceelhuur
ceelka
ceelkii
ceelmacaan
ceelqooxle
ceelwaaq
ceerigaabo
ceerigabo
ceeriin
ceeryaan
ceesaan
celcelis
celceliska
celceliyay
cele
celeb
celebrate
celebrates
celebration
celebrations
celebrities
celebrity
celebs
celi
celin
celinayo
celine
celinta
celisay
celiso
celiya
celiyaan
celiyay
celiyeen
celiyey
celiyo
cell
celli
cello
cellular
celsius
celtic
cemetery
cen
cengage
census
censusindia
cent
center
centers
central
centrale
centre
centreforaviation
centrism
centro
cents
centuries
century
ceo
ceremony
ceres
certain
cerulli
ces
ceshaday
ceshado
ceshan
cet
cev
ceydiid
ceymiska
ceyn
ceynu
ceyriyay
cf
cfa
cfbt
cff
cfm
cfr
cgi
cgm
cgtn
ch
cha
chachoengsao
chad
chaeryeong
chain
chairman
chalcogen
challenge
challengers
challenges
chalte
cham
chamber
champasak
champion
champions
championship
chan
chance
chanel
chang
change
changed
changes
channel
chanthaburi
chao
chap
chapel
chapin
chapter
character
characteristics
characters
charcoal
charge
charity
charleroi
charles
charli
charlie
charlotte
chart
charter
chartered
charts
chase
chateau
chavez
che
check
checked
checklist
cheese
cheif
chelsea
chelyabinsk
chem
chemical
chemistry
chemnitz
chen
cheng
chennai
cher
cherry
chest
chhnang
chi
chiang
chicago
chicagohistory
chicken
chief
chiefs
child
children
childrens
chile
chili
chin
china
chinadaily
chinese
chip
chittagong
chloe
cho
chocolate
choi
choice
chopra
chorus
choso
chosun
chou
chris
christ
christensen
christian
christianity
christians
christina
christine
christmas
christophe
christopher
chrome
chronicle
chronological
chronology
chu
chuck
chun
chung
church
churchwell
ci
cia
cibaadada
cibaadaysan
cibaado
cibaar
cibraani
cibraaniga
cid
cida
cidaan
cidaanka
cidamada
cidanka
cidda
ciddanka
ciddi
ciddii
ciddiyaha
cidhif
cidhifka
cidhifyada
cidhiidhi
cidhiidhiga
cidi
cidii
cidina
cidla
cidlo
cidna
cie
cigaal
cigal
cigale
cigalle
cige
ciid
ciida
ciidagale
ciidaha
ciidamada
ciidamadaas
ciidamadan
ciidamadda
ciidamadii
ciidamadiisa
ciidamadu
ciidamda
ciidamdii
ciidammada
ciidammo
ciidamo
ciidan
ciidanka
ciidankaan
ciidankaas
ciidankaasi
ciidankeena
ciidankii
ciidankiis
ciidankiisa
ciidankiisii
ciidankooda
ciidanku
ciidda
ciidmada
ciil
ciir
ciire
ciisa
ciisaha
ciise
ciisuhu
cilaaqaad
cilaaqaadka
cilad
cilmi
cilmibaadhis
cilmibaadhista
cilmibaarayaal
cilmibaaris
cilmiga
cilmigan
cilmigiisa
cilmigu
cilmiyaysan
cilmiyeed
cilmu
cilt
cimiga
cimilada
cimiladeeda
cimiladeeduna
cimiladu
cimilo
cimraan
cimran
cimri
cimriga
cimrigiisa
cimrigiisu
cinco
cinderella
cine
cinema
cinemas
cinjida
cinwaan
cinwaanka
cinwaankeedu
ciqaab
ciqaabay
ciqaabeed
ciqaabo
ciqaabta
cir
ciraaq
ciraaqi
circa
circle
circumference
cirfiid
cirfiidka
cirib
ciribta
ciribtiro
ciridka
cirif
cirifka
cirifyada
ciriiri
ciriiriga
cirjeex
cirka
cirkiisu
cirku
ciroole
cirro
cis
cisaleey
cisbitaal
cisbn
cise
cishaha
cishe
cisho
cismaan
cismaaniya
cismaaniyiinta
cismaaniyiintu
cisman
cissoko
citation
cite
cited
citerefstrait
cities
citizen
citizens
citizenship
citoyens
citrus
city
citypopulation
citytown
civic
civil
civilians
civilization
civilizations
ciw
ciwaan
ciwaanka
ciwaano
ciyaal
ciyaalka
ciyaar
ciyaara
ciyaaraa
ciyaaraan
ciyaaraha
ciyaaray
ciyaaraya
ciyaarayaan
ciyaarayay
ciyaareed
ciyaareedka
ciyaareedkan
ciyaareedkii
ciyaareedkiisii
ciyaareen
ciyaari
ciyaarihii
ciyaarista
ciyaariyahan
ciyaarka
ciyaaro
ciyaarta
ciyaartaa
ciyaartaan
ciyaartay
ciyaartii
ciyaarto
ciyaartooy
ciyaartooyda
ciyaartoy
ciyaartoyda
ciyaartoyga
ciyaartu
ciyaaryahan
ciyaaryahanka
ciyaaryahankii
ciyaaryahannada
ciyaaryahanno
ciye
cizudiin
cj
ck
cken
cl
claahi
claim
claims
claire
clan
clans
clanship
clara
clarendon
clarify
clark
clash
class
classic
classical
classification
claude
clay
cle
clear
cleopatra
clermont
cleveland
click
client
clifford
climate
clinton
clio
clone
close
closed
closer
closing
cloth
cloud
clouds
clp
club
clueless
cluster
clyde
cm
cma
cmaca
cms
cmssubjectarea
cn
cnbc
cngdpd
cngdpdpc
cnn
co
coach
coast
coastal
coat
coauthors
coca
coco
cocos
cod
codad
codadka
codadkii
codaynta
codbixin
codbixinta
code
codeeyaan
codeeyay
codeeyeen
codeeyo
codes
codka
codkan
codkani
codkeeda
codkiisa
codkooda
codsadaan
codsaday
codsadeen
codsado
codsaduhu
codsan
codsanaya
codsanayaa
codsatay
codsatey
codsi
codsiga
codsigii
codsiyada
codweyne
cody
coffee
cohen
coin
coins
col
cola
colaad
colaada
colaadaha
colaadda
colaaddu
colaadeed
colaadihii
colaado
cold
cole
coleman
colin
colkii
collapse
collar
collect
collection
collections
collective
college
collins
colo
cologne
colombia
colombo
colonel
colonial
colony
color
colorado
colors
colour
colow
columbia
columbus
column
columns
com
come
comeback
comedian
comedy
comes
comesa
comfort
comic
comics
coming
comissoners
command
commander
comment
commentary
comments
commerce
commercial
commisario
commission
commissioner
commits
committee
commodity
common
commonly
commons
commonwealth
commsupdate
communaute
communication
communications
communist
communities
community
comoros
compact
compactflash
companies
companion
companions
company
comparative
compare
compared
comparison
compassion
compatible
compendium
compensation
compilersreviewers
complete
completed
complex
components
composed
composite
composition
compound
comprehensive
comprises
computer
computerka
computers
computing
comunidad
con
concacaf
concentration
concept
concepts
concern
concerned
concert
concise
concluded
concorde
conde
conduct
confederates
confederation
conference
conferred
confirm
confirmed
confirms
conflict
confucius
congo
congress
conmebol
connect
connected
connecticut
connecting
connection
connects
connor
conqor
conquered
conqueror
conquest
conrad
cons
consequence
consequences
conservatism
conservative
consider
considered
constant
constantine
constantinople
constitution
constitutional
construction
consulate
contact
contains
conte
contemporary
content
contentid
contents
contest
context
continent
continental
continue
continued
continues
contract
contrasts
control
controversy
convention
conventional
converted
cook
cool
coomaad
cooper
cooperation
cooperative
coordinates
copa
copenhagen
copiopteryx
copper
coptic
copy
corcoran
cordon
core
coreca
coridel
corn
cornel
cornelia
cornell
coronavirus
corp
corporate
corporation
corps
correa
corresponding
corruption
corsica
corsican
cosafa
cosmaniya
cosmas
cosmetic
cosmetics
cosmo
cosmopolitan
cosoble
cost
costa
cote
cotonou
cotton
could
council
count
countdown
counter
counties
countries
country
countrystudies
county
coup
couple
courage
courageous
course
court
courts
cov
cover
coverage
covers
covid
cowf
cowl
cowlaan
cowlan
cows
cowska
cowsleyda
cox
cp
cpc
cpppgdp
cppppc
cr
cradle
craig
crane
crash
crassus
crazy
crc
cream
create
created
creation
credentials
credit
creed
creek
creole
crew
crh
cricket
crime
crimea
crimean
criminal
crisis
cristal
cristiano
cristina
cristo
critical
critics
croatia
croatian
croats
cronkite
cronkitenews
crore
cross
croswell
crow
crown
crude
cruise
crusader
crusaders
crusades
crush
cruz
crvena
crystal
cs
csa
csd
csepel
csis
cska
cso
css
csv
csw
ct
ctitle
ctu
cu
cub
cuba
cubaada
cuban
cube
cubes
cubeyd
cubeyda
cubeydilaah
cubeydilaahi
cubic
cudbi
cudbiga
cudud
cududda
cudur
cudurada
cudurka
cudurkaan
cudurkan
cudurku
cuduro
cudurrada
cuf
cufan
cufis
cufisjiidad
cufisjiidadka
cufka
cufkiisuna
cufnaanta
culamada
culays
culayska
culculus
culeys
culeyska
culham
culimaa
culimada
culimadii
culimadu
culimo
cult
cultura
cultural
culture
cultures
culuma
culumaa
culumada
culumadii
culumo
culus
culusoow
culusow
culuum
culuumta
culuunta
cumaan
cumar
cumardin
cumarna
cumarsiyaad
cumeyr
cumeys
cun
cuna
cunaa
cunaan
cunada
cunaha
cunaqabatayn
cunaqabateynta
cunay
cunaya
cunayo
cuncun
cuncunka
cunha
cuni
cunid
cunida
cunidda
cunin
cunista
cunitaanka
cunnada
cunnington
cunno
cunnooyinka
cunnto
cunntoka
cuno
cunsuri
cunsuriyad
cunsuriyada
cunsuriyadda
cuntaa
cuntada
cuntadii
cuntami
cunteeyo
cunto
cuntoda
cuntoka
cuntooyin
cuntooyinka
cunug
cunuga
cup
cuqaal
cuqba
curad
curada
curadka
curadkii
curashada
curatay
curinta
curious
curiyaha
curiyahaas
curiyahan
curiyay
curiyayaasha
curiyayaashan
curiye
curiyeha
curiyehan
curiyeyaal
curiyeyaasha
curran
currency
current
currently
currenttimeframe
currey
curtis
curudka
curyaan
curyaannimo
curzon
cusbaa
cusbada
cusbitaal
cusbitaalo
cusbo
cusboonaysiin
cusboonaysiinta
cusboonaysiiyay
cusbooneysiin
cusbooneysiinta
cusbooneysiiyay
cusbooneysiiyo
cush
cushite
cushites
cushitic
cusla
cuslaa
cusmaan
cusmaaniya
cusmaaniyada
cusmaaniyiinta
cusman
custom
customers
customs
cusub
cusubi
cut
cutayba
cutba
cuts
cutub
cutubka
cutubyada
cuwaaf
cuwaafta
cv
cvt
cw
cx
cxuwaqaaiaaj
cyan
cyber
cycas
cycle
cyclone
cyprus
cyrene
cyril
cyrus
cz
czech
czechoslovakia
d
da
daa
daabac
daabacaa
daabacaad
daabacaada
daabacaadaha
daabacaadda
daabacaaddii
daabacan
daabacay
daabacayaasha
daabacday
daabacdo
daabaco
daabici
daabicin
daabiq
daacabo
daacad
daacada
daacadda
daacadnimada
daacadnimadiisa
daacadnimo
daaci
daacuun
daacuunkii
daad
daadad
daadadka
daadan
daadiyo
daadka
daadkii
daadmadheedh
daadsan
daafaha
daafeed
daah
daaha
daahin
daahir
daal
daalan
daalib
daalin
daalka
daallo
daalo
daamood
daan
daandaansi
daanishmandiyiinta
daanka
daanta
daanyeer
daanyeerka
daaq
daaqa
daaqaan
daaqad
daaqada
daaqadaha
daaqdo
daaqi
daaqsiimo
daaqsimeed
daaqsimeedka
daaqsin
daaqsinka
daaqsinta
daar
daariq
daariyaas
daaro
daarood
daaroodka
daaroodku
daarta
daartii
daaru
daarul
daarusalaam
daas
daatay
daauud
daawad
daawada
daawadaan
daawaday
daawadayaasha
daawado
daawan
daawashada
daawasho
daawayn
daawaynta
daawaysaa
daaweeyaa
daaweeyo
daaweyn
daaweyne
daaweynta
daawo
daawooyin
daawooyinka
daaya
daayaa
daayaan
daayay
daayeen
daayeerka
daayey
daayo
dab
daba
dabaal
dabaaldag
dabaaldeg
dabaaldega
dabaaldegay
dabaaldego
dabaaldegyada
dabaasha
dabaasho
dabacasaha
dabacase
dabacsan
dabada
dabadeed
dabadeedna
dabadheer
dabadii
dabagal
dabagalka
dabagalo
dabajeex
dabaq
dabaqa
dabaqad
dabaqadda
dabaqi
dabaqyo
dabar
dabare
dabargoynta
dabarre
dabayaaqada
dabayaaqadii
dabayl
dabaylaha
dabaylo
dabaysha
dabayshu
dabbaal
dabbaaldegga
dabbaasha
dabcan
dabci
dabeecad
dabeecada
dabeecadaha
dabeecadda
dabeecaddiisa
dabeecadood
dabeel
dabeetana
dabeyl
dabeylaha
dabeylo
dabeysha
dabiicadda
dabiici
dabiiciga
dabin
dabka
dabkii
dabku
dable
dabley
dabo
dabool
daboolaa
daboolaan
daboolan
daboolay
daboolaya
daboolayaa
daboolayaan
daboolayo
daboolaysaa
dabooli
daboolida
daboolka
daboolo
dabooshaa
daboosho
dabqaad
dabqaadka
dac
dacaayad
dacal
dacalada
dacaladeeda
dacar
dacay
daciif
daciifka
daciifnimo
daciiftay
dacwad
dacwada
dacwadaha
dacwadda
dad
dada
dadaal
dadaala
dadaalaan
dadaalada
dadaalay
dadaali
dadaalka
dadaalkii
dadaallada
dadaalno
dadaalo
dadbadan
dadban
dadiisu
dadk
dadka
dadkaa
dadkaan
dadkaas
dadkaasi
dadkaba
dadkan
dadkana
dadkani
dadkeeda
dadkeedu
dadkeena
dadki
dadkii
dadkiina
dadkiisa
dadkiisii
dadkiisu
dadkoo
dadkooda
dadku
dadkuna
dadnimo
dadow
dadwaynaha
dadweynaha
dadweyne
dadweynuhu
dadyawga
dadyoow
dadyow
dadyowga
dadyowgii
dae
daesang
daf
dafle
dafo
dafutoglu
dag
daga
dagaa
dagaal
dagaalada
dagaaladaas
dagaaladani
dagaaladi
dagaaladii
dagaalama
dagaalamaan
dagaalamay
dagaalamaya
dagaalamayay
dagaalamayeen
dagaalameen
dagaalami
dagaalamin
dagaalamo
dagaalanka
dagaalanto
dagaalay
dagaaliki
dagaalka
dagaalkaa
dagaalkaan
dagaalkaas
dagaalkaasi
dagaalkan
dagaalkani
dagaalki
dagaalkii
dagaalku
dagaallada
dagaalladii
dagaallama
dagaallamaan
dagaallamay
dagaallamayo
dagaallameen
dagaallamo
dagaallanka
dagaallo
dagaalo
dagaalyahan
dagaalyahanada
dagaalyahannada
dagaalyahanno
dagaalyahano
dagaan
dagaar
dagal
dagaladii
dagamada
dagan
daganaa
daganaayeen
dagani
daganyihiin
dagay
dageen
daggan
dagi
dagmada
dagmadani
dagmadu
dagmo
dagmooyin
dagmooyinka
dagmoyinka
dago
dagoodiye
dagta
dagtaa
dagtay
dagto
daguuro
dah
daha
dahaadhan
dahaar
dahaaran
dahaarka
dahab
dahabi
dahabiga
dahabka
dahabkii
dahabku
dahabshiil
dahay
dahir
dahsoon
daily
dailymail
dailysabah
daisy
dajin
dajinta
dajiyay
dajiyeen
dajiyey
dajiyo
daka
dakad
dakar
dakhli
dakhliga
dakkar
dakota
dal
dalaal
dalab
dalabka
dalabkii
dalabyo
dalacay
dalacsiiyay
daladda
dalag
dalaga
dalagga
dalagyada
dalagyo
dalaka
dalal
dalalka
dalalkaas
dalalkii
dalalkooda
dalbadaan
dalbaday
dalbadeen
dalban
dalbanaya
dalbashada
dalbatay
dalbay
dalbeen
dalda
daldalay
dali
dalib
daliil
daljir
daljirka
dalka
dalkaan
dalkaas
dalkaasi
dalkan
dalkana
dalkani
dalkeeda
dalkeena
dalkii
dalkiisa
dalkooda
dalkoodii
dalku
dalla
dallacsiinta
dallacsiiyay
dallad
dallaga
dallas
dalmar
dalool
daloolka
dalsan
dalweyn
dalxa
dalxiis
dalxiisayaal
dalxiisayaasha
dalxiise
dalxiiska
dalxiiso
dam
damaanad
damaashaad
damaashaadka
damac
damaca
damacsan
damacsanaa
damal
damala
damalaxagare
daman
damascus
dambana
dambas
dambaska
dambayn
dambaynta
dambayntii
dambayntiina
dambays
dambaysa
dambaysay
dambaysta
dambe
dambeen
dambeesay
dambeeya
dambeeyay
dambeeyayna
dambeeyeen
dambeeyey
dambeeyo
dambeeysa
dambeeysay
dambena
dambeyay
dambeyn
dambeynta
dambeyntii
dambeyntiina
dambeys
dambeysa
dambeysay
dambeysey
dambeyso
dambeysta
dambi
dambiilayaasha
dambiile
dambiyada
dambiyo
damcay
dame
dameer
dameeraha
dameerka
dameerkiisa
dameeyay
damiir
dammaanad
damqa
dan
dana
danab
danabka
danaha
danahooda
danbana
danbayn
danbayntii
danbaysa
danbaysay
danbe
danbeesay
danbeeya
danbeeyay
danbeeyey
danbeeyo
danbeyn
danbeyntii
danbeysa
danbeysay
danbi
dance
dancing
dane
daneeyaa
dangal
danger
dangerous
dangorayo
dani
danida
daniel
daniels
danish
danishka
danjiraha
danjire
danmark
dano
danood
dans
danta
dantii
danube
danwadaag
danyarta
daqiiq
daqiiqad
daqiiqadii
daqiiqado
daqiiqadood
daqiiqda
daqiiqo
daqliga
dar
dara
daraa
daraabazoon
daraabulis
daraaddeed
daraadeed
daraakoola
daraan
daraasaadka
daraasad
daraasada
daraasadaha
daraasadda
daraasiin
daraawiish
daraawiisheed
daraawiishta
daraawiishtu
darada
darafyada
darajada
darajo
darajooyinka
daran
darandoole
darandoori
darane
dararwayne
dararweyne
darawal
darawiish
darawiishta
darawish
daray
daraya
darayo
daraystay
darbi
darbiga
darbiyada
dardaaran
dardaaranka
dardaarankii
dardaarmay
dardaarmayaa
dardaarmi
dardar
dardargelinta
dareema
dareemaa
dareemaan
dareemay
dareemayaa
dareemayay
dareemayo
dareeme
dareemeen
dareemi
dareemin
dareemo
dareen
dareenka
dareenkeeda
dareenkiisa
dareensan
dareentay
dareento
dareeraha
dareere
darey
darfur
dari
darida
dariif
dariiq
dariiqa
dariiqada
dariiqooyinka
darin
daris
dariska
darius
darjah
dark
darka
darnaa
darnayd
daro
darod
darood
daroogada
daroogo
darrada
darri
darro
darsadaa
darsaday
darsado
darsamay
darsatay
darso
darta
dartaa
dartay
darted
darteed
darteedna
dartid
dartii
dartiis
dartood
darul
daruur
daruuraha
daruuri
daruuriga
daruuro
darwiish
darwish
daryeel
daryeeli
daryeelka
daryeelo
das
dash
dashay
dassler
dastuur
dastuuri
dastuuriga
dastuurka
dastuurkan
dastuurkii
dastuurku
dat
data
database
dataset
date
datecheck
dating
datum
dau
daud
daughter
daum
dauud
davao
dave
david
davidson
davis
dawa
dawaa
dawaafayo
dawaaifka
dawaaifta
dawac
dawaco
dawada
dawaladii
dawaro
dawayntooda
daweeyo
daweyn
dawiil
dawla
dawlad
dawlada
dawladaan
dawladaas
dawladaasi
dawladaha
dawladan
dawladda
dawladdaas
dawladdaha
dawladdii
dawladdu
dawladeed
dawladi
dawladihii
dawladii
dawladiis
dawladiisa
dawladnimada
dawladnimo
dawlado
dawladood
dawladu
dawli
dawliga
dawn
dawo
dawoco
dawooyinka
daws
dax
daxayada
day
daya
dayaan
dayac
dayacan
dayactir
dayactirka
dayan
dayasho
dayax
dayaxa
dayaxu
dayaxyada
dayaxyo
dayay
dayaya
dayaynaa
daydaan
dayday
daydo
dayeen
dayey
dayga
daygii
dayi
dayib
dayin
dayn
dayniile
dayno
daynta
dayo
dayr
dayrta
days
daysay
dayuurad
dayuuradaha
db
dc
dd
dds
ddsi
ddu
de
dead
deadline
deadly
deal
dean
dear
death
debate
debbie
debedda
deborah
debt
debut
dec
decade
decades
december
decision
decker
declaration
decline
decock
decree
dedaal
dee
deedna
deedu
deefow
deegaamo
deegaan
deegaanada
deegaanadaas
deegaanadaasi
deegaanadan
deegaanadii
deegaanda
deegaanka
deegaankaas
deegaankaasi
deegaankan
deegaankani
deegaankii
deegaankooda
deegaanku
deegaannada
deegaanno
deegaano
deegan
deeganada
deeganka
deeganku
deegano
deel
deelqaaf
deen
deenka
deep
deepika
deeq
deeqa
deeqaha
deeqay
deeqda
deeqo
deeqsi
deeqsinimada
deeqsinimo
deer
deerada
deero
deexda
deezer
def
default
defeat
defence
defense
deferential
define
defined
definition
definitions
deg
dega
degaa
degaan
degaanada
degaanka
degaankan
degaankii
degaankooda
degaanku
degaannada
degaano
degamada
degamda
degan
degana
deganaa
deganaan
deganaanshaha
deganaansho
deganaasho
deganaayeen
deganayaasha
deganayd
degani
deganka
degantahay
deganyihiin
degay
degaya
degayaashii
degdeg
degdega
degdegga
degeen
degen
degenaa
degenaan
degenaanshaha
degenaansho
degenaayeen
degenayn
degentahay
degenyihiin
degey
degga
deggan
degganaa
degganaansho
degganaayeen
degganayd
degganayn
deggen
deggenaa
degi
degin
degitaanka
degli
degma
degmada
degmadaan
degmadaas
degmadaasi
degmadan
degmadani
degmadda
degmadii
degmadu
degmo
degmooyin
degmooyinka
degmooyinkii
degmoyinka
dego
degree
degrees
degsiimada
degsiimo
degsiimooyinka
degta
degtaa
degtay
degto
dei
deimos
deir
dej
dejiayay
dejin
dejinay
dejinta
dejisay
dejiso
dejiya
dejiyay
dejiyeen
dejiyey
dejiyo
dek
dekad
dekada
dekadaha
dekadani
dekadda
dekado
dekatul
deked
dekeda
dekedaha
dekedda
dekedo
del
delaware
delegation
delgado
delhi
delisle
dell
della
delle
delphine
delta
dem
demand
demandovorto
dembel
dembi
dembidhaaf
dembiga
dembiyada
dembiyo
demi
demie
demilitarized
demiska
democracy
democratic
democrats
demographia
demographic
demographics
den
denbi
denis
denise
denisova
denmark
dennis
density
dental
dente
denver
deok
department
departments
depp
depression
dept
depth
depts
deputato
deputy
der
derajada
derbi
derbiga
derbiyada
derby
derejada
derejo
derek
derg
deria
derin
deris
deriska
deriskaaga
deriskooda
derivative
derri
dersa
dersi
derulo
dervish
dervishes
des
desc
descent
described
desert
desi
design
designed
desimitir
desire
desktopdefault
despite
dessert
destinations
destiny
destruction
detail
detailed
details
determination
detroit
deutsch
deutsche
deutscher
deutschland
dev
devanagari
devastates
devastating
develop
developed
developer
developing
development
developments
devgn
devi
devices
dewalt
dewan
dey
deymaha
deyn
deynta
deyntiisa
deyr
deyrta
deysay
df
dfb
dfkmg
dfs
dh
dha
dhaadheer
dhaadhiciyo
dhaaf
dhaafa
dhaafaan
dhaafay
dhaafaya
dhaafaysa
dhaafi
dhaafin
dhaafka
dhaafo
dhaaftaa
dhaaftay
dhaafto
dhaalib
dhaamaan
dhaan
dhaanta
dhaantada
dhaanto
dhaar
dhaaranayaa
dhaariyay
dhaariyey
dhaarta
dhaartay
dhaartaye
dhaartey
dhaawac
dhaawaca
dhaawacay
dhaawacmay
dhaawacmeen
dhaawaco
dhaawacyada
dhaawacyadii
dhaawacyo
dhab
dhaba
dhabad
dhaban
dhabanada
dhabar
dhabarka
dhabarkiisa
dhabarta
dhabe
dhabi
dhabta
dhabxanaga
dhac
dhaca
dhacaa
dhacaan
dhacaday
dhacana
dhacay
dhacaya
dhacayaa
dhacayaan
dhacayay
dhacayo
dhacaysa
dhacaysaa
dhacayso
dhacda
dhacdaa
dhacdada
dhacdadaas
dhacdadan
dhacdadii
dhacday
dhacdey
dhacdo
dhacdooyin
dhacdooyinka
dhacdooyinkii
dhaceen
dhacey
dhaco
dhacyada
dhacyo
dhaddig
dhadhaab
dhadhan
dhadhanka
dhadhanku
dhaf
dhafan
dhafay
dhafka
dhafuuje
dhag
dhaga
dhagaha
dhagan
dhagar
dhagaweyne
dhagax
dhagaxa
dhagaxaan
dhagaxaanta
dhagaxbuur
dhagaxda
dhagaxley
dhagaxleyda
dhagaxtuur
dhagaxyada
dhagaxyo
dhagayaraha
dhagaysta
dhagaystaa
dhagaystayaal
dhagaystayaasha
dhagaystayaashu
dhageesan
dhageeyso
dhageysan
dhageysiga
dhageyso
dhageysto
dhago
dhagool
dhagoolnimada
dhagxaan
dhagxaanta
dhaha
dhahaa
dhahaan
dhahar
dhahay
dhaheen
dhaho
dhajinta
dhajiyay
dhajiyo
dhaka
dhakhaatiir
dhakhaatiirta
dhakhsaha
dhakhso
dhakhtar
dhakhtarka
dhakhtarkaaga
dhal
dhala
dhalaa
dhalaalaya
dhalaalaysa
dhalaali
dhalaalinta
dhalaan
dhalaanka
dhalad
dhalada
dhaladka
dhalan
dhalanaya
dhalashada
dhalashaddii
dhalashadeeda
dhalashadii
dhalashadiisa
dhalashey
dhalasho
dhalata
dhalataa
dhalatay
dhalatey
dhalato
dhalay
dhaldhalaal
dhaldhalaalka
dhaleecayn
dhaleeceeya
dhaleeceeyay
dhaleeceeyayaasha
dhaleeceyn
dhaleen
dhaley
dhali
dhaliilay
dhalin
dhalinta
dhalintii
dhalinyarada
dhalinyaradda
dhalinyaradii
dhalinyaro
dhalinyarta
dhalisa
dhalisay
dhaliya
dhaliyaa
dhaliyaan
dhaliyaha
dhaliyay
dhaliye
dhaliyey
dhaliyo
dhallaan
dhallaanka
dhallinta
dhallinyarada
dhallinyaro
dhalmada
dhalmo
dhalo
dhalooyinka
dhamaa
dhamaad
dhamaada
dhamaadaa
dhamaadaan
dhamaaday
dhamaadka
dhamaadkii
dhamaadkiisa
dhamaado
dhamaan
dhamaanayso
dhamaanba
dhamaanteed
dhamaantiis
dhamaantood
dhamaantoodba
dhamaantoodna
dhamaata
dhamaataa
dhamaatay
dhamaato
dhamac
dhamal
dhaman
dhamantood
dhamayn
dhamaystay
dhamaystiraan
dhamaystiran
dhamaystirane
dhamaystiray
dhamaystirka
dhamaystiro
dhamaystirtay
dhambaal
dhambaalkii
dhambalin
dhame
dhameestay
dhameestiran
dhameeyay
dhameeyey
dhameeyo
dhameysatay
dhameystay
dhameystiran
dhameystiray
dhami
dhammaad
dhammaadaan
dhammaaday
dhammaadeen
dhammaadka
dhammaadkii
dhammaan
dhammaanba
dhammaanteen
dhammaantiis
dhammaantood
dhammaantoodna
dhammaatay
dhammayn
dhammaystay
dhammaystiran
dhammaystiray
dhamme
dhammeeyay
dhammeeyey
dhammeeyo
dhammeystiran
dhammi
dhan
dhana
dhanaan
dhanaane
dhanaanka
dhanaano
dhanaanta
dhandhan
dhanka
dhankaas
dhankiisa
dhankooda
dhanna
dhantahay
dhanyahay
dhaq
dhaqaa
dhaqaajiyo
dhaqaala
dhaqaalaha
dhaqaalaheeda
dhaqaalaheedu
dhaqaalahooda
dhaqaale
dhaqaaleheedu
dhaqaaleyahan
dhaqaalihii
dhaqaalihiisa
dhaqaallaha
dhaqaalo
dhaqaaq
dhaqaaqa
dhaqaaqay
dhaqaaqday
dhaqaaqeen
dhaqaatiir
dhaqalaha
dhaqamada
dhaqameed
dhaqameedka
dhaqameedyada
dhaqameedyo
dhaqammada
dhaqamo
dhaqan
dhaqane
dhaqanka
dhaqankaas
dhaqankan
dhaqankeeda
dhaqankeena
dhaqankii
dhaqankiisa
dhaqankooda
dhaqanku
dhaqanno
dhaqano
dhaqanta
dhaqanto
dhaqashada
dhaqasho
dhaqatada
dhaqato
dhaqay
dhaqda
dhaqdaa
dhaqdaan
dhaqdhaqaaq
dhaqdhaqaaqa
dhaqdhaqaaqe
dhaqdhaqaaqii
dhaqdhaqaaqiisa
dhaqdhaqaaqyada
dhaqdhaqaaqyadii
dhaqdhaqaaqyo
dhaqdo
dhaqidda
dhaqista
dhaqma
dhaqmaa
dhaqmaan
dhaqmay
dhaqmayaa
dhaqmayo
dhaqmeen
dhaqmi
dhaqmin
dhaqmo
dhaqnaa
dhaqnaayeen
dhaqo
dhaqsaha
dhaqso
dhaqtar
dhaqtarka
dhar
dharaar
dharbaaxo
dharbash
dhareerka
dharka
dharkayn
dharkeenley
dharkenley
dharkeynley
dharkii
dharkooda
dhasahy
dhasha
dhashaa
dhashaan
dhashay
dhasheen
dhashey
dhasho
dhashtay
dhaw
dhawaa
dhawaad
dhawaada
dhawaaday
dhawaado
dhawaajisay
dhawaan
dhawaanahan
dhawaaq
dhawaaqa
dhawaaqaa
dhawaaqay
dhawaaqaya
dhawaaqayo
dhawaaqday
dhawaaqdey
dhawaaqdo
dhawaaqeen
dhawaaqey
dhawaaqi
dhawaaqida
dhawaaqii
dhawaaqo
dhawaaqtada
dhawaaqyada
dhawaatay
dhawaayeen
dhawan
dhawaq
dhawaqa
dhawaynta
dhawdahay
dhaweeyay
dhaweeyeen
dhaweeyo
dhaweyn
dhaweynta
dhawr
dhawra
dhawrayoow
dhawridda
dhawro
dhawrsan
dhax
dhaxa
dhaxal
dhaxalgal
dhaxalka
dhaxalkii
dhaxalsugaha
dhaxanta
dhaxay
dhaxaysa
dhaxaysaa
dhaxaysay
dhaxaysey
dhaxayso
dhaxbartanka
dhaxda
dhaxday
dhaxdiisa
dhaxe
dhaxeesa
dhaxeesaa
dhaxeesay
dhaxeeso
dhaxeeya
dhaxeeyaa
dhaxeeyay
dhaxeeyo
dhaxeysa
dhaxeysaa
dhaxeysay
dhaxeyso
dhaxlaan
dhaxlay
dhaxleen
dhaxley
dhaxli
dhaxlo
dhaxmaray
dhaxmaro
dhayo
dhe
dheceen
dheddig
dheddiga
dheddigga
dhedig
dhediga
dhedigna
dheecaan
dheecaanada
dheecaanka
dheecaano
dheef
dheefshiidka
dheefta
dheeh
dheehan
dheehantahay
dheehay
dheel
dheelay
dheeli
dheelitiran
dheelitirka
dheelli
dheellitirka
dheelo
dheeman
dheen
dheer
dheera
dheeraa
dheeraad
dheeraada
dheeraaday
dheeraadka
dheeraan
dheeraatay
dheerayd
dheerayn
dheere
dheereed
dheereeya
dheereeyaan
dheereeyay
dheereeyey
dheereeyo
dheereyn
dheereynayaa
dheeri
dheeriga
dheerka
dheerna
dheertahay
dheesha
dheexadka
dheg
dhega
dhegaha
dhegahooda
dhegan
dhegaweyne
dhegaysta
dhegeysanaya
dhegeysi
dhegeysta
dhegeysto
dheggan
dhego
dhegoculeys
dhegoculeyska
dhegoolaha
dhegta
dheh
dheheen
dhejin
dhejiyay
dhejiyo
dhekelia
dhere
dherer
dhererka
dhererkeeda
dhererkeedu
dhererkiisu
dhererkoodu
dheri
dheriga
dhetroyt
dhex
dhexaad
dhexaadka
dhexaysa
dhexaysaa
dhexaysay
dhexda
dhexdeeda
dhexdhexaad
dhexdhexaadin
dhexdhexaadinta
dhexdhexaadka
dhexdhexaadnimo
dhexdiisa
dhexdooda
dhexe
dhexeeya
dhexeeyaa
dhexeeyay
dhexeeyey
dhexeeyo
dhexeeysa
dhexeysa
dhexeysaa
dhexeysay
dhexeysey
dhexeyso
dhexgalka
dhexgalo
dhexjira
dhexjiray
dhexmara
dhexmaray
dhexmarta
dhexmartay
dhexo
dhexroor
dhexroorka
dhextaal
dhexyaal
dhexyaala
dheyda
dheymos
dhi
dhib
dhibaatada
dhibaatadii
dhibaatadu
dhibaato
dhibaatooyin
dhibaatooyinka
dhibaatooyinkii
dhibanayaasha
dhibanayaashii
dhibatada
dhibatoka
dhibay
dhibbanaha
dhibbanayaasha
dhibcaha
dhibco
dhibcood
dhibic
dhibin
dhibka
dhibkii
dhiblaawe
dhiblawe
dhibleh
dhibsaday
dhibta
dhicana
dhici
dhicin
dhicis
dhicisoobay
dhicitaankii
dhidibada
dhidid
dhif
dhifka
dhig
dhiga
dhigaa
dhigaan
dhigaayay
dhigaayo
dhigaha
dhigan
dhiganta
dhigantaa
dhigantahay
dhigashada
dhigata
dhigatay
dhigato
dhigay
dhigaya
dhigayaa
dhigayay
dhigaye
dhigayey
dhigayo
dhigaysa
dhigaysaa
dhigayso
dhigeen
dhigeeysa
dhigey
dhigeysa
dhigeysaa
dhigga
dhigi
dhigidda
dhigin
dhigista
dhigma
dhigmaa
dhigmo
dhignaa
dhigno
dhigo
dhigta
dhigtaa
dhigtaan
dhigtay
dhigteen
dhigtey
dhigto
dhiguhu
dhihi
dhiib
dhiibaan
dhiibay
dhiibeen
dhiibi
dhiibin
dhiibo
dhiibtay
dhiig
dhiiga
dhiigbax
dhiigga
dhiigii
dhiigshiil
dhiil
dhiiq
dhiira
dhiiragalin
dhiiranaan
dhiiranaanta
dhiiri
dhiirigelin
dhiirigelinta
dhiirigelisay
dhiirigeliya
dhiirigeliyaan
dhiirigeliyay
dhiirran
dhiirri
dhiirrigelinta
dhiirrigelisay
dhiirrigeliya
dhiirrigeliyay
dhiirrigeliye
dhijitaal
dhijitaalka
dhilleysiga
dhillo
dhillooyinka
dhiman
dhimanaayo
dhimanaya
dhimanayo
dhimanno
dhimasha
dhimashada
dhimashaddii
dhimashaddiisii
dhimashadeeda
dhimashadii
dhimashadiisa
dhimashadiisii
dhimasho
dhimashona
dhimatay
dhimatey
dhimbiil
dhimirka
dhimista
dhimman
dhimo
dhinac
dhinaca
dhinacba
dhinaceeda
dhinacii
dhinaciisa
dhinacna
dhinactax
dhinacyada
dhinacyadii
dhinacyo
dhinca
dhiniciisa
dhinta
dhintaa
dhintaan
dhintay
dhinteen
dhintey
dhinto
dhir
dhiraandhirinta
dhirir
dhirirka
dhirirkiisa
dhirirkiisu
dhirta
dhirtu
dhis
dhisa
dhisaa
dhisaan
dhisaayay
dhisan
dhisantahay
dhisantay
dhisanyahay
dhisay
dhisayo
dhiseen
dhisey
dhishiike
dhisi
dhisid
dhisida
dhisidda
dhisidu
dhisin
dhisitaanka
dhiska
dhisma
dhismaha
dhismahan
dhismaheeda
dhismay
dhismayaal
dhismayaasha
dhismayaashii
dhisme
dhismeed
dhismeedka
dhismeha
dhismeyaal
dhismihii
dhismo
dhismoka
dhismooyin
dhismooyinka
dhismuhu
dhisnaa
dhisnayd
dhiso
dhistaan
dhistay
dhisteen
dhistey
dhisto
dhisyada
dhisyo
dhobley
dhogor
dhogorta
dhoho
dhoobada
dhoobley
dhoobo
dhoodaan
dhoofay
dhoofi
dhoofin
dhoofinta
dhoofiya
dhoofiyaa
dhoofiyay
dhoofiyo
dhool
dhoola
dhoom
dhoor
dhoore
dhorre
dhow
dhowa
dhowaa
dhowaad
dhowaadaan
dhowaaday
dhowaadeen
dhowaan
dhowaanshaha
dhowaatay
dhowayd
dhowdahay
dhoweeyay
dhoweyn
dhoweynta
dhowow
dhowr
dhowra
dhowre
dhowree
dhowrista
dhowrka
dhowrkii
dhowro
dhowrsan
dhowrsana
dhowyahay
dhowyihiin
dhu
dhudhub
dhudhun
dhudi
dhufasho
dhufatay
dhufayl
dhufeesyo
dhufeysyada
dhuftay
dhufteen
dhuftey
dhufto
dhul
dhulal
dhulalka
dhulalkii
dhulba
dhulbadhaha
dhulbadhe
dhulbahante
dhulbaraha
dhuleed
dhuleedka
dhulgariir
dhulgariirka
dhulgariirkii
dhulka
dhulkaa
dhulkaan
dhulkaas
dhulkaasi
dhulkan
dhulkana
dhulkeeda
dhulkeena
dhulkii
dhulkiisa
dhulkooda
dhulkoodii
dhulku
dhulwaynaha
dhumuc
dhumucda
dhundhun
dhunkaal
dhurwaa
dhuuban
dhuubo
dhuule
dhuumaha
dhuumasho
dhuumo
dhuumoodle
dhuun
dhuunta
dhuuntay
dhuunte
dhuusamareeb
dhuusmareeb
dhuux
dhuxul
dhuxulow
dhuxusha
dhuxushu
di
dia
diabetes
diagrams
dialect
dialects
dialogue
diamond
diana
diane
diary
dias
diaspora
diatec
dib
dibad
dibada
dibadaha
dibadba
dibadda
dibaddaba
dibaddiisa
dibadeed
dibadiisa
dibadiisaba
dibatoka
dibeda
dibedda
dibi
diblomaasi
diblomaasiga
diblomaasiyadda
diblomaasiyadeed
dibna
dibnaha
dibu
dibuheshiisiinta
dict
dictionaries
dictionary
did
didier
didn
didnt
didz
die
died
diego
dies
diet
difaac
difaaca
difaacaan
difaacan
difaacay
difaacaya
difaacda
difaacdo
difaaci
difaacida
difaaco
difference
different
difficult
difinita
diga
digaag
digaaga
digaagad
digaagga
digaale
digada
digay
dige
digfeer
digic
digil
digir
digirta
digirtu
digital
digitalspy
digniin
digo
digriga
digrii
digsi
dihin
dii
diid
diida
diidaa
diidaan
diidan
diidana
diidanaa
diiday
diidaya
diidayo
diidday
diide
diideen
diidey
diidi
diidin
diidka
diidmada
diidmo
diido
diif
diig
diimaha
diimeed
diimeedka
diimo
diimood
diin
diinaar
diineed
diini
diiniga
diinka
diinle
diinsiga
diinsoor
diinta
diintaada
diintan
diinteena
diinteenna
diintii
diintiisa
diintooda
diintoodii
diintu
diintuna
diiq
diirad
diirada
diiradda
diiran
diirimaad
diiriye
diirka
diirran
diirshe
diisa
diisambar
diisamber
diisu
diiwaan
diiwaanada
diiwaangashan
diiwaangelin
diiwaangelinta
diiwaangeliyay
diiwaangeliyey
diiwaanka
diiwaannada
dijitaal
dijitaalka
dijital
dijon
dikhil
dil
dila
dilaa
dilaacay
dilaaga
dilaan
dilal
dilalka
dilay
dilaya
dilbar
dile
dileen
dileita
diley
dili
dilid
dilidda
dilin
dilka
dilkii
dilkiisa
dilla
dillaaca
dillaacay
dilo
dilqaadir
dilwale
dimishiq
dimoqaraadiyadda
dimoqraadi
dimoqraadiga
dimoqraadiyad
dimoqraadiyada
dimoqraadiyadda
dimuqaraadiga
dimuqraadi
dimuqraadiga
dimuqraadiyad
dimuqraadiyada
dimuqraadiyadda
dimuquraadiga
din
dina
dinaca
dinar
dinner
dins
dio
dion
dione
dior
dioxide
diploma
diplomacy
diplomat
diplomatic
diplomats
dir
dira
diraac
diraan
diraarada
diraasad
dirac
diraca
diracu
dirawalka
diray
diraya
dirayay
dirayo
dire
direct
direction
director
directorial
directory
direed
direen
direy
dirgaam
dirham
diri
diridhaba
dirie
dirin
dirir
dirirka
dirista
diriye
dirney
diro
dirqi
dirr
dirre
dirsaday
dirta
dirtay
dirto
dirty
dis
disadvantages
disaster
disc
discover
discovering
discovers
discovery
discrimination
discuss
discussed
disease
diseembar
disembar
disember
disha
dishay
dishid
dishiishe
disho
disick
disk
disney
diso
disorder
dispatch
display
displaystyle
disposition
dispute
disputed
distance
distinction
distribution
district
districts
ditions
diu
diversity
divided
divine
division
divisions
divorce
diwaanka
dix
dixit
dixon
diyaar
diyaarad
diyaarada
diyaaradaan
diyaaradaha
diyaaradda
diyaaraddii
diyaaraddu
diyaaradeed
diyaaradihii
diyaaradii
diyaaradka
diyaarado
diyaaradood
diyaaraduhu
diyaarin
diyaarinta
diyaarisay
diyaariya
diyaariyaa
diyaariyaan
diyaariyay
diyaariyeen
diyaariyey
diyaariyo
diyaarka
diyaarsada
diyaarsan
dj
djibouti
djurga
dk
dkmg
dlamini
dle
dlm
dlya
dm
dmm
dna
dnaindia
dnr
do
doc
docay
doce
docid
docol
docs
doctor
document
documentary
documentation
documents
dodoma
does
dof
dog
dogg
dogrol
doha
doi
doja
dolbahanta
doll
dollar
dollarka
dollars
dolow
dolphins
dom
domain
domestic
domestication
domi
domingo
dominic
dominica
dominican
dominika
domo
don
donald
donalds
done
dong
donga
donna
donovan
dont
doo
doob
doobka
dood
dooda
doodaa
doodaan
doodaha
dooday
doodaya
doodayaa
doodda
doodday
doodeen
doodi
doodo
doodu
doofaar
doofaarka
doog
dool
doolar
doolarka
dooli
dooliga
doollar
doollarka
doollo
doolow
doomaha
doombiro
doomin
doominta
doomintii
doomiyay
doomiyeen
doomo
doon
doona
doonaa
doonaan
doonan
doonay
doonaya
doonayaa
doonayaan
doonayay
doonayeen
doonayey
doonayo
doonaysa
doonaysay
doonaysid
doonayso
doondheere
doone
dooneysid
dooni
doonid
doonin
doonista
doonistiisa
doonka
doonnaa
doonnida
doonno
doono
doonta
doontaa
doontaan
doontay
doontid
doonto
doonyaha
doonyo
door
doorada
dooran
dooranaya
doorar
doorarka
doorashada
doorashadaas
doorashadan
doorashaddii
doorashadeeda
doorashadii
doorashadu
doorasho
doorashooyin
doorashooyinka
doorashooyinkii
dooratay
doorato
doorbidaan
doorbiday
doorbidaya
doorka
doorkeeda
doorkeedii
doorkii
doorkiisa
dooro
doors
doorsoomayaan
doorta
doortaa
doortaan
doortay
doorteen
doortey
doorto
doox
dooxa
dooxada
dooxo
dooxooyin
dooxooyinka
dooxyo
dooy
doqon
dori
doric
dorothy
dortmund
dos
douala
double
dougherty
douglas
douha
dove
dovecameron
dover
dow
dowlad
dowlada
dowladaha
dowladahaas
dowladda
dowladdi
dowladdii
dowladdu
dowladeed
dowladi
dowladihii
dowladii
dowladnimada
dowladnimo
dowlado
dowladood
dowladu
dowlaha
dowli
dowliga
down
download
downloads
downpour
downtown
dozens
dp
dpr
dpwosocny
dq
dr
draft
dragon
drainage
drake
drama
dramani
dramas
drape
drapeau
draw
drawbacks
drc
dre
dream
dreams
dress
dri
drill
drilling
drive
driver
drivers
driving
drone
drop
dropout
drops
drought
drs
drug
drum
druzhby
dry
ds
dsp
dspace
dtm
du
dua
dual
duale
dub
duba
dubad
dubai
dubay
duble
dubniyaam
dubo
duca
ducaadda
ducaale
ducada
ducadii
ducati
duceeyaan
duceeyay
duceeyo
duceysanayaa
duchy
duco
ducooyinka
dudbiye
dudub
duduble
duduwan
due
dufan
dufanka
duff
dugsi
dugsiga
dugsigaas
dugsigii
dugsigu
dugsiyada
dugsiyadii
dugsiyo
duhail
duhur
duhurka
duhurkii
dukaamada
dukaamo
dukaan
dukaanka
dukaankii
dukan
duke
duki
dukumeenti
dukumiinti
dukumiintiga
dukumiintiyada
dukumintiga
dul
dulaydala
duleedka
dulhania
dulinka
dulka
dullayn
dulmi
dulmiga
dulqaad
dulqaadan
dulqaadka
dulsaar
dulsaarka
dumaal
dumaalay
dumai
dumar
dumarba
dumarka
dumarkaasi
dumarkii
dumarku
dumarnimada
dumas
dumay
dumbarton
dumin
dumiyay
dumiyo
dun
duncan
dundia
dundida
dunes
dunhill
duni
dunid
dunida
dunidan
dunidu
duniyar
duniyo
dunkin
dunnida
dunta
duntay
duq
duqa
duqeeyay
duqeeyeen
duqeeyey
duqeymo
duqeyn
duqeynta
duqii
duqoobeen
duqow
duqsan
duqsi
dur
durba
durbaan
durbaanka
durbaano
durbadii
durbadiiba
durban
durdur
durham
duri
during
durmaan
durmaanka
duro
durraan
durug
durugsan
duruufaha
duruufo
duruus
dus
dusaa
dusha
dusheeda
dushiisa
dushooda
dusmareeb
dust
dutch
duterte
duub
duuban
duubay
duubi
duubis
duubista
duubo
duuboo
duubtay
duudka
duufaan
duufaanno
duufaano
duufaanta
duufaantii
duug
duugan
duugay
duugayaa
duugayo
duugo
duul
duula
duulaan
duulaanka
duulaankii
duulahii
duulay
duulaya
duulayay
duuleen
duulimaad
duulimaadka
duulimaadkii
duulimaadyada
duulimaadyadu
duulimaadyo
duulin
duulista
duuliyaha
duuliyasha
duuliye
duuliyihii
duullaan
duullaanka
duullaankii
duulo
duumaan
duumada
duuna
duunyada
duunyo
duunyooyinka
duur
duurjoog
duurjoogta
duurka
duushay
duusho
duwaha
duwan
duwana
duwanaa
duwanaan
duwanaanshaha
duwanaanshiyaha
duwanaansho
duwanaanta
duwantahay
duwanyahay
duwanyihiin
dux
duxda
dvd
dw
dwarf
dwd
dx
dyb
dylan
dynamic
dynamics
dynamo
dynamos
dynastic
dynasty
dz
dæ
də
e
ea
eac
each
eagle
eagles
ear
earliest
early
earnings
earns
earth
earthquake
earthquakes
easbrig
easf
easfcom
east
eastern
eastleigh
eastliegh
easy
eat
eb
ebakar
ebar
ebay
ebchecked
eber
ebisu
ebola
ebooks
ec
ecb
eccas
eccentric
ece
echo
ecirc
eclare
eclipse
eco
ecological
economic
economics
economictimes
economist
economy
ecosoc
ecowas
ecuador
ed
eda
edgar
edgardo
edge
edgecomb
edifice
edinburgh
edirne
edison
edit
edited
edition
editor
editore
editors
edizioni
edmonton
edo
eds
edu
eduard
eduardo
education
educational
edward
edwards
edwin
ee
eebakar
eebbaa
eebbaana
eebbaha
eebbana
eebbe
eebe
eebow
eec
eed
eeddo
eedeeyaa
eedeeyay
eedeeyeen
eedeeyey
eedeymaha
eedeymo
eedin
eedo
eee
eeg
eega
eegaa
eegaan
eegay
eegaya
eegayo
eegi
eegin
eegis
eegista
eegisyo
eegno
eego
eegto
eek
eeka
eelaay
eelo
een
eeshiya
eex
eexasho
eey
eeyaha
eeyga
eeyna
eeynu
ef
efes
effect
effective
effects
efforts
eg
egal
egg
eggs
egsc
egta
egtahay
egyahay
egyihiin
egypt
egyptian
eh
ehayd
ehed
eheed
eheen
ehel
eheyd
ehir
ehka
ehlu
ehret
ei
eid
eiga
eight
ein
einstein
eintracht
either
ejersa
ek
eka
ekaa
eki
ekonomi
ektzujo
el
ela
elaayo
elder
elders
eldonejo
elebda
elected
election
elections
electrate
electric
electronic
electronics
elektaromagnetik
elektaron
elektaroon
elektarooniga
elektaroonik
elektaroono
elektiroonigga
elektrooniga
element
elementary
elements
elephant
elevation
eli
elias
elik
elissa
elite
elizabeth
elle
ellen
ellie
elliot
elliott
elman
elmi
elsa
elsevier
elvadist
em
email
eman
emanawel
embassies
embassy
emblem
emerald
emergency
emerging
emerson
emiirka
emily
eminem
emirate
emirates
emma
emmanuel
emmy
emn
emotional
emotionally
empathy
emperor
empire
employee
employment
empty
emre
en
encarta
enceladus
enciclopedia
encompasses
encounter
encyclopaedia
encyclopedia
encyclopædia
end
ende
endure
enel
energy
enewsworld
eng
engaged
engagement
engels
engineer
engineering
england
english
eni
enjoy
enmeshing
enough
enrico
enschede
ensiim
entebbe
entendre
enter
enterprise
enterprises
entertain
entertainment
entire
entrance
entrepreneur
entry
environment
environmental
envoy
eo
eon
eonka
eonline
ep
epa
epic
epicaricacy
epimetheus
episode
epoko
eprdf
epstein
equator
equatorial
equipment
er
era
erasmus
eratareya
eray
erayada
erayadii
erayga
eraygan
eraygiisa
erayo
erbil
erdog
erdogaan
erdogan
ereteriya
erey
ereyada
ereybixin
ereyga
ereygaan
ereygan
ereygu
ereyo
ereysir
ergada
ergadii
ergeyga
ergo
eric
erich
erie
erigavo
erik
erika
erikson
eris
eriteriya
eritrea
eritrean
ernest
ernst
eroge
erotic
error
eryay
eryta
erythraean
es
esa
esc
escalation
esf
eskis
eso
espan
espe
especially
esperanta
esperanto
essay
essential
essentials
est
established
estadi
estado
estados
estas
estate
este
esteem
esther
esti
estimate
estimated
estimates
estonia
estonian
estoniya
estos
eswatini
et
etat
etc
eth
ethanol
ethical
ethics
ethio
ethiopia
ethiopian
ethiopias
ethiosemitic
ethnic
ethnicity
ethnologue
ethopia
etiquette
etymology
etymonline
eu
eugene
eun
eunice
euphemism
euphoria
euphrates
eur
eurasia
eurasian
euro
eurobasket
euronews
europa
europe
european
europeans
europlug
eurostat
eurovision
ev
eva
evan
evans
eve
even
evening
event
events
ever
everest
everglow
evergreen
everson
everton
every
everyone
everything
evic
evidence
evil
evolution
ew
ex
example
examples
excavations
excel
except
excerpt
exchange
exclusive
exe
executive
exemplar
exercise
exile
exist
exitos
exo
exoplanet
expanded
experience
experiment
expert
experts
explained
explains
explicit
exploration
explorer
explosion
expo
export
exports
express
expressway
ext
extended
extensive
extent
external
extra
ey
eyade
eyda
eye
eyed
eyes
eyga
eyl
eylo
ez
f
fa
faa
faadima
faaduma
faadumiina
faadumiyiinta
faadumo
faafa
faafan
faafay
faafida
faafin
faafinaya
faafinayey
faafinta
faafitaanka
faafiyaa
faafiyay
faafiyeen
faafiyo
faafo
faafreeb
faafreebka
faaftay
faago
faahfaahin
faahfaahinta
faahfaahsan
faahiye
faaidadda
faaidaysan
faaideesanaya
faaideestay
faaido
faaiido
faalij
faallo
faallooyin
faallooyinka
faana
faanaan
faanaya
faani
faanka
faano
faanoole
faarax
faaris
faarisi
faarisiga
faarsi
faarsiga
faaruuq
faasuliyada
faasuuliyadu
faatax
faatima
faatixa
faatixada
faaya
fabio
fac
faca
facaweyn
facbook
face
facebook
faces
facilities
facility
fact
factbook
factfinder
faction
facto
factor
factory
factretriever
facts
factsheets
faculty
facwayn
facweyn
fadal
fadeexad
fadhi
fadhida
fadhidaa
fadhiday
fadhido
fadhiga
fadhigaab
fadhigeedu
fadhigii
fadhigiisu
fadhigoodu
fadhiisan
fadhiisanayaa
fadhiistay
fadhiisto
fadhiya
fadhiyaa
fadhiyaan
fadhiyay
fadhiyey
fadhiyo
fadlan
fadli
fadliga
fagaaraha
fagaare
fahad
faham
fahamka
fahamsan
fahan
fahanka
fahd
fahiye
fahma
fahmaan
fahmay
fahmeen
fahmey
fahmi
fahmid
fahmin
fahmo
fahrenhayt
fahrenheit
fails
fair
fairfield
faisal
faith
fajacay
fakaday
fakarka
fakufiiqe
fal
falaadhaha
falaadislaaf
falaga
falaha
falal
falalka
falanqaynta
falanqeyn
falastiin
falastiiniyiin
falastiiniyiinta
falastiiniyiintu
falastiinta
falcelin
falcelinta
fale
faleed
faleedka
falgal
falgalaan
falgalka
falgalo
falgasha
falid
falimaha
falis
falka
falkaab
falkaasi
falkland
falku
fall
fallaagada
fallaago
fallag
fallaga
fallagu
falls
falo
falsafad
falsafada
falsafadda
false
fame
famiglia
familie
families
family
famine
famous
fan
fanaan
fanaanad
fanaanada
fanaanadu
fanaand
fanaaniin
fanaaniinta
fanaaniintii
fanaaniintu
fanaanka
fanaankan
fanaankii
fanaanku
fanadhiyaam
fanaka
fanansuwela
fanax
fandom
faneed
faneedka
fanerosoyig
fanka
fanku
fannaan
fannaanad
fannaanada
fannaanda
fannaaniin
fannaaniinta
fannaaniintii
fannaanka
fans
fantasy
fanwatu
fanza
fao
faostat
faoswalim
faqay
faqi
faqiih
faqiir
faqiirka
faqiirsan
faqri
faqriga
far
fara
faraacintii
faraanti
faraantiga
faraantigalis
faraax
farabadan
farac
faraca
faraceeda
faracii
faragalinta
faragelin
faragelinta
farah
faraha
faraj
faral
farammugo
faransa
faransiis
faransiiska
faransiisku
faransiyaam
faras
faraska
faraskii
faraskiisii
farasmagaalaha
farasmagaalka
faraweyne
farax
faraxsan
faraxsanahay
faray
farayo
faraysaa
farcama
farcamay
farcameen
farcan
farcanka
farcankii
fardaha
fardheer
fardheero
fardhexada
fardhexo
fardo
fardood
fardooley
fardooleyda
fareey
farenjiga
farey
fargashiga
farhan
fari
fariid
fariimaha
fariimo
fariin
fariinta
fariisan
fariistaan
fariistay
fariisto
farin
faris
farjano
farlibaax
farm
farmaajo
farmajo
farmashi
farmashiye
farmer
farming
farnsiiska
farnsiisku
faro
faroe
faroese
farood
faroole
farow
farqi
farqiga
farraare
farrah
farriimaha
farriimo
farriin
farriinta
farsamada
farsamaynta
farsameeyaa
farsameeyay
farsamo
farsamooyin
farsamooyinka
farshaxan
farshaxanada
farshaxanimada
farshaxaniste
farshaxanka
farshaxanno
farsmada
farta
fartaan
fartada
fartan
fartani
fartii
farto
faruur
faruuryaha
faruuryo
farxaan
farxad
farxada
farxadda
farxay
farxeen
farxi
farxiya
farxiyo
farxo
faryareey
faryareeyda
faryaro
fas
fasaad
fasal
fasalka
fasallada
fasax
fasaxa
fasaxay
fasaxyada
fascinating
fashil
fashilantay
fashilmay
fashilmeen
fashion
fasil
fasiraadda
fasiri
fasiro
faso
fast
fat
fatah
fatax
fateh
fath
father
fatigue
fatih
fatima
fatma
fattah
fatwa
fatwaid
fatxi
favourite
faye
faylalka
faylasha
faylasuuf
faylka
faynuus
fayras
fayraska
faysal
fb
fbid
fc
fcc
fd
fdi
fe
fear
feat
feature
featured
features
feb
febaraayo
febraayo
february
fechaacceso
fedaraalka
federaal
federaali
federaaliga
federaalka
federaalku
federal
federalka
federation
federico
fedraalka
fedralka
feebarwari
feed
feedh
feedhaha
feedhka
feejignaan
feel
feer
feeraha
feerfeer
feerka
feero
feeryahan
feet
fegas
feker
fekerka
fekero
felis
female
feminine
femininity
feminism
feminist
fener
fenerbahc
fenerbahce
fer
ferde
ferdinand
ferencva
ferna
fernandez
fernando
ferry
fertile
fest
festival
festivals
feud
fever
few
feyraska
feysal
ff
fg
fgm
fi
fiat
fiba
fiber
fican
ficil
ficilada
ficilka
ficillada
fiction
fid
fiday
fidel
fidesz
fidey
fidi
fidin
fidinayaan
fidinta
fidisay
fiditaanka
fidiya
fidiyaan
fidiyay
fidiyeen
fidiyo
fido
fidsan
fidsantahay
field
fields
fifa
fifth
figcaption
fight
fighter
fighting
figlar
figurative
figure
figures
fihir
fii
fiican
fiicana
fiicane
fiicanna
fiicantahay
fiicnaa
fiicnaaday
fiicnaan
fiicnayn
fiicneyd
fiicni
fiid
fiidiyaha
fiidiyoow
fiidiyoowga
fiidiyow
fiidiyowga
fiidiyowgu
fiidiyowyada
fiidiyowyo
fiidkii
fiidow
fiidyaha
fiidyowga
fiil
fiilada
fiilo
fiilooyinka
fiiniks
fiinlaan
fiiq
fiiqan
fiiri
fiirin
fiirinayo
fiiriyo
fiiro
fiirogaar
fiirsado
fiirsashada
fiirso
fiisaha
fiise
fiisigiska
fiisikis
fiisikiska
fiiso
fiisooyinka
fiit
fiitamiin
fiitamiino
fiji
fikir
fikirin
fikirka
fikirkiisa
fikiro
fikrad
fikrada
fikradaha
fikradda
fikrado
fiktooriya
fil
fila
filaan
filaanka
filaayo
filadelfiya
filan
filayaa
filayay
filayo
file
files
fili
filibiin
filibs
filim
filimaan
filimaanta
filimada
filimadeeda
filimka
filimkan
filimkeeda
filimkeedii
filimkii
filimkiisii
filimku
filimmada
filimo
filin
filinka
filipino
film
filmada
filmfare
filmka
filmmakers
films
filnaansho
filnayn
filo
fin
final
finalka
finally
finance
financial
find
findacounty
finding
fine
finger
finish
finishka
finland
finnish
finnishakana
finnishka
finnmark
fiorentina
fiqhiga
fiqi
fiqifuliye
fiqiga
fir
firaaqada
fircoon
fircooniga
fire
firearms
fired
firefox
firenze
fires
firfircoon
firfircoona
firfircoonaa
firfircooni
firfircoonida
firi
firida
firiley
firileyda
firirsan
firm
firqo
firqooyinka
first
firstpost
fish
fiska
fit
fitamiinada
fitch
fitchratings
fitnada
fitnadii
fitness
fitno
fitr
fitzgerald
fivb
five
fix
fixiso
fiyeena
fiyena
fiyetnam
fjord
fk
fkmg
fl
flag
flags
flamingo
flash
fleet
fleming
flemish
flesh
flight
flood
flooding
floods
floor
flora
florence
flores
florida
flour
flower
fly
flydubai
flying
fm
fmprc
fn
fnc
fo
fobos
focus
fog
fogaa
fogaadaan
fogaaday
fogaadeen
fogaado
fogaan
fogaani
fogaanshaha
fogaansho
fogaanta
fogayn
fogeeyay
fogeeyo
fogeyn
fogfog
foglio
fogtahay
folga
folkaanaha
folkaano
folkinnvkatland
folklore
follow
followers
following
follows
foloriin
fomac
food
fooda
foodda
foods
fool
foolka
foolkaanaha
foolmaroodi
foolxumo
foolxun
foomamka
foomka
foorculus
foornada
foorno
foosha
foosiya
foosto
foot
football
footballforfriendship
footnotes
footsteps
foox
fooxa
for
forbes
forbidden
force
forced
forces
ford
fordham
foreign
foreignpolicy
forest
forever
form
formal
format
formation
former
formerly
forms
formula
fort
forta
fortress
fortune
forum
forums
forward
fosforos
fosforosta
fosil
fosse
foto
found
foundation
founded
founder
founding
four
fourth
fowdo
fox
foxnews
fp
fr
fra
frac
fradkin
frame
framework
fran
franc
franca
france
francesca
francesco
francis
francisco
franco
francophonie
francs
frank
frankfurt
frankincense
franklin
frans
fransa
fransiiska
fransiska
fransisko
franz
fraternal
frau
fred
frederick
fredrikstad
free
freedom
freeman
freestyle
freetown
freewebs
french
fresh
friday
friedrich
friend
friends
friendship
friesland
fro
frog
from
front
frontcover
frontier
frost
fruit
fs
ft
ftp
ftse
fu
fudayd
fudud
fududaato
fududahay
fududayn
fududaynta
fududeeya
fududeeyay
fududeeyo
fududeyn
fududeynta
fuel
fujairah
fuji
fujino
fukada
fukushima
fula
fulay
fulham
fulin
fulineed
fulinta
fulisay
fuliso
fuliya
fuliyaa
fuliyaan
fuliyay
fuliyeen
fuliyo
fulkaano
full
fully
fulmer
fun
funaanad
function
fund
fungi
fungiga
fungus
fuqahada
fur
fura
furaan
furaat
furaha
furan
furantay
furashada
furashadeyda
furashadii
furasho
furashooyinka
furay
furayaasha
fure
fureen
furey
furfuran
furi
furiin
furin
furitaanka
furka
furmay
furmi
furnaan
furo
furqaan
furriinka
fursad
fursada
fursadaha
fursadda
fursado
furtaa
furtay
furteen
furtey
further
furto
fus
futada
futbol
futo
future
futuro
fuugwo
fuul
fuulay
fuulka
fuulo
fuuq
fuusto
fw
fwww
fx
fyla
g
ga
gaab
gaaban
gaabane
gaabani
gaabin
gaabinta
gaabis
gaabiyaa
gaabiyay
gaabiyey
gaabiyo
gaabka
gaaboow
gaabow
gaaca
gaad
gaadh
gaadha
gaadhaa
gaadhaan
gaadhay
gaadhaya
gaadhayaan
gaadhayay
gaadhayo
gaadhaysa
gaadhayso
gaadheen
gaadhey
gaadhi
gaadhid
gaadhin
gaadhka
gaadho
gaadhsan
gaadhsiisan
gaadhsiiya
gaadhsiiyay
gaadhsiiyeen
gaadhsiiyo
gaadiid
gaadiidka
gaadiidku
gaadmo
gaadsan
gaaf
gaafow
gaagaab
gaagaaban
gaajada
gaajo
gaal
gaalada
gaaladii
gaaladu
gaaliyaam
gaaljecel
gaalka
gaalkacayo
gaalkacyo
gaalla
gaallada
gaalladii
gaalnimada
gaalnimo
gaalo
gaaloobay
gaamedle
gaamur
gaan
gaana
gaandi
gaani
gaar
gaara
gaaraa
gaaraan
gaaraayo
gaarahaan
gaaray
gaaraya
gaarayaa
gaarayaan
gaarayeen
gaarayo
gaaraysa
gaaraysaa
gaarayso
gaare
gaareen
gaareenin
gaareeso
gaarey
gaareysa
gaari
gaariga
gaarin
gaarisa
gaarka
gaarnimada
gaaro
gaaroole
gaarsiin
gaarsiinayo
gaarsiinta
gaarsiisan
gaarsiisay
gaarsiiso
gaarsiiya
gaarsiiyay
gaarsiiyeen
gaarsiiyey
gaarsiiyo
gaarta
gaartay
gaartey
gaarto
gaas
gaashaaman
gaashaamo
gaashaan
gaashaanbuur
gaashaanbuurta
gaashaandhiga
gaashaandhigga
gaashaanka
gaashaanle
gaashireedle
gaaska
gaasku
gaasta
gaazi
gab
gaba
gabaad
gabadh
gabadha
gabadhaasi
gabadhani
gabadhi
gabadhii
gabadhiis
gabadhiisa
gabadhiisii
gabadhooda
gabadhu
gabagabada
gabagabadii
gabagabeeyay
gabagabeeyey
gabal
gabanow
gabar
gabareey
gabax
gabay
gabayaa
gabayaaga
gabayada
gabayadii
gabayadiisa
gabayga
gabaygaas
gabaygaasi
gabaygan
gabaygii
gabaygu
gabayo
gabayre
gabdhaha
gabdhihii
gabdho
gabdhood
gabdhuhuna
gabeyre
gabi
gabilay
gabiley
gabo
gabon
gaboobay
gaboobid
gaboow
gabooye
gaborone
gabow
gabra
gabriel
gabtaanle
gabuun
gabya
gabyaa
gabyi
gabyo
gacal
gacaliye
gacameey
gacan
gacaneey
gacanka
gacanlow
gacanta
gacantaada
gacantii
gacantiisa
gacantiisii
gacantooda
gacayte
gacma
gacmaha
gacmahooda
gacmeed
gacmeedka
gacmihiisa
gacmo
gacmood
gad
gada
gadaa
gadaal
gadaashaa
gadaashiis
gadaashiisa
gadabursi
gadabuursi
gadabuursiga
gadan
gaday
gaddafi
gadh
gadhka
gadhle
gadhmalays
gadiid
gadisan
gado
gadood
gadoon
gadot
gaduud
gaduudan
gaduudka
gaelic
gaf
gaga
gagarinova
gahayr
gaheyr
gain
gaius
gal
gala
galaa
galaaftay
galaal
galaan
galaas
galaaya
galab
galabnimo
galabsan
galabtii
galadaystay
galaddiisu
galadi
galan
galatasaray
galawdewos
galax
galaxy
galay
galaya
galayaa
galayaan
galayax
galayda
galaydh
galayna
galayo
galayr
galayso
galbarwaaqo
galbed
galbedka
galbeed
galbeedka
galbeedku
galbeedna
galcad
galdogob
gale
galeen
galeenka
galey
galeyda
galgaduud
galgala
galgodon
galguduud
galhareeri
gali
galiilobi
galiisiyaan
galin
galinaya
galinayo
galinsoor
galinta
galis
galisay
galiso
galitaanka
galiyaa
galiyay
galiyeen
galiyey
galiyo
galka
galkacayo
galkacyo
galkii
galla
gallad
gallaha
gallery
galley
galleyda
gallica
gallup
gallupdb
galmaax
galmada
galmo
galmoodka
galmoodo
galmudug
galnimada
galo
galool
galootiga
galuusyo
galweyn
galy
galyo
gam
gama
gambaday
gambela
gambia
game
games
gaming
ganaax
ganac
ganacisga
ganacsada
ganacsadaan
ganacsadaha
ganacsade
ganacsadeh
ganacsado
ganacsan
ganacsatada
ganacsatadii
ganacsato
ganacsi
ganacsiga
ganacsigeeda
ganacsigii
ganacsigooda
ganacsigu
ganacsiyada
ganacsiyo
ganacu
ganassi
ganay
ganbool
gandhi
gandi
ganey
gang
gangnam
gangubai
gantaal
gantaalada
gantaalaha
gantaalka
gantaalo
ganthal
ganymede
gao
gaon
gaonchart
gar
gara
garaac
garaaca
garaacaa
garaacay
garaacaya
garaacayo
garaacday
garaaci
garaaco
garaad
garaadada
garaadka
garaadkii
garaadkiisu
garaadku
garaam
garaashka
garab
garabcad
garabka
garabkii
garabla
garacad
garad
garadag
garadka
garam
garan
garanaayo
garanayaa
garanayn
garanayo
garane
garanuug
garanuugle
garanuugta
garas
garasbaaley
garashada
garasho
garatay
garato
garay
garayaan
garba
garbaha
garbaharey
garbaharrey
garbo
garbrecht
garci
garcia
gardafuul
gardaro
gardarrada
garden
gardens
gardheer
gardheere
gardiner
gare
gareen
gareeyay
gargaar
gargaara
gargaarka
gargaarno
gargaaro
gargoore
garhajis
gari
gariga
gariiga
gariir
gariirka
garissa
garjante
garjinte
garland
garoob
garoobay
garoomada
garoomo
garoon
garoonada
garoonka
garoonkaan
garoonkaas
garoonkan
garoonku
garoowe
garow
garowe
garoweonline
garowga
garre
garry
garsoor
garsooraha
garsoorayaasha
garsoore
garsoorka
garsoorku
garsuge
garta
gartaa
gartaan
gartada
gartay
garteen
gartey
garto
garuun
garwaale
garweyne
garxajis
gary
garyaqaan
garyaqaanka
gas
gases
gasha
gashaa
gashaan
gashaanle
gashado
gashan
gashanle
gashay
gashey
gashi
gashiga
gasho
gasiirada
gasiiradaha
gasiirado
gatay
gate
gates
gateway
gathering
gato
gauilie
gaul
gaulle
gaurav
gauteng
gave
gaw
gawaarida
gawc
gawl
gaws
gay
gaya
gayaasudiin
gaydh
gayiga
gayo
gaysatay
gaystaan
gaystay
gaysteen
gaysto
gaza
gazelle
gazette
gazetteer
gazi
gaziantep
gazprom
gb
gbm
gbp
gbs
gc
gcc
gd
gdp
ge
gebi
gebiley
gebru
gebze
gec
ged
geddisan
gedi
gediid
gedisan
gedo
gedoon
gedoonto
geed
geedaha
geeddi
geedi
geedjaceyl
geedka
geedkaan
geedkan
geedkani
geedkii
geedku
geedo
geeduhu
geel
geela
geele
geeli
geelidle
geelii
geella
geelle
geelu
geenyada
geenyo
geeraar
geeraarka
geeri
geerida
geeridii
geeridiisa
geeridu
geerisa
geeriyooday
geeriyoodey
geeriyoodo
geeriyootay
gees
geesa
geesaha
geesi
geesiga
geesigii
geesiley
geesinimada
geesinimo
geesiyaal
geesiyaashii
geesiyadii
geeska
geeso
geesood
geesoodka
geestay
geesteen
geeya
geeyaa
geeyaan
geeyay
geeyeen
geeyey
geeyo
geeystay
gef
gegada
gegida
gego
gegooyin
gegooyinka
geingob
gelaya
geledi
geli
gelin
gelinaya
gelinayaa
gelinayo
gelinsoor
gelinta
gelisa
gelisaa
gelisay
geliso
gelitaanka
geliya
geliyaa
geliyaan
geliyay
geliyeen
geliyey
geliyo
gelle
gelyo
gen
gendarmerie
gender
gendershe
gene
genealogical
genel
genelenergy
generaal
general
generation
genes
genesis
genetic
genetics
geneva
genie
genius
genk
genoa
gentlemen
genus
geo
geographic
geographical
geography
geohive
geological
geology
geonames
geophysical
george
georges
georgetown
georgia
geos
gerais
gerald
gerd
gerence
gerenuk
geri
geriga
geriyaad
germain
german
germana
germany
gerwarth
gerweyne
geshekter
geshiishe
get
getafe
gethsemane
gets
getting
gettysburg
geun
geyiga
geyn
geynayo
geynta
geysan
geysatay
geysato
geystaan
geystay
geysteen
geysto
gfriend
gg
gh
ghana
ghanem
gharnaada
gharri
ghazali
ghazi
ghazwah
ghebreyesus
gheri
ghostarchive
ghulam
gi
gia
giang
giant
gibil
gibin
gibraltar
gidaar
gidaarka
giddi
gidhays
gidir
giesecke
gif
gift
gifts
gigawatt
gii
gil
gilgamesh
gime
gimmick
gin
gini
ginni
giovanni
giraan
giraanta
girgire
giriig
giriiga
giriigga
giriiggii
giriiggu
giriigii
giriigta
giriyaad
girl
girlfriend
girls
giselle
gitaar
gitaarka
giulia
giulio
giuseppe
give
given
gives
giza
gj
gjøvik
gk
gl
gladys
glamour
glasgow
glass
gle
global
globaldatalab
globalization
globally
globe
glomma
glory
glu
gm
gmail
gmbh
gmm
gmt
gnassingbe
gnis
gnp
gnu
go
goa
goaan
goal
goat
gob
gobal
gobalada
gobaleedka
gobalka
goballada
gobanimo
gobka
gobo
gobol
gobola
gobolada
goboladaas
goboladda
goboladii
gobolda
goboleed
goboleedda
goboleedka
goboleedkaas
goboleedku
goboleedyada
goboleedyadu
goboleedyo
gobolka
gobolkaan
gobolkaas
gobolkaasi
gobolkan
gobolkani
gobolkii
gobolku
gobollada
gobolladan
gobollo
gobolo
gobonimo
gobta
god
godaalo
godad
godadka
godan
godane
gode
godeey
godenzi
godey
godfrey
godinlabe
godka
godleey
godob
godod
gods
goes
gogh
gogol
gogosha
going
gokulam
gol
golaha
golahaasi
golahani
golan
golayaasha
gold
golden
goldstein
gole
goleyaasha
golf
golihii
golis
gollaha
golle
gollis
golo
gololeey
goluhu
golweyn
gomez
gondar
gondwana
gone
gonza
goo
goob
goobaabin
goobada
goobaha
goobeed
goobihii
goobjoog
goobjoogayaasha
goobjooge
goobo
goobood
goobroon
goobta
goobtaa
goobtaan
goobtaas
goobtaasi
goobtan
goobteen
goobtii
goobweyn
good
goodaad
goodir
goods
goodwin
googarad
google
gool
goolasha
goolka
goolkiisii
goon
goonada
gooni
goonida
gooniya
goonjeex
goonni
goor
goorba
goorma
goorta
goortaas
goortaasi
goortii
goortuu
gooryaan
gooryaanka
goos
goosadka
goosan
goosashada
goosha
goosta
goostay
goosteen
goosto
gooy
gooya
gooyaa
gooyaan
gooyay
gooyey
gooyn
gooyo
gor
gorbachev
gordon
gorgaate
gorgor
gorgortanka
goro
gorontalo
goronyada
goronyo
gosha
gossip
got
gouled
gov
govaerts
government
governments
governor
governorate
govt
gowraco
gows
goyn
goynta
gpo
gps
gq
gr
grabar
grace
graduate
graham
gram
grammy
gran
granada
grand
granda
grande
grandfather
grandmother
grant
grapefruit
graphic
grass
grauballe
grave
gravedigger
gravity
gray
gre
great
greater
greatest
greco
greece
greek
green
greenhouse
greenland
greenwich
greenwichmeantime
greenwood
greetings
gregory
grenada
grenadines
grenoble
grey
grid
griffin
griinland
grin
grindlays
groening
groep
gross
grossing
ground
group
groups
grove
grow
growing
grown
growth
grp
grps
grundig
gs
gsa
gsm
gsma
gst
gt
gu
guadalajara
guadeloupe
guam
guangdong
guangzhou
guantanamo
guarani
guard
guardian
guatemala
guba
gubaabo
gubaan
guban
gubashada
gubay
gubo
gubta
gubtay
gucci
gud
guda
gudagale
gudaha
gudahana
gudaheed
gudaheeda
gudahiisa
gudahood
gudahooda
gudajiray
gudan
gudashada
gudba
gudbaa
gudbaan
gudban
gudbay
gudbaya
gudbayo
gudbe
gudbeen
gudbi
gudbin
gudbinta
gudbisay
gudbiso
gudbiya
gudbiyaa
gudbiyaan
gudbiyay
gudbiyeen
gudbiyo
gudbo
gudboon
gudboonaatay
guddi
guddida
guddiga
guddigii
guddiyada
guddoomiyaha
guddoomiyayaasha
guddoomiye
guddoomiyihii
guddoon
guddoonsiiyey
gudeheeda
gudi
gudida
gudiga
gudigan
gudigii
gudihiisa
gudiyo
gudmo
gudniin
gudniinka
gudo
gudomiyaha
gudomiye
gudomiyihii
gudoomiya
gudoomiyaha
gudoomiyahii
gudoomiye
gudoomiyihi
gudoomiyihii
gudoon
gudoonka
gudoonsiiyay
gudub
gudubka
gudubta
gudubtay
gudubto
guduud
guduudan
guernsey
guerra
guess
guez
guga
gugii
gugundhabe
guidance
guide
guides
guido
guillermo
guine
guinea
guinness
guitar
gujarat
gujarati
gujis
gulaid
gulation
guled
guleed
gulf
gulfnews
gulled
gulleed
guluf
gum
gumaad
gumaroow
gumaysan
gumaysi
gumaysiga
gumaysigii
gumaystaha
gumaystay
gumaystihii
gumaystuhu
gumburka
gumeesan
gumeestay
gumeesti
gumeestihii
gumeeysiga
gumeysan
gumeysi
gumeysiga
gumeysigii
gumeystaha
gumeystayaashii
gumeystihii
gumuz
gun
gunaanad
gunagado
gundhig
gunno
guns
gunta
guntiga
guoan
gupta
guraa
gurabia
gurage
gurasho
guray
gurbaan
gureey
gurey
gurgure
guri
guriceel
guriga
gurigeeda
gurigii
gurigiisa
gurigiisii
gurigooda
gurigu
gurijoog
gurijooga
guriyeynta
gurmad
gurmadka
guro
gurto
guru
guruub
guruubka
guruubkan
guruubyada
guryaha
guryahooda
guryahoodii
guryihii
guryo
guryuhu
gus
guska
gustav
gustave
guta
gutaan
gutay
gutenberg
guterres
guthrie
guto
guubaabin
guud
guudahaan
guudka
guul
guulaha
guulaysan
guulaysatay
guulaysta
guulaystay
guulaysteen
guulaystihii
guulaysto
guuldaradii
guuldareystay
guuldareysteen
guuldaro
guuldarradii
guuldarro
guuled
guuleed
guuleesan
guuleestay
guuleesteen
guuleeystay
guuleysan
guuleysatay
guuleysato
guuleysi
guuleysta
guuleystaan
guuleystay
guuleystayaasha
guuleysteen
guuleystey
guuleysto
guulihii
guulo
guulwade
guumushtakiin
guun
guur
guura
guuraa
guuraaga
guuraagu
guuraan
guurada
guuradii
guuray
guure
guureen
guurey
guuri
guurin
guurista
guuriyay
guurka
guurkani
guurkooda
guurku
guuro
guursadaan
guursaday
guursadeen
guursadey
guursado
guursan
guursanaa
guursanaayaan
guursanayay
guursanin
guursatay
guursato
guurtay
guurtey
guurti
guurtida
guurto
guusha
guushii
guushu
guutaale
guutada
guutadaas
guutadii
guuto
guutooyin
guutooyinka
guvara
guy
guyana
gyeonggi
gypsum
gyu
gyzzvkec
h
ha
haa
haabiil
haad
haadi
haadka
haafniyaam
haag
haajiraan
haajiray
haajireen
haajirtay
haamaha
haan
haarlem
haaruun
haasaawe
haashim
haatan
haatanna
haatif
haaya
haayaan
haayay
haaydarojiin
haayeen
haayo
hab
haba
habab
hababka
habane
habar
habarcafaan
habargidir
habarjeclo
habarwadaag
habaryoonis
habash
habayn
habaynta
habaysan
habboon
habboonayn
habdhaqanka
habdhiska
habeen
habeenada
habeenimo
habeenka
habeenki
habeenkii
habeeno
habeeyay
habeeyey
habeeyo
haber
habeyn
habeynta
habib
habitat
habka
habkaan
habkaas
habkan
habkii
hablaha
hablood
habluhu
haboon
haboonayn
habr
habsaday
habsami
habsatay
habsburg
habta
hacked
hackers
had
hada
hadaa
hadaad
hadaaftimo
hadaan
hadaba
hadad
hadaf
hadafka
hadafkeedu
hadal
hadalada
hadaladii
hadalka
hadalkaas
hadalkaasi
hadalkan
hadalkii
hadalkiisa
hadalkiisii
hadalku
hadallada
hadalladan
hadalladii
hadallo
hadalno
hadalo
hadame
hadan
hadana
hadane
hadasha
hadashaa
hadashay
hadashey
hadasho
haday
hadaynu
hadba
hadda
haddaad
haddaan
haddaanay
haddaanu
haddaba
haddan
haddana
hadday
haddaynnu
haddaynu
haddee
haddi
haddii
haddiiba
haddiise
hadduu
hadduusan
hadey
hadeyaan
hadh
hadhaaga
hadhaagii
hadhay
hadhayna
hadhin
hadhiye
hadhow
hadhramaut
hadhuudh
hadhuudhka
hadhwanaagnews
hadi
hadid
hadigh
hadii
hadimo
hadith
hadiya
hadiyad
hadiyadda
hadiyado
hadla
hadlaa
hadlaan
hadlaaya
hadlaayo
hadlay
hadlaya
hadlayaa
hadlayaan
hadlayana
hadlayay
hadlayey
hadlayo
hadlaysa
hadlaysay
hadleen
hadli
hadlin
hadlo
hadraawi
hadu
haduu
hae
hafun
haga
hagaagaya
hagaagsan
hagaajin
hagaajinta
hagaajisa
hagaajiyay
hagaajiyo
hagaan
hagaha
hagar
hagaya
hagayay
hage
hagia
hagida
hago
hague
hai
haider
haifa
haile
hailemariam
hailey
hain
hair
haiti
haitian
haji
haka
hakaba
hakad
hakan
hakim
hakiyay
hakiyo
hakka
haku
hal
hala
halaad
halaag
halaaleye
halabuur
halabuurka
halac
halbeeg
halbeega
halbeegan
halbeegga
halbeegyada
halbeegyo
halbowlaha
haldoor
haldoorka
hale
haleeli
half
halgamaa
halgamaagii
halgamay
halgamayaashii
halgame
halgan
halganka
halgankaas
halgankii
halil
halima
halimya
halin
halis
halista
halka
halkaa
halkaan
halkaana
halkaas
halkaasi
halkaasna
halkaasoo
halkan
halkani
halkas
halkay
halkbank
halkee
halkii
halkiisa
halku
halkuu
hall
halle
halliburton
hallow
halloween
hallyu
halmaala
halmar
halogens
halogenska
haloo
halsall
halsey
halyaygii
halyeey
halyeeyada
halyeeyadii
halyeeyga
halyeeygii
halyeeyo
halyey
halyeyga
halyeygii
ham
hamad
hambalyo
hamburg
hamburger
hamdan
hamed
hami
hamid
hamilton
hammersmith
hamoud
hampshire
hamuun
hamza
hamzada
hamzo
han
hana
hanaan
hanaanka
hanad
hanan
hanaqaad
hanaqaaday
hanashada
hanatay
hancinema
hand
handbook
handed
handle
hands
hang
hangari
hanging
hangool
hangul
hani
hanja
hanjabaad
hanjabay
hanjin
hankook
hankooki
hankyung
hanlim
hanna
hannaan
hannaanka
hannaankii
hannah
hano
hanoi
hanqal
hans
hansen
hantaara
hanti
hantida
hantidaas
hantidhowrka
hantidii
hantidiisa
hantidooda
hantiwadaag
hantiwadaaga
hantiwadaagga
hanuun
hanuuninta
hanuuniye
hanuuniyo
hanuunka
hanuunkii
haplogroup
hapoel
happen
happened
happiness
happy
happytoursug
haqab
haqabtiri
har
hara
haraad
haraadiga
haraadigii
haraadka
haraaga
haraash
harada
harag
haraga
haraha
haram
haramcad
harar
harare
hararghe
harari
haras
harawo
haray
harbor
harbour
hard
hardware
hare
hareeraha
hareeraheeda
hareeraysan
hareeraysnaa
hareereenta
hareereeyay
hareereeyeen
hareereysan
hareeri
hareerihiisa
hareersan
hareeyay
hargab
hargabka
hargaha
hargaysa
hargeisa
hargeysa
hari
hariin
harimacadka
harin
hariri
haris
harith
harlow
haro
harold
haroorays
harooyin
harooyinka
haroun
harper
harpercollins
harpersbazaar
harraad
harrington
harris
harrison
harry
harsan
hart
harta
hartay
harti
hartiga
harvard
harvest
harvey
harvnb
has
hasa
hasan
hasanayn
hase
haseyeeshee
hashaan
hashi
hashii
hashika
hashim
hashimi
hashimoto
hasiyaam
hass
hassan
hastings
hatchepsut
hate
hathaway
hats
hatshepsut
haud
haumea
hausa
haute
havana
have
haven
havoc
haw
hawada
hawadu
hawai
hawaii
hawd
hawdka
haween
haweenay
haweenaydii
haweeney
haweeneyda
haweeneydii
haweenka
haweenkii
haweenku
hawiye
hawl
hawlaha
hawlan
hawleed
hawleedka
hawlgab
hawlgabka
hawlgal
hawlgala
hawlgalay
hawlgalayaasha
hawlgalka
hawlgalkii
hawlgallada
hawlgalladii
hawlgallo
hawlihii
hawlkarnimo
hawlo
hawlwadeenada
hawo
hawoda
hawooyin
hawraar
hawraaraha
hawraarsame
hawsa
hawsha
hawshaas
hawshii
hay
haya
hayaa
hayaamay
hayaan
hayaanka
hayaankii
hayad
hayada
hayadaha
hayadani
hayadda
hayaha
hayashi
hayat
hayay
hayb
haybad
haybe
hayd
haydarojiin
haydarojiinta
haye
hayeen
hayeeshee
hayek
hayey
hayira
haykal
haylaan
hayn
haynayaa
haynin
hayno
haynta
hayo
hays
haysa
haysaa
haysan
haysanno
haysashada
haysata
haysataa
haysatay
haysato
haysay
hayska
hayso
haysta
haystaa
haystaan
haystaha
haystay
haysteen
haystey
haysto
haytihii
hayward
hayworth
hazal
hbm
hbo
hc
hctv
hd
hda
hdi
hdm
hdms
hdr
he
head
headquarters
health
hear
heard
heart
hearts
heat
heaven
heavy
hebe
hebel
hebrew
hebrewga
hebrides
hebrow
heck
hectare
hedges
hedmark
hee
heebaan
heeda
heeg
heegan
heel
heellan
heer
heerar
heerarka
heerka
heerkeedii
heerkii
heerkul
heerkulka
heerkulkiisu
heerkulku
heersare
heersareeya
hees
heesa
heesaa
heesaaga
heesaan
heesaha
heesaheeda
heesahooda
heesan
heesanin
heesay
heesha
heesi
heesihii
heesihiisa
heeska
heeso
heesood
heesta
heestaan
heestaas
heestaasi
heestan
heestay
heesteeda
heesteedii
heesteen
heestii
heesto
heestooda
heestoodii
heestu
heesuhu
heeysa
heeysaa
heeysatay
heeysta
hefner
hei
height
heights
heiko
heil
hektar
hel
hela
helaa
helaan
helaaya
helaayo
helay
helaya
helayaa
helayaan
helayo
helaysa
helaysaa
held
heleen
helen
helena
helene
heley
heleysaa
heli
helicopter
helid
helida
helidda
helin
helitaanka
helium
heliwa
heliwaa
hell
hellas
hellenic
hellenistic
hello
helms
helmut
helnay
helno
helo
help
helped
helping
helps
helsinki
hemorrhagic
hen
henderson
hendrick
henkilo
henley
hennepin
henry
hentai
heo
hepatitis
her
hera
herald
heraldcorp
herat
herbaceous
herbert
here
herediano
herer
heres
hergabka
herge
heritage
herman
hermann
hermaphrodite
hermon
herna
hernandez
hero
herodotus
hersek
herself
hersi
herzegovina
hesha
heshaa
heshay
heshiin
heshiis
heshiisiin
heshiisiinta
heshiiska
heshiiskaas
heshiiskaasi
heshiiskan
heshiiskii
heshiisyada
heshiisyadii
heshiisyo
heshiiyaan
heshiiyay
heshiiyeen
heshiiyey
hesho
het
heuer
hevonen
hex
hey
heyb
heybad
heyn
heynta
heysa
heysan
heysata
heysato
heyso
heysta
heystaa
heystaan
heystay
heysteen
heysto
hezbollah
hg
hh
hi
hibada
hibo
hida
hidaha
hidda
hiddaha
hidde
hidden
hiddo
hide
hido
hieroglyphic
hieroglyphs
high
higher
highest
highland
highlands
highlight
highway
higlo
hii
hiigsiga
hiil
hiilin
hiilinaya
hiiraale
hiiraan
hiiran
hijab
hijiriga
hijiriya
hijjah
hijrad
hijrada
hijri
hijriga
hijrigu
hijriya
hijriyad
hijriyada
hijrooday
hijroodeen
hijrootay
hilal
hilbaha
hildid
hilib
hilibi
hilibka
hilibkiisa
hilibkooda
hiliyaam
hiliyaamta
hill
hillaac
hillal
hillary
hills
hilmaami
hilmaamin
hilowga
hilowle
hilton
him
himilada
himilo
himilooyinka
himself
himyar
hinda
hindi
hindia
hindida
hindiga
hindika
hindis
hindisaha
hindisay
hindise
hindiya
hindo
hindu
hinduism
hinduistu
hindus
hindustan
hindustani
hindustantimes
hinduuga
hingo
hintire
hip
hiphopdx
hir
hira
hiraab
hiraabe
hirab
hirah
hiran
hiraqla
hiraqle
hirarka
hirgalay
hirgalin
hirgalinta
hirgaliyay
hirgaliyey
hirgaliyo
hirgashay
hirgeli
hirgelin
hirgelinta
hirgelisay
hirgeliyay
hirgeliyeen
hirgeliyey
hirgeliyo
hirka
hirshabeele
hirshabeelle
hirshabele
hirshabelle
hirsi
his
hishaam
hisham
hishiis
hishiiska
hishiiskii
hishiiyay
hispanic
hispanik
hispaniola
hist
histoire
historia
historic
historical
history
hit
hitachi
hitler
hits
hitter
hiv
hiwaayadda
hj
hjalmar
hk
hko
hl
hm
hmlat
hmong
hms
hnk
ho
hoa
hobart
hobiyo
hobolada
hobolo
hobyo
hodaal
hodan
hodana
hodanka
hodon
hodoon
hoehne
hoffenheim
hogaamihii
hogaamin
hogaaminaayay
hogaaminaayeen
hogaaminaayo
hogaaminaya
hogaaminayay
hogaaminayeen
hogaaminayey
hogaaminayo
hogaaminaysay
hogaamineed
hogaaminta
hogaamisa
hogaamiso
hogaamiya
hogaamiyaasha
hogaamiyaha
hogaamiyahooda
hogaamiyay
hogaamiyayaal
hogaamiyayaasha
hogaamiyayaashii
hogaamiye
hogaamiyihii
hogaamiyo
hogaan
hogaanka
hogaankii
hogaansamay
hogaansamo
hogaasamay
hogale
hoggaamin
hoggaaminaya
hoggaaminayay
hoggaaminayey
hoggaaminayo
hoggaamineed
hoggaaminta
hoggaamiyaha
hoggaamiyay
hoggaamiyayaasha
hoggaamiye
hoggaamiyey
hoggaamiyeyaasha
hoggaamiyeyaashii
hoggaamiyihii
hoggaamiyo
hoggaan
hoggaanka
hoggaankii
hoggaansamaan
hoggaansameen
hoggaansamo
hoggaansanaanta
hoi
hoka
hokkaido
hokkien
holac
holan
holand
holandees
hold
holder
holding
holdings
holds
holiday
holland
hollywood
hollywoodreporter
holmes
holocaust
holt
holy
homage
home
homeland
homepage
homes
homo
honda
honduras
honey
hong
honolulu
honor
honshu
hoo
hoobaan
hoobtay
hood
hooda
hoog
hool
hoolka
hoon
hooray
hooreeyay
hoos
hoosaad
hoosaadka
hoosaadyo
hoosaysa
hoosaysiin
hoosdhaban
hoosdhow
hoose
hooseeya
hooseeyaa
hooseeyo
hooseysa
hooseyso
hoosgala
hoosingo
hoosingow
hoosta
hoostaga
hoostagta
hoostagtaa
hoosteeda
hoostega
hoostegaan
hoostegtaa
hoostiis
hoostiisa
hoostooda
hoosu
hoosyimaada
hooto
hooy
hooya
hooyaalayeey
hooyada
hooyadaa
hooyaday
hooyadeed
hooyadeedna
hooyadii
hooyadiina
hooyadiis
hooyadood
hooyadu
hooyay
hooyeen
hooyey
hooyga
hooyo
hooyoda
hooyooyin
hooyooyinka
hop
hope
hopes
hopkins
hopper
hor
horaanta
horaantii
horay
horayay
horayba
horayn
horayna
horaysa
horaysay
horayso
hordaland
hordhac
hordhaca
hordio
hore
horeba
horee
horeesay
horeeya
horeeyaan
horeeyay
horeeye
horeeyey
horeeyo
horeeysa
horeeysay
horeeyso
horena
horey
horeyay
horeyd
horeyn
horeyna
horeyntii
horeysa
horeysay
horeysey
horgale
horizon
horizonte
horjeed
horjeeda
horjeedaa
horjeedaan
horjeeday
horjeedda
horjeedeen
horjeedka
horjeedo
horjeestay
horjeesteen
horkacaayay
hormar
hormaray
hormarin
hormarinta
hormariyay
hormariyo
hormarka
hormarkii
hormaro
hormarsan
hormartay
hormood
hormoodka
hormos
hormuud
hormuudka
hormuz
horn
horraantii
horrayn
horrayntii
horraysa
horraysay
horreeya
horreeyaan
horreeyay
horreeyey
horreyn
horreyntii
horreysa
horreysay
horreysey
horror
horse
horseed
horseeda
horseeday
horseedday
horseedi
horseedmedia
horseshoe
horst
hort
horta
hortaada
hortaagan
hortag
hortaga
hortagaan
hortagay
hortagaya
hortagga
hortagi
hortago
hortagtaa
hortagto
horteed
horteeda
horticulture
hortii
hortiis
hortiisa
hortimid
hortooda
horu
horudhac
horufadhi
horukaca
horumar
horumaray
horumarin
horumarineed
horumarinta
horumarisay
horumariso
horumariyaan
horumariyay
horumariyey
horumariyo
horumarka
horumarkeeda
horumarkii
horumarku
horumarsan
horumartey
horus
horuu
horyaal
horyaalada
horyaalka
horyaalkii
horyimaadeen
horyimid
hos
hose
hosh
hosk
hospital
hossain
host
hosts
hot
hoteel
hoteelada
hoteelka
hoteelo
hotel
hotelada
hotelka
hotels
hotmail
hotnewhiphop
hotspur
hour
hours
house
household
housing
houston
houthi
houthis
hove
how
howard
howd
however
howl
howlaakuu
howlaha
howlahooda
howlgal
howlgala
howlgalaan
howlgalada
howlgalay
howlgaliyay
howlgalka
howlgalkii
howlgallada
howlgalo
howlgasha
howlihii
howlo
howlwadaag
howlwadag
howraarsame
howrah
howsha
howshan
howshii
howston
hoy
hoyga
hoygasuugaanta
hq
hr
hrithik
hs
hsin
hsu
hti
htm
html
http
https
hu
hualien
huang
hub
hubaa
hubaal
hubaysan
hubaysnaa
hubeer
hubeeysan
huber
hubeysan
hubi
hubin
hubinta
hubiyo
hubka
hubkii
hubo
hud
huda
hudet
hudhaifa
hudheel
hudheelada
hudheelka
hudheelkii
hudheelo
hudhudkii
hudoon
hudson
hue
hufan
huffingtonpost
hufnaan
hufnaanta
huge
hugeey
hugh
hughes
hugo
hui
hulagu
hulburd
hulu
huluul
hum
humaag
human
humanitarian
humble
humility
hun
hundo
hundred
hundreds
hung
hungama
hungari
hungaria
hungarian
hungary
hunger
hunguri
hunguriga
hunt
hunter
hunting
huraan
huray
hurda
hurdada
hurdo
hureyra
huriwaa
hurre
hurricane
hurriyet
hurriyetdailynews
huruud
huruuda
huryo
husayn
husband
husein
husen
hussain
hussein
hustler
hut
huteel
hutter
hutu
huud
huur
huurshe
huwan
huyayy
hwa
hwan
hwang
hy
hyde
hyderabad
hydrocarbons
hydrogen
hydrographic
hydropower
hye
hyena
hyeon
hyo
hyori
hyperion
hypermarket
hyuk
hyun
hyuna
hyundai
hyung
hyva
i
ia
iaa
iaaf
iadb
iaea
ian
iata
iau
ib
iberian
ibge
ibis
iblays
ibliiska
ibn
ibni
ibnlive
ibnu
ibolya
ibraahiim
ibraahim
ibraahin
ibrahiim
ibrahim
ibrahin
ibrd
ibtimes
ic
icao
icc
ice
iceland
icelandic
icon
icrc
icsid
ict
ictiraaf
ictiraafka
icu
icy
id
ida
idaacad
idaacada
idaacadaha
idaacadda
idaajaa
idada
idaha
idaho
idarays
idea
ideal
identified
identity
idfrom
idhi
idho
idi
idiin
idiinku
idiinna
idil
idin
idinka
idinkaga
idinkana
idinkoo
idinku
idinkugu
idinla
idioma
idiris
idka
idlaado
idle
idman
idmay
idmo
ido
idol
idols
idolyada
idooyin
idriis
idris
idriss
idto
iduhu
iduskcn
idx
idxno
ie
if
ifafaale
ifat
ifbaxay
ifilada
ifk
ifka
iftiimaya
iftiimaysa
iftiiminta
iftiin
iftiinka
iftiinkuna
iftin
iftinka
ig
iga
igad
igaga
igaha
igala
igama
igbo
igmaday
ignatius
ignored
igo
igor
igta
igtii
igtu
igu
igula
ih
ihg
ihi
iho
ihun
ii
iib
iibgeeyo
iibin
iibinta
iibisa
iibisay
iibiso
iibiya
iibiyaa
iibiyaan
iibiyaha
iibiyay
iibiyeen
iibiyey
iibiyo
iibka
iibsada
iibsadaan
iibsadaha
iibsaday
iibsadeen
iibsado
iibsan
iibsanaya
iibsanayo
iibsashada
iibsatay
iibsato
iibsi
iibsiga
iid
iida
iidaan
iidada
iidaysan
iidaysiga
iidaysto
iideysanaya
iideystaan
iideysto
iidhehda
iidle
iido
iidooyin
iidooyinka
iidow
iifaalkii
iiga
iigu
iii
iija
iil
iimaan
iimaanka
iimaankooda
iin
iir
iiraan
iisal
iisalwasaare
iisho
iisul
iisulwasaaraha
ijjah
ijtihaadka
ik
ika
ikea
ikhtiyaar
ikhtiyaari
ikhtiyaarka
ikraan
iktas
ikwadoor
ikweetiga
il
ila
ilaa
ilaah
ilaaha
ilaahay
ilaahayna
ilaahayow
ilaaheey
ilaahey
ilaahi
ilaahii
ilaahnimada
ilaahow
ilaahyada
ilaahyadii
ilaahyo
ilaalada
ilaaladii
ilaali
ilaalin
ilaalinaya
ilaalinayo
ilaalino
ilaalinta
ilaalisa
ilaalisaa
ilaalisay
ilaaliso
ilaaliya
ilaaliyaa
ilaaliyaan
ilaaliyaha
ilaaliyay
ilaaliye
ilaaliyo
ilaalo
ilaashadaan
ilaawaan
ilaaway
ilaawi
ilad
ilada
ilaha
ilahay
ilays
ilayska
ilbaab
ilbaabka
ilbax
ilbaxnimada
ilbaxnimadii
ilbaxnimadu
ilbaxnimo
ilbaxsan
ilbir
ilbiriqsi
ilbiriqsigiiba
ilbo
ilc
ile
ileen
ileeye
ileys
ileyska
ili
ilig
ilik
ilka
ilkagaduud
ilkaha
ilko
ilkood
ilku
ilkuhu
ill
illa
illaa
illaah
illaahay
illada
illahay
illallaah
illegal
illinois
illit
illustrated
ilma
ilmaha
ilmahaasi
ilmahiisa
ilmahooda
ilmihii
ilmihiis
ilmihiisa
ilmo
ilmuhu
ilo
iloobi
ils
iltapa
ilyaas
ilyas
im
ima
imaada
imaadaa
imaadaan
imaaday
imaadeen
imaado
imaadyada
imaam
imaamka
imaamkii
imaamku
imaamu
imaamyada
imaan
imaanaya
imaanayaa
imaanayaan
imaanayay
imaanayo
imaanaysa
imaanin
imaanshaha
imaaraadka
imaaraatka
imaarada
imaaradaha
imaaradihii
imaaradii
imaarado
imaaradood
imaatinka
image
images
imah
imam
iman
imanaya
imanayaa
imanayay
imanaysa
imasa
imbaraadoor
imbc
imbiraadoor
imbiraadooriyada
imbiraadoorka
imbiraadoorkii
imdb
imf
img
imgrc
imid
imika
imikana
iminka
iminkana
imisa
immigrant
immigrants
immigration
imo
impact
imperial
implement
implementation
import
importance
important
impressa
improved
imran
imsi
imsiadmin
imtixaan
imtixaanka
imtixaankii
in
ina
inaa
inaad
inaadan
inaan
inaanan
inaanay
inaanu
inac
inaga
inagu
inan
inanka
inanta
inay
inayna
inaynan
inaynu
inaysan
inb
inbadan
inc
inca
incest
incestual
inch
incheon
include
included
includes
including
income
incorporated
increase
increased
ind
independence
independent
index
indha
indhabuur
indhadeero
indhaha
indhahooda
indhahoodu
indhayare
indhaynta
indheer
indhihiisa
indho
indhood
indhoolayaasha
indhoole
indhuhu
india
indian
indiana
indianexpress
indianka
indians
indiarealtime
indias
indiatimes
indiatoday
indicated
indicator
indicators
indicopleustes
indies
indigenous
indigo
indikvorto
indirect
individual
individuals
individuo
indiya
indo
indochina
indonesia
indonesian
indoniisiya
indunisi
indunisiya
indus
industrial
industries
industry
ine
inee
ineey
inen
inequality
iney
ineysan
inference
infinity
influence
influenced
influencer
influences
influential
info
infobox
infographics
infopankki
inform
informal
information
infrastructure
ing
ingaris
ingariska
ingiriis
ingiriisa
ingiriisi
ingiriisiga
ingiriiska
ingiriisku
ingriis
ingriisiga
ingriiska
ingriisku
inh
inhabit
inhabitant
inhabitants
initiative
initiatives
inj
injamiina
inji
injiil
injiilka
injineer
injineerinka
injineernimada
injir
injured
inka
inkabadan
inkasta
inkasto
inkastoo
inkigayo
inkishaariyiinta
inland
inn
inna
innaba
innaga
innagu
inner
innocent
innovation
innuendo
innvbef
inoo
inooga
inoogu
inorganic
input
inqilaab
inqilaabka
inqilaabkii
inqiriisi
inquirer
inr
insaan
insaanka
insanity
insaykalobeedhiya
insee
insha
inside
insider
insight
insights
inspiration
instagram
instinct
institut
institute
institution
institutions
instituto
instruction
int
inta
intaa
intaad
intaan
intaanay
intaanu
intaas
intaasi
intaasoo
intaba
intabadan
intas
intay
intaysan
intee
inteeda
inteey
integrated
integration
integrity
intellectual
intelligence
intelligent
intent
inter
interactive
intercontinental
interest
interesting
interface
interim
interior
interlingua
intermediate
internacia
internal
international
internationale
internazionale
internet
internetka
interpretation
interscope
intersex
interview
interviews
intey
intezaar
inti
intii
intiisa
intl
into
intoday
intooda
introduction
introspection
intuu
intuusan
inu
inuu
inuusan
invades
invalid
invasion
invention
investigation
investment
investopedia
investor
investors
inyar
io
ioan
iom
ion
ionian
ionic
iora
ios
iowa
ip
ipa
iphone
ipl
iprage
iq
iqbaal
iqiyi
iqra
ir
ira
iraan
iran
iranian
iranica
iranicaonline
iraq
irc
ire
ireland
irene
irfan
iri
irib
irid
iridda
iridiyaam
irina
irir
iris
irish
irland
irma
iron
irrir
is
isa
isaac
isaaq
isaaqa
isabel
isabella
isaga
isagaa
isagana
isagii
isago
isagoo
isagoon
isagoona
isagu
isaguna
isaias
isak
isaq
isaxaaq
isb
isbaaheysiga
isbaaheysigu
isbaanish
isbaanishka
isbaanishku
isbadal
isbadalka
isbahaysi
isbahaysiga
isbahaysigii
isbaheysiga
isbania
isbanish
isbanishka
isbarbar
isbarbardhig
isbayn
isbeddel
isbeddelada
isbeddelka
isbeddellada
isbedel
isbedela
isbedelada
isbedeli
isbedelin
isbedelka
isbedelkaas
isbedello
isbeen
isbitaal
isbitaalada
isbitaalka
isbitaallo
isbitaalo
isbn
isboorti
isboortiga
isbuuc
isch
isdaba
isdabajoog
isdhaafsiga
isdhex
isdhexgalka
isdilay
isfahan
isga
isgaadhsiin
isgaadhsiinta
isgaadhsiintu
isgaariinta
isgaarsiin
isgaarsiineed
isgaarsiinta
isgooska
isgoowe
isgoyska
isgoysyada
isgu
isha
ishacyaah
ishbeeliya
ishii
ishmael
ishq
isii
isimada
isir
isirka
isis
isixaaq
isjiidka
iska
iskaa
iskaandhiyaam
iskaashatada
iskaashi
iskaashiga
iskaga
iskahorimaad
iskahorimaadka
iskala
iskama
iskana
iskeed
iskii
iskiis
iskood
iskool
iskoolada
iskoolka
iskotland
isku
iskubedelay
iskudar
iskudarka
iskudarkaasi
iskuday
iskudayo
iskudhafka
iskudhex
iskudhexgalaan
iskudhis
iskudhisyada
iskudhisyo
iskudhufashada
iskudhufasho
iskudubbarid
iskuduwaha
iskugeyn
iskugeynta
iskugu
iskujir
iskula
iskuma
iskuna
iskuqabashada
iskuqabto
iskuqaybin
iskuqeybin
iskushuban
iskuugu
iskuul
iskuulada
iskuulka
iskuulo
iskuwareeg
iskuweer
iskuxidha
iskuxidhka
isla
islaam
islaama
islaamaka
islaamay
islaameen
islaami
islaamida
islaamidiisa
islaamiga
islaamiya
islaamiyiinta
islaamka
islaamkana
islaamku
islaamkuna
islaamnimada
islaamnimo
islaamo
islaamtay
islaamtey
islaan
islaantii
islaax
islam
islamansiklopedisi
islamarkaa
islamarkaana
islamarkaas
islamarkaasna
islamic
islamist
islamka
islamqa
islamweb
island
islands
islaweynaan
isle
islii
islofaakiya
islofeeniya
isloveeniya
isma
ismaaciil
ismaacil
ismaamul
ismaamulka
ismaamulkii
ismaan
ismaciil
ismacil
ismael
ismail
isman
ismiidaamin
ismiidaaminta
isn
isna
isniin
isniinta
iso
isoo
isotope
isotopeka
isotopes
isotopeyada
isotopeyo
isqurxin
israa
israaca
israafiil
israaiil
israel
israeli
isruxayaan
iss
issa
issaga
isse
issn
issue
issues
ist
istaag
istaaga
istaagaan
istaagay
istaagayo
istaageen
istaagey
istaagga
istaagi
istaagin
istaago
istaagtay
istaagto
istabta
istambul
istanbul
istanbuul
istandharka
istaraatiiji
istaraatiijiga
istaraatiijiyada
istaraatiji
istat
isteerin
isticmaal
isticmaala
isticmaalaa
isticmaalaan
isticmaalada
isticmaalaha
isticmaalay
isticmaalaya
isticmaalayaasha
isticmaalayaashu
isticmaalayay
isticmaalayo
isticmaale
isticmaaleen
isticmaaleyaasha
isticmaali
isticmaalin
isticmaalka
isticmaalno
isticmaalo
isticmaarka
isticmaarkii
isticmaarku
isticmaashaa
isticmaashay
isticmaasho
isticmala
isticmalaan
isticmali
istiraatiiji
istiraatiijiga
istiraatiijiyad
istoroontiyaam
istuska
istuudiyaha
isu
isuduwaha
isuduwe
isuduwidda
isugeyn
isugeynta
isugu
isul
isula
isuma
isutagga
isweydaarsiga
iswidhan
iswidhish
iswidishka
iswiidhan
iswiidhish
iswiidhishka
iswiidish
iswisarland
isxaaq
isxijiwaakh
isxijiwaaq
it
ita
itaala
italia
italian
italiana
italiano
italians
italo
italy
itc
itch
item
itemcat
itemid
items
itga
iti
itimaalka
itis
itixaad
ito
itobiya
itoobiya
itoobiyaan
itoobiyaanka
itoobiyana
itoobiyo
itriyaam
its
itself
ittihad
itu
itunes
itv
itzy
iu
iucn
iulis
iv
iva
ivan
ivo
ivoire
ivory
ivy
iwm
ix
ixtiraam
ixtiraamaan
ixtiraami
ixtiraamka
ixtiraamno
ixtiraamo
ixtiraamto
ixus
iy
iya
iyaan
iyad
iyada
iyadaa
iyadana
iyadna
iyado
iyadoo
iyadoon
iyadoona
iyadu
iyaduna
iyaga
iyagaa
iyagana
iyago
iyagoo
iyagoon
iyagu
iyaguna
iyana
iyay
iyda
iye
iyer
iyey
iyi
iyo
iyue
iz
izanami
izgoowe
izmiir
izmir
izniik
j
ja
jaabir
jaad
jaadad
jaadadka
jaadka
jaahil
jaahiliga
jaaisada
jaajuur
jaalaha
jaale
jaaliyada
jaaliyadaha
jaaliyadda
jaaliyado
jaalkojiin
jaalle
jaaluut
jaamac
jaamaca
jaamacad
jaamacada
jaamacadaha
jaamacadda
jaamacaddaha
jaamacaddii
jaamacadeed
jaamacadii
jaamacado
jaamacadood
jaamacadu
jaamcada
jaamic
jaamici
jaamka
jaamud
jaan
jaandi
jaandiga
jaangooyooyinka
jaanis
jaanqaaday
jaanqaadi
jaantus
jaantuska
jaantusyada
jaar
jaarka
jaarso
jaaska
jab
jabaan
jabaaniis
jabaanku
jabal
jaban
jabarti
jabay
jabbaan
jabban
jabbu
jabeen
jaberti
jabhad
jabhada
jabhadaha
jabhadda
jabhaddii
jabhadihii
jabhadii
jabi
jabin
jabinta
jabisay
jabiyay
jabiyeen
jabiyey
jabiyo
jabka
jabkaas
jabkii
jabouti
jabshay
jabtay
jabtey
jabuuti
jabuutiyaan
jacafar
jacar
jacayl
jacaylka
jacaylkii
jacaylku
jaceel
jacel
jaceyl
jaceylka
jacfar
jack
jackie
jackson
jacob
jacqueline
jacques
jad
jadad
jade
jadeecada
jadiid
jadwal
jadwalka
jae
jagada
jagadaas
jagadaasi
jagadii
jago
jagooyin
jagooyinka
jaha
jahal
jahawareerka
jahliga
jaho
jahsh
jahwareer
jahwareerka
jajab
jajabiyey
jajabka
jakarta
jake
jala
jalaatada
jalaato
jalal
jalalaqsi
jalaq
jaleecay
jaliilka
jam
jama
jamaaca
jamaacada
jamaal
jamaame
jamac
jamacad
jamacada
jamadi
jamaica
jamal
jamayka
jambi
jamciyada
jameecada
jameeco
james
jamhuriyada
jamhuriyadda
jamhuur
jamhuuri
jamhuuriga
jamhuuriya
jamhuuriyad
jamhuuriyada
jamhuuriyadaha
jamhuuriyadda
jamhuuriyaddii
jamhuuriyadii
jamhuuryada
jammu
jan
janaale
janaasada
janaayo
janaazada
janada
janaraal
janawa
janawari
jane
janeiro
janes
janet
jang
janine
jannaayo
jannada
jannadii
jannay
janno
jano
janoda
january
janus
jao
japaan
japan
japanese
japans
japantimes
japantoday
jar
jaraa
jaranjarada
jaranjaro
jarar
jaray
jarayo
jardiinooyin
jardiinooyinka
jareen
jareer
jareerta
jari
jaric
jariidad
jarin
jarir
jarjaray
jarmal
jarmalka
jarmalku
jaro
jartay
jasiira
jasiirad
jasiirada
jasiiradaan
jasiiradaha
jasiiradan
jasiiradda
jasiiraddu
jasiiradii
jasiirado
jasiiradood
jasiiradu
jason
jassiradha
java
javanese
javascript
jaw
jawa
jawaab
jawaaba
jawaabaan
jawaabaha
jawaabay
jawaabaya
jawaabayo
jawaabeen
jawaabey
jawaabo
jawaabta
jawaabtay
jawaabtii
jawaabtu
jawaan
jawaari
jawaay
jawhar
jawi
jawiga
jawiil
jawlaan
jawle
jaxshi
jay
jaya
jayanti
jayne
jazeera
jaziira
jaziirad
jaziirada
jazira
jazz
jcb
je
jean
jeanne
jebel
jebin
jebinta
jebisay
jebiyaa
jebiyaan
jebiyay
jebiyey
jebiyo
jecaylka
jecaylkan
jecaylku
jeceel
jecel
jecelahay
jecelyahay
jecelyihiin
jeceshahay
jeclaa
jeclaada
jeclaadaan
jeclaaday
jeclaado
jeclaan
jeclaayeen
jeclahay
jeclayd
jeclayn
jeclaystay
jeclaysto
jecle
jecleen
jeclo
jeddah
jeeb
jeebka
jeed
jeeda
jeedaa
jeedaan
jeedada
jeedal
jeedan
jeeday
jeedda
jeedday
jeeddo
jeedeen
jeedey
jeedin
jeedinaya
jeedinayaa
jeedinayaan
jeedinaysaa
jeedinta
jeedisay
jeediyay
jeediyeen
jeediyey
jeediyo
jeedo
jeeh
jeejniya
jeel
jeelka
jeenyo
jeer
jeerba
jeeri
jeermiska
jeestay
jeesteen
jeesto
jeex
jeexan
jeexay
jeff
jefferson
jeffrey
jehovah
jehovas
jeju
jek
jen
jenaraal
jeneraal
jeneral
jeniifa
jenkins
jenner
jennie
jennifer
jens
jensen
jenus
jeon
jeong
jeremy
jermaaniyaam
jersey
jerusalem
jessi
jessica
jesy
jet
jets
jewel
jewish
jewitt
jews
jeylaani
jha
jharkhand
ji
jiah
jianghan
jiangsu
jibaaran
jibbaar
jibbaaran
jibraacin
jibraltaar
jibriil
jibril
jid
jidad
jidadka
jidah
jidbaale
jiddah
jidh
jidha
jidhi
jidhka
jidhkiisu
jidhkooda
jidhku
jidka
jidkaas
jidkii
jidwaaq
jidweyn
jidxi
jifo
jifooyin
jigjiga
jihaad
jihaadka
jihad
jihada
jiheeye
jiho
jihyo
jiicdheere
jiid
jiida
jiidaas
jiidadka
jiidan
jiidashada
jiidasho
jiidata
jiidatay
jiidato
jiiday
jiidh
jiidjiid
jiido
jiif
jiifa
jiifka
jiil
jiilaal
jiilaalka
jiilasha
jiilba
jiilka
jiingada
jiiniska
jiir
jiiray
jiirka
jiis
jiiska
jiisoow
jiita
jiitaan
jiitay
jiiteen
jiito
jijeele
jijiga
jikada
jiko
jil
jilaa
jilaaga
jilaagii
jilaajiid
jilaayaasha
jilay
jilaya
jilayaal
jilayaan
jilayaasha
jilayeen
jilaysay
jilbaha
jileec
jileysay
jileyso
jili
jilib
jilibka
jilibkiisa
jilible
jilicsan
jilicsanaanta
jilida
jilista
jilitaanka
jilitaankeedii
jilo
jilyaale
jim
jimale
jimcaale
jimcaha
jimcale
jimce
jimcihii
jimciyada
jimco
jime
jimicsi
jimicsiga
jimmy
jin
jinacsani
jineefa
jinka
jinku
jinnah
jinni
jinsi
jinsiga
jinsiyada
jinsiyadaha
jinsiyadda
jinsiyadiisa
jinsiyado
jir
jira
jiraa
jiraan
jirada
jiran
jirana
jiray
jirdhiska
jirdil
jirdilka
jire
jiree
jireed
jireen
jireenka
jirey
jiri
jirid
jirida
jirin
jiritaanka
jiritaankeeda
jiritaankiisa
jirjir
jirka
jirkaaga
jirkeeda
jirkiisa
jirkooda
jirku
jirnay
jirno
jiro
jirrada
jirridda
jirro
jirsaday
jirta
jirtaa
jirtay
jirtey
jirto
jishay
jism
jisyo
jiyooloji
jizyo
jj
jk
jm
jmagazine
jmc
jo
joa
joachim
joan
joanna
job
jobs
jochebed
joe
joel
joh
johann
johannes
johannesburg
johansson
johar
john
johnny
johns
johnson
johnston
johor
join
joins
joinsmsn
joint
jojebed
jolie
jomo
jon
jonah
jonas
jonathan
jones
jong
joo
jooe
joog
jooga
joogaa
joogaan
joogaanba
joogay
jooge
joogeen
joogey
joogga
joogi
joogiisu
joogin
joogitaanka
joognay
joogno
joogo
joogsaday
joogsan
joogsi
joogsiga
joogta
joogtaa
joogtaan
joogtada
joogtax
joogtay
joogto
jooji
joojin
joojinayaan
joojinta
joojisaa
joojisay
joojiso
joojiyaan
joojiyay
joojiyeen
joojiyey
joojiyo
joomateri
joon
joongang
joorjiya
joornaal
joornaalada
joornaalka
joornaalku
jordan
jordanian
jordyn
jorge
jose
josef
joseph
josh
joshi
joshua
josipovic
journal
journalist
journals
journey
jowhar
jowle
joy
joyce
jp
jpeg
jpg
jpl
jpost
jpy
jr
js
jsf
jsl
jsp
jssa
jstor
jtbc
ju
juan
juba
jubada
jubadda
jubaland
jubba
jubbada
jubbadda
jubbaland
jubbooyinka
jubooyinka
judaism
judea
judge
jufada
jufo
jufooyin
jufooyinka
jug
juhdi
jul
julaay
julay
jules
juli
julia
julian
julie
julien
juliet
julio
julius
july
juma
jumaada
jumada
jumlada
jump
jun
juna
june
juneyd
jung
jungah
jungle
junior
junji
jupiter
juqraafi
juqraafiga
juqraafiyeed
juquraafi
juquraafiga
jurassic
juray
juro
jus
just
justice
justin
juul
juulaay
juun
juune
juunyo
juurile
juventus
juwayriyya
jw
jx
jyp
k
ka
kaa
kaab
kaaba
kaabayaal
kaabayaasha
kaabayaashiisa
kaabayaashu
kaadhadhka
kaadhka
kaadi
kaadida
kaadmiyaam
kaaf
kaafi
kaafka
kaaga
kaagama
kaah
kaahin
kaahiye
kaal
kaalandarka
kaalay
kaale
kaalin
kaalinta
kaalinteeda
kaalintii
kaaliyaha
kaaliye
kaalmada
kaalmeeya
kaalmo
kaalshiyaam
kaam
kaama
kaamamka
kaamil
kaan
kaana
kaappi
kaar
kaaraan
kaararka
kaarbon
kaarboon
kaarboonka
kaarboonku
kaarboonta
kaarboontu
kaaribiyaanka
kaariibiyaanka
kaariye
kaarka
kaarootka
kaarshe
kaas
kaashadaan
kaashaday
kaashadeen
kaashanaya
kaashanayo
kaashanaysa
kaashatay
kaasi
kaasiyaam
kaaso
kaasoo
kaastaro
kaay
kab
kaba
kabacdi
kabadan
kabaha
kaban
kabanka
kabartay
kabashada
kabaxa
kabaxay
kabaxsan
kabaxsanida
kabhi
kabila
kabilaabay
kabir
kabka
kablalax
kabo
kabriidka
kabsado
kabtan
kabtanka
kabtankii
kabul
kabuldheh
kabushiki
kac
kaca
kacaa
kacaan
kacaanka
kacaankii
kacaanku
kacab
kacanka
kacay
kacaya
kacayaa
kacayo
kacbada
kacbadu
kacdaayoo
kacday
kacdo
kacdoon
kacdoonka
kacdoonkii
kacdoonno
kaceen
kaco
kacsan
kacsi
kacsiga
kada
kadaab
kadanbeeyay
kaddare
kaddib
kaddibna
kaddour
kadhacay
kadhashay
kadhaxeeyo
kadhisan
kadi
kadib
kadibna
kadibne
kadibneh
kadis
kadiye
kaeo
kafaala
kafee
kafeega
kaftan
kaftanka
kaga
kagame
kagana
kahin
kahor
kahoreeyay
kai
kaif
kaiser
kaizad
kaizer
kaj
kajira
kajiray
kajol
kaka
kakala
kakan
kakao
kakooban
kakoobantahay
kal
kala
kalaay
kalaba
kalabar
kalabaxaa
kalabaydh
kalabayr
kalacag
kaladembeynta
kaladuwan
kalagoyn
kalahari
kalana
kalandar
kalandarka
kalane
kalank
kalar
kalasaaraha
kalashnikov
kalba
kale
kaleba
kalee
kalena
kalfin
kalgacal
kali
kalifay
kalifornia
kaliforniya
kaliftay
kaligeed
kaligii
kaligiis
kaligood
kaliil
kalimadaan
kalimantan
kalinimada
kaliya
kalkaalisada
kalkaaliso
kalkaaliye
kalla
kalle
kalliftay
kalloo
kallumeysiga
kalluumaysiga
kalluumeysi
kalluumeysiga
kalluun
kalluunka
kalmad
kalmada
kalmadaha
kalmado
kalo
kaloo
kaloon
kalsheekh
kalsoon
kalsoonaan
kalsooni
kalsoonida
kalsoonidii
kalthum
kaltuum
kaluumaysato
kaluumaysiga
kaluumeesiga
kaluumeysiga
kaluun
kaluunka
kama
kamaal
kamaba
kamal
kaman
kamana
kamarad
kamay
kambodiya
kamboodiya
kambriyaan
kameroon
kamid
kamida
kamidka
kamidtahay
kamidyahay
kamidyihiin
kamil
kamilt
kamiruun
kampala
kampong
kampot
kamsuuma
kamuu
kan
kana
kanaal
kanaalada
kanaalka
kanaan
kanada
kanadian
kanadiyaan
kanadiyaanka
kanal
kanayo
kancaan
kandahar
kane
kaneecada
kaneecadu
kaneeco
kang
kangaroo
kani
kaniif
kaniini
kaniisad
kaniisada
kaniisadaha
kaniisadda
kaniisado
kannaan
kannada
kanooni
kanooniga
kanoqday
kansar
kansarka
kansas
kansi
kantaroolka
kanye
kaohsiung
kaolin
kapasia
kaplan
kapoor
kaqaatay
kaqayb
kaqeyb
kar
kara
karaa
karaama
karaamada
karaamo
karaan
karabakh
karabiya
karachi
karakoram
karaman
karan
karanle
karate
karay
karayer
karayn
karbaash
karbalaa
kardashian
kardashians
kareem
kareemka
kareena
karen
karenjit
kargil
kari
kariibiyaanka
kariim
kariimka
karim
karin
karina
karinayo
karinbiyood
karinta
karishtaanka
kariyaa
kariyay
kariyey
kariyo
karka
karkaar
karkariyo
karl
karlos
karluv
karma
karmiyaan
karnaa
karnataka
karno
karo
karootada
karootadu
karooto
karsa
karsado
karsan
karta
kartaa
kartaan
karti
kartid
kartida
karto
kartoonka
kas
kasa
kasakhstan
kasamaysan
kasbaday
kasbado
kasban
kasbatay
kashmir
kashmiri
kasi
kasii
kaso
kasoo
kasoobaxa
kasoojeeda
kassim
kasta
kastaa
kastaba
kastana
kasto
kastoo
kastuu
kastuumo
kat
katagay
katahay
katalin
katalooniya
kate
katherine
kathiawadi
kathleen
kathmandu
katirsan
katirsantahay
katooliga
katrina
kattan
katy
kaupunki
kaur
kawaanka
kawada
kawakami
kawnayn
kawneyn
kawsar
kaxda
kaxiga
kaxigtaa
kay
kaya
kayahay
kayar
kayd
kaydinta
kaydiyaa
kaydiyay
kaydiyo
kaydka
kaydsan
kayimaada
kayimi
kayimid
kaymaha
kaymo
kayn
kaynaan
kaynta
kaysar
kayse
kayseri
kayserispor
kazakhstan
kazan
kazoo
kb
kbs
kc
ke
kebede
kedar
kedi
kedis
kediye
kee
keeda
keedii
keedu
keeg
keega
keen
keena
keenaa
keenaan
keenadiid
keenay
keenaya
keenayaa
keenaysa
keenaysaa
keenee
keeneen
keeni
keenin
keenista
keeno
keenta
keentaa
keentay
keento
keep
keeper
keepers
keeping
kehna
kei
keith
kelfin
keli
keliga
keligeed
keligii
keligiis
keligood
keliya
kelli
kello
kelly
kelmad
kelvin
kemal
ken
kenadid
kendall
kenema
kennedy
kenneth
kent
kentucky
kenya
kenyan
kenyaoo
kenyatta
kep
kerala
kerma
kerosene
kerr
kerry
kesa
ket
kevin
kew
key
keyboard
keyd
keydinta
keydiyay
keydiyo
keydka
keydsan
keymaha
keymahan
keymo
keymuhu
keyn
keyna
keynta
keyqubaad
kff
kg
kgb
kh
kha
khaag
khaalid
khaan
khaanadaha
khaas
khaasatan
khaaska
khaatumo
khaatuun
khabiir
khabiirka
khad
khadaab
khadadka
khadar
khaddaab
khaddiija
khaddiijo
khadi
khadiija
khadiijo
khadija
khadka
khadra
khadro
khafiif
khafiifka
khafiifsan
khafiir
khaimah
khair
khaire
khal
khalad
khaladaad
khaladka
khalaf
khaldaan
khaldan
khaldin
khaldun
khalduun
khali
khalid
khalif
khalifa
khaliif
khaliifa
khaliifka
khaliifkii
khaliijka
khaliil
khalil
khalkhal
khalkhalayo
khalkhalka
khamaarka
khamiir
khamiis
khamiista
khammouane
khamri
khamriga
khan
khandaq
khaniis
khaniisiinta
khaniisnimada
khans
kharash
kharashaadka
kharashka
kharashyada
khariidad
khariidada
khariidadaha
khariidadda
khariidado
kharribin
khartoum
khartuum
khasaare
khasaarihii
khasaaro
khasab
khasabka
khasatan
khasbay
khasnadda
khataab
khatar
khataraha
khatarta
khatimay
khatoon
khattab
khatumo
khatun
khawaarijta
khawaarzimiyiinta
khaybar
khayr
khayraad
khayraadka
khayre
khayrka
khazraj
khea
khelan
kheybar
kheyr
kheyraad
kheyraadka
kheyre
kheyrka
kheyrudiin
khibrad
khibradda
khilaaf
khilaafaad
khilaafaadka
khilaafada
khilaafadii
khilaafda
khilaafeen
khilaafka
khilaafkii
khilaafku
khilaafo
khilaafsan
khilaafyada
khilaafyo
khiyaali
khiyaaliga
khiyaamo
khiyaanada
khiyaano
khloe
khmer
khmum
khor
khorey
khrushchev
khubarada
khubaro
khudaar
khudaarta
khudbad
khudbadaha
khudrad
khudrada
khudradda
khulafada
khulafadii
khulafo
khulna
khunais
khuraafaadka
khuraasaan
khuraasaani
khuram
khuseeya
khuseeyaan
khuwaylid
khuweylid
khuzaaca
khuzayma
khuzeyma
khwarizmi
khyber
ki
kia
kialo
kibaki
kibir
kibirnimada
kici
kicin
kicinta
kicis
kicisay
kicitimay
kicitimeen
kiciyaa
kiciyay
kiciyey
kiciyo
kick
kid
kidd
kidman
kidney
kids
kie
kiel
kieli
kielioppi
kies
kiev
kigali
kii
kiiba
kiikaawuus
kiikhisroof
kiilo
kiilogaraam
kiilomitir
kiiloo
kiiloomitir
kiimikaad
kiimikada
kiimiko
kiimikooyinka
kiin
kiina
kiinya
kiinyaati
kiinyaatiga
kiis
kiisa
kiisaska
kiisii
kiiska
kiisuna
kiitoksia
kiitos
kikongo
kilaab
kilij
kililka
kililoch
kilinka
kill
killed
killer
killing
kills
kilo
kilometer
kilometres
kilomitir
kilotons
kim
kimikada
kimikeed
kimiko
kimikooyin
kimis
kimistari
kimisteri
kimisteriga
kinaana
kinaandha
kind
kinda
kindle
kindness
king
kingdom
kings
kingston
kinicki
kiniisadda
kinokuniya
kinshasa
kinsi
kintirka
kio
kippur
kirada
kiran
kirara
kirgistan
kiribati
kiribtoon
kirishmiska
kirishtaanka
kirismas
kirismaska
kiristaan
kiristaanka
kiristanka
kiristofer
kirja
kirk
kirkpatrick
kiro
kirundi
kis
kisi
kismaayo
kismayo
kispest
kisraa
kiss
kit
kita
kitaab
kitaabiga
kitaabka
kitaabkan
kitaabki
kitaabkii
kitaabkiisa
kitaabku
kitaabta
kitab
kitabul
kitap
kitarovic
kitchen
kite
kito
kitts
kituba
kiu
kjellberg
kk
kka
kl
kla
klara
kle
klein
klima
klm
km
kmc
kmg
kn
knaan
knife
knight
knights
knock
knottnerus
know
knowledge
known
ko
kob
kobaca
kobalti
kobcay
kobcaya
kobcin
kobcinta
kobciyo
kobe
kober
kobernishiyaam
koberta
koboc
koboca
koc
kocaeli
kochi
kof
kofi
kofinka
kofur
koh
koka
koku
kol
kola
kolayga
kolba
kolestaroolka
koleyga
kolka
kolkaa
kolkaas
kolkata
kolkii
kolkuu
kolombiya
kolombus
kolonbiya
kolonyo
koloriin
kolumbus
kom
kombiyuutar
kombiyuutarka
kombuyuutar
kombuyuutarada
kombuyuutarka
kombuyuuterka
komishanka
kommonwels
komoros
komprenas
kompreni
komputilo
kon
konfur
konfureed
konfurta
konfuur
kong
kongo
konishi
kontan
konton
kontonaad
kontonka
konya
koob
koobaa
koobaad
koobab
koobabka
kooban
koobantahay
koobantahy
koobanyahay
koobanyihiin
koobay
koobi
koobin
koobka
koobkii
koobmaa
koobna
koobnaa
koobnaan
koobnaayeen
koobnayd
koobnayn
koobo
koobtay
kood
kooda
koodh
koodhka
koodii
koodka
koofar
koofi
koofiga
koofiyad
koofur
koofureed
koofurta
kook
kookaha
koolaha
koollada
koombe
koombuyuterka
koon
koonfur
koonfurbari
koonfured
koonfureed
koonfureedna
koonfurgalbeed
koonfurna
koonfurta
koonfuta
koonfuurta
koongo
koonka
koonkan
koorsada
koorso
koorsooyinka
koorta
kooshin
koow
koowaad
koox
kooxa
kooxaha
kooxda
kooxdaan
kooxdaas
kooxdan
kooxdani
kooxdeeda
kooxdii
kooxdiisii
kooxdu
kooxeed
kooxeedyadii
kooxihii
kooxo
kooxood
kor
koraa
koraan
koran
korantada
koray
koraya
korayaa
koraysa
koraysay
kordha
kordhaha
kordhay
kordhaya
kordhayaan
kordhaysa
kordheen
kordheeysa
kordheysa
kordhi
kordhin
kordhinayo
kordhinta
kordhisay
kordhiso
kordhiyaan
kordhiyay
kordhiyeen
kordhiyey
kordhiyo
kordho
kordhoban
kore
korea
koreaboo
koreaherald
koreajoongangdaily
korean
koreanfilm
koreans
koreas
koreatimes
koreeye
koreeyee
koreysa
korinta
korintos
korisay
koritaan
koritaanka
koriyaan
koriyay
koriyey
koriyo
korka
korkaale
korkeeda
korkiisa
korkooda
kormeer
kormeera
kormeeraha
kormeeray
kormeere
kormeerka
kormeero
kornayl
korneel
korneyl
koro
korodhay
korodhka
korona
korontada
koronto
korontoda
koroomiyaam
koror
kororka
korortay
korreeye
korriinka
korsaday
kortay
kortnavnweb
korto
kortrijk
korttipeli
kosdaq
kosofo
kosovo
koulu
kourtney
kovid
kow
kowaad
kowda
kpop
kpopherald
kpopstarz
kq
kr
kra
krasnodar
kratie
krause
kravitz
krishna
kristen
kristina
kristo
kristoffer
kromhout
krona
krystal
ksa
ksh
ksrelief
kst
kstyle
ksu
kt
ktp
ktv
ku
kuala
kub
kuba
kubad
kubada
kubadan
kubadda
kubartay
kubbada
kubbadda
kubed
kubedka
kubiiray
kubo
kubra
kuch
kud
kudhaa
kudhaqan
kudhashay
kudhaw
kudu
kufaartii
kufilan
kufsaday
kufsi
kufsiga
kugu
kuguma
kuhadla
kuhadlaan
kuinka
kujir
kujira
kujiraa
kujiraan
kujirto
kuka
kukala
kul
kula
kulaal
kulaala
kulafo
kulahaa
kulahayd
kulamada
kulan
kulanay
kulanka
kulankaas
kulankaasi
kulankeedii
kulankii
kulankiisa
kulankiisii
kulankooda
kulankoodii
kulanno
kulantay
kulantey
kulanto
kulayl
kulaylaha
kulaylka
kulbahaar
kuleedahay
kuleelka
kuleh
kuleyl
kuleylaha
kuleylka
kuligood
kuliyada
kuliyadaha
kuliyadani
kuliyadda
kuliyadii
kuliyadood
kulka
kulku
kulligood
kulliyad
kulliyada
kulliyadaha
kulliyadda
kulma
kulmaan
kulmay
kulmeen
kulmey
kulmi
kulmin
kulmis
kulmisa
kulmiso
kulmiya
kulmiyay
kulmiye
kulmiyo
kulmo
kulow
kulthum
kulu
kuluc
kulul
kulule
kululeeyo
kulushahay
kulyada
kuma
kuman
kumanaan
kumar
kumari
kumberland
kumbiyuutarka
kumbuyuutar
kumbuyuutarada
kumbuyuutarka
kumbuyuutarku
kumbuyuutarrada
kumeel
kumeelgaar
kumeelgaarka
kumeyaay
kun
kuna
kunaad
kunama
kunduz
kung
kunka
kunool
kunooli
kunoolyihiin
kunze
kur
kuraas
kuraasta
kuray
kurdi
kurdida
kurdish
kurdistan
kurmanji
kursi
kursiga
kursigii
kuruweshiya
kurxintu
kus
kusaabsan
kush
kushiitiga
kushiitik
kushite
kushitiga
kusii
kuso
kusoo
kusugnaa
kutaal
kutaala
kutaalaa
kutaalo
kutahay
kutiirsan
kutub
kutubo
kutubta
kutubtaasi
kutubtii
kutubtooda
kuu
kuuba
kuufa
kuugu
kuul
kuulow
kuurgalay
kuuriya
kuuriyaan
kuuriyaanka
kuuriyada
kuusan
kuush
kuushiga
kuwa
kuwaa
kuwaad
kuwaan
kuwaas
kuwaasi
kuwaaso
kuwaasoo
kuwada
kuwait
kuwala
kuwan
kuwana
kuwani
kuwas
kuwasi
kuwasoo
kuwayt
kuwelho
kuweyt
kuwii
kuwo
kuwoo
kuwooda
kuxigeen
kuxigeenka
kuxigeenki
kuxigeenkii
kuxiran
kuxirantahay
kuyaal
kuyaala
kuyaalaa
kuyaalaan
kuyaalla
kuyaalo
kuyihiin
kvanto
kwa
kwak
kwang
kwon
ky
kya
kyiv
kyle
kylian
kylie
kymmenen
kyo
kyoto
kyrgyz
kyrgyzstan
kyu
kyung
kyunghyang
kyushu
kz
kə
l
la
laa
laab
laaban
laabashada
laabasho
laabatay
laabato
laabka
laablakaco
laablakacsan
laabo
laabta
laabtaan
laabtay
laabteen
laabtiisa
laabto
laacib
laad
laadin
laafyaha
laah
laahi
laakiin
laakiinse
laakin
laalaada
laalaado
laaluush
laaluushka
laamaha
laami
laamiga
laamiyada
laamka
laamo
laamood
laamuhu
laan
laanqayrta
laanta
laas
laasa
laasan
laascaanood
laasciidle
laasgeel
laasmuuse
laaso
laasqoray
laasqorey
laatiin
laatiiniga
laatiinka
laawe
laayaan
laayay
laayeen
laayey
laayo
laazaar
lab
laba
labaad
labaadna
labaatan
labaatanaad
labaatanka
labaatankii
labad
labada
labadaa
labadaan
labadaas
labadaasi
labadaba
labadan
labadeeda
labadii
labadiis
labadiisa
labadiisii
labadood
labadooda
labadoodaba
labadoodu
labadooduba
labaduba
labajibbaaran
labalaaban
laban
labashaqlanaha
labatan
labiska
labka
labo
labolaaban
labor
laboratory
labori
labour
labrador
lac
lacag
lacagaha
lacagata
lacageed
lacago
lacagta
lacagtaas
lacagtii
lacagtooda
lacagtu
lacey
lacib
lacks
lada
ladagaalanka
ladan
laden
ladhahaa
ladhan
ladhashay
ladhihi
ladhisay
ladhoho
ladies
ladilay
ladin
ladnaan
ladnaanta
lady
ladylord
laf
lafa
lafaciise
lafaha
lafalaha
lafale
lafdhabar
lafdhabarta
lafo
lafood
lafoole
lafta
lafteeda
lafteedu
laftiisa
laftiisu
laftirkiisa
laftooda
laftoodu
lafweyn
lag
laga
lagaa
lagaadhay
lagaaga
lagaga
lagagahadlo
lagala
lagama
lagana
lagashay
lagasoo
lagau
lago
lagos
lagu
lagugu
lagula
laguma
lagumagacaabo
laguna
lagusoo
laguu
laguugu
laha
lahaa
lahaado
lahaan
lahaanshaha
lahaansho
lahaayeen
lahab
lahan
lahay
lahayd
lahayeen
lahayen
lahayn
laheed
laheen
lahelay
laheyd
laheyn
lahi
lahjad
lahjada
lahjadaan
lahjadaha
lahjadda
lahjado
lahjadood
lahjo
lahoch
lahoh
lahore
lahu
lai
laila
lailkase
laisku
laitin
lajiide
lajoogo
lak
laka
lakab
lakabka
lakabyada
lakabyo
lakala
lake
lakes
lakiin
lakin
lakulmay
lal
lala
lalama
laleedahay
laleeyahay
lalisa
laliska
lalla
lama
lamaale
lamaanaha
lamaane
lamadaya
lamadegaan
lamadegaanka
lamadegaanku
lamana
lamar
lambar
lambarada
lambarka
lambarkan
lamberti
lambton
lamid
lamida
lamidawday
lammaanaha
lammaane
lamood
lampard
lampung
lamy
lan
lana
lancashire
lancet
land
landing
lands
landscape
landslides
lang
language
languages
lanka
lankan
lanta
lanthanum
lao
laodhanjiray
laos
lapetus
lapsi
laqaaday
laqabto
lara
large
larger
largest
laribi
larousse
larry
larsen
larson
las
lasameeyay
lasheegaa
lasheegay
lasii
lasiiyo
lasocotada
lasoo
lassader
last
lat
latahay
lataliyaha
lataliye
latam
late
later
latest
latfiya
latimes
latin
latina
latine
latinka
latino
latitude
latter
latvia
latvian
lau
lauder
launch
launched
launches
laura
lauren
laurent
lausanne
lavish
law
lawada
lawareegay
lawrence
lawrenceville
laws
lawska
lawyacaddo
lawyacado
lawyo
lax
laxaad
laxaadka
laxaha
laxan
laxanka
laxanmiistaha
laxanmiiste
laxidhay
laxiriira
laxoox
laxooxda
lay
layaab
layaabka
laydh
laydhka
laydi
layeele
laygu
layidhaa
layidhaahdo
layiraahdo
layiri
layla
layli
laynka
lays
layska
laysku
layskuma
laysu
laysugu
lazio
lb
lboro
lccn
ld
ldots
le
lead
leader
leaders
leadership
leading
leaf
league
learn
learning
least
leau
leave
leaves
leaving
lebanese
lebanon
lectroniques
led
ledahay
lee
leeb
leebka
leedaha
leedahay
leedahy
leeday
leeds
leegada
leego
leela
leelkase
leenahay
leesku
leexday
leexdo
leexiyo
leexo
leeyahay
leeyahiin
leeyahy
leeyhay
leeyihiin
leeyihin
left
leg
legacies
legacy
legal
legally
legend
legion
legislative
legislature
leh
lehe
leheen
lehna
lei
leicester
leiden
leigh
leila
leipzig
length
lenin
leninist
lenny
leo
leon
leonardo
leone
leopards
leopold
lernu
les
leslie
lesotho
less
lesser
lessons
leste
let
letter
letters
leur
lev
levant
levante
level
leverkusen
levin
levine
lewis
ley
leyahay
leyla
leysku
lez
lg
lgbt
lgu
lh
li
lia
liability
liam
liang
lib
libaan
libaax
libaaxa
libaaxle
libaaxley
libaaxyada
liban
libani
liberal
liberation
liberia
libero
liberte
liberty
libin
libiya
libraries
library
libro
libya
license
lid
liddell
liddi
lidka
lie
liebster
liechtenstein
lies
lieutenant
lifaaq
life
lifermoriyaam
lifestyle
lig
liga
light
lighting
lightning
lihi
lihidiin
lihin
lihyan
liibaan
liiban
liibiya
liidata
liidatay
liido
liin
liiniga
liinka
liinta
liintu
liis
liisaska
liiska
liiskan
liiskooda
liistada
liita
liitay
liithiyaam
like
likewise
lil
lila
lilawinkel
lille
lillehammer
lilongwe
lily
lilya
lim
lima
limburg
lime
limite
limited
limits
limon
limpopo
lin
lina
lincoln
linda
lindgren
lindsay
line
lineage
lines
lingala
lingerie
lingua
linguistic
linguistics
lingvo
link
links
lino
linuks
linux
linz
lion
lionel
lions
lip
lipa
lips
lis
lisa
lisay
lisbon
liska
list
listen
listeni
lists
lit
literature
lithuania
lithuanian
lithuaniya
litir
little
littlefield
liu
live
lived
lively
liverpool
lives
livestock
living
livingstone
lix
lixaad
lixda
lixdameeyadii
lixdan
lixdii
lixle
liya
ljubljana
ljy
lk
lkn
ll
lla
llaahi
llahi
llama
llamas
llc
lle
ller
llinger
lloyd
llu
ln
lng
lo
loader
loan
lobe
lobo
loc
local
locale
locally
locals
located
location
locations
lockheed
locust
loda
log
logan
logic
logistics
logo
logu
lohan
loire
loko
lokomotiv
lombok
lome
london
lonely
long
longer
longest
longitude
loo
loobage
loodhisay
loodoortay
looga
loogama
loogana
looge
loogu
looguna
look
looks
loola
loolan
loolasha
loolka
looma
loomana
loona
loos
looska
loosku
loosoo
looya
looyaqaan
looyaqaana
looyaqaanay
looyaqaano
lopez
lord
lorde
lordi
loren
lorenzo
los
loss
lost
lotte
lotus
louis
louise
louisiana
louisville
louvre
lovato
love
loved
lovelace
lovely
lover
loves
low
lower
lowyacado
loxooxda
loyalty
lp
lpg
lr
ls
lsd
lt
ltd
lte
lu
lua
luanda
luang
luba
lublin
lubnaan
luca
lucas
lucia
lucky
lucy
ludvika
ludwig
ludwik
lufthansa
lug
luga
lugad
lugaha
lughaya
lugo
lugood
lugta
lugtii
lugu
lui
luigi
luis
luka
luke
luksemburg
lulay
lullaby
lulu
lumay
lumbuur
lumet
lumie
lumin
luminta
lumisay
lumpur
lumumba
luna
lungu
luntay
luo
luqad
luqada
luqadaha
luqadda
luqaddaada
luqadeed
luqado
luqadood
luqadooda
luqmaan
luqunta
lur
lusaka
luu
luubaanta
luud
luul
luuliyo
luulyo
luuq
luuqa
luuqad
luuqada
luuqadaasi
luuqadaha
luuqadda
luuqado
luuqadood
luuqeeyay
luuqeeyo
luv
luwiis
luxembourg
luxor
lv
lvarez
lviv
ly
lynch
lynn
lynne
lynx
lyon
lyons
lyrics
lyttleton
lə
m
ma
maa
maad
maadaama
maadada
maadadaan
maadama
maaddaama
maaddada
maaddiga
maaddo
maaddooyinka
maadi
maadiga
maadkii
maado
maadoow
maadooyinka
maah
maaha
maahan
maahane
maahee
maahmaah
maahmaahda
maahmaahyadii
maahmaahyo
maajo
maakhir
maal
maala
maalba
maalgashi
maalgashiga
maalgelin
maalgelinta
maalgelisay
maalgeliso
maalgeliya
maalgeliyey
maalgeshiga
maali
maalik
maalin
maalinba
maalinka
maalinkaas
maalinkii
maalinlaha
maalinle
maalinta
maalintaa
maalintaas
maalintaasi
maalintay
maalinteeda
maalintii
maalintiris
maalintiriska
maaliyad
maaliyada
maaliyadda
maaliyadeed
maalka
maalmaha
maalmahan
maalmeedka
maalmihii
maalmo
maalmood
maalqabeen
maalta
maamul
maamula
maamulaa
maamulaan
maamulaayay
maamulada
maamuladii
maamulaha
maamulay
maamulayaasha
maamulayay
maamulayo
maamulaysay
maamule
maamuleed
maamulgoboleedka
maamuli
maamulida
maamulin
maamulka
maamulkaan
maamulkaas
maamulkeeda
maamulkii
maamulkiisa
maamulkooda
maamulku
maamullada
maamulo
maamusha
maamushaa
maamushay
maamusho
maamuus
maamuusay
maamuuska
maan
maandeeq
maangal
maanka
maano
maansada
maansadii
maanso
maansooday
maanta
maantana
maantase
maanyo
maar
maaraynta
maareeyaha
maareeye
maareeyo
maareyn
maareynta
maariya
maarmaan
maarmaanka
maarmin
maarmo
maarso
maas
maastricht
maasuq
maatarka
maaweel
maaweelada
maaweelo
maax
maaxato
maay
maayad
maayee
maayo
maba
mabaadi
mabaadida
mabaadii
mabaadiida
mabda
mabuto
mac
macaahid
macaamiil
macaamiisha
macaamiisheedu
macaamiishooda
macaamil
macaamilka
macaan
macaaneeyo
macaanka
macaanta
macaanyahay
macaash
macaashka
macad
macaduwan
macalim
macalimiin
macalimiinta
macalimiintii
macalin
macalinimada
macalinka
macallimiinta
macallin
macaluul
macan
macanaha
macao
macau
macbadka
macbudka
macbudyada
macbudyo
maccabi
maccan
macdan
macdanaha
macdano
macdanta
macedonia
machad
machadka
machadyada
machadyo
machine
maciin
maclin
macluumaad
macluumaadka
macmacaan
macmacaanka
macmal
macmiilka
macmillan
macna
macnaha
macnaheeda
macnaheedu
macnahiisu
macne
macneheedu
macnihiisa
macnihiisu
macno
macquul
macquulka
macquulsan
macro
macrolanguage
macsarada
mad
madaafic
madaafiic
madaafiicda
madaahib
madaahibta
madaama
madaaris
madaarka
madadaalada
madadaaliyo
madadaalo
madaddaalada
madagascar
madagaskar
madal
madam
madame
madani
madaniga
madar
madaraso
madarasooyin
madarkicis
madasha
madaw
madax
madaxa
madaxbanaan
madaxbanaani
madaxbanaanida
madaxbanaanideeda
madaxbannaan
madaxbannaani
madaxbannaanida
madaxbannaanidii
madaxda
madaxdeena
madaxdii
madaxeed
madaxeeda
madaxeedka
madaxii
madaxiisa
madaxnimada
madaxtinimada
madaxtinimo
madaxtooyada
madaxtooyo
madaxwaynaha
madaxwayne
madaxwaynihii
madaxweynaha
madaxweynahii
madaxweynayaasha
madaxweyne
madaxweynenimada
madaxweynenimo
madaxweyneyaashii
madaxweynihii
madaxweynuhu
madaxyada
madbacada
madbacadda
madbakh
madcuun
maddaarka
maddison
made
madeira
madeline
madfac
madhab
madhabka
madhan
madhibaan
madhnayn
madhuri
madhuube
madi
madiina
madiinah
madina
madison
madkhali
madobe
madonna
madoobaa
madoobaad
madoobe
madoow
madoowaad
madoowe
madoowga
madow
madowga
madras
madrid
madura
maduro
madxafka
mae
maeil
mafia
mag
maga
magaaalada
magaaco
magaadle
magaal
magaala
magaalad
magaalada
magaaladaan
magaaladaas
magaaladaasi
magaaladan
magaaladana
magaaladani
magaaladda
magaaladeeda
magaaladii
magaaladiisa
magaaladu
magaaladuna
magaalamadaxda
magaalaynta
magaalda
magaaldan
magaaldu
magaallada
magaalladii
magaallo
magaalo
magaalooyin
magaalooyinka
magaalooyinkaas
magaalooyinkan
magaalooyinkii
magaalooyinkooda
magaaloyinka
magac
magaca
magacaa
magacaaba
magacaabaa
magacaabaan
magacaaban
magacaabay
magacaabeen
magacaabey
magacaabi
magacaabid
magacaabidda
magacaabin
magacaabis
magacaabista
magacaabo
magacaan
magacaas
magacaasi
magacaba
magacabay
magacan
magacani
magacawday
magacda
magacdaray
magaceed
magaceeda
magaceedu
magacii
magaciisa
magaciisii
magaciisu
magacooda
magacowday
magacu
magacuyaal
magacyada
magacyadiisa
magacyadooda
magacyo
magala
magalaada
magalada
magaladan
magaladu
magalda
magalloka
magalloyinka
magalo
magaloka
magalooyinka
magaloyinka
magan
magangalyo
magangelyo
maganlabe
magazine
magazines
magcaabay
magcaabo
magdhow
magenta
maghreb
magic
magiciisa
magna
magnetic
magniisiyaam
magnitude
magnolia
magnoliaceae
magool
magrib
magta
magtitlesearch
maguurtada
maha
mahad
mahadaay
mahadale
mahadalle
mahadcelinayaa
mahadin
mahadnaq
mahadnaqa
mahadnaqayaa
mahadsan
mahadsanid
mahadsanidiin
mahal
mahama
mahamed
mahamud
maharashtra
mahathir
mahatma
mahdi
mahe
mahesh
mahiigaan
mahiiggaankan
mahmoud
mahmud
mahra
mai
mail
mailkiisa
main
maine
mainly
mainpage
maint
maintable
maio
mais
maize
maja
majaajilada
majaajiliiste
majaajillada
majaajillo
majaajilo
majaajilooyinka
majaajiloyinka
majabe
majala
majaladda
majallad
majaraha
majeerteen
majeerteeniya
majid
majiid
majiro
major
majority
maka
makaahiil
makaahil
makadoor
makahiil
makaroone
makaso
makassar
makayl
make
makeba
makedoniya
makemake
maker
makes
makeup
makhaayad
makhaayadaha
makhaayadda
makhaayado
makhluuq
makiinad
makiinada
makiinadaha
makiinadda
making
makka
makkah
makki
makko
mako
makordhaha
maksiko
maktaba
maktabad
maktabada
maktabadaha
maktabadda
maktoum
maku
mal
mala
malaa
malaaq
malaariyada
malaariyo
malaawi
malaay
malaayga
malaayiin
malab
malabka
malacca
malag
malaga
malaha
malahan
malaika
malaku
malakul
malakuyuul
malao
malaria
malatariga
malatyaspor
malawaxa
malawi
malay
malaya
malayalam
malayga
malayn
malaynayaa
malaynayay
malaynayo
malayo
malaysia
malaysian
malaysiya
malcolm
maldahan
maldiif
maldives
male
maleenaa
maleeshiyada
maleeshiyooyin
maleeshiyooyinkii
maleeyaa
maleeyay
maleeyeen
maleh
maleynayaa
maleynayay
maleynayo
malhotra
mali
malik
malin
malinka
malinta
malintii
malkad
mall
mallorca
malmal
malmalka
malmo
malo
malta
maltaay
maltisku
maluku
malyan
malyuun
mama
mamaaliikta
mamadou
mamamoo
mamba
mamelodi
mamluk
mamnuuc
mamnuucay
mamnuucaya
mamnuucday
mamnuucida
mamnuucidda
mamnuuco
mamoru
mamulka
man
mana
manaa
manaaf
manaahijta
manage
management
manager
manaystay
manchester
manchuria
mandaqad
mandaqada
mandarin
mandate
mandeb
mandeela
mandela
mandera
mandheera
mandiqada
maneystay
mang
manga
mangalool
manganiis
mango
mangooliyiinta
manhaj
manhajka
manhajkii
manhattan
manicaland
manida
maniero
manifesto
manila
manitoba
mankind
mannaystay
manoban
mans
mansfield
mansur
mansuur
manta
mantle
mantleka
manual
manuel
manufacturing
many
mao
map
maplandia
maple
mapper
maps
maputo
maqaal
maqaalada
maqaalka
maqaalkan
maqaalkani
maqaalkii
maqaallada
maqaallo
maqaalo
maqaam
maqaamka
maqaamkeeda
maqaamkii
maqaar
maqaarka
maqaayad
maqaayada
maqaayadaha
maqaayado
maqaddina
maqal
maqalka
maqalkiisa
maqalkoodu
maqan
maqas
maqashay
maqla
maqlaa
maqlaan
maqlay
maqleen
maqley
maqli
maqlin
maqlo
maqnaa
maqnaanshaha
maqnaayeen
mar
mara
maraa
maraakiib
maraakiibta
maraan
maraayo
marada
marag
maraj
maran
maraq
maraqa
marar
mararka
marathi
marathon
maraxalado
maray
maraya
marayaan
maraykan
maraykanaka
maraykanka
maraykanku
marayo
maraysa
maraysaa
marayso
marba
marburg
marc
marcabka
marcel
march
marco
marcos
marcus
mardaani
mardambe
mare
mareeg
mareegaha
mareegida
mareegta
mareekanka
mareen
mareenka
mareeno
mareer
mareero
mareexaan
mareeykanka
marehan
marey
mareykan
mareykanka
mareykanku
marfuucul
margaret
mari
maria
mariam
mariana
mariano
marie
mariiniska
marilyn
marin
marina
marine
mariner
marines
marinka
marinnada
marinno
marino
marinta
mario
marisay
maritime
marius
mariya
mariyaa
mariyam
mariyay
mariyeen
mariyey
mariyo
mark
marka
markaa
markaaba
markaad
markaan
markaana
markaanu
markaas
markaasaa
markaasay
markaasi
markaasna
markaasoo
markaasu
markaasuu
markab
markabka
markabkii
markacadey
markale
markan
markana
markas
markasta
markastaba
markasto
markay
markaynu
markee
markeeda
markeey
market
marketing
markets
markey
markhaati
markhaatiga
markhaatigii
markhaatiyaal
markhaatiyaasha
markhaatiyadu
marki
markii
markiiba
markiina
markiisa
markiisii
markle
marko
markoo
markooda
marks
marku
markus
markuu
marmar
marmara
marmarka
marna
marnaba
marnay
maro
maroc
maroodi
maroodiga
maroodijeex
marooko
marqaan
marqaati
marrakech
marriage
married
marry
marrybrown
mars
marsada
marsado
marseille
marshal
marshall
marsiiyo
marso
marta
martaa
martay
martey
marti
martida
martigelin
martigelinta
martigelisaa
martigelisay
martigeliyaha
martigeliyay
martin
martina
martini
martiqaad
martiqaaday
marto
marvel
marwa
marwaan
marwada
marwadii
marwalba
marwo
marwooyin
marx
marxalad
marxalada
marxaladaha
marxaladda
marxaladihii
marxalado
marxaladood
marxuum
marxuumka
mary
maryaha
maryam
maryama
maryan
marykanka
maryland
mas
masa
masaafada
masaafo
masaajid
masaajida
masaajidada
masaajidda
masaajidka
masaajidkii
masaajido
masaajidyada
masaakiinta
masaari
masaarida
masaaridii
masaaridu
masaaxad
masaaxada
masagada
masago
masakin
masar
masare
masarre
masaska
mascuud
mase
maseru
mash
mashaa
mashaariic
mashaariicda
mashable
masharaaf
masharaafta
masharaaftii
masharaaftu
mashiin
mashiinada
mashiinka
mashiinnada
mashine
mashinka
mashonaland
mashquul
mashquulay
mashquulka
mashquulsan
mashquulsanaa
mashriq
mashruuc
mashruuca
mashruucan
mashruucii
mashruucu
mashruucyada
mashruucyo
masiibada
masiibo
masiibooyinka
masiirka
masiix
masiixa
masiixi
masiixiga
masiixii
masiixiyad
masiixiyada
masiixiyiin
masiixiyiinta
masiixiyiintu
masjid
masjidaka
masjidka
masjidkaan
masjidkii
masjidku
masjidul
maska
maskax
maskaxda
maskaxdii
maskaxdiisa
maskaxdu
maskaxeed
maslama
maslax
maslaxad
masoo
masoondhe
masrax
masraxa
masri
masriyiinta
masriyiintii
masriyiintu
masruufo
mass
massachusetts
massacre
massari
massawa
massive
master
masters
masuul
masuuliyad
masuuliyada
masuuliyadda
masuuliyiin
masuuliyiinta
masuuliyiintii
masuulka
masvingo
mataan
mataanaha
mataano
matabaan
matabeleland
matag
matala
matalaa
matalaadda
matalaan
matalan
matalay
matalaya
matalayaan
matalayay
matalayo
matalo
matayos
mate
math
mathbb
mathbf
mathrm
matoor
matoorada
matoorka
matsuda
matt
matter
matters
matthew
matxaf
matxafka
matxafyada
mau
maurice
mauritania
mauritius
maurya
mauthausen
mawdoo
mawduuc
mawduuca
mawduucan
mawduucyada
mawduucyo
mawjad
mawjada
mawjadaha
mawliid
mawqifka
max
maxa
maxaa
maxaabiis
maxaabiista
maxaabiistii
maxaad
maxaakiimta
maxaakimta
maxaamed
maxaan
maxaas
maxaatiri
maxaayeelay
maxal
maxali
maxaliga
maxalli
maxalliga
maxamad
maxame
maxamed
maxammad
maxammed
maxamud
maxamuud
maxay
maxayadda
maxayeelay
maxaynan
maxaynu
maxbuus
maxed
maxim
maxkamad
maxkamada
maxkamadaha
maxkamadda
maxkamaddii
maxkamaddu
maxkamadeed
maxkamado
maxmed
maxmiyad
maxmiyada
maxmiyadda
maxmiyaddii
maxmiyadii
maxmuud
maxsuulka
maxwell
may
maya
mayaami
mayanmar
mayd
maydh
maydhane
maydhax
maydi
maydiga
maygaag
maykorosofti
mayl
mayle
maymuna
mayno
mayo
mayor
mayorkii
mayors
mayotte
mayow
mayraykanka
mayso
mazda
mazembe
mb
mba
mbabane
mbappe
mbc
mbd
mbn
mbps
mc
mcdonald
mcgill
mcgraw
mcgregor
mch
mclaughlin
md
mdpr
mdr
me
mean
meanchey
meaning
means
measurement
meat
mecca
med
media
median
medical
medicare
medicine
medieval
medina
mediterranean
mediterraneanka
medium
medvedev
mee
meel
meela
meelaha
meelahaas
meelahan
meelay
meeleeyaha
meeleeye
meelgaarka
meeli
meelihii
meelkasta
meelna
meelo
meelood
meena
meeqa
meeraha
meerahaasi
meerahan
meerahani
meerayaal
meerayaasha
meerayaashu
meeraysta
meere
meereha
meereyaasha
meeris
meerkuri
meesh
meesha
meeshaa
meeshaan
meeshaas
meeshaasi
meeshan
meeshani
meesheedii
meeshi
meeshii
meeshuu
meet
meeting
meetings
meets
meey
meeyadii
meeyihii
mega
megalomania
megan
meghan
mehdi
meher
meherad
meheradaha
meherado
meheri
meheriga
meherigu
meherka
meherku
mehersaday
mehmed
mehmet
mehri
mehta
meier
meiji
mein
meitneriyaam
mekong
meksiko
melbourne
meles
melez
melia
melissa
melody
melon
melting
member
members
meme
memfis
memorial
memory
memphis
men
mena
menace
menafn
mendoza
menelik
mengista
mengistu
menna
menorah
mental
mentally
mentioned
mentor
menu
mer
merca
mercenaries
merchant
merchants
mercosur
mercury
mercy
mere
meretmarine
meri
meridian
merit
meroe
meroitic
merriam
merrikh
mersin
mesfin
mesha
meskel
mesoarkeyaan
mesobotaamiya
mesopotamia
message
messages
messaging
messenger
messi
messina
mesut
met
meta
metal
metals
metalska
metaphor
metelay
meteorological
meter
meters
meteshay
methane
method
methodist
methods
metre
metro
metroka
metropolis
metropolitan
metz
mex
mexican
mexico
mey
meydka
meydkiisa
meyer
meygaag
mf
mfa
mg
mgs
mhz
mi
mia
miami
michael
michel
michele
michelle
michigan
mici
miciyo
mickey
micnaha
micnaheeda
micnaheedu
micneheeda
micneheedu
micnihiisu
micno
microsoft
mid
mida
midaan
midaas
midaasi
midab
midabada
midabeeye
midabka
midabkan
midabkeeda
midabkeedu
midabkiisu
midabo
midabtakoor
midabyo
midan
midani
midawga
midawgii
midaynta
midaysan
midaysay
midba
midbaa
midda
middle
middleeast
middlesex
mideeyaan
mideeyay
mideeyo
mideeysan
mideynta
mideysan
midgaan
midha
midhaha
midho
midhuhu
midi
midig
midigsame
midigta
midii
midka
midkamida
midkasta
midkii
midkiiba
midkiin
midkood
midkoodna
midna
midnight
midnimada
midnimadda
midnimadii
midnimo
midoobaan
midoobay
midoobeen
midoobey
midoobi
midoobo
midow
midowday
midowga
midowgii
midroc
midtahay
midwalba
midwest
midyahay
midyihiin
mie
mies
mig
miga
might
mighty
migrant
migration
migros
migs
miguel
miicaad
miidaaminta
miig
miilaadi
miilaadiga
miilaadiya
miilaadiyada
miim
miimka
miinada
miinanle
miino
miinooyin
miinooyinka
miir
miiraa
miiro
miiroon
miirtaqwa
miis
miisaan
miisaaniyad
miisaaniyada
miisaaniyadda
miisaanka
miisaankeedu
miisaankoodu
miisaska
miiska
mika
mikami
mike
mikhail
miki
mil
miladi
miladiga
milan
milano
milanovic
milatari
milatariga
milateri
milateriga
milay
mile
miles
miley
milicsiga
miligaraam
milimitir
militari
militariga
military
milito
milix
milixda
miliyan
milk
milkiilaha
milkiilayaasha
milky
mill
millan
millatari
millatariga
millateriga
mille
millennium
miller
milli
milligram
millimeter
million
millionaire
millions
milliyet
mills
milma
milmaanta
milmay
milme
milton
milwaukee
milyan
mimas
min
mina
minaarad
minaj
minangkabau
minas
minatozaki
minbarka
mind
mindanao
mindhicirka
mindhicirrada
mindi
mindigale
mine
minecraft
minen
mines
ming
minh
mini
minideo
miniin
miniinta
miniintii
minin
minister
ministerio
ministers
ministry
minka
minneapolis
minnesota
minorities
minority
minute
minutes
mio
mira
miracle
miraha
miran
miranda
mire
miriam
mirifle
mirihiisa
miriyama
miro
mirre
mirror
mirshaa
mirya
miryam
miryama
miryamadii
mirza
mis
misaajidka
misana
mise
mishiinka
misig
misir
misirka
misirku
miskaad
miskaha
miskiin
miskiinka
misna
miss
missa
missile
missiles
missing
mission
missions
mississauga
mississipi
mississippi
missouri
mister
mit
mita
mitchell
miten
mites
mitir
mitirka
mitsubishi
mix
mixed
mixtape
miyaa
miyaad
miyaan
miyaga
miyase
miyay
miyi
miyiga
miyigu
miyir
miyu
miyuu
miyuusigga
mjøsa
mk
mkg
mktp
ml
mld
mm
mma
mmp
mms
mn
mnangagwa
mnet
mnras
mo
mobilada
mobile
mobilka
mobutu
mocooyo
mod
mode
model
modeling
models
modena
modern
modi
module
moe
moesia
mofa
mofakaht
mogadisho
mogadishu
mohamed
mohammad
mohammed
mohamoud
mohamud
mohamuud
moi
moines
moise
mojang
mojo
mokhoddon
mol
moldavia
moldavian
molde
moldheere
moldofa
moldova
mole
molybdenum
mombaaso
mombasa
moment
momo
momoland
momona
mon
mona
monaco
monako
monarch
monastir
monday
monde
monetary
money
mongol
mongolia
mongolian
monica
monitor
monitoring
monkey
mono
monroe
mons
monsoon
monster
montana
monte
montenegro
montevideo
montgomery
month
monthly
months
montpellier
montre
montreal
montsoreau
monument
moo
moobiilka
moobleen
mood
mooda
moodaa
moodada
mooday
moodaya
mooddaa
mooddo
moodeel
moodel
moodka
moodo
moodooyinka
moog
mooge
moon
moora
mooracase
moore
moors
mooryaan
moos
moose
mooshe
mooshin
mooshinka
mooska
moosko
moosoro
mootada
mooto
mootooyinka
mooyaane
mooyee
mooyi
moqadishu
moral
more
morgan
moringa
morning
moroccan
morocco
moroni
morony
morris
morrison
morroco
morsi
mortelliti
morton
mos
moscow
moseh
moses
moshe
mosheh
mosko
moskow
mosque
mosqueta
most
mostly
mosul
mosylon
motagua
motema
mother
motion
moto
motor
motorola
motors
motorsports
motto
mou
moumin
mouni
mount
mountain
mountaineers
mountains
mounted
mouse
moushe
moussa
move
moved
movement
movie
movies
moving
mowduuca
mowduucyada
mowjadaha
mowjadda
mowjado
mowlaca
mowliid
mowqifka
mowsil
mowt
moxamed
moyale
moyes
mozambique
mozilla
mp
mparatorlug
mph
mq
mr
mran
mrs
ms
msa
msft
msn
mt
mtn
mts
mtv
mu
muammar
muang
mubaarak
mubarak
mubarakah
mucaad
mucaarad
mucaaradad
mucaaradka
mucaaridka
mucaawiya
mucaawiye
mucawiya
mucawiye
much
mucjisada
mucjiso
muctasim
mud
muda
mudaaharaadyo
mudada
mudadaas
mudadii
mudaharaad
mudaharaado
mudalib
mudan
mudanayaal
mudane
mudar
mudda
muddada
muddadaas
muddadan
muddadii
muddalib
muddo
mudhalib
mudnaanta
mudo
mudooyinkii
mudrika
mudug
mudulod
mudulood
mueang
mufti
mug
muga
mugabe
mugdi
mugdiga
mugdigu
mugga
mughal
mugiisu
muh
muhaajiriin
muhaajiriinta
muhaajiriintii
muhaddathah
muhalab
muhamed
muhammad
muhammed
muhiim
muhiima
muhiimad
muhiimada
muhiimadda
muhiimka
muhiimsan
muhiimsanaa
muhiimsani
muhim
muhima
muhimka
muhimsan
muhtes
muhumed
muj
mujaahid
mujaahidiin
mujaahidiinta
mujaahidiintii
mujaddidka
mujahid
mujtamaca
mujuruca
mukalla
mukarama
mukerji
mukeyle
mukhaadaraadka
mukherjee
mukhtaar
mukhtar
muktar
mukulaal
mulaadkarad
mulkiilaha
mulkiilayaasha
mulkilaha
mullah
multi
multiple
muluk
muluuk
mumbai
mumin
muna
munaaraddii
munaasabad
munaasabada
munaasabadaha
munaasabadda
munaasabado
munaasibadaasi
munawara
mundo
mundus
munich
municipal
municipalities
municipality
muqaal
muqaalka
muqadas
muqadaska
muqaddim
muqadishu
muqbil
muqdisho
muqdishu
muqtaar
muraabidiinta
muraabiduun
muraad
muraadkii
muraayad
muraayada
muraayadaha
muraayadda
murad
muran
muranada
muranka
murannada
muransan
murashax
murashaxa
murcanyo
murder
murdisada
murdiso
murmay
murphy
murqaha
murqo
murray
mursal
murshid
mursi
murti
murtida
murtimaal
murtiyeed
murug
murugada
murugaysan
murugo
murugooday
murugsato
muruq
muruqa
muruqyo
murusade
mus
musa
musaanbiiq
musalsalka
musanbiig
musbaar
musbaaro
muscab
muscat
muscats
musdafa
muse
muses
museum
museveni
museylima
mushaar
mushaarka
mushahar
mushaharka
musharax
musharaxa
musharaxiinta
musharaxnimada
musharixiinta
musharrax
musharraxa
mushkilad
mushkilada
music
musical
musician
musiibada
musiibo
musiibooyinka
musikada
muslim
muslimiin
muslimiinta
muslimiintaas
muslimiintii
muslimiintu
muslimka
muslims
muslimtey
muslin
muslinka
muslinku
musqul
musqulaha
musqusha
musse
must
musta
mustacsim
mustaf
mustafa
mustafe
mustansir
mustaqbal
mustaqbalka
mustaqbalkooda
mustaxiil
musuq
musuqa
musuqmaasuq
musuqmaasuqa
mutadawiciin
mutant
mutawakil
mutaysatay
mutaystay
muteki
mutua
mutual
mutuxan
muu
muufe
muuji
muujin
muujinaya
muujinayaa
muujinayaan
muujinayo
muujinaysa
muujinaysaa
muujineysa
muujineysaa
muujinta
muujintii
muujisay
muujiso
muujiya
muujiyaa
muujiyaan
muujiyaha
muujiyay
muujiyeen
muujiyey
muujiyo
muumin
muun
muungaab
muuq
muuqaal
muuqaalada
muuqaalka
muuqaalkeeda
muuqaalkeedii
muuqaalkii
muuqaalkiisa
muuqaallada
muuqaallo
muuqaalo
muuqalka
muuqan
muuqasho
muuqata
muuqataa
muuqatay
muuqato
muuqda
muuqdaa
muuqdaan
muuqday
muuqdeen
muuqdo
muuri
muus
muusa
muusafiin
muusan
muuse
muushe
muusig
muusiga
muusigeeda
muusigga
muusigyahan
muusik
muusika
muusikada
muusikiiste
muusiko
muuska
muwaadin
muwaadiniin
muwaadiniinta
muwaadinka
muwaxidiinta
muxaadaro
muxaadarooyin
muxaafid
muxaafidka
muxaddis
muxamad
muxamed
muxammad
muxammed
muxaram
muxarram
muxsin
muxudiin
muxumad
muxumed
muxumud
muxuu
mv
mw
mwai
mwave
mx
my
myanmar
mybank
mydaily
mykolayovych
mynavi
myo
myos
myrrh
myself
myspace
mysterious
mystery
myth
mythology
myung
mz
mæ
møre
mə
n
na
naa
naad
naadi
naadiga
naadir
naadiyaasha
naadiyada
naadkii
naafada
naafee
naafeeyay
naafo
naaftada
naafto
naag
naagaha
naagood
naagta
naagtii
naagtiisa
naagtu
naagtuna
naaji
naaleeye
naan
naanays
naanaysaa
naanaysi
naanayso
naanaysta
naanaysyo
naaneys
naaneysaa
naaneysi
naaneyso
naaneysta
naar
naarta
naartana
naas
naasa
naasaha
naasigu
naasir
naasirud
naasirudiin
naasiyada
naasiyiintu
naaska
naasley
naasleyda
naaso
nabaad
nabad
nabada
nabadana
nabaday
nabadaynta
nabadda
nabaddoon
nabadeed
nabadgalyada
nabadgalyo
nabadgelyada
nabadgelyadiisa
nabadgelyo
nabadii
nabadon
nabadoon
nabadoonka
nabadsugida
nabadsugidda
nabar
nabataea
nabdoon
nabi
nabiga
nabigeena
nabigii
nabigu
nabil
nabinimada
nabinimo
nabiyada
nabiyo
nabraha
nabsigu
nabucco
nacaan
nacas
nacay
nacayb
nacaybka
nacaybkii
nach
nacional
nacnac
naco
nada
nadaafada
nadaafadda
nadal
nadar
nadia
nadiga
nadii
nadiif
nadiifin
nadiifinta
nadiifiya
nadiifiyo
nadiifo
nadu
naf
nafaqada
nafaqeeyo
nafaqo
nafaqooyinka
naflayda
nafley
nafleyda
nafsaddiisa
nafsi
nafsiga
nafta
naftaada
naftaadii
naftada
naftayda
nafteeda
naftii
naftiisa
naftood
naftooda
naftu
naga
nagaaday
nagala
nageeye
nageyle
nagoya
nagu
nah
nahar
nahay
nahyan
nai
naik
nairobi
najaashi
najaf
najd
najib
najiib
najmudiin
nakhchivan
nakuru
nal
nala
nalagu
nalalka
nalayeh
naleeye
naleya
naleye
nalka
naloo
nam
nama
nambar
nambarada
nambarka
nambiya
name
named
names
namibia
namibie
namibiya
namtha
nan
nana
nancy
nang
nani
nantes
naomi
napa
naples
napoleon
napoli
naqaan
naqaano
naqday
naqdeen
naqdiya
naqshad
naqshada
naqshadaha
naqshadaynta
naqshadda
naqshadeeyaha
naqshadeeyay
naqshadeeye
naqshadeynta
naqshado
nara
narc
narcissism
narcissist
narcissistic
narrated
narrative
narsadu
narso
nas
nasa
nasaarada
nasab
nasahnaa
nasakh
nasashada
nasasho
nascar
nasdaq
nashfille
nashville
nasiib
nasiibka
nasional
nasir
nasoo
nasr
nasralah
nasri
nasser
nassr
nastaan
nasteexo
nasto
nat
natalie
natalist
natasha
nate
natiijada
natiijadii
natiijo
natiijooyinka
nation
national
nationalanthems
nationale
nationalencyklopedin
nationalgeographic
nationalism
nationality
nationlink
nations
nationsonline
native
nato
natural
naturalis
nature
nauru
nautical
nav
naval
naver
navy
nawaaxiga
nawaaxigeeda
nawaaxigeedu
nawawi
naxaas
naxaasta
naxariis
naxariista
naxariistaha
naxariiste
naxariistee
naxariistey
naxariistii
naxariistiisa
naxariisto
naxay
naxdin
naxdinta
naxe
naxriistee
naxwaha
naxwe
nay
nayef
nayjar
nayjeeriya
nayl
nayroobi
nazaar
nazareth
nazi
nazionale
nb
nba
nbc
nbcnews
nbsp
nc
ncbi
nchen
ncipe
nd
nde
ndebele
nden
nder
ndez
ndjamena
nds
ndtv
ne
neal
neanderthal
neanderthals
near
nearby
nearly
neat
nebal
nebasn
nebi
nebiga
nebigii
nebigiina
nebigu
nebiguna
nebiya
nebiyada
nebiyadii
nebiyadiisa
nebiyo
nebiyulaahi
nebraska
nec
necbaa
necdet
neceb
necessary
neck
nederlaan
nederland
nederlands
nedifinita
nee
need
needed
needs
neef
neefaha
neefka
neefo
neefsado
neefsashada
neefsiga
neefta
neemir
neerfaha
negara
negative
negeri
neglected
negro
neh
neil
nelja
nellemann
nelson
nema
nena
neni
neo
neolithic
nepal
neptune
neptunian
neq
nes
nesmaczny
nestle
net
netflix
netherlands
netjer
network
networking
networks
neuer
neutral
nevada
never
neville
nevis
nevs
new
newcrop
newell
newfoundland
newly
newport
news
newsbrief
newsbriefs
newscatid
newsen
newsid
newspaper
newspapers
newsroom
newsweek
newton
newyorker
next
neyl
nez
nfd
ng
ngdp
ngdpd
ngdpdpc
ngel
ngo
ngs
nguez
ngyue
nh
nhk
nhkworld
nhn
ni
nia
niagara
niamey
nibiri
nibiriga
nic
nicaragua
nice
nicholas
nicholson
nick
nickel
nicki
nickname
nicola
nicolas
nicole
nicolet
nicolson
nid
nidaam
nidaaminaya
nidaaminta
nidaamka
nidaamkan
nidaamkii
nidaamsan
nidaamyada
nidaamyo
nie
nieukerken
niger
nigeria
nigerian
night
nih
nihat
nihin
nihon
nii
niigata
niiko
niil
niilka
niiqiya
niisaabuur
nikaragua
nike
nikel
nikita
nikkei
nikobolos
nikola
nikon
nil
nile
nilo
nilotic
nimaad
nimaan
nimada
nimadii
niman
nimanka
nimankaan
nimankii
nimcada
nimco
nimcooyin
nimcooyinka
nimid
nimo
nimr
nin
nina
ninba
nine
nineteenth
nineveh
ninh
ninja
ninka
ninkaa
ninkaan
ninkaas
ninkaasi
ninkan
ninkani
ninkeeda
ninkeedii
ninki
ninkii
ninku
ninna
nio
nippon
nirgood
niri
nis
nisa
nisaa
nisbeeyo
nisha
nishabd
nissan
nitrogen
nitrojiin
nitrojiinta
niue
niyad
niyada
niyadda
niyadjabka
niyobiyaam
niyoon
nizhny
nj
nje
njeim
nk
nke
nkurunziza
nky
nl
nlm
nm
nme
nn
nne
nnkh
no
noaa
noah
nobel
nobis
noble
node
noel
nofeembar
nofembar
nofember
nogal
nokia
nolasha
nollywood
nolol
nololeed
nololeedka
nololeedkii
nololeedkiisa
nolosha
noloshaada
noloshayda
nolosheeda
nolosheedii
noloshii
noloshiisa
noloshooda
noloshoodu
noloshu
nomadic
nominations
non
noo
nooc
nooca
noocaa
noocaan
noocaas
noocan
noocani
noociisa
noocyada
noocyadeeda
noocyadiisa
noocyadooda
noocyo
noofambar
noofembar
nooga
noogu
nool
noola
noolaa
noolaadaan
noolaaday
noolaado
noolaan
noolaanshaha
noolaashaha
noolaato
noolaayeen
noolaha
noolahaas
noolahaasi
noolayd
noolaynta
noole
nooleeyay
nooleeyo
nooleha
nooleyd
nooleyn
nooleynta
nooli
noolnahay
nooluhu
noolyahay
noolyihiin
nooma
noor
noord
noorway
noorwiijiga
nooshahay
noqatay
noqda
noqdaa
noqdaan
noqday
noqdee
noqdeen
noqdey
noqdo
noqnoqda
noqnoqota
noqo
noqon
noqonaya
noqonayaa
noqonayaan
noqonayo
noqonaysa
noqonaysaa
noqonayso
noqoneysa
noqoneysaa
noqoneyso
noqono
noqoshada
noqota
noqotaa
noqotay
noqotee
noqotey
noqoto
nor
nora
norceca
nord
nordic
nordland
norm
normal
norman
norse
north
northeast
northern
northland
northumberland
northwest
norton
norway
norwegian
norwey
norwich
nos
nostalgia
not
note
noted
notes
notice
notices
noticias
noun
nour
nous
nouveau
nov
nova
novara
novembar
november
novgorod
novi
novo
novosibirsk
now
nowiki
np
npr
nr
nrc
ns
nsa
nsf
nsi
nss
nster
nt
nta
nther
ntv
nu
nubia
nubian
nuclear
nucmaan
nuf
nugaal
nugaaleed
nugal
nugul
nui
nuke
nukliyarka
nukliyeer
nukliyeerka
num
number
numbered
numbering
numbers
numero
nun
nunavut
nuqul
nur
nursing
nus
nusa
nusayr
nuseyr
nuskii
nusqaan
nust
nut
nutrition
nuuc
nuuca
nuucyada
nuucyadiisa
nuuga
nuugaan
nuugto
nuujisey
nuujiya
nuun
nuunka
nuuno
nuunow
nuur
nuura
nuurad
nuurada
nuuradiin
nuurka
nuurku
nuurow
nuurudiin
nuux
nuuxfone
nuuxnuuxsaday
nux
nuxur
nuxurka
nuyuutroono
nv
nvl
ny
nyc
nyeri
nylon
nytimes
nytmpvar
nyue
nz
nə
o
oak
oakland
oas
oau
ob
obama
oberon
obiang
object
objective
obra
observatory
observer
obsiiye
oc
occitan
occupation
occupations
occupied
oce
ocean
oceania
oceanic
oceans
oclc
oct
october
octopus
odala
oday
odayaal
odayaasha
odayaashii
odayga
odaygii
odaygu
odayo
odey
odhaahda
odhan
odhanaya
odhanjiray
odi
odia
odisha
odom
odowaa
oecd
oed
of
ofcom
off
offensive
offers
office
officer
offices
official
officialcharts
officially
officials
officiel
offshore
offside
offspring
often
ofx
og
oga
ogaa
ogaadaa
ogaadaan
ogaaday
ogaadeen
ogaadeeniya
ogaadeenya
ogaadey
ogaado
ogaal
ogaan
ogaanayo
ogaanno
ogaano
ogaanshaha
ogaatay
ogaatid
ogaato
ogadeen
ogaden
ogadenia
ogahay
oganesson
ogast
ogayn
ogeen
ogeyn
ogeysiis
oggol
oggola
oggolaadaan
oggolaaday
oggolaadeen
oggolaado
oggolaan
oggolaanaya
oggolaanaysa
oggolaanshaha
oggolaansho
oggolaatay
oggolayn
oggoleen
ogi
ognahay
ogo
ogol
ogola
ogolaaday
ogolaadeen
ogolaado
ogolaan
ogolaanaya
ogolaanshaha
ogolaansho
ogolaasho
ogolaatay
ogolad
ogolayn
ogoow
ogos
ogost
ogosto
ogow
ogsajiin
ogsajiinta
ogsaydh
ogsijiin
ogsoon
ogsoonahay
ogtahay
ogu
ogyahay
oh
ohio
oic
oid
oil
ois
ok
okaz
oklahoma
okobo
oktobar
oktober
oktoobar
oktoober
ol
ola
olaha
olalihii
old
oldbooks
oldest
ole
olihii
olimbikada
olive
oliver
olivia
olivier
olla
olol
ololaha
ololayaasha
olole
ololeeya
ololeyaal
ololihii
olombiga
olombikada
olsen
olver
olympiacos
olympic
olympics
olympique
olympus
om
omaar
omaha
oman
omani
omar
ombiology
omega
omer
omg
omicron
omniglot
on
once
one
onepage
onew
oneworld
ongoing
oni
onkod
online
onlineka
only
onlyfans
ons
ontario
oo
ood
oodhan
oodweyne
oof
oog
ooga
oogada
oogay
oogle
oogo
oogu
oohin
oohinta
ool
oolka
oomaar
oomane
oon
oona
oonaan
ooo
ooqof
oori
oorida
ooridii
ooriyada
ooshiyaaniya
oow
ooy
ooyay
oozoon
op
opec
open
opened
opening
opens
opera
operates
operating
operation
operations
operator
operators
opinion
opone
oppland
oppo
opportunities
opportunity
opposite
opposition
optical
optics
option
oq
or
ora
oraah
oraahda
oral
oran
oranaya
oranayaa
orange
oranges
oranji
oranjiray
orba
orbit
orbital
orbiting
ord
orday
ordeen
order
ordered
ordi
ordo
ordre
ore
oregon
org
organisation
organisms
organization
organizations
organize
orgi
oricon
orient
oriental
origin
original
origins
orion
oriya
orkhan
orlando
orle
orleans
oro
orod
orodka
orodyahanka
oromada
oromadu
oromia
oromiya
oromo
orrell
orthodox
ortiz
ortodokska
oryx
os
osaka
osama
osborn
oscar
oscars
osce
osdofaan
osen
osiris
oslo
oslofjord
osmaan
osman
osmanlı
osmanya
osmiyaam
osp
ossetia
ostroda
ot
other
others
otnes
otoman
ots
ottawa
ottn
otto
ottoman
ottomans
ou
ouagadougou
oud
our
ouro
ours
out
outbreak
outbreaks
outer
outlook
output
outside
ovce
over
overline
overprotective
overseas
overview
ow
owen
ower
owgeed
owkland
own
owner
ownership
oxfam
oxford
oxygen
ozawa
oʊ
p
pa
pablo
pac
pace
pacific
package
padma
padmaavat
padukone
page
pageid
pages
pagesix
pagewanted
paglinawan
paheli
pai
paid
pain
painos
paintings
pak
pakhtunkhwa
pakistaan
pakistan
pakistani
palace
palembang
palermo
palestine
palestinian
palgrave
paljon
palm
palma
palmeiras
palmer
pamela
pan
panama
panamericana
panasonic
panathinaikos
panchira
pancholi
panday
pandemic
pandey
panel
pangea
pankhurst
pano
panorama
panwar
paok
paolo
papel
paper
papers
papua
par
para
paradise
paragraph
paraguay
paramount
parcelles
pardon
parent
parents
paris
pariss
park
parker
parks
parle
parliament
parliamentary
part
parthian
participants
participation
parties
partizan
partner
partners
partnership
partnerships
parts
party
pas
pascific
pasha
pasific
pass
passed
passion
passport
past
pasta
paste
pastoral
pastoralism
pat
patani
patel
path
pathum
patrice
patrick
patriot
patriotic
patro
patron
pau
paul
paula
pauline
paulo
paved
pawlo
pay
payment
payments
payne
pays
paz
pb
pbs
pc
pcap
pd
pdf
pdfs
pdp
pe
peace
peaceful
peacock
peak
peanut
pearl
pearson
peat
pedro
peel
pei
pelagia
pembe
pen
pence
penev
penguin
penh
peninsula
penis
pennsylvania
pentagon
penthouse
people
peoples
pepper
per
pera
percent
perfect
performance
period
periplus
permanent
perry
persebaya
persepolis
perseus
persia
persian
person
persona
personal
personality
personnel
persono
pertaining
perth
peru
perum
peruvian
pesantren
peshawar
pest
pestalozza
pet
pete
peter
peters
petersburg
petit
petra
petro
petrol
petroleum
peugeot
pez
pf
pg
ph
pharaoh
pharmaceutical
pharmacy
phaseolus
phd
phil
philadelphia
philip
philippe
philippine
philippines
phillip
phillips
phillis
philosophy
phnom
pho
phobos
phoebe
phoenicia
phoenix
phone
phosphate
photo
photogallery
photoplay
photos
photosynthesis
phou
php
phraya
phu
phyla
physical
physics
physiology
pi
pia
piano
piazza
pic
pics
picture
pictures
pid
piece
pierre
pig
pii
pillars
pilot
pin
pineapple
ping
pink
pinyin
piombino
pioneer
pipeline
piracy
piramidas
pirate
pirates
pitch
pitchfork
pitsa
pitt
pittsburgh
pizza
pk
pl
place
places
plain
plains
plan
planck
plane
planelm
planet
planetary
planets
planguage
planning
plans
plant
plantation
plants
plata
plate
plateau
platform
platinum
plato
play
playboy
player
players
playing
playlist
playstation
plaza
plc
please
pleck
pledged
pledis
plej
pli
pliny
plo
plos
plus
pluto
plymouth
pm
pmc
pmid
pnas
png
pnictogens
po
pocket
podesta
poet
poetry
pohala
poika
point
poker
pokhara
pokhran
poland
pole
poli
police
policies
policy
polish
politica
political
politician
politico
politics
poll
pollen
polokwane
polydor
polyglot
polynesian
polytechnic
pompey
pooja
poor
pop
popasia
popcorn
pope
popest
pops
popular
population
populations
por
porn
pornhub
pornography
porsche
port
portal
portion
portland
porto
portrait
ports
portugal
portugiis
portugue
portuguese
pos
posedanto
position
positive
possible
post
postal
poster
postes
posts
potassium
potato
potawatomi
potential
pound
pounds
pour
pov
poverty
power
powerful
powers
powershot
pows
pp
ppen
ppp
pppgdp
ppppc
pr
prabang
practice
practices
pradesh
praesa
prague
praise
prato
prayer
prc
pre
preah
precise
prefer
pregnant
prehistory
preity
preliminary
prem
premier
prentice
preparation
prepared
preparing
presence
present
presentation
presented
presidency
president
presidential
press
pressure
prestige
preston
pretoria
prevention
preview
previously
prey
pri
price
prices
pride
primarily
primary
prime
primitive
prince
princess
princeton
principal
principe
principle
principles
print
printing
printsec
privacy
private
prix
priyanka
prize
prnewswire
pro
probably
probe
problem
problems
proc
proceedings
process
processor
prodigy
prodtype
produce
produced
product
productid
production
productions
products
productview
prof
professional
professor
profile
profiles
profit
program
programme
programming
programs
progress
project
projection
projects
prometheus
prominent
promise
promises
promote
promotion
pronounced
pronunciation
proper
properties
property
prophet
prophets
proposal
propulsion
prospect
prospects
protect
protection
protectorate
protein
protest
protestant
protests
proteus
proto
protocol
proton
proud
provice
provide
provided
provides
province
provisional
proxy
pru
ps
psa
psc
pst
psu
psv
psy
psychically
psychological
psychology
pt
ptolemaic
ptolemy
pu
pub
publ
public
publication
publications
publique
published
publisher
publishers
publishing
pubs
puchowski
pueblo
puerto
pulse
puma
pummel
pummels
punch
punishment
punjab
punjabi
punt
puntin
puntland
purdue
pure
puritan
purpose
pursat
put
putin
puławy
pwc
px
py
pyramids
q
qa
qaab
qaabab
qaababka
qaabaynta
qaabaysan
qaabdhismeed
qaabdhismeedka
qaabeeyey
qaabeynta
qaabiil
qaabilay
qaabilsan
qaabilsanaa
qaabisay
qaabiyaha
qaabka
qaabkaan
qaabkan
qaabkeeda
qaabkii
qaabkiisa
qaaci
qaacida
qaacidada
qaaciga
qaacigu
qaad
qaada
qaadaa
qaadaan
qaadan
qaadanay
qaadanaya
qaadanayaa
qaadanayeen
qaadanaynaa
qaadanayo
qaadanaysaa
qaadanin
qaadanno
qaadano
qaadashada
qaadasho
qaadata
qaadataa
qaadatay
qaadatey
qaadato
qaaday
qaadaya
qaadayaa
qaadayaan
qaadayay
qaadayo
qaadaysa
qaadayso
qaadday
qaaddo
qaade
qaadeen
qaadey
qaadi
qaadid
qaadida
qaadidda
qaadiga
qaadii
qaadin
qaadir
qaadirka
qaadis
qaadista
qaadka
qaadnay
qaadno
qaado
qaadow
qaaf
qaafiyad
qaafiyadda
qaahira
qaahiro
qaali
qaalib
qaaliga
qaalin
qaalisan
qaamuus
qaamuuska
qaamuuskan
qaamuusyada
qaan
qaangaadh
qaangaadhaa
qaangaadhka
qaangaar
qaangaarka
qaansada
qaansadu
qaanso
qaansuu
qaanuun
qaanuuni
qaanuunka
qaar
qaarad
qaarada
qaaradaha
qaaradda
qaarado
qaaradood
qaarbaa
qaarka
qaarkale
qaarkii
qaarkiis
qaarkood
qaarkooda
qaarkoodna
qaarna
qaas
qaasatan
qaasim
qaasin
qaaska
qaata
qaataa
qaataan
qaataha
qaatan
qaatay
qaateen
qaatey
qaato
qaawan
qaawanaanta
qaaxada
qaayib
qaayo
qaaytibaay
qaazim
qab
qaba
qabaa
qabaail
qabaailada
qabaan
qabab
qabad
qabadka
qabalee
qaban
qabanaayo
qabanaya
qabanayaa
qabanayay
qabanayo
qabanin
qabar
qabashada
qabasho
qabata
qabataa
qabatay
qabatinka
qabato
qabaw
qabay
qabdiya
qabeen
qabey
qabi
qabiil
qabiilada
qabiiladii
qabiileed
qabiilka
qabiilkan
qabiilkeeda
qabiilkii
qabiilkiisa
qabiilkooda
qabiillada
qabiilo
qabiilooyin
qabiilooyinka
qabil
qabilada
qabin
qabo
qaboobaa
qaboobaha
qaboobe
qaboojinta
qaboojis
qaboojiyaha
qaboow
qaboowga
qabow
qabowga
qabqabashada
qabqablayaasha
qabri
qabribayax
qabriga
qabrigii
qabrigiisa
qabrus
qabsadaan
qabsaday
qabsadeen
qabsadey
qabsado
qabsan
qabsashada
qabsashaddii
qabsashadii
qabsatay
qabsatey
qabsato
qabsi
qabsiga
qabso
qabsoomay
qabta
qabtaa
qabtaan
qabtay
qabteen
qabtey
qabtid
qabto
qabuuraha
qabuuro
qabyaalad
qabyaalada
qabyaaladda
qabyaaladi
qabyada
qabyo
qac
qacda
qadaadiicda
qadaafi
qadada
qadadu
qadaf
qadar
qadaray
qadarin
qadarinta
qadariyo
qadarka
qadatay
qaday
qaddar
qaddarin
qaddarka
qadhaabsade
qadhaabsanaya
qadhaabsato
qadhaabsi
qadhaadh
qadi
qadiim
qadiima
qadiimi
qadiimiga
qadiimisan
qadiimiya
qadiimka
qadiimsan
qadiis
qadir
qadiyad
qadka
qado
qadsia
qaeda
qafaashay
qafaasheen
qajaar
qajaarka
qal
qalaad
qalaafe
qalaawuun
qalab
qalabada
qalabka
qalabkasida
qalabkii
qalabyada
qalad
qalafsan
qalajinta
qalajiyaha
qalajiyey
qalalaasaha
qalalaase
qalalan
qalam
qalanjo
qalay
qalbi
qalbiga
qalbigii
qalbigiisa
qalbigooda
qalbigu
qalcad
qalcada
qalcadaha
qalcaddii
qalcadii
qalcado
qaldan
qalfoof
qaliif
qaliin
qaliinka
qalimoow
qalin
qalinjabisay
qalinjabiyay
qalinka
qalinkii
qallaafe
qallafsan
qallalan
qalliin
qalliinka
qallooc
qalma
qalmin
qalooc
qaloocan
qamaan
qamadi
qamadiga
qamadigu
qamar
qanacsan
qanacsanayd
qancay
qancin
qanciyaan
qanciyay
qanciyo
qandac
qandala
qandaraas
qandaraaska
qandaraaskeeda
qandaraaskeedii
qandaraaslaha
qandaraasyada
qandaraasyo
qandhada
qandho
qani
qaniga
qaniinyada
qaniinyo
qanisan
qansax
qansaxle
qantara
qanyare
qar
qara
qaraabada
qaraabadiisa
qaraabadooda
qaraabo
qaraami
qaraamiga
qaraar
qarabag
qarada
qaraha
qarama
qaramaan
qaramada
qarameed
qaran
qaranimada
qaranimo
qaranka
qaranku
qararo
qarash
qarashka
qarax
qaraxa
qaraxii
qaraxyada
qaraxyo
qarbad
qarboosh
qarbooshta
qarbooshtu
qardaawi
qardho
qare
qareen
qareenka
qargistan
qarin
qarinayo
qarinta
qarisay
qariya
qariyaan
qariyay
qariyey
qariyo
qarmaan
qarni
qarniga
qarnigan
qarnigi
qarnigii
qarniyaal
qarniyadii
qarniyo
qaro
qarow
qarshe
qarsoodi
qarsoodiga
qarsoon
qarxa
qarxay
qarxin
qarxinta
qarxis
qarxiyay
qas
qasa
qasaa
qasaalada
qasaaro
qasab
qasabka
qasabtay
qasan
qasatan
qasay
qasbanaaday
qasbay
qasbeen
qasbo
qasdamuuni
qasdiga
qashin
qashinka
qashtaala
qasim
qasriga
qasrigii
qaswado
qaswiin
qatar
qatari
qatarta
qatay
qawaaniin
qawaaniinta
qawlka
qawqaas
qawqaaska
qaxaan
qaxay
qaxdaan
qaxdey
qaxeen
qaxoontiga
qaxooti
qaxootiga
qaxootigii
qaxootinimo
qaxwaha
qaxwe
qayaad
qayb
qaybaha
qaybaheeda
qaybdiid
qaybgalaan
qaybgalay
qaybgalayaasha
qaybgaleen
qaybgalka
qaybgashay
qaybi
qaybin
qaybinta
qaybisaa
qaybisay
qaybiya
qaybiyaa
qaybiyaha
qaybiyay
qaybiyeen
qaybiyey
qaybiyo
qaybo
qaybood
qaybqaadan
qaybqaadashada
qaybqaataan
qaybqaatay
qaybsaday
qaybsamaa
qaybsamaan
qaybsan
qaybsanaa
qaybsanaanta
qaybsantaa
qaybsantay
qaybta
qaybtaan
qaybtan
qaybtani
qaybteeda
qaybtii
qaybtood
qaydaro
qaydhiin
qayliye
qaylo
qays
qaysar
qaysarkii
qayuc
qc
qeeb
qeebiyay
qeebood
qeexaa
qeexaan
qeexan
qeexay
qeexaya
qeexayaa
qeexday
qeexi
qeexid
qeexida
qeexidda
qeexitaan
qeexitaanka
qeexo
qeeyb
qeeybaha
qeeybo
qeyb
qeybaha
qeybahaasi
qeybaheeda
qeybgalay
qeybgaleen
qeybgashay
qeybi
qeybin
qeybinayo
qeybinta
qeybisa
qeybisaa
qeybiya
qeybiyaa
qeybiyay
qeybiyo
qeybo
qeybood
qeybqaatay
qeybqaatayaasha
qeybsamaa
qeybsamaan
qeybsan
qeybsantaa
qeybsantay
qeybsiga
qeybta
qeybteeda
qeybtii
qeyliye
qeylo
qeyr
qeys
qeysarka
qhifaar
qi
qiblada
qibtiyya
qidcad
qiil
qiima
qiimaha
qiimaheeda
qiimayn
qiimaynta
qiime
qiimeeyaa
qiimeeyay
qiimeeyo
qiimeyn
qiimeynta
qiimihiisu
qiimo
qiiq
qiiqa
qiiro
qilaaf
qilij
qing
qinghai
qiram
qiray
qirayaa
qirtay
qisadii
qiso
qiyaamaha
qiyaame
qiyaas
qiyaasa
qiyaasaa
qiyaasaasi
qiyaasaha
qiyaasay
qiyaasayaa
qiyaasayo
qiyaaseen
qiyaasey
qiyaasi
qiyaaso
qiyaasta
qiyaastani
qiyaastay
qiyaasti
qiyaastii
qiyam
qiyamka
qiyyaso
qm
qo
qodaa
qodax
qoday
qodayo
qodeen
qodida
qodista
qodo
qodob
qodobada
qodobadan
qodobbada
qodobbo
qodobka
qodobkaan
qodobkan
qodobo
qof
qofba
qofka
qofkaa
qofkaan
qofkaas
qofkaasi
qofkase
qofkasta
qofkii
qofkiiba
qofku
qofna
qofood
qofta
qoftaasi
qoftii
qofwalba
qol
qolada
qolal
qolalka
qolka
qolku
qolo
qoloba
qolof
qolofka
qolofta
qonya
qoob
qoobka
qooleeyda
qoom
qoomiyad
qoomiyada
qoomiyadaha
qoomiyado
qoomiyadood
qoomkii
qoomkiisa
qoondarka
qoondeeyay
qoondeeyey
qooq
qoor
qoori
qoorta
qoorte
qooyonloo
qooyska
qor
qora
qoraa
qoraaga
qoraagii
qoraagu
qoraakii
qoraal
qoraalada
qoraaladii
qoraalka
qoraalkaagu
qoraalkaan
qoraalkan
qoraalkii
qoraalku
qoraallada
qoraalladii
qoraallo
qoraalo
qoraan
qoraayo
qoraha
qoran
qoranta
qorax
qoraxda
qoraxdu
qoraxduna
qoraxey
qoray
qoraya
qorayaa
qorayaal
qorayaasha
qorayay
qorayo
qore
qoreen
qorey
qorfe
qori
qorid
qorida
qoridda
qoriga
qorigaan
qorigan
qorin
qoris
qorista
qoristii
qoritaanka
qormada
qormo
qornaa
qorniinka
qoro
qorrax
qorraxda
qorraxdu
qorshaha
qorshahan
qorshayaal
qorshayaasha
qorshayn
qorshaynta
qorshaysan
qorshe
qorsheeyay
qorsheeyey
qorsheeyo
qorsheynta
qorshooyinka
qorshuhu
qortaa
qortay
qorto
qoryaale
qoryaha
qoryaweyn
qoryo
qoryooleey
qoryooley
qosol
qosolka
qotada
qoto
qotodheer
qotoma
qowmiyad
qowmiyada
qowmiyadaha
qowmiyadda
qowmiyadeed
qowmiyado
qoxooti
qoxootiga
qoyaan
qoyaanka
qoyan
qoys
qoysas
qoysaska
qoysaskooda
qoyska
qoyskan
qoyskeeda
qoyskeedu
qoyskii
qoyskiisa
qoyskiisu
qoyskooda
qoysku
qq
qquad
qran
qs
qtdba
qu
qua
quake
qualifiers
quality
quang
quarter
quarterly
qubays
qubbi
qubeys
qubeyska
qubrus
qubuuraha
qubuuro
qudaar
qudaarta
qudduuska
qudh
qudha
qudhac
qudhiisa
qudub
qudus
quduska
quduus
quduuska
quduz
que
quebec
quechua
queen
queens
queensland
queer
query
quest
question
questions
qufac
qufaca
quhafa
qui
quickfacts
quickly
quit
qul
quljeed
qulqul
qulqulaya
qulqulayeen
qulqulka
qulqulo
qulus
quluubta
quluubtooda
quman
qumbaha
qumman
qunsulka
qunyar
quo
quote
qur
qura
quraac
quraaca
quraacda
quraan
quraanka
quraankii
quraanku
quraanshada
quraarad
qurac
quraca
quran
quranic
quranyo
quraysh
quraysheed
qurayshi
qurba
qurbaha
qurbajoog
qurbajoogta
qurbo
qurduba
qureec
qureysh
qureysheed
qurquud
qurub
quruumaha
quruun
qurux
quruxbadan
quruxda
quruxdeeda
quruxsan
qurxan
qurxin
qurxinta
qurxiyay
qurxiyey
qurxiyo
qurxoon
qusdandiiniya
quseeya
qusuusi
qutulmush
quud
quudhsi
quudinta
quudiyo
quudka
quunya
quustay
quuta
quutaan
quuto
quutul
quwad
quwada
r
ra
raab
raaber
raabi
raabiyada
raabka
raac
raaca
raacaa
raacaan
raacay
raacaya
raacayo
raacaysa
raacda
raacdaa
raacday
raacdey
raacdo
raaceen
raaci
raacin
raacitaanka
raaciyaa
raaciyay
raaciyey
raaco
raacsan
raacsanaa
raacsanayd
raad
raadad
raadadka
raadhiyaam
raadhoon
raadi
raadin
raadinaya
raadinayaa
raadinayay
raadinayo
raadinta
raadio
raadis
raadiya
raadiyaa
raadiyaan
raadiyaha
raadiyahaan
raadiye
raadiyo
raadiyow
raadka
raadraaca
raadsadaan
raadsaday
raadsado
raadso
raaga
raage
raageceelle
raali
raaligelin
raalli
raan
raas
raashid
raashidiin
raashidiinta
raashidiintu
raashiin
raashin
raashinka
raashinkii
raashiya
raasumaal
raasumaalka
raaxada
raaxaysi
raaxaysto
raaxo
raaxoole
rab
raba
rabaa
rabaan
rabaax
rabat
rabay
rabbi
rabbiga
rabbigu
rabbit
rabdhuure
rabe
rabeen
rabi
rabid
rabih
rabiic
rabiica
rabiical
rabiile
rabin
rabitaan
rabitaanka
rabitaankiisa
rabnaa
rabno
rabo
rabshad
rabshada
rabshadaha
rabshadihii
rabshado
rabsho
rabta
rabtaa
rabtaan
rabtay
rabtid
rabto
race
racfaan
racfaanka
rachel
racial
racing
racism
rad
rada
radhi
radhiyah
radiation
radio
radioactive
radius
rae
raees
raf
rafaad
rafael
rafcaanka
raffaele
raffles
rafle
rag
raga
ragaasi
raganimo
rage
ragga
raggii
raggu
ragii
ragini
ragu
rah
raha
rahim
rahman
rahul
rai
raiisal
raiisel
raiisul
railway
railways
rain
rainbow
rainforest
rains
rainy
raisal
raised
raj
raja
rajaa
rajab
rajada
rajasthan
rajaynaynaa
rajeyn
rajeynaya
rajeynayaa
rajo
rakaab
rakaabka
rakaabkii
rakcad
rakcada
rakco
rakibay
rakibo
rako
rakyat
rally
ram
ramadaan
ramadaanka
ramadan
ramaphosa
ramat
ramla
rams
ramsey
rana
ranbir
rance
rand
randall
random
range
rangers
rani
rank
ranked
rankine
ranking
rankings
ranveer
rao
raoul
rap
raphae
rapid
rapidly
rapper
raqabada
raqiis
rar
raran
raray
rare
rari
raro
ras
rasaaq
rasaas
rasaasta
rashad
rashid
rashiid
raskaana
rasmi
rasmiga
rasmiya
rasul
rasuul
rasuulka
rasuulkii
rasuulkiisa
rasuulku
rasuulkuna
rasuullada
rasuulu
rasuusha
rat
rate
rates
ratiga
rating
ratings
ration
ravage
ravensbru
rawaaxa
raxan
raxanweyn
raxiim
raxiimi
raxma
raxmaan
raxmaani
raxmad
raxman
raxweyn
ray
rayaale
rayha
rayhana
rayid
rayidka
raymond
raynrayn
rays
raysal
raysulwasaare
rayxaana
rayyan
rb
rc
rd
rdoba
re
reach
reaction
read
reading
ready
reagan
real
reality
really
reap
reason
reasoning
reasons
rebecca
rebellion
rebeqah
rebirth
rec
received
recensement
recent
recep
recipe
recognised
recognition
recognized
recommend
recommended
reconstruction
record
recorded
records
recovery
recreation
recs
red
rediff
redir
reds
redsea
reduce
ree
reeb
reebaa
reeban
reebay
reebayo
reebban
reebeen
reebi
reebin
reebka
reebo
reebtay
reed
reeme
reer
reeraha
reerka
reerkaaga
reerkii
reerkiisa
reerkiisii
reerku
reero
reerood
reeryoonis
reexaan
ref
refer
reference
references
referendum
referred
referrer
refinery
reform
refs
refugee
refugees
refund
refworld
regency
regeni
regent
reggina
reggio
regime
regiment
regin
region
regional
regions
register
registrar
regna
regnum
regulation
regulations
regulatory
reheniyaam
reich
reid
reign
related
relations
relationship
relationships
relative
release
released
releases
relevant
relief
reliefweb
religion
religions
religious
remain
remains
remarkable
remember
remembering
remix
remove
ren
renaissance
rene
rennes
reopen
rep
repair
repeat
reply
report
reportcontent
reported
reporter
reports
representative
representatives
reprint
reptile
repu
repubblica
republic
republica
republik
republika
reputation
request
requires
rer
res
research
researchgate
reserve
reserves
resident
residents
resistance
resolution
resort
resorts
resource
resources
respect
response
responsibility
responsible
rest
restaurant
resturant
result
results
reticence
retrieved
retro
return
returns
reunion
reuters
rev
reveal
revealed
reveals
revenge
revenue
reverse
review
reviewers
reviews
revised
revision
revival
revolt
revolution
revolutionary
rexha
rey
reyer
reyes
rez
reza
rf
rg
rh
rhetoric
rhine
rhinos
rhode
rhodes
rhodesia
ri
ria
riau
rib
ribada
ribbon
ric
rica
rice
rich
richard
richards
richest
richie
rick
ricky
rico
rid
rida
ridaa
ridaan
ridada
riday
riddada
ride
rideen
riders
ridey
ridge
ridi
rididda
ridin
ridka
rido
ridwaan
rie
rieng
rife
rift
right
rights
rihanna
riig
riiraash
riisi
riix
riixay
riixo
rika
rikhaaye
riko
rikoodh
rikoodhka
rikoodhkii
rikoor
rikoorka
riksbank
rim
rimidda
rin
rina
rincon
ring
ringgit
rinji
rinjiga
rinjiyeynta
rio
rip
rique
ris
risaalada
risaalo
risaaq
rise
rising
risk
risks
rita
river
rivers
riwaayad
riwaayada
riwaayadaha
riwaayadda
riwaayaddii
riwaayadihii
riwaayadii
riwaayado
rixmaan
riyaad
riyaal
riyaale
riyaaqay
riyaaqeen
riyaaqsan
riyada
riyadh
riyaha
riyal
riyale
riyo
riyooday
rj
rk
rkc
rkiye
rks
rky
rldens
rm
rn
rna
ro
road
roadmap
roald
rob
robbie
robbins
robcain
robert
roberto
roberts
robertson
robin
robinson
roble
robot
roc
rocha
roche
rochester
rock
rocket
rocks
rocky
rodol
rodos
rodri
rodrigo
rogaal
rogaland
rogay
rogeen
roger
rogers
rogi
rogo
rogtay
rogtey
rogue
rohingya
rohit
rojester
rok
roland
role
roll
rolling
roma
romaan
romali
roman
romance
romania
romanian
romanka
romans
romantic
rome
romeeniyaan
romeo
romsdal
ronald
ronaldo
roob
roobaad
roobaadka
roobab
roobabka
roobabku
roobka
roobku
rooble
roobsuge
roodhi
roodhiyaam
roof
rookie
room
rooma
roomaan
roomaaniga
roomaaniya
roomaanka
roomaankii
roomaanku
roomanka
roon
rooney
roosevelt
rooso
root
rooti
rootida
rootiga
roots
ros
rosa
rosario
rose
rosenborg
rosenga
rosetta
roshan
roskov
ross
rostov
rotana
rothschild
rotten
rottentomatoes
rotterdam
roubaix
rouge
round
rounders
rourke
routes
routledge
row
rowman
roy
royal
rp
rpa
rpch
rpd
rpf
rpg
rpk
rpp
rqgyuicadg
rr
rra
rs
rsa
rsta
rt
ru
rubiidhiyaam
rubuc
rudolf
rue
rug
rugaha
rugta
ruguuda
ruhaa
rukh
rukhsad
rukun
rukuucda
rul
rule
rulers
rules
ruling
rumaynta
rumaysad
rumaysan
rumaysanyihiin
rumaysnaa
rumaysnaayeen
rumeeya
rumeeyaan
rumeeyay
rumeeyayaasha
rumeeyey
rumeeyo
rumeeysa
rumeeysan
rumeyn
rumeysan
rumeysay
rumeysey
rumors
run
runciman
rung
runsheegto
runta
runtaa
runti
runtii
runtiina
runway
rupee
rupees
rupert
rupiah
ruqayyah
ruqiya
ruqiyah
ruqiyya
ruqsadaha
rural
rush
russ
russell
russia
russian
russka
russo
rusul
rususha
rusushii
rusuusha
ruth
rutheniyaam
rutherfordium
ruug
ruum
ruun
ruush
ruushka
ruushkii
ruushku
ruux
ruuxa
ruuxi
ruuxiga
ruuxii
ruuxna
ruwaayad
ruwaayada
ruwaayadaha
ruwaayado
ruwanda
ruxay
rvi
rw
rwanda
rwest
ry
ryan
ryu
ryujin
ryung
rə
s
sa
saa
saab
saabaan
saabit
saabsan
saabsanaa
saabsanayd
saabuun
saabuunta
saac
saacad
saacada
saacadaha
saacadda
saacadiin
saacado
saacadood
saacadu
saacid
saaciday
saacido
saad
saadaalin
saadaalinayo
saadaaliyay
saadaasha
saadka
saado
saafi
saafiga
saaid
saaiidi
saakow
saalax
saalim
saalix
saalixa
saam
saamayn
saamaynaya
saamaynta
saamaysay
saambiya
saameeya
saameeyay
saameeyeen
saameeyey
saameyn
saameynta
saameysay
saami
saamiga
saamiyada
saan
saanqaaf
saaqa
saar
saara
saaraa
saaraan
saaraha
saaran
saarantahay
saaray
saaraya
saarayaa
saarayaan
saarayaasha
saarayo
saare
saareen
saarey
saareysaa
saargoon
saari
saarid
saarida
saaridda
saarin
saarista
saarka
saarkeeda
saarkii
saarkiisa
saarkooda
saarnaa
saarno
saaro
saarta
saartaa
saartay
saartey
saarto
saaruuqaan
saas
saat
saaxadda
saaxibtinimada
saaxiib
saaxiibada
saaxiibadii
saaxiibbadiis
saaxiibka
saaxiibkeed
saaxiibkii
saaxiibkiis
saaxiibkiisa
saaxiibo
saaxiibtinimada
saaxiibtinimo
saaxil
saay
saba
sabaayada
sabab
sababa
sababaa
sababaan
sababaha
sababay
sababaysa
sababeen
sababi
sababihii
sababo
sababta
sababtaa
sababtaas
sababtay
sababtee
sababtey
sababto
sababtoo
sababtu
sababtuna
sabah
sabahionline
saban
sabdi
sabiib
sabiibka
sabiibku
sabiix
sablaale
sabo
sabool
saboolka
saboolnimada
saboolnimo
sabrina
sabriye
sabti
sabtida
sabuur
sabuurradii
sac
sacaada
sacab
sacabka
sacad
sacdi
sacdiya
sacdiyo
sachsenhausen
sacid
saciid
sacks
sacmadeeqa
sacra
sacramento
sacre
sacred
sacrifice
sacuud
sacuudi
sacuudiga
sad
sada
sadaan
sadaqada
sadaqo
sadax
sadaxaad
sadaxda
sadc
sadd
saddax
saddaxaad
saddaxda
saddex
saddexaad
saddexagal
saddexagalka
saddexda
saddexdan
saddexdii
sade
sadex
sadexaad
sadexbaar
sadexda
sadexdii
sadiiq
sadler
sadrulacdam
sadrulacdamka
sae
saeed
saf
safaarad
safaarada
safaaradaha
safaaradda
safaarado
safafka
safan
safar
safarada
safari
safarka
safarkii
safarkiisa
safarkiisii
safaro
safarrada
safawiyiinta
safety
safiican
safiir
safiirada
safiirka
safiirkii
safiiro
safiya
safiyya
safka
safkan
safra
safraan
safray
safraya
safreen
safri
safro
saftay
sag
saga
sagaal
sagaalaad
sagaalka
sagaarada
sagaaro
sagaashameeyadii
sagaashan
sagal
sage
sagrada
sahal
sahaminta
sahamiyayaashii
sahamiye
sahan
sahanka
sahara
saharan
sahashay
sahay
sahayda
sahel
sahih
sahlan
saho
sahra
sahrawi
sai
said
saif
sailing
saint
saitama
sakaarka
sakada
sakariye
saki
sako
sakura
sal
sala
salaad
salaada
salaadaha
salaadda
salaaddii
salaadiin
salaadiinta
salaadood
salaajiqada
salaam
salaama
salaamay
salaan
salaanee
salaaniik
salaanta
salaase
salaax
salaaxudiin
salad
saladanadii
saladhka
salafi
salafiyada
salafiyiinta
salafka
salafu
salagle
salah
salal
salam
salama
salavan
salax
salaynayo
salaysan
salaysanyahay
salaysnaa
salazar
saldanad
saldanada
saldanadda
saldanadii
saldhig
saldhiga
saldhigeeda
saldhigeedu
saldhigga
saldhiggeedu
saldhigii
saldhigiisu
saldhigoodu
saldhigyada
saldhigyo
sale
salebaan
saleban
saleebaan
saleeban
saleemaan
saleh
salem
sales
saleynayo
saleysan
salfar
salidka
saliibi
saliibiga
saliibiyiinta
saliid
saliida
saliidaha
saliidda
saliiddu
saliideed
saliidka
saliim
salim
salini
salisbury
saljuuq
salka
sallallaahu
sally
salma
salmaan
salman
salmiya
salomon
salsiyas
salt
salvador
salvation
salzburg
sam
sama
samaale
samaali
samaan
samad
samada
samafal
samafale
samafalka
samaha
samakaab
samakab
samakeen
samal
samale
samane
samaroon
samaroonka
samaroonku
samatabbixinta
samatabbixiyay
samatalis
samatar
samater
samayn
samaynaya
samaynayaa
samaynayaan
samaynayay
samaynayo
samaynayso
samayno
samaynta
samaysa
samaysaa
samaysan
samaysanyahay
samaysatay
samaysay
samayska
samaysma
samaysmaan
samaysmay
samaysmeen
samayso
samaystaan
samaystay
samaysteen
samaysto
sambab
sambabada
sambuus
same
samee
sameen
sameesan
sameesay
sameey
sameeya
sameeyaa
sameeyaan
sameeyaha
sameeyana
sameeyay
sameeyayaasha
sameeye
sameeyeen
sameeyey
sameeyn
sameeynayo
sameeynta
sameeyo
sameeysaa
sameeysan
sameeysay
sameeysmay
sameeyso
sameeysteen
sameeysto
sameya
sameyay
sameyey
sameyn
sameynayo
sameyno
sameynta
sameysa
sameysan
sameysay
sameysey
sameyso
sameystaan
sameystay
sameysteen
sami
samiir
samir
samo
samoa
samoo
samoow
samow
sample
samray
samsamka
samsun
samsung
samuel
samui
samuud
san
sana
sanaa
sanaag
sanaan
sanaba
sanad
sanada
sanadada
sanadadii
sanadaha
sanadahan
sanaddii
sanadguuradii
sanadihii
sanadii
sanadka
sanadkaa
sanadkaan
sanadkaas
sanadkan
sanadkasta
sanadki
sanadkii
sanadkiiba
sanadku
sanadla
sanadlaha
sanadle
sanado
sanadood
sanadu
sanakirja
sanam
sanamyada
sanamyadu
sanamyo
sanandkii
sanboorka
sanbuur
sanca
sanchez
sanctions
sand
sandefjord
sandheere
sandi
sandiego
sandiegohistory
sandii
sandkii
sandra
sands
sanduuq
sanduuqa
sandviken
sandwich
sanfourche
sang
sangub
sanjay
sanka
sankara
sannad
sannaddii
sannadihii
sannadka
sannadkaas
sannadkan
sannadkii
sannadkiiba
sannadku
sannadlaha
sannadle
sannado
sannadood
sanno
sano
sans
sanskrit
santa
santiago
santos
sao
sap
sapiens
saq
saqafka
saqda
sar
sara
saraakiil
saraakiisha
saraakiishii
saraar
sarah
saraha
sarajevo
saran
saransoor
saransor
sarapion
saray
saraynta
saraysa
sarbeeb
sare
sareba
saree
sareenka
sareeya
sareeyaa
sareeyay
sareeye
sareeyo
sareeysa
sareeysay
sareeyso
sarena
sareysa
sareysaa
sareyso
sarfiga
sargon
sari
sarifka
sariir
sariiraha
sariirta
sarkaal
sarkaalka
sarkozy
sarmaan
saro
sarpsborg
sarqusta
sarraysa
sarre
sarreeya
sarreeyaa
sarreeyay
sarreeye
sarreeyey
sarreeyo
sarreynta
sarreysa
sarreysay
sarrifka
sarsare
sarta
sarur
saruur
sarw
sas
sasak
saskatchewan
sasou
sassou
sassuolo
sassy
sasuke
sata
satellite
satellites
[...]
