!
"
#
##0
##1
##10
##11
##12
##13
##14
##15
##16
##17
##18
##19
##2
##20
##21
##22
##23
##24
##25
##26
##27
##28
##29
##3
##30
##31
##32
##33
##34
##35
##36
##37
##38
##39
##4
##40
##41
##42
##43
##44
##45
##46
##47
##48
##49
##5
##50
##51
##52
##53
##54
##55
##56
##57
##58
##59
##6
##60
##61
##62
##63
##64
##65
##66
##67
##68
##69
##7
##70
##71
##72
##73
##74
##75
##76
##77
##78
##79
##8
##80
##81
##82
##83
##84
##85
##86
##87
##88
##89
##9
##90
##91
##92
##93
##94
##95
##96
##97
##98
##99
$
%
&
'
(
)
*
+
,
-
.
/
0
00
000
0000
0001
0003
001
002
003
004
007
01
010
017
02
020
022
023
025
03
030
036
04
040
047
048
05
055
06
069
07
070
0761867198
08
084
09
1
10
100
1000
1000847
1001
101
1010
102
1021
1022
1024
1025
103
104
1040
105
1050
1055
1059219
106
107
108
1080
1086
109
1092
1098
11
110
1100
1107
111
1116
112
1127
113
114
1146
115
1156
116
117
1171
118
1185
119
1190
1192
12
120
1200
1203
1204
1205
121
1211
1217
122
1220
123
1237
124
1249
125
1250
1257
1258
126
1260
1265
127
1270
1271
1276
128
1281
1284
129
1299
13
130
1300
131
132
1326
133
1332
134
135
1350
136
1363
137
13755
138
1389
139
1391
1398
14
140
1400
1402
1406
141
1412
1413
142
1420
1425
1427
1429
143
144
1440
1444
1446
145
1451
1453
146
1462
147
148
1481
1487
149
1492
15
150
1500
15000
1507
151
1512
1513
1517
152
1520
1521
1529
153
1532
1536
1538
154
1542
1543
1547
155
1551
1553
1554
156
1566
157
1574
158
1584
159
1595
16
160
1600
1606
161
1612
1616
162
1620
163
164
1648
165
166
167
1670
168
1683
1688
169
1697
17
170
1700
171
172
173
173173
1732
174
175
1750
1755
1757
176
1763
1768
177
1770
1774
1776
1777
178
1781
1783
1786
1787
1789
179
1790
1791
1792
1793
1794
1796
1798
18
180
1800
1801
1803
1806
1808
181
1810
1814
1815
1818
1819
182
1820
1821
1822
1824
1825
1826
1827
1828
1829
183
1830
1833
1834
1835
1836
1837
1838
1839
184
1840
1842
1843
1844
1845
1846
1847
1848
1849
185
1850
1851
1852
1853
1854
1855
1856
1857
1858
1859
186
1860
1861
1862
1863
1864
1865
1866
1867
1868
1869
187
1870
1871
1872
1873
1874
1875
1876
1877
1878
1879
188
1880
1881
1882
1883
1884
1885
1886
1887
1888
1889
189
1890
1891
1892
1892472
1893
1894
1895
1896
1897
1898
1899
19
190
1900
1901
1902
1903
1904
1905
1906
1907
1908
1909
191
1910
1911
1912
1913
1914
1915
1916
1917
1918
1919
192
1920
1921
1922
1923
1924
1925
1926
1927
1928
1929
193
1930
1931
1932
1933
1934
1935
1936
1937
1938
1939
194
1940
1941
1942
1943
1944
1945
1946
1947
1948
1949
195
1950
1951
1952
1953
1954
1955
1956
1957
1958
1959
196
1960
1961
1962
1963
1964
1965
1966
1967
1968
1969
197
1970
1971
1972
1973
1974
1975
1976
1977
1978
1979
198
1980
1981
1982
1983
1984
1985
1986
1987
1988
1989
199
1990
1991
1992
1993
1994
1995
1996
1997
1998
1999
2
20
200
2000
2001
2002
2003
2004
2005
2006
2007
2008
2009
201
2010
2011
2012
2013
20130601
20130601606635
2014
2015
2016
2017
2018
2019
202
2020
2021
2022
2023
2024
2025
2026
2027
2028
2029
203
2030
204
2040
205
2050
206
207
208
209
21
210
2100
211
212
213
214
215
216
217
218
219
22
220
221
222
223
224
2244
225
226
227
228
229
23
230
2307
231
232
233
234
235
236
237
238
239
24
240
2405
241
242
243
244
245
246
247
248
249
25
250
2500
251
252
2527
253
254
255
257
258
259
26
260
261
262
263
264
265
266
267
268
269
27
270
2709
271
272
273
274
275
276
277
278
279
28
280
281
282
283
284
285
286
287
288
289
29
290
291
292
293
294
295
296
297
298
299
3
30
300
3000
30000
301
302
303
304
304557
305
306
307
309
31
310
3100
311
312
313
314
315
316
3166
317
318
32
320
321
322
323
325
326
327
328
329
33
330
331
332
333
334
335
336
337
338
339
34
340
341
342
343
345
3477
348
349
35
350
351
352
353
354
355
356
357
358
359
36
360
363
364
365
366
367
368
369
37
370
371
372
373
375
376
377
378
379
38
380
381
384
385
386
389
39
390
392
393
394
395
396
397
398
399
4
40
400
4000
401
402
403
405
406
407
408
41
410
411
414
415
4150
416
4163
419
42
420
4217
422
425
426
427
428
43
430
431
433
4344
435
437
44
440
4400
442
443
444
445
447
448
449
45
450
451
452
454
455
458
459
46
460
465
466
468
47
470
472
475
479
48
480
481
482
484
485
486
487
488
489
49
490
493
495
496
497
498
499
5
50
500
5000
501
503
504
507
508
509
51
510
512
515
516
52
520
521
5212784
522
525
526
527
528
53
533
537
539
54
540
541
546
549
55
550
551
555
558
56
560
562
565
566
57
570
571
573
574
577
579
58
580
581
587
589
59
590
592
593
594
595
596
598
599
6
60
600
6000
601
602
604
605
608
609
61
610
612
614
615
62
620
621
622
623
624
625
626
627
628
629
63
630
631
632
633
634
637
64
640
641
643
644
646
648
6483427
65
650
651
656
657
66
660
661
663
663304
663340
666
667
67
670
671
678
68
680
681
682
683
684
685
69
698
699
7
70
700
7000
701
704
706
707
708
7094
7099
71
710
711
714
715
72
720
721
724
728
729
73
737
738
74
740
742
743
745
75
750
752
754
756
757
76
760
763
765
77
770
771
775
777
778
78
780
783
784
785
786
787
79
790
791
792
794
8
80
800
8000
81
810
8108
812
813
815
82
820
826
827
828
83
830
833
835
838
839
84
840
842
85
850
851
852
855
857
86
8601
861
863
869
8696547
87
870
872
87548
876
878
88
883
884
887
89
890
895
9
90
900
9000
906
908
91
911
912
913
919
92
920
921
922
927
93
930
934
939
94
940
944
945
95
950
951
957
959
96
960
962
9660390094
969
97
970
974
975
978
9781136095702
98
980
983
99
990
991
9953
996
998
999
:
;
<
=
>
?
@
\
^
_
`
a
aa
aaa
aaad
aaan
aabaha
aabahaa
aabahay
aabaheed
aabaheen
aabahood
aabbaha
aabbahay
aabbaheed
aabbe
aabbeheed
aabbihii
aabbihiis
aabe
aabee
aabeheed
aabihi
aabihii
aabihiina
aabihiis
aabihiisa
aabihiisna
aabiihiis
aabo
aad
aada
aadaan
aadaanka
aadaankii
aadam
aadamaha
aadamahu
aadame
aadamiga
aadamka
aadamku
aadamnimada
aadamnimo
aadamuhu
aadan
aadanaha
aadanayd
aadane
aadanimo
aadanka
aadanku
aadannimada
aadantinimo
aadanuhu
aaday
aadayaan
aaddan
aadeen
aaden
aadey
aadf
aadi
aadin
aadka
aadki
aadkii
aadmiga
aadmigu
aadna
aadnay
aado
aadr
aafo
aag
aaga
aagaas
aagaga
aagagga
aagga
aaggaas
aaggan
aah
aakhirada
aakhirana
aakhirkii
aakhirkiina
aakhiro
aakhiroda
aal
aala
aalaaba
aalad
aalada
aaladaha
aaladda
aalado
aalaha
aale
aalid
aaliyah
aalkolo
aallo
aallot
aalo
aalu
aami
aamiin
aamin
aamina
aaminaad
aaminaan
aaminay
aamini
aaminka
aamino
aaminsan
aaminsanaa
aaminsanaayeen
aaminsanahay
aaminsanyahay
aaminsanyihiin
aaminta
aamir
aamiyaa
aamiyay
aamiyey
aamiyo
aamminsan
aamus
aamusan
aamusay
aamusnaan
aan
aana
aanad
aanada
aanan
aanay
aaney
aanka
aankan
aankii
aankiisa
aanku
aannu
aansadaan
aansaday
aansadeen
aansatay
aansatey
aansho
aanta
aanteed
aantu
aanu
aanuu
aaq
aar
aaran
aare
aargon
aargoon
aargoosi
aargoosiga
aargudasho
aarka
aaron
aarsenik
aartifishal
aas
aasaan
aasaarta
aasaartan
aasaas
aasaasaan
aasaasaha
aasaasantay
aasaasay
aasaasayaasha
aasaasayaashii
aasaaseen
aasaasey
aasaasi
aasaasida
aasaasidda
aasaasiga
aasaasihii
aasaasin
aasaaska
aasaaskeedii
aasaaskii
aasaaskiisa
aasaaso
aasaastay
aasaasy
aasaha
aasan
aasanyahay
aasasay
aasay
aasayo
aaseen
aasha
aashaas
aashitada
aashu
aasi
aasiga
aasin
aasiya
aasiyaan
aasiyaanka
aasiyada
aasiyatik
aasiyo
aaska
aaskii
aaso
aay
aayad
aayada
aayadaha
aayadda
aayaddan
aayado
aayadood
aayah
aayaha
aayaniskiisu
aayano
aayatu
aaydhiin
aaydhiinta
aayonada
aayron
aayronta
ab
aba
abaa
abaabul
abaabulan
abaabulay
abaabuleen
abaabulka
abaabushay
abaadir
abaajabal
abaajibil
abaal
abaaleey
abaalmarin
abaalmarinnada
abaalmarinno
abaalmarino
abaalmarinta
abaalmarisay
abaalmariyay
abaalmariyo
abaan
abaanduul
abaanduulaha
abaanduule
abaanduulihii
abaanduulkii
abaar
abaaraha
abaarihii
abaaro
abaarso
abaarta
abaartii
abaayo
ababa
abahani
abakar
abasguul
abasiiniya
abba
abbaanduule
abbal
abbas
abbasid
abbasids
abboud
abc
abcnews
abd
abdalla
abdallah
abdalle
abdel
abdelaziz
abdi
abdiaziz
abdibari
abdifatah
abdihakim
abdikaafi
abdillahi
abdille
abdirahman
abdirashid
abdiraxman
abdirizak
abdisalam
abdisalan
abdishakur
abdiwali
abdiweli
abdul
abdulaahi
abdulahi
abdulaziz
abdulkadir
abdulla
abdullah
abdullahi
abdulle
abdulrahman
abdurahman
abdurrahman
abe
abeba
abeeha
abgaal
abi
abid
abidjan
abii
abiib
abiibakar
abiidaalib
abiikar
abiy
abkhazia
abkor
abla
abo
abokor
aboo
aboon
aboor
aboorey
aboowe
aboriginal
aborijiniska
abou
about
aboutun
above
abow
abraar
abraha
abraham
abrahamiga
abrar
abriil
abril
abrill
abroad
abroone
abruzzi
abs
absame
abshir
abstract
abstracts
absuge
abti
abtidoon
abtigeed
abtigii
abtirsada
abtirsadaa
abtirsadaan
abtirsado
abtirsataa
abtirsato
abtirsi
abtirsiga
abtirsiin
abtirsiinta
abtirsilang
abtoow
abu
abubakar
abuja
abujrka
abukar
abul
abuse
abuu
abuubakar
abuukar
abuur
abuura
abuuraa
abuuraan
abuuraha
abuuray
abuuraya
abuurayaasha
abuurayo
abuure
abuureen
abuureheenna
abuurey
abuuri
abuurida
abuuridda
abuurin
abuuris
abuurista
abuuritaanka
abuurka
abuurkii
abuurma
abuurnimo
abuuro
abuurtaa
abuurtay
abuurtey
abuurto
abwaan
abwaanad
abwaanada
abwaanadii
abwaanka
abwaankii
abwaanku
abwaannada
abwaanno
abwaano
abwan
abwaniin
abyan
abyoone
abyssinia
ac
acacia
academic
academy
access
accessdate
accessed
accord
according
account
accounting
accurate
accuses
acdamka
ace
aceh
achaemenid
acid
acp
acquired
acre
across
acs
act
acting
actinides
action
active
activist
activities
activity
actor
actors
actress
actually
aczino
ad
ada
adaa
adaan
adadag
adado
adag
adagtahay
adaha
adal
adalar
adaları
adam
adamku
adams
adan
adana
adani
adaraxmaan
adaraxman
adası
adayg
adb
add
adda
adde
added
addeeda
addiction
addidas
addimo
addin
addis
addition
additional
additionally
addo
addoomadiisa
addoommada
addoomo
addoon
addoonka
addoonkii
addoonkiisa
addoonku
addoonsiga
addoonta
addu
addunka
adduun
adduunka
adduunkan
adduunku
adduunyada
adduunyo
ade
adeeca
adeecaan
adeeco
adeeg
adeega
adeegaa
adeegaan
adeegan
adeegay
adeegaya
adeegayaasha
adeegeeda
adeegga
adeeggu
adeegi
adeegid
adeegidda
adeegii
adeegno
adeego
adeegsada
adeegsadaa
adeegsadaan
adeegsaday
adeegsadayaasha
adeegsadeen
adeegsadey
adeegsado
adeegsan
adeegsanaayo
adeegsanaya
adeegsanayay
adeegsanayo
adeegsanaysa
adeegsatay
adeegsi
adeegsiga
adeegta
adeegtaa
adeegtay
adeegto
adeegyada
adeegyadooda
adeegyo
adeer
adeerka
adeerkeed
adeerkii
adeerkiis
adeerkood
adeero
adeeygeeda
adel
adelaide
adele
aden
adhaxda
adhi
adhiga
adhigii
adhigu
adi
adidas
adiga
adigaa
adigana
adigoo
adigu
adiguna
adii
adirna
adis
aditya
adjektivo
adkaa
adkaadaan
adkaaday
adkaadeen
adkaado
adkaan
adkaata
adkaatay
adkaato
adkaha
adkayd
adkayn
adkaysan
adkaysi
adkaystay
adke
adkeeyay
adkeeyeen
adkeeyo
adkeha
adkeyd
adkeynayo
adkeynta
adkeysi
admas
admin
administration
administrative
admiral
adna
adnan
ado
adolf
adoo
adood
adoomada
adoomo
adoon
adoonka
adoonsado
adoonsi
adoonsiga
adopt
adow
adrabiijaan
adres
adreso
adrian
adriatic
aduhu
adult
adunka
aduun
aduunka
aduunku
aduunyada
aduunyadu
aduunyo
aduunyooyinka
advance
advanced
advantages
advanzia
adverbo
adxa
adxaa
adyghe
ae
aegean
aek
aerial
aeronautical
aerospace
aespa
aesthetic
af
afadayda
afadiisa
afaf
afafka
afakaadhuhu
afar
afaraad
afargees
afarta
afartaas
afartaasi
afartan
afartanka
afartii
afc
afcad
afcon
afdb
afdheer
afdhere
afduub
afduubay
afduubka
afduubkii
afeef
afer
afewerki
affa
affaires
affairs
affar
affects
afgaanistaan
afgaanistan
afgambi
afgambigii
afgan
afganbi
afganistaan
afganistan
afgarad
afgaran
afgaranwaa
afgarteen
afgartey
afgarto
afgembi
afghan
afghanistan
afgooye
afguduud
afhayeen
afhayeenka
afjaray
afjareen
afjari
afjaro
afjartay
afka
afkaarta
afkeena
afkii
afkiisa
afkooda
afku
aflaamta
aflaan
aflaanta
aflaaq
aflagaaddo
aflax
aflixi
afmadow
afo
afqaanistaan
afqaanistan
afqanistaan
afraad
afrah
afrax
africa
african
africana
africanews
africans
afrik
afrika
afrikaan
afrikaanka
afrikaans
afrikaba
afrikada
afrikan
afrikana
afrikanka
afriko
afrique
afro
afroasiatic
afsomaliga
afsoomaaliga
afsoomali
aftahan
after
afti
aftida
aftidii
afurur
afuufo
afwayne
afweyn
afweyne
afxumo
afyare
ag
aga
agaasimaha
agaasimay
agaasimayaasha
agaasime
agaasimihii
agab
agabar
agabka
agabkii
agabyada
agagaaraha
agagaarka
agagaarkeeda
again
against
agaw
agder
age
aged
ageing
agence
agencies
agency
agent
agents
agi
ago
agoomaha
agoon
agoonka
agoonta
agoosto
agosto
agra
agreement
agreements
agricultural
agriculture
agtaada
agteeda
agti
agtiisa
agtooda
aguila
ah
aha
ahaa
ahaaa
ahaaan
ahaadaa
ahaadaan
ahaaday
ahaadee
ahaadeen
ahaado
ahaan
ahaana
ahaanayaa
ahaanba
ahaaneed
ahaanna
ahaanshaha
ahaansho
ahaanta
ahaantaana
ahaantaasna
ahaanteed
ahaanteeda
ahaantii
ahaantiisa
ahaataa
ahaatay
ahaataye
ahaate
ahaatee
ahaato
ahaay
ahaaye
ahaayeen
ahaayen
ahamed
ahan
ahana
ahay
ahayad
ahayd
ahaye
ahayeen
ahayen
ahayn
ahayni
ahba
ahe
ahead
ahee
aheed
aheen
aheeyd
aheha
aheyd
aheyn
ahhttp
ahi
ahin
ahina
ahli
ahlu
ahlusuna
ahly
ahmad
ahmed
ahmiyad
ahmiyada
ahmiyadda
ahn
ahna
ahnapee
ahoo
ahow
ahpetrucci
ahu
ahun
ahyd
ahzab
ai
aid
aidid
aidoru
aids
aigles
aiib
aik
aika
ain
ainas
air
airbus
aircraft
aires
airline
airlines
airport
airportka
airspace
airways
ais
aise
aisha
aishah
aishat
aivot
aj
ajaanib
ajaanibka
ajaanibta
ajaccio
ajakis
ajanabi
ajandaha
ajar
ajarka
ajax
ajay
ajman
ajn
ajnabi
ajnabiga
ajram
ajuran
ajuuraan
ak
aka
akadeemiyada
akadeemiyadda
akademi
akademiyada
akadhiga
akan
akb
akbar
akcidento
akershus
akhbaar
akhbaarta
akhlaaq
akhlaaqda
akhlaaqeed
akhri
akhrin
akhrinayaa
akhrinayo
akhrinjiray
akhrinta
akhris
akhrisaho
akhrisan
akhrisanno
akhriska
akhrisku
akhriso
akhristaha
akhristay
akhristayaal
akhristayaasha
akhristo
akhriyaa
akhriyaan
akhriyay
akhriyey
akhriyid
akhriyo
akhtar
aki
akkad
akkadiyaan
akkadiyaanka
akkadiyaanku
akon
akra
akrig
aks
akshay
aksum
aktarada
aktarka
aktiiniyaam
akuzativo
akvo
al
ala
alaab
alaabada
alaabaha
alaabo
alaabooyin
alaabooyinka
alaabta
alaabtii
alaabtoodii
alaah
alaale
alab
alabama
alabka
alad
aladdin
alaha
alajuelense
alam
alamagan
alamin
alamsay
alan
alanka
alaska
alba
albaab
albaabada
albaabka
albaabkii
albaani
albaaniya
albam
albamka
albamkeedii
albamkii
albamkooda
albamkoodii
albania
albanian
albaniya
albaniyan
albert
alberta
alberto
albion
album
albumka
albumkeeda
albumkeedii
albumkii
albumkiisii
albumkooda
albumkoodii
albums
albumyada
alcijli
aldawaaif
ale
alejandro
aleksander
aleksandr
alemu
aleppo
alex
alexa
alexander
alexandra
alexandre
alexandria
alfa
alfaatix
alfabeto
alfonso
alfonsoo
alfonsoogii
alfred
alg
algae
algebra
algeria
algerian
algiers
alguuri
alharamain
ali
alia
alianza
alice
alicia
alien
alif
alifa
alifay
alifba
alifbeet
alifbeetada
alifbeetka
alifey
alifka
alifle
align
aligned
alisha
aljazeera
aljaziira
aljebra
aljeeriya
alkali
alkaline
alkalineta
all
alla
allaa
allaah
allaahu
allaale
allafrica
allah
allaha
allahayoow
allahayow
allahi
allahu
allamagan
allana
allaybaday
alle
allen
allena
alleyl
alliance
allied
allies
allifay
allihii
allkpop
alloow
alloush
allow
allsbc
allure
alma
almagest
almahdi
almalik
almanac
almansuur
almeida
almere
almis
almost
almu
alnaciim
alo
alohara
along
alongside
aloosan
alopecia
alpaca
alpacas
alpes
alpha
alphabet
alphabets
alpine
alps
alqaacida
alrashiid
already
alsafaax
alshabaab
also
alt
alta
altai
alternative
although
alukah
alumiiniyaam
alumiiniyaamta
aluminium
alwaax
alwaaxa
alwaaxda
alwaaxyada
alwaaxyo
always
alxakiim
am
ama
amaah
amaahanay
amaahda
amaahdeen
amaal
amaan
amaana
amaanaa
amaanada
amaanay
amaaneen
amaanka
amaano
amaanreer
amaanta
amaantii
amaasiya
amaba
amad
amadeus
amakaag
amal
amalo
aman
amanda
amani
amar
amarada
amarami
amare
amarka
amarkii
amarkutaagle
amarrada
amarro
amartay
amas
amase
amata
amateur
amazing
amazon
amb
amba
ambalat
ambasador
ambassador
ambedkar
amber
ambo
ambon
ambonese
ambouli
ambro
ambroso
ambulatory
ame
amedeo
ameerika
ameerikaan
ameerikaanka
ameerikada
ameerikan
ameeriko
amelia
amelio
amer
america
american
americana
americans
americas
amerika
amhara
amharic
ami
amid
amiibada
amiin
amiina
amiir
amiirada
amiirka
amiirkeeda
amiirkii
amiirrada
amiirul
amiko
amin
amina
aminda
aminiga
amir
amis
amisom
amistardam
amitabh
amma
ammaan
ammaanay
ammaanka
ammaanku
ammaano
ammaanta
amman
ammuur
amnesty
amni
amniga
amnigu
among
amor
amorite
amoriteka
amoriteku
amos
amoud
amp
ampang
ampere
amr
amra
amraa
amram
amran
amray
amrey
amri
amritsar
amsterdam
amt
amu
amun
amundsen
amxaar
amxaarada
amxaari
amxaariga
amxaaro
amy
an
ana
anaa
anaadool
anadolu
anadool
anaga
anagaa
anagana
anagoo
anagu
anaka
anakkale
analysis
ananas
anand
ananya
anas
anatolia
anatolian
anatomy
anatooliya
anay
anbar
anbiyaa
anbiyada
anbiyo
anc
ancaam
ancient
anco
and
andacooday
andacoonaya
andacootay
andaluci
andalus
andalusna
andean
andere
anders
anderson
andersson
andes
andhra
andorra
andre
andrea
andreas
andrei
andrew
andriy
android
andromeda
andy
anemia
ang
angel
angela
angeles
angeli
angelina
angels
anger
angers
anges
angla
anglo
angola
anguilla
angus
ani
aniga
anigaa
anigana
anigoo
anigu
aniguna
aniis
animal
animals
animation
anime
ankara
ankau
ann
anna
annaga
annagoo
annagu
annan
anne
anni
annie
anniga
annigana
annigoo
annigu
anniversary
anno
announce
announced
announces
annual
anod
anoo
anopheles
another
ans
ansaar
ansaari
ansaarta
anshax
anshaxa
ansixin
ansixinta
ansixisay
ansixiyaan
ansixiyay
ansixiyeen
ansixiyey
ansixiyo
answers
ant
anta
antalya
antaraktika
antarctic
antarctica
antarktik
antarktika
antau
anteeksi
antelope
antep
anthem
anthony
anthroboloji
anti
antigua
antike
antiker
antilles
antimony
antioxidant
anto
antoine
anton
antonio
anuak
anubis
anushka
anwar
any
ao
aoa
aoi
ap
apache
apart
apc
apelon
aper
apink
aplika
apne
apnews
apollo
app
apparently
apple
application
applications
applied
appointed
appointment
appoints
appreciate
approach
approves
approximately
apps
apr
apricot
apriil
april
aqaan
aqaano
aqaba
aqable
aqal
aqalada
aqaladu
aqalka
aqalo
aqbalaa
aqbalaan
aqbalay
aqbaleen
aqbali
aqbalin
aqbalo
aqbashay
aqbelay
aqlabiyad
aqlabiyadda
aqoon
aqooneed
aqooneedka
aqoonid
aqoonin
aqoonraadis
aqoonsadaan
aqoonsaday
aqoonsadeen
aqoonsadey
aqoonsado
aqoonsan
aqoonsana
aqoonsanaa
aqoonsanayn
aqoonsanyahay
aqoonsanyihiin
aqoonsatay
aqoonsato
aqoonsi
aqoonsiga
aqoonsigeeda
aqoonta
aqoontiisa
aqoonyahan
aqoonyahana
aqoonyahanada
aqoonyahanadii
aqoonyahanadu
aqoonyahanka
aqoonyahannada
aqoonyahanno
aqoonyahano
aqri
aqrin
aqrinayaa
aqrinayo
aqrineyn
aqrineysaa
aqrinta
aqrintooda
aqriska
aqristaan
aqriya
aqriyay
aqriyey
aqriyo
aqsa
ar
ara
araarso
arab
araba
arabi
arabia
arabian
arabic
arabiya
arabnews
arabs
arabsiyo
arachis
arafat
arag
araga
aragga
aragnaa
aragnay
aragnimada
aragnimadeeda
aragnimo
aragno
aragon
aragonese
aragoon
aragta
aragtaa
aragtaan
aragtay
aragtey
aragti
aragtid
aragtida
aragtidan
aragtidiisa
aragtidu
aragtiyada
aragtiyaha
aragtiyo
aragto
aragu
arale
aramaic
aramaygga
aramco
arap
araplar
ararsame
arbaaz
arbaca
arbacada
arbaco
arbaro
arbe
arbo
arbor
arc
arcep
archaeological
archaeologists
archaeology
archer
archipelago
archive
archived
archives
arco
arct
arctic
arda
ardaa
ardabuun
ardada
ardadii
arday
ardayda
ardaydaas
ardaydii
ardaydiisii
ardaydu
ardayga
ardencroft
ardey
ardeyda
ardeydii
ardeydu
ardo
ardogrol
are
area
areas
arema
arena
argagax
argagaxa
argagaxiso
argaggixisada
argagixisada
argagixiso
argentina
argentine
argon
ari
ariana
ariel
arietinum
ariga
arimah
arimaha
arimahaas
arimahan
arimo
arimood
arin
arinka
arinkaas
arinkaasi
arinkan
arinku
arinta
arintaa
arintaan
arintaas
arintaasi
arintan
arintani
arisona
aristotle
arizona
arjaeya
arjantiin
arjantiina
arjun
arka
arkaa
arkaan
arkaayay
arkansas
arkay
arkayay
arkayey
arkaynaa
arkayo
arkaysaa
arke
arkeen
arkey
arkeyaan
arkeysaa
arki
arkid
arkin
arko
arktik
arktika
arm
armaajada
armaajo
armania
armed
armenia
armes
armiiniya
arms
army
arnold
aromatherapy
aroor
arooray
aroortay
aroortii
aroortu
aroos
arooska
arooskii
aroosku
aroosyada
around
arqam
array
arrest
arrimaha
arrimahaas
arrimo
arrimood
arrin
arrinkaa
arrinkaas
arrinkan
arrinkii
arrinku
arrinta
arrintaa
arrintaan
arrintaas
arrintaasi
arrintan
arrintani
arrintii
arrintu
arrival
arrow
arrows
ars
arsalaan
arsenal
arsenic
art
arta
arthur
article
articles
articleshow
artificial
artist
artists
arto
arts
aruba
arusha
aruurinta
aruuriyay
aruursaday
aruursadeen
aruurshay
arxan
aryabhata
aryan
aryeh
arz
arzanjaan
as
asaa
asaal
asaas
asaasay
asaaseen
asaasi
asaasiga
asaaska
asad
asadu
asaga
asagana
asago
asagoo
asagoon
asagu
asal
asaliga
asalka
asalkeeda
asalkiisa
asalkiisu
asalkooda
asalkoodu
asasay
asay
asc
ascad
ascension
asean
aserbiijaan
asf
asfalt
ash
ashar
asharaaf
asharafta
ashcari
ashenafi
ashley
ashoka
ashqoodara
ashraf
ashtar
ashton
ashuur
asia
asiae
asian
asiana
asiaone
asias
asiatic
asics
asie
asiga
asigana
asigoo
asigoona
asiibay
asiidh
asiidha
asimo
asin
asir
asiya
asiyriyaan
asiyriyaanka
ask
askandar
askandariya
askar
askari
askarta
askartii
askartu
asl
aslakooda
aslam
asli
asluub
asluubta
asma
asmaa
asmara
asn
asna
asnaamta
asoo
asp
asphalt
aspx
ass
assaasay
assad
assainie
assalkoodii
assam
assamese
assange
assassination
assault
assembly
assessment
assets
assist
assistance
assistant
assiyriya
assiyriyaanka
associated
association
assyrian
astaamaha
astaamo
astaan
astaanka
astaannta
astaanta
astaanteedu
astaantiisu
astantiin
astaraakhaan
astatiin
asteeyay
asteroid
asteroids
asteroidska
asto
aston
astrid
astronaut
astronomical
astronomy
asuka
asvel
aswad
aswadka
aswan
asxaab
asxaabi
asxaabiga
asxaabta
asxaabtaas
asxaabteeda
asxaabtii
asxaabtiisa
asxaabtiisii
asxaabtooda
asxaabtu
asylumlaw
at
ata
atalanta
atam
atamka
atariishada
atariishayasha
atariisho
atariishooyinka
atatu
ataturk
ath
athens
athletic
atirishada
atirisho
atirishooyinka
atlaantiga
atlaantik
atlanta
atlantic
atlantiga
atlantik
atlantika
atlas
atle
atm
atmosphere
atmospheric
ato
atom
atomic
atomichttp
atomiga
atomik
atomika
atomikga
atomka
atomkeedu
atomkiisa
atomkiisu
atomkooda
atomyada
atomyo
atoore
atp
attack
attacks
attapeu
attend
attendance
attended
attention
au
auch
auckland
audi
audio
auf
aug
august
augusto
augustus
aun
aung
aurora
aus
auschwitz
aust
austin
australia
australian
australiya
australiyaanka
austria
austriya
author
authorities
authority
auto
automobile
automobiles
autorite
aux
av
available
avalites
avc
avec
avena
avenue
average
aviation
avino
aviv
avn
avo
avocado
avogadro
avoid
aw
awaal
awaalka
awaare
awad
awal
awale
award
awards
awash
away
awbare
awdal
awdalland
awdheegle
awdigil
awesome
aweys
awfaarax
awgaduud
awgeed
awgeedna
awgiis
awgood
awia
awiyah
awliyada
awo
awood
awooda
awoodaa
awoodaan
awoodaha
awooday
awoodda
awooddeeda
awooddii
awooddiisa
awooddooda
awoodeed
awoodeeda
awoodeedu
awoodeen
awoodeestay
awoodi
awoodii
awoodiisa
awoodin
awoodna
awoodno
awoodo
awoodood
awoodooda
awoow
awoowaha
awoowayaasha
awoowayaashii
awoowe
awoowgii
awoowgiis
awow
awowgii
awowgiis
awqaafta
awr
awrtable
aws
awsaciid
awstaria
awstriya
awwal
ax
axaaddiis
axaaddiista
axaadiis
axaadiista
axad
axadda
axamed
axdi
axdiga
axdigii
axis
axkaamta
axmad
axmed
axsaab
axum
axzaab
ay
aya
ayaa
ayaaba
ayaabay
ayaad
ayaan
ayaana
ayaanan
ayaanay
ayaanle
ayaannu
ayaanu
ayaat
ayaay
ayada
ayadna
ayadoo
ayadoon
ayadu
ayaga
ayagana
ayagoo
ayagu
ayaguna
ayah
ayaka
ayal
ayan
ayana
ayasan
ayat
ayax
ayay
ayayna
ayaynu
aybeeriya
ayda
aydhiska
ayee
ayeena
ayeey
ayeeyna
ayeeyo
ayesha
ayey
ayeyna
aygii
ayku
ayman
aymara
ayn
ayna
aynaan
aynan
aynnu
aynu
ayo
ayoo
ayris
ayrland
aysan
ayslaan
ayu
ayub
ayuu
ayuub
ayuubi
ayuubiyiinta
ayuun
ayuuna
ayyal
az
azalea
azam
azania
azc
azerbaijan
azerbaijani
azhar
azhari
azi
azic
aziz
aztec
aztecs
azwat
azərbaycan
b
ba
baa
baab
baaba
baabaa
baabba
baabbi
baabi
baabili
baabiloon
baabiyloon
baabiylooniya
baabtiisay
baabuloon
baabuur
baabuurka
baabuurkii
baabuurta
baabwa
baad
baadad
baadari
baadca
baadda
baadha
baadhay
baadhayaasha
baadhe
baadhi
baadhis
baadhista
baadhitaan
baadhitaanka
baadhitaano
baadho
baadi
baadiya
baadiyaha
baadiye
baadiyo
baadka
baafo
baahan
baahanahay
baahantahay
baahanyahay
baahanyahey
baahanyihiin
baahay
baahda
baahdaan
baahday
baahdo
baahi
baahida
baahidii
baahidooda
baahin
baahinta
baahisay
baahiyaha
baahiyay
baahiyo
baahna
baahnaa
baahnayn
baahneyn
baahsan
baajin
baajiso
baajiyo
baajuuniga
baakistaan
baal
baalade
baalal
baalasha
baalcad
baale
baali
baalibyoon
baalooto
baan
baana
baane
baanka
baantuu
baantuuga
baanu
baaq
baaqa
baaqan
baaqay
baaqayaa
baaqday
baaqi
baaqii
baar
baaraa
baaraan
baaraha
baarar
baaray
baarayaal
baarayaasha
baardheere
baare
baargaal
baari
baariis
baaris
baarista
baaritaan
baaritaanada
baaritaanka
baaritaanno
baaritaano
baariyaam
baarka
baarlamaan
baarlamaani
baarlamaaniga
baarlamaanka
baarlamaankana
baarlamaankii
baarlamaanku
baarlamanka
baarliin
baarmagoog
baaro
baarri
baarto
baaruud
baas
baasaboor
baasaboorka
baasha
baashaa
baashaal
baashaalayo
baashe
baashi
baasifig
baasifiga
baasifigga
baasifik
baaskiil
baaskiiladaha
baaskiilka
baaskiillada
baastada
baasto
baasuuke
baaxad
baaxada
baaxadda
baaxadeedu
baaxadiisu
baay
baayac
baayacmushtar
baayooloji
baaz
baazigar
bab
baba
babaay
babaayga
babuur
babuurka
baby
babylon
bac
bacaad
bacaadka
bacad
bacadlayaal
bacadle
bacaha
bacariminta
bacda
bacdi
bachchan
bachelor
back
backed
background
backhoe
bacriminta
bacrin
bad
bada
badaan
badacas
badaha
badal
badalay
badali
badalka
badalo
badan
badana
badanaa
badanaaba
badanaana
badanba
badane
badani
badanina
badanka
badankiisu
badankitaabka
badankood
badankooda
badankoodu
badankooduna
badanna
badantahay
badanyahay
badanyihiin
badar
badashaa
badashay
badasho
badatay
badato
baday
badbaada
badbaadaan
badbaadada
badbaaday
badbaadi
badbaadin
badbaadinta
badbaadiya
badbaadiyaan
badbaadiyay
badbaadiyey
badbaadiyo
badbaado
badda
baddaha
baddan
baddca
baddii
baddu
badeecad
badeecada
badeecadaha
badeecado
badeeco
badeecooyin
badeecooyinka
badeed
badeeda
badeedda
badeedka
badeednimada
badeel
baden
bader
badertii
badger
badh
badhaadhe
badhamada
badhan
badhanka
badhano
badhasaab
badhasaabka
badhasaabkii
badhax
badhe
badheedh
badheha
badhka
badhkii
badhtamaha
badhtamihii
badhtanka
badhtankeeda
badi
badiba
badin
badisay
badiya
badiyaa
badiyay
badiyo
badka
badmaaxiinta
badmareen
badmareenada
badmareenka
badminton
badna
badnaa
badnaan
badnaana
badnaanta
badnaantooda
badnaayeen
badnayd
badnayn
badneyd
badneyn
badni
bado
badr
badraan
badu
badwaynta
badweyn
badweynta
badweyntani
bae
baek
baekhyun
baeksang
bafta
bag
bagan
bagdaad
baghdad
bah
baha
bahabar
bahadhamal
bahal
bahalada
bahalka
bahalnimo
bahalo
bahamas
bahan
baharsame
bahasa
bahay
bahaysigii
bahda
bahgeri
bahia
bahir
bahmajeelo
baho
bahoobay
bahoobeen
bahood
bahowdey
bahrain
bahri
bahsanbuur
bahweynta
baik
baikonur
bailly
baja
bajuni
bakaal
bakaaraha
bakar
bakayle
baker
bakhaaro
bakhayl
bakhtiiye
bakhtiiyeyaasha
baki
bakistaan
bakistan
bakool
bakr
bakteeriya
bakteeriyada
bakteriya
bakteriyada
baku
bal
balaa
balaadhan
balaadhatay
balaadhinta
balaadhiyay
balaaran
balaaratay
balaariyay
balaarsiga
balaartay
balaasma
balaayiin
balaayo
balac
balaca
balad
baladhan
baladiyaam
baladwayne
baladweyn
baladweyne
balaloo
balan
balanbaalis
balanbal
balanbale
balanqaad
balanqaaday
balatiiniyaam
balatiniyaam
balau
balbiis
balcad
baldau
baldiiqa
baldwin
baledxawo
balgaraad
bali
balidhiig
baligubadle
balinese
balkan
balkans
ball
ballaadhan
ballaadhnaa
ballaaran
ballaarin
ballaarinta
ballaarisay
ballaariyay
ballaariyey
ballaarnaa
ballac
ballad
ballan
ballanqaaday
ballanqaadka
balli
balliga
ballistic
balliyada
ballon
balloon
balochistan
baloogga
balqaan
balqiisa
balse
baltic
baltimore
baluug
balwad
balwada
balwadda
balwo
balıkesir
bam
bamako
bambeelmada
bambeelmadu
bambeelmo
bambi
bambooyinka
bamka
ban
banaa
banaadir
banaadiriga
banaan
banaana
banaanaa
banaani
banaanida
banaanka
banadir
banama
banan
banana
band
banda
bandar
bandha
bandhig
bandhiga
bandhigaa
bandhigaan
bandhigaha
bandhigay
bandhigaya
bandhigayaa
bandhigayo
bandhigeeda
bandhigeen
bandhigey
bandhigga
bandhigi
bandhigid
bandhigidda
bandhigin
bandhigo
bandhigtaa
bandhigtay
bandhigto
bandhigu
bandhigyada
bandhigyo
bandiiradley
bandow
bandowga
baneeyay
bang
bangaladesh
bangaladhesh
bangalore
bangi
bangiga
bangiyada
bangiyo
bangkok
bangladesh
bangladeshi
bangladhesh
bangui
bani
banii
banjar
bank
banka
banki
bankiga
bankiyada
banks
banna
bannaan
bannaanayn
bannaani
bannaanida
bannaanidii
bannaanka
banner
banooni
banque
banteay
banten
bantoid
bantu
bantus
banu
banuu
baptist
baqal
baqara
baqay
baqaya
baqayeen
baqdaad
baqdin
baqi
baqiic
baqo
baqrah
bar
bara
baraa
baraag
baraale
baraan
baraarug
baraaruga
baraarugay
baraarujinta
baraasiil
baraawe
barack
baradhada
baradho
baraf
barafka
barafku
baragaha
baraha
barakaat
barakacay
barakacayaasha
barakada
barakaysan
barakee
barakeeyay
barakeeyo
barakeysan
barakicisay
barako
barakooyinka
baramiid
baran
baranay
baranayay
baranayey
baranayo
baranaysay
barandhada
barandhaha
barandho
barano
barar
bararka
baras
barashada
barashaddiisii
barashadiisa
barashadiisii
barasho
barasiil
barat
baratay
barato
barawe
baray
barayaal
barayeen
barayo
barbaar
barbaaray
barbaarey
barbaarin
barbaarinta
barbaariyaha
barbaariyay
barbaariyo
barbaartay
barbados
barbar
barbara
barbardhigo
barber
barbera
barboosa
barbuda
barcelona
barde
bardera
bardhere
bare
bareer
bargaan
bari
barid
barida
bariday
bariga
barigana
bariidin
bariidka
bariire
bariis
bariiska
bariisku
barin
barina
barisan
barista
barka
barkad
barkada
barkadaha
barkadda
barkado
barker
barkhad
barkhadle
barkii
barlamaan
barlamaanka
barlamanka
barley
barliin
barmuuda
barnaamij
barnaamijka
barnaamijkan
barnaamijkeedii
barnaamijkii
barnaamijku
barnaamijyada
barnaamijyadooda
barnaamijyo
barneen
baro
baron
barood
barqo
barrande
barre
barrelka
barri
barriga
barrle
barrleka
barrles
barrlka
barro
barrow
barsane
barshada
barta
bartaa
bartaan
bartamaha
bartamihii
bartan
bartanka
bartay
barteeda
barteen
bartey
barthe
bartii
bartilmaameed
bartilmaameedka
bartilmaameedsaday
bartilmaameedsadeen
bartilmaameedyada
bartire
bartleby
barto
barunay
baruur
baruurta
barwaani
barwaaqa
barwaaqada
barwaaqo
barxad
barxada
barxadaha
barxadda
baryaan
baryada
baryay
baryayaa
baryaynaa
baryey
barygaza
baryi
baryid
baryin
baryo
bas
basa
basaasiiri
basal
basali
basaliga
basas
basasha
basaska
basbaas
basbaaska
base
baseball
based
basel
bashar
bashiir
bashir
bashundhara
basic
basil
basilica
basin
baska
basket
basketball
baskin
basliga
basra
bass
bassa
bassabort
bastien
basto
bastoolad
basu
bat
bataan
bataax
batak
batalaale
batam
batatas
batay
bateen
bath
batista
bato
batool
batrool
batroolka
batsman
batsmen
battambang
batters
battle
battuta
batuuta
bauxite
bavaria
bawlo
bax
baxa
baxaa
baxaan
baxaariga
baxaayo
baxad
baxan
baxar
baxay
baxaya
baxayaa
baxayaan
baxayay
baxaysa
baxaysaa
baxayso
baxda
baxdaa
baxday
baxdey
baxdo
baxeen
baxey
baxiira
baxo
baxrayn
baxreyn
baxsadaan
baxsaday
baxsadeen
baxsado
baxsan
baxsanaa
baxsha
baxshay
baxso
baxyo
bay
bayaan
bayaanka
bayax
bayazid
baybalka
bayco
baydhabo
baydka
bayer
bayern
bayla
bayle
baylin
bayoloji
bayoolaji
bayruut
bayt
baytul
baytulaxam
bazaar
bb
bbc
bboom
bc
bce
bclub
bd
be
beach
beaches
bean
beans
bear
beard
beast
beat
beatles
beatrice
beautiful
beauty
became
because
beckenbauer
become
becomes
becoming
bed
bedbaadisay
beddel
beddelaan
beddelanaya
beddelay
beddelaya
beddeleen
beddeli
beddelidda
beddelin
beddelka
beddelkeeda
beddelo
beddeshay
beddesho
bedeka
bedel
bedela
bedelaan
bedelay
bedelayo
bedeleen
bedeley
bedeli
bedelin
bedelka
bedelkeeda
bedelo
beden
beder
bedeshaa
bedeshay
bedka
bedkeedu
bedr
bee
beec
beed
beef
beeg
beegan
beegantahay
beegantay
beegnaa
beegnayd
beegsaday
beegsanayo
beel
beela
beelaha
beelahaasi
beeldaajaha
beeldaaje
beeleed
beeleedyo
beelihii
beelka
beelo
beelood
beelwaynta
beelweeynta
beelweyn
beelweynta
been
beenaale
beenisay
beeniyana
beeniyay
beeniyeen
beeniyey
beenta
beer
beera
beeraa
beeraan
beeraha
beerahooda
beeralay
beeralayda
beeralaydu
beeraleey
beeraley
beeraleyda
beeran
beerashada
beerasho
beeray
beereed
beereedka
beeri
beerida
beerin
beerista
beerka
beero
beeroleey
beeroley
beerood
beersheba
beershiya
beerta
beertaan
beertay
beertii
beerto
beertu
beeruhu
beesha
beeshaan
beeshan
beeshani
beeshii
beeshiisa
beeshu
beethoven
beeton
beey
beeyada
beeyo
before
began
begedi
begin
beginning
begins
behind
bei
beijing
being
beirut
beitar
beja
bek
beko
bel
bela
belaha
belarus
bele
beled
beledwayne
beledweyne
beleza
belfast
belgian
belgium
belgrade
belief
believe
belise
belize
beljamka
beljim
beljimka
bell
bella
belle
belo
below
belt
beluga
belzoni
ben
benaadir
benadir
bender
bene
benefits
benfica
bengal
bengali
bengaluru
benghazi
bengkulu
beni
benin
benishangul
benito
benjamin
bennett
benson
bento
benue
benz
ber
berber
berbera
berberiga
berbers
berdaale
berenice
beretta
bergen
berhane
beri
beribiyood
berigaa
berigii
beriiliyaam
berito
berkeley
berlin
bermuda
bernard
bernardino
bernhard
berri
berriga
berry
berta
beru
beryahan
beryo
bes
besbaaska
besha
bessarabiya
besseau
best
besto
bestplaces
bet
beta
betawi
better
betty
between
beverly
bexeen
bey
beyd
beydariin
beydariinta
beydariintu
beydhabo
beydka
beyla
beyle
beymuud
beyog
beyonce
beyond
beyra
beyruut
beytaraafka
beytka
beytul
bezoz
bf
bff
bg
bh
bhansali
bharat
bharuch
bhatt
bhopal
bhumibol
bhutan
bi
bia
bianca
bible
biblical
bibliography
biciid
biciide
biciidka
bid
bidaar
bidaarta
bidacda
biday
bidcada
bidco
bidde
bide
bideen
biden
bidix
bidixda
bieber
big
bigg
biggest
bih
biimaal
biir
biira
biiraan
biiray
biiraya
biireen
biirey
biiri
biirin
biirka
biiro
biirtay
biirto
biixi
bikini
bil
bila
bilaa
bilaabaa
bilaabaan
bilaaban
bilaabanaya
bilaabanta
bilaabantaa
bilaabantay
bilaabantey
bilaabanto
bilaabashada
bilaabata
bilaabataa
bilaabatay
bilaabato
bilaabay
bilaabaya
bilaabayaa
bilaabayo
bilaabeen
bilaabey
bilaabi
bilaabid
bilaabida
bilaabin
bilaabma
bilaabmaa
bilaabmaan
bilaabmay
bilaabmaya
bilaabmaysa
bilaabmeen
bilaabmey
bilaabmo
bilaabo
bilaah
bilaal
bilaalna
bilaaloow
bilaamayso
bilaash
bilaashka
bilaawday
bilaawdo
bilaawga
bilaawgiisa
bilaawo
bilab
bilabay
bilabka
bilad
bilada
bilaha
bilateral
bilaw
bilawday
bilawdo
bilawga
bilawgii
bilays
bilayska
bilbao
bilcil
bild
bildvortaro
bile
bili
bilic
bilicda
bilicdeeda
bilicsan
bilihii
bililiqada
bililiqo
biljim
bill
billaabay
billaabeen
billaabo
billabay
billad
billboard
bille
billion
billionaires
billo
billowday
billowgii
billy
bilo
bilood
biloow
biloowday
biloowgii
bilooyin
bilow
bilowday
bilowdeen
bilowdey
bilowdo
bilowga
bilowgii
bilyan
bilyanaad
bilyaneer
bilyaneerka
bin
bina
binali
binary
bing
binh
bini
biniaadamka
biniaadanka
biniin
biniktojiin
biniktojiinska
binil
binladin
bint
bintang
binti
bintu
binu
bio
biographies
biography
biology
biometric
biopassmaroc
biosphere
biqil
bir
biraambire
biraha
birbir
birbiris
bird
birds
biri
biribir
biribiri
biriizanda
biriizandiyiinta
birin
birinbir
biriq
biriqda
biritayn
biritishka
birka
birmingham
biro
biroole
birqod
birr
birta
birth
birthday
birtii
birtu
bis
bisad
bisada
bisadaha
bisadda
bisadu
bisha
bishaareeya
bishaareeyay
bishaaro
bishaas
bishan
bishani
bishii
bishiisa
bishuna
bisil
bisin
bisinka
bislaado
bislaan
bismi
bismuth
bison
bissau
bit
bitch
bitstream
bitumen
biw
biweynos
bixi
bixida
bixin
bixinaa
bixinaya
bixinayaan
bixinno
bixinta
bixisa
bixisaa
bixisay
bixiso
bixitaan
bixitaanka
bixitaankii
bixiya
bixiyaa
bixiyaan
bixiyaasha
bixiyaha
bixiyay
bixiye
bixiyeen
bixiyey
bixiyeyaasha
bixiyo
biya
biyaano
biyaanoda
biyacade
biyaha
biyaheeda
biyeeye
biyihii
biyihiisu
biyo
biyocas
biyoha
biyoka
biyokulule
biyoloji
biyood
biyoodka
biyoodyo
biyooley
biyotechnology
biyow
biyuhu
biz
bizchina
bj
bk
bl
black
blackpink
blackstone
blaise
blanc
blason
blast
blemmyes
blench
blica
blindness
bliss
block
blocker
blocks
blockta
bloemfontein
blog
blogger
blogs
blogspot
blonde
blondes
blood
bloody
bloom
bloomberg
bloomington
blu
blue
bluetooth
bluff
bluto
blvd
bm
bmatrix
bmj
bn
bnp
bo
boa
board
boarding
bob
bobcat
bocor
bocorka
boda
bodies
body
bodø
boeing
boeung
bog
boga
bogaadiyay
bogag
bogaga
bogagga
bogan
bogga
boggag
boggaga
boggan
boggeeda
bogota
bogsasho
bogsiin
bohemia
boho
bohol
bohr
bohriyaam
bokeo
boko
boland
bold
bole
boli
boliifia
boliiska
bolivarian
bolivia
bollywood
bollywoodhungama
bollywoodka
bologna
boloniyaam
bomb
bombay
bomber
bombing
bombings
bon
bona
bonaire
bonan
bonaparte
bone
bong
bongo
boob
boobay
boobe
boobka
boobkii
booc
boocame
boocle
bood
booday
boodh
boodhadhka
boodhari
boodhka
boodo
book
bookh
books
booliis
booliiska
booliisku
boolis
booliska
boolo
boom
boon
boondheere
booqan
booqanaya
booqashada
booqasho
booqatay
booqda
booqdaan
booqday
booqdo
booqo
boorama
boorame
boore
boorinta
boorisay
booriyay
booriyeen
boorka
booron
boorsada
boortaqiiska
boos
boosaaso
boosaha
boosaska
booska
booskii
booskiisa
boosniya
boost
boostada
boosteejo
boosto
boot
bootaan
booyad
boqol
boqolaad
boqolaal
boqolka
boqolkiba
boqolkii
boqolkiiba
boqollaal
boqoolid
boqor
boqorad
boqorada
boqoradda
boqoraddii
boqoradii
boqorka
boqorkaas
boqorkii
boqorkooda
boqorkoodii
boqorku
boqornimada
boqornimadii
boqornimadiisa
boqorow
boqorrada
boqorradii
boqorro
boqortooyada
boqortooyadaan
boqortooyadaasi
boqortooyadan
boqortooyadani
boqortooyadii
boqortooyadiisa
boqortooyadu
boqortooyda
boqortooyo
boqortooyooyin
boqortooyooyinka
boqortooyooyinkii
boqortoyada
boqortoyadii
boqray
bora
borama
bordeaux
borden
border
borders
boris
born
borneo
borofisar
boromiin
boron
borotiin
borotiinka
borotoobalaasim
borotoon
borotoonada
borotoonis
borotoonka
borotoono
borrow
bort
bortaqiis
bortaqiiska
bortland
bortuqaal
bortuqiis
bortuqiiska
bortuqiisku
borussia
bos
bosaaso
bosaso
bosna
bosnia
bosnian
bosniya
bosporus
boss
bossaaso
boston
boswellia
bot
botany
botashiyaam
both
botka
botswana
bottle
bottom
bouillon
boulevard
boulogne
boundaries
boundary
bourges
bourgoin
boutros
bovino
bow
bowie
bowl
bowler
bowlers
box
boxing
boxo
boxoffice
boxofficeindia
boy
boyfriend
boyle
boys
bp
bq
br
bra
brabant
brahim
brahma
braille
brain
branch
brand
brandenburg
brandon
brands
brandt
brasi
brasil
bratislava
bratislavia
brave
brazil
brazilian
brazzaville
bread
break
breakers
breakfast
breaking
breaks
breakthrough
breasted
breathing
bren
brenda
brian
brick
brics
bridal
bridge
bridgebuilder
brief
brigade
brigades
bright
brighton
bring
brings
brisbane
bristol
brit
britain
britan
britannica
british
britishka
britney
brittany
broad
broadcasting
broken
bronze
bronzeka
brooklyn
brooks
bros
brother
brothers
brotista
brotistaha
brought
brown
browne
browser
bru
bruce
brunei
bruno
brunswick
brussel
brussels
brutus
bryan
bs
bsec
bt
bts
bu
bubble
buburkii
buc
buchenwald
bucul
bud
buda
budada
budapest
budbud
buddha
buddhism
buddhist
budge
budget
budhcad
budny
budo
budunbuto
buenos
buffalo
buffaloes
bugdaan
buhari
buhoodle
build
building
buildings
built
bujumbura
buka
bukaa
bukaan
bukaanka
bukeeni
bukhaari
bulaale
bulale
bulashada
bulawayo
bulaxaar
bulgaariya
bulgaria
bulgarian
bulhar
bull
bullaxaar
bulletin
bullock
bulls
bulsha
bulshada
bulshadda
bulshadeed
bulshadeeda
bulshadu
bulsheed
bulsho
bulshooyin
bulshooyinka
bulshooyinkii
bulshoweynta
buluug
buluuga
buluugga
buluuto
bulxaar
bulxan
bum
bun
bundesliga
bunduqiya
buni
bunka
bunni
buntukha
buq
bur
buraale
buraan
buraanbur
burao
burbur
burburay
burbureen
burburin
burburinta
burburintii
burburisay
burburiyaa
burburiyaan
burburiyay
burburiyeen
burburiyey
burburiyo
burburka
burburkii
burburo
burbursan
burburtay
burcad
burco
burdhubo
bureau
bureaus
burger
burhaan
burhakaba
burin
burinta
buriram
buriyay
buriyo
burj
burjikada
burjiko
burka
burkii
burkina
burkinabe
burma
burmese
burnham
burning
buro
buroa
burrard
bursa
bursaalax
bursaspor
burtaqiiska
burtay
burte
burtinle
burton
burtuqaal
burtuqiis
buruc
burundi
burush
bus
busan
bush
business
businessman
busiweek
buske
buskerud
buskud
buskudka
busra
bust
but
butaan
butana
butane
buti
butida
butidu
butler
buu
buudiga
buug
buuga
buugaag
buugaagta
buugaagtii
buugag
buugagga
buugaggan
buugan
buugga
buuggan
buuggii
buuggiisa
buugiisa
buugta
buuhoodle
buula
buulaburde
buulada
buule
buulo
buuloburde
buuloburte
buulomareer
buun
buuna
buundada
buundo
buundooyin
buundooyinka
buuni
buunka
buuq
buur
buuraha
buuralay
buuralayda
buuraley
buuraleyda
buuran
buurdhuubo
buurhakaba
buuri
buuriga
buurigu
buuro
buuroley
buuroleyda
buurood
buursa
buurta
buurtan
buurtii
buurtinle
buuruhu
buurweyn
buux
buuxa
buuxaan
buuxda
buuxdo
buuxin
buuxinaya
buuxinta
buuxisay
buuxiya
buuxiyaan
buuxiyay
buuxiyo
buuxo
buweehiyiinta
buzz
bw
bx
bxx
by
byblos
byeok
byun
byzantine
byzantium
c
ca
caa
caabbinta
caabin
caabinta
caabuda
caabudaa
caabudaadda
caabudaan
caabudi
caabudid
caabudno
caabudo
caabudwaaq
caabuqa
caad
caadada
caadadan
caadi
caadiga
caadil
caadiyan
caadka
caadleey
caadley
caado
caadooyin
caadooyinka
caadoyin
caafi
caafimaad
caafimaadka
caafimaadkaaga
caafimaadkeeda
caafimad
caag
caagane
caaisha
caajis
caajiska
caalami
caalamiga
caalamiya
caalamka
caalamkaba
caalamku
caalim
caalimka
caalin
caalmaka
caalmka
caam
caamir
caamul
caan
caana
caanaha
caanbaxay
caanbaxday
caanihii
caanka
caanku
caannimada
caannimadeeda
caano
caanood
caansan
caansana
caansanaa
caantahay
caanuhu
caaqil
caaqilka
caarada
caaro
caas
caasha
caashaq
caashaqa
caasho
caasi
caasimad
caasimada
caasimadaha
caasimadan
caasimadani
caasimadda
caasimaddeeda
caasimaddeedu
caasimaddu
caasimadeeda
caasimadii
caasimadiisa
caasimadood
caasimadooda
caasimadu
caasiso
caasiyay
caasiyo
caateeye
caato
caawa
caawimaad
caawimada
caawimo
caawin
caawinaad
caawinin
caawinta
caawisaa
caawisay
caawiso
caawiya
caawiyaa
caawiyaan
caawiyay
caawiye
caawiyey
caawiyo
caayisha
cab
caba
cabaa
cabaad
cabaan
cabaas
cabaasiga
cabaasiya
cabaasiyiinta
cabaayo
cabane
cabay
cabaya
cabba
cabbaas
cabbaasi
cabbage
cabbid
cabbir
cabbiraadda
cabbirka
cabbiro
cabbitaannada
cabbo
cabd
cabdala
cabdale
cabdalla
cabdalle
cabdi
cabdicasiis
cabdicaziiz
cabdikaafi
cabdikariim
cabdikariin
cabdil
cabdilaahi
cabdilahi
cabdile
cabdillaahi
cabdillahi
cabdille
cabdilmalik
cabdimajiid
cabdimalik
cabdimanaaf
cabdimudhalib
cabdinaasir
cabdinasir
cabdinuur
cabdiqaadir
cabdiqaasim
cabdiqadir
cabdiqani
cabdirashid
cabdirashiid
cabdiraxmaan
cabdiraxman
cabdirisaaq
cabdirixmaan
cabdisalaam
cabdisalaan
cabdishakuur
cabdiwali
cabdiweli
cabdu
cabdul
cabdulaahi
cabdulahi
cabdulcasiis
cabdulcaziiz
cabdule
cabdullaahi
cabdullah
cabdullahi
cabdulle
cabdulmajiid
cabdulmalik
cabdulqaadir
cabduqaadir
cabduraxmaan
cabi
cabid
cabidda
cabin
cabinet
cabir
cabiraa
cabiray
cabiri
cabirka
cabirkiisu
cabiro
cabista
cabitaan
cabitaanada
cabitaanka
cabitaano
cable
cabo
cabsada
cabsaday
cabsado
cabsan
cabsanaya
cabsanayaa
cabsanayn
cabsi
cabsida
cabudhiyaan
caburin
caburinta
cad
cada
cadaa
cadaab
cadaabi
cadaabin
cadaabka
cadaabo
cadaabta
cadaad
cadaadis
cadaadiska
cadaadiskii
cadaadiya
cadaadiyo
cadaadley
cadaado
cadaalad
cadaalada
cadaaladda
cadaan
cadaani
cadaanka
cadaatay
cadaawad
cadaawada
cadaawe
cadakibir
cadal
cadale
cadami
cadan
cadar
cadarka
cadaw
cadawe
cadawga
caday
cadaymaha
cadaymo
cadayn
cadaynaya
cadaynaysa
cadcad
cadceed
cadceeda
cadceedda
cadceedu
cadda
caddaa
caddaalad
caddaalada
caddaaladda
caddaan
caddaanka
caddaatay
caddahay
caddaymo
caddayn
caddaynaysaa
caddaynta
cadde
caddeeyaan
caddeeyay
caddeeyeen
caddeeyey
caddeeyo
caddeyn
caddo
caddoow
caddow
cade
cadeey
cadeeyay
cadeeyeen
cadeymo
cadeysay
cadhada
cadhadiisa
cadho
cadhoodeen
cadi
cadka
cadmeed
cadnaan
cadnaaniyiin
cado
cadoow
cadow
cadowga
cadowgiisa
caesar
caf
cafaan
cafar
cafari
cafariga
cafe
caffaan
caffan
caffe
cafha
cafiif
cafimaad
cafimaadka
cafis
cafiyay
cag
caga
cagaar
cagaaran
cagaare
cagaarka
cagaarshow
cagaarshowga
cagaf
cagaha
cagajuglaynta
cagarshowga
cagis
cagliari
cagood
cagta
cagtiisa
cahdi
caicos
cairo
caisha
caishah
cajaa
cajal
cajalad
cajaladaha
cajalado
cajam
cajiib
cajiibka
cake
cal
cala
calaa
calaamad
calaamada
calaamadaha
calaamadaynta
calaamadda
calaamadeeyay
calaamadeeyo
calaamadihii
calaamadisay
calaamadiyay
calaamadiyey
calaamado
calaamaduhu
calaamka
calaancasha
calaaudiin
calabria
calaf
calamada
calan
calanka
calankii
calanku
calanle
calas
calasow
calawiyiinta
calayhi
calcio
calcium
calculated
calculator
calcutta
caledonia
caleema
caleemaha
caleemasaarka
caleemihiisa
caleemo
caleemood
caleemuhu
caleen
caleenta
caleentiisa
caleentu
calendar
calender
calgary
cali
caliboss
california
caliphate
calitiriig
caliyow
caliyu
call
callaama
calle
called
calling
callisto
calls
calool
caloosha
calooshood
calooshu
caluula
calvert
calvin
camaar
camaara
camal
camalka
camalkeedii
camalladiisa
camar
cambaareyn
cambaha
cambe
cambodia
cambodian
cambridge
cambuulada
came
camel
camera
cameron
cameroon
camiran
camiray
cammaan
cammaar
camp
campaign
campbell
campora
camps
campus
camr
camraan
camram
camuud
camuuriya
camwaas
can
cana
canaan
canaantay
canab
canabka
canabku
canada
canadian
canal
cananaas
cananiska
canary
canbaha
canberra
cancer
candhuuf
candhuufta
candice
canfar
canfarta
canhu
canis
canjeerada
canjeero
cannes
cano
canon
cansanaa
canshuur
canshuuraha
canshuurta
canton
cantonese
canug
canuuniga
cao
cap
capable
capacity
cape
capita
capital
capitals
captain
captured
caqaba
caqabad
caqabada
caqabadaha
caqabado
caqabadood
caqiidada
caqiidadiisa
caqiidadooda
caqiido
caqiidooyinka
caqiil
caqli
caqliga
caqligu
car
cara
caraale
caraay
carab
caraba
carabaha
carabi
carabiga
carabigu
carabiya
carabiyaumm
carabka
carabku
carabta
carabtii
carabtu
caracas
carada
caraf
carafaat
carafo
cararaan
cararay
cararaya
carareen
carays
carbeed
carbiska
carbistey
carbon
card
cardi
cardiff
cardigan
cards
care
career
carfinta
cargo
cargoka
caribbean
cariga
cariif
caris
cariska
carjow
carl
carla
carlo
carlos
carmali
carmo
carnival
caro
carolina
caroline
caroo
carooday
carpathian
carpenter
carqalad
carra
carrab
carrabey
carrabka
carrada
carrefour
carrier
carriga
carro
carruur
carruurnimada
carruurta
carruurtaada
carruurteenna
carruurtiisa
carruurtiisu
carruurtooda
carruurtu
carshiga
carson
carta
cartan
carte
carter
carthage
caruuj
caruur
caruurnimada
caruurnimo
caruurta
caruurteeda
caruurtii
caruurtiisa
caruurtooda
carwo
carwooyinka
cas
casa
casaan
casaani
casaanka
casablanca
casamance
casar
casayr
case
cash
cashada
cashadu
cashar
cashara
casharada
casharka
casharkii
casharo
casheeyaan
cashir
casho
cashuur
cashuuraha
cashuurta
casiis
casilay
casilo
casimada
casino
casio
casir
casisho
casoowe
casoyiga
caspian
caspur
casqalaan
casri
casriga
casrigan
casrigii
casrisan
casriyeeyay
casriyeyn
casriyeynta
cassanelli
cassano
cassini
cassius
cast
castaro
castello
castile
castle
castro
casuumaad
casuumay
casuus
cat
catalan
catalog
catalogue
catalogueoflife
catalonia
catania
cataract
cate
category
categoryid
cathedral
catherine
catholic
catus
caucasus
cause
causes
cave
caves
cawaale
cawaam
cawaaqib
cawad
cawed
cawf
cawil
cawke
cawl
cawlan
cawlyahan
cawrada
cawramale
caws
cawska
cay
cayaar
cayaaraha
cayaareed
cayaarka
cayaaro
cayaaryahan
cayayaan
cayayaanka
cayayaanku
caydh
caydiid
cayiman
cayimay
cayimin
cayinnayn
caylaan
cayman
caymis
caymiska
cayn
caynaan
caynaanshe
caynaba
caynabo
caynkaas
cayr
cayriin
cayrow
cb
cbc
cbi
cbn
cbs
cc
ccd
cd
cdn
cdot
ce
cecafa
cecilia
cedar
cee
ceeb
ceeden
ceegaag
ceegaagta
ceejin
ceel
ceelaayo
ceelafweyn
ceelal
ceelasha
ceelashii
ceelbarde
ceelbaxay
ceelbiyood
ceelbuur
ceelcadde
ceelcade
ceelcali
ceeldaraad
ceeldhaab
ceeldheer
ceeldheere
ceele
ceelgaras
ceelhuur
ceelka
ceelkii
ceelmacaan
ceelqooxle
ceelwaaq
ceerigaabo
ceerigabo
ceeriin
ceeryaamo
ceeryaan
ceesaan
ceeyriin
cefet
cel
celcelin
celcelis
celceliska
celceliyaan
celceliyay
cele
celebration
celebrities
celebrity
celi
celin
celinayo
celinta
celisay
celiska
celiso
celiya
celiyaa
celiyaan
celiyay
celiyeen
celiyey
celiyo
cell
celli
celsius
celtic
cement
cemetery
cen
census
cent
centaurus
centennial
center
centered
central
centrale
centre
centro
centrum
centuries
century
ceo
ceremony
ceres
certa
certain
ces
ceshaday
ceshadeen
ceshado
ceshan
cet
cev
ceydiid
ceymiska
ceyn
ceynu
ceyriin
ceyriyay
cf
cfa
cfbt
cff
cfm
cgm
cgtn
ch
cha
chachoengsao
chad
chadian
chaeryeong
chairman
chalcogen
chalcogens
challenge
challengers
challenges
chalte
cham
chamber
chambers
champasak
champion
champions
championship
chan
chance
chanel
chang
change
changed
changes
channel
chanthaburi
chao
chapel
chapels
chaplin
chapter
characteristics
characters
charcoal
charge
charlemagne
charleroi
charles
charli
charlie
charlotte
chart
charter
chartered
chavez
che
check
checklist
cheese
chef
cheif
chelsea
chelyabinsk
chemical
chemistry
chemnitz
chemnitzer
chen
cheng
chennai
cher
cherries
cherry
chery
chest
chewa
cheyenne
chhnang
chi
chiang
chicago
chichewa
chickpea
chief
chiefs
child
children
childrens
chile
chili
china
chinadaily
chinese
chip
chiri
chittagong
chloe
cho
choi
choking
chopra
chorus
chosun
chou
chris
christ
christensen
christian
christianity
christians
christina
christine
christmas
christophe
christopher
chrome
chronicle
chronological
chronology
chu
chuck
chun
chung
church
churchill
churchwell
ci
cia
cibaadada
cibaadaysan
cibaadeysanaya
cibaado
cibaar
cibraani
cibraaniga
cicer
cid
cida
cidaan
cidaanka
cidamada
cidanka
cidda
ciddanka
ciddi
ciddii
ciddiyaha
cidhif
cidhifka
cidhifyada
cidhiidhi
cidhiidhiga
cidi
cidii
cidina
cidiyaha
cidla
cidlada
cidlo
cidna
cidnaba
cigaal
cigal
cigale
cigalle
cige
ciid
ciida
ciidagale
ciidaha
ciidamada
ciidamadaas
ciidamadan
ciidamadda
ciidamadii
ciidamadiisa
ciidamadu
ciidamda
ciidamdii
ciidammada
ciidammadii
ciidammo
ciidamo
ciidan
ciidanka
ciidankaan
ciidankaas
ciidankaasi
ciidankeena
ciidankii
ciidankiis
ciidankiisa
ciidankiisii
ciidankooda
ciidanku
ciidda
ciidmada
ciidul
ciil
ciimadii
ciin
ciire
ciisa
ciisaha
ciise
ciisekitaabka
ciisuhu
cilaaqaad
cilaaqaadka
cilad
cilmi
cilmibaadhis
cilmibaadhista
cilmibaarayaal
cilmibaaris
cilmiga
cilmigan
cilmigii
cilmigiisa
cilmigu
cilmiyaysan
cilmiyeed
cilmiyeysan
cilmu
cimiga
cimilada
cimiladda
cimiladeeda
cimiladeeduna
cimiladu
cimilo
cimraan
cimraanmiryama
cimran
cimri
cimriga
cimrigiisa
cimrigiisu
cinderella
cine
cinema
cinjida
cinwaan
cinwaanada
cinwaanka
cinwaankeedu
cinwaankiisu
cinwaanno
ciqaab
ciqaabay
ciqaabeed
ciqaabo
ciqaabta
cir
ciraaq
ciraaqi
circa
circle
circumference
cirfiid
cirfiidka
cirib
ciribta
ciribtiro
ciridka
cirif
cirifka
cirifyada
ciriiri
ciriiriga
cirjeex
cirjeexcirjeex
cirka
cirkeedu
cirkiisu
cirku
ciroole
cirro
cis
cisaleey
cisbitaal
cise
cishaha
cishe
cishihii
cisho
cismaan
cismaaniya
cismaaniyiinta
cismaaniyiintu
cisman
citation
cite
cited
cities
citizen
citizens
citizenship
citoyens
citrus
city
civic
civil
civilization
civilizations
ciwaan
ciwaanka
ciwaano
ciyaal
ciyaalka
ciyaar
ciyaara
ciyaaraa
ciyaaraan
ciyaaraha
ciyaaray
ciyaaraya
ciyaarayaan
ciyaarayay
ciyaard
ciyaareed
ciyaareedka
ciyaareedkan
ciyaareedkii
ciyaareedkiisii
ciyaareen
ciyaareysa
ciyaari
ciyaarihii
ciyaarista
ciyaariyahan
ciyaarka
ciyaaro
ciyaarta
ciyaartaa
ciyaartaan
ciyaartaas
ciyaartay
ciyaartii
ciyaarto
ciyaartooy
ciyaartooyda
ciyaartoy
ciyaartoyda
ciyaartoydii
ciyaartoydu
ciyaartoyga
ciyaartu
ciyaaryahan
ciyaaryahanka
ciyaaryahankii
ciyaaryahannada
ciyaaryahanno
ciyaaryahano
ciye
cizudiin
cj
ck
cken
cl
claahi
claflin
claim
claims
claire
clan
clans
clanship
clara
clark
clash
class
classic
classical
classification
claude
clay
clear
cleopatra
clermont
cleveland
climate
climb
clinton
clio
clip
clockwise
clone
close
closed
closer
closeup
clothing
cloud
clouds
clover
club
clueless
clyde
cm
cma
cmaca
cms
cn
cnbc
cnn
co
coach
coal
coast
coastal
coastline
coat
coca
coco
coconut
cocos
cod
codad
codadka
codadkii
codaynta
codbixin
codbixinta
codbixiyaasha
code
codeeyaan
codeeyay
codeeyeen
codeeyo
codes
codeynta
codka
codkan
codkani
codkeeda
codkii
codkiisa
codkooda
codsadaan
codsaday
codsadeen
codsado
codsaduhu
codsan
codsanaya
codsanayaa
codsanayso
codsasho
codsatay
codsatey
codsi
codsiga
codsigii
codsiyada
codso
codweyne
cody
coffee
cohen
coins
col
cola
colaad
colaada
colaadaha
colaadda
colaaddu
colaadeed
colaadihii
colaado
cold
cole
coleman
colin
colkii
collapse
collar
collected
collection
collective
college
collins
colo
cologne
colombia
colombo
colonel
colonial
colony
color
colorado
colors
colour
colours
colow
columbia
columbus
column
columns
com
come
comeback
comedian
comedy
comes
comesa
comfort
comics
coming
commander
commended
comment
commentary
comments
commerce
commercial
commisario
commission
commissioner
commitment
commits
committee
common
commonly
commons
commonwealth
communication
communications
communist
communities
community
comorian
comoros
compact
compactflash
compagnie
companies
companions
company
comparative
compare
compared
comparison
comparisons
compendium
compensation
compilersreviewers
complete
completed
complex
composition
compound
comprehensive
computer
computerka
computers
con
conarticle
concacaf
concentration
concepcio
concern
concert
concise
concluded
concorde
concordia
concurrently
conde
conditions
conduct
confederates
confederation
confer
conference
conferred
confessions
confirm
confirmed
conflict
confucius
congo
congolese
congress
conmebol
connect
connected
connecticut
connecting
connection
connects
connor
conqor
conquered
conqueror
conquest
conrad
cons
consider
considerations
considered
consoles
constant
constantine
constantinople
constellation
constitution
construction
consulate
consultations
contact
contamination
contemporary
content
contentid
contents
contest
context
continent
continue
continued
continues
contract
contrasts
control
controversy
convention
cook
cookie
cooktown
cool
coomaad
cooper
cooperation
cooperative
coordinates
copa
copenhagen
copiopteryx
copper
coptic
copy
cordon
core
coreca
corn
cornel
cornelia
corner
coronavirus
corp
corporate
corporation
corps
correa
corridor
corruption
corsica
corsican
cosafa
cosmaniya
cosmas
cosmetics
cosmo
cosmopolitan
cosoble
cost
costa
cote
cotonou
cotton
could
couleur
council
count
countdown
counter
counties
countries
country
countryside
county
coup
coupla
couple
coupon
courage
courageous
course
court
courthouse
courts
cov
cover
covering
covers
covid
cow
cowboy
cowf
cowl
cowlaan
cowlan
cows
cowska
cowsleyda
cp
cpas
cpc
cr
crane
craniosacral
crash
crassus
crater
crawford
crazy
crd
cre
cream
create
created
creation
credentials
credit
creed
creek
creole
crest
crew
cricket
crime
crimea
crimean
criminal
crisis
cristal
cristiano
cristina
cristo
croatia
croatian
crop
cropped
cross
croswell
crotone
crowd
crown
crowning
crude
cruise
cruiser
crusader
crusaders
crush
crust
cruz
crvena
crystal
cs
csa
csd
csepel
csepelcivertanlegi
cska
csv
csw
ct
cu
cuba
cubaada
cuban
cube
cubeyd
cubeyda
cubeydilaah
cubeydilaahi
cubic
cucurbita
cudbi
cudbiga
cudud
cudur
cudurada
cudurka
cudurkaan
cudurkan
cudurkii
cudurku
cuduro
cudurrada
cuf
cufan
cufis
cufisjiidad
cufisjiidadka
cufisjiidadku
cufka
cufkiisu
cufkiisuna
cufnaanta
culaacul
culaacusha
culamada
culays
culayska
culculus
culeys
culeyska
culimaa
culimada
culimadii
culimadu
culimo
culinaris
cultivar
cultivation
cultural
culture
culuma
culumaa
culumada
culumadii
culumo
culus
culusoow
culusow
culuum
culuumta
culuunta
cumaan
cumar
cumardin
cumarna
cumarsiyaad
cumer
cumeyr
cumeys
cumrada
cun
cuna
cunaa
cunaan
cunada
cunaha
cunaqabatayn
cunaqabataynta
cunaqabateynta
cunay
cunaya
cunayo
cuncun
cuncunka
cunha
cuni
cunid
cunida
cunidda
cunin
cunista
cunitaanka
cunnada
cunnington
cunno
cunnooyinka
cunnto
cunntoka
cuno
cunsuri
cunsuriyad
cunsuriyada
cunsuriyadda
cuntaa
cuntada
cuntadii
cuntami
cunteeyo
cunto
cuntoda
cuntoka
cuntooyin
cuntooyinka
cunug
cunuggaaga
cup
cuqaal
cuqba
curac
curad
curada
curadka
curadkii
curashada
curatay
curcurka
curinta
curiyaha
curiyahaas
curiyahan
curiyay
curiyayaasha
curiyayaashan
curiye
curiyeha
curiyehan
curiyeyaal
curiyeyaasha
curiyeyaashan
curiyuhu
curran
currency
current
currently
curtis
curudka
curyaan
curyaannimo
curzon
cusbaa
cusbada
cusbitaal
cusbitaalka
cusbitaalo
cusbo
cusboonaysiin
cusboonaysiinta
cusboonaysiiyay
cusbooneysiin
cusbooneysiinta
cusbooneysiiyay
cusbooneysiiyo
cush
cushite
cushites
cushitic
cuskaday
cusla
cuslaa
cusmaan
cusmaaniya
cusmaaniyada
cusmaaniyiinta
cusman
custom
customers
customs
cusub
cusubi
cut
cutayba
cutba
cuthmaan
cuts
cutub
cutubka
cutubyada
cutubyo
cuunto
cuwaaf
cuwaafta
cuwaaftu
cv
cw
cx
cy
cyber
cycas
cycle
cyclone
cyprus
cyrene
cyril
cyrus
cz
czech
czechoslovakia
d
da
daa
daabac
daabacaa
daabacaad
daabacaada
daabacaadaha
daabacaadda
daabacaaddii
daabacadaha
daabacan
daabacay
daabacayaasha
daabacday
daabacdo
daabaco
daabici
daabicin
daabiq
daacad
daacada
daacadda
daacadnimada
daacadnimadiisa
daacadnimo
daaci
daacuun
daacuunkii
daad
daadad
daadadka
daadan
daadiyay
daadiyo
daadka
daadkii
daadmadheedh
daadsan
daaf
daafaha
daafaheeda
daafeed
daah
daaha
daahin
daahir
daahirka
daal
daalan
daalib
daalin
daalka
daallo
daalo
daamood
daan
daandaansi
daango
daanishmandiyiinta
daanka
daanta
daanyeer
daanyeerka
daaq
daaqa
daaqaan
daaqad
daaqada
daaqadaha
daaqdo
daaqi
daaqsiimeed
daaqsiimo
daaqsimeed
daaqsimeedka
daaqsin
daaqsinka
daaqsinta
daar
daariq
daariyaas
daarood
daaroodka
daaroodku
daarta
daartii
daaru
daarul
daarusalaam
daas
daashay
daatay
daauud
daawad
daawada
daawadaan
daawaday
daawadayaasha
daawadayaashu
daawado
daawan
daawanayay
daawashada
daawasho
daawayn
daawaynta
daawaysaa
daaweeyaa
daaweeyo
daaweyn
daaweyne
daaweynta
daawo
daawooyin
daawooyinka
daaya
daayaa
daayaan
daayay
daayeen
daayeerka
daayey
daayo
dab
daba
dabaal
dabaaldag
dabaaldeg
dabaaldega
dabaaldegay
dabaaldego
dabaaldegyada
dabaasha
dabaasho
dabacasaha
dabacase
dabacsan
dabada
dabadeed
dabadeedna
dabadheer
dabadii
dabagal
dabagalka
dabagalo
dabajeex
dabaq
dabaqa
dabaqadda
dabaqi
dabaqo
dabaqyada
dabaqyo
dabar
dabare
dabargoynta
dabarraha
dabarre
dabayaaqada
dabayaaqadii
dabayaaqadiisa
dabayaaqadiisii
dabayl
dabaylaha
dabaylka
dabaylo
dabaysha
dabayshu
dabbaal
dabbaaldegga
dabbaasha
dabcan
dabci
dabeecad
dabeecada
dabeecadaha
dabeecadda
dabeecaddiisa
dabeecadood
dabeetana
dabeyl
dabeylaha
dabeylo
dabeysha
dabiicadda
dabiici
dabiiciga
dabinno
dabka
dabkii
dabku
dable
dabley
dabo
dabool
daboolaa
daboolaan
daboolan
daboolay
daboolaya
daboolayaa
daboolayaan
daboolayo
daboolaysaa
dabooli
daboolida
daboolka
daboolo
dabooshaa
daboosho
dabqaad
dabqaadka
dac
dacaayad
dacal
dacalada
dacaladeeda
dacar
dacawada
dacay
daciif
daciifka
daciifnimo
daciiftay
dacwad
dacwada
dacwadaha
dacwadda
dacwo
dad
dada
dadaal
dadaala
dadaalaan
dadaalada
dadaalay
dadaali
dadaalka
dadaalkii
dadaallada
dadaallo
dadaalno
dadaalo
dadaka
dadbadan
dadban
dadiisu
dadk
dadka
dadkaa
dadkaan
dadkaas
dadkaasi
dadkaba
dadkan
dadkana
dadkani
dadkeeda
dadkeedu
dadkeena
dadki
dadkii
dadkiina
dadkiisa
dadkiisii
dadkiisu
dadkoo
dadkooda
dadku
dadkuna
dadnimo
dadow
dadwaynaha
dadweynaha
dadweyne
dadweynihii
dadweynuhu
dadyawga
dadyoow
dadyow
dadyowga
dadyowgii
dae
daejeon
daesang
daf
dafle
dafo
dafutoglu
dag
daga
dagaa
dagaal
dagaalada
dagaaladaas
dagaaladani
dagaaladi
dagaaladii
dagaalama
dagaalamaan
dagaalamay
dagaalamaya
dagaalamayaan
dagaalamayay
dagaalamayeen
dagaalameen
dagaalami
dagaalamin
dagaalamo
dagaalanka
dagaalanto
dagaalay
dagaaliki
dagaalka
dagaalkaa
dagaalkaan
dagaalkaas
dagaalkaasi
dagaalkan
dagaalkani
dagaalki
dagaalkii
dagaalku
dagaallada
dagaalladii
dagaallama
dagaallamaan
dagaallamay
dagaallamaya
dagaallamayo
dagaallameen
dagaallamo
dagaallanka
dagaallo
dagaalna
dagaalo
dagaalyahan
dagaalyahanada
dagaalyahanadii
dagaalyahanno
dagaalyahano
dagaan
dagaar
dagal
dagaladii
dagalka
dagamada
dagan
daganaa
daganaayeen
dagani
daganyihiin
dagay
dagayay
dage
dageen
daggan
dagi
dagmada
dagmadani
dagmadu
dagmmada
dagmo
dagmooyin
dagmooyinka
dagmoyinka
dago
dagoodiye
dagta
dagtaa
dagtay
dagto
daguuro
dah
daha
dahaadhan
dahaar
dahaaran
dahaarka
dahab
dahabi
dahabiga
dahabka
dahabkii
dahabku
dahabshiil
dahay
dahir
dahsoon
daily
dailymail
dailysabah
dairy
daisy
dajin
dajinta
dajiyay
dajiyey
dajiyo
daka
dakad
dakada
dakar
dakhli
dakhliga
dakkar
dakota
dal
dala
dalaal
dalab
dalabaadka
dalabka
dalabkii
dalabkooda
dalabyo
dalacay
dalacsiiyay
daladda
dalag
dalaga
dalagga
dalagyada
dalagyo
dalai
dalaka
dalal
dalalka
dalalkaas
dalalkii
dalalkooda
dalbadaan
dalbaday
dalbadeen
dalban
dalbanaya
dalbashada
dalbatay
dalbay
dalbeen
daldalay
dali
dalib
daliil
daljir
daljirka
dalka
dalkaan
dalkaas
dalkaasi
dalkan
dalkana
dalkani
dalkeeda
dalkeena
dalkii
dalkiisa
dalkooda
dalkoodii
dalku
dalla
dallacsiinta
dallacsiiyay
dallad
dallada
dallaga
dallas
dalmar
dalool
daloolinka
daloolka
dalqableh
dalsan
dalweyn
dalxa
dalxiis
dalxiisayaal
dalxiisayaasha
dalxiisayaashu
dalxiise
dalxiiska
dalxiisku
dalxiiso
dam
damaanad
damaashaad
damaashaadka
damac
damaca
damacsan
damacsanaa
damal
damalaxagare
daman
damascus
dambana
dambas
dambaska
dambayn
dambaynta
dambayntii
dambayntiina
dambays
dambaysa
dambaysay
dambaysta
dambe
dambeesay
dambeeya
dambeeyay
dambeeyayna
dambeeyeen
dambeeyey
dambeeyo
dambeeysa
dambeeysay
dambena
dambeyay
dambeyn
dambeynta
dambeyntii
dambeyntiina
dambeys
dambeysa
dambeysay
dambeysey
dambeyso
dambeysta
dambi
dambiga
dambiilayaasha
dambiile
dambiyada
dambiyo
damcay
dame
dameer
dameeraha
dameeri
dameerka
dameeyay
damiir
damiyo
dammaanad
damqa
dan
dana
danab
danabka
danaha
danahooda
danaynayo
danbana
danbayn
danbayntii
danbaysa
danbaysay
danbe
danbeesay
danbeeya
danbeeyay
danbeeyey
danbeeyo
danbeyn
danbeyntii
danbeysa
danbeysay
danbi
dance
dancing
daneeya
daneeyaa
daneeyayaasha
danger
dangerous
dangorayo
dani
danida
daniel
danihiisa
danish
danishka
danjiraha
danjire
dankon
danmark
dannhausen
dano
danood
dans
danta
dantaada
dantii
danube
danwadaag
danyarta
daqiiq
daqiiqad
daqiiqadii
daqiiqado
daqiiqadood
daqiiqda
daqiiqo
daqliga
dar
dara
daraa
daraabazoon
daraaddeed
daraadeed
daraakoola
daraan
daraasaadka
daraasad
daraasada
daraasadaha
daraasadda
daraasiin
daraawiish
daraawiisheed
daraawiishta
daraawiishtii
daraawiishtu
darada
darafyada
darajada
darajo
darajooyin
darajooyinka
daran
darandoole
darandoori
darane
dararwayne
dararweyne
darawal
darawiish
darawiishta
daray
daraya
darayo
daraystay
darbi
darbiga
darbiyada
dardaaran
dardaaranka
dardaarankii
dardaarmaa
dardaarmay
dardaarmayaa
dardaarmi
dardar
dardargelinta
dareema
dareemaa
dareemaan
dareemay
dareemayaa
dareemayo
dareemayso
dareeme
dareemeen
dareemi
dareemid
dareemin
dareemo
dareen
dareenada
dareenbadan
dareenka
dareenkeeda
dareenkiisa
dareensan
dareentay
dareento
dareeraha
dareere
dareereha
darey
darfur
dari
darida
dariif
dariimada
dariiq
dariiqa
dariiqada
dariiqooyinka
dariishad
darin
daris
dariska
daristay
darius
darjah
dark
darka
darmstadtiyaam
darnaa
darnayd
daro
darod
darood
daroogada
daroogo
daroogooyinka
darrada
darri
darrida
darro
darsadaa
darsadaan
darsaday
darsado
darsatay
darso
darta
dartaa
dartay
darted
darteed
darteedna
dartey
dartii
dartiis
dartood
darul
darussalam
daruur
daruuraha
daruuri
daruuriga
daruuro
darwiish
darwiishia
daryeel
daryeeli
daryeelka
daryeelo
das
dash
dashay
dassler
dastuur
dastuuri
dastuuriga
dastuurka
dastuurkan
dastuurkii
dastuurku
dat
data
database
date
dates
dating
dau
daud
dauud
davao
david
davidson
davis
dawa
dawaa
dawaafayo
dawaaifka
dawaaifta
dawaarle
dawac
dawaco
dawada
dawaladii
dawaro
dawayntooda
daweeyo
daweyn
dawiil
dawit
dawkada
dawla
dawlad
dawlada
dawladaas
dawladaasi
dawladaha
dawladan
dawladda
dawladdaas
dawladdaasi
dawladdaha
dawladdii
dawladdu
dawladeed
dawladi
dawladihii
dawladii
dawladiis
dawladiisa
dawladnimada
dawladnimo
dawlado
dawladood
dawladu
dawladuna
dawli
dawliga
dawn
dawo
dawooyinka
daws
dax
daxaleeystaan
daxaleysatey
daxayada
day
daya
dayaan
dayac
dayactir
dayactirka
dayan
dayasho
dayax
dayaxa
dayaxaan
dayaxgacmeed
dayaxu
dayaxyada
dayaxyadooda
dayaxyo
dayay
dayaya
dayaynaa
daydaan
dayday
daydo
dayeen
dayey
dayga
daygii
dayi
dayib
dayin
dayn
dayniile
daynta
dayo
dayr
dayrta
days
daysay
dayuurad
dayuuradaha
dayuuradda
db
dc
dd
dds
ddsi
ddu
de
dead
deadly
deal
dean
dear
death
debate
debbie
debedda
deborah
debt
debut
debuts
dec
decades
december
declare
declares
decline
decock
decree
dedaal
dedan
dee
deedu
deefow
deegaamada
deegaamo
deegaan
deegaanada
deegaanadaas
deegaanadaasi
deegaanadan
deegaanadii
deegaanda
deegaanka
deegaankaas
deegaankaasi
deegaankan
deegaankani
deegaankii
deegaankooda
deegaanku
deegaannada
deegaanno
deegaano
deegan
deeganada
deeganka
deeganku
deegano
deel
deelqaaf
deelqaafka
deen
deenka
deep
deepika
deeq
deeqa
deeqaha
deeqay
deeqda
deeqeen
deeqo
deeqsi
deeqsinimada
deeqsinimo
deer
deerada
deero
def
default
defeat
defence
defense
define
definition
deg
dega
degaa
degaaan
degaan
degaanada
degaanka
degaankan
degaankii
degaankooda
degaanku
degaannada
degaano
degamada
degamda
degan
degana
deganaa
deganaan
deganaana
deganaanshaha
deganaansho
deganaayeen
deganayaasha
deganayd
degani
deganka
degantahay
deganyihiin
degay
degaya
degayaashii
degdeg
degdega
degdegga
degeen
degen
degenaa
degenaan
degenaanshaha
degenaansho
degenaasho
degenaayeen
degenayn
degentahay
degenyihiin
degey
degga
deggan
degganaa
degganaansho
degganaayeen
degganayd
degganayn
deggay
deggen
deggenaa
degi
degin
degitaanka
degli
degma
degmad
degmada
degmadaan
degmadaas
degmadaasi
degmadan
degmadani
degmadda
degmadii
degmadu
degmo
degmooyin
degmooyinka
degmooyinkii
degmoyinka
dego
degree
degsan
degsiimada
degsiimo
degsiimooyin
degsiimooyinka
degta
degtaa
degtay
degto
dei
deimos
deir
dej
deji
dejiayay
dejin
dejinay
dejinta
dejisay
dejiso
dejiya
dejiyay
dejiyeen
dejiyey
dejiyo
dek
dekad
dekada
dekadaha
dekadani
dekadda
dekado
dekatul
deked
dekeda
dekedaha
dekedda
dekedo
deklinacio
del
delaware
delegates
delegation
delgado
delhi
delightful
delisle
dell
della
delle
delphine
delta
dem
demand
demandovorto
dembel
dembi
dembidhaaf
dembiga
dembiyada
dembiyadii
demi
demie
demiska
democracy
democratic
democrats
demographics
den
denbi
dengue
denis
denise
denisova
denmark
dennis
dental
denver
deo
deok
department
depp
depression
deputato
deputy
der
derajada
derbi
derbiga
derbiyada
derby
derejada
derejo
derg
deria
derin
deris
deriska
deriskaaga
deriskeeda
deriskooda
derivative
derri
dersa
dersi
dersid
dersida
derulo
dervish
dervishes
des
desalegn
descent
deschanel
desde
desert
design
designed
desimitir
desire
desktop
destiny
destruction
det
detail
details
detroit
dette
deutsch
deutsche
deutschland
dev
devanagari
devas
devastates
develop
developed
developing
development
developmental
developments
devi
devices
dewalt
dewan
dex
dey
deymaha
deyn
deynta
deyntiisa
deyr
deyrta
deysay
df
dfb
dfkmg
dfs
dh
dha
dhaadheer
dhaadhiciyo
dhaaf
dhaafa
dhaafaan
dhaafay
dhaafaya
dhaafaysa
dhaafey
dhaafi
dhaafid
dhaafin
dhaafka
dhaafo
dhaaftaa
dhaaftay
dhaafto
dhaalib
dhaama
dhaamaan
dhaan
dhaanta
dhaantada
dhaanto
dhaar
dhaaranayaa
dhaariyay
dhaariyey
dhaarta
dhaartay
dhaartaye
dhaartey
dhaawac
dhaawaca
dhaawacay
dhaawacmay
dhaawacmeen
dhaawaco
dhaawacyada
dhaawacyadii
dhaawacyo
dhab
dhaba
dhabad
dhabaha
dhaban
dhabanada
dhabannada
dhabar
dhabarka
dhabarkiisa
dhabarta
dhabe
dhabeeyo
dhabi
dhabta
dhabxanaga
dhac
dhaca
dhacaa
dhacaan
dhacaday
dhacana
dhacay
dhacaya
dhacayaa
dhacayaan
dhacayay
dhacayo
dhacaysa
dhacaysaa
dhacayso
dhacda
dhacdaa
dhacdada
dhacdadaas
dhacdadan
dhacdadii
dhacdadu
dhacday
dhacdey
dhacdo
dhacdooyin
dhacdooyinka
dhacdooyinkii
dhaceen
dhacey
dhacid
dhaco
dhacyada
dhacyo
dhaddig
dhadhaab
dhadhan
dhadhanka
dhadhanku
dhaf
dhafan
dhafay
dhafka
dhafoorka
dhafuuje
dhag
dhaga
dhagaha
dhagan
dhagar
dhagaweyne
dhagax
dhagaxa
dhagaxaan
dhagaxaanta
dhagaxbuur
dhagaxda
dhagaxley
dhagaxleyda
dhagaxtuur
dhagaxyada
dhagaxyo
dhagayaraha
dhagaysta
dhagaystaa
dhagaystayaal
dhagaystayaasha
dhagaystayaashu
dhagaysto
dhageesan
dhageysan
dhageysiga
dhageyso
dhageysto
dhago
dhagool
dhagoolka
dhagoolnimada
dhagxaan
dhagxaanta
dhah
dhaha
dhahaa
dhahaan
dhahar
dhahay
dhaheen
dhaho
dhajinta
dhajiyay
dhaka
dhakhaatiir
dhakhaatiirta
dhakhaatiirtu
dhakhatiir
dhakhsaha
dhakhso
dhakhtar
dhakhtaradii
dhakhtarka
dhakhtarkaaga
dhakhtarku
dhal
dhala
dhalaa
dhalaalaya
dhalaalaysa
dhalaali
dhalaalid
dhalaalida
dhalaalin
dhalaalinta
dhalaalka
dhalaan
dhalaanka
dhalada
dhaladka
dhalan
dhalanaya
dhalashada
dhalashaddii
dhalashaddiisii
dhalashadeeda
dhalashadii
dhalashadiisa
dhalashey
dhalasho
dhalashooyin
dhalata
dhalataa
dhalatay
dhalatey
dhalato
dhalay
dhaleecayn
dhaleeceeya
dhaleeceeyay
dhaleeceeyayaasha
dhaleeceyn
dhaleeceynta
dhaleen
dhaley
dhaliil
dhaliilay
dhaliisha
dhalin
dhalinta
dhalintii
dhalinyarada
dhalinyaradda
dhalinyaradii
dhalinyaro
dhalinyarta
dhalisa
dhalisay
dhalisey
dhaliya
dhaliyaa
dhaliyaan
dhaliyaha
dhaliyay
dhaliye
dhaliyey
dhaliyo
dhallaanka
dhallinta
dhallinyar
dhallinyarada
dhallinyaradii
dhallinyaradu
dhallinyaro
dhalmada
dhalmo
dhalo
dhalooyin
dhalooyinka
dhamaa
dhamaad
dhamaada
dhamaadaa
dhamaadaan
dhamaaday
dhamaadka
dhamaadkii
dhamaadkiisa
dhamaado
dhamaan
dhamaanayso
dhamaanba
dhamaanteed
dhamaantiis
dhamaantood
dhamaantoodba
dhamaantoodna
dhamaantoon
dhamaata
dhamaataa
dhamaatay
dhamaato
dhamac
dhaman
dhamantood
dhamayn
dhamaystay
dhamaystiraan
dhamaystiran
dhamaystirane
dhamaystiray
dhamaystireysa
dhamaystirka
dhamaystirneyn
dhamaystiro
dhamaystirtay
dhambaal
dhambaalka
dhambaalkii
dhambalin
dhame
dhameestiran
dhameeyaan
dhameeyay
dhameeyey
dhameeyo
dhameysatay
dhameystay
dhameystiran
dhameystiray
dhami
dhammaad
dhammaadaan
dhammaaday
dhammaadeen
dhammaadka
dhammaadkii
dhammaan
dhammaanba
dhammaanteed
dhammaanteen
dhammaantiis
dhammaantood
dhammaantoodna
dhammaatay
dhammaatey
dhamman
dhammayn
dhammaystay
dhammaystiran
dhammaystiray
dhamme
dhammeeyay
dhammeeyey
dhammeeyo
dhammeystiran
dhammi
dhammu
dhan
dhana
dhanaan
dhanaane
dhanaanka
dhanaanku
dhanaano
dhanaanta
dhandhan
dhanka
dhankaas
dhankii
dhankiisa
dhankooda
dhanna
dhantaalan
dhantahay
dhanyahay
dhanyihiin
dhaq
dhaqaa
dhaqaajin
dhaqaajiyo
dhaqaala
dhaqaalaha
dhaqaalaheeda
dhaqaalaheedu
dhaqaalahooda
dhaqaale
dhaqaaleheedu
dhaqaaleyahan
dhaqaalihii
dhaqaalihiisa
dhaqaallaha
dhaqaalo
dhaqaaluhu
dhaqaan
dhaqaaq
dhaqaaqa
dhaqaaqay
dhaqaaqday
dhaqaaqeen
dhaqaatiir
dhaqalaha
dhaqamada
dhaqameed
dhaqameedka
dhaqameedyada
dhaqameedyo
dhaqammada
dhaqammo
dhaqamo
dhaqan
dhaqanada
dhaqane
dhaqangelinta
dhaqanka
dhaqankaas
dhaqankan
dhaqankeeda
dhaqankeena
dhaqankii
dhaqankiisa
dhaqankooda
dhaqanku
dhaqanno
dhaqano
dhaqanta
dhaqanto
dhaqashada
dhaqasho
dhaqata
dhaqatada
dhaqato
dhaqay
dhaqda
dhaqdaa
dhaqdaan
dhaqdhaqaaq
dhaqdhaqaaqa
dhaqdhaqaaqe
dhaqdhaqaaqii
dhaqdhaqaaqiisa
dhaqdhaqaaqooda
dhaqdhaqaaqyada
dhaqdhaqaaqyadii
dhaqdhaqaaqyo
dhaqdo
dhaqidda
dhaqista
dhaqma
dhaqmaa
dhaqmaan
dhaqmay
dhaqmayaa
dhaqmayo
dhaqmeen
dhaqmi
dhaqmin
dhaqmo
dhaqnaa
dhaqnaayeen
dhaqo
dhaqsaha
dhaqso
dhaqtar
dhaqtarka
dhar
dharaar
dharbaaxo
dhareerka
dharka
dharkayn
dharkeenley
dharkenley
dharkeynley
dharkii
dhasahy
dhasha
dhashaa
dhashaan
dhashay
dhasheen
dhashey
dhasho
dhashtay
dhaw
dhawaa
dhawaad
dhawaada
dhawaaday
dhawaado
dhawaajisay
dhawaan
dhawaanahan
dhawaaq
dhawaaqa
dhawaaqaa
dhawaaqay
dhawaaqaya
dhawaaqayaa
dhawaaqayo
dhawaaqday
dhawaaqdey
dhawaaqdo
dhawaaqeen
dhawaaqey
dhawaaqi
dhawaaqida
dhawaaqii
dhawaaqista
dhawaaqo
dhawaaqtada
dhawaaqyada
dhawaatay
dhawaayeen
dhawan
dhawaq
dhawaqa
dhawayd
dhawaynta
dhawdahay
dhaweeyay
dhaweeyeen
dhaweeyo
dhaweyn
dhaweynta
dhaweysay
dhawr
dhawridda
dhawro
dhax
dhaxa
dhaxal
dhaxalgal
dhaxalgalka
dhaxalka
dhaxalkii
dhaxalkiisa
dhaxalsugaha
dhaxaltooyo
dhaxan
dhaxanta
dhaxay
dhaxaysa
dhaxaysaa
dhaxaysay
dhaxaysey
dhaxayso
dhaxbartanka
dhaxda
dhaxdiisa
dhaxe
dhaxeesa
dhaxeesaa
dhaxeesay
dhaxeeso
dhaxeeya
dhaxeeyaa
dhaxeeyay
dhaxeeyo
dhaxeysa
dhaxeysaa
dhaxeysay
dhaxeyso
dhaxlaan
dhaxlay
dhaxleen
dhaxley
dhaxli
dhaxlo
dhaxmaray
dhaxmaro
dhaymoole
dhayo
dhe
dheceen
dheddig
dheddiga
dheddigga
dhedig
dhediga
dhedigna
dheecaan
dheecaanada
dheecaanka
dheecaano
dheef
dheefshiidka
dheeh
dheehan
dheehantahay
dheehay
dheel
dheelay
dheeli
dheelitiran
dheelitirka
dheelli
dheellitirka
dheelo
dheeman
dheer
dheera
dheeraa
dheeraad
dheeraada
dheeraaday
dheeraadka
dheeraan
dheerayd
dheerayn
dheere
dheereed
dheereeya
dheereeyaan
dheereeyay
dheereeyey
dheereeyo
dheereyn
dheereynayaa
dheeri
dheeriga
dheerka
dheerna
dheertahay
dheesha
dheexadka
dheg
dhega
dhegaha
dhegahooda
dhegan
dhegaweyne
dhegeysanaya
dhegeysi
dhegeysta
dhegeysto
dheggan
dhego
dhegoculeys
dhegoculeyska
dhegoolaha
dhegta
dheh
dheheen
dhejin
dhejiyay
dhejiyeen
dhejiyo
dhere
dherer
dhererka
dhererkeeda
dhererkeedu
dhererkiisu
dhererkodu
dhererkoodu
dheri
dheriga
dhetroyt
dhex
dhexaad
dhexaadka
dhexaadkiisa
dhexaysa
dhexaysaa
dhexaysay
dhexda
dhexdeeda
dhexdhexaad
dhexdhexaadin
dhexdhexaadinta
dhexdhexaadiyo
dhexdhexaadka
dhexdhexaadnimo
dhexdiisa
dhexdooda
dhexe
dhexeeya
dhexeeyaa
dhexeeyay
dhexeeyey
dhexeeyo
dhexeeysa
dhexeysa
dhexeysaa
dhexeysay
dhexeysey
dhexeyso
dhexgal
dhexgalka
dhexgalo
dhexjira
dhexjiray
dhexmara
dhexmaray
dhexmaro
dhexmarta
dhexmartay
dhexo
dhexroor
dhexroorka
dhextaal
dhextaala
dhexyaal
dhexyaala
dheyda
dheymos
dhi
dhib
dhibaa
dhibaatada
dhibaatadii
dhibaatadu
dhibaateeyeen
dhibaato
dhibaatooyin
dhibaatooyinka
dhibaatooyinkii
dhibanayaasha
dhibanayaashii
dhibatada
dhibato
dhibatoka
dhibay
dhibbanaha
dhibbanayaasha
dhibbanuhu
dhibcaha
dhibco
dhibcood
dhibi
dhibic
dhibin
dhibka
dhibkii
dhiblaawe
dhiblawe
dhibleh
dhibta
dhibtooday
dhicana
dhici
dhicida
dhicin
dhicis
dhicisoobay
dhicitaanka
dhicitaankii
dhidibada
dhidibbada
dhidid
dhididka
dhif
dhifka
dhig
dhiga
dhigaa
dhigaan
dhigaayo
dhigaha
dhigan
dhiganayay
dhiganta
dhigantaa
dhigantahay
dhigata
dhigatay
dhigato
dhigay
dhigaya
dhigayaa
dhigayay
dhigayey
dhigayo
dhigaysa
dhigaysaa
dhigayso
dhigeen
dhigeeysa
dhigey
dhigeysa
dhigeysaa
dhigga
dhigi
dhigid
dhigidda
dhigin
dhigis
dhigista
dhigma
dhigmaa
dhigmin
dhigmo
dhignaa
dhigno
dhigo
dhigta
dhigtaa
dhigtaan
dhigtay
dhigteen
dhigtey
dhigto
dhiguhu
dhihi
dhihid
dhihin
dhiib
dhiibaan
dhiibanaya
dhiibay
dhiibeen
dhiibi
dhiibin
dhiibo
dhiibtay
dhiif
dhiig
dhiiga
dhiigbax
dhiigga
dhiigii
dhiigshiil
dhiiq
dhiira
dhiiragalin
dhiiranaan
dhiiratay
dhiiri
dhiirigelin
dhiirigelinta
dhiirigelisay
dhiirigeliya
dhiirigeliyaan
dhiirigeliyay
dhiirran
dhiirri
dhiirrigelin
dhiirrigelinta
dhiirrigelisay
dhiirrigeliya
dhiirrigeliyay
dhiirrigeliye
dhiirrigeliyo
dhijitaal
dhijitaalka
dhilladu
dhilleysiga
dhillo
dhillooyinka
dhiman
dhimanaayo
dhimanaya
dhimanayo
dhimanno
dhimasha
dhimashada
dhimashaddii
dhimashaddiisii
dhimashadeeda
dhimashadii
dhimashadiis
dhimashadiisa
dhimashadiisii
dhimashadu
dhimasho
dhimashona
dhimashooyin
dhimatay
dhimatey
dhimato
dhimbiil
dhimbil
dhimi
dhimirka
dhimista
dhimman
dhimo
dhinac
dhinaca
dhinacakale
dhinacba
dhinaceeda
dhinacii
dhinaciisa
dhinacna
dhinactax
dhinacyada
dhinacyadii
dhinacyo
dhinca
dhiniciisa
dhinta
dhintaa
dhintaan
dhintay
dhinteen
dhintey
dhinto
dhir
dhiraandhirinta
dhirir
dhirirka
dhirirkiisa
dhirirkiisu
dhirta
dhirtu
dhis
dhisa
dhisaa
dhisaan
dhisaayay
dhisan
dhisantahay
dhisantay
dhisanyahay
dhisay
dhisayo
dhiseen
dhisey
dhishiike
dhisi
dhisid
dhisida
dhisidda
dhisidii
dhisidu
dhisin
dhisitaanka
dhiska
dhisma
dhismaha
dhismahan
dhismaheeda
dhismay
dhismayaal
dhismayaasha
dhismayaashii
dhisme
dhismeed
dhismeedka
dhismeha
dhismeyaal
dhismihii
dhismo
dhismoka
dhismooyin
dhismooyinka
dhismuhu
dhisnaa
dhisnayd
dhiso
dhistaan
dhistay
dhisteen
dhistey
dhisto
dhisyada
dhisyo
dhobley
dhoco
dhogor
dhogorta
dhoho
dhoobada
dhoobley
dhoobo
dhoodaan
dhoof
dhoofay
dhoofi
dhoofin
dhoofinta
dhoofiya
dhoofiyaa
dhoofiyay
dhoofiyo
dhool
dhoola
dhoor
dhoore
dhorre
dhow
dhowa
dhowaa
dhowaad
dhowaadaan
dhowaaday
dhowaadeen
dhowaan
dhowaanaya
dhowaanshaha
dhowaaqay
dhowaatay
dhowayd
dhowdahay
dhoweeyay
dhoweeyeen
dhoweyn
dhoweynta
dhoweysaa
dhowow
dhowr
dhowra
dhowree
dhowridda
dhowrista
dhowritaanka
dhowrka
dhowrkii
dhowro
dhowrsan
dhowrsana
dhowyahay
dhowyihiin
dhu
dhudhub
dhudhun
dhudi
dhufatay
dhufayl
dhufeesyo
dhufeeyska
dhufeys
dhufeyska
dhufeysyada
dhufo
dhuftay
dhufteen
dhuftey
dhufto
dhul
dhulal
dhulalka
dhulalkii
dhulba
dhulbadhaha
dhulbadhe
dhulbahante
dhulbaraha
dhuldaaqsiimeed
dhuleed
dhuleedka
dhulgariir
dhulgariirka
dhulgariirkii
dhulka
dhulkaa
dhulkaan
dhulkaas
dhulkaasi
dhulkaba
dhulkan
dhulkana
dhulkeeda
dhulkeena
dhulki
dhulkii
dhulkiisa
dhulkooda
dhulkoodii
dhulku
dhululubo
dhulwaynaha
dhulweynaha
dhumuc
dhumucda
dhundhun
dhunkaal
dhurwa
dhurwaa
dhutiyo
dhuuban
dhuubi
dhuubo
dhuule
dhuumaha
dhuumasho
dhuumo
dhuumoodle
dhuun
dhuunta
dhuunte
dhuusamareeb
dhuusmareeb
dhuux
dhuxul
dhuxuloow
dhuxulow
dhuxusha
dhuxushu
di
dia
diabetes
diabl
diagnosis
diagram
diagrams
dialects
dialogue
diamond
diana
diary
diaspora
diatec
dib
dibad
dibada
dibadaha
dibadba
dibadda
dibaddaba
dibaddiisa
dibadeed
dibadiisa
dibadiisaba
dibatoka
dibeda
dibedda
dibedeed
dibi
dibida
dibiyada
diblomaasi
diblomaasiga
diblomaasiyadda
diblomaasiyadeed
diblomaasiyiinta
dibloomkan
dibna
dibnaha
dibu
dibuheshiin
dibuheshiisiinta
dictionary
did
didaa
didier
didn
die
died
diego
dies
diesel
dietmar
difaac
difaaca
difaacaan
difaacan
difaacay
difaacaya
difaacda
difaacdo
difaace
difaaci
difaacida
difaaco
difference
different
difficult
difinita
diga
digaag
digaaga
digaagad
digaagga
digaale
digada
digay
dige
digfeer
digic
digil
digir
digirta
digirtu
digital
digniin
digo
digriga
digrii
digsi
digtay
dihin
dii
diid
diida
diidaa
diidaan
diidan
diidana
diidanaa
diiday
diidaya
diidayo
diidday
diide
diideen
diidey
diidi
diidin
diidka
diidmada
diidmo
diido
diig
diimaha
diimeed
diimeedka
diimo
diimood
diin
diinaar
diinaha
diineed
diini
diiniga
diinka
diinle
diinsiga
diinsoor
diinta
diintaada
diintan
diintani
diinteena
diinteenna
diinti
diintii
diintiisa
diintooda
diintoodii
diintu
diintuna
diiq
diirad
diirada
diiradda
diiran
diirimaad
diiriye
diirka
diirran
diirshe
diisa
diisambar
diisamber
diisu
diiwaan
diiwaanada
diiwaangashan
diiwaangelin
diiwaangelinta
diiwaangeliyay
diiwaangeliyey
diiwaanka
diiwaannada
dijitaal
dijitaalka
dijital
dijon
dikhil
dikhri
dil
dila
dilaa
dilaacay
dilaaga
dilaan
dilaayay
dilal
dilalka
dilay
dilaya
dilayaan
dile
dileen
dileita
diley
dili
dilid
dilidda
dilin
dilka
dilkii
dilkiisa
dilku
dilla
dillaaca
dillaacay
dilo
dilwale
dimaggio
dimashiq
dimishiq
dimitri
dimoqaraadiyadda
dimoqraadi
dimoqraadiga
dimoqraadiyad
dimoqraadiyada
dimoqraadiyadda
dimuqaraadiga
dimuqraadi
dimuqraadiga
dimuqraadiyad
dimuqraadiyada
dimuqraadiyadda
dimuquraadiga
din
dina
dinaca
dinar
dinner
dins
diocese
dion
dione
dioxide
diploma
diplomacy
diplomatic
diplomats
dir
dira
diraac
diraan
diraarada
diraasad
dirac
diraca
diracu
dirawalka
diray
diraya
dirayaan
dirayay
dirayo
dire
direct
directeur
director
directory
direed
direen
direy
dirham
diri
dirid
diridhaba
diridhabe
diriiye
dirin
dirir
dirirka
dirista
diriye
dirk
dirney
diro
dirqi
dirr
dirre
dirsaday
dirsado
dirta
dirtay
dirto
dirty
dis
disadvantages
disaster
disc
disco
discography
discogs
discovering
discovery
discrimination
discuss
discussed
disease
diseembar
disembar
disember
disha
dishay
dishid
dishiishe
disho
disi
disk
disney
diso
disorder
dispatch
display
dispute
disputed
diss
distance
distribution
district
districts
ditions
diversity
divided
divine
division
divisions
diwaanka
dixit
dixon
diyaar
diyaarad
diyaarada
diyaaradaan
diyaaradaha
diyaaradahaasi
diyaaradda
diyaaraddii
diyaaraddu
diyaaradeed
diyaaradihii
diyaaradii
diyaaradka
diyaarado
diyaaradood
diyaaraduhu
diyaargaroobaan
diyaargarowga
diyaarin
diyaarinta
diyaarisay
diyaariya
diyaariyaa
diyaariyaan
diyaariyay
diyaariyeen
diyaariyey
diyaariyo
diyaarka
diyaarsada
diyaarsan
dj
djamena
djf
djibouti
djiboutian
djurga
dk
dkmg
dle
dlya
dm
dmitri
dmitry
dmm
dna
dnr
do
dobara
doc
docay
docaydocay
docey
docid
docol
docs
doctor
documentaire
documentary
documents
dodoma
does
dof
dog
dogg
dogrol
doha
doi
doja
doktoro
dokumenti
dolbahanta
doll
dollar
dollarka
dollars
dolomite
dolow
dolphins
dom
domain
dome
domego
domestic
dometo
domingo
dominic
dominica
dominican
dominika
dominion
domo
domoj
don
donald
donalds
done
donetsk
dong
donnie
donor
doo
doob
doobka
doobnimada
dood
dooda
doodaa
doodaan
doodaha
dooday
doodaya
doodayaa
doodda
doodday
doodeen
doodi
doodista
doodo
doodu
doofaar
doofaarka
doog
dool
doolar
doolarka
dooli
dooliga
doollar
doollarka
doollo
doolow
doomaha
doombiro
doomin
doominta
doomintii
doomiyay
doomiyeen
doomo
doon
doona
doonaa
doonaan
doonan
doonay
doonaya
doonayaa
doonayaan
doonayay
doonayeen
doonayey
doonayo
doonaysa
doonaysay
doonaysid
doonayso
doondheere
doone
dooneysid
dooni
doonid
doonin
doonista
doonistiisa
doonka
doonnaa
doonnida
doonno
doono
doonta
doontaa
doontaan
doontay
doontid
doontii
doonto
doonyaha
doonyo
door
doorada
dooran
dooranaya
doorar
doorarka
doorarro
doorashada
doorashadaas
doorashadan
doorashaddii
doorashadeeda
doorashadii
doorashadu
doorasho
doorashooyin
doorashooyinka
doorashooyinkii
dooratay
doorato
dooray
doorbidaan
doorbiday
doorbidaya
doorbidid
doorin
doorka
doorkeeda
doorkeedii
doorkii
doorkiisa
dooro
doorsoomayaan
doorta
doortaa
doortaan
doortay
doorteen
doortey
doorto
doox
dooxa
dooxada
dooxo
dooxooyin
dooxooyinka
dooxyo
dooy
doqon
doqoni
doqonimo
dori
doric
dorothy
dortmund
dos
douala
double
dougherty
douglas
douha
dove
dover
dow
dowlad
dowlada
dowladaha
dowladahaas
dowladda
dowladdan
dowladdi
dowladdii
dowladdu
dowladeed
dowladi
dowladihii
dowladii
dowladnimada
dowladnimo
dowlado
dowladood
dowladu
dowlaha
dowli
dowliga
down
downpour
downtown
dozens
dp
dpi
dpr
dr
draft
dragon
drainage
drake
drama
dramani
drape
drapeau
drapo
draw
drawbacks
drc
dre
dream
dreams
dresden
dress
dressed
drill
drilling
drip
drive
drone
drop
drops
drought
drs
drug
drum
druzhba
druzhby
dry
ds
dsp
dspace
du
dua
dual
duale
dub
duba
dubad
dubai
dubay
dubka
duble
dubniyaam
dubo
duca
ducaadda
ducaale
ducada
ducadii
ducati
duceeyaan
duceeyay
duceeyo
duceysanayaa
duchy
duco
ducooyinka
dudbiye
duddo
dudub
duduble
duduwan
due
dufan
dufanka
duff
dugsi
dugsiga
dugsigaan
dugsigaas
dugsigii
dugsigu
dugsiyada
dugsiyadii
dugsiyo
duhail
duhur
duhurka
duhurkii
dukaamada
dukaamo
dukaan
dukaanka
dukaankii
dukan
duke
duki
dukumeenti
dukumeentiyada
dukumentiga
dukumiinti
dukumiintiga
dukumiintiyada
dukumintiga
dul
dulaydala
duleedka
dulhania
dulhijjah
dulin
dulinka
dulka
dullayn
dulmar
dulmi
dulmiga
dulqaad
dulqaadan
dulqaadka
dulsaar
dulsaarka
dumaal
dumaalay
dumar
dumarba
dumarka
dumarkaasi
dumarkii
dumarku
dumarnimada
dumas
dumay
dumbarton
dumin
dumiyay
dumiyeen
dumiyo
dumrka
dun
dundia
dundida
dunes
dunhill
duni
dunid
dunida
dunidan
dunidayar
dunidia
dunidu
duniyar
duniyo
dunnida
dunta
duq
duqa
duqeeyay
duqeeyeen
duqeeyey
duqeeyo
duqeymaha
duqeymo
duqeyn
duqeynta
duqii
duqoobeen
duqow
duqsan
duqsi
dur
dura
durba
durbaan
durbaanka
durbaano
durbadiiba
durban
durdur
durduro
durham
duri
during
durmaan
durmaanka
duro
durraan
durug
durugsan
duruufaha
duruufo
duruus
dus
dusaa
dusha
dusheeda
dushiisa
dushooda
dusmareeb
dutch
duterte
dutta
duub
duuban
duubay
duubi
duubis
duubista
duubnaadaan
duubo
duuboo
duubtay
duudka
duuduub
duufaan
duufaanno
duufaano
duufaanta
duufaantii
duug
duugan
duugay
duugayaa
duugayo
duugo
duul
duula
duulaamadii
duulaan
duulaanka
duulaankii
duulahii
duulay
duulaya
duulayay
duulayo
duuleen
duuley
duulimaad
duulimaadka
duulimaadkii
duulimaadyada
duulimaadyadu
duulimaadyo
duulin
duulista
duuliyaha
duuliyasha
duuliye
duuliyihii
duullaan
duullaanka
duullaankii
duullimaadkii
duulo
duumada
duunyada
duunyo
duunyooyin
duunyooyinka
duur
duurayo
duurjoog
duurjooga
duurjoogta
duurka
duushay
duusho
duwaha
duwan
duwana
duwanaa
duwanaan
duwanaanshaha
duwanaanshiyaha
duwanaansho
duwanaanta
duwanaayeen
duwantahay
duwanyahay
duwanyihiin
dux
duxda
dvd
dw
dwudziestkitro
dx
dylan
dynamic
dynamics
dynamo
dynamos
dynastic
dynasty
dz
də
e
ea
eac
each
eagle
eagles
ean
earlier
early
earth
earthquake
earthquakes
easbrig
easf
easfcom
east
eastern
eastleigh
eastliegh
easy
eat
eb
ebakar
ebay
eber
ebisu
ebla
ebola
ec
ecb
eccas
ece
eclare
eclipse
eco
ecological
economic
economics
economictimes
economist
economy
ecosoc
ecowas
ecuador
ed
eda
edbin
edeg
edgardo
edge
edgecomb
edifice
edinburgh
edirne
edison
edit
edita
edited
edition
editor
editore
edizioni
edmonton
edn
edo
eds
edu
eduard
eduardo
education
educational
eduk
edward
edwards
edwin
edzino
ee
eebakar
eebana
eebbaa
eebbaana
eebbaha
eebbana
eebbe
eebe
eebow
eed
eedaha
eedaysay
eeddo
eedeeyaa
eedeeyay
eedeeyeen
eedeeyey
eedeymaha
eedeymahaas
eedeymo
eedin
eedo
eee
eeg
eega
eegaa
eegaan
eegay
eegaya
eegayo
eegi
eegid
eegidda
eegin
eegis
eegista
eegisyo
eegno
eego
eegtay
eegto
eek
eeka
eelaay
eelo
een
eeshiya
eexda
eey
eeyaha
eeyga
eeyna
eeynu
ef
efes
effect
effectiveness
effects
efforts
eg
egal
egg
egta
egtahay
egyahay
egyihiin
egypt
egyptian
eh
ehayd
ehed
eheed
eheen
eheyd
ehir
ehka
ehlu
ei
eichi
eid
eiga
eight
ein
eindhoven
eine
einstein
eintracht
ej
ejersa
ejo
ek
eka
ekaa
ekaan
ekaanshaha
eki
ekonomia
eks
eksternal
ekzemploj
ekzistas
el
ela
elder
elders
eldonejo
elected
election
elections
electrate
electric
electronconfigurationstring
electronic
electronics
elektaromagnetik
elektaron
elektaroon
elektaroonada
elektaroonadoodu
elektaroonadu
elektaroonig
elektarooniga
elektaroonik
elektaroono
elektiroonigga
elektrooniga
element
elementary
elements
elephant
eleven
eli
elias
elik
elissa
elite
elizabeth
elle
ellen
elliott
ellison
elman
elmi
elsker
em
ema
email
embassies
embassy
emblem
emerald
emerging
emerson
emiirka
emily
eminem
emir
emirate
emirates
emirati
emma
emmanuel
emmy
emotional
emperor
empire
employment
emre
emviyara
en
encarta
enceladus
enchai
encompasses
encounter
encyclopaedia
encyclopedia
encyclopædia
end
ended
enel
energy
eng
engagement
engegay
engine
engineer
engineering
england
english
eni
enigl
enough
enrollment
enschede
ensemble
ensiim
entebbe
enter
enterprise
enters
entertain
entertainment
entire
entrance
entrepreneur
entry
environment
envoy
eo
eon
eonka
ep
epa
epassport
epic
epimetheus
epoko
eprdf
equator
equatorial
equipment
er
era
erasmus
eratareya
eray
erayada
erayadeeda
erayadii
erayga
eraygaa
eraygan
eraygiisa
erayo
erbil
erdog
erdogaan
erdogan
ereteriya
erey
ereyada
ereybixin
ereyga
ereygaan
ereygan
ereygu
ereyo
ergada
ergadii
ergeyga
ergo
ergooyinka
eri
eric
erich
erie
erigavo
erik
erikson
eris
eriteeriya
eriteriya
eritrea
eritrean
ernst
eroge
erotic
ertra
eruption
eryay
eryey
eryta
erythraean
es
escalation
escape
escarpment
escutcheon
esf
eskis
espan
espania
espe
especially
esperanta
esperanto
espoo
esprimoj
essay
essential
essentials
est
established
establishing
estado
estas
estate
este
esti
estimates
estis
estonia
estonian
estoniya
estos
estus
eswatini
et
etc
ethanol
ethics
ethio
ethiopia
ethiopian
ethiopias
ethiosemitic
ethnic
ethnologue
ethopia
etymology
eu
eugene
eun
eunice
euphoria
euphrates
eur
eurasia
eurasian
euro
eurobasket
euronews
europa
europe
european
europeans
europlug
euros
eurovision
eva
eve
even
evening
event
events
ever
everest
everglow
everson
everton
every
everything
evic
evidence
evolution
ex
example
examples
excavations
except
excerpt
exchange
exclusive
executed
executive
exercise
exile
exitos
exo
expedition
experience
expert
experts
explains
exploration
explore
explorer
explosion
explosions
expo
export
exportka
exports
express
expressway
extended
extensive
extent
external
extra
ey
eyade
eyda
eye
eyed
eyes
eyga
eyl
eylo
ez
f
fa
faa
faadima
faaduma
faadumiina
faadumiyiinta
faadumo
faafa
faafan
faafay
faafida
faafin
faafinaya
faafinayey
faafinta
faafitaanka
faafiya
faafiyaa
faafiyaan
faafiyay
faafiyo
faafo
faafreeb
faafreebka
faaftay
faago
faah
faahfaahin
faahfaahinta
faahfaahsan
faahin
faahiye
faaidadda
faaidaysan
faaideesanaya
faaido
faaiido
faallo
faallooyin
faallooyinka
faalo
faan
faana
faanaan
faanaya
faani
faanka
faano
faanoole
faanto
faarah
faarax
faaris
faarisi
faarisiga
faarsi
faarsiga
faaruuq
faas
faasuliyada
faasuuliyadu
faatax
faatex
faatima
faatixa
faatixada
faaya
fabio
fabraayo
fac
faca
facaweyn
facbook
face
facebook
facelift
faces
facila
facilities
facility
fact
factbook
faction
facto
factor
factory
factretriever
facts
faculty
facwayn
facweyn
fadal
fadeexad
fadeexadii
faderaalka
fadhi
fadhida
fadhidaa
fadhiday
fadhido
fadhiga
fadhigaab
fadhigeedu
fadhigii
fadhigiisu
fadhigoodu
fadhiidnimada
fadhiisan
fadhiisanayaa
fadhiisasho
fadhiistay
fadhiisto
fadhisa
fadhiso
fadhiya
fadhiyaa
fadhiyaan
fadhiyay
fadhiyey
fadhiyin
fadhiyo
fadlan
fadli
fadliga
fadumo
fagaaraha
fagaare
fagax
fahad
faham
fahamka
fahamsan
fahan
fahanka
fahd
fahiye
fahma
fahmaan
fahmay
fahmayo
fahmeen
fahmey
fahmi
fahmid
fahmin
fahmo
fahrenhayt
fahrenheit
fair
fairfield
faisal
faith
fajro
fakaday
fakarka
fakufiiqe
fal
falaa
falaadhaha
falag
falaga
falagu
falaha
falal
falalka
falanqaynta
falanqeyn
falastiin
falastiiniyiin
falastiiniyiinta
falastiiniyiintu
falastiinta
falcelin
falcelinta
fale
faleebo
faleed
faleedka
falgal
falgalaan
falgalaayo
falgalka
falgalkooda
falgalo
falgasha
falid
falimaha
falis
falka
falkaab
falkaasi
falkan
falkland
falku
fall
fallaagada
fallaago
fallag
fallaga
fallagu
fallen
falls
falo
falsafad
falsafada
falsafadda
fame
families
family
famine
famous
fan
fanaan
fanaanad
fanaanada
fanaanadu
fanaand
fanaaniin
fanaaniinta
fanaaniintii
fanaaniintu
fanaanka
fanaankan
fanaankii
fanaanku
fanadhiyaam
fanaka
fanansuwela
fanax
faneed
faneedka
fang
fanka
fankii
fanku
fannaan
fannaanad
fannaanada
fannaanda
fannaaniin
fannaaniinta
fannaaniintii
fannaaniintu
fannaanka
fans
fanwatu
fanza
fao
faqashta
faqay
faqi
faqiih
faqiir
faqiirka
faqiirsan
faqri
faqriga
far
fara
faraacintii
faraanti
faraantiga
faraantigalis
faraantigelis
faraax
farabadan
farac
faraca
faracadde
faraceeda
faracii
faraciisa
faragalinta
faragelin
faragelinta
farah
faraha
faraj
faral
faransa
faransiis
faransiiska
faransiisku
faransiyaam
faras
faraska
faraskii
faraskiisa
faraskiisii
farasmagaalaha
farasmagaalka
faraweyne
farax
faraxsan
faraxsanaa
faraxsanahay
faray
farayo
faraysaa
farcama
farcamay
farcameen
farcanka
farcankii
farda
fardaha
fardheer
fardheero
fardhexada
fardhexo
fardo
fardood
fardooley
fardooleyda
fareey
farenjiga
farey
fargashiga
farhan
fari
farig
fariid
fariimaha
fariin
fariinta
fariisan
fariistaan
fariistay
fariisto
farin
farjano
farm
farmaajo
farmajo
farmashi
farmashiye
farmers
farming
farms
farnsiiska
farnsiisku
faro
faroe
faroese
farole
farood
faroole
farow
farqi
farqiga
farraaciintii
farraare
farrah
farriimaha
farriimo
farriin
farriinta
farsamada
farsamayaqaan
farsamaynta
farsameeyaa
farsameeyay
farsamo
farsamooyin
farsamooyinka
farshaxan
farshaxanada
farshaxaniiste
farshaxanimada
farshaxaniste
farshaxanka
farshaxanno
farsmada
farta
fartaan
fartada
fartan
fartani
fartii
farto
fartuun
faruur
faruuryaha
faruuryo
farxaa
farxaan
farxad
farxada
farxadda
farxadood
farxay
farxeen
farxi
farxin
farxiya
farxiyo
farxo
faryareey
faryareeyda
faryaro
fas
fasaad
fasal
fasalka
fasallada
fasalo
fasax
fasaxa
fasaxay
fasaxyada
fascinating
fashil
fashilantay
fashiliyay
fashilmay
fashilmeen
fashion
fasil
fasiraadda
fasiri
fasiro
faso
fast
fat
fatah
fatahaada
fatax
fateh
father
fatigue
fatih
fatima
fatma
fattah
fatwa
fatwaid
fatxi
faye
faylalka
faylasha
faylasuuf
faylka
faynuus
fayow
fayras
fayraska
fayrus
faysal
fb
fc
fd
fdi
fe
feat
feature
featured
features
feb
febaraayo
feberaayo
febraayo
february
fedaraalka
federaal
federaalaynta
federaali
federaaliga
federaalka
federaalku
federal
federalka
federation
federico
fedraalka
fedraalku
fedral
fedralka
feebarwari
feed
feedhaha
feedhka
feejignaan
feel
feer
feeraha
feerfeer
feerka
feeryahan
feet
fegas
feker
fekerka
fekero
felhofer
felic
felis
feltman
female
feminist
fener
fenerbahc
fenerbahce
fer
ferde
ferdinand
ferencva
feresh
ferna
fernando
ferry
fertile
fest
festival
festivals
fever
few
feyraska
feysal
ff
fg
fgm
fi
fiat
fiba
fiber
fican
ficil
ficilada
ficilka
ficillada
fiction
fidaa
fiday
fidel
fidesz
fidey
fidi
fidin
fidinayaan
fidinta
fidisay
fiditaanka
fidiya
fidiyaan
fidiyay
fidiyeen
fidiyo
fidno
fido
fidsan
fidsantahay
field
fields
fifa
fifth
fight
fighter
fighters
fighting
figlar
figure
figures
fihir
fii
fiican
fiicana
fiicane
fiicanna
fiicantahay
fiicanyahay
fiicnaa
fiicnaaday
fiicnaan
fiicnayn
fiicneyd
fiicneyn
fiicni
fiid
fiidiyaha
fiidiyoow
fiidiyoowga
fiidiyow
fiidiyowga
fiidiyowgeeda
fiidiyowgu
fiidiyowyada
fiidiyowyo
fiidkii
fiidow
fiidyaha
fiidyowga
fiidyowyo
fiil
fiilada
fiilo
fiilooyinka
fiiniks
fiinlaan
fiiq
fiiqan
fiiri
fiirin
fiirinayo
fiirino
fiiriso
fiiriyo
fiiro
fiirogaar
fiirsado
fiirsashada
fiirsasho
fiirso
fiisaha
fiise
fiisigis
fiisigiska
fiisikis
fiisikiska
fiiso
fiisooyinka
fiit
fiitamiin
fiitamiino
fiji
fikir
fikirin
fikirka
fikiro
fikirtay
fikrad
fikrada
fikradaha
fikradahooda
fikradda
fikradeeda
fikradii
fikrado
fiktooriya
fil
fila
filaan
filaanka
filaayo
filadelfiya
filan
filasoofiyaasha
filasoofiyada
filayaa
filayay
filayo
file
filepath
files
fili
filibiin
filibiintyphoon
filibs
filim
filimaan
filimaanta
filimada
filimadeeda
filimadii
filimka
filimkan
filimkeeda
filimkeedii
filimkii
filimkiisii
filimku
filimmada
filimo
filin
filinka
filipino
filled
film
filmada
filmfare
filmka
filmografi
filmography
films
filna
filnaansho
filnayn
filo
filosofiga
fin
final
finalka
finally
finance
financial
financing
find
finding
fine
finger
finish
finishka
finland
finnish
finnishakana
finnishka
finnmark
fiorentina
fiqhiga
fiqi
fiqifuliye
fiqiga
fir
firaaqada
fircoon
fircooniga
fire
firearms
fired
firenze
firfircoon
firfircoona
firfircoonaa
firfircooni
firfircoonida
firi
firida
firiley
firileyda
firirsan
firm
firqo
firqooyinka
firri
first
fish
fisheries
fishing
fisigis
fisigiska
fisikiska
fiska
fit
fitamiin
fitnada
fitnadii
fitness
fitno
fitr
fivb
five
fixiso
fiyeena
fiyena
fiyetnaamiis
fiyetnam
fjord
fk
fkmg
fl
flag
flags
flamingo
flash
fleming
flickr
flight
flood
flooding
floods
floor
flora
florence
flores
florida
flour
flower
flowers
fly
flydubai
flying
flynt
fm
fmprc
fnc
fo
fobos
focus
focused
fog
fogaa
fogaadaa
fogaadaan
fogaaday
fogaadeen
fogaado
fogaan
fogaanaya
fogaani
fogaanshaha
fogaansho
fogaanta
fogayn
fogeeyay
fogeeyo
fogeyn
fogfog
foglio
fogtahay
folga
folio
folkaanaha
folkaano
folklore
follow
following
follows
foloriin
fomac
fontsize
food
fooda
foodcade
foodda
foodey
foods
fool
foolka
foolkaanaha
foolkaano
foolmaroodi
foolxumo
foolxun
foomamka
foomka
foorculus
foornada
foorno
foosha
foosiya
foosto
foot
football
footballforfriendship
footsteps
foox
fooxa
for
forbes
force
forced
forces
forcetoc
ford
foreign
foreignpolicy
forest
forestville
forever
form
formal
formally
format
former
formerly
forms
formula
fort
forta
forth
fortress
fortuna
fortune
forum
forums
forward
fosforos
fosforosta
fosil
fosse
foto
fought
found
foundation
founded
founder
founding
four
fourteenth
fourth
fowdo
fox
fr
fra
frac
fradkin
frame
frameless
franc
franca
france
francesco
francia
francis
francisco
franciska
franco
francophonie
francs
frank
frankfurt
frankincense
franklin
fransiiska
fransiska
fransisko
franz
frau
fred
frederick
fredrikstad
free
freedom
freeman
freestyle
freetown
freewebs
freiburg
fremda
fremdulo
french
fresh
friday
friend
friends
friendship
fries
friesland
frog
frogfish
from
front
frontier
fruit
fryareey
fryat
ft
ftse
fu
fudayd
fudud
fududaato
fududahay
fududayn
fududaynta
fududeeya
fududeeyaan
fududeeyay
fududeeyo
fududeyn
fududeynta
fuel
fujairah
fuji
fujino
fukada
fukushima
fula
fulay
fulham
fulin
fulineed
fulinta
fulisay
fuliso
fuliya
fuliyaa
fuliyaan
fuliyay
fuliyeen
fuliyey
fuliyo
fulkaano
full
fully
fumo
fun
funaanad
funchal
fund
fundamento
funding
fungi
fungiga
fungus
fuqahada
fur
fura
furaa
furaan
furaat
furaha
furan
furantay
furashada
furashadeyda
furashadii
furashadiisa
furasho
furashooyinka
furashooyinkiisa
furay
furayaasha
fure
fureen
furey
furfuran
furi
furiin
furin
furitaanka
furka
furmay
furmi
furnaan
furo
furqaan
furriinka
fursad
fursada
fursadaha
fursadda
fursado
furtaa
furtaan
furtay
furteen
furtey
further
furto
fus
futada
futbol
futbola
futo
future
futuro
fuugwo
fuul
fuulay
fuulka
fuulo
fuuq
fuusto
fw
fwww
fx
fy
fyla
g
ga
gaab
gaaban
gaabane
gaabani
gaabin
gaabinta
gaabis
gaabiyaa
gaabiyay
gaabiyey
gaabiyo
gaabka
gaaboow
gaabow
gaaca
gaad
gaadh
gaadha
gaadhaa
gaadhaan
gaadhay
gaadhaya
gaadhayaan
gaadhayay
gaadhayo
gaadhaysa
gaadhayso
gaadheen
gaadhey
gaadhi
gaadhid
gaadhiisa
gaadhin
gaadhka
gaadho
gaadhsan
gaadhsiisan
gaadhsiiya
gaadhsiiyay
gaadhsiiyeen
gaadhsiiyey
gaadhsiiyo
gaadiid
gaadiidka
gaadiidku
gaadmo
gaadsan
gaadsiin
gaaf
gaafow
gaagaab
gaagaaban
gaajada
gaajo
gaal
gaalada
gaaladii
gaaladu
gaaliyaam
gaaljecel
gaalka
gaalkacayo
gaalkacyo
gaalla
gaallada
gaalladii
gaalnimada
gaalnimo
gaalo
gaaloobay
gaamedle
gaamur
gaana
gaandi
gaani
gaar
gaara
gaaraa
gaaraan
gaaraayo
gaarahaan
gaaray
gaaraya
gaarayaa
gaarayaan
gaarayeen
gaarayo
gaaraysa
gaaraysaa
gaarayso
gaare
gaareen
gaareenin
gaareeso
gaarey
gaareysa
gaari
gaariga
gaarin
gaarisa
gaaritaanka
gaarka
gaarnimada
gaaro
gaaroole
gaarsiin
gaarsiinayo
gaarsiinta
gaarsiisan
gaarsiisay
gaarsiiso
gaarsiiya
gaarsiiyay
gaarsiiyeen
gaarsiiyey
gaarsiiyo
gaarta
gaartay
gaartey
gaarto
gaas
gaashaaman
gaashaamo
gaashaan
gaashaanbuurta
gaashaandhiga
gaashaandhigga
gaashaanka
gaashaanle
gaashireedle
gaaska
gaasku
gaasta
gaazi
gab
gaba
gabaad
gabad
gabadh
gabadha
gabadhaasi
gabadhani
gabadheeda
gabadhi
gabadhii
gabadhiis
gabadhiisa
gabadhiisii
gabadhooda
gabadhu
gabagabada
gabagabadii
gabagabeeyay
gabagabeeyey
gabal
gabanow
gabar
gabareey
gabax
gabay
gabayaa
gabayaaga
gabayada
gabayadii
gabayadiisa
gabayga
gabaygaas
gabaygaasi
gabaygan
gabaygii
gabaygu
gabayle
gabayo
gabayre
gabdha
gabdhaha
gabdhahii
gabdhihii
gabdho
gabdhood
gabdhuhuna
gabeyre
gabi
gabilay
gabiley
gabo
gabon
gaboobay
gaboobid
gaboow
gabooye
gabow
gabra
gabriel
gabtaanle
gabuun
gabya
gabyaa
gabyaaga
gabyi
gabyo
gacal
gacaliye
gacameey
gacan
gacaneey
gacanka
gacanlow
gacansaar
gacanta
gacantaada
gacantii
gacantiisa
gacantiisii
gacantooda
gacayte
gacma
gacmaha
gacmaheeda
gacmahooda
gacmeed
gacmeedka
gacmihiisa
gacmo
gacmood
gad
gada
gadaa
gadaal
gadaashaa
gadaashii
gadaashiis
gadaashiisa
gadabursi
gadabuursi
gadabuursiga
gadal
gadan
gadashada
gaday
gaddafi
gadh
gadhka
gadhle
gadhmalays
gadiid
gadiidka
gadisan
gado
gadood
gadoomay
gadoon
gadot
gaduud
gaduudan
gaduudka
gaelic
gaf
gaga
gagarinova
gahayr
gaheyr
gain
gaius
gal
gala
galaa
galaaftay
galaagsiyo
galaal
galaan
galaas
galaaya
galab
galabnimo
galabsan
galabtii
galadaystay
galaddiisu
galadi
galaiyay
galan
galatasaray
galawdewos
galax
galaxy
galay
galaya
galayaa
galayaan
galayaasha
galayaashii
galayax
galayda
galaydh
galayna
galayo
galayr
galayso
galbed
galbedka
galbeed
galbeedka
galbeedku
galbeedna
galcad
galdogob
gale
galeen
galeenka
galey
galeyda
galgaduud
galgala
galguduud
galhareeri
gali
galils
galin
galinaya
galinayo
galinsoor
galinta
galis
galisay
galiso
galitaanka
galiyaa
galiyaan
galiyay
galiyeen
galiyey
galiyo
galka
galkacayo
galkacyo
galkayo
galkii
galla
gallad
gallaha
gallen
gallery
galley
galleyda
gallup
galmaax
galmada
galmo
galmoodka
galmoodo
galmudug
galnimada
galo
galool
galootiga
galuusyo
galweyn
galy
galyo
gama
gambela
gambia
game
games
ganaax
ganaaxyo
ganac
ganacisga
ganacsada
ganacsadaan
ganacsadaha
ganacsade
ganacsadeh
ganacsado
ganacsan
ganacsatada
ganacsatadii
ganacsato
ganacsatoyaal
ganacsayaasha
ganacsi
ganacsiga
ganacsigeeda
ganacsigii
ganacsigooda
ganacsigu
ganacsiyada
ganacsiyo
ganacu
ganassi
ganay
ganbool
gandhi
gandi
ganey
gangnam
gangubai
ganjab
gantaal
gantaalada
gantaalaha
gantaalka
gantaalo
ganthal
ganymede
gao
gaon
gar
gara
garaac
garaaca
garaacaa
garaacay
garaacaya
garaacayo
garaacday
garaaci
garaacid
garaacidda
garaaco
garaad
garaadada
garaadka
garaadkii
garaadkiisu
garaadku
garaaf
garaam
garaashka
garab
garabka
garabkii
garabla
garacad
garad
garadag
garadka
garam
garan
garanaayo
garanayaa
garanayn
garanayo
garane
garanuug
garanuugle
garanuugta
garas
garasbaaley
garashada
garasho
garatay
garato
garayaan
garbaha
garbaharay
garbaharey
garbaharrey
garbo
garbrecht
garci
gardafuul
gardaran
gardaro
gardarrada
garden
gardens
gardheer
gardheere
gardiner
gardner
gare
gareen
gareeyay
gargaar
gargaara
gargaarka
gargaarno
gargaaro
gargoore
garhajis
gari
gariga
gariiga
gariir
gariirka
garissa
garjante
garjinte
garland
garnaada
garoob
garoobay
garoomada
garoomo
garoon
garoonada
garoonka
garoonkaan
garoonkaas
garoonkan
garoonku
garoono
garoowe
garow
garowe
garoweonline
garowga
garre
garry
garsoor
garsooraha
garsoorayaasha
garsoore
garsoorka
garsoorku
garsuge
garta
gartaa
gartaan
gartada
gartay
garteen
gartey
garto
garuun
garwaale
garweyne
garxajis
gary
garyaqaan
garyaqaanka
gas
gases
gasha
gashaa
gashaan
gashaanle
gashaanti
gashan
gashanle
gashay
gashey
gashi
gashiga
gasho
gasiirada
gasiiradaha
gasiirado
gatay
gate
gates
gateway
gathering
gato
gauilie
gaul
gaulle
gauteng
gave
gaw
gawaadhida
gawaari
gawaarida
gawc
gawl
gawracay
gay
gaya
gayaasudiin
gayiga
gayo
gaysatay
gaystaan
gaystay
gaysteen
gaysto
gaza
gazanawiyiinta
gazelle
gazeto
gazette
gazi
gaziantep
gazprom
gb
gc
gcc
gd
gdan
gdp
ge
gebi
gebiley
gebze
ged
geddisan
gedgedoomaa
gedgedoonka
gedi
gediid
gedisan
gedo
gedoomaan
gedoomo
gedoon
gedoonkaasi
gedoonto
gee
geed
geeda
geedaha
geedahaas
geeddi
geedi
geedjaceyl
geedka
geedkaan
geedkan
geedkani
geedkii
geedku
geedo
geeduhu
geel
geela
geele
geeli
geelidle
geelii
geella
geelle
geelu
geenyada
geenyo
geeraar
geeraarka
geeri
geerida
geeridii
geeridiisa
geeridu
geerisa
geeriyooday
geeriyoodayba
geeriyoodey
geeriyoodo
geeriyootay
gees
geesa
geesaha
geesi
geesiga
geesigii
geesiley
geesinimada
geesinimo
geesiyaal
geesiyadii
geeska
geesle
geeso
geesood
geesoodka
geesta
geestay
geesteen
geeya
geeyaa
geeyaan
geeyay
geeyeen
geeyey
geeyo
geeystay
gef
gegada
gegida
gego
gegoda
gegodiyaaradeed
gegooyin
gegooyinka
geingob
geladi
gelaya
gelayaa
geledi
geli
gelin
gelinaya
gelinayaa
gelinayo
gelinsoor
gelinta
gelisa
gelisaa
gelisay
geliso
gelitaanka
geliya
geliyaa
geliyaan
geliyay
geliyeen
geliyey
geliyo
gelle
gelyada
gelyo
gen
gendarmerie
gende
gender
gendershe
gene
genel
genelenergy
generaal
general
generation
genes
genesis
geneva
genk
genoa
gentlemen
genus
geo
geographical
geography
geological
geology
geometry
geophysical
george
georges
georgetown
georgia
gepatroj
gerais
gerald
gerd
gerence
geri
geriga
geriyaad
germain
german
germana
germanic
germanio
germanujo
germany
gerwarth
gerweyne
geshekter
geshiishe
get
getafe
gethsemane
gets
getting
getty
gettysburg
geum
gevart
geyiga
geyn
geynayo
geynta
geysan
geysatay
geysatey
geysato
geystaan
geystay
geysteen
geystey
geysto
gf
gfriend
gg
gh
ghana
ghanem
gharnaada
gharri
ghazali
ghazi
ghazwah
ghazya
ghedi
gheri
gi
gia
giang
gianna
giant
gibbons
gibin
gibraltar
gidaar
gidaarka
gidaarkii
giddi
gidhays
gidir
giesecke
gif
gift
gifts
gigawatt
gii
gil
gilgamesh
gime
gimmick
gini
ginni
giovanni
giraan
giraanta
girgire
giriig
giriiga
giriigga
giriiggii
giriiggu
giriigii
giriigta
giriigu
giriyaad
girl
girls
giselle
gitaar
gitaarka
giulia
giulio
giuseppe
give
given
gives
giza
gje
gjøvik
gk
gl
gladys
glamour
glasgow
glass
glavo
gle
global
globalization
globe
glomma
glory
glu
gm
gmail
gmbh
gmt
gn
gnassingbe
gnu
go
goa
goaan
goal
goat
gob
gobal
gobalada
gobaleedka
gobalka
goballada
gobanimo
gobanimodoonka
gobka
gobo
gobol
gobola
gobolada
goboladaas
goboladda
goboladii
gobolda
goboleed
goboleedda
goboleedka
goboleedkaas
goboleedku
goboleedyada
goboleedyadu
goboleedyo
gobolka
gobolkaan
gobolkaas
gobolkaasi
gobolkan
gobolkani
gobolkii
gobolku
gobollada
gobolladan
gobolladii
gobollo
gobolo
gobonimo
gobta
god
godaalo
godad
godadka
godan
godane
goddadka
goddards
gode
godeey
godenzi
godey
godinlabe
godka
godkii
godleey
godob
godod
gods
goes
gogh
gogol
gogosha
going
gokulam
gol
golaha
golahaasi
golahani
golan
golayaasha
gold
golden
gole
goleyaasha
golf
golihii
golihiisa
golis
gollaha
golle
gollis
golo
gololeey
goluhu
golweyn
gomez
gondar
gondwana
gone
gonza
goo
goob
goobaabin
goobada
goobaha
goobalay
goobeed
goobihii
goobjoog
goobjoogaha
goobjoogayaasha
goobjooge
goobo
goobood
goobroon
goobta
goobtaa
goobtaan
goobtaas
goobtaasi
goobtan
goobteen
goobtii
goobweyn
good
goodaad
goodir
goods
googarad
google
gool
goolasha
gooldhaliyaha
goolka
goolkiisii
goon
goonada
gooni
goonida
gooniya
goonjeex
goonni
goor
goorba
goorma
goorta
goortaas
goortaasi
goortii
goortuu
gooryaan
gooryaanka
goos
goosadka
goosan
goosashada
goosasho
goosatay
goosha
gooshi
goosta
goostay
goosteen
goosto
gooy
gooya
gooyaa
gooyaan
gooyay
gooyey
gooyn
gooyo
gor
gorbachev
gordon
gorgaate
gorgor
gorgorka
gorgortanka
gorie
goro
gorontalo
goronyada
goronyo
goroyo
gosha
gossip
got
gouled
gov
govaerts
government
governmental
governments
governor
governorate
govt
gowraco
gows
goyn
goynta
goyseen
goysyada
gp
gps
gq
gr
grabar
grace
graham
gram
gramatiko
grammy
gran
granada
grand
granda
grande
grant
grass
grauballe
gravedigger
gray
gre
great
greater
greatest
greco
greece
greek
green
greenhouse
greenland
greenwich
greenwood
greetings
gregory
grenada
grenadines
grenoble
grey
greystone
griffin
griinland
grill
grindlays
groep
groningen
ground
group
groups
grove
growing
grown
growth
grps
grundig
grupi
grupo
gs
gsg
gsm
gt
gu
gua
guadalajara
guadeloupe
guam
guangdong
guangzhou
guantanamo
guarani
guard
guardian
guatemala
guba
gubaabo
gubaan
guban
gubanaysa
gubashada
gubay
gubida
gubo
gubta
gubtay
gucci
gud
guda
gudaan
gudaha
gudahana
gudaheed
gudaheeda
gudahiisa
gudahood
gudajiray
gudan
gudanaya
gudashada
guday
gudba
gudbaa
gudbaan
gudban
gudbay
gudbaya
gudbayo
gudbe
gudbeen
gudbi
gudbin
gudbinin
gudbinta
gudbisay
gudbiso
gudbiya
gudbiyaa
gudbiyaan
gudbiyay
gudbiye
gudbiyeen
gudbiyo
gudbo
gudboon
gudboonaatay
guddi
guddida
guddidii
guddiga
guddigii
guddiyada
guddoomiyaha
guddoomiyayaasha
guddoomiye
guddoomiyihii
guddoon
guddoonsiiyey
gudeheeda
gudi
gudida
gudiga
gudigan
gudigii
gudihiisa
gudiyo
gudmo
gudniin
gudniinka
gudo
gudomiyaha
gudomiye
gudomiyihii
gudoomiya
gudoomiyaha
gudoomiyahii
gudoomiye
gudoomiyihi
gudoomiyihii
gudoon
gudoonka
gudoonsiiyay
gudub
gudubka
gudubta
gudubtay
gudubto
guduud
guduudan
guelleh
guernsey
guerrero
guess
guevara
guez
guga
gugii
gugundhabe
guiana
guidance
guide
guidebook
guido
guillaume
guillermo
guine
guinea
guinness
guitar
gujarat
gujarati
gujis
gulaid
gulation
guled
guleed
gulf
gulled
gulleed
guluf
gum
gumaad
gumaadka
gumaroow
gumaysan
gumaysanayay
gumaysi
gumaysiga
gumaysigii
gumaystaha
gumaystay
gumaystayaasha
gumaystayaashii
gumaystihii
gumaystuhu
gumburka
gumeesan
gumeestay
gumeesti
gumeestihii
gumeeysiga
gumeysan
gumeysi
gumeysiga
gumeysigii
gumeystaha
gumeystay
gumeystayaashii
gumeystihii
gumud
gumuz
gun
gunaanad
gunaanaday
gunagado
gunbur
gundhig
gunno
guns
gunta
guntiga
gunud
guoan
guraa
gurabia
gurage
gurasho
guray
guraya
gurbaan
gureey
gureeyay
gurey
gurgure
guri
guriceel
guriga
gurigeeda
gurigii
gurigiisa
gurigiisii
gurigooda
gurigu
gurijoog
gurijooga
guriyeynta
gurmad
gurmaday
gurmadka
guro
gurteen
gurto
guru
guruub
guruubka
guruubkan
guruubku
guruubyada
guruubyadu
guryaha
guryahooda
guryahoodii
guryeynta
guryihii
guryo
guryuhu
gus
guska
gustav
gustave
guta
gutaan
gutay
gutenberg
guterres
guto
guubaabin
guubaabisaa
guud
guudahaan
guudka
guudmarka
guul
guulaha
guulaysan
guulaysatay
guulaysta
guulaystay
guulaystayaashii
guulaysteen
guulaystihii
guulaysto
guuldaradii
guuldareystay
guuldareysteen
guuldaro
guuldarradii
guuldarro
guuled
guuleed
guuleestay
guuleesteen
guuleeystay
guuleysan
guuleysatay
guuleysato
guuleysi
guuleysiga
guuleysta
guuleystaan
guuleystay
guuleystayaasha
guuleysteen
guuleystey
guuleysto
guulihii
guulo
guulwade
guumushtakiin
guun
guur
guura
guuraa
guuraaga
guuraagu
guuraan
guurada
guuradii
guuray
guure
guureen
guurey
guuri
guurin
guurista
guuriyay
guurka
guurkani
guurkeeda
guurkii
guurkooda
guurku
guuro
guursadaan
guursaday
guursadeen
guursadey
guursado
guursan
guursanaa
guursanaayaan
guursanayay
guursanin
guursatay
guursato
guurtay
guurtey
guurtida
guurtidu
guurto
guusha
guushii
guushu
guutaale
guutada
guutadaas
guutadii
guuto
guutooyin
guutooyinka
guvara
guwatimala
guyana
gw
gwangju
gy
gyeonggi
gypsum
gyu
h
ha
haa
haabiil
haad
haada
haadi
haadka
haafniyaam
haag
haaji
haajiraan
haajiray
haajireen
haajirtay
haamaha
haan
haarlem
haaruun
haasaawaha
haasaawe
haashim
haatan
haatanna
haatif
haatuf
haaya
haayaan
haayay
haaydarojiin
haayeen
haayo
hab
haba
habaar
habab
hababka
habane
habar
habarcafaan
habargidir
habarjeclo
habarwadaag
habaryoonis
habash
habayn
habaynta
habaysan
habboon
habboonayn
habdhaca
habdhaqanka
habdhiska
habeen
habeenada
habeenimadii
habeenimo
habeenka
habeenki
habeenkii
habeenkiina
habeeno
habeeyay
habeeyey
habeeyo
haber
habeyn
habeynta
habib
habitat
habka
habkaan
habkaas
habkan
habkii
hablaha
hablo
hablood
habluhu
haboon
haboonayn
habr
habraac
habsaday
habsami
habsatay
habsburg
habsi
habta
had
hada
hadaa
hadaad
hadaaftimo
hadaan
hadaba
hadad
hadaf
hadafka
hadafkeedu
hadafkoodu
hadaftimo
hadal
hadalada
hadaladii
hadalka
hadalkaas
hadalkaasi
hadalkan
hadalkii
hadalkiisa
hadalkiisii
hadalku
hadallada
hadalladan
hadalladii
hadallo
hadalno
hadalo
hadan
hadana
hadane
hadasha
hadashaa
hadashay
hadashey
hadasho
haday
hadaynu
hadba
hadda
haddaad
haddaan
haddaanay
haddaanu
haddaba
haddan
haddana
hadday
haddaynnu
haddaynu
haddi
haddii
haddiiba
haddiise
hadduu
hadduusan
hadey
hadh
hadhaaga
hadhaagii
hadhay
hadhayna
hadhin
hadho
hadhow
hadhramaut
hadhuudh
hadhuudhka
hadi
hadid
hadii
hadimo
hadith
hadiya
hadiyad
hadiyadda
hadiyado
hadla
hadlaa
hadlaan
hadlaaya
hadlaayo
hadlay
hadlaya
hadlayaa
hadlayaan
hadlayana
hadlayay
hadlayey
hadlayo
hadlaysa
hadlaysay
hadleen
hadli
hadlid
hadlin
hadlo
hadoo
hadraawi
hadu
haduu
hae
hafsa
hafun
haga
hagaagaya
hagaagsan
hagaajin
hagaajinta
hagaajisa
hagaajiyaan
hagaajiyay
hagaajiyey
hagaajiyo
hagaan
hagaha
hagar
hagare
hagaya
hagayay
hage
hagi
hagia
hagida
hago
hague
hai
haifa
haile
hailemariam
hain
hair
haiti
haitian
haji
hak
haka
hakaa
hakaba
hakad
hakan
hakinayo
hakiyay
hakiyo
haku
hal
hala
halaad
halaag
halaaleye
halabuur
halabuure
halabuurka
halac
halane
halayn
halbeeg
halbeega
halbeegan
halbeegga
halbeegyada
halbeegyo
halbowlaha
halbowle
haldoor
haldoorka
hale
haleelay
haleeli
half
halgamaa
halgamaagii
halgamay
halgamayaal
halgamayaashii
halgame
halgan
halganka
halgankaas
halgankii
halgantay
halima
halin
halis
halista
halka
halkaa
halkaan
halkaana
halkaas
halkaasi
halkaasna
halkaasoo
halkan
halkani
halkas
halkay
halkbank
halkee
halkii
halkiisa
halku
halkuu
hall
halle
halliburton
hallow
halloween
hallyu
halmaala
halmar
halogen
halogenka
halogens
halogenska
haloo
halsey
halwa
halyaygii
halyeey
halyeeyada
halyeeyadii
halyeeyga
halyeeygii
halyeeyo
halyey
halyeyga
halyeygii
ham
hamad
hambalyeeyay
hambalyo
hamburg
hamburger
hamburgo
hamdan
hamed
hami
hamid
hamiga
hamilton
hammersmith
hammurabi
hamoud
hampshire
hamza
hamzada
hamzo
han
hana
hanaan
hanaanka
hanad
hanan
hanaqaad
hanaqaaday
hanashada
hanatay
hancinema
hand
handbook
handed
handfasting
handle
hands
hanfu
hang
hangari
hangash
hanging
hangool
hangout
hangul
hani
hanja
hanjabaad
hanjabay
hanjin
hankook
hankyung
hanlim
hanna
hannaan
hannaanka
hannaankii
hannah
hano
hanoi
hanqal
hans
hantaara
hantay
hanti
hantida
hantidaas
hantidhowrka
hantidii
hantidiisa
hantidooda
hantiilayaasha
hantiwadaag
hantiwadaaga
hantiwadaagga
hanuun
hanuuniye
hanuuniyo
hanuunka
hanuunkii
hapag
haplogroup
hapoel
happened
happiness
happy
haqab
haqabtiri
har
hara
haraad
haraadiga
haraadigii
haraaga
haraash
haraat
harada
harag
haraga
haraha
haram
haramcad
harar
harare
hararghe
harari
harawo
haray
harbor
harbour
hard
hardware
hare
hareeraha
hareeraheeda
hareeraysan
hareeraysnaa
hareereenta
hareereeyay
hareereeyeen
hareereysan
hareeri
hareerihiisa
hareersan
hareeyay
hargab
hargabka
hargabyada
hargaha
hargaysa
hargeisa
hargeysa
hari
hariin
harimacadka
harin
hariri
haris
harith
harlow
haro
harold
haroorays
harooyin
harooyinka
haroun
harper
harqaanle
harraad
harrington
harris
harry
harsan
hart
harta
hartay
harti
hartiga
harvard
harvest
harwood
has
hasa
hasan
hasanayn
hase
haseyeeshee
hashaan
hashi
hashii
hashika
hashim
hashimoto
hashishka
hasiyaam
hass
hassan
hastings
hat
hatchepsut
hate
hathaway
hatshepsut
haud
haumea
hausa
haute
havana
havas
have
haven
haver
haw
hawada
hawadu
hawai
hawaii
hawaiian
hawd
hawdka
haween
haweenay
haweenaydii
haweeney
haweeneyda
haweeneydii
haweeneydu
haweenka
haweenkii
haweenku
hawiye
hawl
hawlaha
hawlan
hawlanayd
hawleed
hawleedka
hawlgab
hawlgabka
hawlgal
hawlgala
hawlgalaan
hawlgalay
hawlgalayaasha
hawlgalka
hawlgalkii
hawlgallada
hawlgalladii
hawlgallo
hawlgelin
hawlihii
hawlkarnimo
hawlo
hawlwadeenada
hawo
hawoda
hawooyin
hawraar
hawraaraha
hawraarsame
hawsha
hawshaas
hawshii
hay
haya
hayaa
hayaamay
hayaan
hayaankii
hayad
hayada
hayadaha
hayadani
hayadda
hayaha
hayashi
hayat
hayay
hayb
haybad
haybaysto
haybe
hayd
haydarojiin
haydarojiinta
haye
hayeen
hayeenka
hayeeshee
hayek
hayey
hayira
haykal
haylaan
haylan
hayn
haynayaa
haynin
hayno
haynta
hayo
hays
haysa
haysaa
haysan
haysanno
haysashada
haysata
haysataa
haysatay
haysato
haysay
hayska
hayso
haysta
haystaa
haystaan
haystaha
haystay
haysteen
haystey
haysto
haytihii
hayward
hayworth
hayya
hbm
hbo
hc
hctv
hd
hda
hdm
hdms
he
head
heading
headquarters
health
hear
heard
heart
hearts
heat
heaven
heavy
hebe
hebel
hebrew
hebrewga
hebrides
hebrow
heck
hectare
hedges
hedmark
hee
heeda
heeg
heegan
heellan
heer
heerar
heerarka
heerka
heerkeedii
heerkii
heerkooda
heerku
heerkul
heerkulka
heerkulkeedu
heerkulkiisu
heerkulku
heersare
heersareeya
hees
heesa
heesaa
heesaaga
heesaan
heesaha
heesaheeda
heesahiisa
heesahooda
heesan
heesanin
heesay
heesayaal
heesha
heesi
heesid
heesida
heesihii
heesihiisa
heeska
heeso
heesood
heesta
heestaa
heestaan
heestaas
heestaasi
heestan
heestani
heestay
heesteeda
heesteedii
heestii
heesto
heestooda
heestoodii
heestu
heesuhu
heeysa
heeysaa
heeysatay
heeysta
hefner
hei
heidi
height
heights
heil
hektar
hel
hela
helaa
helaan
helaaya
helaayo
helay
helaya
helayaa
helayaan
helayo
helaysa
helaysaa
helayso
held
heleen
helen
helena
helene
heley
heleysaa
heli
helicopter
helid
helida
helidda
helin
helitaan
helitaanka
helium
heliwa
heliwaa
hell
hellenic
hellenistic
hello
helms
helmut
helnay
helno
helo
help
helped
helping
helsinki
hemorrhagic
henderson
henkilo
henley
hennepin
henry
hentai
heo
hepatitis
her
hera
herald
herar
herbaceous
herbert
here
herediano
herer
hergabka
herge
heritage
herman
hermann
hermon
hernandez
hero
herodotus
heroes
herring
herself
hersi
herzegovina
hesha
heshaa
heshay
heshiin
heshiis
heshiisiin
heshiisiinta
heshiiska
heshiiskaas
heshiiskaasi
heshiiskan
heshiiskii
heshiisku
heshiisyada
heshiisyadii
heshiisyo
heshiiyaan
heshiiyay
heshiiyeen
heshiiyey
hesho
heuer
hex
hey
heyb
heybad
heyn
heynta
heysa
heysad
heysan
heysata
heysato
heyso
heysta
heystaa
heystaan
heystay
heysteen
heysto
hezbollah
hf
hg
hh
hi
hibada
hibo
hidaaya
hidaha
hidda
hiddaha
hidde
hidden
hiddo
hide
hido
hieroglyphic
hieroglyphs
high
higher
highest
highland
highlands
highlight
highway
higlo
hii
hiigsiga
hiil
hiilaad
hiilaadka
hiilin
hiilinaya
hiiraale
hiiraan
hiiran
hijab
hijiriga
hijiriya
hijjah
hijrad
hijrada
hijri
hijriga
hijrigu
hijriya
hijriyada
hijrooday
hijroodeen
hijroonayay
hijrootay
hilal
hilbaha
hildid
hilib
hilibi
hilibka
hilibkiisa
hilibkooda
hiliyaam
hiliyaamta
hill
hillaac
hillal
hillary
hills
hilmaami
hilmaamin
hilowga
hilowle
hilton
him
himada
himadda
himilada
himilo
himilooyinka
hinda
hindi
hindia
hindida
hindiga
hindika
hindis
hindisaha
hindisay
hindise
hindiya
hindo
hindu
hinduism
hinduistu
hindus
hindustan
hindustani
hindustantimes
hinduuga
hinduweddingindia
hingo
hintire
hip
hir
hira
hiraab
hiraabe
hirab
hirah
hiran
hiraqla
hiraqle
hirarka
hirgalay
hirgalin
hirgalinta
hirgaliyay
hirgaliyey
hirgaliyo
hirgashay
hirgelin
hirgelinta
hirgelisay
hirgeliyay
hirgeliyeen
hirgeliyey
hirgeliyo
hirka
hirshabeele
hirshabeelle
hirshabele
hirshabelle
hirsi
his
hishaam
hishiis
hishiiska
hishiiskii
hishiisyo
hishiiyeen
hispanic
hispanik
hispaniola
historia
historic
historical
historically
history
hit
hitachi
hitler
hits
hitter
hiv
hiwaayadda
hj
hjalmar
hk
hko
hl
hler
hline
hmong
hms
hnk
ho
hoa
hobart
hobiyo
hobolada
hobolo
hobyo
hodaal
hodan
hodana
hodanimo
hodanka
hodon
hodoon
hoffenheim
hogaamihii
hogaamin
hogaaminaayay
hogaaminaayey
hogaaminaya
hogaaminayay
hogaaminayeen
hogaaminayey
hogaaminayo
hogaaminaysay
hogaamineed
hogaaminta
hogaamintii
hogaamisa
hogaamiso
hogaamiya
hogaamiyaasha
hogaamiyaha
hogaamiyahooda
hogaamiyay
hogaamiyayaal
hogaamiyayaasha
hogaamiyayaashii
hogaamiye
hogaamiyeyaasha
hogaamiyeyaashiisa
hogaamiyihii
hogaamiyo
hogaan
hogaanka
hogaankii
hogaansamay
hogaansamo
hogaasamay
hogale
hogaminayay
hoggaamin
hoggaaminaayey
hoggaaminaayo
hoggaaminaya
hoggaaminayay
hoggaaminayey
hoggaaminayo
hoggaamineed
hoggaaminta
hoggaamiyaha
hoggaamiyay
hoggaamiyayaasha
hoggaamiye
hoggaamiyey
hoggaamiyeyaasha
hoggaamiyeyaashii
hoggaamiyihii
hoggaamiyo
hoggaan
hoggaanka
hoggaankii
hoggaansamaan
hoggaansameen
hoggaansamo
hoggaansanaanta
hohokam
hoi
hoka
hokkaido
hokkien
holac
holan
holand
hold
holding
holdings
holds
holiday
holland
hollande
hollywood
holmes
holocaust
holy
hom
homaro
home
homepage
homes
homestead
homo
honda
honduras
honey
hong
hongtian
honiara
honolulu
honor
honshu
honve
hoo
hooba
hoobaan
hoobtay
hood
hooda
hoog
hool
hoolka
hoon
hooray
hooreeyay
hoos
hoosaad
hoosaadka
hoosaadyo
hoosaysa
hoosaysiin
hoosdhaban
hoosdhow
hoose
hooseeya
hooseeyaa
hooseeyo
hooseeysa
hooseysa
hooseysaa
hooseyso
hoosgala
hoosingo
hoosingow
hoosta
hoostaga
hoostagta
hoostagtaa
hoosteeda
hoostega
hoostegaan
hoostegtaa
hoostiisa
hoostimaada
hoostooda
hoosu
hoosyimaada
hooto
hooy
hooya
hooyaalayeey
hooyada
hooyadaa
hooyaday
hooyadeed
hooyadeedna
hooyadii
hooyadiina
hooyadiis
hooyadood
hooyadu
hooyay
hooye
hooyeen
hooyey
hooyga
hooyo
hooyoda
hooyooyin
hooyooyinka
hop
hope
hopes
hopkins
hor
horaanta
horaantii
horaantiisa
horay
horayay
horayba
horayn
horayna
horaysa
horaysay
horayso
hordaland
hordhac
hordhaca
hordio
hore
horeba
horee
horeesay
horeeya
horeeyaan
horeeyay
horeeye
horeeyeen
horeeyey
horeeyo
horeeysa
horeeysay
horeeyso
horena
horey
horeyay
horeyd
horeyn
horeyna
horeyntii
horeysa
horeysay
horeysey
horeyso
horgale
horizon
horizonte
horjeed
horjeeda
horjeedaa
horjeedaan
horjeeday
horjeedda
horjeedday
horjeedeen
horjeedin
horjeedka
horjeedo
horjeestay
horjeesteen
horjeesto
horkacaayay
hormar
hormaray
hormarin
hormarinta
hormariyaan
hormariyay
hormariyo
hormarka
hormarkii
hormaro
hormarsan
hormartay
hormood
hormoodka
hormos
hormuud
hormuudka
hormuz
horn
horraantii
horrayn
horrayntii
horraysa
horraysay
horreeya
horreeyaan
horreeyay
horreeyeen
horreeyey
horreeyo
horreeysiiyey
horreyey
horreyn
horreyntii
horreysa
horreysay
horreysey
horse
horseed
horseeda
horseeday
horseedday
horseedi
horseshoe
horst
horta
hortaada
hortaagan
hortag
hortaga
hortagaa
hortagaan
hortagay
hortagaya
hortagga
hortagi
hortagida
hortago
hortagtaa
hortagto
horte
horteed
horteeda
horti
horticulture
hortii
hortiis
hortiisa
hortimid
hortooda
horu
horudhac
horukaca
horumar
horumaray
horumarin
horumarineed
horumarinta
horumarisay
horumariso
horumariyaan
horumariyay
horumariyey
horumariyo
horumarka
horumarkeeda
horumarkii
horumarku
horumarsan
horumartey
horus
horuu
horyaal
horyaalada
horyaalka
horyaalkii
horyimaadeen
horyimid
hos
hose
hosh
hospital
hossain
host
hostori
hosts
hot
hoteel
hoteelada
hoteelka
hoteelo
hotel
hotelada
hotelka
hotelo
hotels
hotmail
hotspur
house
housecroft
housing
houston
houthi
houthis
hove
how
howard
howd
however
howl
howlaha
howlaheeda
howlahooda
howlgabka
howlgal
howlgala
howlgalaan
howlgalada
howlgalay
howlgaliyay
howlgalka
howlgalkii
howlgallada
howlgalo
howlgasha
howlihii
howlo
howlwadaag
howlwadag
howraarsame
howsha
howshan
howshii
howston
hoy
hoyatay
hoyga
hoygasuugaanta
hq
hr
hrithik
hrw
hs
hsin
hsu
ht
hti
htm
htmhttps
html
htmlhttp
htmlhttps
http
https
hu
hualien
huang
hub
hubaa
hubaal
hubanti
hubaysan
hubaysnaa
hubeer
hubeeysan
hubeeysani
huber
hubeynta
hubeysan
hubi
hubin
hubinta
hubisaa
hubiyaa
hubiyo
hubka
hubkii
hubo
hud
huda
hudet
hudhaifa
hudheel
hudheelada
hudheelka
hudheelkii
hudheelo
hudhudkii
hudoon
hudson
hufan
huffingtonpost
hufnaan
hufnaanta
hugaaminaayay
huge
hugeey
hugh
hughes
hugo
hui
hulagu
hulburd
huluul
hum
humaag
human
humanitarian
humans
hun
hundo
hundon
hundred
hundreds
hung
hungari
hungaria
hungarian
hungary
hunger
hunguri
hunguriga
hunter
huraan
huray
hurda
hurdada
hurdo
hureyra
hureyrah
huriwaa
hurre
hurricane
hurriyetdailynews
huruud
huruuda
huryo
husayn
husband
husein
husen
hussain
hussein
hustler
hut
huteel
huteelada
hutter
hutu
huud
huuluusiin
huur
huurka
huurshe
huwan
huyayy
hwa
hwang
hy
hybrid
hyde
hyderabad
hydrocarbons
hydrogen
hydrographic
hydropower
hye
hyo
hyori
hyperion
hypogaea
hyuk
hyun
hyuna
hyundai
hyung
hyva
i
ia
iaa
iadb
iaea
ial
iam
ian
iata
iau
ib
iberian
ibin
ibis
iblays
ibliis
ibliiska
ibn
ibni
ibnlive
ibnu
ibolya
ibraahiim
ibraahim
ibraahin
ibrahiim
ibrahim
ibrahin
ibrd
ic
icao
icarus
icc
ice
iceland
icelandic
icon
icrc
icsid
ict
ictiraaf
ictiraafka
ictiraafsanyahay
icy
id
ida
idaacad
idaacada
idaacadaha
idaacadda
idaajaa
idada
idaha
idaho
idana
idarays
identity
idhi
idho
idi
idiin
idiinku
idiinna
idil
idin
idinka
idinkaga
idinkana
idinkoo
idinku
idinkugu
idinla
idiris
idka
idlaado
idle
idman
idmo
ido
idol
idols
idolyada
idolyasha
idooyin
idriis
idris
idriss
iduhu
iduskcn
ie
iel
ies
if
ifafaale
ifat
ifbaxay
ifilada
ifk
ifka
ifriiqiya
iftiima
iftiimaya
iftiimaysa
iftiiminta
iftiimisa
iftiin
iftiinka
iftiinkuna
iftin
iftinka
ig
iga
igad
igaha
igala
igama
igbo
igmaday
igo
igor
igta
igtii
igtu
igu
igula
ih
ihg
ihi
iho
ihun
ii
iib
iibgeeyo
iibin
iibinta
iibisa
iibisay
iibiso
iibiya
iibiyaa
iibiyaan
iibiyaha
iibiyay
iibiye
iibiyeen
iibiyey
iibiyo
iibka
iibsada
iibsadaan
iibsadaha
iibsaday
iibsadeen
iibsado
iibsan
iibsanaya
iibsanayo
iibsashada
iibsatay
iibsato
iibsi
iibsiga
iibso
iid
iida
iidaan
iidada
iidaysan
iidaysiga
iidaysto
iideysanaya
iideystaan
iideysto
iidhehda
iidle
iido
iidooyin
iidooyinka
iidow
iifaalkii
iiga
iigu
iii
iiia
iiib
iil
iimaan
iimaanka
iimaankooda
iin
iiraan
iisal
iisalwasaare
iisho
iisul
iisulwasaaraha
ijjah
ijtihaadka
ik
ika
ikea
ikhtiyaar
ikhtiyaari
ikhtiyaarka
ikon
ikraan
iktas
ikwadoor
ikweetiga
il
ila
ilaa
ilaaa
ilaah
ilaaha
ilaahay
ilaahayna
ilaahayow
ilaaheennu
ilaaheey
ilaahey
ilaahi
ilaahii
ilaahnimada
ilaahow
ilaahyada
ilaahyadii
ilaahyo
ilaalada
ilaali
ilaalin
ilaalinaya
ilaalinayay
ilaalinayo
ilaalino
ilaalinta
ilaalisa
ilaalisaa
ilaalisay
ilaaliso
ilaaliya
ilaaliyaa
ilaaliyaan
ilaaliyaha
ilaaliyay
ilaaliye
ilaaliyo
ilaalo
ilaashadaan
ilaawaan
ilaaway
ilaawi
ilad
ilada
ilaha
ilahay
ilays
ilayska
ilbaab
ilbaabka
ilbax
ilbaxnimada
ilbaxnimadii
ilbaxnimadu
ilbaxnimo
ilbaxsan
ilbir
ilbiriqsi
ilbiriqsigiiba
ilbo
ile
ileen
ileys
ileyska
ilhan
ili
ilig
ilin
ilka
ilkagaduud
ilkaha
ilkii
ilko
ilkood
ilku
ilkuhu
ill
illa
illaa
illaah
illaahay
illada
illahay
illallaah
illegal
illig
illinois
illit
illubabor
illustrated
ilma
ilmaha
ilmahaasi
ilmahiis
ilmahiisa
ilmahooda
ilmihii
ilmihiisa
ilmo
ilmuhu
ilo
iloobi
ils
iltapa
ilyaas
ilyas
im
ima
imaada
imaadaa
imaadaan
imaaday
imaadeen
imaado
imaadyada
imaam
imaamka
imaamkii
imaamku
imaamu
imaamyada
imaan
imaanaya
imaanayaa
imaanayaan
imaanayay
imaanayo
imaanaysa
imaanin
imaanshaha
imaaraadka
imaaraatka
imaarada
imaaradaha
imaaradihii
imaaradii
imaatinka
image
images
imah
imam
iman
imanaya
imanayay
imanaysa
imasa
imbaraadoor
imbiraadoor
imbiraadooriyada
imbiraadoorka
imbiraadoorkii
imdb
imf
img
imgrc
imid
imika
imikana
iminka
iminkana
imisa
immigration
immikana
imo
impact
imperial
implement
implementation
implemented
import
importance
important
imra
imran
imtixaan
imtixaanka
imtixaankii
in
ina
inaa
inaad
inaadan
inaan
inaanan
inaanay
inaanu
inac
inaga
inagu
inan
inanka
inanta
inay
inayna
inaynan
inaynu
inaysan
inb
inbadan
inc
inca
incest
inch
incheon
inches
include
included
includes
including
income
incorporated
increase
ind
independence
independent
index
indexes
indha
indhabuur
indhacade
indhadeero
indhaha
indhahooda
indhahoodu
indhayare
indhaynta
indheer
indheeyay
indheynta
indhihiisa
indho
indhobuur
indhood
indhoolayaasha
indhoole
indhuhu
india
indian
indiana
indianapolis
indianexpress
indianka
indians
indias
indiatimes
indica
indicated
indicopleustes
indies
indigenous
indikvorto
individual
individuals
individuo
indiya
indo
indochina
indonesia
indonesian
indoniisiya
indunisi
indunisiya
indus
industrial
industries
industry
inee
ineey
inen
iney
ineysan
infaneto
infano
infanoj
infant
infantry
infinitivo
influential
info
infopankki
inform
information
infrared
infrastructure
ing
ingaris
ingiriis
ingiriisa
ingiriisi
ingiriisiga
ingiriiska
ingiriisku
ingriis
ingriisiga
ingriiska
ingriisku
inh
inhabit
inhabitants
inia
initiative
initiatives
inj
injamiina
inji
injiil
injiilka
injineer
injineerada
injineerinka
injineernimada
injineernimo
injineero
injured
inka
inkabadan
inkasta
inkasto
inkastoo
inkigayo
inkishaariyiinta
inland
inn
inna
innaba
innaga
innagu
inner
innovation
ino
inoo
inooga
inoogu
inorganic
inqilaab
inqilaabka
inqilaabkii
inqiriisi
inr
insaan
insaanka
insaykalobeedhiya
insha
inside
insights
instagram
instead
instinct
institut
institute
institution
institutions
instruction
instructions
instrumento
int
inta
intaa
intaad
intaadan
intaan
intaanay
intaanu
intaas
intaasi
intaasoo
intaba
intabadan
intas
intay
intaysan
intee
inteeda
inteey
integrated
integration
intellectual
intelligence
intelligent
inter
interactive
intercontinental
interest
interesting
interim
interior
interlingua
intermediate
internacia
internal
international
internationale
internazionale
internet
internetka
interpretation
interreto
interscope
interview
intey
intezaar
inti
intii
intiisa
intl
into
intooda
introduction
intuu
intuusan
inu
inuu
inuusan
invasion
invention
inventory
investing
investment
investopedia
inyar
io
ioan
iom
ion
ionian
ionic
ions
iora
ios
iowa
ip
ipa
iphone
ipl
ipo
ipomoea
iprage
iq
iqbaal
iqd
iqiyi
iqra
ir
ira
iraan
iran
iranian
iraq
iraqi
irc
ire
ireland
irene
irfan
iri
irib
irid
iridaha
iridda
iridiyaam
irir
iris
irish
irizar
irland
irma
iron
irrid
irridahaas
irridka
irrir
irving
irwin
is
isa
isaac
isaaks
isaaq
isaaqa
isaaqs
isaaqyada
isabel
isabella
isaga
isagaa
isagana
isagay
isagii
isago
isagoo
isagoon
isagoona
isagu
isaguna
isaias
isak
isal
isaq
isaxaaq
isay
isbaahaysiga
isbaaheysi
isbaaheysiga
isbaaheysigu
isbaanish
isbaanishka
isbaanishku
isbadal
isbadalka
isbahaysi
isbahaysiga
isbahaysigii
isbaheysiga
isbania
isbanish
isbanishka
isbarbar
isbarbardhig
isbarbardhiga
isbayn
isbeddel
isbeddelada
isbeddelka
isbeddellada
isbedel
isbedela
isbedelada
isbedeli
isbedelin
isbedelka
isbedelkaas
isbedello
isbeen
isbitaal
isbitaalada
isbitaalka
isbitaallo
isbitaalo
isbn
isboorti
isboortiga
isbuuc
isch
isdaba
isdabajoog
isdabamarin
isdhaafsiga
isdhex
isdhexgalka
isdilay
isfahan
isga
isgaadhsiin
isgaadhsiinta
isgaadhsiintu
isgaariinta
isgaarsiin
isgaarsiineed
isgaarsiinta
isgooska
isgoowe
isgoyska
isgoysyada
isgu
isha
ishacyaah
ishah
ishbeeliya
ishii
ishmael
ishq
ishu
isii
isil
isimada
isir
isirka
isis
isixaaq
isjiidka
iska
iskaa
iskaandhiyaam
iskaashatada
iskaashatooyin
iskaashi
iskaashiga
iskaga
iskahorimaad
iskahorimaadka
iskala
iskama
iskana
iskeed
iskii
iskiis
iskood
iskool
iskoolada
iskoolka
iskotland
isku
iskubedelay
iskudar
iskudarka
iskudarkaasi
iskuday
iskudayo
iskudey
iskudhafka
iskudhex
iskudhexgalaan
iskudhis
iskudhiska
iskudhisyada
iskudhisyo
iskudhufashada
iskudhufasho
iskudubbarid
iskuduwaha
iskugeyn
iskugeynta
iskugu
iskujir
iskujira
iskula
iskuma
iskumid
iskumilanka
iskuna
iskuqabashada
iskuqabto
iskuqaybin
iskuqaybinta
iskuqeybin
iskushuban
iskuugu
iskuul
iskuulada
iskuulka
iskuulo
iskuwareeg
iskuwareega
iskuweer
iskuxidha
iskuxidhka
isla
islaam
islaama
islaamaan
islaamaka
islaamay
islaameen
islaami
islaamida
islaamidii
islaamidiisa
islaamiga
islaamiya
islaamiyiin
islaamiyiinta
islaamka
islaamkana
islaamkii
islaamku
islaamkuna
islaamnimada
islaamnimo
islaamo
islaamtay
islaamtey
islaan
islaantii
islaax
islam
islamarkaa
islamarkaana
islamarkaas
islamarkaasna
islamic
islamist
islamka
islamweb
island
islands
isle
islii
islofaakiya
islofeeniya
isloth
isloveeniya
isma
ismaaciil
ismaacil
ismaamul
ismaamulka
ismaamulkii
ismaan
ismaciil
ismacil
ismael
ismail
isman
ismiidaamin
ismiidaaminta
ismullaahil
isna
isniin
isniinta
iso
isoo
isotope
isotopeka
isotopes
isotopeyada
isotopeyo
isqabqabsi
isqanbuus
isqurxin
isqurxinta
isra
israa
israaca
israafiil
israaiil
israel
israeli
isruxayaan
issa
issaga
issak
issas
isse
issn
issue
issues
ist
istaadiyo
istaag
istaaga
istaagaan
istaagay
istaagayo
istaageen
istaagey
istaagga
istaagi
istaagida
istaagin
istaago
istaagtay
istaagto
istabta
istanbul
istanbuul
istandharka
istaraatiiji
istaraatiijiga
istaraatiijiyad
istaraatiijiyada
istaraatiji
istaroontiyaam
isticmaal
isticmaala
isticmaalaa
isticmaalaan
isticmaalada
isticmaalaha
isticmaalay
isticmaalaya
isticmaalayaasha
isticmaalayaashu
isticmaalayay
isticmaalayo
isticmaale
isticmaaleen
isticmaaleyaasha
isticmaali
isticmaalid
isticmaalin
isticmaalka
isticmaalno
isticmaalo
isticmaaluhu
isticmaarka
isticmaarkii
isticmaarku
isticmaashaa
isticmaashay
isticmaasho
isticmala
isticmalaa
isticmalaan
isticmali
istiraaji
istiraatiiji
istiraatiijiga
istiraatiijiyad
istiraatiijiyadda
istiraatiijiyadeed
isto
istoroontiyaam
istuska
istuudiyaha
isu
isuduwaha
isuduwe
isuduwidda
isugeyn
isugeynta
isugu
isul
isula
isuma
isutagga
isweydaarsiga
iswidhan
iswidhish
iswidishka
iswiidhan
iswiidhish
iswiidhishka
iswisarland
isxaaq
isxijiwaakh
isxijiwaaq
isxukun
it
ita
itaal
itaala
italia
italian
italiana
italiano
italians
italo
italy
itc
itch
item
itga
iti
itimaalka
itis
itixaad
ito
itobiya
itoobiya
itoobiyaan
itoobiyaanka
itoobiyana
itoobiyo
itoopiya
itriyaam
its
itself
ittihad
itu
itunes
itzy
iu
ium
iun
iupac
iv
iva
ivan
ivb
ivo
ivoire
ivory
ivy
iwm
ix
ixtiraam
ixtiraamaan
ixtiraami
ixtiraamka
ixtiraamno
ixtiraamo
ixtiraamto
ixus
iy
iya
iyaam
iyaan
iyad
iyada
iyadaa
iyadana
iyadna
iyado
iyadoo
iyadoon
iyadoona
iyadu
iyaduna
iyaga
iyagaa
iyagana
iyagii
iyago
iyagoo
iyagoon
iyagu
iyaguna
iyana
iyay
iyda
iye
iyey
iyi
iyo
iyoo
iyue
iz
izanami
izgoowe
izmir
j
ja
jaa
jaabir
jaad
jaadad
jaadadka
jaadka
jaadyada
jaahil
jaahiliga
jaaisada
jaajuur
jaakadaha
jaalaha
jaaldiiraan
jaale
jaaliyada
jaaliyadaha
jaaliyadda
jaaliyado
jaalkojiin
jaalle
jaaluut
jaamac
jaamaca
jaamacad
jaamacada
jaamacadaha
jaamacadda
jaamacaddaha
jaamacaddii
jaamacadeed
jaamacadii
jaamacado
jaamacadood
jaamacadu
jaamcada
jaamic
jaamici
jaamka
jaamud
jaan
jaandi
jaandiga
jaangooyooyinka
jaanis
jaanqaadi
jaantus
jaantuska
jaantusyada
jaar
jaarka
jaarso
jaaska
jab
jabaan
jabaaniis
jabaanku
jabaantyphoon
jabal
jaban
jabarti
jabay
jabayn
jabbaan
jabban
jabbu
jabeen
jaberti
jabhad
jabhada
jabhadaha
jabhadda
jabhaddii
jabhadihii
jabhadii
jabi
jabid
jabin
jabinta
jabisay
jabiyay
jabiyeen
jabiyey
jabiyo
jabka
jabkaas
jabkii
jabouti
jabshay
jabtay
jabtey
jabto
jabuuti
jabuutiyaan
jacafar
jacar
jacayl
jacaylka
jacaylkii
jacaylku
jaceel
jacel
jaceyl
jaceylka
jaceylkii
jacfar
jack
jacket
jackie
jackson
jacob
jacobsen
jacques
jad
jadad
jade
jadeecada
jadiid
jadwal
jadwalka
jadwalkani
jae
jaffa
jagada
jagadaas
jagadaasi
jagadii
jago
jagooyin
jagooyinka
jaha
jahal
jahannamo
jahawareerka
jahliga
jaho
jahsh
jahwareer
jahwareerka
jajab
jajabiyey
jajabka
jakarta
jala
jalaatada
jalaato
jalal
jalalaqsi
jalaq
jaldiin
jaleecay
jaliil
jaliilka
jam
jama
jamaaca
jamaacada
jamaal
jamaame
jamac
jamacad
jamacada
jamadi
jamaica
jamal
jamayka
jambi
jamciyada
jameecada
jameeco
james
jamhuriyada
jamhuriyadda
jamhuur
jamhuuri
jamhuuriga
jamhuuriya
jamhuuriyad
jamhuuriyada
jamhuuriyadaha
jamhuuriyadda
jamhuuriyaddii
jamhuuriyadii
jamhuuryada
jammu
jan
janaale
janaasada
janaayo
janaazada
janada
janaraal
janawari
jane
janeiro
janes
janet
jang
janjeera
jannaayo
jannada
jannadii
jannay
jannayo
janno
jano
janoda
januari
january
janus
japaan
japan
japanese
japantimes
jar
jaraa
jaranjarada
jarar
jaray
jarayo
jardiinooyin
jardiinooyinka
jareen
jareer
jareerta
jari
jarid
jarin
jarir
jarista
jarjar
jarjaray
jarmal
jarmalka
jarmalku
jaro
jartay
jasiira
jasiirad
jasiirada
jasiiradaan
jasiiradaha
jasiiradan
jasiiradda
jasiiraddu
jasiiradii
jasiirado
jasiiradood
jasiiradu
jason
jassiradha
java
javanese
javascript
javier
jawa
jawaab
jawaaba
jawaabaa
jawaabaan
jawaabaha
jawaabay
jawaabaya
jawaabayo
jawaabeen
jawaabey
jawaabi
jawaabo
jawaabta
jawaabtay
jawaabtii
jawaabtu
jawaan
jawaari
jawaay
jawani
jawhar
jawi
jawiga
jawiil
jawlaan
jawle
jaxshi
jay
jaya
jayanti
jayne
jazeera
jaziira
jaziirad
jaziirada
jazira
jazz
je
jean
jeanne
jebel
jebin
jebinta
jebisay
jebiyaa
jebiyaan
jebiyay
jebiyeen
jebiyey
jebiyo
jecaylka
jecaylkan
jecaylku
jecel
jecelahay
jecelyahay
jecelyihiin
jeceshahay
jeclaa
jeclaada
jeclaadaan
jeclaaday
jeclaado
jeclaan
jeclaasho
jeclaayeen
jeclahay
jeclayd
jeclayn
jeclaystay
jeclaysto
jecle
jecleen
jecleestay
jeclo
jeddah
jeeb
jeebka
jeed
jeeda
jeedaa
jeedaan
jeedada
jeedan
jeeday
jeedda
jeedday
jeeddo
jeedeen
jeedin
jeedinaya
jeedinayaa
jeedinayaan
jeedinaysa
jeedinaysaa
jeedinta
jeedisay
jeediyay
jeediyeen
jeediyey
jeediyo
jeedo
jeeh
jeejniya
jeejniyiinta
jeel
jeelka
jeenyo
jeer
jeerba
jeeri
jeermiska
jeestay
jeesteen
jeesto
jeex
jeexan
jeexay
jeexid
jeff
jefferson
jeffrey
jehovah
jeju
jek
jen
jenaraal
jeneraal
jeneral
jeniifa
jenner
jennie
jennifer
jens
jenus
jeon
jeong
jeremy
jermaaniyaam
jersey
jerusalem
jes
jessi
jessica
jesy
jet
jewel
jewish
jews
jeylaani
jharkhand
ji
jiah
jianghan
jiangsu
jibaaran
jibbaar
jibbaaran
jibraacin
jibraltaar
jibriil
jibril
jibsiga
jid
jidad
jidadka
jidah
jidali
jidbaale
jiddah
jidh
jidha
jidhi
jidhif
jidhka
jidhkiisu
jidhkooda
jidhkoodu
jidhku
jidka
jidkaas
jidkii
jidwaaq
jidweyn
jidxi
jifo
jifooyin
jigjiga
jihaad
jihaadka
jihada
jiheeye
jiheeyo
jiho
jihooyinka
jihyo
jiicdheere
jiid
jiida
jiidaas
jiidadka
jiidan
jiidashada
jiidasho
jiidata
jiidatay
jiidato
jiiday
jiidh
jiidjiid
jiido
jiif
jiifa
jiifin
jiifka
jiifto
jiil
jiilaal
jiilaalka
jiilasha
jiilka
jiilkii
jiingada
jiiniska
jiir
jiiray
jiirka
jiis
jiiska
jiisoow
jiita
jiitaan
jiitay
jiiteen
jiito
jijeele
jijiga
jikada
jiko
jilaa
jilaaga
jilaagii
jilaajiid
jilaayaasha
jilay
jilaya
jilayaal
jilayaan
jilayaasha
jilayay
jilayeen
jilaysay
jilbaha
jileec
jileysay
jileyso
jili
jilib
jilibada
jilibka
jilibkiisa
jilible
jilibyada
jilicsan
jilicsanaanta
jilida
jilista
jilitaanka
jilitaankeeda
jilitaankeedii
jiliyaale
jillaab
jilo
jilyaale
jim
jimale
jimcaale
jimcaha
jimcale
jimce
jimcihii
jimciyada
jimco
jime
jimicsi
jimicsiga
jimin
jimmy
jin
jinacsani
jineefa
jingdezhen
jingu
jinka
jinku
jinni
jinsi
jinsiga
jinsiyada
jinsiyadaha
jinsiyadda
jinsiyadiisa
jinsiyado
jir
jira
jiraa
jiraan
jirada
jiran
jirana
jiray
jirdhiska
jirdil
jirdilay
jirdilka
jire
jiree
jireed
jireen
jireenka
jirey
jiri
jirid
jirida
jiridu
jirin
jiritaanka
jiritaankeeda
jiritaankiisa
jirjir
jirka
jirkaaga
jirkeeda
jirkiisa
jirkooda
jirku
jirnay
jirno
jiro
jirrada
jirridda
jirro
jirsaday
jirta
jirtaa
jirtay
jirtey
jirto
jishay
jism
jisoo
jisyo
jiyooloji
jizyo
jj
jk
jki
jm
jo
joa
joachim
joan
job
jobkey
jobs
jochebed
joe
joel
joh
johann
johannes
johannesburg
johansson
johar
john
johnny
johns
johnson
johnston
johor
join
joined
joins
joint
jojebed
jolie
jomo
jon
jonah
jonas
jonathan
jones
jong
jonghyun
joo
joodax
jooe
joog
jooga
joogaa
joogaan
joogaanba
joogana
joogay
jooge
joogeedu
joogeen
joogey
joogga
joogi
joogid
joogiisu
joogin
joogitaan
joogitaanka
joognay
joogno
joogo
joogsaday
joogsan
joogsi
joogsibas
joogsiga
joogta
joogtaa
joogtaan
joogtada
joogtax
joogtay
joogto
jooji
joojin
joojinayaan
joojinta
joojis
joojisaa
joojisay
joojiso
joojiyaan
joojiyay
joojiyeen
joojiyey
joojiyo
joomateri
joometeri
joon
joongang
joorjiya
joornaal
joornaalada
joornaalka
joornaalku
jordan
jordyn
jorge
jose
joseph
josh
joshua
josipovic
journal
journalist
journey
jowhar
jowle
joy
joyce
jp
jpeg
jpg
jpost
jr
js
jsl
jstor
jtbc
ju
juan
juba
jubada
jubadda
jubaland
jubba
jubbada
jubbadda
jubbaland
jubbooyinka
jubooyinka
judaism
judea
jufada
jufo
jufooyin
jufooyinka
jug
juhayna
juhdi
juice
jul
julaay
julay
jules
juli
julia
julian
juliet
julio
julius
july
juma
jumaada
jumada
jumlada
jump
jun
juna
june
jung
jungah
jungle
juni
junior
juniors
junji
junn
jupiter
juq
juqraafi
juqraafiga
juqraafiyeed
juquraafi
juquraafiga
juray
juro
jus
just
justice
justin
juul
juulaay
juun
juune
juungal
juunyo
juurile
juventus
juwayriyya
jw
jx
jyp
k
ka
kaa
kaaba
kaabayaal
kaabayaasha
kaabayaashiisa
kaabayaashu
kaadh
kaadhadhka
kaadhka
kaadi
kaadida
kaadmiyaam
kaaf
kaafi
kaafka
kaaga
kaagama
kaah
kaahin
kaahiye
kaal
kaalandarka
kaalay
kaale
kaalin
kaalinta
kaalinteeda
kaalintii
kaalintiisa
kaaliyaha
kaaliye
kaalmada
kaalmeeya
kaalmeeyaan
kaalmo
kaalmooyinka
kaalshiyaam
kaam
kaama
kaamamka
kaamil
kaamka
kaan
kaana
kaar
kaaraan
kaararka
kaarbon
kaarboon
kaarboonka
kaarboonku
kaarboonta
kaarboontu
kaaribiyaanka
kaariibiyaanka
kaariye
kaarka
kaarootka
kaarshe
kaas
kaashadaan
kaashaday
kaashadeen
kaashan
kaashanaya
kaashanayo
kaashanaysa
kaashatay
kaasi
kaasiyaam
kaaso
kaasoo
kaastaro
kaatooligga
kaay
kab
kaba
kabacdi
kabadan
kabaha
kaban
kabanka
kabartay
kabashada
kabaxa
kabaxay
kabaxsan
kabaxsanida
kabelka
kabhi
kabid
kabida
kabila
kabilaabay
kabka
kablalax
kabo
kabriidka
kabsado
kabtan
kabtanka
kabtankii
kabtay
kabul
kabuldheh
kabushiki
kac
kaca
kacaa
kacaan
kacaanka
kacaankii
kacaanku
kacab
kacanka
kacay
kacaya
kacayaa
kacayo
kacayso
kacbada
kacbadii
kacbadu
kacdaayoo
kacday
kacdo
kacdoomada
kacdoomadii
kacdoon
kacdoonka
kacdoonkaas
kacdoonkii
kacdoonno
kaceen
kaco
kacsan
kacsi
kacsiga
kada
kadaab
kadanbeeyay
kaddare
kaddib
kaddibna
kaddour
kadhacay
kadhashay
kadhaxeeyo
kadhisan
kadi
kadib
kadibna
kadibne
kadibneh
kadis
kadiye
kaeo
kafaala
kafee
kafeega
kaftan
kaftanka
kaga
kagame
kagana
kahelay
kahin
kahor
kahoreeyay
kai
kaif
kaizer
kaj
kajeeda
kajira
kajiray
kajol
kaka
kakala
kakan
kakao
kakooban
kakoobantahay
kal
kala
kalaay
kalaba
kalabar
kalabaxaa
kalabaydh
kalabayr
kaladembeynta
kaladuwan
kalagoyn
kalahari
kalana
kalandar
kalandarka
kalane
kalank
kalar
kalasaaraha
kalashnikov
kalba
kale
kaleba
kalee
kalena
kalfadhiga
kalfin
kalgacal
kali
kalifay
kalifornia
kaliforniya
kaliftay
kaligeed
kaligii
kaligiis
kaligood
kaliil
kalimadaan
kalimantan
kalinimada
kaliya
kalkaalisada
kalkaaliso
kalkaaliye
kalla
kalle
kalliftay
kalloo
kallumeysiga
kalluumaysiga
kalluumeysatada
kalluumeysato
kalluumeysi
kalluumeysiga
kalluun
kalluunka
kalmad
kalmada
kalmadaha
kalmado
kalo
kaloo
kaloon
kalsoon
kalsoonaan
kalsoonahay
kalsooni
kalsoonida
kalsoonidii
kalthum
kaltuum
kaluumaysato
kaluumaysiga
kaluumeesiga
kaluumeysiga
kaluun
kaluunka
kama
kamaal
kamaba
kamal
kaman
kamana
kamarad
kamay
kambaala
kambodiya
kamboodiya
kambriyaan
kameroon
kamid
kamida
kamidka
kamidtahay
kamidyahay
kamidyihiin
kamil
kamiruun
kampala
kampong
kampot
kamsuuma
kamuu
kan
kana
kanaal
kanaalada
kanaalka
kanaan
kanada
kanadian
kanadiyaan
kanadiyaanka
kanal
kancaan
kandahar
kane
kaneecada
kaneecadu
kaneeco
kang
kangaroo
kani
kaniif
kaniisad
kaniisada
kaniisadaha
kaniisadda
kaniisado
kannaan
kannada
kano
kanooni
kanooniga
kanoqday
kansar
kansarka
kansas
kansi
kantaroolka
kantas
kanye
kaohsiung
kaolin
kapasia
kaplan
kapoor
kaqaatay
kaqayb
kaqaybqaatay
kaqeyb
kar
kara
karaa
karaama
karaamada
karaamo
karaan
karabakh
karabiya
karachi
karakoram
karan
karanle
karay
karayer
karayn
karbalaa
kardashian
kareem
kareemka
kareen
kareena
karen
karesvorto
kargil
kari
kariibiyaanka
kariim
kariimka
kariirada
karim
karin
karina
karinayo
karinta
karishtaanka
kariyaa
kariyay
kariyey
kariyo
karka
karkaar
karkariyo
karl
karlos
karlsbruecke
karma
karmiyaan
karnaa
karnataka
karno
karo
karootada
karootadu
karotemprel
karsa
karsado
karsan
karta
kartaa
kartaan
karti
kartid
kartida
karto
kartoonka
karzai
kas
kasa
kasai
kasakhstan
kasamaysan
kasbaday
kasbado
kasban
kasbatay
kasedo
kasheekayn
kashmir
kashmiri
kasi
kasid
kasii
kaso
kasoo
kasoobaxa
kasoobaxay
kasoojeeda
kassa
kassim
kasta
kastaa
kastaba
kastana
kasto
kastoo
kastuu
kat
katagay
katahay
katalin
katalooniya
katherine
kathiawadi
kathmandu
katirsan
katirsanaa
katirsantahay
katooliga
katoolik
katrina
kau
kaukasus
kaupunki
kaur
kavkaz
kawaanka
kawada
kawakami
kawasaki
kawnayn
kawneyn
kawsar
kaxayn
kaxaysaa
kaxaystay
kaxda
kaxiga
kaxigtaa
kay
kaya
kayahay
kayar
kayd
kaydinta
kaydiyaa
kaydiyay
kaydiyo
kaydka
kaydsada
kaydsan
kayimaada
kayimi
kayimid
kaymaha
kaymo
kayn
kaynaan
kaynta
kaysar
kayse
kayseri
kazakh
kazakhstan
kazan
kazoo
kbs
ke
kebede
kedar
kedis
kediye
kee
keeda
keedii
keedu
keeg
keeling
keen
keena
keenaa
keenaan
keenadiid
keenay
keenaya
keenayaa
keenayna
keenaysa
keenaysaa
keenee
keeneen
keeni
keenin
keenista
keeno
keenta
keentaa
keentay
keento
keep
keeper
keepers
keeydiyaa
kehna
kei
keith
kelfin
keli
kelida
kelidii
keliga
keligeed
keligii
keligiis
keligood
keliya
keliyeeyey
keliyihi
kelkaj
kelly
kelmad
kelmeda
kelp
kelvin
kemal
ken
kendall
kenema
kennedy
kenneth
kent
kentucky
kenya
kenyan
kenyaoo
kenyatta
kep
kepler
kerala
kerma
kerosene
kerr
kerzhakov
kes
keskus
ket
kevin
kew
key
keyboard
keyd
keydinta
keydiyay
keydiyo
keydka
keydsan
keymaha
keymahan
keymo
keymuhu
keyn
keyna
keynta
keyqubaad
kg
kgb
kh
kha
khaag
khaalid
khaame
khaan
khaanadaha
khaanado
khaarija
khaas
khaasatan
khaaska
khaatumo
khaatuun
khabiir
khabiirka
khad
khadaab
khadadka
khadar
khaddaab
khaddiija
khaddiijo
khadi
khadiija
khadiijo
khadija
khadka
khadkeeda
khadra
khafiif
khafiifinta
khafiifka
khafiifsan
khafiir
khaimah
khair
khaire
khal
khalad
khaladaad
khaladka
khalaf
khaldaan
khaldan
khaldin
khaldun
khalduun
khaled
khali
khalid
khalif
khalifa
khaliif
khaliifa
khaliifada
khaliifka
khaliifkii
khaliijka
khaliil
khalkhal
khalkhalayo
khalkhalka
khamaarka
khamiir
khamiis
khamiista
khammouane
khamri
khamriga
khan
khandaf
khandaq
khaniis
khaniisiinta
khaniisnimada
kharash
kharashaadka
kharashka
kharashyada
khariidad
khariidada
khariidadaha
khariidadda
khariidado
khariirada
kharribin
khartoum
khartuum
khasaare
khasaarihii
khasaaro
khasaarooyin
khasab
khasabka
khasatan
khasbay
khasnadda
khataab
khatar
khataraha
khatarta
khatimay
khatoon
khattab
khatumo
khatun
khawaarij
khawaarijta
khawaarzimiyiinta
khaybar
khayr
khayraad
khayraadka
khayre
khayrka
khazar
khazirka
khazraj
khea
kheybar
kheyr
kheyraad
kheyraadka
kheyre
kheyrka
kheyrudiin
khibrad
khibrada
khibradda
khidmadaha
khilaaf
khilaafaad
khilaafaadka
khilaafaadkooda
khilaafada
khilaafadii
khilaafadiisa
khilaafda
khilaafeen
khilaafka
khilaafkii
khilaafku
khilaafo
khilaafsan
khilaafyada
khilaafyo
khiyaali
khiyaaliga
khiyaameeyay
khiyaamo
khiyaanada
khiyaano
khloe
khmer
khmum
khor
khorasan
khrushchev
khubarada
khubaro
khudaar
khudaarta
khudbad
khudbada
khudbadaha
khudrad
khudrada
khudradda
khudri
khulafa
khulafada
khulafadii
khulafo
khulna
khunais
khuraafaad
khuraafaadka
khuraasaan
khuraasaani
khuram
khuseeya
khuseeyaan
khusuusi
khuwaylid
khuweylid
khuzaaca
khuzayma
khuzeyma
khwarizmi
khyber
ki
kia
kial
kialo
kiam
kibaki
kibir
kibirka
kibo
kici
kicin
kicinta
kicis
kicisay
kicitimay
kicitimeen
kiciya
kiciyaa
kiciyaan
kiciyay
kiciyey
kiciyo
kick
kicks
kid
kidd
kidman
kidney
kids
kie
kiel
kieli
kielioppi
kies
kiev
kigali
kii
kiiba
kiikaawuus
kiikhisroof
kiilo
kiilogaraam
kiilomitir
kiiloo
kiiloomitir
kiimikaad
kiimikada
kiimiko
kiimikooyinka
kiin
kiina
kiinya
kiinyaati
kiinyaatiga
kiis
kiisa
kiisaska
kiish
kiisii
kiiska
kiiskii
kiisuna
kiitoksia
kikongo
kilaab
kililka
kililoch
kilimanjaaro
kilinka
kill
killed
killer
killing
kills
kilo
kilometer
kilomitir
kilotons
kilyaha
kim
kimikada
kimikeed
kimiko
kimikooyin
kimis
kimistari
kimistariga
kimisteri
kimisteriga
kinaana
kinaandha
kind
kinda
kindness
king
kingdom
kingdoms
kings
kingston
kinicki
kiniisadda
kinokuniya
kinshasa
kinsi
kintirka
kinyarwanda
kio
kiom
kiosk
kippur
kirada
kiran
kirara
kireeysay
kirgistan
kiribati
kiribtoon
kirishmiska
kirishtaanka
kirismas
kirismaska
kiristaan
kiristaanka
kiristaanku
kiristanka
kiristofer
kirk
kiro
kirundi
kis
kismaayo
kismayo
kispest
kisraa
kiss
kitaab
kitaabiga
kitaabka
kitaabkan
kitaabki
kitaabkii
kitaabkiisa
kitaabku
kitaabta
kitab
kitabul
kitarovic
kitchen
kite
kitts
kituba
kiu
kiun
kjellberg
kk
kka
kl
kla
klara
klarigo
klavo
kle
klein
klipspringer
klm
km
kmg
kn
knaan
knife
knight
knights
knock
knockout
knottnerus
know
knowledge
known
knox
ko
kob
kobaca
kobalti
kobcay
kobcaya
kobcin
kobcinta
kobciyo
kobe
kober
kobernishiyaam
koberta
koboc
koboca
kobra
koc
kocaeli
kochi
kof
kofi
kofinka
kofka
kofur
koh
koka
koku
kol
kola
kolayga
kolba
kolekto
kolestaroolka
koleyga
kolka
kolkaas
kolkata
kolkii
kolkuu
kolombiya
kolombus
kolonbiya
kolonyo
kolor
kolorado
koloriin
koloriinta
kolumbia
kolumbus
kom
kombiyuutar
kombiyuutarka
kombuyuutar
kombuyuutarada
kombuyuutarka
kombuyuuterka
komika
komishanka
kommonwels
komoros
komperativo
komprenas
kompreni
komputilo
komuna
komunismo
kon
konfur
konfureed
konfurta
konfuur
kong
kongo
konishi
konistantiin
konsistas
kontan
konton
kontonaad
kontonka
kontoroolka
kontula
konya
koob
koobaa
koobaad
koobab
koobabka
kooban
koobantahay
koobantahy
koobanyahay
koobanyihiin
koobay
koobi
koobikarin
koobin
koobka
koobkii
koobmaa
koobna
koobnaa
koobnaan
koobnaayeen
koobnayd
koobnayn
koobo
koobtay
kood
kooda
koodh
koodhaa
koodhka
koodii
koodka
koofar
koofi
koofiga
koofiyad
koofur
koofureed
koofurta
kook
koombe
koombuyuterka
koon
koone
koonfur
koonfurbari
koonfured
koonfureed
koonfureedka
koonfureedna
koonfurgalbeed
koonfurna
koonfurta
koonfurtu
koonfuta
koonfuurta
koongareeska
koongo
koonka
koonkan
koorsada
koorso
koorsooyinka
koorta
kooshin
koow
koowaad
koox
kooxa
kooxaha
kooxahan
kooxda
kooxdaan
kooxdaas
kooxdan
kooxdani
kooxdeeda
kooxdii
kooxdiisii
kooxdu
kooxeed
kooxeedyadii
kooxeedyo
kooxihii
kooxo
kooxood
kooxuhu
kooxyada
kor
koraa
koraan
koran
korano
korantada
koray
koraya
korayaa
koraysa
koraysay
kordha
kordhaha
kordhay
kordhaya
kordhayaan
kordhaysa
kordheen
kordheeysa
kordheysa
kordhi
kordhin
kordhinayo
kordhinta
kordhisaa
kordhisay
kordhiso
kordhiyaan
kordhiyay
kordhiyeen
kordhiyey
kordhiyo
kordho
kordhoban
kore
korea
koreaboo
koreaherald
koreajoongangdaily
korean
koreeye
koreeyee
koreka
korelativaj
koreysa
kori
korinta
korintos
korisay
koritaan
koritaanka
koritaankeeda
koriyaan
koriyay
koriyey
koriyo
korka
korkaale
korkeeda
korkiisa
korkooda
kormeer
kormeera
kormeeraha
kormeeray
kormeerayaasha
kormeere
kormeerka
kormeero
kornayl
korneel
korneyl
koro
korodha
korodhay
korodhka
korona
korontada
koronto
korontoda
koroomiyaam
koror
kororka
korortay
korreeye
korriinka
korsaday
kortay
korto
kortrijk
korttipeli
koryeeri
kosofo
kosovo
kostas
koulu
kovid
kovri
kow
kowaad
kowda
kowhttp
kpop
kpopmap
kq
kr
kra
krasnodar
kratie
krause
kravitz
krepkaja
kresim
krimi
krishna
kristina
kristoffer
krom
kromhout
krona
kruel
krystal
ksa
ksrelief
kst
ktv
ku
kuala
kuba
kubad
kubada
kubadan
kubadda
kubaddaha
kubartay
kubbada
kubbadda
kubed
kubedka
kubiiray
kubo
kubra
kuch
kud
kudhaa
kudhaqan
kudhashay
kudhaw
kudu
kufa
kufaartii
kufilan
kufsaday
kufsi
kufsiga
kugu
kugula
kuguma
kuhadla
kuhadlaan
kuhaya
kuinka
kuiri
kujir
kujira
kujiraa
kujiraan
kujireen
kujirto
kukala
kul
kula
kulaal
kulaala
kulafo
kulahaa
kulahayd
kulamada
kulan
kulanay
kulanka
kulankaas
kulankaasi
kulankeedii
kulankii
kulankiisa
kulankiisii
kulankooda
kulankoodii
kulanno
kulantay
kulantey
kulanto
kulayl
kulaylaha
kulaylka
kuleedahay
kuleelka
kuleh
kuleyl
kuleylaha
kuleylka
kuligood
kuliyada
kuliyadaha
kuliyadani
kuliyadda
kuliyadii
kuliyadood
kulka
kulku
kulli
kulligood
kulliyad
kulliyada
kulliyadaha
kulliyadda
kulma
kulmaan
kulmay
kulmeen
kulmey
kulmi
kulmid
kulmin
kulmis
kulmisa
kulmiso
kulmiya
kulmiyay
kulmiye
kulmiyo
kulmo
kulow
kulthum
kulu
kuluc
kulul
kulule
kululeeyo
kululeynta
kulushahay
kulyada
kuma
kuman
kumanaan
kumar
kumay
kumberland
kumbiyuutarka
kumbuyuutar
kumbuyuutarada
kumbuyuutarka
kumbuyuutarku
kumbuyuutarrada
kumeel
kumeelgaar
kumeelgaarka
kun
kuna
kunaad
kunama
kunduz
kung
kunka
kunool
kunooli
kunoolyihiin
kuqoran
kur
kuraas
kuraasida
kuraasta
kuray
kurdi
kurdida
kurdish
kurdistan
kurmanji
kurpfalz
kursi
kursiga
kursigii
kurso
kursoj
kurt
kuruweshiya
kurxintu
kus
kusaabsan
kush
kushiinka
kushiitiga
kushiitik
kushite
kushitiga
kusii
kuso
kusoo
kusoodhawaawqaybtasuugaantaeecalitiriigonline
kusugnaa
kutaal
kutaala
kutaalaa
kutaalo
kutahay
kutiirsan
kutub
kutubhaye
kutuble
kutubo
kutubta
kutubtaasi
kutubtii
kutubtiisa
kutubtooda
kuu
kuuba
kuubaan
kuufa
kuugu
kuul
kuulow
kuurgalay
kuuriya
kuuriyaan
kuuriyaanka
kuuriyada
kuusan
kuush
kuushiga
kuwa
kuwaa
kuwaad
kuwaan
kuwaas
kuwaasi
kuwaaso
kuwaasoo
kuwada
kuwait
kuwala
kuwan
kuwana
kuwani
kuwas
kuwasi
kuwasoo
kuwayt
kuwelho
kuweyt
kuwii
kuwo
kuwoo
kuwooda
kuxigeen
kuxigeenka
kuxigeenki
kuxigeenkii
kuxigenki
kuxiran
kuxirantahay
kuxusan
kuyaal
kuyaala
kuyaalaa
kuyaalaan
kuyaalla
kuyaalo
kuyihiin
kv
kvanto
kvar
kvin
kw
kwa
kwak
kwang
kwon
ky
kyiv
kyle
kylian
kylie
kyoto
kyrgyz
kyrgyzstan
kyu
kyung
kyushu
l
la
laa
laab
laaban
laabashada
laabatay
laabato
laabka
laablakaco
laablakacsan
laabo
laabta
laabtaan
laabtay
laabteen
laabtey
laabtiisa
laabto
laacib
laacibka
laad
laadin
laafyaha
laag
laah
laahi
laakiin
laakiinse
laakin
laalaada
laalaado
laaluush
laaluushka
laamaha
laami
laamiga
laamiyada
laamka
laamo
laamood
laamuhu
laan
laanmadow
laanqayrta
laanta
laas
laasa
laasan
laascaanood
laasciidle
laasgeel
laaso
laasqoray
laasqorey
laatiin
laatiiniga
laatiinka
laawe
laayaan
laayay
laayeen
laayey
laayo
lab
laba
labaad
labaadna
labaale
labaatan
labaatanaad
labaatanka
labaatankii
labad
labada
labadaa
labadaan
labadaas
labadaasi
labadaba
labadan
labadeeda
labadi
labadii
labadiisa
labadiisii
labadooda
labadoodaba
labadoodu
labadooduba
labadu
labaduba
labahttp
labajibbaaran
labalaaban
laban
labanlaab
labashaqlanaha
labatan
labisan
labiska
labistaan
labka
labo
labolaaban
labor
laboras
laboratory
labori
laboris
laboro
laborus
labour
labrador
lac
lacag
lacaga
lacagaha
lacagata
lacageed
lacago
lacagta
lacagtaas
lacagtan
lacagtii
lacagtooda
lacagtu
lacey
lada
ladagaalanka
ladan
laden
ladhahaa
ladhan
ladhashay
ladhihi
ladhisay
ladhoho
ladies
ladilay
ladin
ladnaan
ladnaanta
lady
ladylord
laf
lafa
lafaciise
lafaha
lafalaha
lafale
lafdhabar
lafdhabarta
lafo
lafood
lafoole
lafta
lafteeda
lafteedu
laftiisa
laftiisu
laftooda
laftoodu
lafweyn
lag
laga
lagaa
lagaadhay
lagaaga
lagaga
lagagahadlo
lagala
lagama
lagana
lagashay
lagasoo
lagau
lagayaqanay
lagayaqaney
lago
lagos
lagu
lagugu
lagula
laguma
lagumagacaabo
laguna
lagusoo
laguu
laguugu
laha
lahaa
lahaado
lahaan
lahaanshaha
lahaansho
lahaayeen
lahaayen
lahab
lahan
lahay
lahayd
lahayeen
lahayen
lahayn
laheed
laheen
lahelay
laheyd
laheyn
lahi
lahjad
lahjada
lahjadaan
lahjadaha
lahjadda
lahjado
lahjadood
lahjo
lahoch
lahoh
lahore
lahu
lai
laila
lailkase
laisku
laitin
lajiide
lajoogo
laka
lakab
lakabka
lakabkan
lakabkani
lakabyada
lakabyo
lakal
lakala
lake
lakes
lakiin
lakin
lakto
lakulmay
lala
lalama
laleedahay
laleeyahay
lalisa
laliska
lalla
lama
lamaale
lamaanaha
lamaanayaashii
lamaane
lamadaya
lamadayawaterfalls
lamadegaan
lamadegaanka
lamadegaanku
lamana
lambar
lambarada
lambarka
lambarkan
lambarrada
lamberti
lamid
lamida
lamidawday
lammaan
lammaanaha
lammaane
lamood
lampard
lampung
lamy
lan
lana
lancashire
land
landet
lands
landscape
landslides
lang
lango
language
languages
lanka
lanta
lanthanides
lanthanum
lao
laodhanjiray
laos
laotian
lapetus
lapsi
laptop
laqaaday
laqabto
lara
large
larger
largest
laribi
larousse
larry
larson
las
lasameeyay
lasheegaa
lasheegay
lasii
lasiiyay
lasiiyo
lasocotada
lasoo
lassader
last
lat
latahay
lataliyaha
lataliye
latam
late
later
latest
latfiya
latin
latina
latine
latinka
latino
latitude
latter
latvia
lau
lauder
launch
launched
launches
laura
laurent
lausanne
lavish
law
lawada
lawareegay
lawreensiyaam
lawrence
lawrenceville
laws
lawska
lawyacaddo
lawyacado
lawyo
lax
laxaad
laxaadka
laxan
laxanka
laxanmiistaha
laxanmiiste
laxidhay
laxiriira
laxoox
laxooxda
lay
layaab
layaabid
layaabka
laydh
laydhka
laydi
laydin
layeele
laygu
layidhaa
layidhaahdo
layiraahdo
layiri
layla
layli
laynka
layr
lays
layska
laysku
layskuma
laysu
laysugu
lazio
lb
lbs
lc
ld
ldots
le
lead
leader
leaders
leadership
leading
leaf
league
learn
learned
learning
least
leave
leaves
lebanese
lebanon
lebbanon
leben
lebis
lech
lectroniques
led
ledahay
ledger
lee
leeb
leebka
leedaha
leedahay
leedahy
leeday
leeds
leeg
leegada
leego
leela
leelkase
leenahay
leexday
leexdo
leexinta
leexiyo
leexo
leeyahay
leeyahaye
leeyahiin
leeyahy
leeyhay
leeyihiim
leeyihiin
leeyihin
lefe
left
leg
legacy
legal
legally
legend
legion
legislative
legomoj
legos
leh
lehe
leheen
lehna
lei
leicester
leiden
leigh
leila
leipzig
lemon
lemy
length
lenin
leninist
lennox
lenny
lens
leo
leon
leonardo
leone
leono
leopards
leopold
lerni
lernu
les
leslie
lesotho
less
lesser
lessons
leste
let
leter
leteron
letter
letters
leur
lev
levant
levante
level
leverkusen
levine
lewis
ley
leyahay
leyla
leys
leysku
lez
lezion
lg
lgbt
lgu
lh
li
lia
liam
liaoning
liar
lib
libaan
libaax
libaaxa
libaaxbadeedka
libaaxle
libaaxley
libaaxyada
liban
libani
liberal
liberation
liberia
libero
liberte
liberty
libin
libiya
library
libro
libya
libyan
lid
liddell
liddi
lidiini
lidka
lie
liebster
liechtenstein
lies
lieutenant
lifaaq
lifaaqyo
life
lifermoriyaam
lifestyle
lig
liga
light
lighthouse
lighting
lightning
lights
lihi
lihidiin
lihin
lihyan
liibaan
liiban
liibiya
liidata
liidatay
liido
liin
liiniga
liinka
liinta
liintu
liis
liisaska
liiska
liiskan
liiskooda
liistada
liita
liitay
liithiyaam
liito
like
likewise
lil
lille
lillehammer
lilly
lilongwe
lily
lilya
lim
lima
limburg
lime
limited
limits
limpopo
lin
lina
lincoln
linda
lindbergh
lindgren
lindsay
line
lines
lingala
lingerie
lingua
lingvo
lingvoj
link
linkiga
linkiyo
links
lino
linuks
linux
linz
lion
lionel
lions
lipa
lippincott
lips
liqaa
lisa
lisay
lisbon
liska
list
listen
listeni
lit
literature
lithosphere
lithuania
lithuanian
lithuaniya
litir
little
liu
live
lived
lively
liverpool
lives
livestock
living
livingstone
lix
lixaad
lixda
lixdameeyadii
lixdan
lixdankii
lixdii
lixle
liya
liyoon
ljubljana
lkn
ll
lla
llaahi
llahi
llama
llamas
llc
lle
ller
llinger
lloyd
llu
ln
lo
loader
loan
lobate
lobe
loc
local
locals
located
locating
location
lockheed
loco
loda
lodge
log
loga
logan
logic
logistics
logo
logu
lohan
loire
loko
lokomotiv
lombok
lome
london
lonely
long
longitude
loo
loobage
loodhisay
loodoortay
looga
loogala
loogama
loogana
loogaystay
looge
loogu
looguna
look
looking
looks
loola
loolamayay
loolamida
loolan
loolasha
loolka
looma
loomana
loon
loona
looo
loos
looska
loosku
loosoo
looya
looyaqaan
looyaqaana
looyaqaanaa
looyaqaanay
looyaqaano
lopes
lopez
lord
lorde
lordi
loren
lorenzo
lorraine
los
loss
lost
lotte
lotus
louis
louise
louisiana
louisville
louvre
lovato
love
lovelace
lover
loves
low
lower
lowyacado
loxooxda
loyalty
lp
lpi
lr
ls
lt
ltd
lte
lu
lua
luanda
luang
luba
lublin
lubnaan
luc
luca
lucas
lucia
lucien
lucky
lucy
lud
ludi
ludvika
ludwig
ludwik
lufthansa
lug
luga
lugad
lugadaha
lugaha
lughaya
lugo
lugood
lugta
lugtii
lugu
lui
luigi
luis
luka
luksemburg
lulay
lulu
lumay
lumbuur
lumet
lumin
luminta
lumisay
lumiyeen
lumpur
lumumba
luna
lunar
lunch
lunda
lungu
luntay
luo
luqad
luqada
luqadaan
luqadaha
luqadda
luqaddaada
luqadeed
luqado
luqadood
luqadooda
luqmaan
luqunta
lur
lusaka
luteetiyaam
luther
lutherans
luu
luubaan
luubaanta
luud
luul
luuliyo
luulyo
luuq
luuqa
luuqad
luuqada
luuqadaasi
luuqadaha
luuqadda
luuqaddu
luuqado
luuqadood
luuqaynta
luuqeeyay
luuqeeyo
luv
luwiis
luxembourg
luxor
luxury
lv
lvarez
lviv
ly
lycopene
lynn
lynx
lyon
lyrics
lyttleton
m
ma
maa
maab
maabka
maabkii
maad
maadaama
maadada
maadadaan
maadama
maaddaama
maaddada
maaddiga
maaddo
maaddooyinka
maadi
maadiga
maadkii
maado
maadoow
maadooyinka
maagalada
maah
maaha
maahan
maahane
maahee
maahmaah
maahmaahda
maahmaahyadii
maahmaahyo
maajo
maakhir
maal
maala
maalba
maalgalinta
maalgashi
maalgashiga
maalgelin
maalgelinta
maalgelisay
maalgeliso
maalgeliya
maalgeliyaan
maalgeliyey
maalgeshiga
maali
maalik
maaliki
maalin
maalinba
maalinka
maalinkaas
maalinkii
maalinlaha
maalinle
maalinta
maalintaa
maalintaas
maalintaasi
maalintay
maalinteeda
maalintii
maalintiris
maalintiriska
maaliyad
maaliyada
maaliyadda
maaliyadeed
maalka
maalmaha
maalmahan
maalmeedka
maalmihii
maalmo
maalmood
maalqabeen
maalqabeenada
maalta
maamul
maamula
maamulaa
maamulaan
maamulaayay
maamulada
maamuladii
maamulaha
maamulay
maamulayaasha
maamulayay
maamulayeen
maamulayo
maamulaysay
maamule
maamuleed
maamulgoboleedka
maamuli
maamulida
maamulidda
maamulin
maamulka
maamulkaan
maamulkaas
maamulkan
maamulkana
maamulkeeda
maamulkii
maamulkiisa
maamulkooda
maamulku
maamullada
maamullo
maamulo
maamusha
maamushaa
maamushay
maamusho
maamuus
maamuusay
maamuuska
maan
maandeeq
maangal
maanka
maano
maansada
maansadii
maanso
maansooday
maansoor
maansuukh
maanta
maantana
maantase
maanyo
maar
maaraynta
maareeyaha
maareeye
maareeyeen
maareeyo
maareyn
maareynta
maariya
maarmaan
maarmaanka
maarmin
maarso
maarta
maas
maastricht
maasuq
maatarka
maaweel
maaweelada
maaweelo
maax
maaxato
maay
maayad
maayee
maayga
maayo
maba
mabaadi
mabaadida
mabaadii
mabaadiida
mabda
mabuto
mac
macaahid
macaamiil
macaamiisha
macaamiisheeda
macaamiisheedu
macaamiishooda
macaamil
macaamilka
macaan
macaaneeyo
macaanka
macaanta
macaanyahay
macaash
macaashka
macad
macaduwan
macalim
macalimiin
macalimiinta
macalimiintii
macalin
macalinimada
macalinka
macallimiinta
macallin
macaluul
macan
macanaha
macao
macau
macawiis
macbadka
macbudka
macbudyada
macbudyo
maccabi
macdan
macdanaha
macdano
macdanta
macdantu
macedonia
machad
machadka
machadyada
machadyo
machine
macigiis
maciin
maclin
macluumaad
macluumaadka
macmacaan
macmacaanka
macmalka
macmiilka
macmiilku
macmillan
macna
macnaha
macnaheeda
macnaheedu
macnahiisu
macnahooda
macne
macneheedu
macnihiisa
macnihiisu
macno
macoow
macquul
macquulka
macquulsan
macro
macrolanguage
macron
macsarada
mad
madaafiic
madaafiicda
madaahib
madaahibta
madaama
madaaris
madaarka
madadaalada
madadaaliyo
madadaalo
madaddaalada
madagascar
madagaskar
madal
madam
madani
madaniga
madar
madaraso
madarasooyin
madarkicis
madasha
madaw
madax
madaxa
madaxana
madaxbanaan
madaxbanaani
madaxbanaanida
madaxbanaanideeda
madaxbannaan
madaxbannaani
madaxbannaanida
madaxbannaanidii
madaxda
madaxdeena
madaxdii
madaxeed
madaxeeda
madaxeedka
madaxii
madaxiisa
madaxna
madaxnimada
madaxooda
madaxtinimada
madaxtinimo
madaxtooyada
madaxtooyo
madaxwaynaha
madaxwaynanimada
madaxwayne
madaxwaynihii
madaxweynaha
madaxweynahii
madaxweynayaasha
madaxweyne
madaxweynenimada
madaxweynenimo
madaxweyneyaasha
madaxweyneyaashii
madaxweynihi
madaxweynihii
madaxweynuhu
madaxyada
madbacada
madbacadda
madbakh
madcuun
maddaarka
maddison
made
madeira
madfac
madhab
madhabka
madhabta
madhan
madhibaan
madhnayn
madhuri
madhuube
madi
madiina
madiinah
madina
madison
madkhali
madobe
madonna
madoobaa
madoobaad
madoobe
madoow
madoowaad
madoowaadka
madoowe
madoowga
madow
madowga
madras
madrid
madura
maduro
madxafka
mae
mafia
mag
maga
magaaalada
magaaco
magaadle
magaal
magaala
magaalad
magaalada
magaaladaan
magaaladaas
magaaladaasi
magaaladan
magaaladana
magaaladani
magaaladda
magaaladeeda
magaaladii
magaaladiisa
magaaladiisii
magaaladu
magaaladuna
magaalamadaxda
magaalaynta
magaalda
magaaldan
magaaldu
magaallada
magaalladii
magaallo
magaalo
magaalooyin
magaalooyinka
magaalooyinkaas
magaalooyinkan
magaalooyinkii
magaalooyinkooda
magaalooyinku
magaaloyinka
magac
magaca
magacaa
magacaaba
magacaabaa
magacaabaan
magacaaban
magacaabay
magacaabeen
magacaabey
magacaabi
magacaabid
magacaabidda
magacaabin
magacaabis
magacaabista
magacaabo
magacaagu
magacaan
magacaas
magacaasi
magacaawday
magacaba
magacabay
magacan
magacani
magacawday
magacbaxay
magacca
magacda
magacdaray
magaceed
magaceeda
magaceedii
magaceedu
magacii
magaciisa
magaciisii
magaciisu
magacooda
magacowday
magacu
magacuyaal
magacyada
magacyadii
magacyadiisa
magacyadooda
magacyadoodii
magacyo
magala
magalaada
magalada
magaladan
magaladu
magalda
magalloka
magalloyinka
magalo
magaloka
magalooyinka
magaloyinka
magan
magangalyo
magangelyo
magazine
magazines
magcaabay
magcaabo
magdhow
maghreb
magic
magiciisa
magna
magneta
magnetic
magnetka
magniisiyaam
magnitude
magnolia
magnoliaceae
magool
magrib
magta
maguurtada
maha
mahad
mahadaay
mahadale
mahadalle
mahadcelinayaa
mahadin
mahadnaq
mahadnaqa
mahadnaqayaa
mahadsan
mahadsanid
mahadsanidiin
mahal
mahama
mahamed
mahamud
maharashtra
mahathir
mahatma
mahdi
mahe
maheri
mahesh
mahiigaan
mahiiggaankan
mahmoud
mahmud
mahra
mahwit
mai
mail
mailkiisa
main
maine
mainly
mais
maize
maj
maja
majaajilada
majaajiliiste
majaajillada
majaajillo
majaajilo
majaajilooyinka
majaajiloyinka
majabe
majala
majaladaha
majaladda
majallad
majaraha
majeerteen
majeerteeniya
majid
majiid
majiro
major
majoris
majority
maka
makaahiil
makaahil
makadoor
makahiil
makaroone
makaso
makassar
makayl
make
makedonia
makedoniya
makemake
maker
makes
makeup
makhaayad
makhaayadaha
makhaayadda
makhaayado
makhluuq
maki
makiinad
makiinadaha
makiinadda
makiinadqorid
making
makka
makkah
makki
makko
mako
makordhaha
maksiko
maktabad
maktabada
maktabadaha
maktabadda
maktoum
maku
mal
mala
malaa
malaaq
malaariyo
malaawi
malaay
malaayga
malaayiin
malab
malabar
malabka
malabo
malacca
malag
malaga
malagasy
malaha
malahan
malak
malaku
malakul
malakuyuul
malakuyuulada
malakuyuulo
malamiko
malao
malaria
malatariga
malatyaspor
malawaxa
malawi
malay
malaya
malayalam
malayga
malayn
malaynayaa
malaynayay
malaynayo
malayo
malaysia
malaysian
malaysiya
malcolm
maldahan
maldiif
maldives
male
maleegtay
maleenaa
maleeshiyaadka
maleeshiyada
maleeshiyo
maleeshiyooyin
maleeshiyooyinkii
maleeyaa
maleeyay
maleeyeen
maleh
maleynayaa
maleynayay
maleynayo
malgranda
malhotra
mali
malik
malin
malinka
malinta
malintii
malkad
mall
mallonga
mallorca
malmal
malmalka
malmasha
malmo
malo
malsana
malsatan
malta
maltisku
maluku
malyan
malyuun
mama
mamaaliikta
mamadou
mamba
mamelodi
mamluk
mamnuuc
mamnuucay
mamnuucaya
mamnuucday
mamnuucida
mamnuucidda
mamnuuco
mamoru
mamulka
man
mana
manaa
manaaf
manaahijta
managed
management
manager
manama
manami
manaystay
manchester
manchuria
mandaqad
mandaqada
mandarin
mandeb
mandeela
mandela
mandera
mandheera
mandiqada
maneystay
mang
manga
mangalool
manganiis
mango
mangooliyiinta
manhaj
manhajka
manhajkii
manhattan
manicaland
manida
maniero
manila
manitoba
manjaniiq
mankind
mannaystay
mano
manoban
mans
mansfield
mansur
mansuur
manta
mantle
mantleka
manual
manuel
manufacturing
many
mao
map
mapa
maplandia
maple
maps
maputo
maqaal
maqaalka
maqaalkan
maqaalkani
maqaalkii
maqaallada
maqaallo
maqaalo
maqaam
maqaamka
maqaamkeeda
maqaamkii
maqaar
maqaarka
maqaaxi
maqaayad
maqaayada
maqaayadaha
maqaayado
maqaddina
maqal
maqalka
maqalkiisa
maqalkoodu
maqan
maqaro
maqas
maqashay
maqla
maqlaa
maqlaan
maqlay
maqlaya
maqleen
maqley
maqli
maqlin
maqlo
maqnaa
maqnaanshaha
maqnaayeen
mar
mara
maraa
maraakiib
maraakiibta
maraakish
maraan
maraayo
marada
marag
maraj
marakanka
maran
maraq
maraqa
marar
mararka
marathi
marathon
maraxalado
maray
maraya
marayaan
marayay
maraykan
maraykanaka
maraykanka
maraykankahurricane
maraykanku
maraynkanka
marayo
maraysa
maraysaa
marayso
marba
marburg
marc
marcabka
march
marche
marco
marcos
marcus
mardaani
mardambe
mare
mareeg
mareegaha
mareegida
mareegta
mareekanka
mareen
mareenka
mareeno
mareer
mareero
mareexaan
mareeykanka
marehan
marey
mareykan
mareykanka
mareykanku
margadu
margaret
mari
maria
mariage
mariam
mariana
mariano
marie
mariiniska
mariino
marilyn
marin
marina
marinada
marinayo
marine
marines
marinka
marinnada
marinno
marino
marinta
mario
marisay
maritime
marius
mariya
mariyaa
mariyaan
mariyam
mariyana
mariyay
mariyeen
mariyey
mariyo
marjawan
mark
marka
markaa
markaaba
markaad
markaan
markaana
markaanu
markaas
markaasaa
markaasay
markaasi
markaasna
markaasoo
markaasu
markaasuu
markab
markabka
markabkii
markacadey
markale
markan
markana
markas
markasta
markastaba
markasto
markay
markaynu
markee
markeeda
markeey
market
marketing
markets
markey
markhaati
markhaatiga
markhaatigii
markhaatiyaal
markhaatiyaasha
markhaatiyadu
marki
markii
markiiba
markiina
markiisa
markiisii
markle
marko
markoo
markooda
marks
marku
markus
markuu
marlabaad
marmar
marmara
marmarka
marmarsiinyo
marna
marnaba
marnay
maro
maroodi
maroodiga
maroodijeex
marooko
marqaan
marqaati
marraakish
marrakech
marriage
married
marry
marrybrown
mars
marsada
marsado
marseille
marshal
marshall
marso
marsooyin
marta
martaa
martay
martey
marti
martian
martida
martigelin
martigelinaya
martigelinta
martigelisaa
martigelisay
martigeliyaha
martigeliyay
martigeliyo
martin
martina
martini
martinique
martiqaad
martiqaaday
martiqaadid
marto
marwa
marwaan
marwada
marwadayada
marwadii
marwalba
marwo
marwooyin
marx
marxalad
marxalada
marxaladaha
marxaladda
marxaladdan
marxaladihii
marxalado
marxaladood
marxuum
marxuumka
marxuumku
mary
maryaha
maryam
maryama
maryamaay
maryan
marykanka
maryland
mas
masa
masaafada
masaafo
masaafooyinka
masaafuriyey
masaajid
masaajida
masaajidada
masaajidda
masaajidka
masaajidkii
masaajido
masaajidyada
masaakiinta
masaari
masaarida
masaaridii
masaaridu
masaaxad
masaaxada
masagada
masago
masakin
masar
masare
masarre
masaska
masayr
mascuud
mase
maseru
mash
mashaa
mashaariic
mashaariicda
mashaariicdeeda
mashaariicdii
masharaaf
masharaafta
masharaaftii
masharaaftu
mashiin
mashiinada
mashiinka
mashiinnada
mashiino
mashine
mashinka
mashonaland
mashquul
mashquulay
mashquulka
mashquulsan
mashquulsanaa
mashriq
mashruuc
mashruuca
mashruucan
mashruucii
mashruucu
mashruucyada
mashruucyo
masiibada
masiibo
masiibooyinka
masiirka
masiix
masiixa
masiixi
masiixiga
masiixii
masiixiyad
masiixiyada
masiixiyiin
masiixiyiinta
masiixiyiintii
masiixiyiintu
masjid
masjidaka
masjidka
masjidkaan
masjidkii
masjidku
masjidul
mask
maska
maskax
maskaxda
maskaxdii
maskaxdiisa
maskaxdu
maskaxeed
maslama
maslax
maslaxad
masoo
masoondhe
masrax
masraxa
masri
masriyiinta
masriyiintii
masriyiintu
masruufo
mass
massachusetts
massacre
massari
master
masters
masuul
masuuliyad
masuuliyada
masuuliyadda
masuuliyiin
masuuliyiinta
masuuliyiintii
masuulka
masvingo
mataan
mataanaha
mataanka
mataano
matabaan
matabeleland
matag
matala
matalaa
matalaad
matalaada
matalaadda
matalaan
matalan
matalay
matalaya
matalayaan
matalayay
matalayo
matali
matalo
matasha
matashay
matasho
matayos
mate
matematikaj
matematiko
math
mathbb
mathbf
mathrm
matoor
matoorada
matoorka
matsuda
matsumoto
matt
matter
matters
matthew
matxaf
matxafka
matxafyada
mau
maurice
mauritania
mauritanian
mauritius
mauro
maurya
mauthausen
mauvignier
mavi
mawdoo
mawduuc
mawduuca
mawduucan
mawduucyada
mawduucyo
mawjad
mawjada
mawjadaha
mawliid
mawqifka
max
maxa
maxaa
maxaabiis
maxaabiista
maxaabiistii
maxaad
maxaakiimta
maxaakimta
maxaamed
maxaan
maxaas
maxaatiri
maxaayeelay
maxakamadda
maxal
maxali
maxaliga
maxalli
maxalliga
maxamad
maxame
maxamed
maxammad
maxammed
maxamud
maxamuud
maxay
maxayadda
maxayeelay
maxaynan
maxayse
maxbuus
maxed
maxim
maxkamad
maxkamada
maxkamadaha
maxkamadda
maxkamaddii
maxkamaddu
maxkamadeed
maxkamadii
maxkamado
maxmed
maxmiyad
maxmiyada
maxmiyadda
maxmiyaddii
maxmiyadii
maxmuud
maxsuulka
maxwell
may
maya
mayaami
mayami
mayanmar
mayarkii
mayd
maydh
maydhane
maydhax
maydi
maydiga
maykorosofti
mayl
mayle
maymuna
mayno
mayo
mayor
mayorkii
mayotte
mayow
mayraykanka
maysara
mayso
mazda
mazembe
mb
mba
mbabane
mbappe
mbc
mbd
mbps
mc
mcc
mcdonald
mcgill
mcgraw
mch
md
me
meal
mean
meanchey
meaning
mecca
mechelen
med
media
medical
medicare
medicine
medieval
medina
mediterranean
mediterraneanka
medium
medvedev
mee
meeks
meel
meela
meelaha
meelahaas
meelahaasi
meelahan
meelay
meeleeyaha
meeleeye
meelgaadhka
meelgaarka
meeli
meelihii
meelkasta
meelna
meelo
meelood
meeqa
meera
meeraha
meerahaais
meerahaasi
meerahan
meerahani
meerayaal
meerayaasha
meerayaashu
meerayashu
meeraysta
meere
meereha
meereyaal
meereyaasha
meeris
meerkuri
meesh
meesha
meeshaa
meeshaan
meeshaas
meeshaasi
meeshan
meeshani
meeshay
meesheedii
meeshi
meeshii
meeshiisa
meeshuu
meet
meeting
meets
meey
meeyadii
meeyihii
mega
megan
meghan
mehdi
meher
meherad
meheradaha
meherado
meheri
meheriga
meherigu
meherka
meherku
mehersaday
mehmed
mehmet
mehri
meier
meiji
mein
meitneriyaam
mekong
meksiko
meksikohurricane
melbourne
meles
melez
melia
melody
melon
melosh
melting
mem
member
members
membership
memfis
memorial
memory
memphis
men
mena
menace
mendeleev
mendoza
menelik
mengista
mengistu
menna
menorah
menso
mental
menu
mer
mera
mercenaries
merchant
merchants
mercosur
mercury
mercy
mere
meridian
merit
meroe
meroitic
merriam
merrikh
mersin
mesag
mesfin
mesha
meskel
mesoarkeyaan
mesobotaamiya
mesopotamia
message
messenger
messi
messina
mesut
met
meta
metal
metallic
metaloid
metals
metalska
metalsku
metelay
meter
meters
meteshay
methane
methodist
metro
metroka
metropolis
metropolitan
metz
mex
mexican
mexico
mexique
mey
meyd
meydka
meydkiisa
meyer
meygaag
mez
mf
mfa
mg
mha
mhttp
mhz
mi
mia
miami
mian
michael
michel
michelangelo
michele
michelle
michigan
mici
miciin
miciyo
mickey
micnaha
micnaheeda
micnaheedu
micne
micneheeda
micneheedu
micnihiisu
micno
micronesia
microsoft
mid
mida
midaan
midaas
midaasi
midab
midabada
midabbo
midabeeyaha
midabeeye
midabeeyo
midabka
midabkan
midabkeeda
midabkeedu
midabkiisu
midabkooda
midabo
midabtakoor
midabyo
midan
midani
midawga
midawgii
midaynta
midaysan
midaysay
midaysayneefaha
midba
midbaa
midda
middaas
middle
middleeast
middlesex
mideeyaan
mideeyay
mideeyo
mideeysan
mideynta
mideysan
midgaan
midha
midhaha
midho
midhuhu
midi
midida
midig
midigsame
midigta
midii
midka
midkaa
midkaasi
midkale
midkamida
midkasta
midkii
midkiiba
midkiin
midkood
midkoodna
midna
midnight
midnimada
midnimadda
midnimadii
midnimadooda
midnimadu
midnimo
midnoqday
midnoqotay
midoobaan
midoobay
midoobaycategory
midoobeen
midoobey
midoobi
midoobo
midow
midowday
midowga
midowgii
midroc
midtahay
midwalba
midwest
midwestern
midyahay
midyihiin
miessler
mig
miga
might
mighty
migrant
migration
migros
migs
miguel
miicaad
miig
miilaadi
miilaadiga
miilaadiya
miilaadiyada
miim
miimka
miinada
miino
miinooyin
miinooyinka
miir
miiraa
miiro
miiroon
miirtaqwa
miis
miisaan
miisaaniyad
miisaaniyada
miisaaniyadda
miisaanka
miisaankeedu
miisaankoodu
miisanka
miisaska
miiska
mika
mikaela
mikami
mike
mikhail
miki
miko
mil
miladi
miladiga
milan
milanka
milano
milanovic
milatari
milatariga
milatarigu
milateri
milateriga
milay
mild
mile
milegi
miles
miley
milicsiga
miligaraam
milimitir
militari
militariga
military
milito
milix
milixda
miliyan
milk
milkiilaha
milkiilayaasha
milky
mill
millan
millatari
millatariga
millateriga
mille
millennium
miller
millet
milli
milligram
millimeter
million
millionaire
millions
milliteriga
mills
millwall
milly
milma
milmaanta
milmay
milme
milo
milton
milwaukee
milyan
milyanaad
mimas
min
mina
minaarad
minaj
minami
minangkabau
minaret
minas
minbarka
mind
mindanao
mindhicirka
mindhicirrada
mindi
mine
minecraft
minegishi
minen
mineral
mines
ming
minh
minideo
miniin
miniinta
miniintii
minin
minister
ministers
ministro
ministry
minjo
minka
minneapolis
minnesota
minus
minute
minutes
minuto
mio
miquelon
mir
mira
miracle
miraha
miranda
mire
miriam
mirifle
mirihiisa
miriyama
miro
mirre
mirror
mirya
miryam
miryama
miryamadii
mirza
mis
misaajid
misaajidka
misana
mise
mishahar
mishelangelo
mishiinka
misir
misirka
misirku
miskaad
miskaha
miskiga
miskiin
miskiinka
miskompreni
misna
miss
missile
missiles
missing
mission
missions
mississauga
mississipi
mississippi
missouri
mister
mit
mita
mitchell
miten
mitir
mitirka
mitsubishi
miu
mix
mixtape
mixtec
miyaa
miyaad
miyaan
miyaga
miyase
miyay
miyi
miyiga
miyigu
miyir
miyu
miyuu
miyuusigga
mjøsa
mk
mkg
ml
mld
mm
mma
mmp
mms
mn
mnangagwa
mnet
mo
mobilada
mobile
mobileka
mobilka
mobutu
mocooyo
mode
model
models
modena
modern
modi
modified
module
moe
moesia
mofa
mogadisho
mogadishu
mohamed
mohammad
mohammed
mohamoud
mohamud
mohamuud
moi
moise
mojang
mokhoddon
moko
moldavia
moldavian
molde
moldheere
moldofa
moldova
mole
molybdenum
mombaaso
mombasa
moment
momo
momoland
mon
mona
monaco
monako
monarchies
monastir
monat
mond
monday
monde
mondo
money
mongol
mongolia
mongolian
monica
monitoring
monkey
mono
monochrome
monon
monroe
mons
monsoon
monster
mont
montana
monte
montenegro
montevideo
montgomery
month
monthly
months
monto
montpellier
montre
montreal
montserrat
monument
moo
moobiilka
moobleen
mood
mooda
moodaa
moodada
moodal
mooday
moodaya
mooddaa
mooddo
moodeel
moodel
moodelyasha
moodid
moodka
moodkaba
moodku
moodo
moodooyinka
moog
mooge
moon
moonshot
moora
mooracase
moore
moorgan
moors
mooryaan
moos
moose
mooshe
mooshin
mooshinka
mooska
moosko
moosoro
mootada
mooto
mootooyinka
mooyaane
mooyee
mooyi
moqadishu
moran
moravian
moravians
more
morgan
morgau
moringa
morning
moroccan
morocco
moroni
morony
morris
morrison
morroco
mortelliti
morts
mos
moscow
moseh
moses
moshe
mosheh
mosko
moskow
mosovce
mosque
mosqueta
mosquito
most
mostly
mosul
mosylon
motagua
motema
mother
motion
moto
motor
motors
mou
moumin
mount
mountain
mountaineers
mountains
mounted
mouse
moushe
moussa
mouthing
move
moved
movement
movie
movies
moving
mowduuca
mowduucyada
mowjadaha
mowjadda
mowjado
mowlaca
mowlid
mowliid
mowliidka
mowqifka
mowsil
mowt
moxamed
moyale
moyen
moyes
mozambique
mozart
mp
mparatorlug
mph
mq
mr
mran
mri
mrs
ms
msg
msn
mt
mts
mtv
mu
muammar
muang
mubaarak
mubaayacoodeen
mubarak
mubarakah
mucaad
mucaarad
mucaaradad
mucaaradka
mucaaradku
mucaaridka
mucaawiya
mucaawiye
mucawiya
mucawiye
much
mucjisada
mucjisadii
mucjiso
muctasim
muctazilada
mud
muda
mudaaharaadyo
mudac
mudada
mudadaas
mudadii
mudaharaad
mudaharaado
mudalib
mudan
mudanayaal
mudanayaasha
mudane
mudar
mudda
muddada
muddadaas
muddadan
muddadii
muddalib
muddo
mudhalib
mudnaan
mudnaanta
mudo
mudooyinkii
mudrika
mudug
mudulod
mudulood
mueang
mufti
mug
muga
mugabe
mugdi
mugdiga
mugdigu
mugga
mughal
mugiisu
mugweyn
muh
muhaajiriin
muhaajiriinta
muhaajiriintii
muhaddathah
muhamed
muhammad
muhammed
muhiim
muhiima
muhiimad
muhiimada
muhiimadda
muhiimka
muhiimsan
muhiimsanaa
muhiimsani
muhiin
muhim
muhima
muhimka
muhimsan
muhsin
muhtes
muhumed
muj
mujaahid
mujaahidiin
mujaahidiinta
mujaahidiintii
mujaddidka
mujahid
mujtamaca
mukalla
mukarama
mukerji
mukeyle
mukhaadaraad
mukhaadaraadka
mukhtaar
mukhtar
mukulaal
mulaadkarad
mulac
mulkiilaha
mulkiilayaasha
mulkilaha
mullah
multazim
multe
multi
multilingual
multinational
multiple
muluk
muluuk
mumbai
mumin
munaaraddii
munaasabad
munaasabada
munaasabadaha
munaasabadda
munaasabado
munaasibada
munaasibadaasi
munawara
mundus
munich
municipal
municipalities
municipality
muqaal
muqaalka
muqadaska
muqaddim
muqadishu
muqbil
muqdisho
muqdishohttp
muqdishu
muqiira
muqowqis
muqtaar
muraabidiinta
muraabidiintu
muraabiduun
muraad
muraadkii
muraayad
muraayada
muraayadaha
muraayadda
murad
muran
muranada
muranka
murannada
muransan
murashax
murashaxa
murcanyo
murder
murdisada
murdiso
murmay
murphy
murqaha
murqo
murra
murray
mursal
murshid
mursi
murti
murtida
murtimaal
murtiyeed
murug
murugada
murugaysan
murugo
murugooday
murugsato
muruq
muruqa
muruqyo
murusade
mus
musa
musalsalka
musanbiig
musbaaro
muscab
muscat
muscats
muscle
musdafa
muse
muses
museum
museveni
museylima
mushaar
mushaarka
mushahar
mushaharka
musharax
musharaxa
musharaxiinta
musharaxnimada
musharixiinta
musharrax
musharraxa
mushkilad
mushkilada
mushkilado
music
musical
musician
musiibada
musiibo
musiibooyinka
musikada
musketeers
muslim
muslimay
muslimiin
muslimiinta
muslimiintaas
muslimiintii
muslimiintu
muslimka
muslims
muslimtey
muslin
muslinka
muslinku
musqul
musqulaha
musqusha
musse
mussolini
must
musta
mustacmaradaha
mustaf
mustafa
mustafe
mustafiya
mustang
mustansir
mustaqbal
mustaqbalka
mustaqbalkooda
mustaxiil
musuq
musuqa
musuqmaasuq
musuqmaasuqa
mutadawiciin
mutant
mutawakil
mutaysatay
mutaystay
muteki
mutua
mutual
mutuxan
muu
muufe
muujin
muujinaaya
muujinaya
muujinayaa
muujinayaan
muujinayo
muujinaysa
muujinaysaa
muujineeysa
muujineysa
muujineysaa
muujinta
muujintii
muujisay
muujiso
muujiya
muujiyaa
muujiyaan
muujiyaha
muujiyay
muujiyeen
muujiyey
muujiyo
muumin
muuminad
muun
muuna
muungaab
muuq
muuqaal
muuqaalada
muuqaaladeeda
muuqaalka
muuqaalkeeda
muuqaalkeedii
muuqaalkii
muuqaalkiisa
muuqaallada
muuqaallo
muuqaalo
muuqada
muuqalka
muuqan
muuqasho
muuqata
muuqataa
muuqatay
muuqato
muuqda
muuqdaa
muuqdaan
muuqday
muuqdeen
muuqdo
muuri
muus
muusa
muusafiin
muusan
muuse
muusekitaabka
muushe
muusig
muusiga
muusigeeda
muusigga
muusigyahan
muusiik
muusik
muusika
muusikada
muusikiiste
muusiko
muuska
muwaadin
muwaadiniin
muwaadiniinta
muwaadinka
muwaxidiinta
muxaadaro
muxaadarooyin
muxaafid
muxaafidka
muxaddis
muxamad
muxamed
muxamedna
muxammad
muxammed
muxaram
muxarram
muxsin
muxudiin
muxumad
muxumed
muxumud
muxuu
mv
mw
mwai
mwave
mx
my
myanmar
mybank
mykolayovych
myles
myo
myos
myrrh
myself
myspace
mysteries
mysterious
mystery
mythology
mz
møre
n
na
naa
naad
naadi
naadiga
naadir
naadiyaasha
naadiyada
naadiyo
naadkii
naafada
naafee
naafeeyay
naafo
naaftada
naafto
naag
naagaha
naagood
naagta
naagtii
naagtiisa
naagtu
naagtuna
naaji
naaleeye
naan
naanays
naanaysaa
naanaysi
naanayso
naanaysta
naanaysyo
naaneys
naaneysaa
naaneysi
naaneyso
naaneysta
naaqus
naar
naarta
naartana
naas
naasa
naasaha
naasigu
naasir
naasirud
naasiyada
naasiyiintu
naaska
naasley
naasleyda
naaso
nabaad
nabad
nabada
nabadana
nabaday
nabadaynta
nabadda
nabaddoon
nabadeed
nabadeynta
nabadgalyada
nabadgalyo
nabadgelyada
nabadgelyadiisa
nabadgelyo
nabadii
nabadon
nabadoon
nabadoonada
nabadoonka
nabadsugida
nabadsugidda
nabadu
nabar
nabataea
nabdoon
nabi
nabiga
nabigeena
nabigii
nabigu
nabil
nabinimada
nabinimo
nabiyada
nabiyo
nabraha
nabsigu
nabucco
nacas
nacasnimada
nacay
nacayb
nacaybka
nacaybkii
nach
nacional
nacnac
nada
nadaafada
nadaafadda
nadal
nadar
nadia
nadiga
nadii
nadiif
nadiifin
nadiifinta
nadiifiya
nadiifiyo
nadiifo
nadiifsan
nadu
naf
nafaqada
nafaqeeyo
nafaqeeysan
nafaqo
nafaqooyinka
naflayda
nafley
nafleyda
nafsaddiisa
nafsi
nafsiga
nafta
naftaada
naftaadii
naftada
naftayda
nafteeda
naftii
naftiisa
naftood
naftooda
naftu
nag
naga
nagala
nagata
nageeye
nageyle
nagoya
nagu
nah
nahar
nahay
nahyan
nai
naik
nairobi
najaashi
najaf
najd
najib
najiib
nakfa
nakhchivan
nakuru
nal
nala
nalagu
nalalka
nalayeh
naleeye
naleya
nalka
naloo
nam
nama
nambar
nambarada
nambarka
nambiya
name
named
names
namibia
namibiya
namtha
nan
nana
nancy
nang
nanjing
nantes
naples
napoleon
napoli
naqaan
naqaano
naqday
naqdiya
naqshad
naqshada
naqshadaha
naqshadaynta
naqshadda
naqshadeeyaha
naqshadeeyay
naqshadeeye
naqshadeynta
naqshado
nara
narayangarh
narc
narrative
narsadu
narso
nas
nasa
nasaarada
nasab
nasahnaa
nasakh
nasashada
nasasho
nascar
nascent
nasdaq
nashfille
nashville
nasiib
nasiibka
nasional
nasir
nasoo
nasr
nasralah
nasrani
nasri
nasser
nassr
nastaan
nasteexo
nasto
nat
natalie
natasha
nate
natiijada
natiijadii
natiijadiina
natiijo
natiijooyinka
nation
national
nationale
nationalgeographic
nationalism
nationlink
nations
nationsonline
native
nato
natural
naturalis
nature
nau
nauru
nautical
naval
naver
navy
nawaaxiga
nawaaxigeeda
nawaaxigeedu
nawawi
nawru
naxaas
naxaasta
naxariis
naxariista
naxariistaha
naxariiste
naxariistee
naxariistey
naxariistii
naxariistiisa
naxariisto
naxariistu
naxay
naxdin
naxdinta
naxe
naxriistee
naxwaha
naxwe
nay
nayef
nayjar
nayjeeriya
nayl
nayroobi
nazaar
nazareth
nazi
nazionale
nb
nba
nbc
nc
nchen
nci
ncipe
nd
nde
ndebele
ndez
ndtv
ne
neal
neanderthals
near
neat
nebal
nebi
nebiga
nebigeenna
nebigii
nebigiina
nebigu
nebiguna
nebinimada
nebiya
nebiyad
nebiyada
nebiyadii
nebiyadiisa
nebiyo
nebiyulaahi
nebraska
nec
necbaa
necbahay
neceb
necebtahay
necessary
neck
nectar
nederlaan
nederlaanku
nederland
nederlandka
nederlands
nedifinita
nee
neebaal
need
needed
needs
neef
neefaha
neefahaasi
neefahan
neefka
neefo
neefsado
neefsashada
neefsi
neefsiga
neefta
neeftu
neemir
neerfaha
negara
negative
negeri
neglected
neh
neier
neil
nel
nelja
nelson
nema
neni
nenia
nenial
neniam
nenie
neniel
nenies
nenio
neniom
neniu
neo
neolithic
nepal
neptune
neptunian
neq
nes
nesmaczny
nestle
net
netflix
netherlands
netjer
network
networking
networks
neu
neuer
neutral
nevada
never
nevis
nevs
new
newell
newfoundland
newly
newport
news
newsen
newspaper
newton
next
neyl
nez
nfd
ng
ngel
ngo
ngyue
nh
nhk
nhkworld
ni
nia
niagara
niamey
nibiri
nibiriga
nic
nicaragua
nice
nicholas
nicholson
nick
nicki
nicola
nicolas
nicole
nicolet
nicolson
nidaam
nidaaminaya
nidaaminta
nidaamiya
nidaamka
nidaamkan
nidaamkii
nidaamsan
nidaamyada
nidaamyo
nieukerken
nigel
niger
nigeria
nigerian
night
nigra
nihat
nihin
nihon
nii
niigata
niiko
niil
niilka
niiqiya
niisaabuur
nijer
nikah
nikaragua
nike
nikel
nikelka
nikita
nikragwa
nil
nile
nilo
nilotic
nimaad
nimaan
nimada
nimadii
niman
nimanka
nimankaan
nimankii
nimay
nimcada
nimco
nimcooyin
nimcooyinka
nimid
nimo
nimr
nin
nina
ninba
nine
nineveh
ninh
ninja
ninka
ninkaa
ninkaan
ninkaas
ninkaasi
ninkan
ninkani
ninkeeda
ninkeedii
ninki
ninkii
ninku
ninna
nio
nippon
nirgood
niri
nis
nisa
nisaa
nisha
nishabd
nissan
nitah
nitrogen
nitrojiin
nitrojiinta
niue
niyad
niyada
niyadda
niyadjabka
niyobiyaam
niyoon
nizhny
nj
nje
njeim
nk
nke
nkurunziza
nl
nm
nn
nne
nnkh
no
noaa
noah
nobel
nobis
noble
node
noemiofficial
nofeembar
nofembar
nofember
nogal
noir
nokia
nolasha
nolen
nolo
nolol
nololeed
nololeedka
nololeedkii
nololeedkiisa
nololi
nolosha
noloshaada
noloshayda
nolosheeda
nolosheedii
nolosheyda
noloshii
noloshiisa
noloshiisii
noloshooda
noloshoodu
noloshu
nomadic
nombro
nominativo
non
nonfreeimageremoved
nonmetal
noo
nooc
nooca
noocaan
noocaas
noocan
noocani
nooceeda
noocii
noociisa
noocyada
noocyadeeda
noocyadiisa
noocyadooda
noocyo
noofambar
noofeembar
noofembar
nooga
noogu
nool
noola
noolaa
noolaadaan
noolaaday
noolaado
noolaan
noolaanshaha
noolaashaha
noolaato
noolaayeen
noolaha
noolahaas
noolahaasi
noolayaasha
noolayd
noolaynta
noole
noolecategory
nooleedkiisa
nooleeya
nooleeyay
nooleeyo
nooleha
nooleyd
nooleyn
nooleynta
nooli
noolnahay
nooluhu
noolyahay
noolyihiin
nooma
noor
noord
noorway
noorwiijiga
nooshahay
noqatay
noqda
noqdaa
noqdaan
noqday
noqdee
noqdeen
noqdey
noqdo
noqnoqda
noqnoqota
noqo
noqon
noqonaa
noqonaya
noqonayaa
noqonayaan
noqonayo
noqonaysa
noqonaysaa
noqonayso
noqoneysa
noqoneysaa
noqoneyso
noqono
noqoshada
noqoshadii
noqosho
noqota
noqotaa
noqotay
noqotee
noqotey
noqoto
nor
norceca
nord
nordic
nordland
norfolk
norma
normal
norman
norse
north
northeast
northeastern
northern
northumberland
northwest
northwestern
norton
norway
norwegian
norwey
norwich
nos
not
note
noted
notes
notices
noun
nour
nous
nov
nova
novara
novembar
november
novgorod
novi
novosibirsk
now
nowa
npr
nr
nrc
nss
nster
nt
nta
nther
nu
nubia
nubian
nuclear
nucleus
nucmaan
nueva
nuf
nugaal
nugaaleed
nugal
nugaylka
nugul
nukliyarka
nukliyeer
nukliyeerka
nul
num
number
numbered
numbers
nun
nunavut
nuqul
nur
nuro
nursing
nus
nusa
nusayr
nuseyr
nuskii
nust
nut
nutella
nutr
nutra
nutrition
nuuc
nuuca
nuucyada
nuucyadiisa
nuuga
nuugaan
nuugto
nuujisey
nuun
nuune
nuunka
nuuno
nuunow
nuur
nuura
nuurad
nuurada
nuuradda
nuuradiin
nuuradka
nuurka
nuurku
nuurow
nuurudiin
nuux
nuuxfone
nuuxnuuxsaday
nux
nuxur
nuxurka
nuys
nuyuutroon
nuyuutroono
ny
nyanja
nyc
nyeri
nytimes
nyue
nyungwe
nz
nə
o
oak
oakland
oas
oau
ob
obama
oberon
obiang
object
oblast
observatory
obsiiye
obverse
oc
occidental
occupation
occupations
occupied
ocean
oceania
oceanic
oceans
oct
october
octopus
odala
oday
odayaal
odayaasha
odayaashii
odayga
odaygii
odewayne
odhaahda
odhan
odhanaya
odhanjiray
odi
odia
odisha
odom
odowaa
oecd
of
ofcom
off
offensive
offering
offers
office
officer
officers
offices
official
officially
officials
officiant
offshore
og
oga
ogaa
ogaadaa
ogaadaan
ogaaday
ogaadeen
ogaadeeniya
ogaadeenku
ogaadeenya
ogaaden
ogaadey
ogaado
ogaal
ogaan
ogaanayo
ogaanno
ogaano
ogaanshaha
ogaatay
ogaatid
ogaato
ogadeen
ogadeeniya
ogaden
ogadeni
ogadenia
ogadenya
ogahay
oganesson
ogast
ogayahay
ogayn
ogaysiis
ogeyn
ogeysiis
ogeysiiyay
oggol
oggola
oggolaa
oggolaadaan
oggolaaday
oggolaadeen
oggolaado
oggolaan
oggolaanaya
oggolaanaysaa
oggolaanshaha
oggolaansho
oggolaatay
oggolayn
oggoleen
ogi
ognahay
ogo
ogol
ogola
ogolaadaan
ogolaaday
ogolaadeen
ogolaado
ogolaan
ogolaanaya
ogolaanshaha
ogolaansho
ogolaasho
ogolaatay
ogolad
ogolayn
ogolyahay
ogoow
ogos
ogost
ogosto
ogow
ogsajiin
ogsajiinta
ogsaydh
ogsaydhku
ogsijiin
ogsoon
ogsoonahay
ogtahay
ogu
ogyahay
ogyihiin
oh
ohio
oic
oid
oil
ois
ok
okaz
okazis
okazo
okcident
oklahoma
okobo
oktobar
oktober
oktoobar
oktoober
ol
ola
olaha
olalihii
old
oldest
ole
olga
olihii
olimbikada
olive
oliver
olivia
olivier
olla
olol
ololaha
ololaheeda
ololahooda
ololaya
ololayaasha
olole
ololeeya
ololeyaal
ololihii
olombiga
olombikada
olsen
olympiacos
olympic
olympics
olympique
olympus
om
omaar
omaha
oman
omani
omar
ombiology
omega
omer
omicron
omoto
on
one
onew
oneworld
ongoing
oni
onkod
onlaynka
online
onlineka
only
onlyfans
ontario
oo
ood
oodhan
oodweyne
oof
oog
ooga
oogada
oogay
oogista
oogle
oogo
oogu
oohin
oohinta
ool
ooli
oolid
oolin
oolka
oollin
oomaar
oomane
oomo
oon
oona
oonaan
ooo
ooqof
ooraasiya
oori
oorida
ooridii
ooriyada
ooshiyaaniya
oow
ooy
ooyay
oozoon
op
ope
opec
open
opened
opening
opens
opera
operated
operates
operating
operation
operations
opinion
opium
opone
opp
oppland
oppo
opportunities
opportunity
opposite
opposition
optical
optics
option
oq
or
ora
oraah
oraahda
oran
oranaya
oranayaa
orange
oranges
oranji
oranjiray
orba
orbit
orbital
orbiting
ord
orday
ordeen
order
orderchronological
ordered
ordi
ordo
ordre
ore
oregon
oreloj
org
organisation
organisms
organization
organizations
orgi
oricon
orida
orient
oriental
origin
original
origino
origins
orion
orissa
oriya
orkhan
orlando
orle
orleans
oro
orod
orodada
orodka
orodyahanka
oromada
oromadu
oromia
oromiya
oromo
orrell
orthodox
ortodokska
os
osaka
osama
oscar
osce
osdofaan
osiris
oslo
oslofjord
osmaan
osman
osmanya
osmiyaam
ossetia
osteopathy
ostroda
ot
other
others
otnes
otoman
ottawa
otto
ottoman
ottomans
ou
ouagadougou
oud
ouest
our
ours
out
outbreaks
outer
outlook
outside
ovce
over
overline
overview
ow
ower
owgeed
owkland
own
owned
ownership
oxford
oxygen
oz
ozawa
p
pa
pablo
pac
pace
pacific
paco
padma
padukone
pag
page
pages
paid
pain
painos
painting
pair
pakhtunkhwa
pakistaan
pakistan
pakistani
pala
palace
palau
palembang
palermo
palestine
palestinian
palgrave
paljon
pall
palm
palma
palmeiras
palmer
paloheimo
pamela
pan
panama
panamericana
panasonic
panathinaikos
panchira
pancholi
panda
pandemic
pandey
panel
pangea
pankhurst
pano
panorama
panoramic
panwar
paok
paolo
paper
papers
papua
par
para
paradise
paraguay
paramount
parcelles
pardonu
pare
parents
paris
pariss
park
parker
parks
parle
parliament
parliamentary
parolas
paroli
parolo
parsi
part
parthian
partial
participation
participo
particles
parties
partizan
partner
partners
partnership
parts
party
pas
pasaporte
pascific
pasha
pasi
pasific
pasis
pasiva
pass
passed
passeport
passport
passports
past
pasta
paste
pastoral
pastoralism
patani
patel
path
pathum
patreto
patrice
patrick
patrino
patriot
patriotic
patro
pau
paul
paula
paulo
paved
pawlo
pay
payment
payments
payne
pays
paz
pb
pbs
pc
pd
pda
pdf
pdp
pe
peace
peaceful
peach
peak
peanut
pearl
pearson
peat
peco
pedro
peel
pelagia
pembe
pen
pence
penev
penguin
penh
peninsula
peninsular
penn
pennsylvania
pentagon
penthouse
people
peoples
pepper
per
pera
percent
perfect
perfekte
performance
period
periodictable
periodo
periplus
permanent
perrie
perry
persebaya
persepolis
perseus
persia
persian
person
persona
personal
persone
personnel
persono
pertaining
perth
peru
perum
peruvian
pesantren
peschke
peshawar
peshtigo
pest
pestalozza
pet
pete
peter
peters
petersburg
petit
petra
petro
petrol
petroleum
petrucci
peugeot
pez
pf
pg
ph
phane
pharaoh
pharmaceutical
pharmacy
phaseolus
phd
phil
philadelphia
philip
philippe
philippine
philippines
phillip
phillips
phillis
philosophical
philosophy
phnom
pho
phobos
phoebe
phoenicia
phoenix
phone
phosphate
photo
photograph
photographie
photoplay
photos
photosynthesis
phou
php
phraya
phu
phyla
physical
physics
physiology
pi
pia
piano
piazza
pic
picture
pictures
pie
piece
pierre
pig
pigeon
pillars
pilot
pin
ping
pink
pinku
pinky
pinnock
pinochet
pinyin
piombino
pioneers
pipeline
piracy
piramidas
pirate
pirates
pitch
pittsburgh
pizza
pk
pkm
pl
plac
place
places
plains
plan
plane
planelm
planet
planetary
planets
planning
plans
plant
plantae
plantation
plants
plata
plate
plateau
platform
platforms
platinum
plato
play
playboy
player
players
playing
playlist
plays
playstation
plaza
plc
please
pleck
pledged
pledges
pledis
plej
pli
pliny
plo
plu
pluralo
plus
pluto
plymouth
pm
pmeg
png
pnictogen
pnictogens
po
podesta
poem
poet
pohala
point
points
poker
pokhara
pokhran
pol
poland
polar
pole
police
policisto
policy
polio
polisario
polish
political
politician
politico
politics
poll
pollen
polokwane
polydor
polynesia
polynesian
polytechnic
pompey
pooja
pop
popcorn
pope
popular
population
populations
por
porn
pornhub
pornography
porsche
port
portal
porte
portland
porto
portrait
ports
portugal
portuguese
pos
posedanto
position
positive
possible
post
postal
poste
postes
posts
pot
potassium
potato
potawatomi
potential
pound
pounds
pour
povas
pow
power
powerful
powershot
pows
pp
ppen
ppp
pr
prabang
practice
practices
pradesh
prado
praesa
prag
prague
praia
prayer
prc
pre
preah
prefer
prehistoric
prehistory
preity
prelego
preliminary
prem
premier
preni
prentice
prepared
preparing
prepozicio
present
presented
presidency
president
presidential
press
pressure
prestige
preston
preter
pretoria
previous
previously
prey
prezidento
pri
price
prices
priciple
pride
primarily
primary
prime
primetime
prince
princess
princeton
principe
principios
principle
principles
print
printing
priorities
prism
private
prix
priyanka
prize
prnewswire
pro
probably
probe
problem
problems
proc
proceedings
process
procession
processor
produce
produced
product
production
productions
products
produkto
prof
professional
professor
profile
profit
program
programaro
programme
programming
programs
progress
project
projects
proksima
prometheus
promised
promises
promote
promotion
pronunciation
properties
property
prophet
prophets
proposal
propraj
propran
prospect
protect
protection
protectorate
protein
protestant
protests
proteus
proto
protocol
proton
protons
proud
provice
provide
provides
province
provinces
provisional
ps
psc
psu
psv
psy
psychological
pt
ptolemaic
ptolemy
pub
public
publication
publications
publique
published
publishers
publishing
puchowski
pueblo
puerto
pulo
pulse
puma
pummel
pummels
pumpkin
punch
punishment
punjab
punjabi
punt
puntites
puntland
purple
pursat
put
putin
puławy
px
py
pyaar
pyramid
pyramids
q
qa
qaab
qaabab
qaababka
qaabaynta
qaabaysan
qaabdhismeed
qaabdhismeedka
qaabeeyey
qaabeynta
qaabiil
qaabilaada
qaabilay
qaabilsan
qaabilsanaa
qaabisay
qaabiyaha
qaabka
qaabkaan
qaabkan
qaabkeeda
qaabkii
qaabkiisa
qaaci
qaacida
qaacidada
qaacidadii
qaaciga
qaacigu
qaaciido
qaad
qaada
qaadaa
qaadaan
qaadan
qaadanaa
qaadanay
qaadanaya
qaadanayaa
qaadanayeen
qaadanaynaa
qaadanayo
qaadanaysaa
qaadanin
qaadanno
qaadano
qaadashada
qaadasho
qaadata
qaadataa
qaadatay
qaadatey
qaadato
qaaday
qaadaya
qaadayaa
qaadayaal
qaadayaan
qaadayaasha
qaadayay
qaadayo
qaadaysa
qaadayso
qaadday
qaaddo
qaade
qaadeen
qaadey
qaadi
qaadid
qaadida
qaadidda
qaadiga
qaadii
qaadin
qaadir
qaadirka
qaadis
qaadista
qaadka
qaadno
qaado
qaadow
qaaf
qaafiyad
qaafiyadda
qaahira
qaahiro
qaaim
qaali
qaalib
qaaliga
qaalin
qaalisan
qaamuus
qaamuuska
qaamuuskan
qaamuusyada
qaan
qaandhaadhla
qaangaadh
qaangaadhaa
qaangaadhay
qaangaadhka
qaangaar
qaangaarka
qaanitah
qaansada
qaansadu
qaanso
qaansuu
qaanuun
qaanuuni
qaanuunka
qaar
qaarad
qaarada
qaaradaha
qaaradda
qaarado
qaaradood
qaarbaa
qaarka
qaarkale
qaarkii
qaarkiis
qaarkood
qaarkooda
qaarkoodna
qaarna
qaas
qaasatan
qaasim
qaasin
qaaska
qaata
qaataa
qaataan
qaataha
qaatan
qaatay
qaateen
qaatey
qaato
qaawan
qaawanaanta
qaaxada
qaayib
qaayo
qaaytibaay
qaazim
qab
qaba
qabaa
qabaail
qabaailada
qabaailka
qabaan
qabab
qabad
qabadka
qabadkiisa
qabalee
qaban
qabanaayo
qabanaya
qabanayaa
qabanayay
qabanayo
qabanin
qabar
qabashada
qabashadiis
qabasho
qabata
qabataa
qabatay
qabatinka
qabato
qabaw
qabay
qabdiya
qabeen
qabey
qabi
qabid
qabiil
qabiilada
qabiiladii
qabiileed
qabiilka
qabiilkan
qabiilkeeda
qabiilkii
qabiilkiisa
qabiilkooda
qabiillada
qabiilo
qabiilooyin
qabiilooyinka
qabiilooyinkii
qabil
qabilada
qabin
qabo
qabooba
qaboobaa
qaboobaha
qaboobe
qaboojinta
qaboojis
qaboojiyaha
qaboojiyo
qaboow
qaboowga
qabow
qabowga
qabqabashada
qabqabasho
qabqablayaasha
qabri
qabribayax
qabriga
qabrigii
qabrigiisa
qabrus
qabsadaa
qabsadaan
qabsaday
qabsadeen
qabsadey
qabsado
qabsan
qabsashada
qabsashaddii
qabsashadii
qabsatay
qabsatey
qabsato
qabsi
qabsiga
qabso
qabsoomay
qabta
qabtaa
qabtaan
qabtan
qabtay
qabteen
qabtey
qabtid
qabto
qabuuraha
qabuuro
qabyaalad
qabyaalada
qabyaaladda
qabyaaladi
qabyada
qabyo
qac
qacda
qadaadiicda
qadaafi
qadada
qadadu
qadaf
qadar
qadaray
qadarin
qadarinta
qadariyo
qadarka
qadatay
qaday
qaddar
qaddaray
qaddarin
qaddarka
qadhaabsade
qadhaabsanaya
qadhaabsato
qadhaabsi
qadhaadh
qadi
qadiim
qadiima
qadiimi
qadiimiga
qadiimisan
qadiimiya
qadiimka
qadiimsan
qadiis
qadir
qadiyad
qadka
qado
qadsia
qaeda
qafaashay
qajaar
qajaarka
qal
qalaad
qalaafe
qalaawuun
qalab
qalabeesnaayeen
qalabka
qalabkasida
qalabkii
qalabkooda
qalabyada
qalad
qalafsan
qalajinta
qalajiyaha
qalajiyey
qalalaasaha
qalalaase
qalalan
qalanjo
qalay
qalayl
qalbi
qalbiga
qalbigaaga
qalbigii
qalbigiisa
qalbigooda
qalbigu
qalcad
qalcada
qalcadda
qalcaddii
qalcadii
qalcado
qaldan
qalfoof
qaliif
qaliin
qaliinka
qalimoow
qalin
qalinjabisay
qalinjabiyay
qalinka
qalinkii
qallaafe
qallafsan
qallalan
qalliin
qalliinka
qalma
qalmin
qalooc
qaloocan
qaloocin
qamaan
qamadi
qamadiga
qamadigu
qamar
qanacsan
qanacsanayd
qancay
qancin
qanciyaan
qanciyay
qanciyo
qanco
qandala
qandaraas
qandaraaska
qandaraaskeeda
qandaraaskeedii
qandaraaslaha
qandaraasyada
qandaraasyo
qandhada
qandho
qani
qaniga
qaniinyada
qaniinyo
qanisan
qanjirka
qansax
qansaxle
qanyare
qar
qara
qaraabada
qaraabadiisa
qaraabadooda
qaraabo
qaraami
qaraamiga
qaraar
qaraarka
qaraarkii
qarabag
qarada
qaraha
qarama
qaramaan
qaramada
qarameed
qaramka
qaran
qaranimada
qaranimadii
qaranimo
qaranka
qaranku
qarannimada
qararo
qarash
qarashka
qarax
qaraxa
qaraxii
qaraxyada
qaraxyo
qarbad
qarboosh
qarbooshta
qarbooshtu
qardaawi
qardho
qare
qareen
qareenka
qariirada
qarin
qarinta
qaris
qarisay
qariya
qariyaan
qariyay
qariyey
qariyo
qarka
qarmaan
qarni
qarniga
qarnigan
qarnigi
qarnigii
qarniyaal
qarniyadii
qarniyo
qaro
qarow
qarshe
qarsoodi
qarsoodiga
qarsoomo
qarsoon
qarxa
qarxay
qarxin
qarxinta
qarxis
qarxiyay
qas
qasa
qasaa
qasaalada
qasaaro
qasab
qasabka
qasabtay
qasan
qasatan
qasay
qasbanaaday
qasbay
qasbeen
qasbo
qasdamuuni
qasdiga
qashin
qashinka
qashtaala
qasim
qasimi
qasriga
qasrigii
qaswado
qaswiin
qatar
qatari
qatay
qawaaniin
qawaaniinta
qawqaas
qawqaaska
qaxa
qaxaan
qaxay
qaxdaan
qaxdey
qaxeen
qaxoontiga
qaxooti
qaxootiga
qaxootigii
qaxootinimo
qaxwada
qaxwaha
qaxwe
qayaad
qayb
qaybaha
qaybaheeda
qaybdiid
qaybgalaan
qaybgalay
qaybgalayaasha
qaybgalayaashii
qaybgalayaashu
qaybgaleen
qaybgalka
qaybgashay
qaybgasho
qaybi
qaybin
qaybinta
qaybisaa
qaybisay
qaybiya
qaybiyaa
qaybiyaha
qaybiyay
qaybiyeen
qaybiyey
qaybiyo
qaybo
qaybood
qaybqaadan
qaybqaadashada
qaybqaataan
qaybqaatay
qaybsaday
qaybsamaa
qaybsamaan
qaybsan
qaybsanaa
qaybsanaanta
qaybsantaa
qaybsantay
qaybta
qaybtaan
qaybtaas
qaybtan
qaybtani
qaybteeda
qaybtii
qaybtiisa
qaybtood
qaydaro
qaydhiin
qayliye
qaylo
qays
qaysar
qaysarkii
qeeb
qeebiyay
qeebood
qeexaa
qeexaan
qeexan
qeexay
qeexaya
qeexayaa
qeexda
qeexday
qeexi
qeexid
qeexida
qeexidda
qeexitaan
qeexitaanka
qeexniin
qeexo
qeeyb
qeeybaha
qeeybiyaa
qeeybiyo
qeeybo
qeeybood
qeeybta
qeyb
qeybaha
qeybahaasi
qeybgalay
qeybgaleen
qeybgashay
qeybi
qeybin
qeybinayo
qeybinta
qeybisa
qeybisaa
qeybiya
qeybiyaa
qeybiyay
qeybiyo
qeybo
qeybood
qeybqaatay
qeybqaatayaasha
qeybsamaa
qeybsamaan
qeybsamay
qeybsan
qeybsantaa
qeybsantay
qeybsi
qeybsiga
qeybta
qeybteeda
qeybtii
qeybtiisa
qeyliye
qeylo
qeys
qeysarka
qhifaar
qi
qiblada
qibtiyya
qidcad
qiil
qiima
qiimaha
qiimaheeda
qiimaheedu
qiimayn
qiimaynta
qiime
qiimeeyaa
qiimeeyay
qiimeeyo
qiimeyn
qiimeynta
qiimihiisu
qiimo
qiiq
qiiqa
qiirada
qiiro
qilaaf
qilij
qing
qinghai
qir
qiram
qiray
qirayaa
qirtay
qisada
qisadii
qiso
qiyaamaha
qiyaame
qiyaas
qiyaasa
qiyaasaa
qiyaasaasi
qiyaasaha
qiyaasay
qiyaasayaa
qiyaasayo
qiyaaseen
qiyaasey
qiyaasi
qiyaaso
qiyaasta
qiyaastani
qiyaastay
qiyaasti
qiyaastii
qiyam
qiyamka
qiyyaso
qm
qod
qodaa
qodaal
qodax
qoday
qodayo
qodeen
qodey
qodh
qodida
qodin
qodista
qodo
qodob
qodobada
qodobadan
qodobbada
qodobbo
qodobka
qodobkan
qodobo
qof
qofba
qofka
qofkaa
qofkaan
qofkaas
qofkaasi
qofkase
qofkasta
qofkii
qofkiiba
qofku
qofna
qofnaba
qofnimadiisa
qofood
qofta
qoftaasi
qoftii
qofuun
qofwalba
qol
qolada
qoladii
qolal
qolalka
qolcunitaan
qolhurdo
qolka
qolku
qolo
qoloba
qolof
qolofka
qolofkooda
qolofta
qoob
qoobka
qooleeyda
qoom
qoomiyad
qoomiyada
qoomiyadaha
qoomiyadda
qoomiyado
qoomiyadood
qoomkii
qoomkiisa
qoondarka
qoondayn
qoondeeyay
qoondeeyeen
qoondeeyey
qoondeeyo
qoonsanaayaa
qoor
qoori
qoorta
qoorte
qooyonloo
qooyska
qor
qora
qoraa
qoraaga
qoraagii
qoraagu
qoraakii
qoraal
qoraalada
qoraaladii
qoraalka
qoraalkaan
qoraalkan
qoraalkii
qoraalku
qoraallada
qoraalladii
qoraallo
qoraalo
qoraan
qoraha
qoran
qoranta
qorax
qoraxda
qoraxdaasi
qoraxdu
qoraxduna
qoraxey
qoray
qoraya
qorayaa
qorayaal
qorayaasha
qorayay
qoraynaa
qorayo
qore
qoreen
qorey
qorfe
qori
qorid
qorida
qoridda
qoriga
qorigaan
qorigan
qorilugud
qorin
qoris
qorista
qoristii
qoritaan
qoritaanka
qormada
qormadan
qormo
qornaa
qorniinka
qoro
qorrax
qorraxda
qorraxdu
qorshaha
qorshahan
qorshayaal
qorshayaasha
qorshayn
qorshaynta
qorshaysan
qorshe
qorsheeyay
qorsheeyey
qorsheeyo
qorsheynta
qorsheysay
qorshooyinka
qorshuhu
qortaa
qortay
qorto
qorxoon
qoryaale
qoryaha
qoryaweyn
qoryo
qoryooleey
qoryooley
qoslaa
qosol
qosolka
qotada
qoto
qotodheer
qotoma
qowmiyad
qowmiyada
qowmiyadaha
qowmiyadda
qowmiyadeed
qowmiyado
qoxooti
qoxootiga
qoyaan
qoyaanka
qoyan
qoys
qoysas
qoysaska
qoysaskooda
qoyska
qoyskan
qoyskeeda
qoyskeedu
qoyskii
qoyskiisa
qoyskiisu
qoyskooda
qoysku
qq
qquad
qran
qtdba
qu
qua
quaamuus
quake
qualifiers
quality
quang
quarry
quarter
quarterly
quartier
qubays
qubbi
qubeys
qubeyska
qubrus
qubuuraha
qubuuro
qudaaca
qudaar
qudaarta
qudduuska
qudh
qudha
qudhac
qudhiisa
qudhoodu
qudub
qudus
quduska
quduus
quduuska
que
quebec
quechua
quedagh
queen
queens
queensland
quest
qufac
qufaca
quhafa
qui
quirke
quito
qul
quljeed
qulqul
qulqulaya
qulqulayeen
qulqulka
qulqulo
qulus
quluubta
quluubtooda
quman
qumbaha
qumbe
qumiya
qumman
qunsulka
qunyar
quotation
quote
qur
qura
quraa
quraac
quraaca
quraacda
quraacdaan
quraacdo
quraan
quraanka
quraankii
quraanku
quraanshada
quraarad
qurac
quraca
quran
quranic
quranyo
qurashi
quraxda
quraysh
quraysheed
qurayshi
qurba
qurbaha
qurbajoog
qurbajoogta
qurbo
qurbojoogta
qurduba
qureebaad
qureec
qureesheed
qureysh
qureysheed
qureyshna
qurquud
qurub
quruumaha
quruumo
quruun
quruurado
quruurax
qurux
quruxbadan
quruxda
quruxdeeda
quruxsan
qurxan
qurxin
qurxinta
qurxiyay
qurxiyey
qurxiyo
qurxoon
qusayi
qusdandiiniya
quseeya
qusuusi
qutulmush
quud
quudashada
quudhsi
quudinta
quudiya
quudiyiinta
quudiyo
quudka
quustay
quuta
quutaan
quuto
quutul
quwad
quwada
r
ra
raab
raaber
raaberyasha
raabi
raabiyada
raabka
raac
raaca
raacaa
raacaan
raacay
raacaya
raacayaa
raacayo
raacaysa
raacda
raacdaa
raacday
raacdey
raacdo
raaceen
raaci
raacin
raacitaanka
raaciyaa
raaciyay
raaciyey
raaco
raacsan
raacsanaa
raacsanayd
raad
raadad
raadadka
raadadkii
raadhiyaam
raadhoon
raadi
raadin
raadinaya
raadinayay
raadinayo
raadineysay
raadinta
raadio
raadis
raadiso
raadiya
raadiyaa
raadiyaan
raadiyaasha
raadiyaha
raadiyahaan
raadiye
raadiyo
raadiyow
raadka
raadon
raadraac
raadraaca
raadsadaan
raadsado
raaga
raagaan
raage
raageceelle
raageraage
raali
raaligelin
raalli
raan
raaqiyah
raas
raashid
raashidiin
raashidiinta
raashidiintu
raashiin
raashin
raashinka
raashinkii
raashiya
raashiyaanka
raasumaal
raasumaalka
raaxada
raaxaysi
raaxaysto
raaxo
raaxoole
rab
raba
rabaa
rabaan
rabaax
rabat
rabay
rabbi
rabbiga
rabbigiis
rabbigiisa
rabbigu
rabbit
rabdhuure
rabe
rabeen
rabi
rabid
rabiga
rabih
rabiic
rabiica
rabiical
rabiicul
rabiile
rabin
rabitaan
rabitaanka
rabitaankiisa
rabnaa
rabno
rabo
rabshad
rabshada
rabshadaha
rabshadihii
rabshado
rabsho
rabta
rabtaa
rabtaan
rabtay
rabtid
rabto
race
racfaan
racfaanka
rachel
racial
racing
racism
rad
rade
radhi
radhiyah
radiation
radiationka
radiko
radikoj
radio
radioactive
radioactiveka
radioplane
rae
raf
rafaad
rafaadaa
rafael
rafcaan
rafcaanka
raffaele
raffles
rafle
rag
raga
ragaasi
raganimo
rage
ragga
raggii
raggu
ragii
ragini
ragow
ragu
rah
raha
rahim
rahman
rahul
rai
raiisal
raiisel
raiisul
railway
railways
rain
rainbow
rainforest
rains
raisa
raisal
raised
raisins
raj
raja
rajaa
rajab
rajada
rajasthan
rajaynayaa
rajaynaynaa
rajeyn
rajeynaya
rajeynayaa
rajeyneysay
rajo
rakaab
rakaabka
rakaabkii
rakcad
rakcada
rakco
rakiban
rakibay
rakibo
rako
rakyat
rally
ram
ramadaan
ramadaanka
ramadan
ramaphosa
ramat
ramla
rampal
rams
ramsar
ramsey
rana
ranbir
rance
rand
randol
random
range
rangers
rani
rank
ranked
rankine
ranking
rankings
rao
rap
raphae
rapid
rapide
rapidly
raporto
raporton
rapper
raqabada
raqiis
rar
raran
raray
rare
rari
raro
rarto
ras
rasaaq
rasaas
rasaasta
rashid
rashiid
rashiidiinta
raskaana
rasmi
rasmiga
rasmiya
rasul
rasuul
rasuulka
rasuulkii
rasuulkiisa
rasuulku
rasuulkuna
rasuullada
rasuulu
rasuusha
rat
rate
rating
ration
ravage
ravensbru
rawaaxa
raxan
raxanweyn
raxiim
raxiimi
raxma
raxmaan
raxmaani
raxmad
raxman
raxweyn
ray
rayaale
rayaan
rayadka
rayha
rayhana
rayid
rayidka
rayidku
raymond
raynrayn
rays
raysal
raysulwasaare
rayxaana
rayyan
rb
rbth
rc
rd
re
reach
reached
reaction
read
reading
ready
[...]
