!
"
#
##a
##aa
##ab
##ac
##ad
##ae
##af
##ag
##ah
##ai
##aj
##ak
##al
##am
##an
##ao
##ap
##aq
##ar
##as
##at
##au
##av
##aw
##ax
##ay
##az
##b
##ba
##bb
##bc
##bd
##be
##bf
##bg
##bh
##bi
##bj
##bk
##bl
##bm
##bn
##bo
##bp
##bq
##br
##bs
##bt
##bu
##bv
##bw
##bx
##by
##bz
##c
##ca
##cb
##cc
##cd
##ce
##cf
##cg
##ch
##ci
##cj
##ck
##cl
##cm
##cn
##co
##cp
##cq
##cr
##cs
##ct
##cu
##cv
##cw
##cx
##cy
##cz
##d
##da
##db
##dc
##dd
##de
##df
##dg
##dh
##di
##dj
##dk
##dl
##dm
##dn
##do
##dp
##dq
##dr
##ds
##dt
##du
##dv
##dw
##dx
##dy
##dz
##e
##ea
##eb
##ec
##ed
##ee
##ef
##eg
##eh
##ei
##ej
##ek
##el
##em
##en
##eo
##ep
##eq
##er
##es
##et
##eu
##ev
##ew
##ex
##ey
##ez
##f
##fa
##fb
##fc
##fd
##fe
##ff
##fg
##fh
##fi
##fj
##fk
##fl
##fm
##fn
##fo
##fp
##fq
##fr
##fs
##ft
##fu
##fv
##fw
##fx
##fy
##fz
##g
##ga
##gb
##gc
##gd
##ge
##gf
##gg
##gh
##gi
##gj
##gk
##gl
##gm
##gn
##go
##gp
##gq
##gr
##gs
##gt
##gu
##gv
##gw
##gx
##gy
##gz
##h
##ha
##hb
##hc
##hd
##he
##hf
##hg
##hh
##hi
##hj
##hk
##hl
##hm
##hn
##ho
##hp
##hq
##hr
##hs
##ht
##hu
##hv
##hw
##hx
##hy
##hz
##i
##ia
##ib
##ic
##id
##ie
##if
##ig
##ih
##ii
##ij
##ik
##il
##im
##in
##io
##ip
##iq
##ir
##is
##it
##iu
##iv
##iw
##ix
##iy
##iz
##j
##ja
##jb
##jc
##jd
##je
##jf
##jg
##jh
##ji
##jj
##jk
##jl
##jm
##jn
##jo
##jp
##jq
##jr
##js
##jt
##ju
##jv
##jw
##jx
##jy
##jz
##k
##ka
##kb
##kc
##kd
##ke
##kf
##kg
##kh
##ki
##kj
##kk
##kl
##km
##kn
##ko
##kp
##kq
##kr
##ks
##kt
##ku
##kv
##kw
##kx
##ky
##kz
##l
##la
##lb
##lc
##ld
##le
##lf
##lg
##lh
##li
##lj
##lk
##ll
##lm
##ln
##lo
##lp
##lq
##lr
##ls
##lt
##lu
##lv
##lw
##lx
##ly
##lz
##m
##ma
##mb
##mc
##md
##me
##mf
##mg
##mh
##mi
##mj
##mk
##ml
##mm
##mn
##mo
##mp
##mq
##mr
##ms
##mt
##mu
##mv
##mw
##mx
##my
##mz
##n
##na
##nb
##nc
##nd
##ne
##nf
##ng
##nh
##ni
##nj
##nk
##nl
##nm
##nn
##no
##np
##nq
##nr
##ns
##nt
##nu
##nv
##nw
##nx
##ny
##nz
##o
##oa
##ob
##oc
##od
##oe
##of
##og
##oh
##oi
##oj
##ok
##ol
##om
##on
##oo
##op
##oq
##or
##os
##ot
##ou
##ov
##ow
##ox
##oy
##oz
##p
##pa
##pb
##pc
##pd
##pe
##pf
##pg
##ph
##pi
##pj
##pk
##pl
##pm
##pn
##po
##pp
##pq
##pr
##ps
##pt
##pu
##pv
##pw
##px
##py
##pz
##q
##qa
##qb
##qc
##qd
##qe
##qf
##qg
##qh
##qi
##qj
##qk
##ql
##qm
##qn
##qo
##qp
##qq
##qr
##qs
##qt
##qu
##qv
##qw
##qx
##qy
##qz
##r
##ra
##rb
##rc
##rd
##re
##rf
##rg
##rh
##ri
##rj
##rk
##rl
##rm
##rn
##ro
##rp
##rq
##rr
##rs
##rt
##ru
##rv
##rw
##rx
##ry
##rz
##s
##sa
##sb
##sc
##sd
##se
##sf
##sg
##sh
##si
##sj
##sk
##sl
##sm
##sn
##so
##sp
##sq
##sr
##ss
##st
##su
##sv
##sw
##sx
##sy
##sz
##t
##ta
##tb
##tc
##td
##te
##tf
##tg
##th
##ti
##tj
##tk
##tl
##tm
##tn
##to
##tp
##tq
##tr
##ts
##tt
##tu
##tv
##tw
##tx
##ty
##tz
##u
##ua
##ub
##uc
##ud
##ue
##uf
##ug
##uh
##ui
##uj
##uk
##ul
##um
##un
##uo
##up
##uq
##ur
##us
##ut
##uu
##uv
##uw
##ux
##uy
##uz
##v
##va
##vb
##vc
##vd
##ve
##vf
##vg
##vh
##vi
##vj
##vk
##vl
##vm
##vn
##vo
##vp
##vq
##vr
##vs
##vt
##vu
##vv
##vw
##vx
##vy
##vz
##w
##wa
##wb
##wc
##wd
##we
##wf
##wg
##wh
##wi
##wj
##wk
##wl
##wm
##wn
##wo
##wp
##wq
##wr
##ws
##wt
##wu
##wv
##ww
##wx
##wy
##wz
##x
##xa
##xb
##xc
##xd
##xe
##xf
##xg
##xh
##xi
##xj
##xk
##xl
##xm
##xn
##xo
##xp
##xq
##xr
##xs
##xt
##xu
##xv
##xw
##xx
##xy
##xz
##y
##ya
##yb
##yc
##yd
##ye
##yf
##yg
##yh
##yi
##yj
##yk
##yl
##ym
##yn
##yo
##yp
##yq
##yr
##ys
##yt
##yu
##yv
##yw
##yx
##yy
##yz
##z
##za
##zb
##zc
##zd
##ze
##zf
##zg
##zh
##zi
##zj
##zk
##zl
##zm
##zn
##zo
##zp
##zq
##zr
##zs
##zt
##zu
##zv
##zw
##zx
##zy
##zz
$
%
&
'
(
)
*
+
,
-
.
/
0
00
000
0000
0001
0004
001
003
005
007
0076
01
010
0140
015
017
02
022
025
03
030
0313313334
033
036
0362
04
045217
047
048
05
050
055
06
067
07
075
076
08
083
09
0a
0b
0c
0d
0e
0f
0g
0h
0i
0j
0k
0l
0m
0n
0o
0p
0q
0r
0s
0t
0u
0v
0w
0x
0y
0z
1
10
100
1000
1007
101
1010
1016
102
1021
1022
103
104
105
1050
1051
106
107
1073
108
1080
1083
1086
1088
109
1093
11
110
111
1111
1118
112
1126
113
114
115
11525
116
117
1177
118
119
1190
12
120
1200
121
122
123
124
125
1258
126
126442
127
1271
128
129
13
130
1300
131
1312
132
1326
133
134
135
136
137
1371
13755
138
1381
1386
1389
139
1391
1398
14
140
1400
1402
1403
1404
1405
1406
141
1412
1413
1414
1415
1416
1418
142
1420
1421
1427
1429
143
1430
1431
1434
1435
144
1440
1444
145
1451
1453
146
147
148
1481
149
1492
15
150
1500
15000
151
1512
1513
1516
1517
152
1520
1521
153
1536
1538
154
1542
1543
155
1551
1553
156
1566
157
158
159
1595
16
160
1600
1602
161
1612
162
163
164
1648
165
166
167
1670
168
169
17
170
1700
171
172
173
174
175
1750
176
1763
1768
177
1770
1774
17749
1776
178
1783
1787
179
1790
1792
18
180
1800
1801
1803
1808
181
1810
1811
1815
1818
1819
182
1820
1821
1822
1825
1828
183
1830
1834
1835
1836
1837
1838
1839
184
1843
1844
1846
1847
1848
1849
185
1850
1851
1852
1853
1854
1855
1856
1857
1858
1859
186
1860
1861
1862
1863
1864
1865
1866
1867
1868
1869
187
1870
1871
1874
1875
1876
1877
1878
1879
188
1880
1881
1882
1883
1884
1885
1886
1887
1888
1889
189
1890
1891
1892
1893
1894
1895
1896
1897
1898
1899
19
190
1900
1901
1902
1903
1904
1905
1906
1907
1908
1909
191
1910
1911
1912
1913
1914
1915
1916
1917
1918
1919
192
1920
1921
1922
1923
1924
1925
1926
1927
1928
1929
193
1930
1931
1932
1933
1934
1935
1936
1937
1938
1939
194
1940
1941
1942
1943
1944
1945
1946
1947
1948
1949
195
1950
1951
1952
1953
1954
1955
1956
1957
1958
1959
196
1960
1961
1962
1963
1964
1965
1966
1967
1968
1969
197
1970
1971
1972
1973
1974
1975
1976
1977
1978
1979
198
1980
1981
1982
1983
1984
1985
1986
1987
1988
1989
199
1990
1991
1992
1993
1994
1995
1996
1997
1998
1999
1a
1b
1c
1d
1e
1f
1g
1h
1i
1j
1k
1l
1m
1n
1o
1p
1q
1r
1s
1t
1u
1v
1w
1x
1y
1z
2
20
200
2000
20000
2001
2002
2003
2004
2005
2006
2007
2008
2009
201
2010
2011
20111015012701
2012
201202062200
201208220474
201211050009
2013
20130601
20130601606635
2014
20140202133148
2015
2016
2017
2018
2019
20190428194857
20190509154112
202
2020
2021
2022
20220411120242
2023
2024
2025
2026
203
2030
204
205
2050
206
207
208
209
21
210
2100
211
212
213
214
215
216
217
218
219
22
220
221
222
223
224
225
226
227
228
229
23
230
2307
231
232
233
234
235
236
237
238
239
24
240
241
242
243
244
245
246
247
248
249
25
250
2500
251
252
2520
253
254
255
256
257
258
259
26
260
261
262
263
264
2640
265
266
267
268
269
27
270
2709
271
273
274
275
276
277
278
279
28
280
281
282
283
284
285
286
287
288
289
29
290
291
292
293
294
295
296
297
298
299
2a
2b
2c
2d
2e
2f
2g
2h
2i
2j
2k
2l
2m
2n
2o
2p
2q
2r
2s
2t
2u
2v
2w
2x
2y
2z
3
30
300
3000
300311
301
302
303
304
305
306
307
308
309
31
310
311
312
313
31333
314
315
316
3166
317
318
3195
32
320
321
322
323
325
327
328
329
33
330
331
332
333
334
335
336
337
338
339
34
340
341
342
343
345
346
348
349
35
350
351
352
353
354
355
356
357
358
36
360
361
362
363
364
365
366
367
368
369
37
370
372
373
375
376
377
378
379
38
380
381
382
383
387
388
389
39
390
392
393
395
397
398
399
3a
3b
3c
3d
3e
3f
3g
3h
3i
3j
3k
3l
3m
3n
3o
3p
3q
3r
3s
3t
3u
3v
3w
3x
3y
3z
4
40
400
4000
401
402
404
405
406
407
408
41
410
411
414
415
4150
416
4163
417
418
419
42
420
421
4217
422
423
424
426
428
429
43
430
433
4331
4344
435
436
438
439
44
443
444
445
446
447
448
449
45
450
4500
452
453
454
455
456
458
46
460
463
465
466
467
468
469
47
470
472
474
475
479
48
480
481
482
486
488
49
490
4913
497
499
4a
4b
4c
4d
4e
4f
4g
4h
4i
4j
4k
4l
4m
4n
4o
4p
4q
4r
4s
4t
4u
4v
4w
4x
4y
4z
5
50
500
5000
501
503
509
51
510
512
513
514
515
516
517
518
52
520
521
522
5226
523
524
525
526
527
528
52907
53
532
533
534
536
537
54
540
541
542
544
546
548
55
550
555
556
558
56
560
561
562
565
566
56667
567
57
570
571
576
57678
578
58
580
582
583
587
589
59
590
591
592
594
595
599
5a
5b
5c
5d
5e
5f
5g
5h
5i
5j
5k
5l
5m
5n
5o
5p
5q
5r
5s
5t
5u
5v
5w
5x
5y
5z
6
60
600
6000
600309
602
605
609
61
610
611
612
614
615
616
617
618
62
620
621
622
624
625
626
628
629
63
630
631
632
633
634
636
6361
637
638
64
640
642
643
644
646
648
6483427
65
650
651
652
653
654
656
657
66
660
661
663
664
666
667
668
67
670
671
672
6736
674
676
678
68
680
681
682
684
686
688
69
691
692
694
698
699
6a
6b
6c
6d
6e
6f
6g
6h
6i
6j
6k
6l
6m
6n
6o
6p
6q
6r
6s
6t
6u
6v
6w
6x
6y
6z
7
70
700
7000
701
706
707
7094
7099
71
710
714
715
716
718
719
72
720
724
726
728
729
73
732
733
737
738
7385
74
740
742
743
744
746
748
75
750
754
76
760
76579
767
77
770
7701
771
778
78
780
783
784
786
787
79
791
792
7a
7b
7c
7d
7e
7f
7g
7h
7i
7j
7k
7l
7m
7n
7o
7p
7q
7r
7s
7t
7u
7v
7w
7x
7y
7z
8
80
800
8000
803100
81
810
8108
813
817
82
820
826
827
828
83
830
833
835
838
84
840
85
850
852
853
855
86
8601
862
866
867
869
87
872
874209
87548
876
88
883
884
887
89
890
89412
8a
8b
8c
8d
8e
8f
8g
8h
8i
8j
8k
8l
8m
8n
8o
8p
8q
8r
8s
8t
8u
8v
8w
8x
8y
8z
9
90
900
9000
902908
908
91
911
912
913
915
916
917
918
919
92
92000
921
922
923
924
925
926
927
93
930
932415
933
936
939
94
940
941
942
944
945
946
948
95
950
952
96
960
961
962
963
964
96667
968
969
97
974
975
978
9780810866041
9781135751753
9781136095702
9789953184432
98
980
983
99
995
997
998
999
9a
9b
9c
9d
9e
9f
9g
9h
9i
9j
9k
9l
9m
9n
9o
9p
9q
9r
9s
9t
9u
9v
9w
9x
9y
9z
:
;
<
=
>
?
@
[
[CLS]
[MASK]
[PAD]
[SEP]
[UNK]
\
]
^
_
`
a
a0
a1
a2
a3
a4
a5
a6
a7
a8
a9
aa
aaa
aaaaiaaj
aaad
aaan
aabaha
aabahaa
aabahay
aabaheed
aabaheen
aabahood
aabbaha
aabbaheed
aabbe
aabbihii
aabbihiis
aabe
aabihii
aabihiis
aabihiisa
aabihiisna
aabiihiis
aabo
aad
aada
aadaan
aadam
aadamaha
aadamahu
aadame
aadamiga
aadamka
aadamku
aadamnimada
aadamnimo
aadamuhu
aadan
aadanaha
aadanimo
aadanka
aadanku
aadannimada
aadantinimo
aadanuhu
aaday
aaddan
aadeen
aaden
aadi
aadin
aadka
aadki
aadkii
aadmiga
aadmigu
aadna
aado
aafo
aag
aaga
aagaga
aagagga
aagga
aaggaas
aakhirada
aakhirana
aakhirkii
aakhiro
aal
aala
aalaaba
aalad
aalada
aaladaha
aaladda
aalado
aalaha
aale
aaliyah
aallo
aallot
aalo
aalu
aamiin
aamin
aamina
aaminaad
aaminka
aaminsan
aaminsanaa
aaminsanaayeen
aaminsanahay
aaminsanyahay
aaminsanyihiin
aaminta
aamir
aamiyay
aamiyey
aamiyo
aamminsan
aamusan
aamusay
aan
aana
aanad
aanada
aanan
aanay
aaney
aanka
aankii
aankiisa
aanku
aannu
aansaday
aansadeen
aansatay
aansatey
aanta
aanu
aanuu
aaq
aar
aare
aargon
aaron
aarsenik
aartifishal
aas
aasaas
aasaasaan
aasaasaha
aasaasantay
aasaasay
aasaasayaasha
aasaasayaashii
aasaaseen
aasaasey
aasaasi
aasaasida
aasaasiga
aasaasihii
aasaasin
aasaaska
aasaaskii
aasaaso
aasaastay
aasaasy
aasan
aasanyahay
aasasay
aasay
aaseen
aasey
aasha
aashaas
aashitada
aasi
aasiga
aasin
aasiya
aasiyaan
aasiyaanka
aasiyada
aasiyatik
aasiyo
aaska
aaskii
aaso
aay
aayad
aayada
aayadaha
aayadda
aayaddan
aayado
aayadood
aayah
aayaha
aaydhiin
aayron
aayronta
ab
abaa
abaabul
abaabulay
abaabuleen
abaabulka
abaabushay
abaajabal
abaajibil
abaal
abaaleey
abaalmarin
abaalmarinnada
abaalmarinno
abaalmarino
abaalmarinta
abaalmariyo
abaan
abaanduul
abaanduule
abaanduulihii
abaanduulkii
abaar
abaaraha
abaarihii
abaaro
abaarso
abaarta
abaartii
abaayo
ababa
abahani
abakar
abasguul
abbaanduule
abbal
abbas
abbasid
abbey
abboud
abc
abcas
abcnews
abd
abdalla
abdallah
abdel
abdi
abdiaziz
abdibari
abdifatah
abdihakim
abdillahi
abdille
abdirahman
abdirashid
abdirisak
abdirizak
abdisalam
abdisalan
abdisamad
abdishakur
abdul
abdulaahi
abdulahi
abdulaziz
abdulkadir
abdulla
abdullah
abdullahi
abdulle
abdulrahman
abdurahman
abe
abeba
abeeha
abgaal
abhishek
abi
abid
abii
abiib
abiikar
abiy
abkhazia
abkoow
abkor
abo
abokor
aboo
aboor
aboowe
aborijiniska
abou
about
aboutun
above
abow
abraha
abraham
abriil
abril
abroad
abruzzi
abs
absame
abshir
abstract
absuge
abti
abtidoon
abtigeed
abtirsada
abtirsadaan
abtirsataa
abtirsato
abtirsi
abtirsiinta
abtirsilang
abtoow
abu
abubakar
abuja
abukar
abul
abuse
abuu
abuubakar
abuukar
abuur
abuura
abuuraa
abuuraan
abuuraha
abuuray
abuuraya
abuurayo
abuure
abuureen
abuureheenna
abuurey
abuuri
abuurida
abuuridda
abuurin
abuuris
abuurista
abuuritaanka
abuurka
abuurma
abuuro
abuurtaa
abuurtay
abuurto
abwaan
abwaanada
abwaanadii
abwaanka
abwaankii
abwaanku
abwaano
abwan
aby
abyan
abyoone
abyssinia
ac
academic
academy
accepted
access
accessdate
accessed
according
account
accounting
accounts
accused
accuses
ace
achaemenid
acid
acquired
acres
across
acs
act
acting
action
activist
activities
activity
actor
actors
actress
actresses
acts
ad
ada
adaa
adaan
adado
adag
adagtahay
adaha
adal
adam
adams
adan
adana
adaraxmaan
adaraxman
adayg
adb
add
adda
adde
added
addeeda
addidas
addimo
addin
addis
additionally
addo
addoomadiisa
addoommada
addoomo
addoon
addoonka
addoonku
addoonsiga
addoonta
address
addu
adduun
adduunka
adduunkan
adduunku
adduunyada
adduunyo
adeeg
adeega
adeegaan
adeegan
adeegay
adeegayaasha
adeegga
adeeggu
adeegi
adeegidda
adeego
adeegsada
adeegsadaa
adeegsadaan
adeegsaday
adeegsadeen
adeegsadey
adeegsado
adeegsan
adeegsanaayo
adeegsanaya
adeegsanayo
adeegsanaysa
adeegsatay
adeegsi
adeegsiga
adeegso
adeegta
adeegtaa
adeegtay
adeegto
adeegyada
adeegyadooda
adeegyo
adeer
adeerka
adeerkeed
adeerkii
adeerkiis
adeero
adelaide
adele
aden
adhanom
adhi
adhiga
adhigii
adhigu
adi
adidas
adiga
adigaa
adigana
adigoo
adigu
adirna
adis
aditya
adjusted
adkaa
adkaaday
adkaadeen
adkaado
adkaata
adkaatay
adkaato
adkayn
adkaysan
adkaysi
adkaystay
adke
adkeeyay
adkeeyo
adkeha
adkeynta
adkeysi
admin
administration
administrations
administrative
administrator
adna
adnan
ado
adolf
adonis
adoo
adood
adoomo
adoon
adoonsado
adoonsi
adoonsiga
adopt
adopted
adow
adrian
adriana
adriatic
adult
adunka
aduun
aduunka
aduunku
aduunyada
advance
advanced
adverb
advertising
advice
advocate
adyghe
ae
aegean
aek
aemet
aen
aeronautical
aespa
af
afaf
afafka
afar
afaraad
afargees
afarta
afartaas
afartaasi
afartan
afartii
afc
afduub
afduubay
afduubka
affairs
affects
afgaanistaan
afgaanistan
afgambi
afgambigii
afgan
afganbi
afganistaan
afganistan
afgarad
afgembi
afghan
afghanistan
afgooye
afguduud
afhayeen
afhayeenka
afi
afjaray
afjaro
afjartay
afka
afkaarta
afkeena
afkii
afkiisa
afkooda
aflaamta
aflaan
aflaanta
aflaaq
aflax
aflixi
afmadow
afp
afqaanistaan
afqaanistan
afraad
afrah
afrax
africa
african
africana
africanews
africans
africas
afrik
afrika
afrikaan
afrikaanka
afrikaans
afrikada
afrikan
afrikanka
afriko
afrique
afro
afroasiatic
afrol
afsoomaaliga
aftahan
after
afti
aftida
aftidii
afuufo
afwayne
afweyn
afweyne
afxumo
ag
aga
agaasimaha
agaasimay
agaasimayaasha
agaasime
agaasimihii
agab
agabka
agabyada
agagaaraha
agagaarka
agagaarkeeda
again
against
agaw
agder
age
aged
ageing
agencies
agency
agent
ago
agoomaha
agoon
agoonta
agoosto
agosto
agreement
agricultural
agriculture
agteeda
agtiisa
ah
aha
ahaa
ahaaa
ahaaan
ahaadaa
ahaadaan
ahaaday
ahaadee
ahaadeen
ahaado
ahaan
ahaana
ahaanba
ahaaneed
ahaanna
ahaanshaha
ahaansho
ahaanta
ahaantaana
ahaantaasna
ahaanteed
ahaantii
ahaantiisa
ahaataa
ahaataye
ahaate
ahaatee
ahaato
ahaay
ahaaye
ahaayeen
ahan
ahana
ahay
ahayd
ahaye
ahayeen
ahayen
ahayn
ahba
ahe
ahead
ahee
aheed
aheen
aheeyd
aheyd
aheyn
ahi
ahina
ahli
ahlu
ahlusuna
ahly
ahmad
ahmed
ahmiyad
ahmiyada
ahn
ahna
ahoo
ahow
ahu
ahun
ahyd
ai
aid
aidoru
aids
aiib
aik
aika
ain
air
airbus
aircraft
aires
airline
airlines
airport
airspace
airways
aisha
aj
ajaanib
ajaanibka
ajaanibta
ajaccio
ajakis
ajandaha
ajar
ajax
ajman
ajnabi
ajnabiga
ajo
ajram
ajuran
ajuuraan
ak
aka
akadeemiyada
akadeemiyadda
akademi
akademiyada
akan
akb
akbar
akershus
akhbaar
akhbaarta
akhlaaq
akhlaaqda
akhri
akhrin
akhrinayaa
akhrinayo
akhrinta
akhris
akhriska
akhriso
akhristaha
akhristayaal
akhristo
akhriyaa
akhriyaan
akhriyay
akhriyey
akhriyo
akhtar
aki
akkad
akkadiyaan
akkadiyaanka
akkadiyaanku
akon
akr
akra
akshay
aksum
aktarada
aktarka
al
ala
alaab
alaabada
alaabaha
alaabo
alaabooyinka
alaabta
alaah
alaale
alab
alabama
alabka
alad
aladdin
alaha
alajuelense
alam
alamagan
alamin
alan
alanka
alarabiya
alaska
alba
albaab
albaabada
albaabka
albaani
albaaniya
albaaniyaan
albamka
albamkeedii
albamkii
albania
albanian
albaniya
albawaba
albert
alberta
alberto
albion
album
albumka
albumkeeda
albumkeedii
albumkii
albumkiisii
albumkoodii
albums
alcajuus
aldawaaif
ale
aleppo
alex
alexa
alexander
alexandra
alexandre
alexandria
alfa
alfaatix
alfonso
alfonsoo
alfonsoogii
alfred
alg
algeria
algiers
alguuri
ali
alia
alianza
alice
alicia
alien
alif
alifa
alifay
alifba
alifbeet
alifbeetada
alifey
alifka
alifle
align
alisha
aljazeera
aljaziira
aljebra
aljeeriya
alkali
alkalineta
all
alla
allaa
allaah
allaahu
allaale
allafrica
allah
allaha
allahayow
allahi
allahu
allamagan
allaybaday
alle
allen
allena
alliance
allied
allies
allifay
allkpop
allmusic
alloow
allow
allows
allure
alma
almalik
almanac
almis
almost
alone
along
alongside
aloosan
alpaca
alpacas
alpes
alpha
alphabet
alphabets
alps
alqaacida
als
alshabaab
also
alt
alta
alternative
although
alto
alwaax
alwaaxa
alwaaxyada
alwaaxyo
always
alxakiim
am
ama
amaah
amaahanay
amaahda
amaahdeen
amaal
amaan
amaanada
amaanay
amaaneen
amaanka
amaano
amaanreer
amaanta
amaasiya
amaba
amal
aman
amanda
amani
amar
amarada
amarami
amarka
amarkii
amarrada
amarro
amartay
amase
amazing
amazon
amb
amba
ambalat
ambassador
ambedkar
amber
ambo
ambon
ambonese
ambroso
ame
ameerika
ameerikaan
ameerikaanka
ameerikada
ameerikan
ameeriko
amelia
amelio
america
american
americana
americans
americas
amerika
amhara
amharic
ami
amid
amiibada
amiin
amiina
amiir
amiirada
amiirka
amiirkeeda
amiirkii
amiirrada
amiko
amin
amina
aminiga
amir
amisom
amistardam
amitabh
amma
ammaan
ammaanay
ammaanka
ammaano
ammaanta
amman
amnesty
amni
amniga
among
amor
amorite
amoriteka
amoud
amouduniversity
amp
ampang
amr
amram
amran
amray
amrey
amritsar
amsterdam
amt
amun
amundsen
amxaar
amxaarada
amxaari
amxaariga
amxaaro
amy
an
ana
anaa
anaadool
anacom
anadolu
anadool
anaga
anagaa
anagana
anagoo
anagu
analysis
ananya
anas
anatomy
anay
anbar
anbiyaa
anbiyada
anbiyo
anc
ancaam
ancestry
ancient
and
andacoonaya
andalus
andean
anders
anderson
andersson
andes
andhra
andorra
andre
andrea
andreas
andrei
andrew
android
andromeda
andronikos
andy
anemia
ang
angel
angela
angeles
angelina
angels
angers
anglo
angola
aniga
anigaa
anigana
anigoo
anigu
aniguna
aniis
animal
animals
animation
anime
animenewsnetwork
ankara
ann
anna
annaga
annagoo
annagu
anne
annex
anni
annie
anniga
annigana
annigoo
annigu
anniversary
anno
announce
announced
announces
annual
anod
anoo
another
ans
anshax
anshaxa
ansixinta
ansixiyaan
ansixiyay
ansixiyeen
ansixiyey
ansixiyo
answer
anta
antalya
antaraktika
antarctic
antarctica
antarktik
antarktika
antau
anteeksi
antelope
anthem
anthony
anthropology
anti
antigua
antike
antiker
antilles
antimony
antoine
antonio
anu
anuak
anubis
anwar
any
ao
aoa
aoi
ap
apc
apink
apj
apne
apnews
apollo
apostle
app
appear
apple
application
applications
applied
appointed
appoints
appreciate
approach
approved
approves
approximately
apps
appsso
apr
apriil
april
aq
aqaan
aqable
aqal
aqalada
aqalka
aqbalaa
aqbalay
aqbaleen
aqbali
aqbalin
aqbalo
aqbashay
aqbelay
aqlabiyad
aqlabiyadda
aqoon
aqooneed
aqoonin
aqoonsadaan
aqoonsaday
aqoonsadeen
aqoonsado
aqoonsan
aqoonsana
aqoonsanaa
aqoonsanayn
aqoonsatay
aqoonsi
aqoonsiga
aqoonta
aqoontiisa
aqoonyahan
aqoonyahanada
aqoonyahanadii
aqoonyahanadu
aqoonyahanka
aqoonyahannada
aqoonyahanno
aqoonyahano
aqrin
aqrinayaa
aqrinayo
aqrineyn
aqrineysaa
aqrinta
aqriska
aqriyay
aqriyey
aqriyo
aqsa
ar
ara
araarso
arab
arabi
arabia
arabian
arabic
arabiya
arabnews
arabs
arabsiyo
arag
araga
aragga
aragnaa
aragnay
aragnimada
aragnimo
aragno
aragon
aragonese
aragtaa
aragtay
aragtey
aragti
aragtid
aragtida
aragtiyada
aragtiyaha
aragtiyo
aragto
aramaygga
aramco
ararsame
arbaaz
arbaca
arbacada
arbaco
arc
arcadia
arcelik
arcep
archaeological
archaeology
archer
archipelago
architectural
archive
archived
archives
arctic
arda
ardada
ardadii
arday
ardayda
ardaydii
ardaydiisii
ardencroft
ardey
ardeyda
ardeydu
ardo
ardogrol
are
area
areas
arena
arendal
arfah
arfax
argagax
argagaxa
argagaxiso
argaggixisada
argagixisada
argagixiso
argentina
argentine
argon
ari
ariana
arid
ariel
ariga
arimaha
arimahaas
arimahan
arimo
arimood
arin
arinkaas
arinkaasi
arinkan
arinta
arintaa
arintaas
arintaasi
arintan
arisona
arizona
arjaeya
arjantiin
arjantiina
arjun
ark
arka
arkaa
arkaan
arkansas
arkay
arkayay
arkaynaa
arkayo
arkaysaa
arke
arkeen
arkey
arkeysaa
arki
arkid
arkin
arko
arktik
arm
armaajo
armania
armed
armenia
armes
arms
army
arnold
aroor
arooray
aroortay
aroortii
aroortu
aroos
arooska
arooskii
aroosku
aroosyada
around
arqam
array
arrest
arrimaha
arrimahaas
arrimo
arrimood
arrin
arrinkaa
arrinkaas
arrinkii
arrinta
arrintaa
arrintaas
arrintaasi
arrintan
arrogance
arrow
ars
arsenal
arsiv
art
arta
arthur
article
articleid
articles
articleshow
articleview
artikel
artist
artists
arts
aruba
aruuriyay
arxan
arxiv
aryabhata
aryan
as
asaasay
asaasi
asaasiga
asaaska
asad
asaga
asagana
asago
asagoo
asagoon
asal
asaliga
asalka
asalkeeda
asalkiisa
asalkiisu
asalkooda
asalkoodu
asasay
asc
ascension
asean
aserbiijaan
asf
asfalt
ash
asharaaf
ashley
ashoka
ashraf
ashuur
asi
asia
asiae
asian
asiana
asiaone
asias
asiatic
asiga
asigana
asigoo
asiidh
asiidha
asin
asir
asiya
asiyriyaan
asiyriyaanka
ask
askandar
askar
askari
askarta
askartii
aslam
asli
asluub
asluubta
asma
asmaa
asmara
asn
asna
asnaamta
asoo
asp
asphalt
aspx
assad
assam
assamese
assassination
assault
assembly
assessment
assets
assistance
assistant
assiyriya
associated
association
assur
assyrian
astaamaha
astaamo
astaan
astaanta
astaantiisu
asteroid
asteroids
asto
aston
astrid
astro
astronomical
astronomy
astrophysical
astrophysics
asu
asuka
asvel
aswan
asxaab
asxaabi
asxaabiga
asxaabta
asxaabtii
asxaabtiisa
asxaabtiisii
asxaabtooda
asxaabtu
asylumlaw
at
atam
atamka
atariishada
atariisho
atariishooyinka
ataturk
ath
athens
athletic
atirisho
atlaantik
atlanta
atlantic
atlantiga
atlantik
atlantika
atlas
atletico
atm
atmosphere
atmospheric
atom
atomic
atomik
atomka
atomkeedu
atomkiisu
atomyada
atomyo
atoore
atp
attack
attacks
attempt
attended
attention
au
aubrey
aud
audi
audio
aug
august
augusto
augustus
aun
aung
auschwitz
aust
austin
australia
australian
australiya
australiyaanka
austria
austriya
author
authorities
authority
authors
auto
autobus
automobile
automobiles
autonomy
autorite
autumn
aux
av
available
avalites
avengers
avenue
average
aviation
aviv
avn
avogadro
aw
awaal
awaalka
awad
awaited
awal
award
awards
awareness
awash
away
awbare
awdal
awdalland
awdheegle
awdigil
awesome
aweys
awgeed
awgiis
awgood
awia
awiyah
awood
awooda
awoodaan
awoodaha
awooday
awoodda
awooddeeda
awooddii
awooddooda
awoodeeda
awoodi
awoodii
awoodiisa
awoodin
awoodo
awoodood
awoodooda
awoowaha
awoowayaasha
awoowe
awoowgii
awoowgiis
awow
awowgiis
awqaafta
awr
awrtable
awsaciid
awstaria
awstriya
awwal
ax
axaaddiista
axaadiis
axaadiista
axad
axadda
axdi
axdiga
axdigii
axis
axkaamta
axmad
axmed
axsaab
axum
axzaab
ay
aya
ayaa
ayaaba
ayaabay
ayaad
ayaan
ayaana
ayaanle
ayaanu
ayaay
ayada
ayadna
ayadoo
ayadoon
ayadu
ayaga
ayagana
ayagoo
ayagu
ayaguna
ayah
ayan
ayana
ayat
ayax
ayay
ayayna
ayaynu
aybeeriya
aydiin
aye
ayee
ayeey
ayeeyo
ayey
ayeyna
ayman
aymara
ayn
ayna
aynaan
aynan
aynnu
aynu
ayo
ayoo
ayris
ayrland
aysan
ayslaan
ayu
ayub
ayuu
ayuub
ayuun
ayuuna
ayyal
az
azalea
azam
azania
azc
azerbaijan
azeri
azhar
azhari
aziz
aztecs
azərbaycan
b
b0
b1
b2
b3
b4
b5
b6
b7
b8
b9
ba
baa
baab
baaba
baabaa
baabbi
baabi
baabiloon
baabiyloon
baabiylooniya
baabuloon
baabuur
baabuurka
baabuurta
baad
baadca
baadha
baadhe
baadhi
baadhis
baadhista
baadhitaan
baadhitaanka
baadho
baadi
baadiyaha
baadiye
baadiyo
baahan
baahantahay
baahanyahay
baahanyihiin
baahda
baahday
baahdo
baahi
baahid
baahida
baahin
baahinta
baahiyaha
baahiyay
baahna
baahnaa
baahnayn
baahsan
baahubali
baajuuniga
baakistaan
baal
baalade
baalal
baalcad
baale
baali
baalooto
baan
baane
baanis
baanka
baantuuga
baanu
baaq
baaqa
baaqan
baaqay
baaqayaa
baaqi
baaqii
baar
baaraan
baaraha
baaray
baarayaal
baarayaasha
baardheere
baare
baargaal
baari
baariis
baaris
baarista
baaritaan
baaritaanada
baaritaanka
baariyaam
baarka
baarlamaan
baarlamaani
baarlamaaniga
baarlamaanka
baarlamaankii
baarlamaanku
baarlamanka
baarliin
baaro
baaruud
baas
baasaboor
baasaboorka
baasha
baashaa
baashaal
baashaalayo
baashe
baashi
baasifig
baasifiga
baasifigga
baasifik
baaskiil
baaskiiladaha
baaskiilka
baastada
baasto
baaxad
baaxada
baaxadda
baaxadiisu
baay
baayacmushtar
baaz
baazigar
bab
babaay
babaayga
babil
babuur
babuurka
baby
babylon
bac
bacaad
bacaadka
bacad
bacadle
bacaha
bacariminta
bacdi
bach
bachchan
bachelor
back
backhoe
bacoolo
bacriminta
bacrin
bad
bada
badaan
badacas
badaha
badal
badalay
badalo
badan
badana
badanaa
badanaaba
badanba
badane
badani
badanka
badankiisu
badankood
badankooda
badankoodu
badanna
badantahay
badanyahay
badanyihiin
badar
badashay
badatay
baday
badbaadaan
badbaadada
badbaaday
badbaadi
badbaadin
badbaadinta
badbaadiyay
badbaadiyey
badbaadiyo
badbaado
badda
baddaha
baddan
badeecad
badeecada
badeecadaha
badeecado
badeecooyin
badeecooyinka
badeed
badeeda
badeedda
badeedka
badeednimada
badeel
baden
badh
badhaadhe
badhan
badhasaab
badhasaabka
badhasaabkii
badhe
badhkii
badhtamaha
badhtamihii
badhtanka
badi
badiba
badin
badisay
badiyaa
badiyay
badiyo
badka
badna
badnaa
badnaan
badnaana
badnaanta
badnaantooda
badnaayeen
badnayd
badnayn
badneyd
badneyn
badni
bado
badr
badwaynta
badweyn
badweynta
badweyntani
bae
baek
baekhyun
baeksang
baghdad
bah
baha
bahabar
bahal
bahalada
bahamas
bahan
baharsame
bahasa
bahay
bahda
bahgeri
bahia
bahir
bahmajeelo
baho
bahoobay
bahoobeen
bahowdey
bahrain
bahraini
bahri
bahsanbuur
baik
baikonur
bajrangi
bajuni
bakaaraha
bakar
bakayle
baker
bakhayl
bakhit
bakhtiiye
bakhtiiyeyaasha
baki
bakistaan
bakistan
bakool
bakr
bakteeriya
bakteeriyada
bakteriya
bakteriyada
baku
bal
balaadhan
balaadhatay
balaaran
balaariyay
balaasma
balaayo
balac
balaca
baladhan
baladiyaam
baladwayne
baladweyn
baladweyne
balaloo
balan
balanbal
balanbale
balanqaad
balanqaaday
balaran
balatiniyaam
balcad
baldiiqa
baldwin
baledxawo
baleeyey
bali
balidhiig
baligubadle
balinese
balkan
balkans
ball
ballaadhan
ballaadhnaa
ballaaran
ballaarin
ballaarinta
ballaariyay
ballac
ballan
ballanqaaday
ballanqaadka
ballaran
balli
balliga
ballistic
ballon
balochistan
balqaan
balqiisa
balse
baltic
baltimore
balwad
balwo
balwooy
bam
bambeelmada
bambeelmadu
bambeelmo
bamka
ban
banaadir
banaadiriga
banaan
banaana
banaanaa
banaani
banaanida
banaanka
banadir
banama
banana
band
banda
bandar
bandhig
bandhiga
bandhigaa
bandhigaan
bandhigay
bandhigaya
bandhigeen
bandhigga
bandhigi
bandhigin
bandhigo
bandhigtaa
bandhigtay
bandhigto
bandhigyada
bandhigyo
bandiiradley
bandow
bang
bangaladesh
bangalore
bangi
bangiga
bangiyada
bangiyo
bangkok
bangladesh
bangladhesh
bani
banii
banjar
bank
banka
banki
bankiga
bankiyada
banknote
banks
bannaan
bannaani
bannaanida
bannaanidii
bannaanka
banner
banooni
banque
banteay
bantoid
bantu
banu
banuu
baptist
baqal
baqara
baqay
baqdaad
baqdin
baqi
bar
bara
baraa
baraag
baraakofij
baraan
baraarug
baraarujinta
baraasiil
baraawe
barack
baradhada
baradho
baraf
barafka
baraha
barakaat
barakacay
barakaysan
barakeeyay
barakeysan
barako
barameter
baran
baranayay
baranaysay
barandhaha
barano
barar
bararka
barashada
barashadiisa
barashadiisii
barasho
barasiil
barat
baratay
barato
baray
barayaal
barbaar
barbaaray
barbaarin
barbaarinta
barbaariyo
barbaartay
barbados
barbar
barbara
barbardhigo
barber
barbera
barbuda
barcelona
barde
bardera
bardhere
bare
bareer
bargaan
bari
barida
bariga
bariidka
bariire
bariis
bariiska
bariisku
barin
barina
barisan
barista
barka
barkad
barkada
barkadaha
barkadda
barkado
barkhad
barkhadle
barkii
barlamaanka
barlamanka
barliin
barmuuda
barnaamij
barnaamijka
barnaamijkan
barnaamijku
barnaamijyada
barnaamijyo
barneen
baro
baron
barood
barqo
barrande
barre
barrelka
barri
barriga
barrle
barrleka
barrles
barrow
barry
barsane
barshada
barta
bartaa
bartaan
bartamaha
bartamihii
bartanka
bartay
barteen
bartey
bartii
bartilmaameed
bartilmaameedka
bartilmaameedsaday
bartilmaameedyada
bartire
bartleby
bartlett
barto
barunay
baruur
barwaaqa
barwaaqada
barwaaqo
barxad
barxada
barxadaha
barxadda
baryayaa
baryey
barygaza
baryo
bas
basa
basaksehir
basal
basali
basasha
basaska
basbaas
basbaaska
base
based
bash
bashiir
bashir
bashundhara
basic
basin
basis
baska
basket
basketball
baskin
basliga
basra
bass
bassa
basto
basu
bat
bataax
batak
batay
bateen
bath
batista
batman
bato
batool
batroolka
batsman
batsmen
battambang
batters
battle
battuta
batuuta
bauxite
bax
baxa
baxaa
baxaan
baxar
baxay
baxaya
baxayaa
baxayaan
baxaysa
baxayso
baxda
baxdaa
baxday
baxdey
baxdo
baxeen
baxiira
baxo
baxrayn
baxreyn
baxsaday
baxsadeen
baxsado
baxsan
baxshay
baxso
baxyo
bay
bayaan
bayaanka
bayax
bayazid
baybalka
baydhabo
bayer
bayern
bayla
bayle
bayoloji
bayoolaji
baytulaxam
bazaar
bb
bbb
bbc
bbfc
bboom
bc
bce
bclub
bd
be
beach
bean
bear
beast
beat
beatles
beautiful
beauty
bebe
became
because
become
becomes
becoming
bed
beddel
beddelaan
beddelay
beddelaya
beddeli
beddelin
beddelka
beddelkeeda
beddelo
beddeshay
beddesho
bedel
bedela
bedelaan
bedelay
bedeleen
bedeley
bedeli
bedelin
bedelka
bedelkeeda
bedelo
beden
beder
bedeshaa
bedeshay
bedka
bedkeedu
bedr
bee
beec
beef
beegan
beegantahay
beegantay
beegnaa
beegnayd
beegsaday
beel
beela
beelaha
beeldaajaha
beeldaaje
beeleed
beeleedyo
beelihii
beelka
beelo
beelood
beelwaynta
beelweeynta
beelweyn
beelweynta
been
beenaale
beenisay
beeniyana
beeniyay
beeniyeen
beenta
beer
beera
beeraa
beeraha
beerahooda
beeralay
beeralayda
beeraleey
beeraley
beeraleyda
beeran
beerashada
beeray
beereed
beereedka
beergadiid
beeri
beerida
beerista
beerka
beero
beeroleey
beeroley
beershiya
beerta
beertaan
beertii
beerto
beeruhu
beerwayso
beesha
beeshaan
beeshan
beeshani
beeshii
beeshiisa
beeshu
beeton
beey
beeyada
beeyo
befolkning
before
began
begedi
begin
beginning
begins
behind
beijing
being
beirut
beja
bek
beko
belaha
belarus
beled
beledwayne
beledweyne
belgian
belgium
belgrade
belief
belize
beljim
beljimka
bell
bella
belle
belo
belongs
belt
belzoni
ben
benadir
bender
bene
benfica
bengal
bengali
benghazi
bengkulu
beni
benin
benishangul
benjamin
bennett
benson
benue
ber
beratung
berber
berbera
berberiga
berbers
berdaale
berenice
beretta
bergen
beri
beribiyood
berigaa
berigii
beriiliyaam
berito
berkeley
berlin
berlinale
bermuda
bernard
bernhard
berri
berriga
berry
berta
beryahan
besbaaska
besha
besiktas
bessarabiya
best
bet
beta
betawi
better
betty
between
bexeen
bey
beyd
beydariin
beydariintu
beydka
beyla
beyle
beyoglu
beyonce
beyond
beyra
beytka
bezoz
bf
bg
bgcolor
bh
bhaijaan
bhansali
bharat
bhatt
bhopal
bhumibol
bhutan
bi
bia
bianca
bibcode
bible
biblia
biblical
biciid
biciide
bid
bidaar
bidaarta
biday
bidco
bidde
bide
biden
bidix
bidixda
bieber
big
bigg
biggest
bih
biimaal
biir
biira
biiraan
biiray
biireen
biiri
biirin
biiro
biirtay
biirto
biixi
bil
bilaa
bilaabaa
bilaabaan
bilaabanaya
bilaabanta
bilaabantaa
bilaabantay
bilaabantey
bilaabanto
bilaabata
bilaabataa
bilaabatay
bilaabato
bilaabay
bilaabaya
bilaabayaa
bilaabeen
bilaabey
bilaabi
bilaabid
bilaabida
bilaabin
bilaabma
bilaabmaa
bilaabmaan
bilaabmay
bilaabmaya
bilaabmaysa
bilaabmeen
bilaabmey
bilaabmo
bilaabo
bilaal
bilaamayso
bilaash
bilaashka
bilaawday
bilaawo
bilabay
bilabka
bilad
bilada
bilaha
bilateral
bilaw
bilawday
bilawdo
bilawga
bilawgii
bilays
bilayska
bile
bilic
bilicda
bilicsan
bilihii
bililiqo
biljim
bill
billaabay
billaabeen
billaabo
billad
billboard
bille
billion
billionaire
billo
billowday
bilo
bilood
biloow
biloowday
biloowgii
bilooyin
bilow
bilowday
bilowdo
bilowga
bilowgii
bilyan
bilyanaad
bilyaneer
bin
bina
binali
binary
bing
binh
bini
biniaadanka
biniin
biniktojiin
binladin
bint
bintang
binti
bintu
binu
bio
biography
biologia
biology
biometric
biosphere
bir
biraambire
biraha
birbir
birbiris
bird
birds
biri
biribir
biribiri
biriizanda
biriizandiyiinta
birinbir
biriqda
biritayn
biritishka
birka
biro
birqod
birr
birta
birth
birthday
bis
bisad
bisada
bisadaha
bisadda
bisadu
bisha
bishaareeyay
bishaaro
bishaas
bishan
bishani
bishii
bishiisa
bisil
bisin
bisinka
bislaado
bismi
bismuth
bissau
bit
bitch
bitstream
bitumen
biweynos
bixi
bixida
bixin
bixinaya
bixinta
bixisa
bixisaa
bixisay
bixiso
bixitaanka
bixitaankii
bixiya
bixiyaa
bixiyaan
bixiyaha
bixiyay
bixiye
bixiyeen
bixiyey
bixiyeyaasha
bixiyo
biya
biyaano
biyacade
biyaha
biyeeye
biyihii
biyo
biyocas
biyoha
biyoloji
biyood
biyoodka
biyuhu
biz
bj
bk
bl
black
blackpink
blackpinks
blackstone
blade
blanc
blankinship
blast
blemmyes
blench
block
blocker
blog
blogger
blogs
blogspot
blonde
blondes
blood
bloody
bloomberg
bloomington
blse
blu
blue
bluetooth
bluff
bluto
blvd
bm
bmatrix
bmj
bn
bnp
bo
boa
board
bob
bocor
bocorka
bodies
body
bodø
boe
boeing
boeung
bog
boga
bogag
bogagga
bogan
bogazici
bogga
boggag
boggan
bogota
bohemia
boho
bohol
bohriyaam
bokeo
boko
boland
bold
bole
boliifia
boliiska
bolivar
bolivia
bollywood
bollywoodhungama
bollywoodka
bologna
boloniyaam
bomb
bombay
bonaire
bone
bong
bongo
boob
boobe
boobka
boocame
bood
booday
boodh
boodhadhka
boodhari
boodhka
boodhley
boodo
book
bookh
booklets
books
boolaan
booliis
booliiska
booliisku
boolis
booliska
boom
boon
boondheere
booqan
booqanaya
booqashada
booqasho
booqda
booqdaan
booqday
booqdo
booqo
boorama
boorame
boore
boorisay
booriyay
booron
boorsada
boortaqiiska
boos
boosaaso
boosaha
boosaska
booska
booskii
boosniya
boost
boostada
boosto
boot
bootaan
booyad
boqol
boqolaad
boqolaal
boqolka
boqolkii
boqolkiiba
boqollaal
boqor
boqorad
boqorada
boqoradda
boqoraddii
boqoradii
boqore
boqorka
boqorkii
boqorkoodii
boqorku
boqornimada
boqornimadii
boqorow
boqorrada
boqorradii
boqorro
boqortooyada
boqortooyadaan
boqortooyadaasi
boqortooyadan
boqortooyadani
boqortooyadii
boqortooyadiisa
boqortooyadu
boqortooyo
boqortooyooyin
boqortooyooyinka
boqortooyooyinkii
boqortoyada
boqray
borama
boras
bordeaux
borden
border
borders
boris
born
borneo
borofisar
boromiin
boron
borotiin
borotiinka
borotoon
borotoono
borrow
bortland
bortuqaal
bortuqiis
bortuqiiska
borussia
bos
bosaaso
bosaso
bosna
bosnia
bosniya
boss
boston
boswellia
bot
botanical
botany
botashiyaam
both
botka
botswana
bottle
bou
boulevard
bow
bowie
bowl
bowler
bowlers
box
boxing
boxo
boxoffice
boxofficeindia
boxofficemojo
boy
boyfriend
boys
bp
bq
br
bra
brabant
brahim
brain
branch
brand
brandenburg
brands
brandt
brasil
brasilia
bratislava
bratislavia
brave
brazil
brazilian
brazzaville
break
breakers
breakfast
breaking
breaks
breakup
breast
breasted
bren
brian
brics
bridge
brief
brigade
bright
brighton
brill
brings
brisbane
bristol
britain
britan
britannica
british
britishka
brittany
broadcasting
broke
broken
bronze
bronzeka
brookings
brooklyn
bros
brother
brothers
brotista
brotistaha
brown
browne
browse
bruce
brunei
bruno
brunswick
brussel
brussels
bruxelles
bryan
bs
bsec
bskn
bt
bts
bu
bubble
bucul
bud
budada
budapest
budbud
buddha
buddhism
buddhist
budge
budget
budhcad
budny
budo
buenos
buffalo
buffaloes
buhoodle
build
building
built
bujumbura
bukaa
bukaan
bukaanka
bukhaari
bulale
bulawayo
bulaxaar
bulgaariya
bulgaria
bulgarian
bulgeeriya
bulgeriya
bull
bulletin
bullock
bulls
bullying
bulo
bulsha
bulshada
bulshadda
bulshadeed
bulshadu
bulsheed
bulsho
bulshooyin
bulshooyinka
bulshooyinkii
buluug
buluuga
buluugga
buluuto
bulxan
bum
bun
bundesliga
bunduqiya
buni
bunka
buq
bur
buraale
buraan
buraanbur
burao
burbur
burburay
burburin
burburinta
burburisay
burburiyaan
burburiyay
burburiyeen
burburiyey
burburiyo
burburka
burburkii
burburo
burbursan
burburtay
burcad
burco
burdhubo
bureau
burger
burhaan
burhaanudiin
burhakaba
burinta
buriram
buriyay
burj
burjikada
burjiko
burka
burkii
burkina
burkinabe
burma
burmese
burnham
burrard
bursa
bursaalax
burte
burtinle
burton
burtuqaal
burtuqiis
buruc
burundi
bus
busan
bush
business
businessinsider
businessman
businessweek
buske
buskerud
buskud
buskudka
bustle
but
butane
buti
butida
butler
buu
buug
buuga
buugaag
buugaagta
buugag
buugagga
buugaggan
buugga
buuggan
buugiisa
buugta
buuhoodle
buula
buulaburde
buule
buulo
buuloburde
buuloburte
buun
buuna
buundada
buundo
buundooyinka
buuni
buunka
buuq
buur
buuraha
buuralay
buuralayda
buuraley
buuraleyda
buuran
buurdhuubo
buurhakaba
buuri
buuriga
buurigu
buuro
buuroley
buuroleyda
buurta
buurweyn
buux
buuxa
buuxaan
buuxda
buuxdo
buuxin
buuxinta
buuxisay
buuxiya
buuxiyaan
buuxiyay
buuxo
buy
buzz
bv
bw
bwsf
bx
bxx
by
byhnins
byzantine
byzantium
bz
c
c0
c1
c2
c3
c4
c5
c6
c7
c8
c9
ca
caa
caabin
caabinta
caabud
caabuda
caabudaa
caabudaan
caabudi
caabudid
caabudno
caabudo
caabudwaaq
caabuqa
caad
caadada
caadi
caadiga
caadil
caadiyan
caadka
caadley
caado
caadooyin
caadooyinka
caadoyin
caafi
caafimaad
caafimaadka
caag
caagane
caaisha
caajis
caajiska
caalami
caalamiga
caalamiya
caalamka
caalamkaba
caalamku
caalim
caalimka
caalin
caalmaka
caalmka
caam
caamir
caan
caana
caanaha
caanbaxay
caanbaxday
caanka
caanku
caannimada
caano
caanood
caansan
caansanaa
caantahay
caanuhu
caaqil
caaqilka
caarada
caaro
caas
caasha
caashaq
caashaqa
caasho
caasi
caasimad
caasimada
caasimadaha
caasimadan
caasimadani
caasimadda
caasimaddeedu
caasimaddu
caasimadeeda
caasimadii
caasimadiisa
caasimadood
caasimadu
caasiyay
caasiyo
caato
caawa
caawi
caawimaad
caawimo
caawin
caawinaad
caawinin
caawinta
caawisaa
caawisay
caawiso
caawiya
caawiyaa
caawiyaan
caawiyay
caawiye
caawiyey
caawiyo
caayisha
cab
caba
cabaa
cabaan
cabaas
cabaasiyiinta
cabane
cabay
cabba
cabbaar
cabbaas
cabbir
cabbiraadda
cabbirka
cabbiro
cabbitaannada
cabd
cabdala
cabdale
cabdalla
cabdalle
cabdi
cabdicasiis
cabdikaafi
cabdikariim
cabdikariin
cabdil
cabdilaahi
cabdilahi
cabdile
cabdillaahi
cabdillahi
cabdille
cabdimanaaf
cabdimudhalib
cabdinaasir
cabdinuur
cabdiqaadir
cabdiqaasim
cabdiqadir
cabdiqani
cabdirashiid
cabdiraxmaan
cabdiraxman
cabdirisaaq
cabdisalaam
cabdisalaan
cabdishakuur
cabdiwali
cabdiweli
cabdul
cabdulaahi
cabdulahi
cabdulcasiis
cabdulcaziiz
cabdule
cabdullaahi
cabdullah
cabdullahi
cabdulle
cabdulmalik
cabdulqaadir
cabduqaadir
cabduraxmaan
cabi
cabidda
cabin
cabinet
cabir
cabiraa
cabiri
cabirka
cabirkiisu
cabiro
cabista
cabitaan
cabitaanada
cabitaanka
cable
cabo
cabsada
cabsaday
cabsado
cabsan
cabsanaya
cabsanayaa
cabsi
cabsida
cad
cadaa
cadaab
cadaabin
cadaabta
cadaadis
cadaadiska
cadaadiskii
cadaadiyo
cadaado
cadaalad
cadaalada
cadaaladda
cadaan
cadaanka
cadaatay
cadaawada
cadaawe
cadakibir
cadal
cadale
cadami
cadan
cadar
cadarka
cadaw
cadawe
cadawga
caday
cadaymo
cadayn
cadcad
cadceed
cadceeda
caddaa
caddaalad
caddaaladda
caddaan
caddaanka
caddahay
caddayn
caddaynta
cadde
caddeeyay
caddeeyeen
caddeeyey
caddeeyo
caddo
caddow
cade
cadeey
cadeeyay
cadeeyeen
cadhada
cadho
cadi
cadka
cadmeed
cadnaan
cadnaaniyiin
cado
cadoow
cadow
cadowga
caf
cafaan
cafe
caffaan
caffan
caffe
cafha
cafimaad
cafimaadka
cafis
cafiyay
cag
caga
cagaar
cagaaran
cagaare
cagaarka
cagaarshow
cagaarshowga
cagaf
cagaha
cagajuglaynta
cagarshowga
cagliari
cagta
cagtiisa
cain
cairo
caisha
cajaa
cajalad
cajaladaha
cajalado
cajiib
cajiibka
cal
calaa
calaamad
calaamada
calaamadaha
calaamadda
calaamadeeyay
calaamadeeyo
calaamadiyay
calaamadiyey
calaamado
calaamaduhu
calaaudiin
calabria
calaf
calamada
calan
calanka
calankii
calanku
calasow
calayhi
calcium
calculated
calculator
calcutta
calderan
caledonia
caleema
caleemaha
caleemo
caleemuhu
caleen
caleenta
calendar
calender
calgary
cali
california
caliph
caliphate
caliyow
call
callaama
called
calling
callisto
calls
calool
caloosha
calooshood
calooshu
caluula
calvin
camal
camalka
camar
cambaha
cambe
cambodia
cambodian
cambridge
cambuulada
came
camel
cameo
camera
cameron
cameroon
camiran
cammaan
camp
campaign
campbell
camps
camraan
camram
camuud
can
canaan
canaantay
canab
canabka
canada
canadian
canal
cananaas
cananiska
canary
canberra
cancer
candala
candhuufta
canfarta
canis
canjeerada
canjeero
cannes
canshuur
canshuuraha
canshuurta
canton
cantonese
canuuniga
cap
cape
capita
capital
capitals
captain
caption
captured
caqabad
caqabadaha
caqabado
caqiidada
caqiidadiisa
caqiidadooda
caqiido
caqli
caqliga
caqligu
car
cara
caraale
caraay
carab
carabaha
carabi
carabiga
carabiya
carabka
carabku
carabta
carabtii
carabtu
carada
caraf
carafaat
carafo
cararaan
cararay
cararaya
carareen
carays
carbeed
carbon
card
cardi
cardigan
cards
care
career
cargoka
caribbean
caricom
cariga
cariif
caris
carjow
carl
carla
carlo
carlos
carmali
carmo
carnegie
caro
carolina
caroline
carooday
carpenter
carrab
carrabey
carrabka
carrada
carrefour
carrier
carriga
carro
carruur
carruurnimada
carruurta
carruurtaada
carruurteenna
carruurtiisa
carruurtooda
carruurtu
carshiga
carson
carta
cartan
carte
carter
caruur
caruurta
caruurtii
caruurtiisa
caruurtooda
carwo
cas
casa
casaan
casaanka
casablanca
casar
casayr
case
cash
cashada
cashadu
casharo
casheeyaan
cashir
casho
cashuur
cashuuraha
cashuurta
casiis
casilay
casimada
casino
casio
casir
casoowe
casoyiga
caspian
caspur
casri
casriga
casrigan
casrigii
casrisan
casriyeeyay
casriyeyn
casriyeynta
cast
castaro
castle
castro
casuumay
casuus
cat
catalan
catalog
catalonia
catania
categories
category
categoryid
cathedral
catherine
catholic
catname
cats
catus
caucasus
cause
causes
cave
cawaale
cawad
cawed
cawf
cawil
cawl
cawlan
cawlyahan
cawramale
caws
cawska
cay
cayaar
cayaaraha
cayaaro
cayaaryahan
cayayaan
cayayaanka
caydh
caydiid
cayiman
cayman
caymis
caymiska
cayn
caynaan
caynaba
caynabo
caynkaas
cayr
cayriin
cb
cbc
cbignore
cbn
cbs
cc
cd
cdc
cdistrict
cdma
cdn
cdot
ce
cecafa
cecilia
cedar
cee
ceeb
ceeden
ceegaag
ceejin
ceel
ceelaayo
ceelafweyn
ceelal
ceelasha
ceelbarde
ceelbaxay
ceelbuh
ceelbuur
ceelcadde
ceelcali
ceeldaraad
ceeldhaab
ceeldheer
ceele
ceelgaras
ceelhuur
ceelka
ceelkii
ceelmacaan
ceelwaaq
ceerigaabo
ceerigabo
ceeryaan
ceesaan
celcelis
celceliska
cele
celebrate
celebrates
celebration
celebrities
celebrity
celebs
celi
celin
celinayo
celine
celinta
celisay
celiso
celiya
celiyaan
celiyay
celiyeen
celiyey
celiyo
cell
cello
cellular
celsius
celtic
cemetery
cen
cengage
census
censusindia
cent
center
central
centrale
centre
centreforaviation
centro
centuries
century
ceo
ceremony
ceres
certain
cerulli
ces
ceshaday
cet
cev
ceydiid
ceymiska
ceyn
ceyriyay
cf
cfa
cfbt
cff
cfm
cg
cgi
cgm
cgtn
ch
cha
chachoengsao
chad
chairman
chalcogen
challenge
challengers
challenges
chalte
cham
chamber
champasak
champion
champions
championship
chan
chance
chanel
chang
change
changed
changes
channel
chapel
chapin
chapter
character
characteristics
characters
charge
charity
charles
charli
charlie
charlotte
chart
charter
charts
chateau
chavez
che
check
checked
cheese
cheif
chelsea
chemical
chemistry
chen
cheng
chennai
cher
chest
chhnang
chi
chiang
chicago
chicken
chief
chiefs
child
children
chile
chili
china
chinese
chip
chittagong
chloe
cho
chocolate
choi
choice
chopra
chosen
chosun
chou
chris
christensen
christian
christianity
christina
christine
christmas
christophe
christopher
chrome
chronicle
chronological
chronology
chun
chung
church
churchwell
ci
cia
cibaadada
cibaado
cibaar
cibraani
cibraaniga
cid
cida
cidaanka
cidamada
cidanka
cidda
ciddi
ciddii
cidhif
cidhifka
cidhifyada
cidhiidhi
cidhiidhiga
cidi
cidii
cidina
cidla
cidlada
cidlo
cidna
cigaal
cigale
cigalle
cige
ciid
ciida
ciidagale
ciidaha
ciidamada
ciidamadda
ciidamadii
ciidamadiisa
ciidamadu
ciidamdii
ciidammada
ciidamo
ciidan
ciidanka
ciidankaan
ciidankaas
ciidankeena
ciidankii
ciidankiis
ciidankiisa
ciidankiisii
ciidankooda
ciidanku
ciidda
ciidmada
ciil
ciire
ciisa
ciisaha
ciise
ciisuhu
cilaaqaad
cilaaqaadka
cilmi
cilmibaadhis
cilmibaadhista
cilmibaarayaal
cilmibaaris
cilmiga
cilmigan
cilmigiisa
cilmigu
cilmiyaysan
cilmiyeed
cimiga
cimilada
cimiladu
cimilo
cimraan
cimran
cimri
cimriga
cimrigiisa
cinderella
cine
cinema
cinemas
cinwaan
cinwaanka
cinwaankeedu
ciqaab
ciqaabay
ciqaabeed
ciqaabta
cir
ciraaq
ciraaqi
circa
circle
circumference
cirib
ciribta
ciribtiro
ciridka
cirif
cirifka
ciriiri
ciriiriga
cirjeex
cirka
cirku
ciroole
cirro
cis
cisaleey
cisbitaal
cishaha
cishe
cisho
cismaan
cismaaniya
cismaaniyiinta
cismaaniyiintu
cisman
cissoko
citation
cite
cited
citerefstrait
cities
citizen
citizens
citizenship
citoyens
citrus
city
citypopulation
citytown
civic
civil
civilization
ciwaan
ciwaanka
ciwaano
ciyaal
ciyaalka
ciyaar
ciyaara
ciyaaraa
ciyaaraan
ciyaaraha
ciyaaray
ciyaaraya
ciyaarayaan
ciyaarayay
ciyaareed
ciyaareedka
ciyaareedkan
ciyaareedkii
ciyaareedkiisii
ciyaareen
ciyaari
ciyaarihii
ciyaariyahan
ciyaarka
ciyaaro
ciyaarta
ciyaartay
ciyaartii
ciyaarto
ciyaartooy
ciyaartoy
ciyaartoyda
ciyaartoyga
ciyaaryahan
ciyaaryahanka
ciyaaryahankii
ciyaaryahanno
cj
ck
cl
claahi
claim
claims
claire
clan
clans
clanship
clara
clarendon
clark
clash
class
classic
classical
classification
claude
clay
cleveland
click
climate
clinton
clio
clone
close
closed
closer
cloth
clouds
clp
club
clueless
cluster
cm
cma
cms
cn
cnbc
cngdpd
cngdpdpc
cnn
co
coach
coast
coastal
coat
coauthors
coca
cocos
cod
codad
codadka
codadkii
codaynta
codbixin
codbixinta
code
codeeyaan
codeeyay
codeeyeen
codeeyo
codes
codka
codkan
codkani
codkeeda
codkiisa
codsadaan
codsaday
codsadeen
codsado
codsaduhu
codsan
codsatay
codsatey
codsi
codsiga
codsiyada
codsiyo
codweyne
cody
coffee
cohen
coin
coins
col
cola
colaad
colaada
colaadaha
colaadda
colaadeed
colaado
cold
coleman
colin
collapse
collar
collection
collections
collective
college
collins
colo
cologne
colombia
colombo
colonel
colonial
colony
color
colorado
colors
colow
colspan
columbia
columbus
column
columns
com
come
comeback
comedian
comedy
comes
comesa
comfort
comic
comics
coming
comissoners
command
commander
commentary
comments
commerce
commercial
commission
commissioner
committee
common
commons
commonwealth
commsupdate
communication
communications
communist
communities
community
comoros
compact
companies
company
comparative
comparison
compendium
compensation
complete
complex
components
composite
composition
compound
comprehensive
computer
computerka
computers
comunidad
con
concacaf
concentration
concern
concert
concise
concorde
conde
confederation
conference
confirm
confirmed
confirms
conflict
congo
congress
conjugation
conmebol
connecticut
connor
conqor
conqueror
conquest
consider
considered
constantine
constantinople
constitution
constitutional
construction
contact
contains
conte
contemporary
content
contents
contest
context
continent
continue
continues
contract
control
controversy
convention
conventional
cook
cool
coomaad
cooper
cooperation
cooperative
coordinates
copa
copper
coptic
copy
corcoran
cordon
core
coreca
coridel
corn
cornel
cornell
coronavirus
corp
corporate
corporation
corps
correa
corresponding
corruption
corsica
corsican
cosafa
cosmaniya
cosmas
cosmetics
cosmopolitan
cosoble
cost
costa
cote
cotton
could
council
count
counter
counties
countries
country
countrystudies
county
coup
couple
courage
court
courts
cov
cover
covid
cowl
cowlaan
cowlan
cows
cowska
cox
cp
cpc
cpppgdp
cppppc
cq
cr
cradle
craig
crash
crazy
crc
cream
create
created
creation
credit
creek
creole
crew
crh
cricket
crime
crimea
crimean
criminal
crisis
cristal
cristiano
cristina
cristo
critical
critics
croatia
croatian
croats
cronkite
cronkitenews
crore
cross
croswell
crown
crude
cruise
crush
cruz
crvena
crystal
cs
csa
csd
csepel
csis
cska
cso
csv
csw
ct
ctitle
cu
cuba
cuban
cube
cubic
cudbi
cudbiga
cudud
cudur
cudurada
cudurka
cudurkaan
cudurku
cuduro
cudurrada
cuf
cufan
cufis
cufisjiidad
cufisjiidadka
cufka
cufnaanta
culays
culayska
culeys
culeyska
culimada
culimadii
culimadu
culimo
cultura
cultural
culture
cultures
culuma
culumaa
culumada
culumadii
culumo
culus
culusoow
culusow
culuum
culuumta
culuunta
cumaan
cumar
cumardin
cumarna
cumarsiyaad
cumeys
cun
cuna
cunaa
cunaan
cunada
cunaha
cunaqabatayn
cunay
cunaya
cuncun
cunha
cuni
cunida
cunidda
cunin
cunista
cunitaanka
cunnada
cunnington
cunno
cunnooyinka
cunnto
cunntoka
cuno
cunsuriyad
cunsuriyadda
cuntada
cuntadii
cunteeyo
cunto
cuntoda
cuntoka
cuntooyin
cuntooyinka
cunug
cunuga
cup
cuqaal
curadka
curinta
curious
curiyaha
curiyahaas
curiyahan
curiyay
curiyayaasha
curiyayaashan
curiye
curiyeha
curiyehan
curiyeyaal
curiyeyaasha
currency
current
currently
currenttimeframe
currey
curtis
curudka
curyaan
curyaannimo
cusbaa
cusbada
cusbitaal
cusbo
cusboonaysiin
cusboonaysiiyay
cusbooneysiin
cusbooneysiiyay
cusbooneysiiyo
cush
cushite
cushites
cushitic
cusmaan
cusmaaniya
cusmaaniyada
cusmaaniyiinta
cusman
custom
customs
cusub
cusubi
cut
cutayba
cuts
cutub
cutubka
cutubyada
cuwaaf
cuwaafta
cv
cvt
cw
cx
cxuwaqaaiaaj
cy
cyclone
cyprus
cyrene
cyril
cyrus
cz
czech
czechoslovakia
d
d0
d1
d2
d3
d4
d5
d6
d7
d8
d9
da
daa
daabac
daabacaa
daabacaad
daabacaada
daabacaadda
daabacaaddii
daabacan
daabacay
daabacayaasha
daabacday
daabacdo
daabaco
daabici
daabicin
daacabo
daacad
daacada
daacadda
daacadnimada
daacadnimo
daaci
daad
daadad
daadadka
daadan
daadiyo
daadka
daadkii
daadmadheedh
daadsan
daafaha
daah
daaha
daahir
daal
daalib
daalin
daalka
daallo
daalo
daamood
daamur
daan
daandaansi
daanka
daanta
daanyeer
daanyeerka
daaq
daaqa
daaqaan
daaqad
daaqsiimo
daaqsimeed
daaqsin
daaqsinka
daar
daariq
daariyaas
daarood
daaroodka
daaroodku
daartii
daaru
daarul
daarusalaam
daatay
daaud
daauud
daawad
daawada
daawadaan
daawaday
daawadayaasha
daawado
daawan
daawashada
daawasho
daawaynta
daawaysaa
daaweeyaa
daaweeyo
daaweyn
daaweynta
daawo
daawooyin
daawooyinka
daaya
daayaa
daayaan
daayay
daayeen
daayeerka
daayey
daayo
dab
daba
dabaal
dabaaldag
dabaaldeg
dabaaldega
dabaaldegyada
dabaasha
dabacasaha
dabacase
dabacsan
dabada
dabadeed
dabadeedna
dabadheer
dabadii
dabagal
dabagalka
dabagalo
dabajeex
dabali
dabaq
dabaqa
dabaqadda
dabaqyo
dabar
dabare
dabargoynta
dabarre
dabayaaqadii
dabayl
dabaylaha
dabaylo
dabaysha
dabayshu
dabbaal
dabbaasha
dabcan
dabci
dabeecad
dabeecada
dabeecadaha
dabeecadda
dabeylo
dabeysha
dabiicadda
dabiici
dabiiciga
dabin
dabka
dabkii
dabku
dable
dabo
dabool
daboolaa
daboolan
daboolay
daboolaya
daboolayaa
daboolayaan
daboolayo
daboolaysaa
dabooli
daboolka
daboolo
dabooshaa
dabqaad
dabqaadka
dacaayad
dacal
dacalada
dacar
dacay
dacdheer
daciif
daciifka
daciifnimo
daciiftay
dacwad
dacwada
dacwadaha
dacwadda
dad
dada
dadaal
dadaala
dadaalaan
dadaalada
dadaalay
dadaali
dadaalka
dadaalkii
dadaallada
dadaalno
dadaalo
dadbadan
dadban
dadka
dadkaan
dadkaas
dadkaasi
dadkaba
dadkan
dadkana
dadkani
dadkeeda
dadkeedu
dadkeena
dadki
dadkii
dadkiina
dadkiisa
dadkiisii
dadkiisu
dadkoo
dadkooda
dadku
dadkuna
dadow
dadwaynaha
dadweynaha
dadweyne
dadweynuhu
dadyawga
dadyoow
dadyow
dadyowga
daf
dag
daga
dagaa
dagaal
dagaalada
dagaaladaas
dagaaladani
dagaaladii
dagaalamaan
dagaalamay
dagaalamaya
dagaalamayay
dagaalamayeen
dagaalameen
dagaalami
dagaalamin
dagaalamo
dagaalanka
dagaalanto
dagaalay
dagaalka
dagaalkaan
dagaalkaas
dagaalkaasi
dagaalkan
dagaalkani
dagaalki
dagaalkii
dagaalku
dagaallada
dagaalladii
dagaallama
dagaallamay
dagaallamayo
dagaallameen
dagaallamo
dagaallanka
dagaallo
dagaalo
dagaalyahan
dagaalyahanada
dagaalyahanno
dagaalyahano
dagaan
dagaar
dagal
dagaladii
dagan
daganaa
daganaayeen
dagani
daganyihiin
dagay
dageen
daggan
dagi
dagmada
dagmadani
dagmadu
dagmo
dagmooyin
dagmooyinka
dago
dagoodiye
dagta
dagtaa
dagtay
dagto
daguuro
dah
dahaadhan
dahaar
dahaaran
dahab
dahabi
dahabiga
dahabka
dahabku
dahabshiil
dahalo
dahay
dahir
dahsoon
daily
dailymail
dailysabah
daisy
dajin
dajinta
dajiyay
dajiyey
dajiyo
daka
dakad
dakar
dakhli
dakhliga
dakkar
dakota
dal
dalaal
dalab
dalabka
dalabkii
dalacay
daladda
dalag
dalaga
dalagga
dalagyada
dalagyo
dalaka
dalal
dalalka
dalalkaas
dalalkii
dalalkooda
dalbaday
dalbadeen
dalban
dalbatay
dalbay
daldalay
dali
dalib
daliil
daljir
daljirka
dalka
dalkaan
dalkaas
dalkaasi
dalkaba
dalkan
dalkana
dalkani
dalkeeda
dalkeena
dalkii
dalkiisa
dalkooda
dalkoodii
dalku
dalla
dallacsiiyay
dallas
dalmar
dalool
daloolka
dalsan
dalweyn
dalxa
dalxiis
dalxiisayaal
dalxiisayaasha
dalxiiska
dalxiiso
dam
damaanad
damaashaad
damaashaadka
damac
damaca
damacsan
damacsanaa
damal
damala
damalaxagare
daman
dambana
dambas
dambaska
dambayn
dambayntii
dambayntiina
dambaysa
dambaysay
dambaysta
dambe
dambeesay
dambeeya
dambeeyay
dambeeyayna
dambeeyey
dambeeyo
dambeeysa
dambeeysay
dambena
dambeyay
dambeyn
dambeynta
dambeyntii
dambeyntiina
dambeys
dambeysa
dambeysay
dambeysey
dambeyso
dambeysta
dambi
dambiga
dambiilayaasha
dambiile
dambiyada
dambiyo
damcay
dame
dameer
dameeraha
dameerka
dameerkiisa
damiir
dammaanad
damqatum
dan
dana
danab
danabka
danaha
danbana
danbayn
danbayntii
danbaysa
danbaysay
danbe
danbeeya
danbeeyay
danbeeyey
danbeeyo
danbeyn
danbeyntii
danbeysa
danbeysay
danbi
dance
dancing
dane
daneeyaa
danger
dangerous
dangorayo
dani
danida
daniel
danish
danishka
danjiraha
danjire
danmark
dano
dans
danta
danube
danyarta
daqiiq
daqiiqad
daqiiqadii
daqiiqado
daqiiqda
daqiiqo
daqliga
dar
dara
daraa
daraabazoon
daraaddeed
daraadeed
daraakoola
daraan
daraasaadka
daraasad
daraasada
daraasadaha
daraasadda
daraasiin
daraawiish
daraawiisheed
daraawiishta
darada
darafyada
darajada
darajo
darajooyinka
daran
darandoole
darandoori
darane
dararwayne
darawal
darawiish
darawiishta
daray
darayo
darbi
darbiga
darbiyada
dardaaran
dardaarankii
dardaarmay
dardaarmayaa
dardaarmi
dardar
dareema
dareemaan
dareemay
dareemayaa
dareemayo
dareeme
dareemeen
dareemi
dareemin
dareemo
dareen
dareenka
dareenkeeda
dareenkiisa
dareento
dareeraha
dareere
darey
darfur
dari
darida
dariiq
dariiqa
dariiqada
dariiqooyinka
darin
daris
dariska
darius
darjah
dark
darka
darnaa
daro
darod
darood
daroogada
daroogo
darrada
darri
darro
darsadaa
darsaday
darsado
darso
dartaa
dartay
darted
darteed
darteedna
dartid
dartii
dartiis
dartood
darul
daruur
daruuraha
daruuriga
daruuro
darwiish
daryeel
daryeela
daryeeli
daryeelka
daryeelo
das
dash
dashay
dastuur
dastuuri
dastuuriga
dastuurka
dastuurkii
dastuurku
dat
data
database
dataset
date
datecheck
dating
datum
dau
daud
daughter
daum
david
davidson
davis
dawa
dawaafayo
dawaaifka
dawaaifta
dawac
dawaco
dawada
dawaro
dawayntooda
daweeyo
dawlad
dawlada
dawladaasi
dawladaha
dawladan
dawladda
dawladdaas
dawladdaha
dawladdii
dawladdu
dawladeed
dawladi
dawladihii
dawladii
dawladnimada
dawladnimo
dawlado
dawladood
dawladu
dawli
dawliga
dawn
dawo
dawoco
dawooyinka
daws
dax
daxayada
day
daya
dayaan
dayactir
dayactirka
dayasho
dayax
dayaxa
dayaxu
dayaxyada
dayaxyo
dayay
dayaya
daydaan
dayday
daydo
dayeen
dayey
dayga
daygii
dayi
dayib
dayin
dayn
dayniile
dayno
dayo
dayr
dayrta
days
daysay
dayuurad
dayuuradaha
db
dc
dd
dds
ddsi
ddu
de
dead
deadline
deadly
deal
dean
dear
death
debate
debedda
debt
debut
dec
decades
december
decision
declaration
decline
decree
dedaal
dee
deedu
deefow
deegaamo
deegaan
deegaanada
deegaanadaasi
deegaanadan
deegaanda
deegaanka
deegaankaas
deegaankaasi
deegaankan
deegaankani
deegaankii
deegaankooda
deegaanku
deegaannada
deegaano
deegan
deeganada
deeganka
deeganku
deegano
deel
deelqaaf
deenka
deep
deepika
deeq
deeqa
deeqaha
deeqay
deeqda
deeqo
deeqsi
deer
deerada
deero
default
defeat
defence
defense
define
defined
definition
definitions
deg
dega
degaa
degaan
degaanada
degaanka
degaankii
degaanku
degaannada
degaano
degamada
degan
degana
deganaa
deganaan
deganaansho
deganaayeen
deganayaasha
degani
deganka
deganyihiin
degay
degdeg
degdega
degdegga
degeen
degen
degenaa
degenaan
degenaansho
degenaayeen
degentahay
degenyihiin
degey
degga
deggan
degganaa
degganaayeen
degganayd
deggen
deggenaa
degi
degitaanka
degli
degmada
degmadaan
degmadaasi
degmadan
degmadani
degmadda
degmadu
degmo
degmooyin
degmooyinka
degmooyinkii
degmoyinka
dego
degree
degrees
degsiimada
degsiimo
degsiimooyinka
degta
degtaa
degtay
degto
dei
deimos
deir
dejiayay
dejin
dejinta
dejisay
dejiso
dejiya
dejiyay
dejiyeen
dejiyey
dejiyo
dek
dekad
dekada
dekadaha
dekadani
dekadda
dekado
dekatul
deked
dekeda
dekedaha
dekedda
dekedo
del
delaware
delegation
delgado
delhi
delisle
della
delle
delphine
delta
dem
demand
demandovorto
dembi
dembidhaaf
dembiga
dembiyada
demi
demie
demiska
democracy
democratic
demographia
demographic
demographics
den
denbi
denis
denisova
denmark
dennis
density
dente
denver
department
departments
depp
depression
dept
depts
deputato
deputy
der
derbi
derbiga
derbiyada
derby
derejada
derek
derg
deria
derin
deris
deriska
deriskaaga
deriskooda
derivative
derow
dersi
derulo
dervish
dervishes
des
desc
descent
described
desert
desi
design
designed
desire
despite
dessert
destinations
destiny
destruction
detail
details
detroit
deutsch
deutsche
deutscher
deutschland
devanagari
devastating
develop
developed
development
developments
devi
dewan
dey
deymaha
deyn
deynta
deyntiisa
deyr
deysay
df
dfb
dfkmg
dfs
dg
dh
dha
dhaadheer
dhaadhiciyo
dhaaf
dhaafa
dhaafaan
dhaafay
dhaafaya
dhaafi
dhaafin
dhaafka
dhaafo
dhaaftay
dhaalib
dhaamaan
dhaan
dhaanta
dhaantada
dhaanto
dhaar
dhaariyay
dhaarta
dhaartay
dhaartaye
dhaawac
dhaawaca
dhaawacay
dhaawacmay
dhaawacmeen
dhaawaco
dhaawacyada
dhaawacyo
dhab
dhaba
dhabad
dhaban
dhabanada
dhabancade
dhabar
dhabarka
dhabarkiisa
dhabarta
dhabe
dhabi
dhabta
dhabxanaga
dhac
dhaca
dhacaa
dhacaan
dhacaday
dhacay
dhacaya
dhacayaan
dhacayay
dhacayo
dhacaysa
dhacayso
dhacda
dhacdaa
dhacdada
dhacdadaas
dhacdadan
dhacdadii
dhacday
dhacdey
dhacdo
dhacdooyin
dhacdooyinka
dhacdooyinkii
dhaceen
dhacey
dhaco
dhacyada
dhacyo
dhaddig
dhadhaab
dhadhan
dhadhanka
dhadhanku
dhaf
dhafan
dhafay
dhafka
dhafuuje
dhag
dhaga
dhagaha
dhagan
dhagar
dhagaweyne
dhagax
dhagaxa
dhagaxaan
dhagaxaanta
dhagaxbuur
dhagaxda
dhagaxley
dhagaxleyda
dhagaxtuur
dhagaxyada
dhagaxyo
dhagayaraha
dhagaystaa
dhagaystayaal
dhagaystayaasha
dhageesan
dhageeyso
dhageysan
dhageysiga
dhageyso
dhago
dhagool
dhagoolnimada
dhagxaanta
dhaha
dhahaa
dhahaan
dhahar
dhahay
dhaheen
dhaho
dhajinta
dhajiyay
dhaka
dhakhaatiir
dhakhaatiirta
dhakhsaha
dhakhso
dhakhtar
dhakhtarka
dhal
dhala
dhalaa
dhalaalaya
dhalaali
dhalaan
dhalaanka
dhalada
dhaladka
dhalan
dhalanaya
dhalashada
dhalashaddii
dhalashadii
dhalashadiisa
dhalashey
dhalasho
dhalata
dhalataa
dhalatay
dhalatey
dhalato
dhalay
dhaldhalaalka
dhaleecayn
dhaleeceeya
dhaleeceeyay
dhaleeceeyayaasha
dhaleeceyn
dhaleen
dhaley
dhali
dhaliilay
dhalin
dhalinta
dhalinyarada
dhalinyaradda
dhalinyaradii
dhalinyaro
dhalinyarta
dhalisay
dhaliya
dhaliyaa
dhaliyaha
dhaliyay
dhaliye
dhaliyey
dhaliyo
dhallaanka
dhallinta
dhallinyarada
dhallinyaro
dhalmada
dhalmo
dhalo
dhalooyinka
dhamaad
dhamaada
dhamaadaa
dhamaadaan
dhamaaday
dhamaadka
dhamaadkii
dhamaadkiisa
dhamaado
dhamaan
dhamaanayso
dhamaanba
dhamaanteed
dhamaantood
dhamaantoodna
dhamaata
dhamaataa
dhamaatay
dhamaato
dhaman
dhamayn
dhamaystay
dhamaystiran
dhamaystirane
dhamaystiray
dhamaystirka
dhamaystiro
dhambaal
dhambalin
dhame
dhameeyay
dhameeyey
dhameeyo
dhameysatay
dhameystay
dhameystiran
dhami
dhammaadaan
dhammaaday
dhammaadeen
dhammaadka
dhammaadkii
dhammaan
dhammaanba
dhammaantood
dhammaantoodna
dhammaatay
dhammayn
dhammaystiran
dhammaystiray
dhamme
dhammeeyay
dhammeeyey
dhammeeyo
dhan
dhana
dhanaan
dhanaane
dhanaanka
dhanaanta
dhandhan
dhanka
dhankaas
dhankiisa
dhanna
dhanyahay
dhanyihiin
dhaq
dhaqaalaha
dhaqaalaheeda
dhaqaalaheedu
dhaqaalahooda
dhaqaale
dhaqaaleyahan
dhaqaalihii
dhaqaalihiisa
dhaqaallaha
dhaqaalo
dhaqaaq
dhaqaaqa
dhaqaaqay
dhaqaaqday
dhaqaaqeen
dhaqaatiir
dhaqalaha
dhaqamada
dhaqameed
dhaqameedka
dhaqameedyada
dhaqameedyo
dhaqamo
dhaqan
dhaqane
dhaqanka
dhaqankeeda
dhaqankeena
dhaqankii
dhaqankiisa
dhaqankooda
dhaqanku
dhaqanno
dhaqano
dhaqashada
dhaqasho
dhaqatada
dhaqato
dhaqda
dhaqdaa
dhaqdaan
dhaqdhaqaaq
dhaqdhaqaaqa
dhaqdhaqaaqe
dhaqdhaqaaqii
dhaqdhaqaaqyada
dhaqdhaqaaqyo
dhaqdo
dhaqidda
dhaqista
dhaqma
dhaqmaa
dhaqmaan
dhaqmay
dhaqmeen
dhaqmi
dhaqmin
dhaqmo
dhaqnaa
dhaqnaayeen
dhaqo
dhaqsaha
dhaqso
dhaqtar
dhar
dharaar
dharbaaxo
dharka
dharkayn
dharkeenley
dharkenley
dharkeynley
dharkii
dhasahy
dhasha
dhashaa
dhashaan
dhashay
dhasheen
dhashey
dhasho
dhashtay
dhaw
dhawaa
dhawaad
dhawaaday
dhawaado
dhawaajisay
dhawaan
dhawaanahan
dhawaaq
dhawaaqa
dhawaaqaa
dhawaaqay
dhawaaqayo
dhawaaqday
dhawaaqdey
dhawaaqdo
dhawaaqeen
dhawaaqey
dhawaaqi
dhawaaqida
dhawaaqo
dhawaaqtada
dhawan
dhawaq
dhawaqa
dhawaynta
dhawdahay
dhaweeyay
dhaweeyeen
dhaweeyo
dhaweyn
dhaweynta
dhawr
dhawrayoow
dhawridda
dhawro
dhax
dhaxal
dhaxalgal
dhaxalka
dhaxalkii
dhaxalsugaha
dhaxanta
dhaxaysa
dhaxaysaa
dhaxaysay
dhaxaysey
dhaxayso
dhaxbartanka
dhaxda
dhaxe
dhaxeesa
dhaxeesay
dhaxeeya
dhaxeeyaa
dhaxeeyay
dhaxeeyo
dhaxeysa
dhaxeysaa
dhaxeysay
dhaxlay
dhaxleen
dhaxli
dhaxlo
dhaxmaray
dhaxmaro
dheceen
dheddig
dheddiga
dheddigga
dhedig
dhediga
dhedigna
dheecaan
dheecaanada
dheecaanka
dheef
dheefshiidka
dheeg
dheeh
dheehan
dheelay
dheeli
dheelitiran
dheelitirka
dheelli
dheen
dheer
dheera
dheeraa
dheeraad
dheeraada
dheeraaday
dheeraadka
dheerayd
dheere
dheereed
dheereeya
dheereeyey
dheereeyo
dheereynayaa
dheeri
dheeriga
dheerka
dheerna
dheertahay
dheesha
dheexadka
dheg
dhega
dhegaha
dhegahooda
dhegan
dhegaweyne
dhegeysanaya
dhegeysta
dhegeysto
dhego
dhegoculeys
dhegoculeyska
dhegoolaha
dhegta
dheh
dheheen
dhejiyay
dhejiyo
dherer
dhererka
dhererkeeda
dhererkeedu
dhererkiisu
dhererkoodu
dheri
dheriga
dhetroyt
dhex
dhexaad
dhexaadka
dhexaysa
dhexaysaa
dhexaysay
dhexda
dhexdeeda
dhexdhexaad
dhexdhexaadin
dhexdhexaadinta
dhexdhexaadka
dhexdhexaadnimo
dhexdiisa
dhexdooda
dhexe
dhexeeya
dhexeeyaa
dhexeeyay
dhexeeyey
dhexeeyo
dhexeeysa
dhexeysa
dhexeysaa
dhexeysay
dhexeysey
dhexeyso
dhexgalka
dhexgalo
dhexjira
dhexjiray
dhexmara
dhexmaray
dhexmarta
dhexmartay
dhexroor
dhexroorka
dhextaal
dhexyaal
dheyda
dheymos
dhib
dhibaatada
dhibaatadii
dhibaatadu
dhibaato
dhibaatooyin
dhibaatooyinka
dhibaatooyinkii
dhibanayaasha
dhibatoka
dhibbanaha
dhibbanayaasha
dhibcaha
dhibco
dhibcood
dhibic
dhibka
dhiblaawe
dhiblawe
dhibleh
dhibta
dhici
dhicin
dhicis
dhicisoobay
dhidibada
dhidid
dhif
dhig
dhiga
dhigaa
dhigaan
dhigaayo
dhigaha
dhigan
dhiganta
dhigantaa
dhigantahay
dhigashada
dhigata
dhigatay
dhigato
dhigay
dhigaya
dhigayaa
dhigayay
dhigayey
dhigayo
dhigaysa
dhigayso
dhigeen
dhigeeysa
dhigey
dhigeysa
dhigeysaa
dhigga
dhigi
dhigidda
dhigin
dhigista
dhigma
dhigmaa
dhignaa
dhigno
dhigo
dhigta
dhigtaa
dhigtaan
dhigtay
dhigteen
dhigtey
dhigto
dhiguhu
dhihi
dhiibaan
dhiibay
dhiibeen
dhiibin
dhiibo
dhiibtay
dhiig
dhiiga
dhiigbax
dhiigga
dhiigshiil
dhiiq
dhiiragalin
dhiiranaan
dhiiri
dhiirigelin
dhiirigelinta
dhiirigelisay
dhiirigeliya
dhiirigeliyay
dhiirri
dhiirrigelinta
dhiirrigelisay
dhiirrigeliyay
dhiirrigeliye
dhijitaal
dhijitaalka
dhilleysiga
dhillo
dhillooyinka
dhiman
dhimanayo
dhimanno
dhimashada
dhimashaddii
dhimashaddiisii
dhimashadeeda
dhimashadii
dhimashadiisa
dhimasho
dhimashona
dhimatay
dhimatey
dhimirka
dhimista
dhimman
dhimo
dhinac
dhinaca
dhinacba
dhinaceeda
dhinacii
dhinaciisa
dhinactax
dhinacyada
dhinacyadii
dhinacyo
dhinca
dhiniciisa
dhinta
dhintaan
dhintay
dhinteen
dhintey
dhinto
dhir
dhiraandhirinta
dhirirka
dhirirkiisu
dhirta
dhirtu
dhis
dhisa
dhisaan
dhisaayay
dhisan
dhisantahay
dhisantay
dhisanyahay
dhisay
dhisayo
dhiseen
dhisey
dhishiike
dhisi
dhisid
dhisida
dhisidda
dhisidu
dhisin
dhisitaanka
dhiska
dhisma
dhismaha
dhismaheeda
dhismay
dhismayaal
dhismayaasha
dhisme
dhismeed
dhismeedka
dhismeyaal
dhismihii
dhismo
dhismooyin
dhismooyinka
dhismuhu
dhisnaa
dhisnayd
dhiso
dhistaan
dhistay
dhisteen
dhistey
dhisto
dhisyada
dhisyo
dhogor
dhogorta
dhoho
dhoobada
dhoobley
dhoobo
dhoodaan
dhoofay
dhoofin
dhoofinta
dhoofiya
dhoofiyaa
dhoofiyay
dhoofiyo
dhool
dhoola
dhoom
dhoor
dhoore
dhorre
dhow
dhowa
dhowaa
dhowaad
dhowaadaan
dhowaaday
dhowaan
dhowaanshaha
dhowayd
dhowdahay
dhoweeyay
dhowow
dhowr
dhowree
dhowrista
dhowrka
dhowrkii
dhowro
dhowrsan
dhowrsana
dhowyahay
dhowyihiin
dhu
dhudhun
dhudi
dhufatay
dhufayl
dhufeesyo
dhufeysyada
dhuftay
dhufteen
dhuftey
dhufto
dhuhul
dhul
dhulal
dhulalka
dhulalkii
dhulbadhaha
dhulbadhe
dhulbahante
dhulbaraha
dhuleed
dhuleedka
dhulgariir
dhulgariirka
dhulgariirkii
dhulka
dhulkaa
dhulkaan
dhulkaas
dhulkaasi
dhulkan
dhulkana
dhulkeeda
dhulkeena
dhulkii
dhulkiisa
dhulkooda
dhulku
dhulwaynaha
dhumuc
dhumucda
dhurwaa
dhuuban
dhuule
dhuumaha
dhuumasho
dhuumoodle
dhuun
dhuunta
dhuunte
dhuusamareeb
dhuuso
dhuux
dhuxul
dhuxulow
dhuxusha
di
dia
dialect
dialects
dialogue
diamond
diane
diary
diaspora
diaz
dib
dibad
dibada
dibadaha
dibadda
dibaddaba
dibadeed
dibadiisa
dibadiisaba
dibatoka
dibeda
dibedda
dibi
diblomaasi
diblomaasiyadeed
dibna
dibnaha
dibu
dibuheshiisiinta
dictionary
did
die
died
diego
dies
difaac
difaaca
difaacaan
difaacan
difaacay
difaacaya
difaacda
difaaci
difaacida
difaaco
difference
different
difinita
diga
digaag
digaaga
digaagad
digaale
digay
dige
digfeer
digic
digil
digir
digirta
digirtu
digital
digitalspy
digniin
digo
digrii
digsi
dihin
dii
diid
diidaa
diidaan
diidan
diidana
diidanaa
diiday
diidaya
diidayo
diidday
diide
diideen
diidey
diidi
diidka
diidmada
diidmo
diido
diig
diimaha
diimeed
diimo
diimood
diin
diinaar
diineed
diini
diiniga
diinka
diinsoor
diinta
diintan
diinteena
diintii
diintiisa
diintooda
diintoodii
diintu
diiq
diirad
diirada
diiradda
diiran
diirimaad
diiriye
diirka
diirran
diirshe
diisa
diisambar
diisu
diiwaan
diiwaanada
diiwaangashan
diiwaangelin
diiwaangelinta
diiwaangeliyay
diiwaangeliyey
diiwaanka
diiwaannada
dijitaalka
dikhil
dil
dila
dilaa
dilaacay
dilaaga
dilaan
dilal
dilalka
dilay
dilbar
dile
dileen
dileita
diley
dili
dilidda
dilin
dilka
dilkii
dilla
dillaacay
dilo
dilqaadir
dilwale
dimishiq
dimoqaraadiyadda
dimoqraadi
dimoqraadiga
dimoqraadiyad
dimoqraadiyada
dimoqraadiyadda
dimuqaraadiga
dimuqraadi
dimuqraadiga
dimuqraadiyad
dimuqraadiyada
dimuqraadiyadda
dimuquraadi
din
dinar
dinner
dins
dion
dione
dioxide
diploma
diplomacy
diplomat
diplomatic
diplomats
dir
dira
diraac
diraan
diraarada
diraca
diracu
dirawalka
diray
diraya
dirayo
dire
direct
director
directorial
directory
direed
direen
direy
dirham
diri
diridhaba
dirin
dirir
dirirka
dirisame
dirista
diriye
diro
dirr
dirre
dirsaday
dirta
dirtay
disaster
disc
discovering
discovery
discuss
discussed
disease
diseembar
disembar
disember
disha
dishay
dishiishe
disho
disick
disk
disney
disorder
dispatch
display
displaystyle
dispute
distance
distribution
district
districts
diversity
divided
divine
division
divisions
divorce
diwaanka
dix
dixit
diyaar
diyaarad
diyaarada
diyaaradaan
diyaaradaha
diyaaradda
diyaaraddii
diyaaraddu
diyaaradeed
diyaaradii
diyaaradka
diyaarado
diyaaradood
diyaaraduhu
diyaarin
diyaarinta
diyaarisay
diyaariyaa
diyaariyaan
diyaariyay
diyaariyeen
diyaariyey
diyaariyo
diyaarka
diyaarsada
diyaarsan
dj
djamena
djibouti
dk
dkmg
dl
dle
dm
dmm
dn
dna
dnaindia
dnr
do
doc
docay
docid
docs
doctor
document
documentary
documentation
documents
does
dof
dog
dogg
doha
doi
doja
dolbahanta
doll
dollar
dollarka
dollars
dolow
dolphins
dom
domain
domestic
dominant
domingo
dominic
dominica
dominican
dominika
domo
don
donald
dong
donga
dont
doo
doob
dood
dooda
doodaa
doodaha
dooday
doodaya
doodda
doodday
doodeen
doodi
doodo
doodu
doofaar
doofaarka
doog
dool
doolar
doolarka
dooli
dooliga
doollar
doollarka
doollo
doolow
doomaha
doombiro
doomin
doomintii
doomiyay
doomo
doon
doona
doonaa
doonaan
doonan
doonay
doonaya
doonayaa
doonayaan
doonayay
doonayeen
doonayey
doonayo
doonaysa
doonaysay
doonayso
doondheere
doone
dooni
doonid
doonin
doonista
doonistiisa
doonka
doonnaa
doonnida
doonno
doono
doonta
doontaa
doontaan
doontay
doontid
doonto
doonyaha
doonyo
door
doorada
dooran
dooranaya
doorar
doorarka
doorashada
doorashadaas
doorashaddii
doorashadii
doorashadu
doorasho
doorashooyin
doorashooyinka
doorashooyinkii
dooratay
doorbidaan
doorbiday
doorbidaya
doorka
doorkeeda
doorkeedii
doorkii
doorkiisa
dooro
doorta
doortaa
doortaan
doortay
doorteen
doortey
doorto
doox
dooxa
dooxada
dooxo
dooxooyin
dooxooyinka
dooxyo
dooy
doqon
dori
doric
dorothy
dortmund
dos
douala
double
dougherty
douglas
dove
dover
dow
dowlad
dowlada
dowladaha
dowladahaas
dowladda
dowladdi
dowladdii
dowladdu
dowladeed
dowladi
dowladihii
dowladii
dowladnimada
dowladnimo
dowlado
dowladood
dowladu
dowli
dowliga
down
download
downloads
downpour
downtown
dp
dpwosocny
dq
dr
draft
dragon
drake
drama
dramas
drapeau
drapeu
draw
drc
dre
dream
dreams
dress
drive
drivers
driving
drone
dropout
drops
drought
drs
druzhby
dry
ds
dsp
dspace
dt
dtm
du
dua
duale
duba
dubai
dubay
duble
duca
ducaadda
ducaale
ducada
ducadii
ducati
duceeyay
duceeyo
duchy
duco
ducooyinka
dudub
duduble
duduwan
due
dufan
dufanka
dugow
dugsi
dugsiga
dugsigaas
dugsigii
dugsigu
dugsiyada
dugsiyadii
dugsiyo
duhail
duhur
duhurka
duhurkii
dukaamada
dukaamo
dukaan
dukaanka
dukaankii
dukan
duke
duki
dukumiinti
dukumiintiga
dukumiintiyada
dukumintiga
dul
dulaydala
duleedka
dulhania
dulka
dullayn
dulmi
dulmiga
dulqaad
dulqaadka
dulsaar
dumaal
dumaalay
dumar
dumarba
dumarka
dumarkaasi
dumarkii
dumarku
dumarnimada
dumas
dumay
dumiyo
dun
dundia
dundida
dunes
duni
dunid
dunida
dunidan
dunidu
duniyar
duniyo
dunnida
dunta
duq
duqa
duqeeyay
duqeeyeen
duqeeyey
duqeymo
duqeyn
duqeynta
duqii
duqow
duqsan
duqsi
dur
durba
durbaan
durbaanka
durbadiiba
durban
durdur
durham
during
durmaan
durmaanka
duro
durugsan
duruufaha
duruufo
duruus
dusaa
dusha
dusheeda
dushiisa
dushooda
dusmareeb
dutch
duterte
duub
duuban
duubay
duubis
duubista
duubo
duuboo
duubtay
duudka
duufaan
duufaano
duufaanta
duufaantii
duug
duugan
duugay
duugayo
duugo
duul
duula
duulaan
duulaanka
duulaankii
duulahii
duulay
duulaya
duulayay
duuleen
duulimaad
duulimaadka
duulimaadkii
duulimaadyada
duulimaadyadu
duulimaadyo
duulista
duuliyaha
duuliyasha
duuliye
duuliyihii
duullaan
duullaanka
duullaankii
duulo
duumaan
duumada
duunyada
duunyo
duunyooyinka
duur
duurjoog
duurjoogta
duurka
duushay
duusho
duwaha
duwan
duwanaa
duwanaan
duwanaanshaha
duwanaansho
duwanaanta
duwantahay
duwanyahay
duwanyihiin
dux
duxda
dv
dvd
dw
dwarf
dwd
dx
dy
dyb
dylan
dynamic
dynamics
dynamo
dynamos
dynastic
dynasty
dz
dæ
də
e
e0
e1
e2
e3
e4
e5
e6
e7
e8
e9
ea
eac
each
eagle
eagles
ear
earlier
earliest
early
earth
earthquake
earthquakes
easbrig
easf
east
eastern
eastleigh
eat
eb
ebakar
ebar
ebay
ebchecked
eber
ebisu
ebola
ebooks
ec
ecb
eccas
ece
ecirc
eclare
eco
ecological
economic
economics
economictimes
economist
economy
ecosoc
ecowas
ecuador
ed
edel
edgar
edgardo
edge
edgecomb
edinburgh
edirne
edison
edit
edited
edition
editions
editor
editore
edizioni
edmonton
edo
eds
edu
eduard
eduardo
education
educational
edward
edwards
edwin
ee
eebakar
eebbaa
eebbaana
eebbaha
eebbana
eebbe
eebe
eed
eeddo
eedeeyay
eedeeyey
eedeymaha
eedeymo
eedin
eedo
eee
eeg
eega
eegaa
eegay
eegayo
eegi
eegin
eegis
eegista
eegisyo
eegno
eego
eegto
eek
eeka
eelaay
eelo
een
eex
eexasho
eey
eeyaha
ef
efes
effective
efforts
eg
egal
egg
egsc
egta
egtahay
egyahay
egyihiin
egypt
egyptian
eh
eheed
eheen
ehlu
ehret
ei
eid
eiga
eight
ein
einstein
eintracht
either
ej
ejersa
ek
ekaa
ektzujo
el
elaayo
elder
elders
eldonejo
elebda
elected
election
elections
electrate
electric
electronic
electronics
electroniques
elektaron
elektaroon
elektarooniga
elektaroonik
elektaroono
elektrooniga
element
elementary
elements
elevation
elias
elissa
elite
elizabeth
elle
ellie
elliot
elliott
elman
elmi
elsa
elsevier
elvadist
elysee
em
email
emanawel
embassies
embassy
emblem
emerald
emerging
emiirka
emily
eminem
emirate
emirates
emma
emmanuel
emmy
emn
emotional
emperor
empire
employment
emre
en
encarta
enceladus
encounter
encyclopaedia
encyclopedia
encyclopædia
end
ende
energy
enewsworld
eng
engagement
engegay
engels
engineer
engineering
england
english
eni
enjoy
enough
enschede
ensiim
entebbe
enter
enterprise
entertain
entertainment
entry
environment
envoy
eo
eonline
ep
epic
epimetheus
episode
eprdf
eq
equator
equatorial
er
era
erasmus
eratareya
eray
erayada
erayga
eraygan
eraygiisa
erayo
erbil
erdogaan
erdogan
ereteriya
erey
ereyada
ereybixin
ereyga
ereygan
ereygu
ereyo
ereysir
ergada
ergadii
ergeyga
ergo
eric
erich
erie
erigavo
erik
eris
eritrea
eritrean
ernst
error
eryay
eryta
erythraean
es
esa
esc
escalation
esf
eskisehir
esperanto
essay
essential
est
established
estadistica
estado
estas
estate
estee
esther
esti
estimate
estimated
estimates
estonia
estoniya
eswatini
et
etat
etc
ethics
ethiopia
ethiopian
ethiopias
ethiosemitic
ethnic
ethnicity
ethnologue
ethopia
etienne
etymology
etymonline
eu
eugene
eun
euphoria
euphrates
eur
eurasia
eurasian
euro
eurobasket
euronews
europa
europe
european
europeans
eurostat
eurovision
ev
eva
evan
evans
eve
even
event
events
ever
everest
everglow
evergreen
everson
everton
every
everything
evidence
evolution
ew
ex
example
excavations
excerpt
exchange
exclusive
executive
exile
exist
exitos
exo
exoplanet
experience
experiment
expert
experts
explained
explains
explicit
exploration
explorer
explosion
expo
export
exports
express
expressway
ext
extended
external
extra
ey
eyadema
eyda
eye
eyes
eyga
eyl
eylo
ez
f
f0
f1
f2
f3
f4
f5
f6
f7
f8
f9
fa
faa
faadima
faaduma
faadumiina
faadumo
faafa
faafan
faafay
faafida
faafin
faafinaya
faafinayey
faafinta
faafitaanka
faafiyeen
faafiyo
faafo
faafreeb
faafreebka
faaftay
faahfaahin
faahfaahinta
faahfaahsan
faahiye
faaidadda
faaideesanaya
faaido
faallo
faallooyin
faallooyinka
faanaan
faani
faanka
faanoole
faarax
faaris
faarisi
faarisiga
faarsi
faarsiga
faaruuq
faasuliyada
faasuuliyadu
faatax
faatima
faatixa
faatixada
fabio
fac
faca
facaweyn
face
facebook
faces
facility
fact
factbook
factfinder
facto
factor
factory
factretriever
facts
faculty
facweyn
fadal
fadeexad
fadhi
fadhida
fadhidaa
fadhido
fadhiga
fadhigaab
fadhigeedu
fadhigii
fadhigiisu
fadhigoodu
fadhiisan
fadhiisanayaa
fadhiistay
fadhiisto
fadhiya
fadhiyaa
fadhiyaan
fadhiyay
fadhiyey
fadhiyo
fadlan
fadli
fadliga
fagaaraha
fagaare
fahad
faham
fahamka
fahamsan
fahan
fahanka
fahd
fahiye
fahmaan
fahmay
fahmeen
fahmey
fahmi
fahmid
fahmin
fahmo
fahrenhayt
fair
faisal
faith
fakaday
fakarka
fakufiiqe
fal
falaadhaha
falaga
falaha
falal
falalka
falanqaynta
falanqeyn
falastiin
falastiiniyiinta
falastiiniyiintu
falcelin
fale
faleed
falgal
falgalaan
falgalka
falgalo
falgasha
falimaha
falka
falkaab
falkland
falku
fall
fallaagada
fallaago
fallag
fallaga
fallagu
falls
falo
falsafad
falsafada
falsafadda
false
fame
familia
familie
families
family
famine
famous
fan
fanaan
fanaanad
fanaanada
fanaanadu
fanaand
fanaaniin
fanaaniinta
fanaaniintii
fanaaniintu
fanaanka
fanaankii
fanaanku
fanaka
fanansuwela
fanax
faneed
faneedka
fanka
fanku
fannaan
fannaanad
fannaaniin
fannaaniinta
fannaaniintii
fannaanka
fans
fanza
fao
faostat
faoswalim
faqay
faqi
faqiih
faqiirka
faqri
faqriga
far
fara
faraanti
faraantiga
faraax
farabadan
farac
faraca
faraceeda
faragelin
faragelinta
farah
faraha
faransa
faransiis
faransiiska
faransiisku
faransiyaam
faras
faraska
faraskii
faraskiisii
farasmagaalaha
farasmagaalka
faraweyne
farax
faraxsan
faraxsanahay
faray
farayo
faraysaa
farcama
farcamay
farcameen
farcan
farcanka
fardaha
fardheer
fardhexada
fardhexo
fardo
fardood
fardooley
fareey
farenjiga
farey
fargashiga
fari
fariid
fariimaha
fariin
fariinta
fariisan
fariistaan
fariistay
fariisto
faris
farjano
farm
farmaajo
farmashi
farmashiye
farming
farnsiiska
farnsiisku
faro
faroe
faroese
farood
faroole
farow
farqi
farqiga
farraare
farrah
farriimaha
farriin
farsamada
farsamaynta
farsameeyaa
farsameeyay
farsamo
farsamooyinka
farshaxan
farshaxanada
farshaxanka
farshaxanno
farta
fartaan
fartada
fartani
fartii
faruur
faruuryaha
farxaan
farxad
farxada
farxadda
farxay
farxeen
farxi
farxiya
farxiyo
farxo
faryareey
faryareeyda
faryaro
fasal
fasalka
fasallada
fasax
fasaxa
fasaxay
fasaxyada
fascinating
fashilmay
fashilmeen
fashion
fasil
fasiraadda
fasiri
fasiro
faso
fast
fat
fatax
fateh
fath
father
fatigue
fatih
fatima
fatimah
fattah
fatwa
fatwaid
fatxi
favourite
faylasuuf
fayras
fayraska
faysal
fb
fc
fcc
fd
fdi
fe
fear
fearless
feat
feature
featured
features
feb
febaraayo
febraayo
february
federaal
federaali
federaaliga
federaalka
federaalku
federal
federalka
federation
federico
fedraalka
fedralka
feed
feedh
feejignaan
feel
feer
feeraha
feerfeer
feerka
feeryahan
feet
fegas
feker
fekerka
fekero
felis
female
feminine
feminism
feminist
fenerbahce
ferde
ferdinand
ferencvaros
fernandez
fernando
ferry
festival
fever
few
feyraska
ff
fg
fgm
fh
fi
fiat
fiba
fiber
fican
ficil
ficilada
ficilka
ficillada
fiction
fid
fiday
fidel
fidesz
fidey
fidin
fidinta
fidisay
fiditaanka
fidiya
fidiyaan
fidiyay
fidiyo
fidsan
fidsantahay
field
fields
fifa
fifth
figcaption
fight
fighter
fighting
figure
figures
fii
fiican
fiicana
fiicane
fiicnaa
fiicnaaday
fiicnayn
fiid
fiidiyaha
fiidiyoow
fiidiyoowga
fiidiyowga
fiidiyowgu
fiidiyowyada
fiidiyowyo
fiidkii
fiidow
fiil
fiilada
fiilo
fiilooyinka
fiiniks
fiinlaan
fiiq
fiiqan
fiiri
fiirin
fiirinayo
fiiriyo
fiiro
fiirogaar
fiirsashada
fiirso
fiisaha
fiise
fiisikis
fiiso
fiit
fiitamiin
fiitamiino
fiji
fikir
fikirka
fikrad
fikrada
fikradaha
fikradda
fikrado
fiktooriya
fil
filaan
filaanka
filaayo
filadelfiya
filan
filayaa
filayay
filayo
file
files
filibiin
filim
filimaan
filimaanta
filimada
filimka
filimkan
filimkeeda
filimkeedii
filimkii
filimkiisii
filimku
filimo
filin
filinka
filipino
film
filmada
filmfare
filmmakers
films
filo
fin
final
finalka
finally
finance
financial
find
finding
fine
finger
finland
finnish
finnishka
finnmark
fiqh
fiqi
fiqifuliye
fiqiga
fir
firaaqada
fircoon
fircooniga
fire
fired
firefox
firenze
firfircoon
firfircoonaa
firfircooni
firfircoonida
firi
firida
firiley
firileyda
firm
firqo
first
firstpost
fish
fiska
fit
fitch
fitchratings
fitnada
fitness
fitr
fitzgerald
fivb
five
fixiso
fiyeena
fiyena
fiyetnam
fj
fk
fl
flag
flags
flamingo
flash
fleming
flight
flood
flooding
floods
floor
flora
florence
flores
florida
flower
fly
flying
fm
fn
fnc
fo
fobos
focus
fog
fogaa
fogaadaan
fogaado
fogaan
fogaanshaha
fogaanta
fogayn
fogeyn
fogfog
foglio
folkaanaha
folklore
follow
followers
following
follows
foloriin
food
fooda
foodda
foods
fool
foolka
foolkaanaha
foolmaroodi
foolxumo
foolxun
foomamka
foomka
foorculus
foornada
foorno
foosha
foosiya
foosto
foot
football
footsteps
foox
fooxa
for
forbes
forbidden
force
forces
ford
foreign
foreignpolicy
forest
forever
form
formal
format
formation
former
formerly
forms
formula
fort
forta
fortress
fortune
forum
forums
forward
fosforos
fosforosta
fosse
found
foundation
founded
founder
founding
four
fourth
fowdo
fox
foxnews
fp
fq
fr
fra
frac
fradkin
framework
franc
franca
francais
francaise
france
frances
francis
francisco
franco
francois
francophonie
francs
frank
frankfurt
frankincense
franklin
fransiiska
fransiska
fransisko
franz
fred
frederick
fredrikstad
free
freedom
freeman
freestyle
freetown
freewebs
french
fresh
friday
friend
friends
friendship
friesland
from
front
frontcover
frontier
fruit
fs
ft
ftp
ftse
fu
fudayd
fudud
fududaato
fududahay
fududayn
fududaynta
fududeeya
fududeeyay
fududeeyo
fududeyn
fududeynta
fuel
fujairah
fujino
fukada
fukushima
fula
fulay
fulham
fulin
fulineed
fulinta
fulisay
fuliso
fuliyaa
fuliyaan
fuliyay
fuliyeen
fuliyo
fulkaano
full
fully
fulmer
fun
fund
fundamental
fungi
fungiga
fur
fura
furaan
furaat
furaha
furan
furashada
furasho
furay
furayaasha
fure
fureen
furey
furfuran
furi
furiin
furitaanka
furka
furmay
furmi
furnaan
furo
furqaan
furriinka
fursad
fursada
fursadaha
fursado
furtay
furtey
further
furto
futada
futbol
future
futuro
fuul
fuulay
fuulka
fuulo
fuuq
fv
fw
fwww
fx
fy
fz
g
g0
g1
g2
g3
g4
g5
g6
g7
g8
g9
ga
gaab
gaaban
gaabane
gaabani
gaabin
gaabinta
gaabis
gaabiyaa
gaabiyay
gaabiyey
gaabiyo
gaabka
gaaboow
gaabow
gaaca
gaad
gaadh
gaadha
gaadhaa
gaadhaan
gaadhay
gaadhaya
gaadhayaan
gaadhayo
gaadhaysa
gaadhayso
gaadheen
gaadhey
gaadhi
gaadhid
gaadhin
gaadhka
gaadho
gaadhsiisan
gaadhsiiya
gaadhsiiyay
gaadhsiiyeen
gaadhsiiyo
gaadiid
gaadiidka
gaadiidku
gaadmo
gaadsan
gaaf
gaagaaban
gaajada
gaajo
gaal
gaalada
gaaladii
gaaliyaam
gaaljecel
gaalka
gaalkacayo
gaalkacyo
gaallada
gaalladii
gaalo
gaaloobay
gaamur
gaana
gaandi
gaani
gaar
gaara
gaaraa
gaaraan
gaaraayo
gaarahaan
gaaray
gaaraya
gaarayaa
gaarayaan
gaarayeen
gaarayo
gaaraysa
gaarayso
gaare
gaareen
gaareenin
gaareeso
gaarey
gaareysa
gaari
gaariga
gaarin
gaarisa
gaarka
gaaro
gaaroole
gaarsiin
gaarsiinta
gaarsiisan
gaarsiiya
gaarsiiyay
gaarsiiyeen
gaarsiiyey
gaarsiiyo
gaarta
gaartay
gaartey
gaarto
gaas
gaashaaman
gaashaan
gaashaanbuurta
gaashaandhiga
gaashaandhigga
gaashaanle
gaashireedle
gaaska
gaasta
gaazi
gab
gaba
gabadh
gabadha
gabadhaasi
gabadhani
gabadhi
gabadhii
gabadhiis
gabadhiisa
gabadhiisii
gabadhu
gabagabeeyay
gabagabeeyey
gabal
gabanow
gabar
gabay
gabayaa
gabayaaga
gabayada
gabayadii
gabayadiisa
gabayga
gabaygaas
gabaygan
gabaygii
gabaygu
gabayo
gabdhaha
gabdhihii
gabdho
gabdhood
gabdhuhuna
gabeyre
gabi
gabiley
gabon
gaboobay
gaboobid
gaboow
gaborone
gabow
gabriel
gabya
gabyaa
gabyi
gacal
gacan
gacanka
gacanta
gacantaada
gacantii
gacantiisa
gacantooda
gacayte
gacmaha
gacmahooda
gacmeed
gacmeedka
gacmihiisa
gacmo
gacmood
gad
gadaal
gadaashiis
gadaashiisa
gadabuursi
gadabuursiga
gadan
gaday
gadh
gadhka
gadhle
gadiid
gadisan
gado
gadot
gaduud
gaduudan
gaelic
gaga
gagarinova
gahayr
gaheyr
gain
gal
gala
galaa
galaal
galaan
galaas
galab
galabnimo
galabsan
galabtii
galadaystay
galaddiisu
galan
galatasaray
galax
galaxy
galay
galaya
galayaa
galayaan
galayax
galayda
galaydh
galayo
galayr
galbarwaaqo
galbed
galbedka
galbeed
galbeedka
galbeedku
galbeedna
galcad
galdogob
gale
galeen
galeenka
galey
galeyda
galgaduud
galgala
galgodon
galguduud
galhareeri
gali
galiisiyaan
galin
galinsoor
galinta
galis
galisay
galiso
galitaanka
galiyaa
galiyay
galiyeen
galiyo
galka
galkacayo
galkacyo
galla
gallaha
gallery
galley
galleyda
gallup
gallupdb
galmaax
galmada
galmo
galmoodka
galmoodo
galmudug
galo
galool
galootiga
galuusyo
galy
gama
gambaday
gambela
gambia
game
games
gaming
ganaax
ganac
ganacisga
ganacsada
ganacsadaan
ganacsadaha
ganacsade
ganacsadeh
ganacsado
ganacsan
ganacsatada
ganacsatadii
ganacsato
ganacsi
ganacsiga
ganacsigeeda
ganacsigii
ganacsigooda
ganacsiyada
ganacsiyo
ganassi
ganay
ganbool
gandhi
gandi
ganey
gangnam
gangubai
gantaal
gantaalada
gantaalaha
ganymede
gao
gaon
gaonchart
gar
garaaca
garaacaa
garaacay
garaacaya
garaacayo
garaacday
garaaci
garaaco
garaad
garaadka
garaadkii
garaadku
garaam
garab
garabka
garabla
garacad
garad
garadag
garadka
garan
garanayn
garanayo
garane
garanuug
garanuugle
garanuugta
garas
garashada
garasho
garayaan
garbaha
garbaharey
garbaharrey
garbrecht
garcia
gardafuul
gardaro
garden
gardens
gardheer
gardheere
gare
gareen
gareeyay
gargaar
gargaara
gargaarka
gargaarno
gari
gariga
gariiga
gariir
garissa
garjante
garland
garoob
garoobay
garoomada
garoomo
garoon
garoonada
garoonka
garoonkaan
garoonku
garoowe
garow
garowe
garoweonline
garowga
garre
garry
garsoor
garsooraha
garsoorayaasha
garsoore
garsoorka
garsoorku
garsuge
garta
gartaa
gartada
gartay
garteen
gartey
garto
garuun
garwaale
garweyne
garxajis
gary
garyaqaan
garyaqaanka
gas
gases
gasha
gashaa
gashaan
gashaanle
gashan
gashanle
gashay
gashey
gashi
gasho
gasiirada
gasiiradaha
gasiirado
gatay
gate
gates
gateway
gathering
gato
gauilie
gaulle
gaurav
gauteng
gave
gaw
gawaarida
gawc
gay
gaya
gayiga
gayo
gaysatay
gaystaan
gaystay
gaysteen
gaysto
gaza
gazelle
gazette
gazetteer
gazi
gaziantep
gazprom
gazwat
gb
gc
gcc
gd
gdp
ge
gebi
gebru
gebze
ged
geddisan
gedi
gediid
gedisan
gedo
gedoon
gedoonto
geed
geedaha
geeddi
geedi
geedka
geedkaan
geedkan
geedkani
geedkii
geedku
geedo
geeduhu
geel
geela
geele
geelii
geella
geelle
geelu
geenyo
geeraar
geeraarka
geeri
geerida
geeridii
geeridiisa
geeridu
geerisa
geeriyooday
geeriyoodey
geeriyoodo
geeriyootay
gees
geesa
geesaha
geesi
geesiga
geesigii
geesiley
geesinimada
geesinimo
geesiyaal
geesiyadii
geeska
geeso
geesood
geesoodka
geestay
geeya
geeyaa
geeyaan
geeyay
geeyeen
geeyey
geeyo
geeystay
gegada
gegida
gego
gegooyin
gegooyinka
geingob
gelaya
geledi
geli
gelin
gelinaya
gelinta
gelisa
gelisaa
gelisay
geliso
gelitaanka
geliya
geliyaa
geliyaan
geliyay
geliyeen
geliyey
geliyo
gelle
gelyo
gen
gender
gendershe
gene
genel
genelenergy
generaal
general
generation
genes
geneva
genie
genius
gentlemen
genus
geo
geographic
geographical
geography
geohive
geological
geology
geonames
geophysical
george
georges
georgia
geos
gerais
gerald
gerd
geri
germain
german
germany
gerweyne
geshekter
geshiishe
get
getafe
gets
getting
gettysburg
geun
geyiga
geyn
geynta
geysan
geysatay
geystaan
geystay
geysteen
geysto
gf
gfriend
gg
gh
ghana
gharnaada
gharri
ghazali
ghazi
ghazwah
ghebreyesus
gheri
ghostarchive
gi
gia
giang
giant
gibin
gibraltar
gidaar
gidaarka
giddi
gidhays
gidir
giesecke
gif
gift
gifts
gigawatt
gii
gil
gilgamesh
gimmick
gin
gini
giovanni
giraanta
girgire
giriig
giriiga
giriigga
giriiggii
giriiggu
giriigii
giriigta
giriigu
giriyaad
girl
girlfriend
girls
gis
giselle
gitaar
gitaarka
giulia
giulio
giuseppe
give
given
gives
giza
gj
gk
gl
gladys
glamour
glasgow
glass
global
globalization
globe
glory
gm
gmail
gmbh
gmm
gmt
gn
gnassingbe
gnis
go
goa
goaan
goal
goat
gob
gobalada
gobaleedka
gobalka
gobanimo
gobka
gobo
gobol
gobola
gobolada
goboladaas
goboladda
goboladii
gobolda
goboleed
goboleedda
goboleedka
goboleedyada
goboleedyadu
goboleedyo
gobolka
gobolkaan
gobolkaas
gobolkaasi
gobolkan
gobolkani
gobolkii
gobolku
gobollada
gobollo
gobolo
gobonimo
gobta
god
godaalo
godad
godadka
godan
godane
gode
godeey
godenzi
godey
godka
godleey
godob
godt
goes
gogh
gogol
gogosha
going
gokulam
gol
golaha
golahaasi
golahani
golan
golayaasha
gold
golden
goldstein
gole
golf
golihii
golis
gollaha
golle
gollis
goluhu
golweyn
gomez
gone
gonzalez
goo
goob
goobada
goobaha
goobeed
goobihii
goobjoog
goobjooge
goobo
goobood
goobta
goobtaa
goobtaas
goobtaasi
goobtan
goobtii
goobweyn
good
goodir
goods
goodwin
googarad
google
gool
goolasha
goolka
goolkiisii
goonada
gooni
goonida
gooniya
goor
goorba
goorma
goorta
goortaas
goortaasi
goortii
goortuu
gooryaan
gooryaanka
goos
goosan
goosashada
goosha
goostay
goosteen
goosto
gooya
gooyaa
gooyaan
gooyay
gooyey
gooyn
gooyo
gor
gorbachev
gordon
gorgor
gorgortanka
goro
gorontalo
goronyada
goronyo
gosha
gossip
got
goteborg
gouled
gov
government
governments
governor
governorate
govt
gowraco
gows
goyn
goynta
gp
gps
gq
gr
grabar
grace
graduate
graham
gram
grammy
granada
grand
granda
grande
grant
grapefruit
graphic
grass
gravedigger
gray
great
greater
greatest
greco
greece
greek
green
greenland
greenwich
greenwichmeantime
greenwood
gregory
grenada
grenadines
grenoble
grey
grid
griffin
griinland
grin
grindlays
groep
gross
grossing
ground
group
groups
grove
growing
growth
grp
grps
gs
gsa
gsm
gsma
gst
gt
gu
guadalajara
guadeloupe
guam
guangdong
guangzhou
guantanamo
guarani
guard
guardian
guatemala
guban
gubay
gubo
gubta
gubtay
gud
guda
gudaha
gudaheed
gudaheeda
gudahiisa
gudahood
gudajiray
gudan
gudashada
gudba
gudbaan
gudban
gudbay
gudbaya
gudbayo
gudbeen
gudbi
gudbin
gudbinta
gudbisay
gudbiso
gudbiya
gudbiyaa
gudbiyaan
gudbiyay
gudbiyeen
gudbiyo
gudbo
gudboonaatay
guddi
guddida
guddiga
guddigii
guddiyada
guddoomiyaha
guddoomiye
guddoomiyihii
guddoonsiiyey
gudeheeda
gudi
gudida
gudiga
gudigii
gudihiisa
gudmo
gudniinka
gudo
gudomiyaha
gudomiye
gudomiyihii
gudoomiya
gudoomiyaha
gudoomiyahii
gudoomiye
gudoomiyihii
gudoonka
gudoonsiiyay
gudub
gudubtay
gudubto
guduud
guduudan
guess
guga
gugii
gugundhabe
guidance
guide
guido
guinea
guinness
guitar
gujarat
gujarati
gujis
gul
guled
guleed
gulf
gulfnews
gulled
gulleed
guluf
gumaad
gumaroow
gumaysan
gumaysi
gumaysiga
gumaysigii
gumaystaha
gumaystay
gumaystihii
gumaystuhu
gumeesan
gumeestay
gumeesti
gumeestihii
gumeeysiga
gumeysan
gumeysi
gumeysiga
gumeysigii
gumeystaha
gumeystayaashii
gumeystihii
gumuz
gun
gunaanad
gunagado
gunno
guns
gunta
gunther
gurabia
gurasho
guray
gureey
gurey
gurgure
guri
guriceel
guriga
gurigeeda
gurigii
gurigiisa
gurigiisii
gurigooda
gurigu
gurijoog
gurijooga
guriyeynta
gurmad
gurmadka
guro
gurto
guru
guruub
guruubka
guruubkan
guruubyada
guryaha
guryahooda
guryahoodii
guryihii
guryo
guryuhu
gus
guska
gustav
gutaan
gutenberg
guterres
guto
guubaabin
guud
guudahaan
guudka
guul
guulaha
guulaysan
guulaysatay
guulaysta
guulaystay
guulaysteen
guulaystihii
guulaysto
guuldaradii
guuldareystay
guuldareysteen
guuldaro
guuled
guuleed
guuleestay
guuleeystay
guuleysan
guuleysatay
guuleysato
guuleysi
guuleysta
guuleystaan
guuleystay
guuleystayaasha
guuleysteen
guuleystey
guuleysto
guulihii
guulo
guulwade
guun
guur
guura
guuraa
guuraaga
guuraan
guurada
guuradii
guuray
guure
guureen
guurey
guuri
guurin
guuriyay
guurka
guurkani
guurkooda
guurku
guuro
guursadaan
guursaday
guursadeen
guursadey
guursado
guursan
guursanaa
guursanaayaan
guursanayay
guursanin
guursatay
guurtay
guurtey
guurtida
guurto
guusha
guushii
guushu
guutaale
guutada
guutadaas
guuto
guutooyinka
guvara
guyana
gv
gw
gx
gy
gyeonggi
gypsum
gyu
gyzzvkec
gz
h
h0
h1
h2
h3
h4
h5
h6
h7
h8
h9
ha
haa
haabiil
haad
haafniyaam
haag
haajiray
haajireen
haajirtay
haamaha
haan
haarlem
haaruun
haasaawe
haashim
haatan
haatanna
haatif
haayaan
haayay
haayeen
haayo
hab
haba
habab
hababka
habane
habar
habarcafaan
habargidir
habarjeclo
habaryoonis
habash
habayn
habaynta
habaysan
habboon
habboonayn
habdhaqanka
habdhiska
habeen
habeenada
habeenimo
habeenka
habeenkii
habeeno
habeeyay
habeeyey
habeeyo
haber
habeyn
habeynta
habitat
habka
habkaan
habkaas
habkan
habkii
hablaha
hablood
habluhu
haboon
habr
habsaday
habsami
habsatay
habsburg
habta
hacken
had
hada
hadaa
hadaad
hadaaftimo
hadaan
hadaba
hadad
hadaf
hadafka
hadafkeedu
hadal
hadalada
hadaladii
hadalka
hadalkaas
hadalkaasi
hadalkan
hadalkii
hadalkiisa
hadalkiisii
hadalku
hadallada
hadalladan
hadallo
hadalo
hadame
hadan
hadana
hadane
hadasha
hadashaa
hadashay
hadashey
hadasho
haday
hadba
hadda
haddaad
haddaan
haddaanu
haddaba
haddan
haddana
hadday
haddaynnu
haddaynu
haddi
haddii
haddiise
hadduu
hadduusan
hadey
hadh
hadhaaga
hadhaagii
hadhay
hadhin
hadhiye
hadhow
hadhramaut
hadhuudh
hadhuudhka
hadi
hadid
hadii
hadith
hadiyad
hadla
hadlaa
hadlaan
hadlaayo
hadlay
hadlaya
hadlayaa
hadlayaan
hadlayana
hadlayay
hadlayo
hadlaysa
hadlaysay
hadleen
hadli
hadlin
hadlo
hadraawi
haduu
hae
haga
hagaagsan
hagaajin
hagaajinta
hagaajisa
hagaajiyo
hagaha
hagar
hagaya
hagayay
hagia
hago
hague
hai
haifa
haile
hailey
hair
haiti
haitian
haji
haka
hakaba
hakad
hakan
hakiyay
hakiyo
haku
hal
hala
halaad
halaaleye
halabuur
halabuurka
halbeeg
halbeega
halbeegan
halbeegga
halbeegyada
halbeegyo
halbowlaha
haldoor
haldoorka
hale
haleeli
half
halgamaa
halgamay
halgamayaashii
halgan
halganka
halgankaas
halgankii
halima
halimya
halin
halis
halista
halka
halkaa
halkaan
halkaana
halkaas
halkaasi
halkaasna
halkaasoo
halkan
halkas
halkay
halkbank
halkee
halkii
halku
halkuu
hall
halle
halliburton
hallow
halloween
halmaala
halmar
halogens
halogenska
haloo
halsey
halyeey
halyeeyada
halyeeyadii
halyeeyga
halyeeygii
halyeeyo
halyey
ham
hamad
hambalyo
hamburg
hamburger
hami
hamid
hamilton
hampshire
hamza
hamzada
hamzo
han
hana
hanaan
hanaanka
hanad
hanan
hanaqaad
hanaqaaday
hanashada
hancinema
hand
handbook
handed
handle
hands
hang
hangari
hanging
hangool
hangul
hani
hanja
hanjabaad
hanjabay
hanjin
hankook
hankooki
hankyung
hanlim
hanna
hannaan
hannaanka
hannah
hanoi
hanqal
hans
hantaara
hanti
hantida
hantidaas
hantidii
hantidiisa
hantidooda
hantiwadaag
hantiwadaaga
hantiwadaagga
hanuun
hanuuninta
hanuuniye
hanuunka
haplogroup
happened
happiness
happy
happytoursug
haqab
har
hara
haraad
haraadiga
haraaga
haraash
harada
harag
haraga
haraha
haram
haramcad
harar
harare
hararghe
harari
haray
harbor
harbour
hard
hardware
hare
hareeraha
hareeraheeda
hareeraysan
hareereeyay
hareereeyeen
hareereysan
hareeri
hareersan
hareeyay
hargab
hargabka
hargaha
hargaysa
hargeisa
hargeysa
hariin
harimacadka
harith
haro
harold
haroorays
harooyin
harooyinka
harper
harpersbazaar
harraad
harris
harrison
harry
harsan
hart
harta
hartay
harti
hartiga
harvard
harvnb
has
hasa
hasan
hasanayn
hase
haseyeeshee
hashaan
hashi
hashii
hashika
hashim
hasiyaam
hassan
hastings
hatchepsut
hate
hathaway
hats
hatshepsut
haud
haumea
hausa
haute
havana
have
haven
haw
hawada
hawadu
hawai
hawaii
hawd
hawdka
haween
haweenay
haweenaydii
haweeney
haweeneyda
haweeneydii
haweenka
haweenku
hawiye
hawl
hawlaha
hawlan
hawleed
hawleedka
hawlgab
hawlgal
hawlgala
hawlgalay
hawlgalayaasha
hawlgalka
hawlgalkii
hawlgallada
hawlgallo
hawlihii
hawlkarnimo
hawlo
hawo
hawoda
hawraar
hawraarsame
hawsha
hawshaas
hawshii
hay
haya
hayaa
hayaamay
hayaan
hayaanka
hayada
hayadaha
hayadani
hayadda
hayaha
hayashi
hayat
hayay
hayb
haybad
haybe
hayd
haydarojiin
haydarojiinta
haye
hayeen
hayek
hayey
hayira
haykal
haylaan
hayn
haynin
hayno
haynta
hayo
hays
haysa
haysaa
haysan
haysanno
haysashada
haysata
haysataa
haysatay
haysato
haysay
hayska
hayso
haysta
haystaa
haystaan
haystaha
haystay
haysteen
haystey
haysto
haytihii
hayward
hazal
hb
hbm
hbo
hc
hctv
hd
hdi
hdm
hdms
hdr
he
head
headquarters
health
hear
heard
heart
hearts
heat
heaven
heavy
heb
hebe
hebel
hebrew
hebrewga
hebrow
hedmark
hee
heebaan
heeda
heeg
heegan
heellan
heer
heerar
heerarka
heerka
heerkii
heerkul
heerkulka
heerkulkiisu
heerkulku
heersare
heersareeya
hees
heesa
heesaa
heesaaga
heesaan
heesaha
heesaheeda
heesahooda
heesanin
heesay
heesi
heesihii
heesihiisa
heeska
heeso
heesood
heesta
heestaan
heestaas
heestan
heestay
heesteeda
heesteedii
heestii
heesto
heestu
heeysa
heeysaa
heeysatay
heeysta
hefner
hei
height
heights
heiko
heil
hektar
hel
hela
helaa
helaan
helay
helaya
helayaa
helayaan
helayo
helaysa
held
heleen
helen
helena
helene
heley
heleysaa
heli
helicopter
helid
helida
helidda
helin
helitaanka
heliwa
heliwaa
hell
hellenic
hellenistic
hello
helms
helmut
helnay
helno
helo
help
helping
helsinki
hemorrhagic
hen
henderson
hendrick
hennepin
henry
hentai
heo
hepatitis
her
herald
heraldcorp
herbert
here
herediano
herer
heres
herge
heritage
herman
hermann
hermaphrodite
hernandez
hero
herodotus
herself
hersi
herzegovina
hesha
heshaa
heshay
heshiis
heshiisiinta
heshiiska
heshiiskaas
heshiiskaasi
heshiiskii
heshiisyada
heshiisyadii
heshiisyo
heshiiyaan
heshiiyay
heshiiyeen
heshiiyey
hesho
het
heuer
hey
heyb
heybad
heyn
heynta
heysan
heysata
heysta
heystaa
heystaan
heystay
heysteen
heysto
hf
hg
hh
hi
hibada
hibo
hidaha
hidda
hiddaha
hidde
hidden
hiddo
hido
hieroglyphic
hieroglyphs
high
higher
highest
highland
highlands
highway
higlo
hii
hiigsiga
hiil
hiilinaya
hiiraan
hiiran
hijjah
hijrad
hijrada
hijri
hijriga
hijriya
hijriyad
hijriyada
hijrooday
hijrootay
hilal
hilib
hilibi
hilibka
hilibkiisa
hilibkooda
hiliyaam
hiliyaamta
hill
hillary
hills
hilmaamin
hilowga
hilowle
hilton
him
himilada
himilo
himilooyinka
himself
himyar
hinda
hindi
hindia
hindida
hindiga
hindika
hindisaha
hindisay
hindise
hindiya
hindu
hinduism
hindustan
hindustani
hindustantimes
hinduuga
hintire
hip
hiphopdx
hir
hira
hiraab
hiraabe
hirab
hiran
hirarka
hirgalay
hirgalin
hirgalinta
hirgaliyay
hirgaliyey
hirgaliyo
hirgelin
hirgelinta
hirgelisay
hirgeliyay
hirgeliyey
hirgeliyo
hirka
hirshabeelle
hirshabelle
hirsi
his
hisham
hishiis
hishiiska
hishiiskii
hishiiyay
hispanic
hispaniola
hist
histoire
historia
historic
historical
historically
history
hit
hitachi
hitler
hits
hitter
hiv
hiwaayadda
hj
hjalmar
hk
hl
hm
hn
hnk
ho
hoa
hobart
hobiyo
hobolada
hobolo
hobyo
hodaal
hodan
hodana
hodanka
hodon
hodoon
hoehne
hoffenheim
hogaamin
hogaaminaayay
hogaaminaya
hogaaminayay
hogaaminayeen
hogaaminayey
hogaaminayo
hogaaminaysay
hogaamineed
hogaaminta
hogaamiya
hogaamiyaasha
hogaamiyaha
hogaamiyay
hogaamiyayaal
hogaamiyayaasha
hogaamiyayaashii
hogaamiye
hogaamiyihii
hogaamiyo
hogaan
hogaanka
hogaankii
hogaansamo
hoggaaminaya
hoggaaminayay
hoggaaminayey
hoggaamineed
hoggaaminta
hoggaamiyaha
hoggaamiyay
hoggaamiyayaasha
hoggaamiye
hoggaamiyeyaasha
hoggaamiyihii
hoggaamiyo
hoggaan
hoggaanka
hoggaankii
hoggaansamaan
hoi
hoka
hokkien
holac
holand
holandees
hold
holding
holdings
holiday
holland
hollywood
hollywoodreporter
holmes
holocaust
holy
home
homepage
homes
homo
honduras
honey
hong
honolulu
honor
honoured
honshu
hoo
hoobaan
hoobtay
hood
hooda
hoog
hool
hoolka
hoon
hoos
hoosaad
hoosaadka
hoosaadyo
hoosaysa
hoosdhaban
hoosdhow
hoose
hooseeya
hooseeyaa
hooseeyo
hooseysa
hoosgala
hoosingo
hoosingow
hoosta
hoostaga
hoostagta
hoostagtaa
hoosteeda
hoostegtaa
hoostiisa
hoostooda
hoosu
hoosyimaada
hooy
hooya
hooyaalayeey
hooyada
hooyaday
hooyadeed
hooyadeedna
hooyadii
hooyadiis
hooyadood
hooyadu
hooyay
hooyey
hooyga
hooyo
hooyoda
hooyooyin
hooyooyinka
hop
hope
hopkins
hor
horaantii
horay
horayay
horayba
horayn
horayna
horaysa
horaysay
horayso
hordaland
hordhac
hordhaca
hore
horeba
horee
horeesay
horeeya
horeeyaan
horeeyay
horeeye
horeeyey
horeeyo
horeeysa
horeeysay
horeeyso
horena
horey
horeyay
horeyn
horeysa
horeysay
horeysey
horizon
horizonte
horjeeda
horjeedaa
horjeedaan
horjeeday
horjeedda
horjeedeen
horjeedka
horjeedo
horjeestay
hormar
hormaray
hormarin
hormarinta
hormariyay
hormariyo
hormarka
hormaro
hormarsan
hormartay
hormood
hormos
hormuud
hormuudka
horn
horraantii
horrayn
horrayntii
horraysay
horreeya
horreeyaan
horreeyay
horreeyey
horreyn
horreyntii
horreysa
horreysay
horreysey
horse
horseed
horseeday
horseedday
horseedi
horseedmedia
horst
hort
horta
hortaada
hortaagan
hortag
hortaga
hortagga
hortagi
hortago
hortagtaa
horteed
horteeda
horticulture
hortii
hortiis
hortiisa
hortooda
horu
horudhac
horukaca
horumar
horumaray
horumarin
horumarineed
horumarinta
horumarisay
horumariyaan
horumariyay
horumariyey
horumariyo
horumarka
horumarkeeda
horumarku
horumarsan
horus
horuu
horyaal
horyaalada
horyaalka
horyaalkii
horyimid
hose
hosek
hosh
hospital
hossain
host
hosts
hot
hoteel
hoteelada
hoteelka
hoteelo
hotel
hotelada
hotelka
hotels
hotmail
hotspur
hour
hours
house
household
housing
houston
houthi
houthis
how
howard
howd
however
howl
howlaha
howlgal
howlgala
howlgalada
howlgalay
howlgalka
howlgalkii
howlgalo
howlgasha
howlo
howlwadaag
howraarsame
howsha
howshii
howston
hoy
hoyga
hoygasuugaanta
hp
hq
hr
hrithik
hrw
hs
hsu
ht
htm
html
http
https
hu
hub
hubaa
hubaal
hubaysan
hubaysnaa
hubeer
hubeeysan
huber
hubeysan
hubi
hubin
hubinta
hubiyo
hubka
hubkii
hubo
hud
huda
hudet
hudhaifa
hudheel
hudheelada
hudheelka
hudheelo
hudson
hufan
huffingtonpost
hufnaan
huge
hugh
hughes
hugo
hui
huluul
hum
human
humanitarian
humanity
humble
hun
hundo
hundred
hundreds
hung
hungama
hungari
hungary
hunger
hunguri
hunguriga
hunt
hunter
huraan
huray
hurdada
hurdo
hureyra
huriwaa
hurre
hurricane
hurriyet
hurriyetdailynews
huruud
huruuda
huryo
husayn
husband
husein
husen
hussain
hussein
hustler
hut
huteel
hutu
huud
huur
huwan
huyayy
hv
hw
hwa
hwan
hwang
hx
hy
hyde
hyderabad
hydrocarbons
hydrogen
hydropower
hye
hyena
hyeon
hyo
hyori
hyperion
hypermarket
hyuk
hyun
hyuna
hyundai
hyung
hyva
hyvaa
hz
i
i0
i1
i2
i3
i4
i5
i6
i7
i8
i9
ia
iaaf
iadb
iaea
ian
iata
iau
ib
iberian
ibge
ibis
iblays
ibliiska
ibn
ibnlive
ibnu
ibraahiim
ibraahim
ibraahin
ibrahiim
ibrahim
ibrahin
ibrd
ibtimes
ic
icao
icc
ice
iceland
ick
icon
icrc
icsid
ict
ictiraaf
icy
id
ida
idaacad
idaacada
idaacadaha
idaacadda
idaajaa
idada
idaha
idaho
idarays
identified
identity
idhi
idho
idiin
idiinku
idil
idin
idinka
idinkaga
idinkoo
idinku
idinla
idiris
idlaado
idle
idman
idmo
ido
idol
idols
idolyada
idriis
idris
iduskcn
idx
idxno
ie
if
ifafaale
ifat
ifbaxay
ifk
ifka
iftiimaya
iftiin
iftiinka
iftiinkuna
iftin
iftinka
ig
iga
igad
igaha
igama
igbo
igmaday
ignored
igo
igor
igta
igtii
igtu
igu
igula
ih
ihi
iho
ii
iib
iibin
iibinta
iibisa
iibisay
iibiso
iibiya
iibiyaa
iibiyaan
iibiyaha
iibiyay
iibiyeen
iibiyey
iibiyo
iibka
iibsada
iibsadaan
iibsaday
iibsadeen
iibsado
iibsan
iibsanaya
iibsashada
iibsatay
iibsato
iibsi
iibsiga
iid
iidada
iidaysan
iidaysiga
iidaysto
iideysanaya
iideystaan
iidle
iido
iidooyin
iidooyinka
iidow
iifaalkii
iiga
iigu
iii
iil
iimaan
iimaanka
iimaankooda
iin
iir
iiraan
iisal
iisul
iisulwasaaraha
ij
ik
ikea
ikhtiyaar
ikhtiyaari
ikhtiyaarka
ikraan
ikwadoor
ikweetiga
il
ila
ilaa
ilaah
ilaaha
ilaahay
ilaahayna
ilaaheey
ilaahey
ilaahii
ilaahnimada
ilaahow
ilaahyada
ilaahyo
ilaalada
ilaali
ilaalin
ilaalinaya
ilaalinayo
ilaalino
ilaalinta
ilaalisa
ilaalisaa
ilaaliso
ilaaliya
ilaaliyaa
ilaaliyaan
ilaaliyaha
ilaaliyay
ilaaliye
ilaaliyo
ilaalo
ilaashadaan
ilaawaan
ilaaway
ilaawi
ilad
ilada
ilaha
ilahay
ilays
ilayska
ilbaab
ilbaabka
ilbax
ilbaxnimada
ilbaxnimadii
ilbaxnimadu
ilbaxnimo
ilbaxsan
ilbiriqsi
ilbiriqsigiiba
ilbo
ilc
ile
ileen
ileeye
ileys
ileyska
ili
ilig
ilik
ilka
ilkagaduud
ilkaha
ilko
ilku
ilkuhu
ill
illa
illaa
illaah
illaahay
illahay
illahow
illegal
illinois
illustrated
ilma
ilmaha
ilmahiisa
ilmihii
ilmihiisa
ilmo
ilmuhu
ilo
iloobi
ilyaas
ilyas
im
ima
imaada
imaadaa
imaadaan
imaaday
imaadeen
imaado
imaam
imaamka
imaamkii
imaamu
imaamyada
imaan
imaanaya
imaanayaa
imaanayay
imaanayo
imaanin
imaanshaha
imaaraadka
imaaraatka
imaarada
imaaradaha
imaaradihii
imaaradii
imaatinka
image
images
imam
iman
imanaya
imanayay
imanaysa
imbiraadoor
imbiraadoorka
imbiraadoorkii
imdb
imf
img
imgrc
imid
imika
imikana
iminka
iminkana
imisa
immigration
imo
impact
imperial
implementation
import
importance
important
imran
imsiadmin
imtixaan
imtixaanka
in
ina
inaa
inaad
inaadan
inaan
inaanan
inaanay
inaanu
inaga
inagu
inan
inanka
inanta
inay
inaynu
inaysan
inb
inbadan
inc
inca
incest
inch
incheon
include
included
includes
including
income
incorporated
increase
ind
independence
independent
index
indha
indhacade
indhadeero
indhaha
indhahooda
indhahoodu
indheer
indhihiisa
indho
indhood
indhoole
indhuhu
india
indian
indiana
indianexpress
indians
indias
indiatimes
indiatoday
indicated
indicator
indicators
indicopleustes
indies
indigenous
indikvorto
individual
individuals
individuo
indiya
indo
indochina
indonesia
indonesian
indunisiya
indus
industrial
industries
industry
ine
ineey
inequality
iney
ineysan
infinity
influence
influencer
influential
info
infobox
infopankki
information
infrastructure
ing
ingaris
ingiriis
ingiriisa
ingiriisi
ingiriisiga
ingiriiska
ingiriisku
ingriis
ingriisiga
ingriiska
ingriisku
inhabit
inhabited
initiative
initiatives
inj
inji
injiil
injineer
injineerinka
injineernimada
inka
inkabadan
inkasta
inkasto
inkastoo
inkigayo
inkishaariyiinta
inn
inna
innaba
innaga
innagu
inner
innocent
innovation
innuendo
innvbef
inoo
inooga
inoogu
input
inqilaab
inqilaabka
inqilaabkii
inr
insaanka
insee
insha
inside
insider
insight
insights
inspiration
inspired
instagram
instead
instinct
institut
institute
institution
institutions
instituto
instruction
instrument
int
inta
intaa
intaad
intaan
intaanay
intaanu
intaas
intaasi
intaasoo
intaba
intabadan
intay
intaysan
intee
inteeda
integration
intellectual
intelligence
intelligent
intent
inter
interactive
intercontinental
interest
interior
intermediate
internal
international
internationale
internazionale
internet
internetka
interpretation
intersex
interview
interviews
intey
intezaar
intii
intiisa
intl
into
intoday
intooda
introduction
intuu
intuusan
inu
inuu
inuusan
invalid
invasion
invention
investment
investor
inyar
io
ioan
iom
ion
ionic
iora
iowa
ip
ipa
iphone
ipl
iq
iqbaal
ir
iraan
iran
iranian
iraq
irc
ireland
irene
irfan
iri
irib
irid
iridiyaam
irina
irir
iris
irish
irland
iron
irrir
is
isa
isaac
isaaq
isaaqa
isabel
isabella
isaga
isagaa
isagana
isagii
isago
isagoo
isagoon
isagoona
isagu
isaguna
isaias
isak
isaq
isaxaaq
isb
isbaaheysiga
isbaaheysigu
isbaanish
isbaanishka
isbaanishku
isbadal
isbahaysi
isbahaysiga
isbahaysigii
isbaheysiga
isbania
isbanish
isbanishka
isbarbar
isbarbardhig
isbayn
isbeddel
isbeddelada
isbeddelka
isbeddellada
isbedel
isbedela
isbedelada
isbedeli
isbedelin
isbedelka
isbitaal
isbitaalada
isbitaalka
isbitaalo
isbn
isboorti
isboortiga
isch
isdaba
isdabajoog
isdhexgalka
isfahan
isga
isgaadhsiin
isgaadhsiinta
isgaariinta
isgaarsiin
isgaarsiinta
isgooska
isgoyska
isgoysyada
isgu
isha
ishacyaah
ishbeeliya
isii
isimada
isir
isirka
isis
isixaaq
isjiidka
iska
iskaa
iskaandhiyaam
iskaashatada
iskaashi
iskaashiga
iskaga
iskahorimaadka
iskala
iskama
iskana
iskeed
iskii
iskiis
iskood
iskool
iskoolada
iskoolka
iskotland
isku
iskubedelay
iskudar
iskudarka
iskuday
iskudhafka
iskudhex
iskudhisyada
iskudhisyo
iskudhufashada
iskudhufasho
iskuduwaha
iskugeyn
iskugeynta
iskugu
iskula
iskuma
iskuna
iskuqabashada
iskuqabto
iskuqaybin
iskuqeybin
iskushuban
iskuugu
iskuul
iskuulada
iskuulka
iskuulo
iskuwareeg
iskuxidha
iskuxidhka
isla
islaam
islaama
islaamay
islaameen
islaami
islaamiga
islaamiya
islaamiyiinta
islaamka
islaamkana
islaamku
islaamkuna
islaamnimo
islaan
islaax
islam
islamarkaana
islamarkaas
islamarkaasna
islamic
islamka
islamqa
islamweb
island
islands
isle
islii
islofaakiya
islofeeniya
isloveeniya
isma
ismaaciil
ismaacil
ismaamul
ismaamulka
ismaan
ismaciil
ismacil
ismail
ismiidaamin
isn
isna
isniin
isniinta
iso
isoo
isotope
isotopeka
isotopeyada
isotopeyo
isqurxin
israa
israaca
israafiil
israaiil
israel
israeli
isruxayaan
issa
isse
issn
issue
issues
ist
istaag
istaaga
istaagay
istaagayo
istaagi
istaago
istaagtay
istabta
istambul
istanbul
istanbuul
istandharka
istaraatiiji
istaraatiijiga
istaraatiji
istat
isticmaal
isticmaala
isticmaalaa
isticmaalaan
isticmaalaha
isticmaalay
isticmaalaya
isticmaalayaasha
isticmaalayaashu
isticmaalayay
isticmaalayo
isticmaale
isticmaaleen
isticmaali
isticmaalin
isticmaalka
isticmaalno
isticmaalo
isticmaarka
isticmaarkii
isticmaashaa
isticmaashay
isticmaasho
isticmala
isticmalaan
istiraatiiji
istiraatiijiga
istoroontiyaam
istuska
istuudiyaha
isu
isuduwaha
isuduwe
isugeyn
isugu
isul
isuma
isutagga
isweydaarsiga
iswidhan
iswidhish
iswiidhan
iswiidhishka
iswiidish
iswisarland
isxaaq
isxijiwaaq
it
italia
italian
italiana
italiano
italo
italy
itc
item
itemcat
itemid
items
itga
ito
itobiya
itoobiya
itoobiyaan
itoobiyaanka
itoobiyana
itoobiyo
itriyaam
its
itself
ittihad
itu
itunes
itzy
iu
iucn
iv
ivan
ivo
ivoire
ivory
iw
iwm
ix
ixtiraam
ixtiraamaan
ixtiraamka
ixtiraamo
ixtiraamto
iy
iya
iyada
iyadaa
iyadana
iyadna
iyado
iyadoo
iyadoon
iyadu
iyaduna
iyaga
iyagana
iyago
iyagoo
iyagoon
iyagu
iyaguna
iyana
iyay
iyda
iye
iyey
iyi
iyo
iz
izgoowe
izniik
j
j0
j1
j2
j3
j4
j5
j6
j7
j8
j9
ja
jaa
jaad
jaadad
jaadka
jaahiliga
jaalaha
jaale
jaaliyada
jaaliyadaha
jaaliyadda
jaalkojiin
jaalle
jaamac
jaamaca
jaamacad
jaamacada
jaamacadaha
jaamacadda
jaamacaddaha
jaamacadeed
jaamacadii
jaamacado
jaamacadood
jaamacadu
jaamcada
jaamic
jaamud
jaan
jaandi
jaandiga
jaangooyooyinka
jaantuska
jaantusyada
jaar
jaarka
jaarso
jaaska
jab
jabaan
jabaaniis
jabal
jaban
jabarti
jabay
jabbaan
jabban
jabeen
jaberti
jabhad
jabhada
jabhadaha
jabhadda
jabhaddii
jabhadihii
jabhadii
jabin
jabinta
jabisay
jabiyay
jabiyeen
jabiyey
jabiyo
jabka
jabkaas
jabkii
jabouti
jabshay
jabtay
jabuuti
jacar
jacayl
jacaylka
jacaylkii
jacaylku
jaceel
jacel
jaceyl
jaceylka
jacfar
jack
jackson
jacob
jacqueline
jacques
jad
jadad
jade
jadiid
jadwal
jadwalka
jae
jagada
jagadaasi
jago
jagooyin
jagooyinka
jaha
jahawareerka
jaho
jahsh
jahwareer
jahwareerka
jajab
jajabiyey
jajabka
jakarta
jake
jala
jalaatada
jalaato
jalal
jalalaqsi
jalaq
jaleecay
jaliilka
jam
jama
jamaacada
jamaal
jamaame
jamac
jamacad
jamacada
jamadi
jamaica
jamal
jamayka
jambi
jamciyada
jameecada
james
jamhuriyada
jamhuriyadda
jamhuuri
jamhuuriga
jamhuuriya
jamhuuriyad
jamhuuriyada
jamhuuriyadda
jamhuuriyadii
jamhuuryada
jan
janaale
janaasada
janaayo
janada
janaraal
janawa
janawari
jane
janeiro
janes
janet
jang
jannaayo
jannada
jannadii
jannay
janno
jannuu
jano
january
janus
japan
japanese
japans
japantimes
jar
jaraa
jaranjarada
jarar
jaray
jarayo
jardiinooyin
jardiinooyinka
jareer
jari
jarin
jarir
jarjaray
jarmal
jarmalka
jarmalku
jaro
jartay
jasiira
jasiirad
jasiirada
jasiiradaan
jasiiradaha
jasiiradda
jasiiraddu
jasiirado
jasiiradood
jasiiradu
jason
java
javanese
jawa
jawaab
jawaaba
jawaabaan
jawaabaha
jawaabay
jawaabaya
jawaabayo
jawaabeen
jawaabey
jawaabo
jawaabta
jawaabtay
jawaabtii
jawaabtu
jawaan
jawaari
jawaay
jawhar
jawi
jawiga
jawiil
jaxshi
jay
jaya
jayanti
jayne
jazeera
jaziira
jaziirad
jaziirada
jazira
jazz
jb
jc
jd
je
jean
jeanne
jebel
jebinta
jebisay
jebiyaa
jebiyay
jebiyey
jebiyo
jecaylka
jecaylkan
jecaylku
jecel
jecelahay
jecelyahay
jecelyihiin
jeceshahay
jeclaa
jeclaada
jeclaadaan
jeclaaday
jeclaado
jeclaan
jeclaayeen
jeclahay
jeclayn
jeclaystay
jecle
jeclo
jeddah
jeeb
jeebka
jeed
jeeda
jeedaa
jeedaan
jeedada
jeeday
jeedda
jeedday
jeedeen
jeedin
jeedinaya
jeedinayaa
jeedinayaan
jeedinaysaa
jeedinta
jeedisay
jeediyay
jeediyeen
jeediyey
jeediyo
jeedo
jeeh
jeejniya
jeel
jeelka
jeenyo
jeer
jeermiska
jeestay
jeesteen
jeesto
jeex
jeexan
jeff
jeffrey
jehovah
jehovas
jeju
jek
jen
jenaraal
jeneraal
jeneral
jeniifa
jenner
jennie
jennifer
jens
jeon
jeong
jeremy
jermaaniyaam
jersey
jerusalem
jessi
jessica
jest
jesus
jesy
jet
jewel
jewish
jews
jeylaani
jf
jg
jh
jha
ji
jiah
jiangsu
jibaaran
jibbaaran
jibraacin
jibraltaar
jibriil
jibril
jid
jidadka
jidbaale
jiddah
jidh
jidhi
jidhka
jidhkiisu
jidhkooda
jidhku
jidka
jidkaas
jidkii
jidwaaq
jidweyn
jifo
jigjiga
jihaad
jihaadka
jihad
jihada
jiho
jihyo
jiicdheere
jiid
jiida
jiidadka
jiidan
jiidashada
jiidasho
jiidata
jiidatay
jiidato
jiiday
jiidh
jiido
jiif
jiifa
jiifka
jiil
jiilaal
jiilaalka
jiilal
jiilka
jiingada
jiir
jiirka
jiis
jiiska
jiita
jiitaan
jiitay
jiito
jijeele
jijiga
jikada
jiko
jilaa
jilaaga
jilaagii
jilaajiid
jilaayaasha
jilay
jilaya
jilayaal
jilayaan
jilayaasha
jilaysay
jilbaha
jileec
jileysay
jileyso
jili
jilib
jilibka
jilicsan
jilicsanaanta
jilista
jilitaanka
jilitaankeedii
jilo
jilyaale
jim
jimale
jimcaale
jimcaha
jimce
jimcihii
jimciyada
jimco
jimicsi
jimicsiga
jimmy
jin
jinacsani
jineefa
jinka
jinku
jinnah
jinni
jinsi
jinsiga
jinsiyada
jinsiyadaha
jinsiyadda
jinsiyado
jir
jira
jiraa
jiraan
jiran
jirana
jiray
jirdhiska
jirdil
jirdilka
jire
jiree
jireed
jireen
jireenka
jirey
jiri
jirid
jirida
jirin
jiritaanka
jirjir
jirka
jirkaaga
jirkeeda
jirkiisa
jirkooda
jirku
jirnay
jirno
jiro
jirow
jirrada
jirridda
jirro
jirsaday
jirta
jirtaa
jirtay
jirtey
jirto
jishay
jism
jiyooloji
jizyo
jj
jk
jl
jm
jmagazine
jmc
jn
jo
joachim
joan
joanna
joao
job
jobs
jochebed
joe
joel
joh
johann
johannes
johannesburg
johar
john
johnny
johnson
johnston
johor
join
joins
joinsmsn
joint
jojebed
jolie
jomo
jon
jonah
jonas
jonathan
jones
jong
joo
jooe
joog
jooga
joogaa
joogaan
joogay
jooge
joogeen
joogey
joogga
joogi
joogiisu
joogin
joogitaanka
joogno
joogo
joogsaday
joogsi
joogsiga
joogta
joogtaa
joogtada
joogtax
joogtay
joogto
jooji
joojin
joojinta
joojisay
joojiso
joojiyaan
joojiyay
joojiyey
joojiyo
joon
joongang
joorjiya
joornaal
joornaalada
joornaalka
joornaalku
jordan
jordyn
jorge
jose
josef
joseph
josh
journal
journalist
journals
journey
jowhar
jowle
joy
joyce
jp
jpeg
jpg
jpl
jpy
jq
jr
js
jsf
jsl
jsp
jstor
jt
jtbc
ju
juan
juba
jubada
jubadda
jubaland
jubba
jubbada
jubbadda
jubbaland
jubbooyinka
jubooyinka
judge
jufada
jufooyin
jul
julaay
julay
jules
juli
julia
julian
julie
julien
juliet
julio
julius
july
juma
jumlada
jump
jun
june
juneyd
jung
jungah
jungle
junior
junji
jupiter
juqraafi
juqraafiga
juqraafiyeed
juquraafi
juquraafiga
just
justice
justin
juul
juun
juunyo
juventus
juwayriyya
jv
jw
jx
jy
jyp
jz
k
k0
k1
k2
k3
k4
k5
k6
k7
k8
k9
ka
kaa
kaab
kaabayaal
kaabayaasha
kaabayaashiisa
kaabayaashu
kaadhadhka
kaadhka
kaadi
kaadida
kaaf
kaaga
kaah
kaahin
kaahiye
kaal
kaalandarka
kaalay
kaalin
kaalinta
kaalintii
kaaliyaha
kaaliye
kaalmada
kaalmo
kaalshiyaam
kaam
kaama
kaamamka
kaamil
kaan
kaana
kaar
kaaraan
kaararka
kaarbon
kaarboon
kaarboonka
kaarboonku
kaarboonta
kaarboontu
kaaribiyaanka
kaariibiyaanka
kaariye
kaarka
kaarootka
kaarshe
kaas
kaashadaan
kaashaday
kaashadeen
kaashanaya
kaashanayo
kaashanaysa
kaashatay
kaasi
kaasiyaam
kaaso
kaasoo
kab
kaba
kabacdi
kabadan
kabaha
kaban
kabanka
kabashada
kabaxa
kabaxay
kabaxsan
kabhi
kabilaabay
kabka
kablalax
kabo
kabtan
kabtanka
kabtankii
kabul
kabuldheh
kac
kaca
kacaan
kacaanka
kacaankii
kacaanku
kacab
kacay
kacaya
kacayaa
kacayo
kacbada
kacbadu
kacdaayoo
kacday
kacdo
kacdoon
kacdoonka
kacdoonkii
kacdoonno
kaceen
kaco
kacsan
kacsi
kacsiga
kada
kadanbeeyay
kaddare
kaddib
kaddibna
kaddour
kadhacay
kadhashay
kadhaxeeyo
kadhisan
kadi
kadib
kadibna
kadibne
kadis
kadiye
kafaala
kafee
kafeega
kaftan
kaga
kagana
kahin
kahor
kahoreeyay
kai
kaif
kaizer
kaj
kajira
kajiray
kajol
kaka
kakan
kakao
kakooban
kakoobantahay
kal
kala
kalaay
kalaba
kalabar
kalabaxaa
kalabaydh
kalabayr
kalacag
kaladuwan
kalagoyn
kalahari
kalana
kalandar
kalandarka
kalane
kalank
kalar
kalasaaraha
kalashnikov
kalba
kale
kaleba
kalee
kalena
kalgacal
kali
kalifay
kalifornia
kaliforniya
kaliftay
kaligeed
kaligii
kaligiis
kaliil
kalimantan
kaliya
kalkaalisada
kalkaaliye
kalla
kalle
kalliftay
kalloo
kalluumaysiga
kalluumeysi
kalluumeysiga
kalluun
kalluunka
kalmad
kalmada
kalmadaha
kalmado
kalo
kaloo
kaloon
kalsoon
kalsoonaan
kalsooni
kalsoonida
kalsoonidii
kalthum
kaltuum
kaluumaysato
kaluumaysiga
kaluumeysiga
kaluun
kaluunka
kama
kamaba
kamal
kamana
kamarad
kamay
kambodiya
kamid
kamida
kamidka
kamidtahay
kamidyahay
kamidyihiin
kamiruun
kampala
kampong
kampot
kamsuuma
kamuu
kan
kana
kanaal
kanaalada
kanaalka
kanada
kanadiyaanka
kanal
kandahar
kane
kaneecada
kaneecadu
kaneeco
kang
kani
kaniif
kaniisad
kaniisada
kaniisadaha
kaniisadda
kaniisado
kannaan
kannada
kanooni
kanooniga
kansarka
kansas
kantaroolka
kanye
kaohsiung
kaolin
kapasia
kaplan
kapoor
kaqayb
kaqeyb
kar
kara
karaa
karaama
karaamada
karaamo
karaan
karabiya
karachi
karaman
karan
karanle
karate
karay
karayn
kardashian
kardashians
kareena
karen
kargil
kari
kariibiyaanka
kariim
kariimka
karim
karin
karina
karinayo
karinbiyood
karinta
kariyaa
kariyay
kariyey
kariyo
karka
karkaar
karkariyo
karl
karlos
karmiyaan
karnaa
karnataka
karno
karo
karootada
karootadu
karsado
karsan
karta
kartaa
kartaan
karti
kartid
kartida
karto
kartoonka
kas
kasakhstan
kasbaday
kasbatay
kashmir
kashmiri
kasi
kasii
kaso
kasoo
kasoojeeda
kasta
kastaa
kastaba
kastana
kasto
kastoo
kastuu
kasyna
kasyno
kat
katagay
katalin
kate
katherine
kathiawadi
katirsan
katirsantahay
katooliga
katrina
kattan
katy
kaur
kawaanka
kawada
kawnayn
kawsar
kaxda
kaxiga
kay
kaya
kayahay
kayar
kayd
kaydinta
kaydiyay
kaydiyo
kaydka
kaydsan
kayimaada
kayimi
kaymaha
kaymo
kayn
kaynaan
kaynta
kayse
kayseri
kazakhstan
kazan
kb
kbs
kc
kd
ke
kebede
kediye
kee
keeda
keedii
keedu
keeg
keega
keen
keena
keenaa
keenaan
keenadiid
keenay
keenaya
keenaysa
keenaysaa
keeneen
keeni
keenin
keeno
keenta
keentaa
keentay
keento
keep
keeper
keepers
kehna
keith
kelfin
keli
keliga
keligii
keligiis
keliya
kelli
kelly
kelmad
kelvin
kemal
ken
kendall
kenema
kennedy
kenneth
kent
kentucky
kenya
kenyan
kenyaoo
kenyatta
kep
kerala
kerma
kerosene
kerr
ket
kevin
kew
key
keyd
keydiyay
keydiyo
keydka
keydsan
keymaha
keymo
keyn
keyna
keynta
kf
kff
kg
kh
khaag
khaalid
khaan
khaanadaha
khaas
khaasatan
khaaska
khaatumo
khaatuun
khabiir
khad
khadaab
khadadka
khadar
khaddiija
khaddiijo
khadiija
khadija
khadka
khadra
khafiif
khafiifka
khafiifsan
khaimah
khaire
khal
khalad
khaladaad
khaladka
khalaf
khaldaan
khaldan
khaldin
khaldun
khalduun
khalid
khalif
khalifa
khaliif
khaliifa
khaliifka
khaliifkii
khaliijka
khaliil
khalil
khalkhal
khalkhalayo
khamaarka
khamiir
khamiis
khamiista
khamri
khamriga
khan
khandaq
khaniis
khaniisnimada
khans
kharash
kharashaadka
kharashka
kharashyada
khariidad
khariidada
khariidadaha
khariidadda
kharribin
khartoum
khartuum
khasaare
khasaaro
khasab
khasabka
khasatan
khasbay
khatar
khataraha
khatarta
khatimay
khatoon
khattab
khatumo
khatun
khaybar
khayr
khayraad
khayraadka
khayre
khayrka
khea
kheybar
kheyr
kheyraad
kheyraadka
kheyre
khibrad
khibradda
khilaaf
khilaafaad
khilaafaadka
khilaafada
khilaafadii
khilaafeen
khilaafka
khilaafkii
khilaafku
khilaafo
khilaafsan
khilaafyada
khilaafyo
khiyaali
khiyaaliga
khiyaamo
khiyaanada
khiyaano
khloe
khmer
khmum
khor
khrushchev
khubarada
khubaro
khudaar
khudaarta
khudbad
khudrada
khudradda
khulafada
khulafadii
khulafo
khulna
khunais
khuraafaadka
khuraasaan
khuseeya
khuseeyaan
khuwaylid
khuzayma
khwarizmi
khyber
ki
kia
kibaki
kibir
kici
kicin
kicinta
kicis
kicisay
kicitimay
kicitimeen
kiciyaa
kiciyay
kiciyey
kiciyo
kick
kid
kidd
kidman
kidney
kids
kiel
kieli
kielioppi
kien
kiev
kigali
kii
kiiba
kiilo
kiilogaraam
kiilomitir
kiiloo
kiiloomitir
kiimikaad
kiimikada
kiimikooyinka
kiin
kiina
kiinya
kiis
kiisa
kiisaska
kiiska
kiisuna
kiitoksia
kiitos
kikongo
kililka
kililoch
kilinka
kill
killed
killer
killing
kills
kilo
kilometer
kilometres
kilomitir
kim
kimikeed
kimiko
kimikooyin
kimistari
kimisteri
kimisteriga
kind
kindness
king
kingdom
kings
kingston
kinokuniya
kinshasa
kinsi
kio
kippur
kirada
kirgistan
kiribati
kiribtoon
kirishmiska
kirishtaanka
kirismaska
kiristaan
kiristaanka
kiristanka
kiristofer
kirja
kiro
kirundi
kismaayo
kismayo
kispest
kisraa
kiss
kiswahili
kit
kitaab
kitaabiga
kitaabka
kitaabkan
kitaabkii
kitaabkiisa
kitaabku
kitaabta
kitab
kitarovic
kite
kito
kitts
kiu
kj
kjellberg
kk
kl
kle
klein
klima
klm
km
kmc
kmg
kn
knaan
knife
knight
knights
knock
knottnerus
know
knowledge
known
ko
kobaca
kobalti
kobcay
kobcaya
kobcin
kobcinta
kobciyo
kobe
kobernishiyaam
koberta
koboc
koboca
koc
kof
kofi
kofinka
kofur
koka
kol
kola
kolayga
kolba
kolestaroolka
koleyga
kolka
kolkaas
kolkata
kolkii
kolkuu
kolombiya
kolombus
kolonbiya
koloriin
kolumbus
kombiyuutar
kombiyuutarada
kombiyuutarka
kombuyuutarada
kombuyuutarka
kombuyuuterka
komishanka
komoros
komprenas
kompreni
kon
konfur
konfurta
konfuur
kong
kongo
konton
kontonka
konya
koob
koobaad
koobab
koobabka
kooban
koobantahay
koobanyahay
koobanyihiin
koobay
koobi
koobka
koobkii
koobna
koobnaa
koobnaan
koobnaayeen
koobnayd
koobnayn
koobo
kooda
koodh
koodhka
koodii
koofar
koofi
koofiga
koofiyad
koofur
koofureed
koofurta
kook
koolaha
koollada
koombe
koombuyuterka
koon
koonfur
koonfurbari
koonfured
koonfureed
koonfureedna
koonfurgalbeed
koonfurna
koonfurta
koonfuta
koongo
koonka
koonkan
koorsada
koorso
koorsooyinka
kooshin
koowaad
koox
kooxa
kooxaha
kooxda
kooxdaan
kooxdaas
kooxdan
kooxdani
kooxdeeda
kooxdii
kooxdu
kooxeed
kooxihii
kooxo
kooxood
koppen
kor
koraa
koraan
korantada
koray
koraya
koraysa
koraysay
kordhay
kordhaya
kordhaysa
kordheen
kordheysa
kordhi
kordhin
kordhinta
kordhisay
kordhiso
kordhiyaan
kordhiyay
kordhiyeen
kordhiyey
kordhiyo
kordho
kore
korea
koreaboo
koreaherald
koreajoongangdaily
korean
koreanfilm
koreas
koreatimes
koreeye
koreeyee
koreysa
korinta
korintos
korisay
koritaan
koritaanka
koriyaan
koriyay
koriyey
koriyo
korka
korkeeda
korkiisa
korkooda
kormeer
kormeera
kormeeraha
kormeeray
kormeerka
kormeero
kornayl
koro
korodhay
korodhka
korona
korontada
koronto
korontoda
koror
kororka
korortay
korreeye
korsaday
kortay
korto
kosdaq
kosofo
kosovo
koulu
kourtney
kovid
kow
kowaad
kowda
kp
kpop
kpopherald
kpopstarz
kq
kr
kra
krasnodar
kratie
krishna
kristoffer
kromhout
krona
krystal
ks
ksh
ksrelief
kst
kstyle
kt
ktore
ktp
ktv
ku
kuala
kuba
kubad
kubada
kubadda
kubartay
kubbada
kubbadda
kubed
kubedka
kubiiray
kubo
kubra
kuch
kud
kudhaa
kudhashay
kudhaw
kufa
kufaartii
kufilan
kufsi
kufsiga
kugu
kuhadla
kuhadlaan
kuinka
kujir
kujira
kujiraa
kujiraan
kujirto
kul
kula
kulaala
kulafo
kulahaa
kulamada
kulan
kulanka
kulankaas
kulankeedii
kulankii
kulankiisii
kulankooda
kulankoodii
kulanno
kulantay
kulantey
kulanto
kulayl
kulaylaha
kulaylka
kuleedahay
kuleelka
kuleh
kuleyl
kuleylaha
kuleylka
kuliyada
kuliyadaha
kuliyadani
kuliyadda
kuliyadii
kuliyadood
kulka
kulliyad
kulliyada
kulliyadaha
kulliyadda
kulma
kulmaan
kulmay
kulmeen
kulmey
kulmi
kulmin
kulmisa
kulmiya
kulmiye
kulmo
kulow
kulthum
kuluc
kulul
kulule
kululeeyo
kulushahay
kulyada
kuma
kuman
kumanaan
kumar
kumari
kumberland
kumbuyuutar
kumbuyuutarada
kumbuyuutarka
kumbuyuutarku
kumeel
kumeelgaar
kumeelgaarka
kun
kuna
kunaad
kunduz
kung
kunka
kunool
kunooli
kunoolyihiin
kur
kuraasta
kuray
kurdi
kurdida
kurdish
kurdistan
kurmanji
kursi
kursiga
kursigii
kurxintu
kusaabsan
kush
kushiitiga
kushiitik
kushite
kushitiga
kusii
kuso
kusoo
kutaal
kutaala
kutaalaa
kutaalo
kutahay
kutub
kutubo
kutubta
kutubtaasi
kutubtii
kuu
kuuba
kuugu
kuul
kuurgalay
kuuriya
kuuriyaan
kuuriyaanka
kuuriyada
kuush
kuwa
kuwaa
kuwaan
kuwaas
kuwaasi
kuwaaso
kuwaasoo
kuwada
kuwait
kuwan
kuwani
kuwas
kuwasi
kuwayt
kuweyt
kuwii
kuwo
kuwoo
kuwooda
kuxigeen
kuxigeenka
kuxigeenki
kuxigeenkii
kuxiran
kuxirantahay
kuyaal
kuyaala
kuyaalaa
kuyaalaan
kuyaalo
kv
kvanto
kw
kwa
kwak
kwon
kx
ky
kyiv
kyle
kylie
kyoto
kyrgyz
kyrgyzstan
kyu
kyung
kyushu
kz
kə
l
l0
l1
l2
l3
l4
l5
l6
l7
l8
l9
la
laa
laab
laaban
laabashada
laabasho
laabatay
laabato
laabka
laablakaco
laablakacsan
laabo
laabta
laabtay
laabteen
laabto
laacib
laad
laadin
laafyaha
laah
laahi
laakiin
laakiinse
laakin
laalaada
laalaado
laaluush
laaluushka
laamaha
laami
laamiga
laamiyada
laamka
laamo
laamood
laamuhu
laan
laanta
laas
laasa
laascaanood
laasciidle
laasgeel
laaso
laasqoray
laasqorey
laatiin
laatiiniga
laatiinka
laawe
laayay
laayeen
laayey
laazaar
lab
laba
labaad
labaadna
labaatan
labaatanaad
labaatanka
labaatankii
labad
labada
labadaa
labadaan
labadaas
labadaasi
labadaba
labadan
labadii
labadiisa
labadiisii
labadooda
labadoodaba
labadooduba
labaduba
labajibbaaran
labalaaban
labashaqlanaha
labatan
labels
labiska
labka
labo
labolaaban
labor
laboratory
labori
labour
labrador
labsalah
lac
lacag
lacagaha
lacagata
lacageed
lacago
lacagta
lacagtaas
lacagtii
lacagtooda
lacey
lada
ladagaalanka
ladan
laden
ladhahaa
ladhan
ladhihi
ladhoho
ladies
ladilay
ladin
ladnaan
ladnaanta
lady
ladylord
laf
lafa
lafaha
lafalaha
lafale
lafdhabar
lafdhabarta
lafo
lafood
lafoole
lafta
lafteeda
lafteedu
laftiisa
laftiisu
laftoodu
lafweyn
lag
laga
lagaa
lagaga
lagagahadlo
lagala
lagama
lagana
lagasoo
lago
lagos
lagu
lagugu
lagula
laguma
lagumagacaabo
laguna
lagusoo
laguu
laha
lahaa
lahaado
lahaan
lahaanshaha
lahaansho
lahaayeen
lahab
lahan
lahay
lahayd
lahayeen
lahayn
laheed
laheen
lahelay
laheyd
laheyn
lahi
lahjad
lahjada
lahjadaan
lahjadaha
lahjadda
lahjado
lahjo
lahore
lai
laila
lailkase
laitin
lajiide
lajoogo
lakab
lakabka
lakabyo
lakala
lake
lakes
lakiin
lakin
lala
laleedahay
lalisa
lalla
lama
lamaanaha
lamaane
lamadaya
lamadegaan
lamadegaanka
lamadegaanku
lamana
lamar
lambar
lambarada
lambarka
lambarkan
lamid
lamida
lammaanaha
lammaane
lamood
lampard
lampung
lamy
lan
lana
lancet
land
lands
landscape
landslides
lang
language
languages
langwithname
lanka
lao
laodhanjiray
laos
lapetus
lapsi
laqaaday
lara
large
larger
largest
larousse
larry
larson
las
lasameeyay
lasheegaa
lasheegay
lasii
lasiiyo
lasocotada
lasoo
lassader
last
latahay
lataliyaha
lataliye
late
later
latest
latfiya
latimes
latin
latina
latinka
latino
latitude
latvia
lau
launch
launched
launches
laura
lauren
laurent
lavish
law
lawada
lawareegay
lawrence
laws
lawska
lawyacaddo
lawyacado
laxaad
laxaadka
laxaha
laxan
laxanka
laxanmiiste
laxidhay
laxiriira
laxooxda
lay
layaab
layaabka
laydh
laydhka
laydi
layeele
laygu
layidhaa
layidhaahdo
layiraahdo
layla
layli
laynka
lays
laysku
layskuma
laysu
laysugu
lazio
lb
lboro
lc
ld
ldots
le
lea
lead
leader
leaders
leadership
leading
leaf
league
learn
learning
least
leau
leave
leaves
leaving
lebanese
lebanon
led
ledahay
lee
leeb
leebka
leedahay
leedahy
leeday
leeds
leegada
leego
leela
leelkase
leenahay
leexday
leexdo
leexiyo
leeyahay
leeyahiin
leeyahy
leeyihiin
leeyihin
left
leg
legacies
legacy
legal
legend
legion
legislative
leh
lehe
leheen
lehna
lei
leicester
leiden
leigh
leipzig
length
lenin
leo
leon
leonardo
leone
leopards
leopold
lernu
les
leslie
lesotho
less
lesser
lessons
leste
let
letter
letters
leur
lev
levant
levante
level
leven
leverkusen
lewis
leyahay
leysku
lf
lg
lgbt
lh
li
lia
liam
lib
libaax
libaaxa
libaaxley
liban
libani
liberal
liberation
liberia
libero
liberty
libiya
library
libro
libya
license
lid
liddell
lidka
lie
liechtenstein
lies
life
lifestyle
lig
liga
light
lighting
lightsteelblue
lihi
lihidiin
lihin
lihyan
liibaan
liiban
liibiya
liidata
liido
liin
liiniga
liinka
liinta
liintu
liis
liisaska
liiska
liistada
liita
liithiyaam
like
lil
lila
lilawinkel
lille
lillehammer
lilongwe
lily
lilya
lim
lima
lime
limited
limon
lin
lina
lincoln
linda
lindgren
lindsay
line
lines
lingala
lingerie
lingua
linguistic
linguistics
lingvo
link
links
linux
linz
lion
lionel
lions
lipa
lips
lisa
lisbon
liska
list
listen
lists
lit
literature
lithuania
lithuanian
lithuaniya
litir
little
littlefield
liu
live
lively
liverpool
lives
livestock
living
livingstone
lix
lixaad
lixda
lixdan
lixdii
lixle
liya
lj
lk
lkn
ll
llaahi
llahi
llamas
llc
lle
lloyd
lm
ln
lo
loader
loan
lobe
loc
local
located
location
locations
lockheed
loda
log
logic
logistics
logo
logu
lohan
loire
lokomotiv
lombok
lome
london
lonely
long
longer
longest
longitude
loo
loobage
loodhisay
loodoortay
looga
loogama
loogana
looge
loogu
looguna
look
looks
loola
loolasha
loolka
looma
loomana
loona
loos
looska
loosoo
looyaqaan
looyaqaana
looyaqaanay
looyaqaano
lopez
lord
lorde
lordi
loren
lorenzo
los
loss
lost
lotte
louis
louise
louisiana
louisville
louvre
lovato
love
lovelace
lover
loves
low
lower
lowland
lowyacado
loxooxda
loyalty
lp
lpg
lq
lr
ls
lsd
lt
ltd
lte
lu
lua
luanda
luang
lub
luba
lublin
lubnaan
lucas
lucia
lucky
lucy
ludvika
ludwig
ludwik
lufthansa
lug
lugaha
lughaya
lugo
lugood
lugta
lugu
luigi
luis
luke
luksemburg
lulu
lumay
lumin
lumisay
lumpur
lumumba
luna
lungu
luntay
luo
luqad
luqada
luqadaha
luqadda
luqadeed
luqado
luqadood
luqadooda
luqmaan
lur
lusaka
luu
luubaanta
luud
luul
luuliyo
luulyo
luuq
luuqa
luuqad
luuqada
luuqadaasi
luuqadaha
luuqadda
luuqado
luuqadood
luuqeeyo
luv
luxembourg
lv
lw
lx
ly
lynch
lynn
lynne
lyon
lyrics
lyttleton
lz
m
m0
m1
m2
m3
m4
m5
m6
m7
m8
m9
ma
maa
maad
maadaama
maadada
maadadaan
maadama
maaddaama
maaddada
maaddiga
maaddo
maaddooyinka
maadi
maadiga
maadkii
maado
maadoow
maadooyinka
maah
maaha
maahan
maahee
maahmaah
maahmaahda
maahmaahyadii
maajo
maakhir
maal
maala
maalba
maalgashi
maalgashiga
maalgelin
maalgelinta
maalgelisay
maalgeliso
maali
maalik
maalin
maalinba
maalinka
maalinkii
maalinlaha
maalinle
maalinta
maalintaa
maalintaas
maalintaasi
maalintii
maalintiris
maalintiriska
maaliyada
maaliyadda
maaliyadeed
maalka
maalmaha
maalmahan
maalmeedka
maalmihii
maalmo
maalmood
maalqabeen
maalta
maamul
maamula
maamulaa
maamulaan
maamulaayay
maamulada
maamuladii
maamulaha
maamulay
maamulayaasha
maamulayay
maamulaysay
maamule
maamuleed
maamulgoboleedka
maamuli
maamulida
maamulka
maamulkaan
maamulkaas
maamulkeeda
maamulkii
maamulkiisa
maamulku
maamulo
maamusha
maamushaa
maamushay
maamusho
maamuus
maamuusay
maamuuska
maan
maandeeq
maangal
maanka
maansada
maanso
maanta
maantana
maanyo
maar
maaraynta
maareeyaha
maareeye
maareeyo
maareynta
maariya
maarmaan
maarmaanka
maarmin
maarso
maastricht
maatarka
maaweel
maax
maay
maayad
maayee
maayga
maayo
maba
mabaadi
mabaadida
mabaadii
mabaadiida
mabda
mabuto
mac
macaahid
macaamiil
macaamiisha
macaamiisheedu
macaamiishooda
macaamil
macaamilka
macaan
macaaneeyo
macaanka
macaanta
macaash
macaashka
macad
macaduwan
macalim
macalimiin
macalimiinta
macalimiintii
macalin
macalinka
macallin
macaluul
macan
macanaha
macao
macau
macbadka
macbudka
macbudyada
maccabi
macdan
macdanaha
macdano
macdanta
macedonia
machad
machadka
machadyada
machadyo
machine
macluumaad
macluumaadka
macmacaan
macmacaanka
macmal
macmiilka
macmillan
macna
macnaha
macnaheeda
macnaheedu
macnahiisu
macne
macneheedu
macnihiisa
macnihiisu
macno
macquul
macquulsan
macsarada
mad
madaafiic
madaafiicda
madaahibta
madaama
madaaris
madaarka
madadaalada
madadaalo
madagascar
madagaskar
madal
madam
madani
madaniga
madar
madarkicis
madasha
madaw
madax
madaxa
madaxbanaan
madaxbanaani
madaxbanaanida
madaxbanaanideeda
madaxbannaan
madaxbannaanida
madaxda
madaxdii
madaxeeda
madaxeedka
madaxii
madaxiisa
madaxtinimada
madaxtinimo
madaxtooyada
madaxtooyo
madaxwaynaha
madaxwayne
madaxwaynihii
madaxweynaha
madaxweynahii
madaxweynayaasha
madaxweyne
madaxweynenimada
madaxweynenimo
madaxweyneyaashii
madaxweynihii
madaxweynuhu
madbacada
madbacadda
madbakh
maddaarka
made
madeira
madfac
madhan
madhibaan
madhuri
madi
madiina
madina
madison
madkhali
madobe
madonna
madoobaa
madoobaad
madoobe
madoow
madoowaad
madoowga
madow
madowga
madrid
madura
madurese
maduro
madxafka
mafia
mag
magaaalada
magaaco
magaadle
magaal
magaala
magaalad
magaalada
magaaladaan
magaaladaas
magaaladaasi
magaaladan
magaaladana
magaaladani
magaaladda
magaaladeeda
magaaladii
magaaladu
magaaladuna
magaalamadaxda
magaalda
magaaldan
magaaldu
magaallada
magaallo
magaalo
magaalooyin
magaalooyinka
magaalooyinkaas
magaalooyinkii
magaaloyinka
magac
magaca
magacaa
magacaaba
magacaabaa
magacaaban
magacaabay
magacaabeen
magacaabey
magacaabi
magacaabid
magacaabidda
magacaabin
magacaabista
magacaabo
magacaan
magacaas
magacaba
magacabay
magacan
magacani
magacawday
magacdaray
magaceed
magaceeda
magaceedu
magacii
magaciisa
magaciisu
magacooda
magacowday
magacu
magacuyaal
magacyada
magacyadooda
magacyo
magala
magalaada
magalada
magaladan
magaladu
magalda
magalloka
magalloyinka
magalo
magaloka
magalooyinka
magaloyinka
magan
magangalyo
magangelyo
magazine
magazines
magcaabay
magcaabo
magdhow
maghreb
magic
magiciisa
magna
magnetic
magniisiyaam
magnitude
magool
magrib
magta
maguurtada
maha
mahad
mahadaay
mahadale
mahadalle
mahadcelinayaa
mahadnaq
mahadnaqayaa
mahadsan
mahadsanid
mahadsanidiin
mahal
mahamed
mahamoud
mahamud
maharashtra
mahathir
mahdi
mahe
mahesh
mahiigaan
mahiiggaankan
mahmoud
mahmud
mai
mail
mailkiisa
main
maine
mainly
maint
maintable
mais
maize
maj
maja
majaajilada
majaajillada
majaajillo
majaajilo
majaajilooyinka
majaajiloyinka
majabe
majala
majaladda
majallad
majeerteen
majeerteeniya
majid
majiid
majiro
major
majority
maka
makaahiil
makaahil
makahiil
makaroone
makassar
makayl
make
makedonia
makedoniya
makemake
maker
makes
makhaayad
makhaayadaha
makhaayadda
makhaayado
makhluuq
makiinad
makiinadaha
makiinadda
making
makka
makkah
makki
makko
mako
makordhaha
maksiko
maktabad
maktabada
maktabadaha
maktabadda
maktoum
maku
mal
mala
malaa
malaaq
malaariyada
malaawi
malaay
malaayga
malaayiin
malab
malabka
malag
malaga
malaha
malahan
malakul
malakuyuul
malao
malawaxa
malawi
malay
malaya
malayalam
malayn
malaynayo
malaysia
malaysian
malaysiya
malcolm
maldahan
maldiif
maldives
male
maleenaa
maleeshiyada
maleeyaa
maleeyay
maleh
maleynayaa
maleynayo
malhotra
mali
malik
malin
malinta
malintii
mall
malmal
malo
malta
maluku
malyan
malyuun
mama
mamaaliikta
mamadou
mamba
mamelodi
mamluk
mamnuuc
mamnuucay
mamnuucidda
mamoru
mamulka
man
mana
manaahijta
management
manager
manaystay
manchester
manchuria
mandaqad
mandaqada
mandarin
mandeb
mandeela
mandela
mandheera
mandiqada
maneystay
manga
mangalool
manganiis
mango
mangooliyiinta
manhaj
manhajka
manhajkii
manhattan
manida
maniero
manifesto
manila
manitoba
mankind
mannaystay
manoban
mansfield
mansuur
manta
mantle
manual
manuel
many
mao
map
maplandia
maple
mapper
maps
maputo
maqaal
maqaalada
maqaalka
maqaalkan
maqaalkani
maqaallada
maqaallo
maqaalo
maqaar
maqaarka
maqaayad
maqaayada
maqaayadaha
maqaayado
maqal
maqalka
maqalkiisa
maqalkoodu
maqan
maqashay
maqla
maqlaa
maqlay
maqleen
maqley
maqli
maqlin
maqlo
maqnaa
maqnaanshaha
mar
mara
maraa
maraakiib
maraakiibta
maraan
maraayo
marada
marag
maran
maraq
maraqa
marar
mararka
marathi
marathon
maray
maraya
maraykan
maraykanka
maraykanku
marayo
maraysa
maraysaa
marayso
marba
marc
marcabka
march
marco
marcos
marcus
mardaani
mareeg
mareegaha
mareegida
mareegta
mareekanka
mareen
mareenka
mareeno
mareer
mareexaan
mareeykanka
marehan
marey
mareykan
mareykanka
mareykanku
margaret
mari
maria
mariam
mariana
mariano
marie
marilyn
marin
marina
marine
marinka
marinnada
marinno
marino
marinta
mario
marisay
maritime
mariyaa
mariyam
mariyay
mariyeen
mariyey
mariyo
mark
marka
markaa
markaaba
markaad
markaan
markaana
markaanu
markaas
markaasaa
markaasay
markaasi
markaasna
markaasoo
markaasuu
markab
markabka
markabkii
markacadey
markale
markan
markana
markasta
markasto
markay
marked
markee
markeeda
markeey
market
marketing
markets
markey
markhaati
markhaatiga
markhaatigii
markhaatiyaal
markhaatiyaasha
markhaatiyadu
marki
markii
markiiba
markiisa
markiisii
markle
marko
markooda
marks
marku
markus
markuu
marmar
marmara
marmarka
marna
marnaba
maro
maroodi
maroodiga
maroodijeex
marooko
marqaan
marqaati
marriage
married
marry
mars
marseille
marshall
marso
marta
martaa
martay
martey
marti
martida
martigelin
martigelinta
martigelisaa
martigelisay
martigeliyaha
martigeliyay
martin
martinez
martini
martiqaad
marto
marvel
marwa
marwaan
marwada
marwadii
marwalba
marwo
marwooyin
marx
marxalad
marxaladaha
marxaladda
marxaladihii
marxalado
marxaladood
marxuum
marxuumka
mary
maryaha
maryam
maryama
maryan
marykanka
maryland
mas
masa
masaafada
masaafo
masaajid
masaajida
masaajidada
masaajidda
masaajidka
masaajidkii
masaajido
masaakiinta
masaari
masaarida
masaaridii
masaaxada
masagada
masago
masakin
masar
masare
masarre
masaska
mascuud
mase
maseru
mash
mashaa
mashaariic
mashaariicda
mashable
masharaaf
masharaafta
masharaaftii
masharaaftu
mashiin
mashiinada
mashiinka
mashiinnada
mashinka
mashonaland
mashquul
mashquulay
mashquulka
mashquulsan
mashquulsanaa
mashriq
mashruuc
mashruuca
mashruucan
mashruucii
mashruucu
mashruucyada
mashruucyo
masiibada
masiibo
masiibooyinka
masiix
masiixa
masiixi
masiixiga
masiixiyad
masiixiyada
masiixiyiin
masiixiyiinta
masiixiyiintu
masjid
masjidka
masjidkii
masjidul
maska
maskax
maskaxda
maskaxdii
maskaxdiisa
maskaxdu
maskaxeed
maslax
masoo
masrax
masraxa
masri
masriyiinta
masriyiintii
masriyiintu
mass
massachusetts
massari
massawa
massive
master
masters
masuul
masuuliyad
masuuliyada
masuuliyadda
masuuliyiin
masuuliyiinta
masuulka
mataan
mataanaha
mataano
matabaan
matabeleland
matag
matala
matalaa
matalaan
matalan
matalay
matalaya
matalayay
matalo
matayos
math
mathbb
mathbf
mathrm
matoor
matoorada
matoorka
matsuda
matt
matter
matters
matthew
matxaf
matxafka
matxafyada
mau
maurice
mauritania
mauritius
mawduuc
mawduuca
mawduucan
mawduucyada
mawduucyo
mawliid
mawqifka
max
maxa
maxaa
maxaabiis
maxaabiista
maxaabiistii
maxaad
maxaakiimta
maxaakimta
maxaamed
maxaan
maxaas
maxaayeelay
maxal
maxali
maxaliga
maxalli
maxalliga
maxamad
maxamed
maxammed
maxamud
maxamuud
maxay
maxayadda
maxayeelay
maxaynan
maxaynu
maxbuus
maxed
maxim
maxkamad
maxkamada
maxkamadaha
maxkamadda
maxkamaddu
maxkamadeed
maxkamado
maxmed
maxmiyad
maxmiyada
maxmiyadda
maxmiyaddii
maxmiyadii
maxmuud
maxsuulka
maxwell
may
maya
mayaami
mayd
maydh
maydhane
maydi
maydiga
mayl
maymuna
mayo
mayor
mayors
mayotte
mayow
mayso
mazda
mazembe
mb
mbc
mbn
mc
mcdonald
mcgraw
mch
mclaughlin
md
me
mean
meanchey
meaning
means
meat
mecca
media
median
medical
medicare
medicine
medieval
medina
mediterranean
mediterraneanka
medium
medvedev
mee
meel
meela
meelaha
meelahaas
meeleeyaha
meeleeye
meelgaarka
meeli
meelihii
meelkasta
meelna
meelo
meelood
meena
meeqa
meeraha
meerahan
meerahani
meerayaal
meerayaasha
meerayaashu
meeraysta
meere
meereha
meereyaasha
meeris
meerkuri
meesh
meesha
meeshaa
meeshaan
meeshaas
meeshaasi
meeshan
meeshani
meeshi
meeshii
meeshuu
meet
meeting
meetings
meets
meey
meeyadii
meeyihii
mega
megalomania
megan
meghan
mehdi
meher
meherad
meheradaha
meherado
meheri
meherka
mehersaday
mehmed
mehmet
mehri
mehta
meier
meitneriyaam
mekong
meksiko
melbourne
meles
melez
melia
melon
melting
member
members
memfis
memorial
memory
memphis
men
mendez
mendoza
menelik
mengista
mengistu
mental
menu
merca
merchant
merchants
mercosur
mercury
mercy
mere
meretmarine
meri
meridian
meroe
meroitic
merriam
merrikh
mersin
mesha
mesobotaamiya
mesopotamia
message
messages
messenger
messi
messina
mesut
met
metal
metals
metalska
metelay
meteorological
meter
meteshay
methane
method
methodist
methods
metro
metroka
metropolis
metropolitan
metz
mexican
mexico
mey
meydka
meydkiisa
meyer
meygaag
mf
mfa
mg
mgs
mh
mhz
mi
mia
miami
michael
michel
michelle
michigan
mici
mickey
micnaha
micnaheeda
micnaheedu
micneheeda
micnihiisu
micno
microsoft
mid
mida
midaan
midaas
midaasi
midab
midabada
midabka
midabkan
midabkeeda
midabkeedu
midabkiisu
midabo
midabtakoor
midabyo
midan
midani
midawga
midawgii
midaynta
midaysan
midaysay
midba
midbaa
midda
middle
middleeast
mideeyay
mideeyo
mideeysan
mideynta
mideysan
midhaha
midho
midhuhu
midi
midig
midigsame
midigta
midii
midka
midkamida
midkasta
midkii
midkiiba
midkiin
midkood
midkoodna
midna
midnight
midnimada
midnimadii
midnimo
midoobaan
midoobay
midoobeen
midoobey
midoobi
midoobo
midow
midowday
midowga
midowgii
midtahay
midwest
midyahay
midyihiin
miec
mig
mighty
migrant
migration
migros
migs
miguel
miicaad
miig
miilaadi
miilaadiga
miilaadiyada
miimka
miinada
miino
miinooyin
miinooyinka
miir
miiro
miiroon
miis
miisaan
miisaaniyad
miisaaniyada
miisaaniyadda
miisaanka
miisaska
miiska
mij
mijn
mika
mikami
mike
miki
mil
miladi
miladiga
milan
milano
milatari
milatariga
milateri
milateriga
milay
mild
mile
miles
miley
milicsiga
milimitir
militari
militariga
military
milito
milix
milixda
miliyan
milk
milkiilaha
milkiilayaasha
millan
millatari
millatariga
mille
millennium
miller
milli
milligram
millimeter
million
millions
milliyet
milma
milmay
milme
milton
milwaukee
milyan
mimas
min
mina
minaj
minangkabau
minas
mind
mindhicirka
mindhicirrada
mindi
mindigale
mine
mines
ming
minh
mini
minideo
miniin
miniinta
minister
ministers
ministry
minneapolis
minnesota
minorities
minority
minute
minutes
mira
miraha
miranda
mire
miriam
mirifle
mirihiisa
miriyama
miro
mirre
mirror
mirshaa
miryam
miryama
miryamadii
mirza
mis
misaajidka
misana
mise
mishiinka
misir
misirka
miskaad
miskiin
miskiinka
misna
miss
missile
missing
mission
mississauga
mississipi
mississippi
missouri
mister
mit
mita
mitchell
miten
mites
mitir
mitirka
mitsubishi
mix
mixtape
miyaa
miyaad
miyaan
miyi
miyiga
miyir
miyu
miyuu
miyuusigga
mj
mk
mkg
mktp
ml
mld
mm
mmp
mms
mn
mnangagwa
mnet
mnras
mo
mobilada
mobile
mocooyo
mod
mode
model
models
modena
modern
modi
module
moe
moesia
mofa
mogadisho
mogadishu
mohamed
mohammad
mohammed
mohamoud
mohamud
mohamuud
moi
mojo
moldavia
moldavian
molde
moldofa
moldova
molybdenum
mombaaso
mombasa
momo
momoland
momona
mon
mona
monaco
monako
monarch
monastir
monetary
money
mongol
mongolia
monica
monitor
monitoring
monkey
mono
monroe
monsoon
monster
montana
monte
montenegro
montgomery
month
monthly
months
montpellier
montreal
montsoreau
moo
moobleen
mood
mooda
moodaa
moodada
mooday
mooddo
moodeel
moodel
moodka
moodo
moodooyinka
moog
mooge
moon
moora
mooracase
moore
mooryaan
moos
moose
mooshe
mooska
moosko
moosoro
mootada
mooto
mooyaane
mooyee
moqadishu
more
morgan
moringa
morning
moroccan
morocco
moroni
morony
morris
morsi
morton
moscow
mose
moseh
moses
moshe
mosheh
mosko
moskow
mosovce
mosque
most
mostly
mosul
mosylon
motagua
motema
mother
motion
motor
motors
mou
mouni
mount
mountain
mountaineers
mountains
mounted
mouse
moushe
moussa
move
moved
movement
movie
movies
moving
mowduuca
mowduucyada
mowjadaha
mowjadda
mowjado
mowlaca
mowliid
mowqifka
mowt
moxamed
moyale
mozambique
mozilla
mp
mq
mr
mrs
ms
msa
msn
mt
mtn
mts
mtv
mu
muammar
muang
mubaarak
mubarak
mubarakah
mucaarad
mucaaradka
mucaaridka
mucaawiya
mucaawiye
mucawiya
mucawiye
much
mucjisada
mucjiso
muda
mudaaharaadyo
mudada
mudadii
mudaharaad
mudalib
mudan
mudanayaal
mudane
mudar
mudda
muddada
muddadaas
muddadan
muddadii
muddo
mudhalib
mudnaanta
mudo
mudooyinkii
mudug
mudulod
mudulood
mueang
mufti
mug
muga
mugabe
mugdi
mugdiga
mugga
mughal
muhaajiriin
muhaajiriinta
muhaajiriintii
muhaddathah
muhammad
muhammed
muhiim
muhiima
muhiimad
muhiimada
muhiimadda
muhiimka
muhiimsan
muhiimsanaa
muhiimsani
muhim
muhimka
muhimsan
muhtesem
muhumed
muj
mujaahid
mujaahidiin
mujaahidiinta
mujaahidiintii
mujaddidka
mujtamaca
mukalla
mukarama
mukerji
mukeyle
mukhaadaraadka
mukherjee
mukhtaar
mukhtar
muktar
mukulaal
mulkiilaha
mulkilaha
mullah
muller
multi
multiple
muluk
muluuk
mumbai
mumin
muna
munaasabad
munaasabada
munaasabadaha
munaasabadda
munaasibadaasi
munawara
munchen
mundus
munich
municipal
municipality
munster
muqaal
muqaalka
muqaddim
muqadishu
muqbil
muqdisho
muqdishu
muraabidiinta
muraabiduun
muraad
muraayad
muraayada
muraayadaha
muraayadda
murad
muran
muranka
murannada
muransan
murashax
murashaxa
murcanyo
murder
murdisada
murdiso
murmay
murphy
murqaha
murqo
murray
mursal
murshid
murti
murtida
murtimaal
murtiyeed
murug
murugada
murugaysan
murugo
murugsato
muruq
muruqa
muruqyo
murusade
mus
musa
musalsalka
musanbiig
muscat
muscats
musdafa
muse
muses
museum
museveni
mushaar
mushaarka
mushahar
mushaharka
musharax
musharaxa
musharixiinta
musharraxa
mushkilada
music
musical
musician
musiibada
musiibo
musiibooyinka
musikada
muslim
muslimiin
muslimiinta
muslimiintii
muslimiintu
muslimka
muslims
muslimtey
muslin
muslinka
muslinku
musqul
musqulaha
musqusha
musse
must
musta
mustaf
mustafa
mustafe
mustaqbal
mustaqbalka
mustaxiil
musuq
musuqmaasuq
musuqmaasuqa
mutadawiciin
mutaystay
muteki
muttalib
mutua
mutual
mutuxan
muu
muudeey
muujin
muujinaya
muujinayaa
muujinayaan
muujinayo
muujinaysa
muujinaysaa
muujineysa
muujineysaa
muujinta
muujintii
muujisay
muujiso
muujiya
muujiyaa
muujiyaan
muujiyaha
muujiyay
muujiyeen
muujiyey
muujiyo
muumin
muungaab
muuq
muuqaal
muuqaalada
muuqaalka
muuqaalkeeda
muuqaalkeedii
muuqaalkiisa
muuqaallada
muuqaallo
muuqaalo
muuqalka
muuqan
muuqata
muuqataa
muuqatay
muuqato
muuqda
muuqdaa
muuqdaan
muuqday
muuqdeen
muuqdo
muus
muusa
muusafiin
muusan
muuse
muushe
muusig
muusiga
muusigeeda
muusigga
muusigyahan
muusik
muusika
muusikada
muusikiiste
muusiko
muuska
muwaadin
muwaadiniin
muwaadiniinta
muwaadinka
muwaxidiinta
muxaadaro
muxaafid
muxaafidka
muxamad
muxamed
muxammad
muxammed
muxaram
muxarram
muxudiin
muxumad
muxumed
muxumud
muxuu
mv
mw
mwai
mwave
mx
my
myanmar
mybank
mydaily
mynavi
myos
myspace
mysterious
mystery
myth
mythology
myung
mz
mæ
mə
n
n0
n1
n2
n3
n4
n5
n6
n7
n8
n9
na
naa
naad
naadi
naadiga
naadir
naadiyaasha
naadiyada
naadkii
naafada
naafee
naafeeyay
naafo
naaftada
naafto
naag
naagaha
naagood
naagta
naagtiisa
naagtu
naagtuna
naaji
naaleeye
naan
naanays
naanaysaa
naanaysi
naanayso
naanaysta
naaneys
naaneysaa
naaneysi
naaneyso
naaneysta
naar
naarta
naas
naasa
naasaha
naasiga
naasigu
naasir
naasirud
naasiyada
naaska
naasley
naasleyda
naaso
nabad
nabada
nabadana
nabadaynta
nabadda
nabaddoon
nabadeed
nabadgalyada
nabadgalyo
nabadgelyada
nabadgelyadiisa
nabadgelyo
nabadon
nabadoon
nabadoonka
nabadsugida
nabar
nabataea
nabdoon
nabi
nabiga
nabigeena
nabigii
nabigu
nabiyada
nabiyo
nabucco
nacas
nacayb
nacaybka
nach
nacional
nacnac
naco
nadaafada
nadaafadda
nadal
nadar
nadia
nadiga
nadiif
nadiifin
nadiifinta
nadiifiya
nadiifiyo
nadiifo
nadu
naf
nafaqada
nafaqeeyo
nafaqo
naflayda
nafley
nafleyda
nafsaddiisa
nafsi
nafsiga
nafta
naftaada
naftaadii
naftada
naftayda
nafteeda
naftiisa
naftood
naftooda
naftu
naga
nageeye
nageyle
nagu
nah
nahar
nahay
nahyan
nairobi
najaashi
najd
nakhchivan
nakuru
nal
nala
nalalka
nalayeh
naleeye
naleya
naleye
nalka
naloo
nam
nama
nambar
nambarada
nambarka
nambiya
name
named
names
namibia
namibiya
namtha
nan
nana
nancy
nang
nantes
napoleon
napoli
naqaan
naqaano
naqday
naqdiya
naqshad
naqshadaha
naqshadaynta
naqshadda
naqshadeeyaha
naqshadeeyay
naqshadeeye
naqshadeynta
naqshado
narc
narcissism
narcissist
narrative
narso
nas
nasa
nasaarada
nasab
nasahnaa
nasakh
nasashada
nasasho
nascar
nashfille
nashville
nasiib
nasiibka
nasional
nasir
nasoo
nasr
nasralah
nasser
nassr
nastaan
nasteexo
nasto
natalie
natasha
nate
natiijada
natiijadii
natiijo
natiijooyinka
nation
national
nationale
nationalgeographic
nationalism
nationality
nationlink
nations
native
nato
natural
nature
nauru
nautical
nav
naval
naver
navy
nawaaxiga
nawaaxigeeda
nawaaxigeedu
nawawi
naxaas
naxaasta
naxariis
naxariista
naxariistaha
naxariiste
naxariistee
naxariistey
naxariistii
naxariisto
naxay
naxdin
naxdinta
naxe
naxriistee
naxwaha
naxwe
nayef
nayjar
nayjeeriya
nayl
nayroobi
nazareth
nazi
nazionale
nb
nba
nbc
nbcnews
nbsp
nc
ncbi
nd
ndjamena
ndtv
ne
near
nearby
nearly
neat
nebal
nebasn
nebi
nebiga
nebigii
nebigiina
nebigu
nebiguna
nebiya
nebiyada
nebiyadii
nebiyadiisa
nebiyo
nebraska
necbaa
neceb
necessary
nederlaan
nederland
nederlands
nee
need
needed
needs
neef
neefaha
neefka
neefo
neefsado
neefsiga
neefta
neemir
neerfaha
negara
negative
neglected
negro
neh
neil
nellemann
nelson
nema
neni
neo
neocam
neolithic
nepal
neptune
neptunian
nestle
net
netflix
netherlands
netjer
network
networks
neuer
neutral
nevada
never
nevis
new
newcrop
newell
newfoundland
newly
newport
news
newsen
newsid
newspaper
newspapers
newsroom
newsweek
newton
next
neyl
nf
nfd
ng
ngdp
ngdpd
ngo
ngs
nh
nhk
nhkworld
nhn
ni
niagara
niamey
nibiriga
nic
nicaragua
nice
nicholas
nick
nicki
nickname
nicolas
nicole
nicolet
nid
nidaam
nidaaminta
nidaamka
nidaamkan
nidaamkii
nidaamsan
nidaamyada
nidaamyo
nie
niet
niger
nigeria
nigerian
night
nih
nihat
nihin
nihon
niigata
niiko
niil
niilka
nikaragua
nike
nikel
nikita
nikkei
nikobolos
nikon
nil
nile
nilo
nilotic
nimaad
nimaan
nimada
nimadii
niman
nimanka
nimankii
nimcada
nimco
nimcooyin
nimid
nimo
nimr
nin
nina
ninba
nine
nineveh
ninh
ninka
ninkaa
ninkaan
ninkaas
ninkan
ninkani
ninkeeda
ninkeedii
ninki
ninkii
ninku
ninna
nirgood
niri
nis
nisa
nisaa
nisha
nishabd
nissan
nitrogen
nitrojiin
nitrojiinta
niyad
niyadda
niyadjabka
niyobiyaam
niyoon
nj
njeim
nk
nkurunziza
nl
nlm
nm
nme
nn
nnkh
no
noaa
noah
nobel
noble
node
noel
nofeembar
nofembar
nofember
nogal
nokia
nolasha
nolol
nololeed
nololeedka
nololeedkii
nololeedkiisa
nolosha
noloshayda
nolosheeda
noloshii
noloshiisa
noloshooda
noloshoodu
noloshu
nominations
non
noo
nooc
nooca
noocaa
noocaan
noocaas
noocan
noocani
noociisa
noocyada
noocyadeeda
noocyadiisa
noocyo
noofambar
noofembar
nooga
noogu
nool
noola
noolaa
noolaadaan
noolaaday
noolaado
noolaan
noolaanshaha
noolaashaha
noolaato
noolaayeen
noolaha
noolahaasi
noolayd
noolaynta
noole
nooleeyay
nooleeyo
nooleha
nooleyd
nooleyn
nooleynta
nooli
noolnahay
nooluhu
noolyahay
noolyihiin
nooma
noor
noord
noorway
nooshahay
noqatay
noqda
noqdaa
noqdaan
noqday
noqdee
noqdeen
noqdey
noqdo
noqnoqda
noqo
noqon
noqonaya
noqonayaa
noqonayaan
noqonayo
noqonaysa
noqonaysaa
noqonayso
noqoneysa
noqoneysaa
noqoneyso
noqoshada
noqota
noqotaa
noqotay
noqotee
noqotey
noqoto
nor
nora
norceca
nord
nordic
nordland
normal
norman
north
northeast
northern
northland
northumberland
northwest
norton
norway
norwegian
norwey
norwich
nos
not
note
noted
notes
nothing
notice
notices
noticia
noticias
noun
nour
nous
nov
nova
november
novi
novosibirsk
now
np
npr
nq
nr
nrc
ns
nsf
nss
nt
ntv
nu
nubia
nubian
nuclear
nuf
nugaal
nugaaleed
nugul
nui
nukliyarka
nukliyeer
nukliyeerka
number
numbering
numbers
nunavut
nuqul
nur
nursing
nus
nusa
nusayr
nust
nut
nutrition
nuuc
nuucyada
nuuga
nuugaan
nuujisey
nuun
nuunka
nuunow
nuur
nuura
nuurada
nuuradiin
nuurka
nuurku
nuurow
nuux
nuuxfone
nux
nuxurka
nuyuutroono
nv
nw
nx
ny
nyc
nylon
nytimes
nz
nə
o
o0
o1
o2
o3
o4
o5
o6
o7
o8
o9
oa
oak
oakland
oau
ob
obama
oberon
obiang
object
observatory
observer
obsiiye
oc
oce
ocean
oceania
oceanic
oceans
oclc
oct
october
octopus
od
odala
oday
odayaal
odayaasha
odayaashii
odayga
odaygii
odhaahda
odhan
odhanjiray
odi
odia
odom
odowaa
oe
oea
oecd
oed
of
ofcom
off
offensive
office
officer
offices
official
officially
officials
offshore
offside
often
ofx
og
oga
ogaa
ogaadaan
ogaaday
ogaadeen
ogaadeeniya
ogaadeenya
ogaadey
ogaado
ogaal
ogaan
ogaano
ogaanshaha
ogaatay
ogaatid
ogaato
ogadeen
ogaden
ogadenia
ogahay
ogast
ogayn
ogeyn
ogeysiis
oggol
oggola
oggolaadaan
oggolaaday
oggolaado
oggolaan
oggolaanaya
oggolaanaysa
oggolaanshaha
oggolaansho
oggolaatay
ogi
ognahay
ogol
ogola
ogolaaday
ogolaado
ogolaan
ogolaanshaha
ogolaansho
ogolaatay
ogolad
ogolayn
ogoow
ogos
ogost
ogosto
ogow
ogsajiin
ogsajiinta
ogsaydh
ogsoon
ogtahay
ogyahay
oh
ohio
oi
oic
oid
oil
oj
ok
okaz
oklahoma
okobo
oktobar
oktober
oktoobar
oktoober
ol
olaha
old
oldbooks
ole
olihii
olimbikada
olive
oliver
olivia
olla
olol
ololaha
ololayaasha
olole
ololeeya
ololeyaal
ololihii
olombiga
olombikada
olsen
olympiacos
olympic
olympics
om
omaha
oman
omar
omega
omer
omicron
omo
on
ona
once
one
onepage
ongoing
oni
online
only
onlyfans
ons
ontario
oo
ood
oodhan
oodweyne
oog
ooga
oogada
oogo
oogu
oohin
oohinta
ool
oolka
oomaar
oomane
oon
oona
oonaan
ooo
oori
oorida
ooridii
ooriyada
ooshiyaaniya
ooy
ooyay
oozoon
op
opec
open
opened
opening
opens
opera
operating
operation
operations
operator
opinion
opinions
opone
oppland
opportunities
opportunity
opposite
opposition
option
oq
or
ora
oraah
oran
oranaya
oranayaa
orange
oranges
oranji
oranjiray
orban
orbit
orbital
ord
orday
order
ore
oregon
org
organisation
organisms
organization
organizations
orgi
oricon
orient
oriental
origin
original
origins
orion
oriya
orkhan
orlando
orleans
orod
orodka
oromada
oromia
oromiya
oromo
orthodox
os
osaka
osama
osborn
oscar
oscars
osce
osdofaan
osen
osiris
oslo
osmaan
osman
osmanlı
osmanya
osmiyaam
osp
ossetia
ot
other
others
otnes
ots
ottawa
ottn
otto
ottoman
ottomans
ou
oud
our
ouro
out
outbreaks
outlook
outside
ov
over
overline
overseas
overview
ow
owgeed
owkland
own
owner
ownership
ox
oxford
oxygen
oy
oz
ozawa
oʊ
p
p0
p1
p2
p3
p4
p5
p6
p7
p8
p9
pa
pablo
pace
pacific
padma
padmaavat
padukone
page
pageid
pages
pagesix
paheli
paid
pain
painos
paintings
pais
paivaa
pak
pakhtunkhwa
pakistaan
pakistan
pakistani
palace
palembang
palermo
palestine
palestinian
palgrave
paljon
palm
palma
palmer
pamela
pan
panama
panamericana
panasonic
pancholi
pandemic
pandey
pankhurst
panwar
paok
papel
paper
papers
papua
par
para
paradise
paraguay
paramount
parcelles
parents
paris
park
parks
parle
parliament
parliamentary
part
parties
partizan
partner
partners
partnership
parts
party
pasha
pass
passed
passion
passport
past
pasta
paste
pastoral
pastoralism
patani
patel
path
patrice
patrick
patriotic
patro
patron
paul
paula
pauline
paulo
pay
payne
paz
pb
pbs
pc
pcap
pd
pdf
pdfs
pe
peace
peaceful
peanut
pearl
pearson
peat
pedro
peel
pei
pelagia
pembe
pen
pence
penh
peninsula
pennsylvania
pentagon
penthouse
people
peoples
pepper
per
percent
perez
perfect
performance
period
periplus
permanent
perry
persepolis
perseus
persia
persian
person
personal
personality
personnel
persono
pertaining
perth
peru
peruvian
pet
pete
peter
peters
petersburg
petit
petra
petro
petroleum
petroliers
peugeot
pf
pg
ph
pharaoh
pharmaceutical
pharmacy
phaseolus
phd
phil
philadelphia
philip
philippe
philippines
phillip
phillips
phillis
philosophy
phnom
phobos
phoebe
phoenix
phone
phosphate
photo
photoplay
photos
photosynthesis
phou
php
physical
physics
pi
piano
pics
picture
pictures
pid
pierre
pigeon
pillars
pilot
pin
pineapple
pink
pinyin
piombino
pipeline
pirates
pitch
pitchfork
pitsa
pitt
pittsburgh
pizza
pj
pk
pl
place
places
plain
plains
plan
planck
plane
planelm
planet
planetary
planets
planguage
planning
plans
plant
plantation
plants
plata
plate
plateau
platform
platinum
play
playboy
player
players
playing
playlist
playstation
plaza
plc
pleck
pledged
pledis
plej
pli
plos
plural
plus
pluto
pm
pmc
pmid
pn
pnas
png
pnictogens
po
podesta
poet
poetry
poets
pohala
poika
point
poker
pokhara
poland
pole
police
policy
polish
political
politician
politico
politics
poll
pollen
polokwane
polynesian
polytechnic
pooja
pop
popcorn
popest
pops
popular
population
populations
por
porn
pornhub
porsche
port
portal
portland
porto
portrait
ports
portugal
portugiis
portugues
portuguese
posedanto
position
positive
possible
post
postal
poster
postes
posts
potassium
potential
pound
pounds
pour
pov
poverty
power
powerful
powershot
pp
ppp
pppgdp
ppppc
pq
pr
prabang
practice
practices
pradesh
praesa
prague
praise
prc
pre
preah
precise
predominantly
prefer
prehistory
preity
preliminary
prem
premier
prentice
prepared
preparing
present
presented
presidency
president
presidential
press
pressure
preston
pretoria
preview
prey
pri
price
pride
primarily
primary
prime
prince
princess
princeton
principal
principe
principle
principles
print
printsec
private
prix
priyanka
prize
prnewswire
pro
probably
probe
problem
problems
proceedings
process
processor
produce
produced
product
production
productions
products
productview
prof
professional
professor
profile
profiles
profit
program
programme
programming
programs
progress
project
projection
projects
prometheus
prominent
promise
promote
promotion
pronounced
pronunciation
prophet
prophets
proposal
proposed
propulsion
prospect
prospects
protect
protection
protectorate
protein
protestant
proteus
proto
protocol
proton
proud
provice
provide
provided
province
provisional
ps
pst
psu
psy
psychological
psychology
pt
ptolemaic
ptolemy
pu
pub
public
publication
publications
published
publisher
publishers
publishing
pubs
puchowski
puerto
pulse
puma
pummels
punishment
punjab
punjabi
punt
puntin
puntland
purdue
pursat
put
putin
pv
pw
px
py
pyramids
pz
q
q0
q1
q2
q3
q4
q5
q6
q7
q8
q9
qa
qaab
qaabab
qaababka
qaabaynta
qaabdhismeed
qaabdhismeedka
qaabeeyey
qaabeynta
qaabiil
qaabilay
qaabilsan
qaabiyaha
qaabka
qaabkan
qaabkeeda
qaabkii
qaabkiisa
qaaci
qaacida
qaacidada
qaaciga
qaacigu
qaad
qaada
qaadaa
qaadaan
qaadan
qaadanay
qaadanaya
qaadanayaa
qaadanaynaa
qaadanayo
qaadanaysaa
qaadanno
qaadano
qaadashada
qaadasho
qaadata
qaadataa
qaadatay
qaadatey
qaadato
qaaday
qaadaya
qaadayaa
qaadayaan
qaadayay
qaadayo
qaadaysa
qaadday
qaaddo
qaade
qaadeen
qaadey
qaadi
qaadid
qaadida
qaadidda
qaadiga
qaadii
qaadin
qaadir
qaadirka
qaadis
qaadista
qaadka
qaadno
qaado
qaadow
qaaf
qaafiyad
qaafiyadda
qaahira
qaahiro
qaali
qaalib
qaaliga
qaalin
qaalisan
qaamuus
qaamuuska
qaamuuskan
qaamuusyada
qaan
qaangaadh
qaangaadhaa
qaangaadhka
qaangaar
qaangaarka
qaansada
qaansadu
qaanso
qaansuu
qaanuun
qaanuuni
qaanuunka
qaar
qaarad
qaarada
qaaradaha
qaaradda
qaarado
qaaradood
qaarbaa
qaarka
qaarkale
qaarkii
qaarkiis
qaarkood
qaarkooda
qaarkoodna
qaarna
qaas
qaasatan
qaasim
qaasin
qaaska
qaata
qaataa
qaataan
qaataha
qaatay
qaateen
qaatey
qaato
qaawan
qaawanaanta
qaaxada
qaayib
qaayo
qaazim
qab
qaba
qabaa
qabaan
qabab
qabad
qabadka
qaban
qabanaayo
qabanaya
qabanayaa
qabanayo
qabanin
qabashada
qabasho
qabata
qabataa
qabatay
qabatinka
qabato
qabaw
qabay
qabdiya
qabeen
qabey
qabi
qabiil
qabiilada
qabiiladii
qabiilka
qabiilkeeda
qabiilkii
qabiilkiisa
qabiillada
qabiilo
qabiilooyin
qabiilooyinka
qabin
qabo
qaboobaa
qaboobaha
qaboobe
qaboojis
qaboojiyaha
qaboow
qaboowga
qabow
qabowga
qabqabashada
qabqablayaasha
qabri
qabribayax
qabriga
qabrigii
qabrus
qabsadaan
qabsaday
qabsadeen
qabsadey
qabsado
qabsan
qabsashada
qabsashaddii
qabsashadii
qabsatay
qabsatey
qabsato
qabsi
qabsiga
qabso
qabsoomay
qabta
qabtaa
qabtaan
qabtay
qabteen
qabtey
qabto
qabuuraha
qabyaalad
qabyaalada
qabyaaladda
qabyaaladi
qabyada
qabyo
qadaadiicda
qadaafi
qadada
qadadu
qadar
qadarin
qadarinta
qadariyo
qadarka
qaday
qaddar
qaddarka
qadhaabsade
qadhaabsanaya
qadhaabsato
qadhaabsi
qadhaadh
qadi
qadiim
qadiimi
qadiimiga
qadiimisan
qadiimiya
qadiimka
qadiimsan
qadir
qadka
qado
qadsia
qafaashay
qajaar
qajaarka
qal
qalaad
qalaafe
qalab
qalabka
qalabkii
qalabyada
qalad
qalaf
qalafsan
qalajiyaha
qalajiyey
qalalaasaha
qalalaase
qalalan
qalanjo
qalbi
qalbiga
qalbigii
qalbigiisa
qalcad
qalcada
qaldan
qalfoof
qaliif
qaliin
qaliinka
qalimoow
qalin
qalinjabisay
qalinjabiyay
qalinka
qallaafe
qallafsan
qallalan
qalliin
qalliinka
qalma
qalmin
qamaan
qamadi
qamadiga
qamadigu
qamar
qanacsan
qanacsanayd
qancin
qanciso
qanciyaan
qanciyay
qanciyo
qandala
qandaraas
qandaraaska
qandaraaskeeda
qandaraaskeedii
qandaraaslaha
qandaraasyada
qandaraasyo
qandhada
qandho
qani
qaniga
qaniinyada
qanisan
qansax
qansaxle
qantara
qanyare
qar
qara
qaraabada
qaraabadiisa
qaraabo
qaraami
qaraamiga
qaraar
qarada
qaraha
qaramaan
qaramada
qarameed
qaran
qaranimada
qaranimo
qaranka
qaranku
qarash
qarashka
qarax
qaraxa
qaraxii
qaraxyada
qaraxyo
qarbad
qarboosh
qarbooshta
qardho
qare
qareen
qareenka
qarin
qarinta
qariya
qariyaan
qariyay
qariyey
qarni
qarniga
qarnigan
qarnigi
qarnigii
qarniyaal
qarniyadii
qarniyo
qaro
qarsoodi
qarsoodiga
qarsoon
qarxa
qarxay
qarxin
qarxiyay
qas
qasaa
qasab
qasabka
qasabtay
qasan
qasay
qasbanaaday
qasbay
qasbo
qasdamuuni
qasdiga
qashin
qashinka
qashtaala
qasim
qasriga
qaswado
qaswiin
qatar
qatari
qatay
qawaaniin
qawaaniinta
qawqaaska
qaxaan
qaxay
qaxdaan
qaxeen
qaxoontiga
qaxooti
qaxootiga
qaxootigii
qaxwaha
qaxwe
qayaad
qayb
qaybaha
qaybaheeda
qaybgalaan
qaybgalay
qaybgalayaasha
qaybgaleen
qaybgashay
qaybi
qaybin
qaybinta
qaybisay
qaybiya
qaybiyaa
qaybiyay
qaybiyeen
qaybiyey
qaybiyo
qaybo
qaybood
qaybqaadan
qaybqaadashada
qaybqaataan
qaybqaatay
qaybsaday
qaybsamaa
qaybsamaan
qaybsan
qaybsanaanta
qaybsantaa
qaybsantay
qaybta
qaybtaan
qaybtan
qaybteeda
qaybtii
qaybtood
qaydhiin
qaylo
qays
qaysar
qaysarkii
qayuc
qb
qc
qd
qe
qeeb
qeebood
qeexaa
qeexaan
qeexan
qeexay
qeexaya
qeexayaa
qeexi
qeexid
qeexida
qeexidda
qeexitaan
qeexitaanka
qeexo
qeeyb
qeeybaha
qeeybo
qeyb
qeybaha
qeybahaasi
qeybgalay
qeybin
qeybinayo
qeybinta
qeybisa
qeybisaa
qeybiya
qeybiyaa
qeybiyay
qeybiyo
qeybo
qeybood
qeybqaatay
qeybqaatayaasha
qeybsamaa
qeybsamaan
qeybsantaa
qeybsiga
qeybta
qeybtii
qeyliye
qeylo
qeyr
qeysarka
qf
qg
qh
qhifaar
qi
qiblada
qibtiyya
qidcad
qiil
qiima
qiimaha
qiimayn
qiimaynta
qiime
qiimeeyaa
qiimeeyay
qiimeeyo
qiimeyn
qiimeynta
qiimihiisu
qiimo
qiiq
qiiqa
qiiro
qing
qiram
qiray
qirtay
qisadii
qiso
qiyaamaha
qiyaame
qiyaas
qiyaasa
qiyaasaa
qiyaasaasi
qiyaasaha
qiyaasay
qiyaasayo
qiyaaseen
qiyaasey
qiyaasi
qiyaaso
qiyaasta
qiyaastani
qiyaastay
qiyaastii
qiyam
qiyamka
qiyyaso
qj
qk
ql
qm
qn
qo
qodaa
qodax
qoday
qodayo
qodeen
qodida
qodista
qodo
qodob
qodobada
qodobadan
qodobbada
qodobbo
qodobka
qodobkaan
qodobo
qof
qofba
qofka
qofkaa
qofkaan
qofkaas
qofkaasi
qofkasta
qofkii
qofkiiba
qofku
qofna
qofood
qofta
qoftaasi
qoftii
qofwalba
qol
qolada
qolal
qolalka
qolka
qolku
qolo
qoloba
qolof
qolofka
qolofta
qoob
qoobka
qooleeyda
qoom
qoomiyad
qoomiyada
qoomiyadaha
qoomiyado
qoomkii
qoomkiisa
qoondarka
qoondeeyay
qoondeeyey
qoor
qoorta
qoorte
qooyska
qor
qora
qoraa
qoraaga
qoraagu
qoraakii
qoraal
qoraalada
qoraaladii
qoraalka
qoraalkaagu
qoraalkaan
qoraalkan
qoraalkii
qoraalku
qoraallada
qoraalladii
qoraallo
qoraalo
qoraan
qoraha
qoran
qoranta
qorax
qoraxda
qoraxdu
qoraxey
qoray
qoraya
qorayaal
qorayaasha
qorayay
qorayo
qore
qoreen
qorey
qorfe
qori
qorid
qorida
qoridda
qoriga
qorigaan
qorigan
qorin
qoris
qorista
qoristii
qoritaanka
qormo
qornaa
qorniinka
qoro
qorrax
qorraxda
qorraxdu
qorshaha
qorshahan
qorshayaal
qorshaynta
qorshe
qorsheeyay
qorsheeyey
qorsheeyo
qorsheynta
qorshooyinka
qorshuhu
qortaa
qortay
qorto
qoryaale
qoryaha
qoryaweyn
qoryo
qoryooleey
qoryooley
qosol
qosolka
qotada
qoto
qotodheer
qotoma
qowmiyad
qowmiyada
qowmiyadaha
qowmiyadda
qowmiyadeed
qowmiyado
qoxooti
qoxootiga
qoyaan
qoyaanka
qoyan
qoys
qoysas
qoysaska
qoysaskooda
qoyska
qoyskan
qoyskeeda
qoyskii
qoyskiisa
qoyskiisu
qoysku
qp
qq
qquad
qr
qran
qs
qt
qtdba
qu
quake
qualifiers
quality
quang
quarter
qubays
qubbi
qubeys
qubeyska
qubrus
qubuuraha
qudaarta
qudduuska
qudh
qudha
qudhac
qudhiisa
qudub
qudus
quduska
quduus
quduuska
que
quebec
quechua
queen
queens
queensland
query
quest
question
questions
qufac
quhafa
quickfacts
qul
quljeed
qulqul
qulqulaya
qulqulka
qulqulo
qulus
quluubta
quman
qumbaha
qumman
qunsulka
qunyar
quote
qur
qura
quraac
quraaca
quraacda
quraan
quraanka
quraanku
qurac
quran
quranic
quranyo
quraysh
quraysheed
qurayshi
qurba
qurbaha
qurbajoog
qurbajoogta
qurbo
qurduba
qureec
qureysh
qureysheed
qurquud
qurub
quruumaha
qurux
quruxbadan
quruxda
quruxdeeda
quruxsan
qurxan
qurxin
qurxinta
qurxiyay
qurxiyo
qurxoon
qusdandiiniya
quud
quudinta
quudiyo
quudka
quustay
quuta
quutaan
quuto
quutul
quwad
qv
qw
qx
qy
qz
r
r0
r1
r2
r3
r4
r5
r6
r7
r8
r9
ra
raaber
raabiyada
raabka
raac
raaca
raacaa
raacaan
raacay
raacaya
raacayo
raacaysa
raacda
raacdaa
raacday
raacdey
raacdo
raaceen
raaci
raacin
raacitaanka
raaciyaa
raaciyay
raaciyey
raaco
raacsan
raacsanayd
raad
raadad
raadadka
raadhiyaam
raadhoon
raadi
raadin
raadinaya
raadinayo
raadinta
raadio
raadis
raadiyaa
raadiyaan
raadiyaha
raadiyahaan
raadiye
raadiyo
raadiyow
raadraaca
raadsaday
raadsado
raadso
raaga
raage
raali
raaligelin
raalli
raan
raas
raashid
raashidiin
raashidiinta
raashiin
raashin
raashinka
raashinkii
raashiya
raasumaal
raasumaalka
raaxada
raaxaysan
raaxaysi
raaxaysto
raaxo
raaxoole
rab
raba
rabaa
rabaan
rabat
rabay
rabbi
rabbiga
rabbigu
rabbit
rabdhuure
rabeen
rabi
rabih
rabiic
rabiica
rabiical
rabin
rabitaan
rabitaanka
rabnaa
rabo
rabshad
rabshada
rabshadaha
rabshado
rabsho
rabtaa
rabtay
rabtid
rabto
race
racfaanka
rachel
racing
rada
radhi
radhiyah
radiation
radio
radioactive
radius
rae
raf
rafaad
rafael
rafcaanka
rafle
rag
raga
rage
ragga
raggii
raggu
ragii
ragini
rahim
rahman
rahul
rai
raiisal
raiisel
raiisul
railway
railways
rain
rainbow
rainforest
rains
raisal
raised
raj
raja
rajab
rajada
rajasthan
rajeynaya
rajeynayaa
rajo
rakaab
rakaabka
rakcad
rakcada
rakco
raki
rakibay
rakibo
rako
rakyat
rally
ram
ramadaan
ramadaanka
ramadan
ramat
ramla
rams
ramsey
ranbir
rand
random
range
rangers
rani
rank
ranked
ranking
rankings
rao
raoul
rap
raphael
rapid
rapper
raqiis
raran
raray
rare
raro
ras
rasaaq
rasaas
rasaasta
rashad
rashid
rashiid
rasmi
rasmiga
rasmiya
rasuul
rasuulka
rasuulkii
rasuulkiisa
rasuulku
rasuulkuna
rasuullada
rasuusha
rate
rates
rating
ratings
raul
ravensbruck
rawaaxa
raxan
raxanweyn
raxaweyn
raxiim
raxiimi
raxma
raxmaan
raxmaani
raxmad
raxman
raxweyn
ray
rayaale
rayhana
rayid
rayidka
raymond
raynrayn
rays
raysal
raysulwasaare
rayxaana
rayyan
rb
rc
rd
re
reach
reaction
read
reading
ready
reagan
real
reality
really
reap
reason
reasons
rebecca
rebeqah
received
recensement
recent
recep
recipe
recognition
recognized
recommended
reconstruction
record
records
recovery
recreation
red
rediff
redir
reds
ree
reeb
reebay
reebayo
reebban
reebi
reebin
reebka
reebo
reebtay
reed
reer
reeraha
reerka
reerkaaga
reerkii
reerkiisa
reerkiisii
reerku
reero
reerood
reeryoonis
reexaan
ref
refer
reference
references
referred
refinery
reform
refs
refugee
refugees
refund
refworld
regarded
regency
regeni
regent
reggina
reggio
regime
regiment
regin
region
regional
regions
register
registrar
regulation
regulations
regulatory
reheniyaam
reich
reign
related
relations
relationship
relationships
relative
release
released
releases
relief
reliefweb
religion
religious
remain
remains
remarkable
remembering
remix
renaissance
rene
rennes
rep
repair
repeat
report
reportcontent
reported
reporter
reports
representative
representatives
reptile
repubblica
republic
republica
republik
republika
republique
reputation
request
requires
rer
res
research
researchgate
reserve
reserves
resistance
resolution
resort
resorts
resources
respect
response
rest
restaurant
resturant
result
results
retrieved
return
returns
reunion
reuters
reveal
revealed
reveals
revenge
revenue
review
reviews
revised
revision
revival
revolution
revolutionary
rexha
rey
reyer
reyes
reza
rf
rg
rh
rhode
rhodes
rhodesia
ri
riau
ribbon
rica
rice
rich
richard
richest
richie
ricky
rico
rida
ridaa
ridaan
riday
ride
rideen
riders
ridey
ridge
rididda
ridka
rido
rieng
rift
right
rights
rihanna
riig
riix
riixay
rikhaaye
rikoodh
rikoodhka
rikoodhkii
rikoor
rikoorka
rim
rin
rina
rincon
ring
rinjiga
rio
risaalada
risaaq
rise
rising
risk
rita
river
rivers
riwaayad
riwaayada
riwaayadaha
riwaayadda
riwaayaddii
riwaayadihii
riwaayadii
riwaayado
rixmaan
riyaad
riyaal
riyaale
riyada
riyadh
riyaha
riyal
riyale
riyo
rj
rk
rl
rm
rn
rna
ro
road
roald
rob
robbie
robbins
robcain
robert
roberto
roberts
robin
robinson
roble
robot
roc
rochester
rock
rocks
rocky
rodol
rodrigo
rodriguez
rogaal
rogaland
rogay
rogeen
roger
rogtay
rohingya
rohit
rojester
rok
roland
role
roll
rolling
rollingstone
roma
romaan
romali
roman
romance
romania
romanian
romanka
romans
romantic
rome
romeeniyaan
romeo
romsdal
ronald
ronaldo
roob
roobaad
roobaadka
roobab
roobabka
roobabku
roobka
roobku
rooble
roobsuge
roodhi
roof
rookie
room
rooma
roomaan
roomaaniga
roomaaniya
roomaanka
roomaankii
roomaanku
roon
rooney
roosevelt
rooso
root
rooti
rootida
rootiga
roots
rosa
rosario
rose
rosenborg
rosengard
rosetta
roshan
ross
rotana
rothschild
rotten
rottentomatoes
rotterdam
roubaix
rouge
round
rounders
routes
routledge
row
rowman
roy
royal
rp
rpch
rpd
rpf
rpg
rpk
rpp
rq
rqgyuicadg
rr
rs
rt
ru
rubiidhiyaam
rubuc
rudolf
rue
rug
rugaha
rugta
ruguuda
rukh
rukun
rukuucda
rule
rules
ruling
rumaynta
rumaysadkeenna
rumaysan
rumaysnaa
rumeeyaan
rumeeyay
rumeeyayaasha
rumeeyo
rumeeysa
rumeeysan
rumeyn
rumeysan
rumeysay
rumeysey
rumors
run
runsheegto
runta
runtaa
runti
runtii
runway
rupee
rupees
rupiah
ruqayyah
ruqiya
ruqiyya
rural
rush
russell
russia
russian
russka
russo
rusul
rususha
rusushii
rusuusha
ruth
rutheniyaam
rutherfordium
ruug
ruum
ruun
ruush
ruushka
ruushkii
ruushku
ruux
ruuxa
ruuxi
ruuxiga
ruuxii
ruwaayad
ruwaayada
ruwaayadaha
ruwaayado
ruwanda
rv
rw
rwanda
rx
ry
ryan
ryu
ryujin
rz
s
s0
s1
s2
s3
s4
s5
s6
s7
s8
s9
sa
saa
saab
saabaan
saabsan
saabsanaa
saabuun
saabuunta
saac
saacad
saacada
saacadaha
saacadda
saacado
saacadood
saacadu
saacid
saad
saadaalin
saadaalinayo
saadaaliyay
saadaasha
saadka
saado
saafi
saafiga
saaid
saakow
saalax
saalixa
saam
saamayn
saamaynaya
saamaynta
saamaysay
saambiya
saameeya
saameeyay
saameeyeen
saameeyey
saameyn
saameynta
saameysay
saami
saamiga
saamiyada
saan
saanqaaf
saar
saara
saaraa
saaraan
saaraha
saaran
saarantahay
saaray
saaraya
saarayaa
saarayaan
saarayaasha
saarayo
saare
saareen
saarey
saargoon
saari
saarid
saarida
saaridda
saarin
saarista
saarka
saarkeeda
saarkii
saarkiisa
saarkooda
saarnaa
saaro
saarta
saartaa
saartay
saartey
saarto
saaruuqaan
saas
saat
saaxadda
saaxibtinimada
saaxiib
saaxiibada
saaxiibka
saaxiibkeed
saaxiibkii
saaxiibkiis
saaxiibkiisa
saaxiibo
saaxiibtinimada
saaxiibtinimo
saaxil
saay
saba
sabaayada
sabab
sababa
sababaa
sababaan
sababaha
sababay
sababeen
sababi
sababihii
sababo
sababta
sababtaa
sababtay
sababtee
sababto
sababtoo
sababtu
sababtuna
sabah
sabahionline
saban
sabdi
sabiib
sabiibka
sablaale
sabool
saboolka
saboolnimada
sabrina
sabriye
sabti
sabtida
sabuur
sabuurradii
sac
sacaada
sacab
sacabka
sacad
sacdi
sacdiya
sacdiyo
sachsenhausen
saciid
sacmadeeqa
sacra
sacramento
sacre
sacred
sacuud
sacuudi
sacuudiga
sad
sada
sadaqo
sadax
sadaxaad
sadaxda
sadc
sadd
saddax
saddaxaad
saddaxda
saddex
saddexaad
saddexagal
saddexda
saddexdan
saddexdii
sade
sadex
sadexaad
sadexda
sadiiq
sadler
sadrulacdam
sadrulacdamka
sae
saeed
saf
safaarad
safaarada
safaaradaha
safaaradda
safafka
safar
safarka
safarkii
safarkiisa
safarkiisii
safaro
safarrada
safawiyiinta
safety
safiir
safiirada
safiirka
safiirkii
safiya
safiyya
safka
safkan
safra
safraan
safray
safreen
safri
safro
saftay
saga
sagaal
sagaalaad
sagaalka
sagaarada
sagaaro
sagaashan
sagal
sahal
sahaminta
sahamiyayaashii
sahamiye
sahan
sahanka
sahara
saharan
sahashay
sahay
sahayda
sahel
sahlan
saho
sahra
sahrawi
said
saif
saint
saitama
sakada
sakariye
saki
sako
sakura
sal
salaad
salaada
salaadaha
salaadda
salaaddii
salaadiin
salaajiqada
salaam
salaama
salaamay
salaan
salaanee
salaaniik
salaanta
salaase
salaaxudiin
salad
saladhka
salafi
salafiyada
salafiyiinta
salafka
salah
salal
salam
salama
salavan
salax
salaynayo
salaysan
salaysanyahay
salaysnaa
salazar
saldanad
saldanada
saldanadda
saldanadii
saldhig
saldhiga
saldhigeedu
saldhigga
saldhiggeedu
saldhigii
saldhigiisu
saldhigyada
saldhigyo
sale
salebaan
saleban
saleebaan
saleeban
saleemaan
saleh
salem
sales
saleynayo
saleysan
salfar
salidka
saliibi
saliid
saliida
saliidaha
saliidda
saliideed
saliidka
saliim
salim
salini
salka
sall
sallallaahu
sally
salma
salmaan
salman
salomon
salsiyas
salt
salvador
salzburg
sam
sama
samaale
samaan
samad
samada
samafal
samafale
samafalka
samaha
samakaab
samakab
samal
samale
samaroon
samaroonka
samaroonku
samatabbixinta
samatabbixiyay
samatalis
samatar
samater
samayn
samaynaya
samaynayaa
samaynayay
samaynayo
samaynin
samayno
samaynta
samaysa
samaysaa
samaysan
samaysanyahay
samaysatay
samaysay
samayska
samaysmaan
samaysmay
samayso
samaystaan
samaystay
samaysteen
samaysto
sambab
sambabada
same
samee
sameesan
sameesay
sameeya
sameeyaa
sameeyaan
sameeyaha
sameeyana
sameeyay
sameeyayaasha
sameeye
sameeyeen
sameeyey
sameeyn
sameeynayo
sameeyo
sameeysan
sameeysay
sameeysmay
sameeyso
sameeysteen
sameeysto
sameya
sameyay
sameyey
sameyn
sameynayo
sameynta
sameysa
sameysan
sameysay
sameysey
sameyso
sameystay
sameysteen
sami
samiir
samir
samo
samoa
samoo
samow
sample
samsamka
samsun
samsung
samuel
san
sana
sanaa
sanaag
sanaba
sanad
sanada
sanadadii
sanadaha
sanadahan
sanaddii
sanadguuradii
sanadihii
sanadii
sanadka
sanadkaa
sanadkaan
sanadkaas
sanadkan
sanadki
sanadkii
sanadkiiba
sanadku
sanadla
sanadlaha
sanadle
sanado
sanadood
sanakirja
sanam
sanamyada
sanamyadu
sanamyo
sanandkii
sanbuur
sanca
sanchez
sanctions
sand
sandefjord
sandiegohistory
sandii
sandkii
sandra
sands
sanduuq
sanduuqa
sandviken
sanfourche
sang
sangub
sanjay
sanka
sankara
sanky
sannad
sannadihii
sannadka
sannadkaas
sannadkan
sannadkii
sannadkiiba
sannadku
sannadlaha
sannado
sannadood
sanno
sano
sans
sanskrit
santa
santiago
santos
sao
sap
sapiens
saq
saqafka
sar
sara
saraakiil
saraakiisha
saraakiishii
saraar
sarah
saraha
sarajevo
sarakicin
saran
saransoor
saransor
sarapion
saray
saraynta
saraysa
sarbeeb
sare
saree
sareenka
sareeya
sareeyaa
sareeyay
sareeye
sareeyo
sareeysa
sareeysay
sareeyso
sarena
sareysa
sareysaa
sareyso
sarfiga
sarifka
sariir
sariirta
sarkaal
sarkozy
sarmaan
saro
sarpsborg
sarqusta
sarraysa
sarre
sarreeya
sarreeyaa
sarreeyay
sarreeye
sarreeyey
sarreeyo
sarreysa
sarreysay
sarrifka
sarsare
sarta
saruur
sarw
sasak
saskatchewan
sasou
sassou
sassy
sata
satellite
satellites
saturated
saturn
saud
saudi
savage
savanna
savannah
save
savelli
savenhshomeopathy
savoy
saw
sawaaxiliga
sawaxanka
saweetie
sawir
sawiraan
sawirada
sawiray
sawirka
sawirkii
sawiro
sawirqaado
sawirrada
sawirro
sax
saxa
saxaabada
saxaabadii
saxaabi
saxaabiga
saxaabigii
saxaafad
saxaafada
saxaafadda
saxaarada
saxaaxda
saxafi
saxafiyiinta
saxan
saxanka
saxar
saxara
saxarada
saxaraha
saxare
saxaro
saxda
saxeexa
saxeexatay
saxeexay
saxeexday
saxeexeen
saxiix
saxiixa
saxiixatay
saxiixay
saxiixday
saxiixdeen
saxiixeen
saxiixin
saxiixo
saxiixul
saxo
saxton
say
sayd
sayed
sayid
sayidka
sayidku
sayla
saylac
saylada
saylici
saynab
saynis
sayniska
saynisyahan
saynisyahano
sayrus
says
saytuun
saytuunka
sb
sba
sbs
sc
scandal
scandinavia
scarecrow
scarlet
scc
scene
schafer
schiphol
schlumberger
schneider
scholars
school
schoolka
schools
schuko
schwarze
science
sciences
scientific
scientist
scmp
sco
scool
scotia
scotland
scott
scottish
screen
screening
screens
scribd
script
scriptures
scsm
scw
sd
sderot
se
sea
seadevils
sean
search
searching
searchpr
searchtext
searchtype
seas
season
seat
seattle
sebastian
sebteembar
sebtembar
sebtember
sebtuwajinti
sec
second
secondary
secondry
secret
secretariat
secretary
secrets
section
sections
sectors
secure
securities
security
sed
sedan
seddax
seddex
seddexaad
seddexda
sedex
sedexaad
see
seed
seef
seefta
seeftiisa
seek
seeks
seen
seeps
seer
seerbiya
sees
seexan
seexasho
seexday
seey
seeyga
segana
sejong
sekong
selangor
selassie
selatan
select
selected
selectvarval
selel
selena
seleniyaam
self
sello
semi
semitic
semitiga
sen
senate
senator
send
seneca
senegal
senior
sense
senti
sentimitir
sentinel
seo
seok
seon
seong
seoul
seoulbeats
sep
separate
sepoy
sept
septeembar
september
septuagint
seq
seqno
sera
serbia
serbian
serbiya
serbs
sercel
sergio
serie
series
servant
server
serves
servetus
service
services
sesea
sesotho
session
set
setter
settlement
seung
sevastopol
seven
seventeen
seventh
several
severe
severus
sevilla
sex
sexual
sexy
seychelles
seyfried
seyga
seylac
seynab
seyshelles
sf
sg
sgs
sh
shaac
shaaca
shaacbaxay
shaacin
shaacir
shaacisay
shaaciyay
shaadh
shaadhasha
shaadhka
shaadhku
shaafici
shaah
shaaha
shaale
shaalle
shaam
shaambo
shaarbo
shaashad
shaashada
shaashadda
shaati
shabaab
shabab
shabakad
shabakada
shabakadaha
shabakadda
shabeel
shabeelada
shabeelaha
shabeele
shabeelka
shabeellada
shabeellaha
shabeelle
shabelada
shabelle
shacab
shacabka
shacabkii
shacabku
shacbaan
shacbi
shacbiga
shadoor
shadow
shafes
shafi
shagal
shah
shahaadada
shahaado
shahaadooyin
shahaadooyinka
shahada
shahid
shahiid
shahiiday
shahiideen
shahiido
shahwada
shaka
shake
shakhsi
shakhsiyaad
shakhsiyaadka
shakhsiyad
shakhsiyadda
shakhsiyadeed
shaki
shalaanbood
shalay
shalcaw
shaleemada
shaleemo
shall
shalmada
sham
shan
shanaad
shandado
shandong
shaneemo
shangaani
shanghai
shanqadh
shanqadha
shanta
shantii
shaqa
shaqaalaha
shaqaalaynta
shaqaale
shaqaaleysiiyay
shaqaalihii
shaqaaluhu
shaqada
shaqadaas
shaqadeeda
shaqadeedii
shaqadeedu
shaqadii
shaqadiisa
shaqadiisii
shaqadooda
shaqadu
shaqal
shaqalada
shaqalka
shaqayn
shaqaynaya
shaqaynayay
shaqaynayey
shaqaynaysaa
shaqaynaysay
shaqaynta
shaqaysa
shaqaysaa
shaqaysan
shaqaysay
shaqayso
shaqaysta
shaqeen
shaqeeya
shaqeeyaa
shaqeeyaan
shaqeeyay
shaqeeyeen
shaqeeyey
shaqeeynaayay
shaqeeyo
shaqeeysa
shaqeeyso
shaqeyn
shaqeynaya
shaqeynayaa
shaqeynayay
shaqeynayo
shaqeynaysay
shaqeyneysay
shaqeynin
shaqeynta
shaqeysa
shaqeysaa
shaqeysay
shaqeyso
shaqeystayaal
shaqlan
shaqo
shaqooyin
shaqooyinka
shaqooyinkooda
shaqsi
shaqsiga
shaqsiyaad
shaqsiyaadka
shaqsiyad
shaqsiyadda
shaqsiyadeed
shaqsiyeed
shar
sharaabi
sharaabka
sharaf
sharafeed
sharafta
sharaxa
sharaxaa
sharaxaad
sharaxaada
sharaxaan
sharaxan
sharaxay
sharaxaya
sharaxeen
sharaxo
sharci
sharcidejinta
sharciga
sharcigu
sharciyada
sharciyeed
sharciyo
shardi
share
shared
shareecada
shares
sharfay
sharfayo
sharfo
sharia
sharif
shariicada
shariif
sharing
sharjah
sharka
sharks
sharma
sharmaake
sharmaarke
sharmake
sharmarke
sharon
sharp
sharraxaadda
sharraxay
sharxay
sharxaya
shati
shatiga
shaw
shawn
shawwal
shax
shaxanka
shaxda
shay
shaybaarka
shaydaan
shaydaanka
shayddaanka
shayddaanku
shayga
she
shebelle
sheed
sheeg
sheega
sheegaa
sheegaan
sheegan
sheeganaya
sheeganayaan
sheegashada
sheegasho
sheegatay
sheegay
sheegaya
sheegayaa
sheegayaan
sheegayo
sheegaysa
sheegaysaa
sheegayso
sheegeen
sheegey
sheegi
sheegida
sheegin
sheegnay
sheegno
sheego
sheegow
sheegta
sheegtaa
sheegtaan
sheegtada
sheegtay
sheegteen
sheegto
sheekada
sheekadan
sheekadii
sheekadiisa
sheekadu
sheekeeyay
sheekeeyo
sheekh
sheekha
sheekhaal
sheekhii
sheekhu
sheekhul
sheeko
sheekooyin
sheekooyinka
sheekooyinkii
sheep
sheet
sheey
sheeyada
sheeyo
shegay
sheik
sheikh
sheila
shekel
shekh
shekhar
shell
shenzhen
shepherd
sheppard
sheqel
sheraton
shetty
shey
sheydaan
sheydaankii
sheyga
sheygaasi
shi
shia
shibbane
shibis
shibuya
shidaal
shidaalka
shidaalku
shiday
shido
shiekh
shield
shigniga
shiicada
shiicadu
shiico
shiidaalka
shiidan
shiiday
shiido
shiikh
shiikha
shiikhaal
shiikhu
shiikhyaale
shiilay
shiinaha
shiine
shiinees
shiineeska
shiineys
shiinuhu
shiiq
shiiqaal
shiishada
shikaago
shil
shilaabo
shilalka
shilbi
shilin
shilinka
shilka
shilke
shilkii
shilku
shillin
shilling
shillinta
shilpa
shimbir
shimbiraha
shimbiro
shimbirta
shin
shinaha
shine
shineema
shineemada
shineemo
shineemooyinka
shines
shingaani
ship
shipping
ships
shir
shirar
shirarka
shirarkii
shirdoon
shire
shiribka
shirka
shirkaas
shirkad
shirkada
shirkadaan
shirkadaha
shirkadahan
shirkadan
shirkadani
shirkadda
shirkaddeeda
shirkaddii
shirkaddu
shirkadeeda
shirkado
shirkadood
shirkadu
shirkan
shirki
shirkii
shirku
shirqool
shirshore
shirts
shirwac
shirwaynuhu
shirweynaha
shirweynihii
shirweynuhu
shisheeya
shisheeyaha
shisheeye
sho
shock
shojo
shona
shooting
shopping
short
shorter
shot
should
show
showbiz
showfatwa
shown
showprod
shows
shraddha
shroff
shtml
shub
shuba
shubaal
shuban
shubanka
shubay
shubo
shucaaca
shuceyb
shucuubta
shukaansiga
shukri
shukulaatada
shukulaato
shulman
shuppan
shuruuc
shuruucda
shuruud
shuruudaha
shuruudo
shut
shuuciga
shuuciyada
shuurada
shuuriye
shy
si
siad
siam
sian
siberia
sibidh
sibidhka
sicid
siciid
sicily
sicir
sicirka
sid
sida
sidaa
sidaad
sidaan
sidaana
sidaas
sidaasi
sidaasna
sidam
sidamo
sidan
sidatan
siday
sidayaasha
sidda
siddeed
siddeedaad
siddeeqah
siddeetan
siddo
side
sidee
sideed
sideeda
sideedaad
sideedaba
sideedii
sideen
sideetan
sidey
sidi
sidii
sidiina
sidiisa
sido
sidokale
sidoo
sidookale
siduu
sie
siem
sierra
sifaadle
sifayn
sifaynta
sifeeyay
sifeeyey
sifeeyo
sifeynta
sifiican
sifo
sifooyin
sifooyinka
sify
sig
sigaar
sigaara
sigaarka
sigaarku
sight
sign
signal
signed
significant
signs
sii
siib
siiba
siiborgiyaam
siicoow
siid
siidaayay
siidaynta
siideynta
siigaale
siigaysigu
siil
siilaanyo
siilaasi
siilaasiiyo
siilasi
siilka
siin
siina
siinaa
siinaay
siinay
siinaya
siinayaa
siinayaan
siinayo
siinaysa
siinaysaa
siinayso
siinin
siinoon
siinta
siirada
siiriya
siisa
siisaa
siisay
siiso
siiwaas
siiya
siiyaa
siiyaan
siiyay
siiyeen
siiyey
siiyo
sikastaba
sikesmond
sikh
sil
silaanyo
silciyey
silciyo
silent
silikoon
silk
silsilad
silsilada
silsiladaha
silsiladda
silsilado
silva
silver
silverstone
simad
siman
simanyihiin
simay
simba
simbaabwi
simit
simo
simon
simone
simple
simply
sin
sina
sinaan
sinaanta
sinada
sinai
sinaysiga
since
sindh
sing
singabuur
singapore
singer
singh
single
singular
sinha
sinigaal
sinimo
sinki
sinnaan
sinnaanta
sino
sint
sinujiif
sioux
sip
siprage
sir
siraad
sirdoonka
siri
sirius
sirkooniyaam
sirta
sisi
sisin
sisinta
sister
sisters
sita
sitay
site
siteinfo
sites
situation
siwaaqroon
six
sixir
sixirka
sixteenth
sixth
siyaabo
siyaad
siyaarto
siyaasad
siyaasada
siyaasadaha
siyaasadda
siyaasaddii
siyaasaddiisa
siyaasadeed
siyaasadeedka
siyaasadihii
siyaasadii
siyaasadiisa
siyaasado
siyaasi
siyaasiga
siyaasiin
siyaasiinta
siyaasiyiin
siyaasiyiinta
siyaatal
siyad
siyara
size
sizes
sj
sk
skagerrak
ske
skills
skin
sky
skyvector
sl
sla
slate
slated
slavery
slavic
slavs
sleep
slide
slim
slogan
slovak
slovakia
slovenia
slow
sm
smail
small
smart
smf
smh
smid
smile
smith
smitha
sms
sn
sna
snaama
snake
snapping
snf
snippet
snl
snm
snoop
snow
sns
snsd
sntv
so
soap
sobre
soc
soccer
socda
socdaa
socdaal
socdaalay
socdaalaya
socdaale
socdaaley
socdaalka
socdaalkii
socdaan
socday
socdeen
socdey
socdo
social
socialblade
socialist
sociedad
society
sociology
soco
socod
socodka
socodkii
socodsiinta
socon
soconaya
socono
socoshada
socota
socotaa
socotada
socotay
socotey
socoto
soddon
soddonka
sodhiyaam
sodium
sodoga
sodom
sodon
sofen
sofia
sofitel
sofiyeeti
sofiyet
soft
software
soil
sokeeya
sokeeyay
sokeeye
sokor
sokorta
sokow
sokrades
sol
solar
soldier
soldiers
solid
solidarity
solo
solomon
solution
solutions
som
somaali
somaalida
somaaliya
somaaliyeed
somala
somali
somalia
somalialainen
somalian
somalias
somaliasomalia
somalida
somalidoc
somalidu
somalie
somaliga
somalija
somaliland
somalilandlaw
somalilandsl
somalilandsun
somalinet
somalis
somalitalk
somaliya
somaliyed
somaliyeed
some
something
sometimes
somtel
son
sonakshi
song
songhay
songs
sonia
sonke
sonkor
sonkorta
sons
sony
soo
sooc
sooca
soocaa
soocaan
soocane
soocay
soocaya
soocida
sooco
soofiyeedka
soofiyeet
soofiyeeti
soofiyeetka
soogaabiye
soogalootiga
soohdin
soohdinta
soojeedinta
soojin
soojireenka
sook
sool
sooma
soomaal
soomaali
soomaalia
soomaalida
soomaalidda
soomaalidii
soomaalidu
soomaaliga
soomaaligu
soomaaliland
soomaalinimo
soomaaliweyn
soomaaliya
soomaaliyed
soomaaliyeed
soomaaliyey
soomaalya
soomaan
soomalaiya
soomali
soomalia
soomalida
soomalidu
soomaliga
soomaliland
soomaliya
soomaliyed
soomaliyeed
sooman
soomaray
soomartay
soomo
soompi
soon
soona
soonaha
soonka
soonku
sooraj
sooran
sooranka
soorka
soorta
soosaar
soosaaray
soosaarka
soow
sooyaal
sooyaalka
sooyaalkii
sophia
sort
sos
sotho
soul
sound
sounds
soundtrack
source
sources
south
southampton
southeast
southern
southwest
sovereign
sovereignty
soviet
sow
sowda
soy
soyan
sp
space
spain
spania
spanish
spanishka
sparta
spartak
speak
speakers
speaking
speaks
special
specialist
species
spectrum
speech
speed
spencer
speu
spice
spider
spin
spirit
split
spoken
spor
sport
sporting
sports
spot
spotify
spotlight
spoto
spouse
spring
springer
sq
square
squid
sr
src
sri
ss
ssb
ssc
ssd
ssdf
ssr
st
stable
stacey
stadia
stadium
staff
stage
stalin
stalingrad
stallion
stamps
stan
stanbul
stand
standard
standards
stanford
stanley
stanza
star
starbucks
stars
start
stat
statcan
state
statement
statements
states
station
statista
statistical
statistics
statistik
statoids
stats
status
stavanger
stay
stayc
steam
steel
stefan
stein
steinkjer
stella
stephanie
stephen
sterling
steve
steven
stevens
stewart
stick
still
stingray
stm
stock
stockholm
stolperstein
stolpersteine
stone
stop
storage
store
storia
stories
storm
story
strabo
strait
straitstimes
strasberg
strasbourg
strategic
strategy
stream
streaming
street
strengthen
strengthening
strike
strikes
strinati
strip
strong
structure
struggle
stuart
student
students
studi
studies
studio
studios
study
stung
sturgeon
stuttgart
stview
style
stylecaster
stylish
su
suarez
sub
subag
subaga
subax
subaxa
subaxdii
subaxnimadii
subaxnimo
subclans
subcultures
subeer
subhash
subixii
subject
subjects
submarine
submission
subsea
subxaanahu
success
successful
such
sucuudi
sucuudiga
sucuudigu
sud
sudan
sudanic
sudi
suez
suffix
suftu
sufyaan
sufyan
sugaal
sugaan
sugaha
sugan
sugar
sugaya
suge
suggested
sugi
sugida
sugidda
sugnaa
sugnaaday
sugnaatay
sugnaayeen
sugnayn
sugo
sugule
sugulle
suhaib
sui
suicide
sujuud
sujuudayaa
sujuudda
sujuudo
suk
sulawesi
sulaymaan
sulayman
suldaan
suldaanka
suldaankii
suldaanku
suldan
suleekha
suleiman
suleymaan
suleyman
sulli
sullivan
sultan
sultanate
sultanları
sultans
sulu
sum
sumad
sumadaha
sumadda
sumal
sumatra
sumcad
sumcadda
sumeeriyaan
sumeeriyaanka
sumerian
summad
summada
summadaha
summado
summary
summer
summit
sun
suna
sunda
sunday
sundowns
sung
sunmi
sunna
sunnada
sunni
sunniga
sunno
sunny
sunrise
sunshine
sunta
suntaa
suntan
suomi
sup
super
superm
superstar
supply
support
supporting
supports
suppressed
supreme
suqaar
suqadara
sur
sura
surabaya
surah
surahs
surat
sure
surface
surgery
surinam
suriname
surprise
surre
surrey
survey
surveys
survival
survive
survivors
surwaal
surwaalka
susan
suspected
sussex
sustainable
sut
suu
suuban
suubanayd
suubban
suubbanaa
suubbanaha
suudaan
suudal
suudi
suuf
suufi
suufiyada
suufka
suugaan
suugaaneed
suugaanta
suugaantu
suugada
suugo
suul
suuldhabaale
suuley
suuli
suulka
suulku
suun
suunka
suuq
suuqa
suuqan
suuqeed
suuqgeynta
suuqyada
suuqyo
suura
suurad
suurada
suuradaha
suuradda
suurado
suuradood
suuragal
suuratu
suuratul
suuriya
suuriyaan
suuro
suurta
suurtagal
suurtagalka
suurtagalnimada
suurto
suurtogal
suurtogalnimada
suurtogelisa
suurtogelisay
suwar
suweys
suwon
suxufi
suxufiga
suxufta
suxuunta
suzhou
suzuki
suzy
sv
svay
svg
sw
swahili
swan
swasiland
swaziland
sweden
swedish
sweeney
sweet
swift
swimsuit
swiss
switch
switzerland
sx
sy
sydney
syedatun
syl
sylvia
symbol
symbols
syndrome
syria
syriac
syrian
system
systeme
systems
sz
sə
t
t0
t1
t2
t3
t4
t5
t6
t7
t8
t9
ta
taa
taaba
taaban
taabanaya
taabasho
taabo
taabtaan
taabte
taabto
taag
taaga
taagan
taagantahay
taagay
taageen
taageer
taageera
taageeraan
taageerada
taageeradii
taageeraha
taageeray
taageeraya
taageerayaal
taageerayaan
taageerayaasha
taageerayaashiisa
taageerayaashooda
taageerayo
taageere
taageereen
taageeri
taageerida
taageeridda
taageero
taageersan
taageerta
taageertaa
taageertay
taageerto
taagey
taagga
taagi
taagna
taagnaa
taagnaan
taagnayd
taagneyd
taago
taaj
taajir
taajirsan
taako
taal
taala
taalaa
taalada
taalay
taale
taalla
taallaa
taallay
taallo
taalneed
taalo
taan
taana
taangi
taangiyada
taangiyo
taariikh
taariikhaha
taariikhda
taariikhdeeda
taariikhdeedu
taariikhdii
taariikhdiisa
taariikhdooda
taariikhdu
taariikheed
taariikhi
taariikhiga
taariikho
taariikhyahan
taariikhyahanada
taariikhyahanadu
taariikhyahanka
taariiqda
taarikh
taarikhda
taarikhdu
taas
taashfiin
taasi
taasina
taasna
taaso
taasoo
tab
taba
tababar
tababarada
tababaraha
tababaran
tababaray
tababare
tababarka
tababaro
tababartay
tababbarka
taban
tabar
tabari
tabarta
tabaruc
tabarucaad
tabelvorto
tabid
table
tables
tableservices
tablo
tabo
tabuk
tacaalaa
tacab
tacliin
tacliinta
tadsjikistan
tae
taeha
taeyeon
tafaariiq
tafaariiqda
tafatiray
tafiir
tafiiranka
tafiirmeen
tafiirta
tafiirtii
tafsiirka
tag
taga
tagaa
tagaan
tagalog
tagay
tagaya
tagayaa
tageen
tageo
tagey
tagi
tagin
tago
tags
tagta
tagtaa
tagtada
tagtay
tagto
tahay
tahaye
tahayna
tahey
tahir
tahirah
tahliil
tahriib
tahriibinta
tahriibka
tahriibku
tahy
tai
taichung
taiga
taipei
taipeitimes
taipower
taishan
taiwan
taj
tajakistaan
tajik
tajikistan
tajwiidka
tak
takbiirta
take
takeo
takes
takfida
takhasus
takhasusay
takhasustay
takhtar
taking
takoor
takoorka
taksi
tal
tala
talaa
talaabada
talaabay
talaabo
talaabooyin
talaado
talaal
talada
taladii
talagalay
talan
talantaali
tale
taleefan
taleefanka
taleefoonada
taleex
talefishinada
talent
talented
talents
tali
taliban
talin
talinayaa
talinayay
talinaysay
talinta
talis
talisa
taliska
taliskii
taliso
taliya
taliyaa
taliyaan
taliyaani
taliyaaniga
taliyaanigu
taliyaha
taliyahii
taliyaniga
taliyay
taliyayaal
taliyayaasha
taliyayaashii
taliye
taliyeen
taliyihii
taliyiisa
taliyo
talk
talks
tall
tallaabada
tallaabo
tallaabooyin
tallaabooyinka
tallaal
tallada
tallo
talo
talobixin
talogalay
talooyin
talooyinka
talsperren
talxe
talyaani
talyaaniga
talyaanigii
talyaanigu
talyaasha
talyaashiis
talyaniga
talyanni
tamaandhada
tamar
tamarta
tamil
tamilka
tamu
tan
tana
tanaasulay
tanade
tanakh
tangier
tani
tanina
taniyo
tank
tanker
tansaaniya
tantalum
tanzania
taqaan
taqaanid
taqaano
taqalusay
tar
tara
taraafikada
taraawiil
tarabbi
tarabi
taran
taranka
taranta
taraqa
tarayn
tareen
tareenada
tareenka
tareke
target
targets
tari
tarihi
tariikh
tariikhda
tariinka
tarikh
tarjamada
tarjumaada
tarjumaadaha
tarjumaadda
tarjumaan
tarjumay
tarjumaya
tarjumayaan
tarmay
tartamaan
tartamada
tartamay
tartamaya
tartamayaan
tartamayaasha
tartamayay
tartamayeen
tartame
tartami
tartamo
tartan
tartanka
tartankan
tartankii
tartiib
tas
tasavalta
tashaday
tashan
tashanaya
tashi
tashiga
tashik
tasi
task
tasmania
tasoo
taste
tata
tataarka
taurus
tawakal
tawba
tawfiiq
tax
taxa
taxan
taxana
taxanaha
taxanayaal
taxane
taxanihii
taxanuhu
taxiyaadka
tay
tayada
tayga
tayland
taylor
taymiya
tayo
taywan
tb
tbm
tc
tcx
td
te
tea
teacher
team
tears
teaser
tech
techcrunch
technical
technologies
technology
tectonic
tedros
tee
teedii
teedsan
teen
teenage
teerso
teferi
tega
tegay
tegey
tegi
tegin
tegsas
tehran
teknetiyaam
teknolojiyada
teknoolajiyada
teknoolojiyada
tel
telcom
telecom
telecommunication
telecommunications
teleefonada
telefanka
telefishan
telefishanka
telefishen
telefishin
telefishinada
telefishinka
telefoon
telefoonka
telegeography
telegraph
telekom
telemark
telescope
telesom
television
telifishanka
tell
tells
telugu
template
temple
tempo
ten
tenasia
tencent
tengah
tenggara
tennessee
tennis
tensions
tera
teresa
term
terminal
terms
territorial
territories
territory
terrorism
tervetuloa
test
tethys
texas
text
textile
texts
tf
tfg
tg
th
tha
thaad
thai
thailand
thames
than
thani
that
thatcher
the
theafricareport
theater
theatre
thee
thefreedictionary
theguardian
thehindu
their
them
theme
themselves
then
thenews
theodore
theory
theplantlist
there
thesaban
these
thesis
they
thickness
thika
thing
things
think
third
this
thom
thomas
thompson
thomson
thong
thordarson
thorne
thorns
those
though
thought
thoughts
thousand
thousands
threads
threat
three
through
throughout
thumb
thunder
thunders
thus
thy
ti
tia
tianjin
tiberiyaanka
tibet
tibetan
tibix
tidhaahda
tidhi
tie
tiel
ties
tifaftiraha
tifaftirka
tiffany
tiger
tigers
tignoolajiyada
tigray
tigre
tigreega
tigrinya
tigris
tihiin
tii
tiilay
tiinle
tiir
tiiraanyo
tiirar
tiirarka
tiirka
tiirsadaye
tiirsan
tiirsanaa
tiirsanaanta
tiirsantahay
tiirsanyahay
tijaabada
tijaabiyay
tijaabiyo
tijaabo
tijaabooyin
tik
tikidhada
tiknoolajiyada
tiknoolijiyada
tikrit
tiktok
tilaabo
tilifonada
till
tilmaama
tilmaamaa
tilmaamaan
tilmaamaha
tilmaamay
tilmaamaya
tilmaamayaa
tilmaamayaan
tilmaamayo
tilmaamaysa
tilmaamaysaa
tilmaame
tilmaameen
tilmaami
tilmaamid
tilmaamo
tilmaamtay
tilmaan
tilmaanta
tilmaantay
tim
timaada
timaadaa
timaadda
timaaddaa
timaaddo
timaado
timacade
timaha
timaheeda
timber
timbuktu
time
timeline
times
timesofindia
timesofisrael
timi
timid
timidey
timir
timirta
timirtu
timo
timor
timur
timuurlank
tin
tina
tinashe
tinta
tintin
tio
tir
tira
tiraab
tiraahdaa
tiraale
tirada
tiradaas
tiradaasi
tiradda
tirade
tiradii
tiradiisa
tiradooda
tiradoodu
tiradu
tirakoob
tirakoobka
tirakoobkii
tiran
tiray
tiri
tiriliyan
tirin
tirinta
tiris
tiriska
tiriskii
tiriyaa
tiriyay
tiriyey
tiriyo
tiro
tiroda
tiroka
tirokoob
tirooyin
tirooyinka
tirsan
tirsanaa
tirsanaan
tirsanayd
tirsantahay
tirsiimo
tirtiray
tirtiri
tisjiic
titan
titania
titanic
titans
title
tiu
tix
tixaha
tixda
tixgeli
tixgelin
tixgelinayaa
tixgelinayo
tixgelinta
tixgeliyaa
tixgeliyaan
tixgeliyey
tixgeliyo
tixraac
tixraaca
tixraacaan
tixraacaya
tixraacayaan
tixraacayo
tixraaco
tixraacyada
tixraacyo
tiyaatar
tiyaatarada
tiyaatarka
tiyeeglow
tj
tk
tl
tm
tn
to
tobacco
tobago
toban
tobanaad
tobanaan
tobaneeyo
tobanka
tobankii
tobanlaha
tobanle
tobannaan
tobnaad
toc
today
todd
toddoba
toddobaad
toddobaadka
toddobaadkii
toddobaadle
toddobada
toddobo
todoba
todobaad
todobaadka
todobaadle
todobaadyada
todobaatan
todobada
todobo
todos
tog
toga
togan
togdheer
together
togga
togo
tohfah
tohob
tok
tokyo
tokyoreporter
tol
tolay
toledo
tolida
tolka
tolkiisa
tolow
tolweyne
tom
tomas
tomatoes
tomb
tome
tomie
tommy
ton
tone
tonga
tonle
tons
tony
too
toobad
toobin
toogashada
toogasho
toogtay
took
tools
toon
toona
toonna
toonta
toos
toosa
toosan
toosanaha
toosin
toosiyay
tooska
toosoo
tooth
tooyada
top
topic
topics
topsites
tor
torino
tornado
tornadoes
toronto
torrential
torres
toscana
tot
total
totals
tottenham
touch
touched
toulouse
tour
tourism
tourist
tours
tout
towards
tower
towers
towfiiq
town
towns
towraad
towrah
towxiidka
toyota
tp
tpl
tplf
tq
tr
trabzon
trabzonspor
track
trade
trading
tradition
traditional
traditionally
traffic
trafigura
tragedy
trail
trailer
train
training
tramell
trans
transactions
transformers
transgender
transit
transitional
translate
translation
transliteration
transmission
transnistria
transport
transportation
trap
travel
travis
tre
treasure
treatment
treaty
tree
trek
trench
trend
trending
trends
trentino
tres
tri
triangle
tribe
tribes
tribune
trillion
trimingham
trinidad
trip
triple
tripod
tripoli
tristan
triton
triumph
troglodytica
troops
tropical
trouble
trt
trtworld
trudeau
true
trump
trust
trusteeship
truth
trybishop
trøndelag
ts
tshisekedi
tsunami
tswana
tt
tu
tuareg
tubaakada
tubbac
tube
tubeec
tuduc
tuf
tufaax
tufaaxa
tuhunka
tuhunsan
tukada
tukadaa
tukaday
tukado
tukan
tukanaya
tukanayaa
tukanayaan
tukanayo
tukashada
tula
tuli
tulla
tumaal
tuman
tumashada
tumay
tumayo
tumo
tun
tundra
tungsten
tunis
tunisia
tunisiya
tunnel
turdho
turf
turjubaan
turjubaanka
turjumaa
turjumaad
turjumaadda
turjumaan
turjumaha
turjumay
turjumaya
turjume
turk
turkana
turkestan
turkey
turki
turkic
turkida
turkiga
turkigu
turkish
turkiya
turkiye
turkmenistan
turkpress
turks
turn
turned
turns
turub
turunbada
turunbo
tus
tusaa
tusaalaha
tusaale
tusaalo
tusaalooyin
tusaalooyinka
tusay
tusaya
tusinaysaa
tusmada
tusmo
tuso
tutsi
tuu
tuubo
tuug
tuugada
tuugo
tuula
tuulada
tuuladaan
tuuladan
tuuladda
tuuladii
tuuladu
tuulo
tuulooyin
tuulooyinka
tuulooyinkaas
tuuniisiya
tuur
tuuraan
tuuray
tuuro
tuuryare
tuvalu
tuwitter
tv
tw
tweet
tweets
twentieth
twenty
twice
twin
twitter
twittersnowflake
two
twps
tx
txt
ty
tyldesley
tymb
tyndale
type
typhoon
tyra
tyrol
tz
tzu
tzuyu
tønsberg
u
u0
u1
u2
u3
u4
u5
u6
u7
u8
u9
ua
uae
ub
ubaahan
ubad
ubadan
ubadka
ubax
ubaxa
ubaxyada
ubaxyo
uber
ubuc
ubucda
uc
ucejwcbyp
ucid
ud
udeejeen
udgoon
udgoonka
udhac
udhaca
udhashay
udhaxaysay
udhaxeeya
udhaxeysa
udheer
udhexeeya
udhiganta
udhiska
udhow
udiin
udiinka
udub
udubdhexaad
udug
uduga
udugaan
uduruxmiin
ue
uea
uefa
uehara
uf
ufara
ufayn
ufc
ufm
ufmg
ufurow
ug
uga
ugaadh
ugaadha
ugaadhsi
ugaadhsiga
ugaadhyahan
ugaandha
ugaar
ugaarsiga
ugaarta
ugaas
ugaaska
ugaaskii
ugaasyada
ugaasyo
ugala
ugama
ugana
uganda
ugandha
ugas
ugasoo
ugu
ugub
uguhoraysay
uguma
uguna
ugusoo
uguwayn
uh
uhj
uhud
ui
uid
uit
uj
ujeedada
ujeedadeedu
ujeedadiisu
ujeedadoodu
ujeedadu
ujeeddada
ujeeddadiisu
ujeeddooyin
ujeeddooyinka
ujeedkiisu
ujeedo
ujeedooyin
ujeedooyinka
ujeejeen
ujirta
ujirtaa
ujuuraan
uk
ukala
ukrain
ukraine
ukrainian
ukun
ukunta
ul
ula
ulasim
ulasoo
uleh
ulo
um
uma
umaatul
umad
umada
umadaha
umadda
umana
umar
umawiya
umawiyiin
umawiyiinta
umawiyiintu
umay
umayya
umayyad
umayyads
umbriel
umm
ummad
ummada
ummadaasi
ummadaha
ummadda
ummadii
ummadiisa
ummu
umu
un
una
unabridged
unaf
unasur
unattached
unaxariistee
unaxariisto
unbaa
uncitral
uncle
unctad
und
under
underclothes
underground
understanding
undg
undp
une
unep
unesco
unfccc
unfolding
unfpa
unhcr
unicef
unicorn
unido
uniffac
union
unionka
unique
uniquegodx
uniroma
unit
unitar
united
unites
units
unity
universal
universe
universidad
universidade
universitas
university
unkay
unknown
unlimited
unoqday
unosom
unpo
unsd
unstats
until
unu
unug
unugga
unuggu
unugyada
unugyo
unuun
unveiled
uo
up
upcoming
update
updated
updates
upi
upload
uploads
upper
uq
uqaaday
ur
uraano
ural
uranium
uranus
urawa
urban
urbanization
urdu
urdun
url
urmah
urta
uruguay
uruk
uruka
urur
urura
ururada
ururin
ururinta
ururiyaan
ururiyay
ururiyeen
ururiyey
ururiyo
ururka
ururkaan
ururkaas
ururkaasi
ururkan
ururkani
ururkii
ururku
ururo
ururrada
urursan
urursuge
uruurinta
uruuriyay
uruuriyo
urwayni
us
usa
usaama
usaid
usatoday
usb
usbakis
usbekistan
usbuuc
usbuuca
usbuucii
usc
usd
usda
use
used
user
users
uses
usgs
usha
usi
usii
using
usmagazine
uso
usoo
usp
usps
ussr
ustaad
ustaadka
ustareliya
ut
utaagan
utah
utahay
utara
utc
utexas
uthman
utrecht
uttar
uu
uubow
uud
uuga
uugu
uul
uuliyad
uuliyadda
uuliyiin
uuliyiinta
uulka
uumanka
uumi
uumiga
uun
uuna
uunka
uur
uurka
uurmidig
uusan
uv
uw
uwayn
ux
uxud
uy
uyaal
uyaalka
uyaalweyddiin
uyar
uyghur
uz
uzbekistan
v
v0
v1
v2
v3
v4
v5
v6
v7
v8
v9
va
vakıfbank
valderrama
valencia
valentina
valletta
valley
value
valued
values
valve
van
vancouver
vanessa
vanity
vanuatu
var
varchive
vari
variant
variety
various
varun
vasco
vaughn
vb
vc
vd
vdl
ve
ved
veer
vega
vegas
vegetables
vehicle
veli
velvet
venetian
venezia
venezuela
venezuelan
veng
venice
venus
ver
vera
verb
verbo
verde
verein
verge
verlag
vermont
vero
verona
versailles
verse
verses
version
versions
vertical
very
vesselregister
vest
vestfold
vestigis
vf
vfl
vg
vh
vhf
vi
via
vice
vicente
viceroy
victims
victor
victoria
victory
vicugna
video
videos
vientiane
viet
vietnam
vietnamese
view
viewer
viewerng
views
viewtopic
vihiga
vii
viii
vijay
viking
viktor
villa
village
villarreal
ville
vin
vincent
vinci
vine
viola
violence
violet
vipers
viral
virgin
virginia
virus
viruses
visa
visakha
vision
visit
visited
visiting
visitors
vista
vita
vital
vitamin
vivid
viz
vizija
vj
vk
vl
vladimir
vlamertinge
vm
vn
vo
voa
voanews
vodafone
vogue
voi
voice
voices
voit
vol
volcano
volley
volodya
volta
volume
volvo
von
voor
vortaro
vorton
vos
vote
vous
vox
voyager
vp
vq
vr
vroom
vs
vt
vte
vtj
vu
vulgaris
vulture
vv
vw
vx
vy
vz
w
w0
w1
w2
w3
w4
w5
w6
w7
w8
w9
wa
waa
waaa
waaba
waabari
waaberi
waaciye
waad
waadi
waafajiyo
waafaqay
waafaqeen
waafaqsan
waaga
waagaa
waagaas
waagaasi
waagii
waagu
waajib
waajibaad
waajibaadka
waajibka
waajid
waal
waalan
waali
waalid
waalidiinta
waalidka
waalidkeed
waalidkii
waalidkiis
waalidkood
waalidku
waamid
waamo
waan
waana
waanay
waannu
waano
waanu
waaq
waar
waara
waardiyaha
waari
waase
waasoo
waatii
waawayn
waawayni
waaween
waaweeyn
waaweyn
waaweynaa
waax
waaxa
waaxda
waaxood
waaxyaha
waaxyo
waaya
waayaan
waayadii
waayaha
waayahan
waayay
waaye
waayeel
waayeelka
waayeen
waayey
waayihii
waayo
wabi
wabiga
wabigaan
wabiyaal
wabiyada
wabiyo
wabxo
wac
wacan
wacantahay
wacay
wacays
wacaysle
wacbuudhan
wacdaan
wacdaro
wacdi
wacdiyow
waceys
waceysle
waco
wacyi
wacyiga
wacyigelinta
wad
wada
wadaa
wadaad
wadaaddadii
wadaaddo
wadaadka
wadaag
wadaaga
wadaagaa
wadaagaan
wadaagay
wadaagaya
wadaagga
wadaagi
wadaagin
wadaago
wadaagta
wadaagtaa
wadaagtay
wadaagto
wadaan
wadada
wadadii
wadaha
wadahadal
wadahadalka
wadahadalo
wadajir
wadajirka
wadama
wadamada
wadamadda
wadamadii
wadamo
wadan
wadana
wadanada
wadanadii
wadanamaha
wadani
wadaniga
wadaninimada
wadaniyad
wadanka
wadankaa
wadankaan
wadankaas
wadankaasi
wadankan
wadankani
wadankeena
wadankii
wadankiisa
wadankooda
wadanku
wadano
wadar
wadareed
wadarta
wadarteedu
wadashaqeyn
wadata
wadatay
wadato
waday
wadayaal
wadayaasha
wadda
waddada
waddadan
waddadii
waddamada
waddammada
waddamo
waddan
waddanaka
waddanamaha
waddanamha
waddani
waddaniga
waddanka
waddankii
waddanku
waddanmaha
wadday
waddnamaha
waddnamha
waddnmaha
waddo
waddooyinka
wade
wadeen
wadey
wadi
wadin
wadista
wadnaha
wadne
wadnka
wadno
wado
wadooyin
wadooyinka
wadoweyn
wafdi
wafu
wagardhac
wahb
waheen
wajaale
wajahan
wajahay
wajahday
wajeer
waji
wajiga
wajigiisa
wajir
wak
wakaalad
wakaalada
wakaaladaha
wakaaladda
wakaalado
wake
wakhti
wakhtiga
wakhtigaa
wakhtigaas
wakhtigaasi
wakhtigan
wakhtigani
wakhtigii
wakhtigu
wakhtiyada
wakhtiyadaasi
wakhtiyadan
wakhtiyadii
wakhtiyadu
wakhtiyo
wakiil
wakiilada
wakiiladu
wakiilka
wakiillada
wakiilladeeda
wakiillo
wakiilo
wal
walaac
walaaca
walaacsan
walaal
walaalaha
walaalaheed
walaalahooda
walaaleeya
walaalihiis
walaalka
walaalkaa
walaalkeed
walaalkii
walaalkiis
walaalnimo
walaalo
walaaltinimo
walaasha
walaasheed
walaashii
walaashiis
walaashood
walalo
walashma
walax
walaxda
walba
walbaa
walbana
walbo
walboo
wales
wali
waliba
walibana
walibora
waligeed
waligii
waligiis
waligood
waliid
walina
waljamaaca
walk
walker
wall
wallaahi
wallace
wallee
wallis
walls
waloow
walow
walt
walter
waluba
walwal
walxaha
walxo
wan
wana
wanaag
wanaaga
wanaageeda
wanaagga
wanaagsan
wanaagsanaa
wanaagsani
wanaagyaalku
wanaagyadeena
wanaajin
wanaajiyo
wanagsan
wanderers
wang
wanlaweyn
wanle
wanna
want
wanted
wap
waq
waqaas
waqomasar
waqooye
waqooyi
waqooyibari
waqooyiga
waqooyigalbeed
waqoyi
waqti
waqtiga
waqtigaa
waqtigaan
waqtigaas
waqtigaasi
waqtigan
waqtigeeda
waqtigi
waqtigii
waqtigiisa
waqtigu
waqtiyada
waqtiyadii
waqtiyo
war
wara
waraab
waraabaha
waraabe
waraabin
waraabiyee
waraabiyo
waraabka
waraaq
waraaqaha
waraaqda
waraaqo
waramaan
waramay
waramayaa
waran
waranle
warar
wararka
waraysi
warbaahin
warbaahineed
warbaahinta
warbaahintu
warbixin
warbixinada
warbixinnada
warbixino
warbixinta
warcelinta
wardheer
wardheere
wardhiigleey
wardhiigley
ware
wareedyo
wareeg
wareega
wareegaa
wareegaan
wareegan
wareegay
wareegaya
wareegeen
wareegey
wareegga
wareeggii
wareegi
wareegii
wareego
wareegsan
wareegta
wareegtada
wareegtay
wareegto
wareegyada
wareejin
wareejinta
wareejiyay
wareejiyey
wareejiyo
wareer
wareysi
wareysiga
warfa
warfaa
warfaafinta
warfare
wargayska
wargaysyada
wargelin
wargeliyay
wargeys
wargeyska
wargeysyada
wargeysyo
waridaad
waris
warisay
warisey
warisgaadhsiinta
wariyaha
wariyay
wariye
wariyey
warka
warkaas
warkii
warmurtiyeedka
warner
warns
waro
warqad
warqada
warqadaha
warqadda
warqaddii
warqadii
warqado
warramay
warramey
warren
warrior
warriors
wars
warsame
warsangali
warsangeli
warsaw
warsengali
warshad
warshada
warshadaan
warshadaha
warshadaynta
warshadda
warshaddaha
warshaddii
warshadeeyo
warshado
warshaduhu
warsheekh
warshiikh
warta
warwaa
warwaaq
was
wasaarad
wasaarada
wasaaradaha
wasaaradani
wasaaradda
wasaaradii
wasaarado
wasaaraha
wasaarayaashii
wasaare
wasaarihii
wasakh
wasakhda
wasallam
wasarada
wasaradii
washaaqo
washaqo
washington
washingtonpost
wasiir
wasiirada
wasiirka
wasiirki
wasiirkii
wasiiro
wasiirrada
wasiiru
wasim
waslad
waslada
wasladu
wasserbau
wasserspeicher
wat
wata
wataa
wataan
watacaalaa
watay
watch
watching
wateen
water
wato
watson
watt
watto
wave
waw
waweyn
wax
waxa
waxaa
waxaaa
waxaaba
waxaad
waxaadna
waxaan
waxaana
waxaanad
waxaanan
waxaanay
waxaanna
waxaannu
waxaanu
waxaanuu
waxaas
waxaase
waxaasi
waxaay
waxaayna
waxabarashada
waxad
waxakale
waxan
waxana
waxanu
waxar
waxaraxir
waxay
waxayba
waxayna
waxaynu
waxayse
waxba
waxbadan
waxbarasha
waxbarashada
waxbarashadda
waxbarashadeeda
waxbarashadii
waxbarashadiisa
waxbarashadiisii
waxbarashadu
waxbarasho
waxbarid
waxbaridda
waxbarshada
waxbarsho
waxbartay
waxee
waxeena
waxeey
waxeeyna
waxey
waxeyna
waxgarad
waxgaradka
waxgarasho
waxii
waxka
waxkasta
waxna
waxoo
waxoogaa
waxoona
waxow
waxqabad
waxqabadka
waxqabadkeeda
waxqabadkeedii
waxqabadkiisa
waxqabadyada
waxqabadyo
waxsoo
waxsoosaarka
waxtar
waxtarka
waxu
waxuu
waxuuna
waxy
waxyaaba
waxyaabaha
waxyaabihii
waxyaabo
waxyaalaha
waxyaalahan
waxyaalihii
waxyaalo
waxyabaha
waxyar
waxyeelada
waxyeellada
waxyeello
waxyeelo
waxyi
waxyiga
waxyigii
waxyna
waxyooday
way
wayback
wayday
waydiin
waydiiyay
wayland
wayn
wayna
waynaa
waynaha
waynayd
wayne
wayneyd
wayni
waynihii
waynta
waynu
wayo
wayrax
ways
wayteen
waziir
wałesa
wb
wbapi
wc
wd
we
weapons
wear
wearing
weather
weatherbase
web
webarchive
webcitation
weber
webi
webiga
webiyada
webka
websaydhka
websedyada
website
websiteka
websitekan
webster
wedding
wednesday
wee
weedh
weedha
weedho
week
weekly
weeknd
weeks
weel
weelka
ween
weeninkiisa
weer
weeraar
weerar
weeraraan
weerarada
weeraradii
weeraray
weerareen
weerarka
weerarkii
weeraro
weerarrada
weerarradii
weerarro
weerartay
weerta
weey
weeyaan
weeye
weeyn
wehbe
wehel
weheliso
weheliyaan
weheliye
weheliyo
wehliyaan
wehliye
wei
weighing
weji
wejiga
wejigiisa
welcome
welcomes
welfare
weli
weliba
weligaa
weligeed
weligii
weligiis
weligiisba
weligood
welina
well
wellington
wells
welsh
welt
welwel
welwelka
welwelsan
wendy
went
weo
weodata
weorept
were
werin
werisay
weriyay
weriye
weriyey
wershadaha
west
western
westminster
wet
wetterdienst
wexey
wexeyna
wey
weyd
weydaarsiga
weyday
weyddiin
weydii
weydiin
weydiinta
weydiisanayaa
weydiistay
weydiisteen
weydiiyay
weydiiyey
weydiiyo
weydo
weydow
weylahed
weyn
weyna
weynaa
weynaaday
weynaan
weynaha
weynayd
weyne
weyneyd
weyneyn
weyneynta
weyni
weynta
weyntahay
wf
wfp
wg
wh
whale
what
whats
wheat
when
where
which
while
whipple
white
whitefish
whitney
who
whole
whom
why
wi
wicitaan
wicket
wide
widely
widhwidh
width
[...]
