!
"
#
##0
##1
##10
##11
##12
##13
##14
##15
##16
##17
##18
##19
##2
##20
##21
##22
##23
##24
##25
##26
##27
##28
##29
##3
##30
##31
##32
##33
##34
##35
##36
##37
##38
##39
##4
##40
##41
##42
##43
##44
##45
##46
##47
##48
##49
##5
##50
##51
##52
##53
##54
##55
##56
##57
##58
##59
##6
##60
##61
##62
##63
##64
##65
##66
##67
##68
##69
##7
##70
##71
##72
##73
##74
##75
##76
##77
##78
##79
##8
##80
##81
##82
##83
##84
##85
##86
##87
##88
##89
##9
##90
##91
##92
##93
##94
##95
##96
##97
##98
##99
$
%
&
'
(
)
*
+
,
-
.
/
0
00
000
0000
001
002
003
004
005
006
007
008
009
01
010
011
012
013
014
015
016
017
018
019
02
020
021
022
023
025
027
028
03
030
036
037
04
040
042
045
047
0488
05
050
06
060
069
07
08
09
1
10
100
1000
10000
1001
1002
1003
1004
1005
1006
1007
1008
1009
101
1010
1011
1012
1013
1014
1015
1016
1017
1018
1019
102
1020
1022
1023
1024
1025
1026
1027
1028
103
1030
1031
1032
1033
1034
1035
1036
1037
1038
1039
104
1040
1041
1042
1043
1044
1045
1046
1047
1048
1049
105
1050
1051
1052
1053
1054
1055
1056
1057
1058
1059
106
1060
1061
1062
1063
1064
1065
1066
1067
1068
1069
107
1070
1071
1072
1073
1074
1075
1076
1077
1078
1079
108
1080
1081
1082
1083
1084
1085
1086
1087
1088
1089
109
1090
1091
1092
1093
1094
1095
1096
1097
1098
1099
11
110
1100
1101
1102
1103
1104
1105
1106
1107
1108
1109
111
1110
1111
1112
1113
1114
1115
1116
1117
1118
1119
112
1120
1121
1122
1123
1124
1125
1126
1127
1128
1129
113
1130
1131
1132
1133
1134
1135
1136
1137
1138
1139
114
1140
1141
1142
1143
1144
1145
1146
1147
1148
1149
115
1150
1151
1152
1153
1154
1155
1156
1157
1158
1159
116
1160
1161
1162
1163
1164
1165
1166
1167
1168
1169
117
1170
1171
1172
1173
1174
1175
1176
1177
1178
1179
118
1180
1181
1182
1183
1184
1185
1186
1187
1188
1189
119
1190
1191
1192
1193
1194
1195
1196
1197
1198
1199
12
120
1200
1201
1202
1203
1204
1205
1206
1207
1208
1209
121
1210
1211
1212
1213
1214
1215
1216
1217
1218
1219
122
1220
1221
1222
1223
1224
1225
1226
1227
1228
1229
123
1230
1231
1232
1233
1234
1235
1236
1237
1238
1239
124
1240
1241
1242
1243
1244
1245
1246
1247
1248
1249
125
1250
1251
1252
1253
1254
1255
1256
1257
1258
1259
126
1260
1261
1262
1263
1264
1265
1266
1267
1268
1269
127
1270
1271
1272
1273
1274
1275
1276
1277
1278
1279
128
1280
1281
1282
1283
1284
1285
1286
1287
1288
1289
129
1290
1291
1292
1293
1294
1295
1296
1297
1298
1299
13
130
1300
1301
1302
1303
1304
1305
1306
1307
1308
1309
131
1310
1311
1312
1313
1314
1315
1316
1317
1318
1319
132
1320
1321
1322
1323
1324
1325
1326
1327
1328
1329
133
1330
1331
1332
1333
1334
1335
1336
1337
1338
1339
134
1340
1341
1342
1343
1344
1345
1346
1347
1348
1349
135
1350
1351
1352
1353
1354
1355
1356
1357
1358
1359
136
1360
1361
1362
1363
1364
1365
1366
1367
1368
1369
137
1370
1371
1372
1373
1374
1375
1376
1377
1378
1379
138
1380
1381
1382
1383
1384
1385
1386
1387
1388
1389
139
1390
1391
1392
1393
1394
1395
1396
1397
1398
1399
14
140
1400
1401
1402
1403
1404
1405
1406
1407
1408
1409
141
1410
1411
1412
1413
1414
1415
1416
1417
1418
1419
142
1420
1421
1422
1423
1424
1425
1426
1427
1428
1429
143
1430
1431
1432
1433
1434
1435
1436
1437
1438
1439
144
1440
1441
1442
1443
1444
1445
1446
1447
1448
1449
145
1450
1451
1452
1453
1454
1455
1456
1457
1458
1459
146
1460
1461
1462
1463
1464
1465
1466
1467
1468
1469
147
1470
1471
1472
1473
1474
1475
1476
1477
1478
1479
148
1480
1481
1482
1483
1484
1485
1486
1487
1488
1489
149
1490
1491
1492
1493
1494
1495
1496
1497
1498
1499
15
150
1500
1501
1502
1503
1504
1505
1506
1507
1508
1509
151
1510
1511
1512
1513
1514
1515
1516
1517
1518
1519
152
1520
1521
1522
1523
1524
1525
1526
1527
1528
1529
153
1530
1531
1532
1533
1534
1535
1536
1537
1538
1539
154
1540
1541
1542
1543
1544
1545
1546
1547
1548
1549
155
1550
1551
1552
1553
1554
1555
1556
1557
1558
1559
156
1560
1561
1562
1563
1564
1565
1566
1567
1568
1569
157
1570
1571
1572
1573
1574
1575
1576
1577
1578
1579
158
1580
1581
1582
1583
1584
1585
1586
1587
1588
1589
159
1590
1591
1592
1593
1594
1595
1596
1597
1598
1599
16
160
1600
1601
1602
1603
1604
1605
1606
1607
1608
1609
161
1610
1611
1612
1613
1614
1615
1616
1617
1618
1619
162
1620
1621
1622
1623
1624
1625
1626
1627
1628
1629
163
1630
1631
1632
1633
1634
1635
1636
1637
1638
1639
164
1640
1641
1642
1643
1644
1645
1646
1647
1648
1649
165
1650
1651
1652
1653
1654
1655
1656
1657
1658
1659
166
1660
1661
1662
1663
1664
1665
1666
1667
1668
1669
167
1670
1671
1672
1673
1674
1675
1676
1677
1678
1679
168
1680
1681
1682
1683
1684
1685
1686
1687
1688
1689
169
1690
1691
1692
1693
1694
1695
1696
1697
1698
1699
17
170
1700
1701
1702
1703
1704
1705
1706
1707
1708
1709
171
1710
1711
1712
1713
1714
1715
1716
1717
1718
1719
172
1720
1721
1722
1723
1724
1725
1726
1727
1728
1729
173
1730
1731
1732
1733
1734
1735
1736
1737
1738
1739
174
1740
1741
1742
1743
1744
1745
1746
1747
1748
1749
175
1750
1751
1752
1753
1754
1755
1756
1757
1758
1759
176
1760
1761
1762
1763
1764
1765
1766
1767
1768
1769
177
1770
1771
1772
1773
1774
1775
1776
1777
1778
1779
178
1780
1781
1782
1783
1784
1785
1786
1787
1788
1789
179
1790
1791
1792
1793
1794
1795
1796
1797
1798
1799
18
180
1800
1801
1802
1803
1804
1805
1806
1807
1808
1809
181
1810
1811
1812
1813
1814
1815
1816
1817
1818
1819
182
1820
1821
1822
1823
1824
1825
1826
1827
1828
1829
183
1830
1831
1832
1833
1834
1835
1836
1837
1838
1839
184
1840
1841
1842
1843
1844
1845
1846
1847
1848
1849
185
1850
1851
1852
1853
1854
1855
1856
1857
1858
1859
186
1860
1861
1862
1863
1864
1865
1866
1867
1868
1869
187
1870
1871
1872
1873
1874
1875
1876
1877
1878
1879
188
1880
1881
1882
1883
1884
1885
1886
1887
1888
1889
189
1890
1891
1892
1893
1894
1895
1896
1897
1898
1899
19
190
1900
1901
1902
1903
1904
1905
1906
1907
1908
1909
191
1910
1911
1912
1913
1914
1915
1916
1917
1918
1919
192
1920
1921
1922
1923
1924
1925
1926
1927
1928
1929
193
1930
1931
1932
1933
1934
1935
1936
1937
1938
1939
194
1940
1941
1942
1943
1944
1945
1946
1947
1948
1949
195
1950
1951
1952
1953
1954
1955
1956
1957
1958
1959
196
1960
1961
1962
1963
1964
1965
1966
1967
1968
1969
197
1970
1971
1972
1973
1974
1975
1976
1977
1978
1979
198
1980
1981
1982
1983
1984
1985
1986
1987
1988
1989
199
1990
1991
1992
1993
1994
1995
1996
1997
1998
1999
2
20
200
2000
2001
2002
2003
2004
2005
2006
2007
2008
2009
201
2010
2011
2012
2013
2014
2015
2016
2017
2018
2019
202
2020
2021
2022
203
204
205
206
207
208
209
21
210
2100
211
212
213
214
215
216
217
218
219
22
220
221
222
223
224
225
226
227
228
229
23
230
231
232
233
234
235
236
237
238
239
24
240
241
242
243
244
245
246
247
248
249
25
250
2500
251
252
253
254
255
256
257
258
259
26
260
261
262
263
264
265
266
267
268
269
27
270
271
272
273
274
275
276
277
278
279
28
280
281
282
283
284
285
286
287
288
289
29
290
291
292
293
294
295
296
297
298
299
3
30
300
3000
301
302
303
304
305
306
307
308
309
31
310
311
312
313
314
315
316
3166
317
318
319
32
320
321
322
323
324
325
326
327
328
329
33
330
331
332
333
334
335
336
337
338
339
34
340
341
342
343
344
345
346
347
348
349
35
350
351
352
353
354
355
356
357
358
359
36
360
361
362
363
364
365
366
367
368
369
37
370
371
372
373
374
375
376
377
378
379
38
380
381
382
383
384
385
386
387
388
389
39
390
391
392
393
394
395
396
397
398
399
4
40
400
4000
40000
401
402
403
404
405
406
407
408
409
41
410
4107
411
412
413
414
415
416
417
418
419
42
420
421
422
423
424
425
426
427
428
429
43
430
431
432
433
434
435
436
437
438
439
44
440
441
442
443
444
445
446
447
448
449
45
450
451
452
453
454
455
456
457
458
459
46
460
461
462
463
464
465
466
467
468
469
47
470
471
472
473
474
475
476
477
478
479
48
480
481
482
483
484
485
486
487
488
489
49
490
491
492
493
494
495
496
497
498
499
5
50
500
5000
501
502
503
504
505
506
507
508
508083
509
51
510
511
512
513
514
515
516
517
518
519
52
520
521
522
523
524
525
526
527
528
529
53
530
531
532
533
534
535
536
537
538
539
54
540
541
542
543
544
545
546
547
548
549
55
550
551
552
553
554
555
556
557
558
559
56
560
561
562
563
564
565
566
567
568
569
57
570
571
572
573
574
575
576
577
578
579
58
580
581
582
583
584
585
586
587
588
589
59
590
591
592
593
594
595
596
597
598
599
6
60
600
6000
601
602
603
604
605
606
607
608
609
61
610
611
612
613
614
615
61525
616
617
618
619
62
620
621
622
623
624
625
626
627
628
629
63
630
631
632
633
634
635
636
637
638
639
64
640
641
642
643
644
645
646
647
648
649
65
650
651
652
653
654
655
656
657
658
659
66
660
661
662
663
664
665
666
667
668
669
67
670
671
672
673
674
675
676
677
678
679
68
680
681
682
683
684
685
686
687
688
689
69
690
691
692
693
694
695
696
697
698
699
7
70
700
7000
701
702
703
704
705
706
707
708
709
71
710
711
712
713
714
715
716
717
718
719
72
720
721
722
723
724
725
726
727
728
729
73
730
731
732
733
734
735
736
737
738
739
74
740
741
742
743
744
745
746
747
748
749
75
750
751
752
753
754
755
756
757
758
759
76
760
761
762
763
764
765
766
767
768
769
77
770
771
772
773
774
775
776
777
778
779
78
780
781
782
783
784
785
786
787
788
789
79
790
791
792
793
794
795
796
797
798
799
8
80
800
8000
801
802
803
804
8041
805
806
807
808
809
81
810
811
812
813
814
815
816
817
818
819
82
820
821
822
823
824
825
826
827
828
829
83
830
831
832
833
834
835
836
837
838
839
84
840
841
842
843
844
845
846
847
848
849
8493
85
850
850341
851
852
853
854
855
856
857
858
859
86
860
861
862
863
864
865
866
867
868
86843
869
87
870
871
872
873
874
875
876
877
878
879
88
880
881
882
883
884
885
886
887
888
889
89
890
891
892
893
894
895
896
897
898
899
9
90
900
9000
901
901383
902
903
904
905
906
907
908
909
91
910
911
912
913
914
915
916
917
918
919
92
920
921
922
923
924
925
925919
926
927
928
929
93
930
931
932
933
934
935
936
937
938
939
94
940
941
942
943
944
945
946
947
948
95
950
951
952
953
954
955
956
957
958
959
96
960
961
962
963
964
965
966
967
968
969
97
970
971
972
973
974
975
976
977
978
979
98
980
981
982
983
984
985
986
987
988
99
990
991
992
993
994
995
996
997
998
999
:
;
<
=
>
?
@
\
^
_
`
a
aa
aachen
aan
aarne
aaron
ab
aba
abad
abadenn
abadennou
abadez
abalain
abalamour
abanna
abaoe
abardae
abardaez
abati
abatiou
abbas
abbaye
abbe
abbeville
abbey
abbott
abc
abd
abdallah
abdu
abdul
abdullah
abe
abeg
abegou
abel
abeozen
aber
aberdeen
aberffraw
abergwaun
aberhonddu
aberin
aberiou
abertawe
aberteifi
aberystwyth
aberzh
aberzhet
aberzhin
aberzhiou
abes
abgar
abgrall
abherve
abi
abigail
abjad
abjean
abostol
abou
about
abp
abraham
abrams
abrant
abred
abrege
abretoc
abruzzo
absa
absolutivel
abu
abugida
abyssinicus
ac
acade
academia
academic
academy
acanthizidae
accademia
accipiter
accipitridae
accipitriformes
account
ace
ach
achap
achappertes
achard
achille
achu
achuet
acilius
acquaviva
acre
acrocephalus
across
act
actes
action
actualite
ad
ada
adal
adalbert
adalek
adam
adamawek
adams
adanvet
adaozadur
adaozan
adaozet
adarre
adc
adda
addilennet
addimezas
addimezet
addimezin
ade
adelaid
adelaide
adelheid
ademb
adembann
adembannadur
adembannet
aden
adeux
adieu
adige
adimplijet
adio
adkas
adkaset
adkavas
adkaver
adkavet
adkavout
adkemer
adkemeras
adkemeret
adkempenn
adkempennet
adkregin
adkroget
adlakaat
adlakaet
adlan
adlavaret
administratifs
administration
adober
adolf
adolfo
adolphe
adonis
adoration
adorazione
adour
adprenet
adrannet
adreizh
adreizhadenn
adreizhadennou
adreizhan
adreizhet
adren
adresse
adria
adrian
adriana
adriano
adrien
adrienne
adroet
adsav
adsavas
adsavet
adsavidigezh
adsevel
adskrivet
adstaget
adste
adstumm
adstummou
adtapet
adtapout
aduidi
adunanet
adunvanet
adunvanidigezh
advabet
advadezourien
advanced
adventure
adventures
advenue
adverb
adverbou
advesket
adwelet
ae
ael
aeled
aelez
aelia
aelius
aemilius
aeneas
aeneis
aequatorialis
aer
aerborzh
aerborzhiou
aergelc
aerlestr
aerlistri
aerlu
aerodramus
aeron
aerouant
aes
aesaat
aesc
aesoc
aet
aethopyga
aetius
aez
aezamantou
aezhenn
aezhennou
af
afan
afe
afer
aferiou
affaire
affinis
afganistan
afghanistan
afna
afon
afonso
afrez
africa
african
africanus
afrika
afrikan
afrikaneg
afrique
afro
afrodite
after
ag
again
against
agamemnon
agan
agata
agatha
age
agen
agence
agency
agenor
agent
ages
agne
agnes
agnese
agnolo
agostino
agricola
agricole
agrigento
agrippa
agrippina
agua
aguas
aguilar
agus
agusti
ah
ahel
ahenobarbus
ahmad
ahmed
ahmet
ahont
ai
aiacciu
aias
aigle
aigues
ail
ailleurs
aime
aimee
aimer
ain
ainoued
aio
air
airbus
aire
aired
aires
airsoft
ais
aise
aises
aisne
aisopos
aius
aix
aj
ajan
aje
ak
aka
akademiezh
akanek
akeaned
aked
aketus
akilles
akipaj
akira
akitania
akkad
akordeon
akoustik
akt
akta
aktaou
aktinidou
aktor
aktorez
aktou
aktour
aktourez
aktourezed
aktourien
akuzativel
akwariom
al
ala
alabama
aladdin
alaer
alagoas
alain
alam
alamagn
alaman
alamaned
alamanedpertes
alamaneg
alamanegerien
alamanek
alamanrene
alamanted
alamos
alan
alaned
alanig
alaouret
alar
alarc
alarig
alaska
alauda
alaudidae
alb
alba
alban
albaneg
albania
albany
albatroz
albert
alberta
alberti
albertina
albertine
alberto
alberzh
albi
albicollis
albifrons
albin
albinus
albiventris
albogularis
albom
albomou
albrecht
albret
album
albums
albuquerque
alburquerque
albus
alc
alca
alcala
alcedinidae
alcide
alcippe
aldernez
aldo
ale
alec
alectoris
aled
alegorienn
alegre
alejandro
aleksandr
aleksandra
aleksandria
alemanned
alenc
alesant
alese
alessandra
alessandria
alessandro
alex
alexander
alexandra
alexandre
alexandria
alexandrine
alexios
alexis
alez
alf
alfa
alfabetek
alfaguara
alfons
alfonso
alfred
alfredo
alge
algeciras
alger
algonkek
ali
alian
alias
alicante
alice
alicia
alien
alies
aliesan
aliesoc
aliet
aliezik
alif
alighieri
align
alignbars
alina
aline
aliou
alire
alis
alison
alive
alix
alje
aljebr
aljek
aljer
aljeria
aljerian
alkibiades
alkmaar
alkool
alkoolek
all
alla
allah
allain
allan
alle
alleluia
allemagne
allemand
allen
allende
aller
alliance
allie
allien
allier
allison
allmusic
allocine
allori
alma
almanach
almanak
almeida
almere
almeri
almodo
almohaded
almoravided
alo
alofonenn
alois
alone
alonso
alopecoenas
aloub
aloubadeg
aloubadegou
aloubadenn
aloubas
alouber
alouberezh
alouberien
aloubet
aloubidigezh
aloubin
aloudabeg
alpes
alpha
alphabet
alphonse
alpou
alre
als
alsace
also
alt
alta
altaek
altavilla
alte
altenburg
alter
alternative
altkirch
alto
aluminiom
alun
aluzener
alvaro
alves
alvokad
alvokaded
always
am
ama
amable
amadeo
amadeus
amalia
amalie
aman
amand
amanda
amann
amar
amatour
amaury
amazilia
amazing
amazon
amazona
amazonas
amazonezed
amazonia
amboise
ambon
ambroise
ambrose
ambrosio
ambrosius
ambroug
ambrouget
amdranzitivel
amdremenet
amdroc
ame
amedeo
amelia
amen
amenhotep
america
american
americana
amerigo
amerika
amerikan
amerikaned
amerikaou
amerikiom
amerindian
amerindianed
ames
amezeg
amezeien
amezek
amfitryon
amhareg
ami
amiens
amigos
amin
amiral
amis
amish
amished
amman
amo
amoco
amon
among
amor
amore
amores
amos
amour
amoureux
amours
amparo
ampart
ampartiz
ampoent
amprest
amprestet
amprestou
amprevan
amprevaned
amprevanetaer
amprevanoniour
amreizh
amsklaer
amstel
amsterdam
amstrizh
amundsen
amy
amzer
amzeriou
amzervezh
an
ana
anadenn
anadennou
anai
anal
analat
analysis
anaon
anaoudegezh
anaoudegezhiou
anaout
anarkour
anarkourien
anas
anastasius
anat
anatidae
anatol
anatole
anatolia
anavet
anavez
anavezas
anaveze
anavezent
anavezer
anavezet
anavezetan
anavezetoc
anavezomp
anavezout
anavout
anaya
anc
anchor
ancien
ancienne
anciennes
anciens
ancient
ancona
and
andalouzia
andalus
andaman
andamanensis
anders
andersen
anderson
andhra
andon
andoniou
andorra
andou
andouard
andrade
andre
andrea
andreas
andrei
andrev
andrew
andrews
andria
andromeda
andrzej
andur
andy
aneirin
aner
aneval
anevaled
anez
anezhan
anezhe
anezhi
anezho
ang
ange
angel
angela
angeles
angeli
angelica
angelina
angelo
angels
angers
anges
angharad
angl
anglais
angled
angleterre
anglia
anglikan
anglo
angola
angolensis
angoule
anguissola
angus
anhalt
ani
anien
anilocra
animal
animalbase
animals
animation
animatour
animaux
anime
anita
anjela
anjev
anjou
anjouan
ankara
anken
ankiniz
ankou
ankouaet
ankoue
ankounac
ann
anna
annaig
annales
annals
annam
anne
annez
annezad
annezan
annezet
annezidi
anneziou
annezva
annia
annibale
annick
annie
annius
anno
annual
annulus
annunziata
annwn
ano
anoiou
anor
another
ans
ansbach
anselmo
anser
ant
anta
antarktika
ante
anterin
anthologie
anthology
anthony
anthus
anti
antico
antigone
antigua
antikorfou
antilhez
antilopenn
antioc
antioch
antiochia
antiochus
antiope
antioquia
antipater
antique
antiquite
antiquity
anto
antofagasta
antoine
antoinette
anton
antonella
antoni
antonia
antonietta
antonin
antonini
antoninus
antonio
antonius
antony
antr
antre
antronoz
antwerpen
anv
anvadhe
anvadur
anvas
anveliour
anveliouriezh
anver
anvet
anviou
anvkristof
any
anzav
anzavas
anzavet
ao
aod
aodou
aogust
aogustin
aon
aorelian
aosta
aostralia
aostralian
aostrazia
aostria
aostrian
aostrianed
aoter
aotre
aotreegezh
aotreet
aotren
aotrou
aotrouien
aotrounez
aotrouniek
aotrouniezh
aou
aour
aovergn
aoz
aozadenn
aozadur
aozaduriou
aozan
aozas
aozer
aozerez
aozerien
aozet
aozour
ap
apache
apartheid
apelles
aphia
apo
apocalypse
apodidae
apoge
apollo
apollodoros
apollon
apotiker
apotikerezh
apparition
appel
appius
apple
applied
apre
april
aprouet
apus
aqui
aquila
aquileia
aquino
aquitaine
aquitania
ar
ara
arab
araba
arabat
arabed
arabeg
arabek
arabia
aradennad
aradon
arafat
arago
aragon
aragona
aragoneg
aragorn
aragua
aral
arall
aramaeg
aramaek
aran
araogenn
araogennou
araok
araokadenn
araokadennou
araokour
arar
arat
arbenn
arbennigour
arbennigourien
arbennik
arbennikaet
arborea
arborophila
arbre
arc
arcadia
arcadius
arce
arch
archaeological
archaeology
arche
arched
archer
archerien
archibald
architecture
archive
archives
archon
arco
arcus
ard
ardamez
ardamezeg
ardameziou
ardamezouriezh
arde
ardea
ardeidae
ardenne
ardennes
ardeven
ardivink
ardivinkou
ardreuzat
are
area
arem
arena
ares
arezzo
arfon
argad
argadenn
argadennou
argader
argadet
argadin
argadou
argant
argas
argaset
argemm
argemmou
argent
argenteuil
argentina
argentre
argerzh
argoad
argoed
argonaoted
argonne
argos
argourou
argus
arguzenn
arguzennou
argyle
argyll
ari
aria
ariadne
arian
ariane
arica
aridennad
arie
ariel
arigrap
ariosto
arismendi
aristide
aristoteles
arizona
ark
arkadia
arkansas
arkeologel
arkeologiezh
arkeologour
arkeologourien
arkitektouriezh
arktika
arlakadenn
arle
arles
arloadou
arm
armagnac
arman
armand
armando
armas
arme
armead
armeadou
armee
armel
armen
armenia
armenian
armenianed
armeniat
armenieg
armeniz
armentie
armeou
armerzh
armerzhel
armerzhour
armerzhourien
armes
armet
armfelt
armor
armored
armorial
armorique
armou
arms
armstrong
army
arn
arnaud
arnev
arnevez
arnim
arno
arnod
arnodadennou
arnodenn
arnodennou
arnodin
arnodou
arnodskrid
arnodskridou
arnold
aron
arondisamant
arondisamantou
arouez
arouezel
arouezenn
arouezennou
arouezian
aroueziet
arouezin
aroueziou
arouezius
around
arousa
arpitaneg
arques
arras
arre
arrebeuri
arriba
arrie
arrius
arrive
arrondissements
arroud
arroudenn
arroudennou
arroudou
arrow
ars
arsailh
arsailhet
arsanailh
arsav
arse
arsellet
arsenik
arsimont
art
artcyclopedia
arte
artemis
artemisia
artez
arthe
arthur
arthurian
arti
article
articles
artifisiel
artist
artistes
artists
artizaned
artmed
artois
artropoded
arts
artur
arturo
arvar
arvarus
arver
arveran
arveret
arvern
arvest
arvester
arvesterien
arvestin
arvestou
arvez
arvor
arvorig
arvoud
arvrec
arwerneg
aryan
arz
arzel
arzh
arzhed
arzhon
arzhur
arzorn
arzou
arzour
arzourez
arzourien
arzur
as
asam
asambles
asamblez
asant
asantas
asante
asantet
asantin
asburgo
ascension
ascoli
ascq
asgard
ash
ashikaga
ashley
asi
asia
asian
asiaticus
asin
asio
asiria
asiz
ask
askell
askellek
askorn
askornek
asm
asociacio
asp
aspadennou
assad
assam
assassin
assemble
assimilis
assis
assisi
association
associe
assomption
aste
astenn
astennas
astenne
astennet
asteroidenn
asteroidennou
asthenes
asti
aston
astoure
astraer
asturia
asturias
asturiez
asuncio
asur
at
atacama
atalante
atant
atantou
atao
atav
ate
atebek
atelier
aten
atena
atenat
ateniz
ater
atersadenn
atersadennou
aterset
ath
athe
athena
athene
athens
ation
atiz
atlanta
atlantel
atlantic
atlantique
atlantiques
atlantis
atlas
atle
atleterezh
atletour
atletourez
atmosferenn
atoll
atom
atomek
atomic
atomique
atomou
atrebated
atreu
atrice
atriceps
atrogularis
attack
attendant
attika
attila
au
aube
aubert
aubigny
aubin
auc
auch
auckland
aude
audi
audio
audrey
auf
auffret
aug
auge
augsburg
august
augusta
auguste
augusti
augustin
augusto
augustus
aujourd
auletes
aulnoy
aulus
aura
aure
aurelianus
aurelio
aurelius
aurora
aurore
aus
auschwitz
aussi
austen
austerlitz
austin
australia
australian
australis
austrasiatica
austria
aut
autant
autel
auteur
auteurs
authie
auto
autobiography
automne
autour
autre
autres
autumn
autun
auvergne
aux
auxerre
av
ava
avait
aval
avalon
avalou
avant
avantur
avanturiou
avat
avatar
ave
avec
avel
aveliou
avellaneda
avellino
aven
avengers
avenir
aventure
aventures
avenue
avercamp
aves
avesnes
avest
aveyron
aviation
avibase
aviceda
aviel
avielan
avielou
avielour
avignon
avis
avitus
aviv
aviz
avoir
avon
avranches
avril
avu
aw
awalc
award
awards
away
awen
awenet
axel
axillaris
ay
aylward
ayrault
ayse
aythya
az
azalek
azas
azasaat
azasaet
aze
azen
azerbaidjan
azeri
azeul
azeuldi
azeuldiou
azeulerezh
azeulet
azeulin
azezan
azezet
azginivelezh
azia
aziat
aziatek
azorez
aztek
azteked
aztekek
azul
azur
azvent
azzano
b
ba
baader
baal
bab
baba
babel
babenberg
babig
babilon
babilonia
baby
bac
bacchus
bacco
bach
bachelet
back
backgammon
backgroundcolors
bacon
bad
badajoz
badas
bade
baden
badez
badezet
badeziant
badezour
badia
bado
bae
baean
baekje
baen
baez
bag
bagad
bagadig
bagadou
bagan
bagar
bageal
bageer
bageerien
baghdad
bagnolo
bagou
bahamas
bahia
bahrein
bai
baia
baie
baile
bailh
bain
bains
baiona
baird
baiser
baja
bajenn
bak
bakan
baker
bakou
bakounin
bakteri
bal
bala
balafenned
baldoen
baldwin
bale
balearez
balez
balfour
balhae
bali
baliou
balkaniou
balkanou
ball
ballad
ballade
ballads
ballard
ballet
ballon
balp
balt
baltek
baltel
baltimore
baluc
balum
balumed
balumeta
balzac
bambino
bamet
ban
banal
banaleg
bananez
band
banda
bande
bandenn
bandennou
bandera
banell
baner
bang
bangladesh
banglaeg
banglaek
bangor
banjo
bank
bankou
banks
bann
bannadenn
bannan
bannau
banne
banner
bannerman
bannermani
bannet
bannie
banniel
bannielou
bannj
bannlev
bannou
bantouek
banvez
banzai
baod
baol
baot
baotr
baotred
baou
baouez
baouezas
baour
baourentez
bapaume
baper
baptist
baptiste
bar
bara
barack
baradoz
baran
barba
barbados
barbar
barbara
barbarossa
barbatus
barbe
barbier
barbuda
barca
barcelona
bard
bardata
barde
baread
barean
barez
bari
bariz
barker
barn
barnadenn
barner
barnerien
barnes
barnet
barney
barok
baron
baroncelli
barquement
barr
barra
barrad
barradou
barre
barregezh
barregezhiou
barrek
barrennou
barrett
barrez
barrio
barros
barrou
barrow
barry
bars
barselona
barset
bart
barted
barthe
bartienn
bartiennou
bartolome
bartolomeo
barv
barvek
barycypraea
barz
barzaz
barzh
barzhaz
barzhed
barzhez
barzhezed
barzhig
barzhoneg
barzhonegou
barzhoniel
barzhoniezh
bas
base
baseball
based
basel
bashar
bashung
basic
basile
basilica
basilique
basion
bask
basket
basketball
bass
basse
bassianus
bastan
bastard
bastardez
bastell
bastia
bastida
bastide
bastien
bastille
bat
batailhon
bataille
bataillon
bateau
bath
batista
batman
batrom
batsford
battalion
battement
battista
battle
battlefield
battlestar
baud
baudelaire
bauer
bauhaus
bautista
bautzen
bavaria
baviou
baxter
bay
bayard
bayern
bayeux
bayon
bayreuth
baz
bazeleg
bazenn
bazennou
bazh
bazil
bazin
bbc
bc
bce
bd
bdg
be
beach
beagle
beaj
beajet
beajin
beajou
beajour
beajourien
bear
bearn
beast
beat
beata
beatles
beatrice
beatrix
beatriz
beau
beaufort
beauharnais
beaulieu
beaumont
beaute
beautiful
beauty
beauvais
beauvoir
beaux
bec
because
beck
becker
bed
beda
bedcommonwealth
bede
bedel
bedenn
beder
bedford
bedin
bedou
bedreuziad
bedwyr
bee
been
beethoven
before
beg
begek
begel
begnen
begon
begou
beherea
behind
bei
beijing
being
beinn
beira
beirdd
beizanted
beja
bel
bela
belarus
belaruseg
bele
belec
beleg
beleget
beleien
belfort
belgia
belgiat
belgica
belgique
belgium
belgiz
beli
belisarius
belize
bell
bella
bellaat
bellaing
bellamy
bellay
belle
bellec
belles
belleville
bellevue
bellgargan
bellini
bello
bells
belluno
belmont
belmonte
belo
belost
beltra
beltram
beluga
belvedere
belz
bemdez
bemdeziek
bemp
bempvet
ben
benac
benafarroa
bene
benead
benedetto
benedict
benel
benet
benetton
benevento
benfro
bengal
bengalensis
bengali
bengaluru
bengt
beni
benigen
benin
benion
benito
benjamin
benn
bennad
bennadou
bennaenn
bennak
bennaket
bennan
bennett
bennhe
benniget
bennlec
bennoberenn
bennou
bennozh
benny
benoded
benoi
benoist
benoni
bentivoglio
bento
benveg
benvegad
benvegou
benz
beoc
beograd
beorien
beowulf
bep
bepred
ber
berber
berbereg
berberek
berc
bercy
bered
beredou
berengar
berenguela
berenguer
berg
bergamo
berge
bergen
berger
bergman
bering
berkeley
berkshire
berlepsch
berlepschi
berlin
berliner
bermudo
bern
bernabo
bernadette
bernadotte
bernard
bernardino
bernardo
berne
bernez
bernhard
bernhardt
bernie
berniet
bernikia
berniou
bernstein
berr
berradur
berraduriou
berraet
berranv
berranviou
berrbad
berre
berrien
berroc
berrstumm
berry
bersed
berson
bersonelezh
bert
berta
bertha
berthe
berthele
berthou
bertin
bertrada
bertrand
bervet
bervverk
berz
berzet
berzh
berzhiou
bes
besanc
besk
beskampion
besked
besketa
besketaerien
beskont
besoin
besprezidant
besroue
bessie
bessin
besson
best
besterd
bet
beta
bete
betek
betha
bethany
bethesda
bethlehem
beton
betra
better
bettina
betty
between
betws
beure
beuz
beuzeg
beuzet
beuzid
bev
bevaat
bevan
bevar
bevare
bevedeg
bevedegou
bevenn
bevennet
bevennou
beverly
bevet
bevezerezh
bevezin
bevien
bevin
bevoniel
bevoniezh
bevoniour
bewech
bewezh
beyer
beyond
bez
bezan
bezen
bezet
bezh
bezhin
bezhiou
beziet
beziou
bf
bg
bha
bhoutan
bi
bia
bianca
bianchi
biao
bibien
bibl
bible
biblek
bibliographie
biblioteca
bibliothe
bibliotheca
bibliotheke
bicolor
biden
bie
biel
biella
bielski
bien
bier
big
bigi
bignas
bignat
bigot
biguet
bihan
bihanaat
bihanaet
bihanan
bihanik
bihanniver
bihanoc
bihar
bije
bijer
biken
bikini
bikted
bilan
bilbo
bild
bilhed
bilhedou
bili
bilingue
bill
billancourt
billboard
billie
billig
billy
bilzig
bin
binarel
bineg
bingen
bingo
biniaouer
biniou
binvidigezh
binvidik
binvidikan
binviji
binviou
bio
biobi
biographie
biographique
biography
bioko
biolin
biolinou
biou
biouek
bir
biramidenn
birc
bird
birdlife
birds
birgitta
birkenfeld
birkin
birmania
birmingham
birou
birth
birthday
birvidik
birvilh
bis
bishop
biskoazh
bismarck
bismut
bissau
bistolenn
bistolida
bit
bithynia
biz
bizan
bizantat
bizantion
bizeost
bizhier
bizhui
bizied
bizkaia
bjo
bl
bla
blac
black
blackwell
blade
bladenn
bladennig
bladennou
blaen
blaenau
blaenenn
blair
blaise
blake
blakenn
blanc
blanca
blanchard
blanche
blanco
blanedenn
blank
blant
blantenn
blas
blasenn
blasicrura
blason
blaue
blavezh
blaz
ble
bleaz
bled
bleg
blegan
blegenn
bleger
bleimor
bleiner
bleiz
bleizi
blenian
blenier
blenierien
bleniet
bleu
bleud
bleue
bleun
bleuniou
bleustrerien
bleustrin
blev
bleveg
blevek
blez
blica
blij
blijadur
blijas
blije
blin
blind
bliv
bloavez
bloavezh
bloavezhiou
bloaveziou
bloaz
bloazdanevellou
bloaziek
bloaziou
bloc
bloch
blocks
blog
blogou
blois
blom
blood
bloody
bloomsbury
blot
blotviled
blu
blue
blueberry
bluenn
blues
blum
blun
blyth
bmg
bmw
bn
bnf
bo
boa
boan
board
boas
boat
boaz
boaziou
bob
bobby
bobet
bobl
boblad
boblan
bobletan
boblou
boc
bocage
boccaccio
boccard
bochad
bod
bodad
bodadeg
bodadegou
bodadenn
bodadou
bodan
bodet
bodoek
bodou
body
boe
boeck
boent
boentou
boer
boeson
boest
boestou
bog
bogota
bohemia
bohr
boi
boie
boionis
boiotia
bois
boisset
bokma
boks
bol
bolchevik
boled
bolero
boleyn
boli
boliserien
bolitikel
bolitikerezh
bolitikourez
bolitikourien
bolivia
bolodou
bologna
bolonia
bolotenn
boltred
bolz
bolzano
bom
bomb
bombard
bombay
bombezadeg
bombezadegou
bombezan
bombezenn
bombezennou
bombezer
bombezet
bomm
bommou
bon
bona
bonaparte
bond
boned
bonedou
bones
bonfim
bongo
bongorz
bonheur
bonifas
bonita
bonito
bonn
bonne
bonnet
bonnets
bonnie
bonnou
bonny
bonreizh
bonreizhel
bont
book
books
boophis
bor
bora
borbo
borbone
bord
bordeaux
border
borderie
borders
borealis
borges
borghese
borgia
borgn
borgne
borgo
boris
borja
bormann
bormida
born
borneo
borough
bortugal
bortugalat
bortugalek
borzh
bos
bosch
bosenn
bosnia
boson
bost
bostmemorial
boston
bot
botez
botorel
botou
botrel
botswana
botticelli
bottom
bouc
boucher
bouches
boud
bouda
boudaat
boudaegezh
bouddha
boudiged
boudika
boudou
boue
boued
boueta
bouez
bouezan
bouezus
bouezusan
bougainville
bouguereau
bouille
bouillet
bouillon
boulanger
boulc
boule
boulevard
boull
boulogne
boulvriag
bountan
bountet
bourbon
bourbourg
bourc
bourchas
bourdel
bourdellez
boureviet
bourg
bourgeois
bourges
bourget
bourgogn
bourgogne
bourk
bourmen
bourzh
bout
boutan
boutin
boutinan
bouvier
bouzellou
bow
bowen
bowie
box
boy
boyaca
boyd
boyer
boys
boz
bozen
bpitch
br
bra
brabant
brabham
brachyurus
brad
bradbury
bradford
bradley
braen
braga
braganc
braganza
bragou
brahmi
brain
bram
bramiek
bran
branca
branco
brand
brandenburg
brandon
brandt
branduardi
branta
brantad
branwen
bras
brasaat
brasaet
brasan
brasil
brasileira
brasoc
brasparzh
brassens
brasseur
bratislava
braun
braunschweig
brav
bravan
brave
bravig
bravigou
bravo
bravoc
bray
braz
brazil
brazilian
braziliat
bre
break
brean
brec
brecht
bred
breder
brederourien
brederouriezh
brehant
breil
brein
breinet
breiz
breizad
breizh
breizhad
breizhat
breizhek
breizhiz
breizhveurat
breizhveuriat
breizhveuriz
brekilien
brel
brelevenez
brem
breman
bremen
bren
brenan
brendan
brengolou
brenn
brenniliz
brentano
bres
brescia
bresk
breslau
bresse
brest
bretagne
breton
bretoned
bretonne
bretonnes
bretons
bretteville
breud
breudeur
breuil
breujou
breur
breuriezh
breutaer
breve
breved
brevele
brevez
brevirostris
brevis
brewenn
brezeg
brezegenn
brezegennou
brezel
brezeliadenn
brezelin
brezeliou
brezelme
brezelmemorial
brezelmemorialgenweb
brezelmonumant
brezelour
brezelourien
brezhon
brezhoned
brezhoneg
brezhoneger
brezhonegerien
brezhonek
brezhonekaet
brezhoweb
brezidant
brezidantelezh
brezidantez
brezoneg
brezonek
brezonnec
brezounek
brgm
bri
briac
briad
briag
brian
briand
briant
briantcassini
brianza
brice
bride
bridge
bridgeport
brie
bried
briedelezh
brief
brieg
briege
briek
brien
brientin
brieuc
brigade
brigadenn
brigadennou
brigadier
brigantes
bright
brigitte
brignogan
brikennou
brill
brin
brindisi
bring
brini
bris
brisson
bristol
brit
britain
britannia
britanniae
britannica
britannicus
british
brito
britons
brittany
brittonum
briz
brizh
brizhenn
brizonidi
bro
broad
broadcasting
broadel
broadelour
broadelourien
broadelouriezh
broadet
broadou
broadway
broc
brodu
broduin
brofeded
brogarour
broiou
broken
brokus
bromesa
bromwich
bron
bronn
bronneg
bronneged
bronnou
bronte
bronx
bronze
bronzino
brook
brookhaven
brooklyn
brooks
bros
brosez
brosezat
brotestant
brotestanted
brotestantiezh
brother
brotherhood
brothers
broudan
broudet
broudig
brouenn
brouin
brouwer
brovin
brown
browning
bru
bruce
bruched
brud
brudan
bruderezh
brudet
brudetan
brudetoc
brueghel
brug
brugge
brume
brun
brunei
brunet
bruno
brunswick
brusel
brusianed
brusk
brussels
brut
brutus
bruxelles
bruye
bruz
bryan
brychan
brycheiniog
bryn
bs
bsd
bt
bu
buan
buanan
buanoc
buarque
bublik
bubo
bubri
bucerotidae
buch
buchenwald
buck
buckingham
buckinghamshire
budapest
buddy
budjed
bue
buellt
buena
buenos
buez
buffalo
buffet
bugale
bugaleaj
bugel
bugelig
buhe
buhez
buhezegezh
buhezek
buheziou
buhezskrid
buhezskridou
building
builh
bukarest
bulad
bulgar
bulgareg
bulgaria
bull
bulletin
bun
bundesarchiv
bundestag
bundle
bunker
buoc
buonaparte
buonarroti
bure
bureau
burev
bureviou
burg
burgenland
burger
burgess
burgonded
burgondia
burgos
burke
burkina
burmek
burne
burning
burns
burroughs
burton
burundi
burutelladennou
burutellan
buruteller
burutellet
burzhud
burzhudou
burzhudus
bus
bush
business
but
bute
buteo
butler
button
butun
buzhug
bwv
by
byron
bzh
c
ca
caballeros
cabanas
cabanis
cabaret
cabo
cabot
cabral
cabrera
cacatua
cachoeira
cadell
cadfan
cadiou
cadiz
cadou
cadwaladr
cadwallon
caen
caer
caerdydd
caerffili
caerfyrddin
caerleon
caernarfon
caerulescens
caeruleus
caesar
caesarea
caesarion
caetano
cafe
cage
cagliari
cahier
cahiers
cai
caille
caillon
caius
calabria
calais
caldas
caldero
cale
calendas
calendriers
calgary
calidris
california
caligula
call
callac
calle
called
calling
calliope
callithrix
calpurnius
calvados
calvaire
calvez
calvi
calvin
calvino
cam
cambrai
cambre
cambriae
cambridge
cambridgeshire
came
camera
cameron
camilla
camille
camillo
camino
camp
campagna
campagne
campaign
campania
campbell
campeche
campephilus
campethera
campo
campobasso
campos
camus
can
cana
canada
canadensis
canadian
canal
cancer
canche
cancio
canciones
candide
cane
cangas
canidae
canis
cannes
canolfan
canon
canorus
canta
cantabria
cantal
canterbury
canticou
cantiques
canto
canton
cantons
cantref
cantrell
canu
canvas
canyon
cao
caouissin
cap
capablanca
cape
capel
capelle
capensis
capet
capita
capitaine
capital
capito
capitol
capo
cappella
capri
caprimulgus
captain
capua
car
cara
caracalla
caracas
caradog
caravaggio
cardiff
cardinal
cardinalidae
cardoso
care
carey
caribert
caridad
carl
carla
carles
carlisle
carlo
carlos
carlota
carlotta
carmel
carmen
carmo
carne
carnegie
carnet
carnot
caro
carol
carola
carole
carolina
caroline
caron
carpenter
carpentier
carpodacus
carracci
carrara
carre
carreg
carrera
carrie
carroll
cars
carta
cartagena
carte
carter
cartes
carvalho
caryl
cas
casa
casale
casanova
cascade
case
caserta
casey
cash
casimir
casino
casnewydd
caspar
cassard
casse
cassin
cassine
cassini
cassino
cassius
castan
castanea
castel
castell
castellana
castello
castelnuovo
castelo
casterman
castiglione
castilla
castillo
castle
castor
castro
castrum
cat
catala
catalana
catalina
catalogue
catalunya
catamarca
catania
catanzaro
catarina
catch
cate
cateau
catechis
catedral
caterham
caterina
catharina
catharus
cathbad
cathe
cathedral
catherine
catholic
catholique
cato
cats
cauca
caumont
causa
cause
cavalier
cave
cavendish
caxton
cay
cbac
cbs
cc
cd
cda
cdu
ce
cea
ceann
ceara
cecil
cecilia
cefn
ceionius
ceiriog
celebensis
celeus
celia
celib
celio
celle
celtes
celtic
celtica
celtique
celtiques
celui
cemais
cembre
cemeteries
cemetery
cena
cenci
cenedlaethol
census
cent
centenario
center
central
centre
centro
centropus
century
cercle
cercopithecus
cerdanya
cerdic
ceredigion
ceres
cerf
ceri
cerro
certhia
cervantes
cervidae
ces
cesar
cesare
cet
cette
ceuta
ceux
cf
cfdt
cfr
cgt
ch
cha
chabat
chabistr
chabrol
chaco
chadenn
chadennou
chadwick
chai
chaille
chain
chains
chal
chalet
challans
challenge
chalon
chaloni
chalotez
chamant
chamantou
chambord
chambre
champ
champagn
champagne
champion
champs
chan
chance
chandler
chanel
chang
change
channel
chanson
chansons
chant
chantal
chante
chantele
chantenay
chanter
chanteriou
chantonnay
chants
chaos
chaoser
chap
chapel
chapeliou
chapelle
chaplin
chapman
chapter
charadriiformes
charadrius
chardin
charente
charette
charity
charleroi
charles
charleston
charlez
charlie
charlotta
charlotte
charlottenburg
charpentier
chartres
chartrez
chas
chase
chaseal
chaseet
chaseour
chaseourien
chasse
chasseurs
chastel
chat
chatal
chateau
chateaubriand
chatham
chato
chats
chaucer
chaumont
chausse
chaux
chavannes
che
checs
chef
cheg
chek
chelonoidis
chelsea
chemical
chemin
chemins
chemistry
chen
chenn
chennou
cher
cherbourg
cherel
cherry
cheshire
chess
chessgames
chester
chesterfield
chet
cheuc
cheval
chevalier
chez
chi
chiapas
chiara
chicago
chicken
chico
chief
chien
chiens
chiesa
chieti
chihuahua
chiit
chiited
chilatherina
child
childerig
children
chile
chileat
chili
chiloe
chilton
chimie
chin
china
chine
chinensis
chinese
chinoise
chinon
chirac
chistr
chiz
chloe
chloephaga
chloris
cho
choaz
choazet
choice
choix
chokolad
chom
chomadenn
chomas
chome
chomet
chomfe
chomjont
chomlec
chomo
chomont
chopin
chou
chouan
chouaned
chouanted
chouk
chre
chris
christ
christen
christenunie
christi
christian
christiana
christiane
christianisme
christie
christina
christine
christmas
christoph
christophe
christopher
chroicocephalus
chronicle
chronicles
chronique
chroniques
chronologie
chrysocolaptes
chs
chu
chubut
chuck
chug
chulainn
church
churchill
churchyard
chute
ci
cia
cial
ciarrai
cicero
ciconia
ciconiiformes
cid
cie
ciel
cielo
cienfuegos
cil
cile
cill
cima
cimetie
cinclus
cinco
cindy
cine
cinema
cinerea
cinereus
cinnamomeus
cinnyris
cinq
cio
circa
circaetus
circle
circuit
circus
cis
cisalpina
cisticola
cisticolidae
cit
cite
cities
citizen
citroe
cits
citta
city
ciudad
civil
civiles
civilisation
civilization
civitas
ck
cke
cken
cl
cla
clair
claire
clap
clapton
clara
clare
clarence
clarendon
clarice
clark
clarke
clarksville
clash
class
classe
classic
classical
classics
classification
classique
claude
claudia
claudine
claudio
claudius
claus
clav
cle
clear
clearing
clegg
clelia
clemenceau
clemens
clemente
clementine
cleopatra
clerc
clerge
clermont
cles
cleveland
cliff
clifford
clint
clinton
clio
clocher
clochers
clock
clodius
clooney
close
cloud
clouet
clouzot
clovis
club
clun
clut
clwyd
clyde
cm
cn
cneus
cnrs
co
coahuila
coast
coat
cobre
coburg
coca
coch
cochevelou
cochran
cock
coco
code
codex
coe
coed
coenraad
coeur
cognac
cohen
coimbra
coin
col
cola
colaptes
colbert
colchester
cold
coldplay
cole
coleman
colette
colibri
colin
coll
collaboration
collaris
colle
collected
collectif
collection
college
collier
collins
colloque
colo
cologie
colombia
colombo
colonel
colonia
colonna
color
colorado
colors
colporteur
columba
columbia
columbidae
columbus
com
combat
comclochers
come
comedy
comes
comic
comics
comines
coming
comite
command
commando
comme
commedia
commence
comment
commerce
commission
committee
commodus
common
commons
commonwealth
communal
communaute
commune
communes
communication
communion
communist
communiste
community
como
compagnie
companion
company
compay
compie
comple
complete
composet
compositions
compostela
comprehensive
compter
computer
comte
comtesse
comune
comunista
con
conan
conceic
concepcio
concert
concerto
conchbooks
conchobar
concise
concolor
concord
concordia
conde
condita
condottieri
condottiero
confe
confederate
conference
confession
confessions
conflans
conflict
conflits
congo
congre
congress
connacht
connecticut
connor
conomie
conque
conquest
conrad
conscience
conseil
conservation
considine
consonant
constable
constanc
constance
constans
constant
constantia
constantin
constantine
constantinus
constantius
constanza
constitution
construction
consuelo
conte
contemporary
content
contes
conti
continental
contra
contre
contribution
contro
control
convention
conwy
cook
cool
coop
cooper
copa
coppola
coquimbo
cor
cora
coracina
corazo
corbeau
corbie
corcaigh
corcovado
cordoba
corent
corentin
corinne
cork
cormac
corn
corneille
cornelia
cornelis
cornelius
cornillet
cornish
cornouaille
cornouailles
cornwall
corona
coronatus
coronel
corporation
corps
corpus
corre
correggio
correspondance
corrientes
corse
corsica
corte
cortes
corun
corvidae
corvus
cos
cosenza
cosimo
cost
costa
costanza
cotentin
cotingidae
couffon
could
council
count
country
county
coup
coupe
cour
courant
courbet
courcy
couronne
courrier
cours
course
courson
court
courtenay
cousin
coutances
couverte
coventry
covid
cowboy
cowries
cox
coz
cp
cr
craig
cranach
crapart
crash
crassirostris
crassus
crawford
crazy
crbc
crc
cre
creation
creek
cremona
cresse
cret
crets
creuse
cri
cribrarula
crime
crimes
crisis
cristal
cristata
cristatus
cristina
cristo
crithagra
critical
critique
crits
crivains
cro
croce
croise
croix
cromwell
cropped
cros
crosby
cross
crown
cruces
crusoe
cruz
cry
crypturellus
crystal
cs
cthulhu
ctor
cu
cuando
cuatro
cuba
cubano
cucaracha
cuch
cuculidae
cuculus
cuenca
cuisine
culhwch
culloden
cult
culte
cultura
cultural
culture
culturel
cultures
cum
cumberland
cumbria
cunedda
cuneo
cunha
cunobelinos
cup
cura
cure
curie
curtis
cusio
cut
cuvier
cwm
cwmwd
cy
cyanolyca
cybo
cycle
cyfres
cygnus
cyhoeddiadau
cylon
cymdeithas
cymraeg
cymru
cynan
cynon
cyornis
cypraea
cypraeidae
cypraeovula
cyr
cyriacus
cyril
cyrus
cz
czech
cœur
d
da
dac
dachenn
dachennad
dachennou
dacia
dad
dada
dae
dael
daelerezh
daerou
daet
dafar
dafaret
dafydd
dag
dagadenn
dagan
dagas
dagestan
dagobert
dahl
dahomey
dai
daily
daimler
daimyo
daisy
dakad
dakar
daked
dakia
dakota
dal
dalai
dalan
dalbenn
dalc
dale
daleet
dali
dalibaned
dalif
dall
dallas
dalle
dallet
dalmatia
dalton
dalv
dalvez
dalvezas
dalveze
dalvezfe
dalvezout
dalvoudegezh
dam
dama
damall
damani
damask
dame
dames
damez
damhen
damien
damkan
damkaniezh
damm
dammou
damon
dampierre
damvarv
damzigor
dan
dana
danae
danann
danat
danav
dance
dancing
daned
daneg
danek
danevell
daneveller
danevellet
danevellou
danie
daniel
danielle
daniels
danmark
danny
dans
danse
danses
dant
dante
dantec
dantek
danvez
danvezel
danveziou
danzig
danıs
dao
daoegezh
daofin
daofinez
daoidi
daol
daolas
daolenn
daolennou
daoliou
daonet
daou
daouad
daouarn
daoubennek
daouhanteret
daoulagad
daoulaz
daoulin
daoust
daouzek
daouzekvet
dap
dapas
daphne
dapout
dar
daravat
darbet
dard
dare
darempred
darempredet
darempredin
darempredou
darev
dargaud
dargreiz
dario
darius
dark
darkgrey
darkness
darling
darmstadt
darn
darnou
darthur
darvoud
darvoudenn
darvoudou
darwin
darzh
darzhadenn
darzhan
darzhas
das
daskemmet
daskirier
daskor
daskoret
dasorc
dasparzh
dasparzhan
dasparzhet
daspegel
daspren
dasson
dastum
dastumad
dastumadeg
dastumadegou
dastumadenn
dastumadou
dastumer
dastumerien
dastumet
dat
data
database
date
dateformat
dativel
dau
daughter
dauphine
dauzat
dav
davarn
dave
daveenn
daveennou
daveou
davet
david
davies
davis
davit
davy
dawn
day
days
dayton
dazgwered
dazgwereder
dazgweredou
dazont
db
dc
dchen
dd
dda
ddinbych
ddr
ddu
de
dea
dead
deadly
deal
dean
dear
death
deauville
deaz
debauvais
debauve
deborah
debret
debrin
dec
december
decius
decoin
dedennet
dedennus
dedi
dediet
dee
deep
defe
defense
defoe
degad
degadou
degas
degasadennou
degaset
degemer
degemeret
degli
degouezh
degouezhet
degouezhiou
degouezhout
deheubarth
dehou
dei
deil
deir
deira
deirdre
deiz
deiziad
deiziadet
deiziadou
deiziadur
deiziaduriou
deiziataer
deiziou
deizlevr
dek
deknikel
deknologiezh
dekred
dekvedou
dekvet
del
dela
delacroix
delannoy
delano
delaporte
delattre
delaware
delc
delcourt
delen
delenn
delfi
delfin
delft
delhi
delienn
deliou
dell
della
delle
delos
dels
delta
deltenn
deluxe
delwenn
delwennou
dem
demain
demat
demeter
demetrios
demi
demo
democracy
democratic
demografiezh
demokrat
demokrated
demokratel
demokratelezh
demokratiezh
den
dendrocopos
dendropicos
denel
denelezh
denez
deng
denis
denise
denjentil
denmark
denn
dennan
dennas
denne
dennis
denoe
denoniezh
denoniour
dent
denver
denys
deo
deoc
deol
deoliezh
deomp
deorienn
departamant
departamantou
department
depovere
depuis
deputeed
der
deraouidi
derby
derbyshire
derc
dere
dereat
derek
derez
dereziou
derleth
dermen
dermenin
dernie
dernier
derniers
deroet
derou
derrie
derrien
derrin
derv
dervenn
derwal
derwent
derzhienn
des
desachet
desavet
desbordes
descartes
description
desde
desert
desevel
deshayes
design
desire
deskadurezh
deskard
desket
deskin
deskrivadur
deskrivaduriou
deskrivan
deskrivet
desmond
desped
dessau
destamant
destenn
destennou
destin
destruction
det
detail
detective
detroit
deu
deuas
deue
deuet
deufe
deuio
deun
deurel
deus
deut
deutsch
deutsche
deutschen
deutscher
deutsches
deutschland
deutschlands
deux
deuxie
deuz
deuzin
dev
devanagari
devant
devedig
development
dever
deveret
devet
devez
deveze
devezh
devezhiou
devije
devil
deville
devin
devo
devoa
devoe
devon
devonian
devonshire
devot
devri
dewi
dez
dezan
dezenn
dezerzh
dezerzhiou
dezhan
dezhe
dezhi
dezho
dezougen
dezrannel
dezrevell
dezverkou
df
dh
dhabi
dharma
dhas
dhe
di
dia
diabarzh
diable
diablo
diadren
diaes
diaesan
diaesoc
diaesteriou
diaezet
diagent
diagon
diakritek
dial
dialecte
dialogue
dialogues
diamant
diamantou
diamond
diana
dianav
diane
dianv
diaoul
diaouled
diaoz
diaraoger
diaraogerien
diaraok
diarbenn
diarbennou
diarc
diario
diary
dias
diaspora
diasur
diavaez
diavez
diavolo
diaz
diazad
diazez
diazezadur
diazezan
diazezer
diazezerien
diazezet
diazezlec
diazezou
diazezour
diazlec
dibab
dibabet
dibabou
dibad
dibaoe
dibaot
dibaouez
dibar
dibenn
dibennan
dibennet
dibennou
diberc
diblaset
dibosubl
dibosupl
dibunadeg
dibunan
dibunet
dic
dicaeum
diccionario
dice
dichen
diciona
dicis
dick
dickens
dickinson
dicrurus
dictionary
dictionnaire
did
didaer
didalvez
didalvoud
didamallet
didan
didarzh
dider
didermen
diderot
didier
didius
dido
didon
didone
didrevadennin
didro
didroc
didrouz
didruez
didud
die
diechu
died
diedou
dieeun
diegezh
diego
diehan
dielfennadur
dielfennan
dielfennet
diell
diellaoueg
diellou
diembann
dien
dienez
dienn
dieppe
dierniezh
dies
diesel
dieter
dietrich
dieu
dieub
dieubet
dieubidigezh
dieubin
dieux
diez
difenn
difenner
difennerien
difennet
difennou
difetis
diffe
different
difin
diforc
diframmet
diftongenn
digablus
digant
digantan
diganti
diganto
digarez
digemm
digenvez
digerin
digital
diglok
dignitatum
digoll
digomz
digor
digoradur
digorenn
digoret
digoridigezh
digoust
digresk
digresket
digreskin
diguian
dihellou
dihen
dihun
dihunamb
dihunet
dihunin
dija
dije
dijon
dik
diksmuide
diktatour
diktatouriezh
dilabour
dilamet
dilaosket
dilec
dilenn
dilennad
dilennadeg
dilennadegou
dilennel
dilenner
dilennerez
dilennerien
dilennet
dilennidi
dilerc
dilestradeg
dilestran
dilestret
dileuriad
dileuridi
dileuriet
dilez
dilezel
dilezet
dilhad
dilojan
dilouzaouer
dimanche
dimezell
dimezelled
dimezet
dimezin
dimeziou
dimitri
dimp
din
dinamm
dinan
dinarzh
dinas
dinastiezh
dinbych
dindan
dindanan
dindani
dinedin
ding
diniver
dino
dinopium
dinosaor
dinosaored
dinosaur
dinosaurs
dio
dioce
diocletianus
diodoros
diofisiel
diogenes
diokletian
dioksidenn
diomedea
diomedes
dion
dionysos
diorren
diorroadur
diorroet
dios
diosez
dioueliet
diouennan
diouer
diougan
diouganer
diouganet
diouganou
dioutan
dioute
diouti
diouto
diouzh
diouzhtu
dipitet
diplom
diplomat
diplomatek
diplomatel
diplomatiezh
diplomet
dipode
dir
dirak
dirazan
dire
direct
direction
diredig
direizh
direnk
diresis
diret
diri
diriad
dirk
diroll
dirty
dis
disco
discogs
discours
discoverers
discovery
disentez
diseurt
disfiz
dishan
dishen
dishual
dishualded
disi
disivoud
diskan
diskar
diskaramzer
diskaret
diskarget
diskenn
diskennad
diskennet
diskennidi
diskibien
diskibl
diskibled
diskle
diskleriadur
disklerian
diskleriet
diskoachet
diskouez
diskouezadeg
diskouezadegou
diskouezerezed
diskouezet
diskouezva
diskoulm
diskoulman
diskoulmet
diskoulmou
diskred
diskriverien
diskrivet
diskuizh
diskuizhan
diskuliadur
diskulian
diskuliet
diskwel
diskwelet
dislavar
dislonkadenn
dismantret
dismantrou
dismegan
disney
disoc
dison
dispac
dispak
dispaket
dispar
disparti
dispartian
dispartiet
dispennet
dispign
dispignou
displeg
displegadenn
displegadennou
displegadur
displegaduriou
displegan
displeget
displijet
disque
disrann
disrannan
disrannet
disrannour
distabil
distag
distagadur
distagan
distaget
distaolet
distaoliadeg
dister
disteran
disteroc
distrein
distribution
district
distrig
distrigou
distrito
distro
distroadet
distroet
distruj
distrujan
distrujet
distrujou
dit
ditaned
dite
diterrane
diteur
dith
dition
ditions
ditl
ditour
ditourou
ditrin
diu
diuzet
div
divac
divalav
divarrek
divarvel
divaskell
divc
divelfenneged
divellkeineged
divent
diverket
diverradenn
diverran
diversity
dives
divhar
divi
divina
divine
divisio
division
diviz
divizet
divizion
divizou
divizout
divlez
divoas
divodan
divodet
divoud
divouezh
divoutin
divrall
divrec
divrevelezh
divroan
divroet
divroidi
divronn
divrud
divskoaz
divskouarn
divugel
divyezhegezh
divyezhek
diwall
diwaller
diwallet
diwan
diwanet
diwar
diwarnan
diwarne
diwarni
diwarno
diwelus
diweuz
diwezatoc
diwezh
diwezhan
diwezhat
diwezhatoc
dix
dixie
diz
dizalc
dizale
dizanv
dizehan
dizemglev
dizemgleviou
dizereat
dizertet
dizesk
dizh
dizhas
dizhout
dizimez
dizimezin
dizingal
dizober
dizolein
dizoloadenn
dizoloadennou
dizoloer
dizoloet
dizoloin
dizouar
dizurzh
dj
django
djibouti
dle
dlead
dlee
dleet
dleou
dleout
dm
do
doa
doare
doarean
doareou
doc
doce
docteur
doctor
doctrin
doctrine
documents
dodenn
dodennou
doe
doenn
dog
dogan
dogoned
dogs
doi
doire
dois
doktor
doktorelezh
dol
dollar
dolly
dolmen
dolores
dolz
dom
domani
domaniou
domenico
domesday
domi
domingo
domingos
domingue
domini
dominig
dominikan
dominikaned
dominique
domino
domisian
domitianus
domitius
domm
domman
domnaill
domnall
domnonea
dompierre
don
dona
donald
donan
donapaleu
donatien
donbas
donder
done
donedigezh
donenn
donetsk
donezon
donezonet
donezonou
dong
donibane
doniou
donna
donne
donoc
donostia
donovan
dont
donvor
doom
door
doors
dor
dora
doray
dorchester
dordogne
dore
dorfedourien
dorgenn
doria
dorian
doriou
doris
dorn
dornad
dornier
dornlevr
dornskrid
dornskridou
dornskrivet
dorotea
dorothea
dorothy
dorr
dorras
dorset
dorzh
dorzhellegezh
dos
dosenn
dossier
dossiers
dost
dostaat
dostan
dot
dottin
dou
douai
douar
douaran
douard
douarel
douaret
douarnenez
douaroniel
douaroniezh
douaroniour
douaroniourien
douarou
douarour
douarouriezh
douay
doubl
doubladur
double
doubleday
doubs
douce
doue
doueed
doueel
doueez
doueezed
doueoniezh
doueoniour
doueoniourien
doueou
douester
douetan
douez
doug
dougen
douger
dougerez
dougerien
douget
douglas
doujan
doujet
doull
dour
dourbont
dourdu
doureier
dourek
dourenn
dourennek
douret
douriou
douristed
douristelezh
douro
dourredennou
dous
dousig
dover
down
downey
downs
downtown
doyle
dr
dra
dracula
draezenn
draezh
draezhenn
drago
dragon
dragoned
dragons
draig
drailhet
drajedienn
drake
drale
drama
dramaour
drame
dramm
drammou
draon
draonienn
draou
drask
drastet
drastus
dravidek
dre
dream
dreams
drec
dred
dredan
drede
drederenn
dregantad
dreger
drei
dreid
drein
dreinded
dreinek
dreist
dreistbevan
dreistbeverien
dreistmoullet
dreistordinal
drek
drekstaon
dremen
dremenas
dremene
dremenet
dremm
dremmou
dremmwel
dren
drenewydd
drenkenn
drenthe
dres
dresadenn
dresadennou
dresan
dresden
dreset
dreustell
dreux
dreuz
dreuzas
dreuze
dreuzin
dreuzkas
drev
drevadenn
drevadennel
drevadennelfichenn
drevadennerien
dreyfus
drezan
drezen
drezi
drezo
dri
drian
dric
drinded
drinovanted
drive
driver
drivet
drizek
dro
droad
droadegiezh
droas
droc
droch
drogon
droiad
droianed
droidigezh
droidigezhiou
droienn
droiou
droit
droits
dron
droug
drouiz
drouized
drouizelezh
drouizig
drouk
drouklazh
drouklazhet
droukveskan
droukvesket
drouziwezh
druez
drugarekaat
drugarez
drusus
druz
druzoni
dryobates
dryocopus
ds
dsc
dt
du
duarel
duarte
dub
dublin
dubna
dubois
dubourg
duc
ducale
ducation
ducato
duchamp
duchenn
duchess
duck
ducs
duction
ducula
dud
dudenn
dudennou
dudi
due
duff
duffy
dug
duged
dugelezh
dugelezhiou
dugez
dugezed
duhamel
dujardin
duk
dukark
duke
dulce
dulenn
dum
dumas
dumbledore
dumont
dun
duncan
dune
duo
dupont
dupuis
dupuy
dur
durand
durango
durham
during
durked
durruti
dust
dutch
duval
duverger
duvivier
dux
dvd
dwight
dy
dyck
dyfed
dyffryn
dyfi
dyfrdwy
dyke
dylan
dz
e
ea
eagle
earhart
earl
earliest
early
earp
earth
earthsea
eas
east
eastern
eastman
eastwood
easy
eat
eau
eaux
ebarzhet
ebba
eben
eberhard
ebestel
ebet
ebeul
ebrel
ebro
ebssa
ec
ecce
eccl
eccle
ecclesia
echedou
echedour
echo
echu
echuas
echuet
echuin
eco
economic
ecuador
ed
eda
edan
edda
eddie
eddy
edebe
eden
edern
edessa
edgar
edge
edicio
ediciones
edicions
edinburgh
edison
edit
edited
editeur
edith
edition
editions
editor
editore
editori
editorial
edizioni
edmond
edmund
edn
edo
edont
edouard
edouarzh
eds
edu
eduard
eduardo
education
edvard
edward
edwards
edwin
ee
een
eer
eeun
eeunaat
eeunaet
eeunenn
eeunoc
efed
efedou
efedus
efedusan
efedusoc
efedusted
efesos
eg
egbert
egea
eget
egetan
egeti
egile
egipt
egiptat
egiptek
egiptiz
eglise
eglwys
ego
egon
egor
egorel
egorlestr
egorlistri
egretta
egypt
egyptian
eh
ehan
ehanet
ehess
ehesscassini
ei
eid
eien
eienenn
eienin
eiffel
eil
eilan
eilean
eileanan
eilenn
eiler
eilert
eilet
eilmaer
eilpennet
eilstumm
eilstummou
eilvet
ein
einaudi
eine
einem
einer
eines
einion
einstein
eiro
eisenach
eisenhower
eisteddfod
eizh
eizhbit
eizhvet
ejen
ejipt
ejont
ek
ekologel
ekologiezh
ekologour
ekologourien
ekonomiezh
ekonomikel
ekwall
el
ela
elaenia
elaine
elanus
elba
elbe
elder
ele
eleanor
eleanora
electric
electronic
elegans
elektra
elektrek
elektro
elektron
elektronek
elektronik
elektronou
elements
elen
elena
eleonora
eleonore
eler
elesbed
eleze
elf
elfed
elfenn
elfennel
elfennou
elgin
eli
elia
eliades
eliant
elias
elie
elies
elin
eliot
elis
elisa
elisabet
elisabeth
elisabetta
elise
elizabeth
elkar
ell
ella
elle
ellen
ellig
elliot
ellis
elo
elorn
elrond
els
elsa
else
elven
elvinieg
elvira
elvis
elzas
elzasat
elzaseg
em
ema
emaint
eman
emanuel
emanuele
emaoc
emaomp
emaon
emb
embann
embannadenn
embannadennou
embannadur
embannaduriou
embannas
embanne
embanner
embannerez
embannerien
embannet
embaran
emberiza
emboltred
embreger
embregerezh
embregerezhiou
emdrein
emdroadur
emdroas
emdroet
eme
emellout
emeur
emezan
emezelan
emezelas
emezelet
emezelin
emezi
emgann
emgannan
emganniou
emgannou
emgav
emgefreek
emgleo
emglev
emgleviou
emi
emichan
emil
emile
emilia
emilie
emilio
emily
emir
emirelezh
emirelezhiou
emlazh
emlazhet
emled
emlyn
emma
emmanuel
emmanuelle
emmerich
emmy
emober
emouestlidi
empenn
empereurs
emperor
empire
empires
emprisonne
emren
emrenerezh
emrys
ems
emsav
emsavadeg
emsavadegarthur
emsavadegou
emsaver
emsaverez
emsaverien
emsavet
emsavidi
emsaviou
emskiant
emsley
emstumm
emvod
emvodou
emvuhezskrid
emyr
emzalc
emzaskoridigezh
emzifenn
emzivad
emzivaded
en
enaouet
enbroidi
enciclopedia
encore
encyclopaedia
encyclope
encyclopedia
encyclopædia
end
endalc
endeo
enderc
endro
endroiou
ene
eneb
enebadur
enebas
enebe
eneber
eneberezh
eneberien
enebet
enebiet
enebiezh
enebin
enebour
enebourien
enemy
eneou
enep
enepnazi
eneppab
enepyuzev
energiezh
energy
enez
enezeg
enezegi
enezenn
enezennig
enezennou
enfant
enfants
enfer
enframmet
engehentet
engels
enger
engine
england
english
engouestlet
engravadur
engravaduriou
engraver
engraverien
engravet
engravour
engroez
enk
enkadenn
enklask
enklasker
enklaskerien
enklaskou
enklozadur
enklozet
enlarged
enlinenn
enn
ennan
enne
enneg
enni
enno
ennomp
eno
enor
enoret
enorin
enoriou
enorus
enorzh
enporzhian
enque
enri
enrico
enrique
enrolladenn
enrolladennou
enrolladur
enrollan
enrollas
enrollet
ens
ensavadur
ensavaduriou
enseignement
enseller
ensellet
ensemble
ensign
enskrivadur
enskrivaduriou
enskrivet
ent
enta
entanet
ented
entertainment
enteuzet
entraven
entre
entretiens
envel
enver
enwau
enzo
eo
eochaid
eon
eont
eontr
eos
eost
eosten
eostig
eostme
eostou
eoul
eoullestr
eoullivadur
eozen
ep
epic
episcopus
episode
epitome
epstein
equus
er
era
eraill
erasmus
erbedet
erbigneg
erc
ercole
ere
ereet
ereg
ereou
erer
erered
erevent
erez
erfin
erfurt
ergativel
erge
ergerzh
ergerzhadeg
ergerzhadegou
ergerzhadenn
ergerzhadennou
ergerzher
ergerzherien
ergerzhet
ergerzhour
ergerzhout
eric
erich
erik
erika
eriksson
erin
eris
erispoe
eritrea
erlec
erlerc
erm
ermaeziadeg
ermengarde
erminig
erminou
ernault
ernest
ernesto
ernod
ernst
eros
erosaria
erotegezh
erotek
errance
erreka
errobi
erronea
erru
erruas
erruet
erruout
erv
ervat
ervlan
ervlon
erwan
erwin
eryri
erythropitta
erza
erzh
es
esa
esae
esaeou
esaouenn
escape
escaut
escobar
escobty
eskell
eskemm
eskemmet
eskemmou
eskern
eskibien
eskob
eskop
eskopti
eskoptiou
esop
espace
espagne
espagnol
espagnole
espan
espe
esper
esperanteg
esperantek
esperanza
espern
espi
espoir
esprit
esquerra
essai
essais
essarts
essays
esse
essen
essential
essex
essonne
est
esta
estadio
estado
estaing
estaj
estate
este
esteban
ester
estero
esther
estlammadell
estoneg
estonia
estran
estre
estreget
estrela
estren
estrenien
estrenvro
estrildidae
estudio
estudios
estudis
eswatini
et
eta
etat
etc
ethernet
ethnologue
etienne
etimologiezh
etiopek
etiopia
etnek
etre
etrebroadel
etrefas
etrekeltiek
etrekumuniezh
etrekumuniezhiou
etrevroadel
etrezan
etreze
etrezek
etrezi
etrezo
etruria
etrusked
etruskeg
eu
eudes
euge
eugen
eugene
eugenia
eugenio
eujen
eukarioted
eulemur
eumaios
eumyias
eun
eur
eurazia
eure
eured
euredas
euredet
euredin
euredou
eurier
euriou
euripides
euro
euroiou
europa
europad
europat
europe
european
europeat
europek
europiz
eurovision
eurvezh
eurvezhiou
eurydike
eurystheu
eus
eusa
eusebius
euskadi
euskal
euskarat
euskareg
euskarek
euz
euzhus
euzhvil
euzhviled
ev
eva
evaj
evajou
evan
evans
eve
evel
evelato
evelkent
eveltan
evelti
evelyn
even
evening
evenou
ever
everest
everett
everetti
every
everybody
everyman
everything
eveshaat
evet
evezh
evezhiadenn
evezhiadennou
evezhian
evezhiet
evic
evid
evidence
evidomp
evil
evit
evita
evitan
evite
eviti
evito
evn
evned
evnig
evnoniezh
evnoniour
evnoniourien
evolution
evrog
evurus
ewan
ewen
ex
excalibur
exe
exeter
exhibition
exil
exile
exilis
experience
explosion
exposition
express
exte
extended
extension
extra
extre
extremadura
ey
eyck
eye
eyes
eyre
ez
ezan
ezed
ezel
ezhomm
ezhommou
ezklozadur
ezporzhian
ezporzhiet
ezra
eztaolet
f
fa
fab
faber
fabian
fabien
fabio
fabius
fablenn
fablennou
fables
fablou
fabre
fabrice
fabrizio
fabulae
fac
face
facebook
faces
fach
fact
facto
factory
fado
fae
faenza
faero
faeroeg
faezh
faezhan
faezhas
faezhet
faezhidigezh
fai
fair
faire
fairy
faisal
fait
faith
fajenn
fal
falaise
falanks
falc
falco
falcon
falconiformes
fall
fallaat
fallaenn
fallakr
falling
fallout
falls
faltazi
faltaziek
faltazienn
faltazius
falz
fame
famiglia
familh
familhou
famille
family
famous
fan
fanch
fangorn
fank
fanny
fantasia
fantastic
fantasy
fanto
faos
faou
faoue
faoued
far
farah
faraon
faraoned
fard
fardan
fardd
farder
fardet
farm
farmer
farnese
faro
farouell
fars
farsus
farz
fas
fasciatus
fascism
fask
faskour
faskourien
faskouriezh
faso
fast
fat
father
faulkner
faure
fausses
faust
fausta
faustina
fausto
faustus
faut
fav
fave
favereau
faviou
fawr
fay
fayard
fayette
fazan
fazi
fazian
faziou
fb
fbi
fc
fd
fe
feal
fealded
fear
feat
feature
february
fectoral
fecture
fed
federal
federation
federico
fedou
feel
feilhan
feira
feiz
feizidi
felger
felgerieg
felice
felidae
felipe
felis
felix
fell
fellas
felle
fellout
fellowship
feltrinelli
female
femina
femme
femmes
femp
fenikia
fenikianed
fenisek
fenn
fennad
fenni
fennou
fense
fent
fentigellour
fentus
fer
ferch
ferdinand
ferdinando
ferdinant
ferenc
fergus
ferguson
ferme
fermi
fermo
ferna
fernand
fernanda
fernandes
fernandez
fernando
ferrand
ferrante
ferrara
ferrari
ferreira
ferrer
ferrie
ferrol
ferry
fersen
ferzh
ferzhiou
fes
feskenn
feson
fest
festa
festival
festivaliou
festou
fet
fetis
feu
feuillade
feuilles
feuket
feuls
feulster
feunteun
feunteuniou
feur
feuremglev
feuriou
feurm
feurmet
feurmin
fevar
fezh
ff
ffi
fflint
fg
fi
fia
fiacre
fic
ficedula
fichenn
fiction
fide
fidel
fidelis
fidji
fieg
field
fields
fifa
fife
fifi
figaro
fight
fighting
figure
figurenn
fil
filberzh
file
files
filguth
filip
filipe
filipinez
filippo
filius
fille
filles
film
filman
filmaozer
filmaozerez
filmaozerien
filmaozour
filmet
filmig
filmlennadur
filmou
films
filogenetek
filomena
fils
fin
final
find
fine
finiste
finistere
finisterre
finland
finlandat
finn
finneg
finnek
fiore
fire
firenze
firmin
first
firth
fischer
fisel
fish
fisher
fisterra
fit
fitzgerald
fitzroy
fiume
five
fizian
fizias
fiziet
fizik
fizikel
fizikour
fizikourien
fiziout
fjord
fk
fl
flac
flaccus
fladenn
fladennou
flag
flak
flamank
flamenco
flamm
flammarion
flandrez
flandrezat
flandrezeg
flas
flash
flastran
flastret
flaubert
flavescens
flavia
flavifrons
flavirostris
flavius
flaviventris
flb
fle
fleming
flemm
flemmskrid
flemmus
flers
flesh
fleu
fleur
fleuriot
fleurs
fleury
fleuve
flevoland
flexions
flickr
flight
flint
fln
flo
floc
floch
flodad
flohic
flor
flora
flore
florence
florent
florentin
flores
florian
florida
florin
floris
flour
flower
flowers
floyd
flu
fly
flying
fm
fn
fo
foar
fobl
foblan
focke
foel
foenn
foent
foi
fois
foix
folie
folio
folk
folklor
folklore
foll
folle
follenn
follennou
follentez
follez
foltred
fon
fonadur
fond
fonda
fondamentale
fondation
fonds
fonem
fonemou
fonenn
fonetik
fonetikel
foniek
fonienn
fonksion
fonnus
fonologel
fonologiezh
fonseca
font
fontaine
fontainebleau
fontaines
fontana
fontenay
fontsize
food
fool
foot
football
for
foran
forbannet
forbes
forc
force
forces
ford
fore
foreign
forest
forestier
forever
forgotten
forli
form
formation
forme
formosa
formula
formulenn
formulennou
forn
forniou
forom
forster
fort
forte
forth
fortis
fortuna
fortunatus
fortune
fortuyn
forum
forzh
forzhig
fosse
fosses
foster
foto
fotoiou
fou
foucauld
foue
fouenant
fouez
fouge
foulk
foull
found
foundation
fountain
four
fourgadenn
fourmaj
fournier
fourth
fous
fouzhlec
fowler
fox
foy
foz
foziou
fr
fra
frac
frades
fraezh
fraktion
frame
framed
framm
frammadur
framman
frammer
frammet
frammou
fran
franc
franca
france
frances
francesc
francesca
francesco
franche
francia
francis
francisca
francisco
franck
franco
francolinus
frank
franked
frankeg
frankek
frankfort
frankfurt
frankia
frankiz
frankizou
frankizour
frankizourien
frankizouriezh
franklin
frankreich
franquin
frans
fransez
franz
franziska
fraser
frau
frazenn
frazennou
frazione
frazioni
fre
fred
frederic
frederica
frederick
frederig
frederik
fredrik
free
freedom
freeman
fregata
frei
freiburg
frekan
french
frered
fresk
fresnay
fresne
fresnes
freud
freuz
freuzet
frezidant
fri
fribourg
frida
friday
fried
friederike
friedrich
friend
friends
friesland
frikorneg
fringilla
fringillidae
frioul
friouleg
fritz
friuli
friz
frizeg
frizek
fro
frodo
frog
froger
from
fromet
fromou
front
frontalis
frontera
frontie
frosinone
froud
frouezh
frouezhenn
frouezhus
froumal
frovin
fru
fruela
fruit
fs
ftp
fu
fuc
fuchs
fuck
fuego
fuentes
fuerte
fugenn
fujiwara
fulda
fulenn
fulica
fuliginosus
full
fulor
fuloret
fulub
fulup
fulvus
fun
fund
fundacio
fune
funiou
funk
fur
furchadegou
furchadennou
furchal
furchet
furien
furlukin
furm
furmad
furmet
furmou
furnariidae
furnez
furnezh
fury
fusca
fuscus
fusiliers
fut
futur
future
futuro
fuzeenn
fuzuilh
fuzuilhet
fuzuilhou
fw
fy
fychan
fynwy
g
ga
gab
gabin
gabiten
gabon
gabriel
gabriela
gabriele
gabrielle
gac
gad
gador
gae
gaeilge
gael
gaelic
gaeltacht
gaer
gaerfyrddin
gaeta
gaetano
gai
gaia
gaillimh
gainsborough
gainsbourg
gaius
gal
gala
galactica
galadriel
galago
galaksienn
galaksiou
galaktek
galapagos
galatia
galaxia
galaxy
galba
galc
gale
galeazzo
galega
galego
galenos
galeou
galerida
galerie
galerius
galet
galia
galian
galianed
galianeg
galianek
galicia
galilea
galilei
galileo
galite
galitsia
galiza
galizat
galizeg
galizek
gall
galla
gallagher
galland
gallaoued
gallaoueg
galle
galleg
gallegos
gallek
gallekaet
gallen
galleria
gallery
galles
gallet
gallia
gallica
gallico
gallimard
gallinago
gallirallus
gallo
gallois
galloud
galloudegezh
galloudou
galloudus
galloudusan
galloudusoc
gallout
galloway
gallus
galon
galv
galvet
galway
galz
gama
gamaladed
gambia
gambr
game
games
gamma
gamp
gampion
gampioned
gan
ganada
ganan
ganaouenn
ganaouennou
ganas
gand
gandalf
gandhi
gane
ganedigezh
ganedigezhiou
ganeoc
ganeomp
ganer
ganerez
ganerien
ganet
gang
ganga
ganin
gann
gannad
gannaded
gannan
gannas
ganol
gant
gantan
gante
gantenn
ganti
ganto
ganton
gantved
gao
gaol
gaolbiolin
gaolviolon
gaoter
gaou
gaouenn
gaout
gaoz
gaozeal
gar
garan
garantez
garazi
garbon
garc
garce
garci
garcia
gard
garda
garde
garden
gardie
gardinal
gardinaled
gardner
gare
gareth
garg
gargou
gari
garibaldi
garin
garl
garlan
garland
garn
garnel
garnier
garolingidi
garona
garonne
garr
garreg
garrel
garrulax
garry
garta
gartenn
garth
garv
gary
gas
gasas
gase
gaso
gasoni
gaspar
gaspard
gast
gastell
gastiz
gastizan
gaston
gat
gatalanek
gatalaniz
gate
gates
gateway
gatoligiezh
gatolik
gatoliked
gatuvellauned
gauche
gaud
gauguin
gaule
gaulle
gaulois
gauloise
gaultier
gaumont
gauss
gauthier
gautier
gav
gavadenn
gavas
gave
gaved
gaver
gavet
gavjont
gavont
gavotenn
gavout
gavr
gawain
gay
gaz
gaza
gazeg
gazetenn
gazetennerez
gazetennerien
gazette
gazi
gazilieg
gazou
gd
gdan
ge
ged
gedichte
geelvink
gefridi
gegin
geidenn
geiger
gein
geiriadur
gej
gejadenn
gejan
gejas
gel
gelaouenn
gelc
gelderland
gelenn
gelennadurezh
gelenner
gelennerez
gelennerien
gell
gellet
gellig
gellout
gelted
geltiek
gema
gember
gembraek
gembre
gemene
gemenn
gemennadenn
gement
gementadou
gemer
gemeras
gemere
gemina
gemm
gemman
gemmas
gemmou
gempenn
gemper
gen
genad
genadou
gendalc
gende
genderc
genderv
gendes
gendeuzin
gendrec
gene
genealogy
gened
genedlaethol
geneiled
genel
general
generalitat
generation
genesis
genetek
genetik
genetta
geneva
genevie
genidik
geniterv
genitiv
genitivel
genji
genkiz
genlabour
genlabouras
genlabourat
gennad
gennhen
genoa
genou
genova
genrouedad
gens
genseurted
gensonenn
genstrivadeg
gent
gentan
gentel
genteliou
gentile
gentileschi
gentleman
gentlemen
gentoc
genus
genver
genweb
genwebfichenn
genwebmemorial
genwerzh
genwerzhel
geobreizh
geoded
geodedourien
geoffrey
geoffroy
geografiezh
geograph
geographic
geokichla
geological
geometriezh
georg
george
georges
georgetown
georgia
georgiana
georgina
geot
geotdebrer
geotdebrerien
geotet
ger
geraint
gerais
gerald
gerard
gerberga
gerc
gerdarzh
gerdin
gerent
gerentiezh
gerhard
geriadenn
geriadur
geriadurig
geriaduriou
geriadurour
geriadurourien
geriaoueg
geriaouin
geriou
germain
germaine
german
germaned
germanek
germania
germanicus
germany
gern
gerne
gernev
gernika
geron
gerrit
gerry
gers
gertrud
gertrude
gertrudis
gervais
gervel
gerven
gerveur
ges
geschichte
gesellschaft
gestapo
gesu
get
geta
gete
geun
geuniou
gevalaouriezh
gevell
gevelled
gevellerezh
gevellet
gevellin
gevezadeg
gevier
gevrat
gevred
gevredad
gevredet
gevredidi
gevredigezh
gevrenn
gevret
gezeg
ghana
ghetto
ghost
gi
gia
giacomo
giambattista
gian
giancarlo
gianni
giant
gib
gibraltar
gibson
gichen
gicquel
gide
gie
gif
gig
gigenn
gijo
gil
gilan
gilbert
gilberto
gildas
giles
gilgradek
gilles
gillis
gilometradou
gime
giment
gimiek
gimiezh
gin
gina
gindi
gine
ginea
ginevra
ginivelezh
ginnig
ginnigas
ginnige
gioc
gion
gional
gionale
gionales
gionalismes
gionaliste
gions
giordano
giorgio
giorgione
giorno
giovane
giovanna
giovanni
gipuzkoa
girard
giraud
giraudon
giray
gireg
girillek
girl
girls
girolamo
girona
gironde
girri
gis
gisela
gisserot
gisti
gitar
gitarou
gitarour
gitarourien
giuditta
giulia
giuliano
giulio
giuseppe
giuseppina
give
givri
giz
gizah
giziou
gje
gjk
gkervella
gl
glac
glad
gladdalc
gladys
glan
glann
glanndour
glannou
glaoda
glaou
glaouer
glareola
glas
glasc
glasel
glasgow
glask
glaskas
glaske
glasker
glass
glaucidium
glav
glaveier
glaz
glazaour
glazard
glazarded
glazur
gle
gleb
gleborek
gleiz
glemens
glemm
glen
glenan
glencoe
glenmor
glenn
glesker
gleskered
glev
glevas
glever
glevet
glevout
gleze
gli
glin
glise
glises
glo
gloan
gloar
gloazet
global
globe
gloer
gloerdi
glok
glokaat
gloria
glorius
glory
glot
glotan
glote
gloucester
gloucestershire
glu
glyn
glyndw
gmbh
gmelin
gn
gnaeus
gne
gnu
go
goa
goad
goadeg
goaf
goan
goantenn
goap
goban
gober
goch
god
godard
godefroy
godell
godelleged
godellek
gododdin
godoy
gods
godwin
goe
goebbels
goell
goes
goethe
gof
goff
goffic
gogh
gogol
goguryeo
gohelle
goia
going
goire
gojira
gol
gold
golden
golein
golf
goll
gollas
golo
goloet
goloiou
golonenn
golvan
golvaneged
goman
gombod
gomedianed
gomedienn
gomer
gomes
gompagnunezh
gompezenn
gompren
gomunourien
gomunouriezh
gomz
gomze
gomzer
gomzou
gon
gonc
goncourt
gonde
gondioc
gondor
gone
gonfusianegezh
gonideg
gont
gontadenn
gontadennou
gontan
gontas
gonte
gonted
gontelezh
gontell
gonter
gontez
gonza
gonzaga
gonzalo
good
goodbye
goodman
google
goose
gopr
gopran
gopret
gopro
goprou
goprsoudard
goprsoudarded
gor
gordenn
gordianus
gordon
gore
gored
gorf
gorfadurezh
gorilhed
gorilla
gorizia
gorn
gornaoueg
gorno
gorre
gorread
gorreadou
gorred
gorrek
gorroidigezh
gorsedd
gortoz
gortozet
gorventenn
gorzenn
goscinny
goshan
goshoc
gostez
gostezenn
got
goted
goteg
gotek
gotha
gottfried
gottlieb
gottorf
gottorp
gou
gouarn
gouarnamant
gouarnamantou
gouarner
gouarnerez
gouarnet
gouarnour
gouarnourien
goubrenerezh
goude
goudjaratek
goudor
gouel
gouelan
gouelanig
gouelec
goueled
gouelini
goueliou
gouelou
gouenn
gouennan
gouennelour
gouennlazh
gouennou
gouenou
gouent
gouere
gouereme
gouerien
gouest
gouestl
gouestlad
gouestlan
gouestlet
gouez
gouezeleg
gouezelek
gouezet
gouezh
gouezhan
gouezhas
gouges
gougleiz
gouhere
gouizieg
gouiziegezh
gouizieien
gouiziek
goulc
gould
gouleier
goulen
goulenn
goulennata
goulennataet
goulennet
goulennou
goullo
goulm
goulou
goulven
goulz
gounez
gounezerezh
gounezet
gounid
gounideien
gounidou
gounit
gounnar
gour
gourc
gourdoner
gourdonerien
gourdonet
gourdonin
gourdrouz
gourdrouzet
gourel
gouren
gourener
gourenerien
gourenez
gourfenn
gourfennad
gourfennou
gourharozed
gourhent
gourin
gouriz
goursez
gourtizanez
gourvez
gourvil
gousket
gousperou
goust
goustad
goustadik
gouvernement
gouwent
gouzan
gouzoug
gouzout
gov
goveliet
goveliou
government
gow
goya
goz
gozh
gozhidi
gp
gr
gra
graal
grabanou
grac
grace
gracilis
graer
graet
graf
grafek
graham
grall
grallaria
gram
grammaire
grammar
gramme
grammophon
grammy
gran
granada
grand
grande
grandes
grands
granenn
grant
granville
graon
graphic
gras
grass
grasset
gratianus
grave
graves
gravitadur
gray
graz
gre
greantel
greanterezh
greantour
great
greater
greatest
grec
greco
gred
gredas
grede
gredenn
gredennou
greder
gredin
greece
greek
green
greene
greenpeace
greenwich
greenwood
greg
gregach
gregam
gregin
gregor
gregorian
gregorio
gregory
greisteiz
greiz
greizenn
gremm
gremmou
gren
grenada
grenadennerien
grenadier
grenn
grennamzer
grennarded
grenoble
gres
gresian
gresianed
gresianeg
gresianek
gresk
greskas
greskenn
greskin
gret
greta
grete
greun
greunit
greunland
greunvaen
grevus
grey
gridcolor
griffith
griffiths
grimaldi
grimm
grip
gris
griseus
grisfonce
gristen
gristenien
gristeniezh
griz
gro
groaz
groaziadeg
groazidi
groazig
groc
groe
groenlinks
grog
grogad
grogadou
grogas
groge
grogenn
groix
gron
groningen
gronnet
gronologiezh
groot
gros
grosjean
grosso
grou
grouas
grouidigezh
grouin
ground
group
groupe
grove
große
gru
gruffudd
gruffydd
grus
gt
gu
gua
guadalajara
guadalcanal
guadalupe
guajira
guam
guanajuato
guangdong
guantanamera
guarani
guard
guarda
guardia
guardian
guards
guas
guastalla
guatemala
gudenn
gudennou
gudrun
gue
guen
guennec
guer
guerra
guerre
guerrero
guerres
guerzenneu
guest
guevara
guez
guglielmo
gui
guichen
guide
guido
guier
guieysse
guillaume
guille
guillemot
guillermo
guillou
guilloux
guimara
guin
guingamp
guinness
guir
guiriec
guirione
guise
guitaas
guitaat
guitar
guitry
gul
gularis
gumun
gumuniezh
gumuniou
gumunmemorial
gumunn
gumunpages
gumunpertes
gumunrobert
gun
gunelezh
gunnar
guns
gunther
gup
gupta
gur
gurded
gure
gurionne
guru
gurunenn
gurvan
gustaf
gustav
gustave
gustavo
gustum
gutenberg
guthrie
gutie
guttata
guttatus
gutturalis
guy
guyader
guyana
guyon
guyonvarc
guzh
guzhat
guzma
guzul
guzulier
guzulierien
gw
gwad
gwadek
gwadeloup
gwadorged
gwadus
gwagenn
gwagennou
gwagrennou
gwaien
gwalarn
gwalc
gwalch
gwaled
gwalenn
gwalennou
gwall
gwallan
gwallaozet
gwalldaol
gwalldaoliou
gwallet
gwallgaset
gwallreuz
gwallzarvoud
gwallzarvoudou
gwambiaeg
gwan
gwanaat
gwanaet
gwanoc
gward
gwarded
gwared
gwareg
gwaregou
gwarez
gwarezer
gwarezet
gwarezin
gwarezva
gwarizi
gwarnizon
gwasg
gwashan
gwashoc
gwask
gwaskan
gwasket
gwaskogn
gwaskoneg
gwastet
gwaz
gwazed
gwazh
gwazhied
gwazhiou
gwazi
gwazour
gwe
gwech
gwechall
gwechou
gwegen
gwegon
gwel
gweladenn
gweladennet
gweladennin
gwele
gweled
gweledva
gweledvaou
gweleou
gwelet
gwelit
gwell
gwellaat
gwellaet
gwellan
gwelloc
gwelout
gweltaz
gwen
gwenael
gwenan
gwenc
gwendal
gwendolyn
gwendraeth
gwened
gwenedeg
gwener
gwengamp
gwengelouriezh
gwengolo
gwenholon
gwenn
gwenneg
gwennerc
gwennole
gwenole
gwenrann
gwenred
gwent
gwentlou
gwenvenez
gwenvidigez
gwer
gwerc
gwereg
gwerenn
gwerennou
gwerliskin
gwern
gwernenez
gwernig
gwerniou
gwerz
gwerzenn
gwerzennou
gwerzh
gwerzhan
gwerzhav
gwerzher
gwerzhet
gwerzhid
gwerzhiou
gwerziou
gwesklin
gwespetaer
gweuz
gwevn
gwez
gwezenn
gwezh
gwezhall
gwezhenneg
gwiad
gwiader
gwiadin
gwiadou
gwiana
gwianaou
gwidel
gwiennou
gwikadell
gwildou
gwilen
gwiler
gwilh
gwilherm
gwilhmod
gwilhom
gwilhou
gwilioud
gwilun
gwilym
gwimilio
gwin
gwini
gwinieg
gwiniegi
gwinizh
gwion
gwipavaz
gwir
gwiraour
gwirhen
gwirian
gwiriekaet
gwirion
gwirionez
gwiriou
gwirvoud
gwiseni
gwiskad
gwiskadou
gwiskamant
gwiskamantou
gwiskan
gwisket
gwiskri
gwitalmeze
gwitreg
gwivan
gwizien
gwladus
gwrac
gwragez
gwreg
gwregel
gwrez
gwrezverk
gwrezverkou
gwrizienn
gwriziennet
gwriziennou
gwriziou
gwy
gwydion
gwyn
gwynedd
gwynfor
gwynn
gymraeg
gyo
gyps
h
ha
haag
haakon
haarlem
haas
haat
hab
habana
habask
habiten
habsbourg
habsbourged
habsburg
hac
hachette
hacker
had
hadan
hadenn
hadennou
hades
hadet
hadmatoc
hadou
hadour
hadourezh
hadourezhiou
hadourien
hadrian
hadrianus
hadur
hae
hael
haematopus
haer
haet
hafe
hafren
hag
hagen
haggis
hagnet
hai
haiku
hail
hainan
hainaut
hair
haiti
haj
hal
halac
halaksienn
halan
halc
halcyon
hale
haleg
haleno
half
halia
haliaeetus
halian
halianed
halif
halifax
halin
halizat
halizek
hall
hallac
hallaoued
hallas
hallcassini
halle
halled
halleg
hallek
hallent
haller
hallfe
hallfed
hallfent
hallje
hallo
hallont
halloud
halloudek
halloudou
halloudus
halloudusan
hallus
hallyday
halo
halogenou
halon
hals
halv
halvadeg
halvar
halvas
halvez
ham
hamas
hambrian
hamburg
hamera
hamilton
hamlet
hammer
hammond
hamon
hamp
hampion
hampionad
hampou
hampshire
hampton
han
hanaouenn
hanaouennou
hanas
hanau
hand
handbook
hands
hane
haned
hanedigezh
hanel
haner
hanes
hanet
hangeul
hangul
hani
hanja
hank
hann
hannad
hannah
hannibal
hannover
hano
hanoi
hanol
hanoliou
hanomp
hanon
hanou
hans
hansa
hansen
hant
hantan
hantaouet
hantaouin
hantel
hanter
hanterc
hanterenn
hanternoz
hanterour
hanterouriezh
hantervoul
hantervreur
hantet
hantik
hantina
hantinat
hanton
hantoncassini
hantrev
hantved
hantvedou
hanv
hanvadurezh
hanviou
haokaz
haou
haoueg
hap
hapitol
happy
har
hara
harald
haran
harantez
harbed
harbon
harbor
harbour
harcourt
hard
hardcore
hardel
hardinal
hardy
hare
harek
harem
haret
harg
hargou
hari
harid
harkiv
harlech
harlem
harlu
harluet
harmattan
harmonia
harnez
harold
haroz
harozed
harozez
harp
harpan
harpe
harper
harpercollins
harperien
harpet
harr
harrez
harriet
harris
harrison
harry
hart
hartennou
harter
harteriou
harterti
hartford
hartlaub
hartou
harv
harvard
harvest
harvey
harz
harzerezh
harzet
harzh
harzhet
harzlammerien
harzou
has
hasan
hassel
hast
hasta
hastell
hastilhaneg
hastings
hastiz
hat
hata
hatalaneg
hate
hatekiz
haus
hauser
haut
haute
hautes
hauts
have
havel
haven
haver
havout
havr
havre
havren
hawai
hawaii
hawk
hay
hayao
haye
hayes
hayez
hazebroek
hazeg
hazetenner
hazetennerezh
hazetennou
hazh
hazhou
hb
hbw
hcolumbidae
hd
hded
hdi
hdug
hdugez
hdugezed
he
head
heal
hearadh
heart
hearts
heat
heather
heaven
heavy
hebdo
hebiou
hebraeg
hebraek
hebreed
hebreeg
hebreek
hebron
hec
hector
hed
hedou
hedred
hedvig
hedwig
hef
hefaistos
heflusker
hefluskeriou
hefridi
heg
hegan
hegarat
heged
hegel
heger
hegerezh
hegerien
hegezh
hegiezh
heginerezh
heheder
hehentin
heia
heian
heidegger
heidelberg
heidi
heien
height
hein
heine
heinkel
heinrich
heinz
heion
heiz
hek
heklev
hektar
hektor
hel
helaouennou
helaouin
helc
helder
heleier
helen
helena
helene
helenn
helenner
helezh
helias
heliaz
heliom
heliopolis
helios
hell
hellas
hellaz
hellazat
helle
helled
hellek
hellenek
hellent
heller
hellfe
hellfest
helligou
hellje
hellmayri
hello
hellont
hellou
helm
helmo
helmut
helou
help
helpe
helsinki
hem
heman
hember
hembraeg
hembread
hemener
hemenn
hemennas
hemennet
hemennou
hementad
hemingway
hemitriccus
hemm
hemmadur
hemmaduriou
hemmou
hemolc
hemon
hempouez
hen
henad
henaff
henamzer
henan
henarroud
henbont
henc
hend
hendad
hendadou
hendalc
hendall
henderc
henderson
henderv
hendiviz
hendivizou
hendraouriezh
hendrick
hendrik
hendrix
hened
henegipt
henel
heneliezh
henemglev
hengevread
hengevredad
hengist
hengoun
hengounel
hengouniou
henidik
heniwerzh
heniwerzhoneg
henlabour
henn
hennan
henned
henner
hennet
hennez
hennezh
henniezh
hennou
henoadvezh
henoniel
henoniezh
henoniour
henoniourien
henou
henri
henrietta
henriette
henrik
henriot
henrique
henriques
henroma
henroman
henry
hensaozneg
hensaoznek
hensonennou
henstrivadegou
hent
henta
hentad
hentan
henteliou
hentenn
hentennou
hentou
henvrezhoneg
henvroat
henvroidi
henwerzh
henwinieg
heodedou
heol
heolel
hep
hepburn
hepken
hepmui
hepmuiken
her
hera
herakles
herald
herbe
herberc
herbert
herbier
herbiers
herc
hercules
herdin
here
hereford
herefordshire
herent
herentiad
herez
herezh
herge
hergest
heriadur
heriaoueg
heribert
herien
herion
heriou
heritage
herlegon
herman
hermaned
hermanek
hermann
hermes
hermine
hermione
hermitage
hern
herna
herneveureg
hero
herod
herodez
herodotos
heroes
herr
herri
herria
herrieu
hersart
herschel
herson
herstal
hertz
herve
hervel
hervez
hervezan
hervezi
hervezo
herz
herzegovina
herzel
herzog
hes
hesdin
hesiodos
heskenn
heskinan
heskinerezh
heskinet
heskob
heskopti
heson
hesonerezh
hess
hesse
hessen
hestell
het
hetaer
hetaira
heuget
heuilh
heul
heuliad
heuliadenn
heuliadou
heulian
heulias
heulie
heulienn
heulier
heulierien
heuliet
heur
heure
heures
heureuchin
heureuchined
heuriou
heut
heuz
hev
hevala
hevandir
hevandiriou
hevelep
heverk
heverkan
hevezadeg
hevoud
hevre
hevread
hevred
hevredad
hevredigezhiou
hey
heydrich
hez
hezeg
hezin
hezoug
hf
hfaou
hfe
hgarour
hhouarner
hhouarnerez
hhouarnerezh
hhouarnerien
hhouarnour
hi
hiad
hiadenn
hiadou
hiadur
hian
hichen
hid
hidalgo
hidden
hideki
hidi
hidigezh
hidrogen
hiek
hien
hienn
hiennou
hier
hieroglifou
hieronymus
hiet
hiezh
hig
higed
higennou
higgins
high
highland
highlanders
hik
hikan
hikaned
hiko
hil
hilaire
hilarius
hilary
hilda
hildburghausen
hilde
hildebrand
hildegard
hilgemann
hilhog
hili
hiliber
hilienn
hill
hillary
hilleu
hills
hilometr
him
himalaya
himalayek
himantopus
himiour
himmler
himnusz
hin
hinad
hinault
hincks
hindeg
hindenburg
hindi
hindieg
hindou
hindoued
hindouegezh
hindu
hini
hinienn
hiniennel
hiniennou
hinnig
hiou
hip
hippo
hippokrates
hippolais
hippolyte
hippy
hir
hiraat
hiraet
hiragana
hiran
hirc
hirder
hirderiou
hirie
hirin
hirinan
hirinded
hirined
hiriv
hiroc
hiron
hiroshima
hirri
hirundinidae
hirundo
hirvoudou
his
hispania
hispaniola
hist
histo
histoire
histoires
histor
historia
historiae
historical
historik
historique
historiques
history
hit
hitchcock
hitit
hitited
hitler
hitlerjugend
hits
hiver
hiviziken
hiz
hizeller
hizhier
hizien
hiziv
hjont
hl
hladdalc
hlan
hlann
hlas
hlask
hlasker
hlasou
hlav
hlazig
hlen
hlenn
hler
hleub
hleuz
hleweled
hleze
hlid
hlip
hlizher
hloastr
hloc
hlodio
hlodwig
hloerdi
hlopenn
hlub
hm
hmat
hmiziad
hms
hnevez
ho
hoad
hoadegi
hoadegou
hoadeier
hoadou
hoalad
hoan
hoant
hoantaet
hoantou
hoar
hoarezed
hoari
hoarias
hoarie
hoariellou
hoarier
hoarierez
hoarierien
hoarierion
hoariet
hoarigan
hoariganerez
hoariganou
hoariou
hoariva
hoarvez
hoarvezas
hoarveze
hoarvezet
hoarvezout
hoarzh
hoarzhin
hoaz
hoazh
hobbit
hobbited
hobregon
hobregonet
hoc
hockey
hod
hodgson
hoed
hoeg
hoel
hof
hoffman
hoffmann
hogen
hogos
hogozik
hogwarts
hohenstaufen
hohenzollern
hokanek
hokkaido
hol
holbein
hold
holden
holen
holiday
holl
hollad
holland
hollande
hollbouezus
hollc
hollek
hollou
holloueziadur
hollsent
hollved
hollvedel
hollvrezhonek
hollvrudet
hollywood
hollzebrer
holmes
holo
holocaust
holofern
holofernes
holstein
holt
holy
homan
homandant
hombat
hombod
hombre
homburg
home
homenad
homer
homeros
homic
homics
hominidae
homiser
hommage
homme
hommes
hommonwealth
homo
homp
hompezennou
homzou
hon
honda
honduras
honey
hong
honneur
honnezh
honolulu
honor
honore
honorine
honorius
honshu
honsul
hont
hontadennou
hontelezhiou
hontou
hontrol
hood
hook
hoorn
hop
hope
hopkins
hopper
hopr
hor
hora
horace
horan
horatius
horeaneg
horf
horfad
horfou
horizons
horizontal
horizonte
horla
hormonou
horn
hornad
hornaoueg
hornek
horniou
horno
hornog
horolaj
horonal
horr
horre
horread
hors
horse
horseg
horsfield
horst
hortense
hortoz
horus
horvoder
hos
hoshan
hospital
hostez
hostezennou
hosteziou
hot
hoted
hotek
hotel
hou
houad
houarn
houarnamant
houarnerez
houarnour
houblad
houde
houel
houenon
houer
houerc
houest
houez
houghton
houidi
houlenn
houlennas
houlenne
houlennou
houlou
houlz
houlzad
houman
houmoul
hounez
hounezas
hounezer
hounid
hounit
hounnezh
hour
hourc
hourdoner
hourenez
hourien
hours
hourzh
house
housk
houston
hout
houzan
houzoug
houzout
how
howard
hoxha
hoy
hozh
hr
hrabanou
hrafenn
hrank
hras
hrater
hredennou
hregin
hreisteiz
hreiz
hreizennou
hremm
hren
hrennard
hrennlavar
hrer
hrerbunker
hres
hresian
hresianed
hresianeg
hresianek
hresk
hretase
hreun
hrign
hrigner
hris
hrist
hristen
hroashent
hroaziadegou
hroc
hrogad
hrogadou
hronik
hrouadur
hrouer
hrouin
hrsg
hrt
hsae
hskeudenn
hskeudenner
hskeudennerez
hskeudennerezh
hskeudennet
hskeudennin
hskeudenninfobretagne
hskeudennmemorial
hskeudennou
hstan
hted
htm
html
htro
http
https
hu
hua
huang
hubble
huber
hubert
hubet
huchal
hud
hudennou
huderezh
hudour
hudouriezh
hudson
hudur
hue
huelva
huesca
huged
hugenn
hugennou
hugh
hughes
hugo
hugues
hui
huisnes
huisnespertes
huit
hulk
hull
hulos
humaine
human
humanite
humber
humbert
humble
humboldt
hume
humphrey
humun
humuniezhiou
humuniou
hun
hunan
hundred
huned
huneg
hungarat
hungareg
hungarek
hungaria
hungarian
hungariat
hungariz
hunger
hunt
hunter
hunvre
hunvreou
huon
hupel
hure
hurtado
hus
husain
hussein
huston
hutten
huw
huzh
huzul
huzulier
huzuliou
hvet
hvien
hwec
hwed
hweder
hwek
hwel
hweliou
hwen
hwerv
hwevrer
hwez
hwezek
hwezh
hwezhan
hwezhet
hweziou
hwi
hwibon
hwil
hwiled
hwitadenn
hwitan
hwitet
hy
hyacinthe
hyde
hydrornis
hyginus
hyperion
hypoleuca
hyrcan
hywel
i
ia
iade
iago
iain
iaith
ian
iann
iason
ib
iberek
iberia
ibi
ibid
ibil
ibiz
ibm
ibn
ibrahim
ic
ice
ich
ichi
ichiro
ici
icmlpo
icteridae
icterus
id
ida
idaho
ide
idem
identelezh
identite
identity
ideologel
ideologiezh
ideologiezhiou
idf
idjoek
idris
idus
idwal
ie
ienn
iennou
ieo
ieper
ier
ies
ieuan
if
ifan
ifern
iferniou
ifig
ifor
ig
iga
ige
iggy
iglesias
ignacio
igo
igor
igou
iguac
igwan
iholdi
ii
iiandre
iii
iiide
iiie
iiii
iiivet
iivet
ijin
ijinadenn
ijinadennou
ijinan
ijinas
ijiner
ijinerezh
ijinet
ijinour
ijinourien
ijzer
ik
ikea
ikko
il
ildefonso
ildud
ile
ilha
ilias
ilin
iliz
iliziou
ilizou
ill
illa
ille
illinois
illiria
illustrated
illustration
illustrations
illustre
ils
ilustrado
im
image
images
imagesize
imagine
imbourc
imdb
img
imitation
immanuel
imola
imor
imp
impalaer
impalaered
impalaerel
impalaerez
impalaerezed
impalaerezh
impalaeriel
impalaerien
impalaeriezh
impalaeriezhiou
impe
imperator
imperia
imperial
imperium
implij
implijad
implijas
implije
implijer
implijerien
implijet
implijetan
implijidi
implijont
implijou
implijout
imprenta
imprimerie
imre
in
ina
inbhir
inc
inch
increment
inde
independence
independent
index
indez
indezat
indezeuropek
india
indian
indiana
indianapolis
indianed
indiat
indicator
indicatoridae
indicus
indie
indo
indochine
indonezeg
indonezia
indre
indus
industriel
industriezh
indycar
ine
inen
infant
infante
infanted
infanterie
infantez
infantezed
infantil
infantry
infe
inferior
inferno
info
infobretagne
information
ingal
ingalded
ingalet
inge
ingeborg
ingres
ingrid
inis
inizan
inizi
inka
inkizision
inn
inner
innocent
innsbruck
ino
inornata
inosant
insee
inside
insignis
institut
institute
instituto
instructioneu
instrumental
insula
insularis
int
intan
inte
intel
intelligence
intent
inter
interactive
interest
interestou
interet
intermedia
intermedius
international
internationale
internet
interscience
interview
into
introduction
intron
intrudu
inuktitut
invasion
investigation
invisible
io
ioc
iole
iolo
ion
iona
ionadur
ionia
ionian
ionou
iorwerth
iou
iowa
ip
ipa
iparralde
ippolita
ippolito
ir
ira
irak
iran
iranek
iraq
ire
ireann
iredale
ireland
irena
irene
irien
irienn
iriennerien
iriennou
irina
iris
irish
irlande
irma
irmgard
iroise
iron
irun
irvin
irving
is
isa
isaac
isabeau
isabel
isabela
isabella
isabelle
isarktikel
isbn
isca
ise
isgenad
ishiwara
isidore
isis
iskerentiad
iskevandir
iskis
isla
islam
islamek
island
islandat
islandeg
islandek
islands
islas
islavarenn
isle
isles
islonk
iso
isola
isotopic
ispisial
isprefeti
israel
israelat
israelian
israeliz
isrannet
issahara
isskourr
issn
isspesad
isspesadou
issue
issues
ist
istanbul
istat
istimet
istin
istor
istorel
istoriou
istorour
istorourez
istorourien
istr
istria
isurzhiad
isurzhian
it
ita
itaka
italia
italian
italiana
italianed
italianeg
italianek
italiani
italiano
italica
italie
italo
italy
iter
itinerarium
itron
itronezed
its
iucn
iulia
iulius
iunius
iupac
iv
iva
ivan
ivanhoe
ive
ives
ivez
ivi
ivin
ivo
ivon
ivona
ivor
ivrea
ivvet
iwan
iwerzhon
iwerzhonad
iwerzhonat
iwerzhoneg
iwerzhonek
iwerzhoniz
iwo
ix
ixvet
iz
izaag
izabel
izeg
izel
izelaat
izelan
izeldiriou
izeloc
izelvroat
izelvroeg
izelvroek
izelvroiou
izelvroiz
izili
izold
izotop
izotopou
j
ja
jac
jack
jackie
jackson
jacky
jacob
jacobs
jacopo
jacq
jacqueline
jacques
jade
jae
jaffre
jaffrennou
jafrez
jag
jaguar
jahinan
jahinerezh
jahinet
jaime
jake
jakez
jakob
jakobidi
jakobined
jal
jalisco
jam
jamaica
jamaika
jamais
james
jameson
jamestown
jamie
jamo
jan
jane
janed
janeiro
janet
janglenn
jannaeus
january
janus
janvier
jaouen
japan
japanad
japanat
japaned
japaneg
japanek
japanese
japaniz
japon
jaque
jar
jardim
jardin
jardins
jarl
jas
jason
jaudy
jaume
jaune
java
jave
javier
jawa
jay
jazz
je
jean
jeanne
jed
jedadennou
jedet
jedi
jedin
jedoniezh
jedoniour
jedouer
jedouerou
jeeves
jef
jeff
jefferson
jeffrey
jehan
jela
jelvestr
jen
jena
jener
jeneral
jeneraled
jenkins
jennifer
jenny
jenovefa
jens
jensen
jentilez
jer
jeremi
jeremy
jerez
jermen
jero
jerom
jerome
jerry
jersey
jerus
jerusalem
jeruzalem
jerzenez
jerzenezek
jesse
jessica
jestin
jestrou
jesu
jesus
jet
jeu
jeune
jeunes
jeunesse
jeux
jewish
jez
jezegou
jezuist
jezuisted
jezus
jezuz
ji
jia
jibraltar
jil
jili
jim
jima
jime
jimena
jimi
jimmy
jin
jing
jir
jk
jo
joa
joachim
joakim
joan
joana
joanna
joanne
joannon
joaqui
joaquim
joaquina
job
joe
joel
johan
johann
johanna
johannes
johannesburg
john
johnny
johns
johnson
johnston
joie
joint
joinville
jolie
jolly
jon
jonas
jonathan
jones
jong
jord
jordan
jordania
jordi
jorge
joris
jorj
jorjia
jorjieg
jos
jose
josef
josefa
josep
joseph
josepha
josephine
josephus
joshua
josilin
josse
josselin
jou
jouan
joue
jouin
jouitteau
jour
jourdan
jourien
journal
journe
journey
jours
jove
joy
joyce
jozeb
jozef
jpeg
jpg
jr
ju
jua
juan
juana
juba
jube
jubennour
judas
jude
judea
judgment
judit
judith
judy
juge
jugnot
juifs
juillet
juin
jujuy
jul
jules
julia
julian
juliana
julianus
julie
julien
juliet
juliette
julio
julius
juluan
july
jump
jun
june
jung
junge
jungle
juni
junior
junius
junkers
juno
junzi
jupiter
jura
juraseg
jure
juri
jus
jusqu
just
justice
justices
justify
justin
justinian
justis
juted
k
ka
kab
kabell
kabilia
kabiten
kablus
kac
kachmir
kad
kadarn
kadarnaat
kadarnaet
kadmos
kado
kador
kadoriad
kadoudal
kadourien
kae
kael
kaer
kaeran
kaero
kaezar
kaezh
kafe
kafka
kahlo
kahn
kai
kaier
kaierou
kailh
kaiser
kala
kalao
kalc
kaled
kaledonia
kaledvoulc
kalet
kali
kalif
kalifiezh
kalifornia
kaligula
kallag
kallisto
kalloc
kalmar
kalon
kalonek
kalvar
kalvez
kalvezadel
kalvezel
kalz
kalzig
kalzik
kamakura
kamarad
kambodia
kambodja
kambon
kambr
kameled
kameroun
kami
kamm
kamp
kampagn
kampion
kampionad
kampionadou
kampioned
kampionez
kampionezed
kampou
kamtchatka
kan
kana
kanab
kanada
kanadenn
kanadian
kanan
kanaouenn
kanaouenno
kanaouennou
kanariez
kanas
kane
kanenn
kaner
kanerez
kanerezed
kanerien
kanet
kanevedenn
kangourou
kaniou
kanji
kankaven
kann
kannad
kannaded
kannadez
kannadig
kannadour
kannan
kannati
kanol
kanolier
kanolierezh
kanoliou
kanolme
kanou
kanourez
kansas
kant
kantabria
kantadou
kantik
kantikou
kanton
kantoniou
kantrev
kantrevou
kantved
kantvedclochers
kantvedou
kantvedskeudennou
kantvet
kanved
kaoc
kaodan
kaokaz
kaokazek
kaol
kaouenn
kaouenneg
kaourintin
kaout
kaoz
kaozeal
kaozeet
kaoziou
kapital
kappadokia
kar
kara
karabac
karadeg
karaez
karanteg
karantez
karantezus
karantoer
karbed
karbedou
karbon
karc
kardinal
kardinaled
kare
karel
karelia
karen
karet
karetan
karg
kargad
karget
kargidi
kargou
karib
karibek
karin
karina
karintia
karl
karloman
karlsruhe
karn
karnag
karnoed
karolina
karoline
karout
karozh
karr
karrbont
karreg
karrekaet
karrez
karrezek
karrnijourion
karta
kartada
kartenn
kartennou
karter
karteriou
kartou
karv
kas
kasas
kaset
kasoni
kaspar
kaspia
kassel
kast
kastell
kastellaodren
kastellin
kastellou
kastilha
kastilhaneg
kastilli
kastiz
kastizan
kastizet
kastizou
kat
katakana
katalan
katalaneg
katalanek
katalog
katalonia
katar
katarina
kate
katekiz
katelin
katell
katharina
katherine
kathleen
kathmandu
katie
katoligiezh
katolik
katoliked
katolikmemorial
katyn
kaup
kav
kavadenn
kavadennou
kavan
kavas
kave
kaved
kavell
kavenn
kaver
kavet
kavor
kavout
kawan
kay
kaz
kazac
kazakstan
kazeg
kazetenn
kazetenner
kazetennerez
kazetennerezh
kazetennerien
kazetennou
kazetennour
kazh
kazi
ke
keal
keav
kebek
kebekat
kedez
keep
kef
kefalos
keflusker
kefluskeriou
kefridi
kefridiel
kefridiet
kefridiou
kegin
keginan
keginer
keginerezh
kehelerezh
kehentin
keidenn
kein
keit
keitat
keith
kej
kejadenn
kejan
kejas
kejet
kel
kelaouenn
kelaouenner
kelaouennou
kelaouet
kelaouin
kelc
keleier
kelenn
kelennadurezh
kelennas
kelenneg
kelenner
kelennerez
kelennerien
kelennet
kelennour
kelien
kell
keller
kelligou
kelly
kelou
kelt
kelted
keltia
keltieg
keltiegour
keltiegourien
keltiek
kember
kemberin
kembraeg
kembraegerien
kembraegerienstatistical
kembraek
kembre
kembreat
kembreiz
kemend
kemener
kemenn
kemennet
kemennou
kement
kementad
kementadou
kemer
kemeras
kemere
kemeret
kemeridigezh
kemerjont
kemm
kemmadur
kemmaduriou
kemman
kemmas
kemmesk
kemmeskan
kemmesket
kemmet
kemmou
kempenieg
kempenn
kempennadenn
kempennet
kemper
kemperle
kemplezh
kempouez
kempred
ken
kenaan
kenamsav
kenan
kenaozet
kenarroud
kenavo
kendalc
kendastumad
kendelc
kenderc
kenderv
kendeuzet
kendeuzin
kendirvi
kendistaget
kendiviz
kendivizou
kendrec
kendroet
kened
kenedus
keneil
kenemglev
kenetreze
kenetrezo
kengeriou
kengerzad
kengevread
kengevredad
kengevreet
kenglad
kengor
kengred
keniterv
kenkent
kenkiz
kenkoulz
kenlabour
kenlabouras
kenlabourat
kenlabourer
kenlabourerien
kenlabouret
kennan
kennebeut
kennedy
kenneth
kenofisiel
kenroue
kenrouedad
kensavet
kenseurt
kenseurtez
kensevenet
kenskrivan
kenskrivet
kensonenn
kensonennel
kensonennou
kenstaget
kenstrivadeg
kenstrivadegou
kenstrollet
kenstur
kent
kenta
kentael
kentan
kentanv
kentel
kenteliou
kentidik
kentigern
kentoc
kentucky
kenunaniezh
kenurzhian
kenvarc
kenvreuriez
kenwerzh
kenwerzhel
kenwerzhourien
kenya
keoded
keodedel
keodedou
keodedour
keodedourien
ker
kerala
kerangal
kerbe
kerc
kerdin
kerdiz
kerdizenwau
keren
kerent
kerentiad
kerentiadou
kerentiezh
kerfeunteun
kergelenn
kergidu
kergoat
kergrist
kergustentin
kerhuon
kerien
keriou
kerjean
kerkent
kerkoulz
kerlann
kermoal
kern
kernalegenn
kerne
kernev
kerneveurat
kerneveureg
kerneveurek
kerneveuriz
kernevez
kernewek
kerniel
kernitron
kernow
kerofis
kerouac
kerrain
kerreg
kerreizh
kerrien
kerry
kersoren
kerstin
kervaria
kervarker
kervella
kervignag
keryann
kerz
kerzh
kerzhet
kerzhout
kerzu
kestell
ket
ketupa
keur
keuz
kev
kevanaozet
kevandir
kevandirel
kevatal
kevelouri
kevezadeg
kevezadegou
kevezer
kevezerezh
kevezin
kevig
kevin
keviou
kevnid
kevre
kevread
kevreadel
kevreadurezh
kevreadurezhel
kevredad
kevredadel
kevredadou
kevredel
kevredet
kevredidi
kevredigezh
kevredigezhel
kevredigezhiou
kevreet
kevrenn
kevrennek
kevret
kevrin
kevrinus
key
kezar
kezeg
kg
kgb
kha
khan
khanat
khe
khm
khmer
ki
kib
kiberen
kichen
kichenik
kichenn
kid
kidna
kids
kiedis
kieffer
kiel
kiev
kig
kigdebrer
kigenn
kigennou
kignen
kika
kil
kilan
kilda
kill
killer
killing
kilometr
kilometrad
kilpenn
kim
kimerc
kimi
kimiad
kimiek
kimiezh
kimiour
kind
kinder
king
kingdom
kingdoms
kings
kingston
kinkladur
kinkladuriou
kinklan
kinklet
kinklour
kinnig
kinnigas
kinniger
kinniget
kinnigou
kintin
kiprenez
kirantiek
kirby
kirche
kirchner
kirgizstan
kiribati
kiriek
kirillek
kirk
kirke
kirri
kirsten
kirvi
kiss
kistin
kistreberzh
kit
kitts
kizelladuriou
kizeller
kizellerez
kizellerien
kizellet
kizellour
kizhier
kizidik
kj
kjk
klan
klann
klaod
klaoda
klara
klas
klasel
klaselour
klask
klaskas
klaske
klasker
klaskerien
klasket
klasou
klaudios
klaus
klaviaz
klavier
klavierou
kleder
klegereg
kleier
klein
kleiz
kleman
klemez
klemm
klemmou
klen
kleopatra
klerg
kleub
kleubou
kleuz
kleuziet
klev
klevas
kleve
klever
klevet
klevout
kleze
klezeier
klik
klimt
klipou
klison
kloar
kloareg
kloc
kloerdi
klok
klokaet
klopenn
klot
klotaat
klotan
klotar
klotennou
klouar
kloz
klozet
klt
klub
klubou
km
knidos
knight
knopf
know
knowledge
known
knox
knut
ko
koad
koadeg
koadegi
koadegou
koadeier
koadou
koan
koant
koar
koazhan
kobayashi
koc
koch
kod
kodet
kodianan
kodianidigezh
kodou
kof
kofesour
koko
kolc
kolier
kolkata
koll
kollas
kollet
kollou
kolobouz
kolomb
kolombia
kolombian
kolonenn
koman
komandant
komark
komarkou
kombod
kombodou
komborn
komedian
komedianez
komedienn
komiser
komite
kommagene
komorez
kompagnunezh
kompagnunezhiou
kompez
kompezenn
kompren
komprenas
komprener
komprenet
komunour
komunourien
komunouriezh
komunourion
komz
komze
komzer
komzet
komzou
kon
konan
kondaonet
kondaonin
kondon
konestabl
konfusian
konfusianegezh
konfusius
kong
kongar
kongo
kongoek
konikl
konk
konrad
konstantin
konstantinopolis
konstanz
konstanza
konsul
konsuled
kont
kontadenn
kontadennou
kontammet
kontan
konted
kontelezh
kontelezhiou
kontell
konter
kontet
kontez
kontilli
kontou
kontrol
kontroll
kontrollan
kontrollet
kontrollin
konyakek
kopenhagen
koptek
kor
korbell
kordenn
kordofanek
kore
korea
korean
koreaneg
korf
korfadurezh
korfel
korfou
korinthos
korintos
korkig
korle
korn
kornad
kornaoueg
kornek
korniou
korno
kornog
koroll
korollerez
koronal
korporal
korr
korrig
korseg
korsika
korventenn
korvoet
korvoin
korz
korzenn
kos
koshan
koshoc
koskor
koskoriad
kosovo
kostez
kostezenn
kostezennou
kosteziou
kostiou
koton
kou
koublad
koublet
kouchitek
kouent
kouer
kouerien
kouevr
kouezh
kouezhadenn
kouezhan
kouezhas
kouezhet
koukiek
koukoug
koulizh
koulm
koulman
koulskoude
koulz
koulzad
koumoul
koun
kounnar
kounnaret
koural
kouril
kourland
kouronkan
kourser
kourtizanez
kousk
kousket
koust
koustus
koweit
koz
kozh
kpd
kr
kra
krabanou
krag
krai
kraj
krako
kramer
krampouezh
kranked
kraon
kraozon
krater
krec
kred
kredas
krede
kredenn
kredennou
kreder
kredet
kredin
kregin
kreisteiz
kreisteizamerika
kreiz
kreizafrika
kreizafrikan
kreizamerika
kreizdouar
kreizdouarel
kreizenn
kreizennan
kreizennet
kreizennou
kreizer
kreizig
kren
krenn
krennamzer
krennamzerel
krennard
krennarded
krennet
krennlavar
krennlavariou
krennlavarou
krennvrezhoneg
kreoleg
kreolek
kreon
kresk
kreskas
kreske
kresket
kreskin
kresteneged
kreston
kreta
krez
krign
krigner
krignerien
krimea
krin
krist
kristen
kristenaet
kristenien
kristeniezh
kristenion
kristian
kristin
kristina
kristof
kristol
kriz
kro
kroashent
kroat
kroateg
kroatia
kroaz
kroaziadeg
kroaziou
kroazstaget
kroc
krog
krogad
krogadou
krogas
kroget
krokodil
kromm
krommellou
kronikenn
kronikou
kronologiezh
kronos
kropotkin
krouadur
krouaduriou
krouas
krouer
krouerien
krouet
krouget
krouidigezh
krouin
kru
krugell
krzysztof
kserses
kt
ku
kuba
kuban
kubrick
kuch
kudenn
kudennou
kuit
kuitaas
kuitaat
kuitaet
kulmbach
kumun
kumuniezh
kumuniezhiou
kumuniezhou
kumuniou
kun
kunsthalle
kunsthistorisches
kupidon
kurd
kurdeg
kurdistan
kure
kurekristof
kurfu
kuriou
kurt
kurun
kurunenn
kurunennet
kurunet
kurunidigezh
kush
kushan
kustentin
kustum
kuzh
kuzhat
kuzhet
kuzul
kuzuliadeg
kuzulier
kuzulierez
kuzulierien
kuzuliou
kv
kwaek
kwikatekek
ky
kyiv
kymwt
kyo
kyoto
kyu
kzu
l
la
lab
label
laboratory
labour
labouradeg
labouradegou
labouras
labourat
laboure
labourer
labourerien
labourerion
labouret
labouriou
labourva
labous
laboused
labrador
lac
lacombe
lacordaire
lacroix
ladies
ladineg
lady
lae
laenneg
laer
laeret
laerezh
laeron
laetitia
laez
laezh
lafayette
laffont
lafolye
lafont
lafresnaye
laga
lagad
lagadec
lagadeg
lagadeuc
lago
lagoa
lagomorpha
lagonosticta
lagopus
lagos
laguna
lai
laine
lak
laka
lakaas
lakaat
lakae
lakaer
lakaet
lakas
lakat
lake
lakeas
laket
lalage
lalande
lam
lama
lamb
lambal
lambaol
lambert
lamborghini
lambrizig
lamennais
lamet
lamm
lammas
lammat
lammet
lammou
lamp
lamprotornis
lan
lancashire
lancaster
lance
lancelot
land
landa
lande
landeda
landerne
landes
landevenneg
landgraf
landgrav
landgraviezh
landivizio
landkreis
landreger
lands
landscape
lane
lanfeust
lang
lange
langedig
langes
langlais
langleiz
langoad
langon
langoned
language
languages
langue
languedoc
langues
lanie
lanius
lanka
lann
lannarste
lanneier
lannejenn
lanneur
lanniliz
lannion
lannoez
lannolon
lannuon
lantanidou
lantanom
lanv
lanvellec
lanvezeeg
lanwern
lanyugon
lao
laon
laoran
laos
laosk
laoskas
laosket
laou
laouen
laouenan
lapin
laporte
lappek
lapurdi
lar
lara
lard
lare
laret
large
largo
laridae
larousse
larry
lars
larus
larvivora
larzac
las
laser
lasker
last
lastez
lat
late
later
latham
latimier
latin
latina
latinekaet
latino
latium
latveg
latvek
latvia
lauda
lauenburg
launay
laura
laure
laurel
laurence
laurent
laurie
lausanne
lautrec
lava
laval
lavar
lavaras
lavare
lavared
lavarenn
lavarennou
lavarer
lavaret
lavariou
lavarou
lavarout
lavinia
lavnenn
lavreer
law
lawrence
laws
lay
laye
layer
laz
lazar
lazare
lazh
lazhadeg
lazhadegan
lazhadeget
lazhadegou
lazhadenn
lazhan
lazhas
lazher
lazhet
lazio
lazou
lc
ld
ldegalerie
le
lea
leader
league
leah
leal
lealded
lean
leandi
leandro
leaned
leanez
leanezed
lear
learning
leave
leben
lebrun
lec
lecce
lecco
lech
leclerc
leconte
lecture
lectures
led
leda
ledan
ledanaat
ledanaet
ledanan
ledander
ledanoc
ledas
lede
ledenez
ledet
ledred
lee
leeds
lefebvre
lefournier
lefranc
left
legacy
legad
legend
legends
leger
legio
legion
legneg
legumaj
lehiou
lehon
lei
leian
leicester
leiden
leie
leiel
leigh
leila
lein
leiningen
leinster
leiothrichidae
leipzig
leisure
leizh
lejion
lejionou
lem
lemel
lemm
lemnos
lemojez
lemy
len
lena
lengadok
lengua
lenin
leningrad
leninist
leninour
leninouriezh
lenn
lennadennou
lennas
lenneg
lennegel
lennegezh
lennegezhiou
lenneien
lenner
lennerez
lennerien
lennet
lennon
lennou
lennox
lens
lentulus
leo
leon
leonard
leonardo
leone
leoned
leonhard
leonid
leonor
leonora
leopardus
leopold
leopoldine
leopoldo
leorik
lepidus
leprince
lepus
ler
lerc
lern
leroux
leroy
les
lesanv
lesanvet
lesanviou
lesbian
lesbos
leslie
lesneven
lesotho
lesson
lester
lestin
lestr
lestran
lestraz
let
letanant
letelegramme
leti
letiou
letizia
letras
letter
lettere
letters
lettre
lettres
leu
leuchtenberg
leucocephalus
leucogaster
leuconotopicus
leucophrys
leucoptera
leucotis
leue
leun
leunian
leuniet
leur
leurenn
leurenner
leurennet
leurennou
leurge
leurs
leuskel
leusket
leuven
lev
leve
level
leven
levenez
lever
levezon
levezonas
levezonet
levezonin
levezonou
levi
levian
levieg
levier
levierez
leviour
levr
levraoueg
levraoueger
levraouegou
levrenn
levrennou
levrig
levriou
levrlennadur
levroniezh
levy
lewis
lewisohn
lex
lexington
lez
lezardrev
lezas
lezel
lezenn
lezennel
lezennin
lezennou
lezer
lezet
leziou
lezvab
lezvamm
lezvarn
lezvarnel
lezvreur
lfe
lgbt
lhasa
li
lia
liac
liam
liamm
liamman
liammet
liammou
liane
liang
liard
lias
lib
liban
libe
liber
liberal
liberalism
liberation
liberia
libertad
liberte
liberty
libia
libr
librairie
library
libre
libres
libri
libro
lica
lich
lichtenberg
lichtenstein
licinius
licite
lid
lidan
lide
lidek
lidel
liderezh
lidet
lidou
lie
liebe
liebknecht
liechtenstein
lied
lieder
lien
lienenn
lies
liesc
liesdoare
liesliv
liesseurt
liester
lieu
lieux
life
liger
light
lightgrey
lightning
lights
ligne
lignez
lignezou
ligny
ligue
ligure
liguria
lijer
lik
like
lila
lili
lille
lilly
lily
lima
limbourg
limbourgeg
limburg
limestra
limitation
limited
limites
limoges
limousin
lin
lina
lincoln
lincolnshire
linda
lindo
line
lineatus
linenn
linennou
lines
lingu
lingua
linguistic
linguistics
linguistique
link
linnaeus
linne
linus
linux
lio
lion
lionel
lions
liorzh
liorzhan
liorzhou
lip
lippe
lippi
lips
lique
lir
lire
lis
lisa
lisabeth
lisboa
lisbon
lise
liseidi
liseou
lisieux
list
liste
listenn
listennad
listennou
listri
liszt
lit
literary
literatura
literature
litr
litrad
litte
little
littleton
lituaneg
lituania
lituanian
lituaniat
lituaniz
liu
liutprand
liv
livadur
livaduriou
livan
livarot
livas
live
livenn
liveou
liver
liverezh
liverieg
liverpool
lives
livet
livia
living
livingston
livingstone
liviou
livius
livonia
livorno
livour
livourez
livourezed
livourien
livouriezh
livre
livres
lix
lizer
lizher
lizherenn
lizherenneg
lizherennegou
lizherennou
lizherou
lizhiri
ljubljana
ll
lla
llan
llanbadarn
llanbedr
llanddewi
llandeilo
llandudno
llandysul
llanelli
llanfair
llanfihangel
llangollen
lle
lleida
lleoedd
ller
llew
llewellyn
llewelyn
lln
llorona
lloyd
llui
llwyd
lly
llydaw
llyfr
llyn
llywarch
llywelyn
lmen
ln
lo
loa
load
loaiou
loar
loarel
loarell
loarellou
loarenn
loarennou
loargann
loc
local
loch
loches
locus
locustella
lod
lodek
lodenn
lodennet
lodennou
lodi
lodies
loeiz
loeiza
loen
loened
loenoniezh
loenoniour
loenoniourien
loerou
log
logan
logaritm
loge
loges
logigou
logivi
logo
logod
logodenn
logunec
loi
loir
loire
loiret
lois
loisirs
lojan
lojban
lojeiz
lok
lokarn
lokativel
lokentaz
lokeored
loki
lokireg
lokmaria
lokmazhe
lokmikael
lokoal
lokorn
lokournan
lokrist
loktudi
lola
lolfa
lolita
loloek
lom
lombard
lombarded
lombardia
lon
lonchura
london
londres
londrez
lonely
long
longirostris
longue
longueville
lonkan
lonker
lonket
lons
look
looking
loos
lope
lopes
lopez
lophura
lorc
lorca
lord
lore
loread
loreadeg
loreet
loreidi
loren
lorena
lorenz
lorenzo
loreto
lorette
lorient
lorrain
lorraine
lors
los
loskaberzh
losket
lost
lostek
lostger
lostgeriou
lot
lotar
lotaringia
loth
lothar
lothian
lothringen
lotus
lou
louaneg
louargat
louarn
louc
loude
loudieg
louergad
louet
louis
louisa
louise
louisiana
louison
louiziana
loup
loupard
loups
lourdes
lourennek
lous
louvre
louzaouenn
louzawour
louzawourien
louzawouriezh
louzeier
louzou
lovat
love
lovecraft
lover
loves
lovisa
low
lowell
lower
loxia
loy
loyola
loze
lp
lrant
ls
lt
ltd
ltima
lu
luar
luc
luca
lucas
lucca
luce
luchino
luci
lucia
luciano
lucie
lucien
lucius
lucky
lucretia
lucrezia
lucy
lude
ludovico
ludu
ludwig
lufr
luftwaffe
lug
lugan
lugdunensis
lugdunum
lugo
lugubris
lui
luigi
luiou
luis
luisa
luise
luiz
lukaz
luke
lukian
luksembourg
luksembourgeg
lulu
lumie
lun
luna
lune
lunedou
luniou
lupus
lur
luriou
lus
luscinia
lusia
lusignan
lusk
luskad
luskadou
lusker
lusket
luskou
luther
lutley
lutte
lux
luxembourg
luxemburg
luz
luzel
luzia
luziet
luzietoc
luzon
lvarez
lvaro
ly
lybiidae
lybius
lyce
lydia
lynch
lynn
lynx
lyon
lyra
lyrics
lys
lysandros
lyse
m
ma
maarten
maas
maastricht
mab
mabig
mabinogi
mabinogion
mabon
mac
macaca
macarthur
macbeth
macdonald
mace
macha
machado
machiavelli
machikoul
machine
mackenzie
macleod
macmillan
macrinus
macrocypraea
macron
macropus
macsen
maculatus
mad
madagascariensis
madagaskar
madalen
madame
madarek
maddalena
made
madeg
madeira
madeleine
madelezhus
mademoiselle
madison
madog
madonna
madou
madox
madras
madre
madrid
mae
mael
maelgwn
maen
maenadou
maer
maerdi
maered
maerez
maez
maeziou
maezon
mafalda
mafia
mag
magaduriou
magalha
magallanes
magan
magazin
magazine
magda
magdala
magdalena
magdalene
maget
maggie
maggiore
maghreb
magi
magic
magical
magister
magma
magna
magnentius
magnetek
magnifico
magnirostris
magnus
maha
mahakirantiek
mahal
maharashtra
mahe
mahler
mahmoud
mahomed
mai
maia
maid
maiden
maigh
maigret
mail
mailh
maillezais
mailly
main
maine
mainz
maior
mair
maire
mairie
mais
maison
maisonneuve
maisons
maissin
maiz
major
make
makedonia
making
makuria
mal
mala
malan
malaria
malaspina
malastred
malatesta
malawi
malayalameg
malayeg
malayek
malaysia
malcolm
maldivez
maldonado
male
malezia
malgeneg
malherbe
mali
malik
malivel
mall
malle
mallorca
mallozh
malmanche
malo
malory
malou
malraux
malt
malta
malteg
maluku
malurus
mam
mama
mambo
mamm
mammal
mammenn
mammennou
mammou
mammvro
man
mana
manac
management
manati
manatiou
manav
manaveg
mancha
manche
manchester
manchouria
manchu
mancini
mandarin
mandarineg
mandela
mane
maner
maneriou
manet
manfred
manfredi
mang
manga
mangaiou
mangaou
mangeek
mango
manhattan
mani
manifestadeg
manifestadegou
manifesto
manila
manitoba
mank
manked
mankout
mann
mannheim
mano
manoir
manon
manor
mans
manson
mantallot
mantegna
mantell
mantova
manu
manuel
manuela
manutention
many
mao
maodez
maodiern
maoour
maorieg
maoris
maoron
maouez
maouezed
maouezi
maouritania
maout
maoutken
map
maps
mar
mara
marabout
marais
maranha
marathon
maraton
marburg
marc
marceau
marcel
marcella
marcelle
marcellinus
marcello
marcellus
march
marchal
marchand
marche
marcianus
marcinelle
marco
marcos
marcus
mard
mare
maread
marechal
maredudd
marek
mareou
mareuil
marevezh
marevezhiou
margaret
margareta
margarete
margarethe
margarida
margarita
margherita
margot
margrav
marguerite
mari
maria
mariachi
mariage
mariamne
mariana
marianna
marianne
mariano
marichal
marie
marigny
marilh
marilhet
marilhou
marilyn
marin
marina
marine
marines
marinespecies
marino
marins
marinus
mario
marion
maris
maritime
maritimes
marius
mark
market
markgraf
markiz
markizelezh
markizez
marko
markowicz
marksour
marksouriezh
markus
marlene
marley
marmor
marmouz
marmouzed
marn
marne
maro
maroko
marque
marquis
marquise
marriage
mars
marseillaise
marseille
marsel
marselha
marsh
marshall
marsilha
mart
marta
martel
martens
marteville
marteze
martezeadennou
martha
marthe
marti
martial
martin
martina
martine
martinez
martinho
martini
martinik
martino
martins
martinus
martius
martolod
martoloded
marussia
marv
marvailh
marvailhou
marvaillou
marvel
marvet
marvin
marviou
marvus
marx
marxist
mary
maryland
maryse
marz
marzh
marzhin
marzhou
marzhus
marziou
marzou
mas
masen
masimilian
maskl
mason
maspero
mass
massa
massachusetts
massacre
massignon
massimo
masson
master
masters
mat
mata
matador
matamoros
match
mate
matematik
matematikou
matematikour
matematikourien
mater
materi
matezh
math
mathews
mathias
mathieu
mathilde
mathurin
matignon
matilda
matilde
matilin
matin
matisse
mato
matt
matteo
matter
matthew
matthias
matthieu
mau
maubeuge
maud
maude
maufrigneuse
maule
maunoir
maupassant
maupertuis
maur
maureen
mauretania
maurice
maurizio
mauro
mawr
mawrth
max
maxim
maxima
maxime
maximianus
maximilian
maximilien
maximinus
maximus
maxwell
may
maya
mayenne
mayer
mayo
mayor
mayotte
maz
mazarin
maze
mazhev
mb
mc
mccartney
mccay
mccune
mcdonald
mclaren
md
me
mean
meaning
meaux
mec
mecklenburg
med
medal
medalenn
medalennou
medar
medb
medea
medek
medelli
media
mediaou
medical
medicea
medici
medieval
medina
medisin
medisined
medisinerezh
medousa
medway
meer
meet
megalaimidae
megara
mehmed
mehmet
mei
meiji
meilh
mein
meinhof
meiningen
meirionnydd
meister
meizad
meizadou
meizan
meizet
meiziad
mejor
mekanik
mekanikel
mekanikerezh
mekanikou
mekka
mel
mela
melanerpes
melani
melanocephala
melanocephalus
melanocorypha
melanogaster
melanops
melanotaenia
melanotis
melanurus
melar
melbourne
melc
melen
melestradur
melestradurel
melestradurezh
melestret
melezour
melilla
melin
meliner
meliphagidae
mell
mellad
melladou
melldroad
melldroader
melldroaderien
melle
mellkeineged
mellou
melody
melun
melusina
melville
mem
memento
memes
memestra
memoirs
memor
memoria
memorial
memorialgenweb
memories
memory
memphis
men
menai
mende
mendes
mendon
mendoza
mene
menec
meneg
meneger
meneget
menegin
menegomp
menegou
menehould
menel
menelaos
meneou
menez
menezalban
meneziek
meneziou
meng
mengleuz
mengleuziou
menhir
menn
mennad
mennadou
mennet
mennozh
mennozhiou
meno
menoe
menor
ment
mentadur
mentou
ments
mer
mera
meran
merc
mercader
mercedes
mercia
mercier
mercure
mercury
merdeadurezh
merdeer
merdein
merenn
mererezh
meret
meriadeg
meridionalis
merien
merk
merkan
merkel
merket
merkou
merle
merlin
meroe
merops
merour
merry
mers
merser
merthyr
merveille
mervel
mervent
merville
merzet
merzher
merzherez
merzherien
merzheriet
merzherinti
merzhet
merzhin
merzout
mes
mesa
mesaer
mesiaz
mesk
meskaj
meskan
mesket
meskl
mesnil
messalina
messalla
messe
messelie
messerschmitt
messieurs
messina
mestr
mestrc
mestrez
mestroni
mestronian
mestroniet
mestroniezh
met
meta
metal
metalek
metalou
metamorfozou
metou
metr
metrad
metro
metropol
metropolitan
metropolitana
metrou
metz
meu
meud
meulet
meuleudi
meulgan
meur
meurastumm
meurbet
meurc
meurdezus
meurgan
meurge
meuriad
meuriadou
meurig
meurlarjez
meurthe
meurvein
meurvor
meurvoriou
meurzh
meuse
meuz
meuziou
mevel
mevelien
meven
mewan
mexicana
mexicanus
mexico
meyer
mez
mezeg
mezegiezh
mezeien
mezh
mezheven
mezhus
meziant
meziantou
mezoplodon
mezopotamia
mezv
mf
mg
mhnt
mho
mi
mia
miami
mibien
mic
mica
micaela
mich
michael
miche
michel
michelangelo
michele
michelin
micheline
michelle
micher
micherel
micheriou
micherour
micherourien
michigan
mick
mickey
mico
microsoft
microtus
middle
midi
midlands
midnight
midway
mie
mies
mieux
mifflin
mighty
mignon
mignoned
mignonez
mignoniezh
miguel
mik
mika
mikael
mike
mikhail
mikronezia
mikstekeg
mikstekek
mil
milagro
milagros
milan
milano
mile
milendall
milendallou
miles
miletos
miliadou
miliard
milie
milierou
milieu
milin
miliner
milinou
milion
milionou
militaire
military
milk
mill
millais
mille
millennium
miller
millet
milliget
million
mills
milon
milos
milour
milourel
milourion
milton
milved
min
mina
minamoto
minardi
minas
mind
mindanao
mine
minerva
mines
ming
minh
minho
mini
minie
minihi
minimus
ministirad
ministr
ministred
ministrerezh
ministrez
minna
minnesota
minoc
minor
minorelezhiou
minos
minsk
mintin
minuit
minutes
mio
miossec
mique
miquel
mir
mira
miranda
mirandola
mirdi
mirdiou
miret
miriam
mirlec
miro
mirour
mirourien
mirout
mirror
mirva
mis
mise
miserere
mishima
misilou
misioner
misionerien
misiones
misionou
miss
missa
mission
missionou
mississippi
misso
missouri
mister
misteriou
misti
mistral
mistri
mit
mitchell
mithridates
mitizhien
mitologiezh
mitologiezhiou
mitte
mitterrand
miuwu
mix
miyazaki
miz
miziek
miziou
mizuki
mizvezh
mizvezhiou
mk
ml
mm
mme
mn
mo
moal
moan
moarvat
mobile
moby
moc
mocae
mod
mode
model
modena
modern
modernaat
moderne
modesta
modestus
modification
modou
moe
moel
moereb
moesia
moged
moger
mogeriet
mogeriou
mogn
mohamed
mohammad
mohammed
moi
moigne
moine
moines
moing
moins
moire
moires
mois
moisson
moizez
mojenn
mojennel
mojennou
moktezuma
mol
molan
molard
moldavia
moldova
mole
molecular
molekulennou
molenez
moliac
molie
molina
molise
moll
molly
moment
mon
mona
monaco
monako
monarchidae
monarkiezh
monc
mond
mondadori
monde
mondes
mondiale
mondo
moneiz
moneizou
monet
moneta
monetaria
money
monferrato
mongek
mongol
mongoleg
mongolek
mongolia
monica
monique
monkey
monkontour
monmouth
monnier
monogatari
monroe
mons
monsanto
monsieur
monster
monsters
mont
montagne
montagner
montaigne
montaigu
montalba
montalto
montana
montanus
montauban
montbe
monte
montefeltro
montenegro
monterey
montes
montesquieu
montevideo
montfaucon
montfort
montgomery
monthly
monticola
montigny
montjoie
montmorency
montparnasse
montpelhie
montpellier
montpensier
montre
montreal
montreuil
montrose
montroulez
monts
montserrat
monumant
monumantou
monument
monumental
monumentale
monuments
monza
moon
moonlight
moor
moore
mor
mora
moraer
moraerien
moral
morales
moran
moravia
morbihan
morc
mordiern
mordor
mordred
mordreizher
mordrel
more
moreau
morel
moreno
moret
morfem
morfemou
morfologel
morfologiezh
morgan
morganatek
morgane
morgannwg
morganwg
morgoth
mori
morial
morilhon
morin
moriou
moris
morisot
moritz
morlaer
morlaeron
morlaix
morlenn
morlu
morluiou
morning
moro
morris
morrison
morro
morse
morskoul
mort
mortagne
mortal
morte
mortimer
morton
morts
morvan
morvannou
morvil
morviled
morvran
morzhed
morzhol
mos
moselle
moses
moshe
moskeenn
moskou
moskov
moskva
mosoul
mosquito
most
mostar
mot
motacilla
motacillidae
mothe
mother
motion
moto
motor
motown
mots
motta
motte
motu
moudenn
moudennou
mouez
mouezh
mouezhiadegou
mouezhian
mouezhiet
mouezhiou
moueziou
mougan
mouget
mougev
mougeviou
mouilleron
mouk
mouladuriou
moulan
mouler
moulerez
moulerezh
moulet
moulin
moulins
moullan
mouller
moullerezh
moullet
mount
mountain
mountains
moura
mourieg
mourir
mousa
mouse
moussa
mouster
mousterel
moustoer
moutiers
mouton
mouvement
mouzeuil
movement
movie
moyen
moyne
mozambik
mozart
mp
mr
mrs
ms
mt
mtv
mu
much
muenn
muerte
muhammad
mui
muian
muianiver
muiel
muile
muioc
mujer
mujeres
mull
muller
multi
mumbai
mun
munck
mundi
mundo
mungo
munich
munici
municipio
munro
muntr
muntran
muntrer
muntret
muntrou
munud
munudig
munudou
munut
munutenn
mur
murasaki
murat
murcia
murder
murillo
murlivadur
murlivaduriou
murphy
murray
mus
musa
muscicapa
muscicapidae
musculus
muse
museo
museu
museum
music
musica
musical
musique
musk
muskadig
mussolini
must
mustafa
mustang
mustela
mustelidae
mut
mute
muybridge
muzellou
muzenn
muzezed
muzik
muzilheg
muzul
muzulian
muzuliet
muzuliou
muzulman
muzulmaned
muzulmat
muzulmiz
mw
my
myanmar
mycteria
myiarchus
mykenai
mynydd
myrddin
myrmotherula
myspace
myste
mystery
myth
mythe
mythes
mythologie
mythology
myths
myzomela
n
na
nabokov
naboukadnesar
nac
nach
nacht
nacional
nacionalista
nad
nadoz
nadu
naer
naered
naeron
naet
naetaat
nafarroa
naff
nag
nagaek
nagasaki
nagorno
nagy
nahouatleg
nai
naig
naissance
naked
nam
name
names
namibia
nammet
namo
namur
nan
nana
nancy
nanjing
nann
nant
nanterre
nantes
nanus
naomi
naon
naoned
naonedcassini
naonegezh
naontek
naoz
naples
naplez
napole
napoleon
napoleone
napoli
nara
narbona
narbonensis
narbonne
narcisse
nard
narsis
nas
nasa
nash
nashville
nassau
nat
natal
natalie
nathalie
nathan
nathaniel
nation
national
nationale
nationalmuseum
nations
native
nato
natur
natura
natural
nature
naturel
naturour
naumann
nav
navac
navad
naval
navarra
navarre
navarro
nave
navet
navy
nazaire
nazaret
nazareth
nazer
nazi
nazied
naziegezh
nazionale
nc
nchen
nchez
ncia
ncipe
nd
nde
ndel
nder
ndez
ndia
ndor
ne
nea
neal
near
neb
nebeud
nebeudig
nebeut
nebeutan
nebeutoc
nebo
nebraska
neburg
nec
nectariniidae
ned
nedd
nedeleg
nederland
nederlandat
nederlandeg
nederlandek
nederlandse
need
nef
negativel
negra
negro
negros
nehru
nei
neige
neil
neill
neizh
neizhan
neizher
neizhian
nek
neket
nekor
nel
nell
nella
nelly
nelson
nement
nemet
nemetan
nemeti
nemetken
nemeto
nemeur
nemo
nemorant
nemours
nen
nennius
neo
neoazh
neolitik
neomorphus
neos
nep
nepal
nepell
nepos
neptu
neptuegezh
ner
nero
neron
nerva
nervel
nervenn
nervennou
nerzh
nerzhiou
nerzhus
nes
nesan
nesiocypraea
nesle
ness
nessos
nest
nestor
net
netflix
netra
network
neu
neuburg
neucha
neud
neudenn
neudennou
neue
neues
neuf
neufcha
neuial
neuilly
neumann
neun
neuque
neus
neustadt
neustria
neutre
neutron
neutronou
neuve
neuville
neuz
neuze
nev
nevada
neve
neved
nevenoe
never
nevers
neves
nevesaat
nevesaet
nevesan
nevesoc
nevet
nevez
nevezamzer
nevezamzeriou
nevezc
nevezoadvezh
neville
nevis
new
newark
newburgh
newcastle
newman
newport
news
newton
newtown
newydd
next
nez
nezan
ng
nga
ngall
ngc
ngel
ngeles
nger
ngtaine
nguye
nh
nha
ni
nia
nic
nica
nicaragua
niccolo
nice
nicholas
nichols
nicholson
nicht
nick
nico
nicola
nicolas
nicole
nidiad
nie
niedersachsen
niel
niels
nielsen
nietzsche
nieuw
nieuwpoort
nig
nigel
niger
nigeria
night
nightmare
nights
nigra
nigrescens
nigriceps
nigricollis
nigsberg
nigsmarck
nihil
nij
nijadenn
nijal
nijas
nijer
nijerek
nijerez
nijerezed
nijerezh
nijereziou
nijeria
nijerien
nijmegen
nijour
nijourion
nijva
nike
niki
nikita
nikobar
nikola
nikolai
nikolaus
nikolay
nikolaz
nikomedes
nil
nilez
nilon
nilotek
nils
nimes
nimfenn
nimfezed
nimo
nin
nina
nine
nino
ninox
nintendo
nio
niobe
niobiom
nion
nipalensis
nis
nisa
niv
niver
niveradeg
niverel
niverenn
niverennet
niverennin
niverennou
niveridigezh
niverou
niverus
niverusan
niverusoc
nivlennad
nixon
niz
nizez
nizon
nkvd
nl
nm
nn
nnn
no
noa
noah
noailles
noal
noalleg
noalou
noazh
noazus
nobel
nobiliaire
nobilis
nobl
noblan
noble
nobletz
nobody
noces
noche
noe
noel
nogent
noi
noir
noire
noirs
noise
noite
nola
noldor
nolwenn
nom
nombre
nome
nominativel
nominoe
noms
non
none
nono
noord
nor
nora
norbert
nord
nordeste
nordrhein
norfolk
norge
norm
norma
normal
norman
normand
normandi
normandie
normandime
normaned
normaneg
norseg
norsek
norte
north
northern
northumberland
northumbria
norton
norvegat
norvegeg
norvegek
norvegia
norvegiat
norzh
norzhafrika
norzhamerika
norzhiwerzhon
norzhkorea
nos
nossa
noster
nostra
nostrand
not
note
notenn
notennet
notennin
notennou
noter
notes
notet
nothing
notice
notitia
notoc
notre
nou
nouelig
nouga
nous
nouveau
nouveaux
nouvel
nouvelle
nouvelles
nov
nova
novaehollandiae
novaeseelandiae
novara
nove
novel
november
novembre
novgorod
novi
novo
now
noyelles
noyers
noz
nozieg
nozvezh
nozvezhiou
nr
ns
nsdap
nster
nt
ntara
nter
nu
nubia
nuchalis
nuclear
nuestra
nueva
nuevo
nui
nuit
nuits
nukleel
nukleu
null
nullan
nullet
number
nume
numidia
nun
nunavut
nunca
nuovo
nupedia
nus
nva
ny
nyks
nynorsk
o
oa
oabl
oad
oadet
oadou
oadourien
oadvezh
oafichenn
oak
oakland
oaled
oamp
oan
oant
oar
oas
oaxaca
ob
obama
obe
ober
oberenn
oberennou
oberer
obererezh
obererezhiou
oberezhiou
oberholser
oberiadenn
oberiadur
oberiaduriou
oberian
oberiant
oberiantiz
oberiet
oberiou
oberou
oberour
oberourez
oberourien
obidou
objedou
oblast
oblastou
oboell
obra
obras
obscura
obscurus
oc
occident
occidental
occidentalis
occitan
occupation
oce
ocean
oceanodroma
och
ochoa
ochotona
oclc
octave
octavia
octavianus
octavius
october
octobre
oda
ode
oder
odessa
odetta
odile
odin
odo
odoardo
odon
odore
odysseia
odysseu
odyssey
oe
oen
oenanthe
oeste
of
oferenn
oferennou
off
offa
offenbach
office
official
officiel
ofis
ofiser
ofiserien
ofisiel
ofisou
ofisour
ofisourien
og
oge
ogham
ogledd
ognon
ograou
ograouer
ograour
ographie
ographique
ogwr
oh
ohio
ohne
oi
oidipou
oil
ois
oise
oiseau
oiseaux
ok
okeania
okeanidenn
okeanos
okinawa
okitan
okitaneg
okitanek
okitania
oklahoma
oksidadur
oksidenn
oksidet
oksigen
ol
ola
olaf
old
oldenburg
ole
olga
olier
olifant
olifanted
olimpek
olimpia
olimpiadou
olivacea
olivaceus
oliveira
oliver
olivez
olivia
olivier
oll
ollendorff
ollivier
ollivro
ologie
ologique
olonne
oloron
olwen
olympe
olympia
olympique
olympos
om
omaha
oman
omar
ombre
omega
omer
omnes
omnia
omnibus
omniglot
omotek
omp
on
onard
once
oncle
one
onest
oni
online
only
ono
onore
ons
ont
ontario
onze
op
opa
ope
open
opera
operation
ophelia
ophile
opold
oposom
oppidom
oppidum
opta
opus
or
ora
orakl
oran
orange
oranje
oratorio
orazio
orbis
orbit
orbitenn
orc
orchestra
orchestre
order
ordinal
ordnance
ordo
ordon
ordonnances
ordovisian
ordre
ore
oregon
orestes
orfeu
org
organ
organegou
organek
organisation
organization
organou
orgedin
orglez
orgue
oriant
orient
oriental
orientales
orientalis
orientation
oriente
origin
original
origine
origines
origins
orin
orinel
orinou
oriolidae
oriolus
orion
oriyek
orjal
orked
orlando
orle
orlean
orleans
orley
ornatus
orne
oro
orquesta
orsay
orsini
orson
ortiz
ortodoks
orwell
os
osaka
osbert
osborn
oscar
oseania
osetia
osiris
oskar
oslo
osman
ospital
ospitaliou
osroene
ossola
ostaleri
ostaleriou
osteiktied
osterberger
ostia
ostilh
ostilhou
ostiz
ostrogoted
oswald
otek
otero
other
otis
otiz
oto
otoiou
otoman
otomaned
otro
otros
ottavio
otter
otto
ottoman
otus
ou
oublie
oud
oude
oudon
oue
ouel
ouelan
ouelou
ouen
ouenn
ouennan
ouennelouriezh
ouest
ouestlan
ouestlas
ouez
ouezas
ouezelek
ouezer
ouganda
ougrek
oui
ouie
ouient
ouier
ouilly
ouiziegezh
ouizieien
our
oural
ouralek
ouranos
ourdoueg
ourense
ouro
ours
oury
out
outan
oute
outi
outo
outoek
outre
ouvrie
ouz
ouzbekistan
ouzer
ouzh
ouzhpenn
ouzhpennadur
ouzhpennan
ouzhpennet
ouzomp
ov
over
ovidius
oviedo
owain
owen
own
oxford
oxfordshire
oye
oz
ozhac
ozon
p
pa
pab
pablo
pabu
pac
pacha
pachelbel
pachycephala
pacific
paco
pad
padal
padas
padelezh
padet
padout
padova
padre
padrig
padus
paean
paeet
paeron
pagan
page
pages
pagos
pagus
pai
pain
paine
painting
paintings
pair
paix
pajenn
pajennad
pajennou
pakad
pakan
paker
paket
pakistan
pal
pala
palace
palacio
palais
palantines
palatin
palau
palazzo
pale
palencia
paler
palermo
palestina
palestinat
palez
paleziou
paliou
palissy
pallas
pallava
pallenn
pallida
pallidus
palm
palma
palmas
palmer
palmez
paloma
palpatine
palud
paludou
palustris
palv
palvezek
pamela
pampa
pamplona
pan
panama
pancho
panda
pandion
pandora
panell
panellou
panevet
panjab
panjabek
pannonia
panorama
pantekost
panteon
pantera
panther
panthera
panzer
paol
paola
paoli
paolieg
paolo
paosanias
paot
paotan
paotr
paotred
paotrig
paouez
paouezas
paouezet
paour
paourkaezh
papa
pape
paper
paperiou
papers
papes
papier
papoua
papouek
par
para
parade
paradis
paradise
paraguay
parai
paran
parana
parc
pardon
pardonet
pardoniou
pardus
pare
parean
pared
pareds
pareet
parent
parez
parezed
pari
paridae
paris
parish
pariz
parizian
park
parkeier
parker
parkou
parks
parlamant
parlamantel
parle
parler
parma
paroisses
paroissiale
parole
paroles
parque
parra
parrez
parreziou
parry
parsons
part
partei
partement
partementales
parthenay
parti
partia
partido
partie
partienn
partiennou
partij
partikulennou
partit
partizaned
party
parus
parva
pas
pascal
pascale
pasion
pask
paskal
paso
pasquale
passage
passe
passer
passerellidae
passeridae
passeriformes
passion
past
pasta
pastell
pastellou
pasteur
pastor
pat
patagonia
patatez
pater
paterson
path
patria
patrice
patricia
patrick
patrimoine
patrom
patromou
patron
patti
patton
pau
paul
paula
paule
pauline
pauling
paulinus
paulista
paulo
paulus
pausanias
pauvre
pav
pavel
pavia
pavillon
paviou
pax
payne
payot
pays
paysage
paz
pazenn
pazzi
pb
pc
pce
pcf
pd
pdf
pdg
pdk
pe
peace
peadra
peak
pearl
pearse
peau
pebr
pec
pectoralis
ped
pedenn
pedennou
peder
pederneg
pedervet
pedet
pedin
pedra
pedro
peel
peg
pegement
pegen
peget
peggy
pegoulz
pehini
peine
peintres
peinture
peizanted
pelayo
pele
pelec
pelecanus
pelem
pell
pellaat
pellaet
pellan
pellder
pelle
pellen
pellgargan
pellgomz
pelloc
pellorneidae
peloponnesos
pembo
pembroke
pemdez
pemdezieg
pemdeziek
pemoc
pemp
pempad
pempet
pempoull
pempvet
pemvet
pemzek
pemzektez
pen
pena
penaos
penda
pendant
penelope
penfaou
penfro
penguin
peniti
penitiour
penmarc
penn
pennabeg
pennad
pennadig
pennadou
pennadurezhiou
pennaenn
pennaennou
pennahel
pennan
pennant
pennaod
penneg
pennek
pennger
pennhe
penniliz
pennkaoz
pennlec
pennmaodiern
pennoberenn
pennoberennou
pennou
pennrener
pennroue
pennsekretour
pennskridaozer
pennskrivagner
pennsylvania
penny
penoutiek
penrhyn
pense
pentellou
pentevr
pentre
peoc
peogwir
people
peotramant
pep
pepin
pepper
per
perak
perc
perceval
perche
percy
perdu
perdus
pere
peredur
pereg
pereira
peres
perez
perfect
pergen
pericrocotus
perikles
period
perlez
pernambuco
pero
peroked
perokeded
peron
perou
perouat
perpinya
perrault
perret
perrin
perrot
perroz
perry
pers
persat
perse
persefone
perseg
persek
perseu
perseus
persia
persian
person
personal
personel
personelezh
personne
perspectives
pertes
perth
pertinax
peru
perugia
peruviana
peruvianus
perwenan
perzh
perzhier
perzhiou
pes
pesaro
peseurt
pesk
pesked
pesketa
pesketaer
pesketaerezh
pesketaerien
pessoa
pestivien
pet
pete
peter
peterbourg
peters
petersbourg
petersburg
peterson
petit
petite
petites
petits
petore
petra
petrarca
petrograd
petroica
petroicidae
petronia
petronius
petrus
peu
peul
peuliou
peulvan
peulvanou
peuple
peuples
peur
peurbadel
peurechuet
peurgetket
peurhen
peurin
peurliesan
peurrest
peurunvan
peurvat
peurvuian
peurzistrujet
peus
peut
peutinger
peuzhen
pevar
pevarad
pevare
pevarvet
pevarzek
pez
pezh
pezhenn
pezhiou
pfalz
pg
ph
pha
phaethornis
phalacrocorax
phan
phane
phanie
phantasy
phantom
phare
phasianidae
phasianus
phe
phi
phil
philadelphia
philemon
philibert
philip
philipp
philippa
philippe
philippensis
philippine
philips
phillip
phillips
philologie
philosophie
philosophy
phine
phoenicurus
phoenix
photo
photos
php
phu
phylloscopus
phylogenetic
phylogenetics
phylogeny
physics
physique
pi
pia
piacenza
piano
pianoour
pianoourez
pianoourien
piaui
piazza
pib
pibien
pic
picard
picasso
piceno
picidae
pico
picoides
picture
pictures
piculus
picumnus
picus
pie
piece
pied
piemont
piemonte
piemonteg
pier
piercing
pierfrancesco
piero
pierre
pierres
pierrette
pierrick
pierrot
pieta
pieter
pietro
pieve
pig
piganiol
pignas
pignat
pignet
pignon
pigos
pik
pika
pikardeg
pikardi
pikern
pikol
pikou
pikt
pikted
pilar
piler
pilet
pilhou
pilot
pimpatrom
pin
pinacoteca
pinakothek
pindaros
pine
ping
pinijenn
pink
pinkney
pinocchio
pins
pinto
pinvidigezh
pinvidigezhiou
pinvidik
pinvidikaat
pinvidikan
pinyin
pio
piombino
piotr
pipe
piper
pipi
piramidenn
piramidennou
piran
pirate
pirates
pirc
pire
pireneou
piriou
pisa
piso
pistols
pistrius
pitcairn
pitilh
pitta
pitti
pittidae
pittsburgh
piu
pius
piv
piz
pizarro
pizh
pizza
pl
pla
plabenneg
plac
place
places
placidia
placidius
plad
pladenn
pladennaoueg
pladennou
pladennrolladur
plaen
plaenenn
plaenennou
plaeraneg
plage
plages
plaid
plaine
plakenn
plakennou
plan
planck
plane
planedenn
planedennou
planet
plangoed
plankenn
plankennou
plant
plantagene
plantan
plantec
plantennou
plantet
plas
plasenn
plasou
plastic
plastik
plat
plata
plate
plateau
platin
platon
platz
plautius
play
player
playing
plays
playstation
plaza
ple
pleaol
please
plebs
pled
pledin
pleg
plegadeg
plegan
pleget
plegou
pleherel
pleiben
pleiber
plelann
plen
plerin
plessis
pleurdud
pleustr
pleustrad
pleustrek
pleustret
pleustrin
pleuveur
pleuwigner
pleuzal
pleven
plij
plijadur
plije
plijet
plijidi
plijout
plijus
plin
plinius
plistin
plo
ploceus
ploe
ploermael
plom
plomelin
plomer
plon
ploneour
plonevez
plonivel
plotarea
plotdata
plou
plouared
plouarzhel
ploube
ploubezre
ploudon
ploue
ploueg
ploueskad
plouezoc
plougastel
plougastell
plouge
plougerne
plougon
plougonvelen
plougouloum
plougouskant
plougraz
plougrescant
plouha
plouharnel
plouigno
plouilio
ploune
plouneour
plounerin
plounevez
plourin
plourivou
ploutarc
plouvien
plouz
plouzane
plouzeniel
ploveilh
plu
pluenn
plume
plun
plunered
pluniav
pluriel
plus
pluto
pluveleg
pluvio
plymouth
pm
pnb
png
po
poan
poaniou
poanius
poatev
poazh
poazhan
poazhet
pobl
pobla
poblad
pobladou
poblan
poblek
poblel
poblet
pobletan
poblou
poc
poche
pocket
pod
poderezh
podiceps
podiom
podou
poe
poecile
poell
poellad
poelladennou
poelladou
poellek
poellgor
poem
poemas
poems
poent
poentou
poesi
poesie
poet
poetry
poets
poggio
pogoniulus
poher
poi
poicephalus
point
pointe
points
poire
poirier
poisson
poitiers
poitou
pok
pokat
pokou
pol
pole
poli
police
policy
polinezek
polinezia
polis
poliser
poliserien
political
politics
politik
politikel
politiker
politikerez
politikerezh
politikerezhiou
politikerien
politikour
politikourez
politikourezed
politikourien
politique
politiques
polo
pologn
polonat
poloneg
polonek
polonia
poloniat
poloniz
poltred
poltredaoueg
poltredet
poltredou
poltredour
poltriji
pomatorhinus
pomerania
pomme
pommerit
pompei
pompeii
pompeius
pompidou
pomponius
pon
ponce
pondaven
pondi
pondivi
ponner
pons
pont
ponta
ponte
pontekroaz
pontevedra
pontig
pontkalleg
pontkastell
pontoise
pontos
pontou
pontrev
ponts
pontus
pool
poor
pop
pope
populaire
populaires
popular
population
poque
por
porc
porche
porched
pordenone
pornizh
pornizhan
pornografek
porsche
porspoder
port
porta
portal
portant
porte
porter
portes
porth
portland
porto
portrait
portraits
portsmouth
portugal
portugalat
portugaleg
portugalek
portugaliz
portus
porzana
porzh
porzhe
porzhig
porzhiou
pos
poseidon
post
postan
poste
postel
postet
postou
postumus
posubl
posupl
pot
potier
potosi
potsdam
potter
pottier
pouchkin
pouez
pouezan
pouezet
pouezh
pouezhus
poueziou
pouezus
pouezusan
pouezusoc
poulain
pouldouran
poull
poullad
poullaouen
poullou
poultr
poum
pound
pounner
pounneroc
pour
pourc
pourchas
pourchaset
pourmen
pourquoi
pourvezet
pourvezin
pourveziou
poussin
poutin
pouvoir
pouzauges
povo
powell
power
powers
powys
poz
poziou
pozitivel
poznan
pp
ppc
pr
pra
prad
pradesh
prado
pradou
prague
praha
praia
prantad
prantadou
prat
prata
pratikou
pratique
prato
prats
pratt
pre
pred
preden
predeneg
predenek
preder
prederian
prederiet
prederour
prederourien
prederouriezh
predou
prefed
prefeti
preizh
preizhan
preizherien
preizhet
preizhou
premi
premie
premier
premiers
premio
pren
prenan
prenas
prenestr
prenet
prenn
pres
presbital
present
president
presidente
presley
press
presse
pressense
presses
prest
prestet
prestik
preston
preti
pretiou
preto
pretordi
pretty
preußen
prevez
prezeg
prezegenn
prezegenner
prezegennin
prezegennou
prezeger
prezidant
prezidanted
prezidantel
prezidantelezh
prezidantez
pri
priamos
price
prie
pried
priedou
priel
prientet
prientin
priest
prifysgol
prigent
prim
prima
primated
primavera
prime
primera
primeve
primo
prin
prince
princeps
princes
princess
princesse
princeton
principal
principe
principes
prinia
printemps
prinzessin
priol
prioldi
priscus
prison
private
priveziou
prix
priz
prize
prizieg
priziet
priziou
prizius
prizon
prizoniad
prizonidi
prizoniet
pro
problems
proce
proceedings
procellariidae
produ
produadur
production
productions
produer
produerezh
produerien
produet
produin
produiou
produour
produourien
prof
profan
profed
profeded
profet
profile
profitan
profou
program
programm
programme
programmin
programmou
progre
project
prokris
prokulor
promesa
prometet
prometheus
prometin
pronost
propaganda
propos
proprie
prose
prosez
proseziou
prosper
prospero
prost
protagonista
protein
protestant
protestanted
proto
protocol
protokol
proudhon
prouenn
prouennou
prouet
prouin
proux
provan
provenc
provence
proverbes
providence
provin
province
provincia
pru
prud
prunella
prunus
prusia
prusian
prydain
prydein
ps
pseudo
pseudozonaria
psikedelek
psikologel
psilopogon
psittacidae
psittacula
psittaculidae
psittacus
psoe
psyche
pt
pternistis
pterocles
pterodroma
ptilinopus
ptol
ptolemaios
pu
pub
public
publications
publie
publik
publique
published
publishers
publishing
publius
puccini
pue
puebla
pueblo
puente
puerto
puf
puffinus
puglia
puig
puigdemont
puilh
puis
pulcher
puma
pun
punek
punk
punta
pur
pure
purmerend
purple
pusilla
pusillus
pussy
put
pute
putnam
putsch
puy
pvda
pwyll
px
pycnonotidae
pycnonotus
pygmaeus
pygmalion
pyre
pyrrhura
pythagoras
python
q
qa
qi
qian
qin
qing
qu
qua
quae
quai
quam
quand
quando
quartet
quatre
que
queen
queens
queensland
queffe
quel
quelques
quentin
quercus
quere
ques
quesnoy
quest
question
questions
quez
qui
quie
quimper
quimperle
quin
quinta
quintana
quintin
quinto
quintus
quo
r
ra
rabat
rabbi
rabbit
rabelais
rabin
rabined
rables
rabod
rabodou
rac
racconti
race
rachel
racine
racing
rackham
radar
rade
raden
radikal
radio
radioiou
radiom
rae
raed
raent
raer
raetia
raez
raf
rafael
rafales
rafe
raffael
raffaello
rafinesque
rag
raganv
raganviou
rage
ragistor
ragistorel
ragusa
rahman
rai
raid
railroad
rain
rainbow
rainer
raint
raio
raire
raires
raison
raje
rak
rakger
rakgeriou
rakig
raklavar
rakskrid
raktal
raktres
raktreset
raktresou
rakwelet
ral
rale
raleigh
ralf
ralli
rallidae
rallus
raloc
ralph
ram
rama
rambo
rami
ramiro
ramo
ramon
ramos
ramouek
ramphastos
rampo
ramsay
ramses
ramz
ramzed
ramzel
ran
rance
rande
randolph
random
raned
range
rank
rankas
ranke
ranked
ranker
ranket
rankfe
rankje
ranko
rankont
rankout
rann
rannadur
rannan
rannarme
rannas
rannbarzh
rannbennad
ranndi
rannet
rannfrazenn
rannfrazennou
rannidigezh
rannig
rannigou
rannlu
rannou
rannved
rannvedou
rannvro
rannvroel
rannvroelour
rannvroiou
rannyezh
rannyezhel
rannyezhou
ranuccio
raok
raoul
rap
rape
raphae
raphael
raquel
rard
ras
rasmussen
rastell
rastellan
rastellet
rat
rata
ration
rations
ratozh
rature
rau
rault
raven
ravenna
ray
raymond
rayon
raz
razh
razhed
rb
rbara
rbenn
rc
rca
rchen
rclochers
rd
rdk
rdoba
re
rea
read
reader
readers
reading
ready
real
reality
reas
rebecca
rebech
rebechet
rebechou
rebel
rebellion
rec
recherche
recherches
recife
reconquista
reconstruction
record
recordings
records
rect
recteurs
recueil
red
redadeg
redadegou
redas
rede
redek
reder
rederien
redet
redi
redian
redias
rediet
redo
redol
redon
reed
reer
rees
reeve
ref
reference
referendom
referendum
reflections
regard
regensburg
reggae
reggio
regia
regiment
regina
reginald
regini
regio
region
regional
regions
register
regno
regulus
regum
rei
reich
reichenbach
reichstag
reier
reilly
reims
rein
reina
reinbek
reine
reinhard
reinhardt
reinhold
reino
reis
reischauer
reishoc
reizh
reizhad
reizhan
reizhded
reizhel
reizhet
reizhiad
reizhiadou
reizhkredennek
reizhkredour
reizhskrivadur
reizhskrivan
rejan
rejant
rejantez
rejimant
rejimantou
rejont
rejumant
rekipe
rekipeou
rekis
rekord
rel
relations
relativel
relativelezh
release
releg
relegou
religion
religions
religious
relijiel
relijion
relijionou
rembrandt
remember
remengol
remi
remix
remiz
remont
remus
remziad
remziadou
ren
renabl
renablet
renablin
renad
renadenn
renadou
renadur
renaissance
renan
renard
renas
renata
renato
renaud
renault
rence
rencontre
rendael
rendez
rene
rener
renerez
renerezh
renerien
renet
renk
renkad
renkadou
renkadur
renkaduriou
renkan
renkennad
renket
renkou
rennes
rennet
reno
renoir
rent
rentan
rentet
reol
reolad
reoladou
reolenn
reolennou
reolian
reoliek
reoliet
reomp
reont
reou
reoz
report
repre
reprint
repu
repuad
repubblica
republic
republican
republik
republikan
republikaned
republikou
repuet
repuidi
repuin
requiem
rer
res
research
reserve
resev
resevas
resever
resevet
resis
resisaat
resisaet
resisoc
resnais
resped
respet
respont
respontas
respontet
rest
resta
restr
restrou
ret
reter
reteran
retorik
retour
retred
retrejou
retrieved
return
returns
retz
reu
reuben
reudied
reun
reunig
reuniged
reunion
reut
reuz
reuß
rev
revel
revelezh
revenge
reveulzi
reveulzier
review
revised
revista
revival
revolusion
revolution
revolver
revoy
revr
revue
rewiz
rex
rey
reyes
reykjavi
reynaud
reynolds
rez
rezh
rezin
rezistan
rezistant
rezistanted
rf
rg
rgb
rgen
rgustentin
rh
rhaeadr
rhea
rheged
rhein
rheinland
rhiannon
rhin
rhinolophus
rhinomyias
rhipidura
rhisiart
rho
rhode
rhodes
rhodri
rhondda
rhos
rhuddlan
rhun
rhydderch
rhys
rhythm
ri
ria
riadenn
riadennig
riadennou
riadur
riaduriou
rialeg
rian
rianteg
riario
rias
riata
ribeira
ribeiro
ribera
ribl
riblenn
riblennou
riblou
riboul
ric
rica
ricains
ricardo
riccardo
ricci
rice
rich
richard
richards
richardson
richarzh
riche
richelieu
richenn
richer
richie
richmond
richter
rick
rico
ricourt
rida
riddick
ride
ridge
ridgway
ridgwayi
riding
rie
riefenstahl
rieg
riegezh
rien
ries
riet
rieti
rietveld
rieur
rieure
rieux
riez
riezad
riezou
rif
rig
riga
right
rights
rigord
rijenn
rijennet
rijennou
rijksmuseum
rijn
rik
rikou
riksma
ril
rilke
rim
rimadell
rimadellou
rime
rimini
rin
rinaldo
ring
ringen
ringo
rings
rio
riodique
rioja
rione
rios
riot
riou
riparia
rique
ris
rise
rising
riskl
risklou
rit
rita
ritage
ritchie
rite
rito
ritratto
ritter
rivas
rive
river
rivera
rives
rivet
rivie
rivinet
rivinou
riwal
rix
riz
rizh
rizzoli
rj
rk
rn
rna
rnberg
ro
road
roadennou
roald
roas
roazhon
rob
robb
robe
robert
roberta
roberto
roberts
robertson
robespierre
robin
robinson
robot
robotou
roc
roca
rocca
rocco
roch
rocha
roche
roched
rochedou
rochefort
rochelle
rocher
roches
rochester
roci
rock
rockwell
rod
roda
rode
rodez
rodin
rodolf
rodolfo
rodolphe
rodos
rodou
rodri
rodrigo
rodrigues
rodriguez
roe
roen
roer
roet
rofe
roger
rogers
rogier
rohan
rohe
rohmer
roi
roio
rois
roit
rojas
roje
rok
rol
roland
role
rolf
roll
rolland
roller
rolling
rollou
rom
roma
romagna
romain
romaine
romains
roman
romana
romance
romancero
romaned
romanek
romanekaat
romanekadur
romanekaet
romani
romania
romanikaet
romano
romans
romant
romantel
romantelezh
romantou
romantour
romantourez
romanus
rome
romed
romeo
romero
rommel
romulus
ron
ronald
ronan
rond
ronde
rondel
rondo
ronique
ront
roo
room
roosevelt
roots
roparz
roparzh
roperzh
roque
rory
ros
rosa
rosali
rosalie
rosario
rosay
rose
rosemary
rosenberg
roses
rosie
rosina
rosko
rospez
rosporden
ross
rossa
rossetti
rossi
rossignol
rossignolfichenn
rosso
rostaing
rostren
rostrenenn
rot
rota
rote
rothschild
rotten
rotterdam
rou
rouan
rouaned
rouanez
rouanezed
rouantelezh
rouantelezhiou
roubaix
roubl
roud
roudad
roudaut
roudenn
roudennek
roudennou
roudou
roudour
roue
roued
rouedad
rouedadou
roueed
roueel
roueelour
roueelourien
rouen
rouergue
rouestl
rouez
rouge
rouges
rough
rouman
roumaned
roumaneg
roumania
round
rous
rousilhon
rousseau
roussillon
rout
route
routledge
rouvroy
roux
rouz
rouzegan
rouzig
rovere
row
rowling
rowohlt
roxana
roy
royal
royale
royaume
roz
rozeg
rozenn
rozera
rpg
rquez
rr
rrez
rs
rsks
rss
rst
rstin
rt
rterbuch
rttemberg
ru
rube
rubens
rubin
rudolf
rudolph
rudy
rue
rufa
rufescens
ruficeps
ruficollis
rufinus
rufiventris
rufus
rugbi
rugbier
rugbierien
rugby
ruggero
ruhr
ruilh
ruines
ruiz
rujumant
rule
rulers
rumba
rumm
rummad
rummadou
rummata
rummatadur
rummataet
rummenn
rummet
run
runan
running
runou
rupert
rupicola
rus
rusalem
rusat
rused
ruseg
rusek
rush
rusia
rusian
rusianed
rusianeg
rusianek
rusier
rusk
russe
russell
russia
russian
rust
ruth
rutherford
rutland
ruy
ruz
ruzarthur
ruzenn
ruzennou
ruzieg
rwanda
ry
ryan
ryo
ryu
s
sa
saalfeld
saar
saarland
saba
sabbath
sabel
sabina
sabine
sabinus
sable
sables
sabrenn
sabrina
sac
sach
sacha
sachan
sachas
sacher
sachet
sachsen
sacra
sacramento
sacre
sacred
sad
saddam
sade
saded
sadorn
sae
saena
saeou
saezh
saezhou
saga
sagaou
sage
saguinus
sahara
saharek
sahel
sai
said
saigon
sailly
sailor
sain
saint
sainte
saintes
saints
saipan
sais
sakr
sakramant
sakret
saks
saksofon
sakson
saksoned
sal
sala
saladin
salado
salamanca
salamis
salau
salaun
salazar
sale
salem
salerno
sales
salian
saline
saliou
sall
salle
sally
salm
salmou
salome
salomon
salon
salsa
salt
salta
salto
salud
saludin
salut
salvador
salvadori
salvaje
salvatore
salver
salviati
salvin
salvini
salzburg
sam
samba
sambre
same
samieg
samiek
samm
sammad
samman
sammet
samoa
samos
samourai
samouraied
samson
samuel
samurai
samzun
san
sana
sancha
sancho
sancta
sancti
sanctus
sand
sanders
sandhi
sandoval
sandra
sandro
sandwich
sandy
sang
sankan
sankenn
sanket
sankt
sans
sanskriteg
sant
santa
santadou
santana
santander
santare
sante
santeg
santel
santelezh
santet
santez
santi
santiago
santimant
santo
santos
santout
santual
sanzio
sao
saonenn
saoron
saotradur
saotret
saoudan
saoudat
saout
saoz
saozneg
saoznegerien
saoznek
saoznekaet
saozon
sapiens
sappho
sar
sara
sarah
sarajevo
sardeg
sardegna
sardigna
sardinia
sargent
sargon
sark
sarkozy
sarmon
sarre
sars
sarthe
sarto
sartre
sarzhav
sas
saskatchewan
saskell
satan
satanazet
satanig
saturday
saturninus
sau
sauber
saul
saumur
saunders
sauron
sauvage
sauve
sauveur
sav
savadur
savaduriou
savage
savanennou
savannah
savas
savboent
save
savenn
savenneg
savennegcassini
savennou
saver
saverez
saverezh
saverien
savet
savetaet
savete
saveteet
savetein
saviad
savidigezh
savjont
savlec
savo
savoia
savoie
savona
savonarola
savont
savour
savourien
savouriezh
saw
saxe
saxicola
saxon
say
sb
sc
scacchi
scala
scalemajor
scaleminor
scar
sce
scene
schaumburg
schilder
schiller
schlegel
schleswig
schloss
schmidt
schneider
scho
scholastic
scholl
school
schott
schro
schu
schubert
schumacher
schumann
schwaben
schwarzburg
schwerin
science
sciences
scientific
scipio
sciurus
sclater
sclateri
sco
scolopacidae
scotia
scotland
scots
scott
scottish
scream
scuderia
sculpture
scytalopus
sd
se
sea
sean
search
season
seattle
sebastia
sebastian
sebastiano
sebastien
sebeliet
seblant
seblante
seblantout
sec
sechelez
sechlainn
second
seconde
secondo
secre
secret
secrets
section
secunda
security
sed
sedan
sede
see
seed
seeger
seg
sega
segal
segobrani
segovia
segre
segundo
segura
sei
seier
seigneur
sein
seine
seinen
seisyllwg
seite
seitek
seiz
seizh
seizhvet
sek
sekred
sekredou
sekretour
sekretourez
sektenn
sel
selaou
selaouerien
selaouet
selected
selene
selezh
selezhiou
self
selim
sell
selle
seller
sellerien
sellet
sellit
sellou
sellout
selma
selon
sem
semaine
semantikel
semitek
semper
sen
senador
senarier
senario
senarioour
sence
seneca
sened
senedou
senedour
senedourien
senegal
senegalensis
senhora
senin
senlis
senna
senoufoek
sens
sense
sent
sentation
sente
sentezed
sentin
seoul
sepikek
sept
september
septembre
septimius
sepultura
ser
sera
serb
serbed
serbeg
serbek
serbia
serc
serena
serent
serez
serezh
serge
sergei
sergey
sergio
sergius
serie
serien
series
serj
serjant
serk
sermaize
serpent
serr
serra
serrat
serre
serret
serrin
sert
serta
servan
servat
served
servez
service
services
servij
servijas
servije
servijer
servijet
servijou
servijout
servius
serzh
ses
sessions
sesto
set
seth
setophaga
setu
seuil
seul
seulles
seurezed
seurt
seurtou
sevastopol
sevel
seven
sevenadur
sevenadurel
sevenadurezh
sevenadurezhiou
sevenaduriou
sevenas
sevener
sevenerien
sevenet
sevenidigezh
sevenin
sever
severn
severus
sevigneg
sevilla
sevr
sex
sextius
sextus
sexual
sexy
sez
seza
sezed
seziz
sezizet
sezon
sf
sferek
sferenn
sfio
sfondo
sforza
sgitheanach
sgt
sh
sha
shadow
shadows
shah
shakespeare
shall
shan
shandong
shane
shanghai
shannon
sharon
sharp
sharpe
sharpei
shaw
she
sheep
sheeran
shell
shelley
shepherd
sherlock
sherman
shetland
shi
shield
shift
shin
shinto
ship
shirley
shiva
shmouel
sho
shoah
shogun
shooter
shore
short
shot
should
show
shropshire
shtandart
shu
si
sia
siam
siastique
siastiques
siberia
sibilla
sibiria
sibylla
sibylle
sic
sica
sich
sichenn
sichuan
sicilia
sid
sida
sidan
side
sident
sidney
sidonia
sie
sieben
siege
siegfried
siell
siempre
siena
sienkiewicz
sienne
sierra
sies
sifr
sifrou
sigismond
sigismondo
sigismund
siglo
sigma
sigmaringen
sigmund
sign
signe
signification
sigurd
sikilia
sikilianeg
sikour
sikouras
sikouret
sikstus
sil
silabenn
silabenneg
silabennegou
silabennek
silabennou
silan
silanus
silence
silent
silet
silezia
silius
silla
sillan
silmarillion
silurian
silva
silvanus
silver
silvestre
silvia
silvio
silzig
sima
simant
simbase
simbol
simbolou
sime
simeon
simfonienn
siminal
simmons
simo
simon
simone
simonetta
simpl
simple
simplex
simpson
simpsons
sin
sina
sinaat
sinadeg
sinadur
sinaeg
sinaek
sinagogenn
sinai
sinaiz
sinaloa
sinalun
sinan
sinas
sinat
sinatra
since
sindarin
sindikad
sindikadou
sine
sinek
sinema
sinensis
sinet
sing
singapour
singer
singh
single
singles
sings
sinifi
sinn
sinou
sint
sio
sion
siorrachd
siou
sioul
sioulaat
sir
siracusa
sirakuza
sire
siria
sirian
sirieg
siriek
sirius
sirk
sirmium
sis
sisjordania
sistance
sistem
sistemou
sister
sisters
sistr
sit
site
sith
sitron
sitta
sivi
sivil
siviled
siwazh
six
sizhun
sizhunieg
sizhuniek
sizhunvezh
sizhunvezhiou
sizien
sizun
sj
sk
ska
skaer
skalfad
skalier
skalierou
skan
skandinavek
skandinavia
skania
skarzh
skarzhan
skarzhet
skav
sked
skedus
skein
skej
skeledenn
sketla
skeud
skeudenn
skeudennadur
skeudennaoueg
skeudennaouer
skeudennaouet
skeudennaouin
skeudennet
skeudennin
skeudennou
skeul
skeuliad
skevent
ski
skiant
skiantel
skiantou
skiantour
skiantourien
skign
skignan
skignet
skilfou
skilgog
skiltr
skin
skingomz
skingomzou
skinhead
skinheaded
skinizotopou
skinoberiegezh
skinoberiek
skinou
skinwel
skipailh
skipailhou
skiriadur
sklaer
sklaeroc
sklav
sklaved
sklavelezh
sklaverezh
sklavez
skle
sklerijenn
skluz
sko
skoas
skoaz
skoazell
skoazellan
skoazellas
skoazeller
skoazellerien
skoazellet
skoed
skoedou
skoet
skoilh
skol
skolaer
skolaerez
skolaerien
skolaj
skolajidi
skolajou
skoliad
skoliata
skoliataet
skolidi
skoliet
skolig
skoliou
skolmarsel
skolvan
skolveuriad
skolveuridi
skolveurieg
skor
skoret
skorf
skorn
skorneg
skornet
skorou
skos
skosad
skosat
skosiz
skoteg
skouarn
skouarnek
skoubleg
skouer
skouerenn
skouerennou
skoueriekaet
skoueriou
skoul
skoulm
skoulman
skoulmet
skourjez
skourr
skourrou
skouted
skr
skramm
skrammou
skrapadeg
skrapadenn
skrapan
skrapet
skrav
skravig
skrid
skridaozer
skridou
skridvarnerezh
skrigneg
skrijus
skriteg
skritek
skritell
skritellou
skritur
skrituriou
skriv
skrivadur
skrivagner
skrivagnerez
skrivagnerezed
skrivagnerien
skrivagnerion
skrivagnour
skrivan
skrivas
skrive
skriver
skriverien
skrivet
skuer
skuilhan
skuizh
skull
sky
sla
slalom
slatkine
slav
slave
slaved
slavek
slayer
sleep
sleeping
slide
slovak
slovakeg
slovakia
sloveneg
slovenek
slovenia
sm
small
smaug
smile
smiley
smith
snake
sncf
snorri
snow
so
soavon
soaz
soazig
sobre
social
sociale
sociales
socialism
socialista
socialiste
socie
society
sofi
sofia
sofokles
sofonisba
soft
software
sohier
soir
soissons
sokial
sokialour
sokialourien
sokialouriezh
sokiologiezh
sokiologour
sokrates
sol
sola
solar
solaris
soldat
soldats
soldier
soldiers
sole
soledad
soleil
solenn
solennou
solitaire
solitarius
solo
sologne
solomon
solut
som
somalia
some
somerset
something
somme
sommes
son
sonadeg
sonadegou
sonadenn
sonaozan
sonaozer
sonaozerez
sonaozet
sonaozour
sonaozourez
sonaozourien
sonas
sonchus
sonderburg
sone
sonedenn
sonenn
sonennou
soner
sonerez
sonerezh
sonerezhel
sonerezhiou
sonerien
sonerion
sonet
song
songs
soniad
sonic
soniou
sonn
sono
sonora
sons
sont
sontadeg
sontenn
sony
sophia
sophie
sopra
soprano
sor
sorabeg
sorbonne
sorcie
sord
sordida
sorel
sorex
soria
sorser
sorserez
sorserezed
sorserezh
sorserien
sort
sos
sot
soter
soto
sou
soubenn
soudan
soudanek
soudard
soudarded
soudardel
soudardezed
souezh
souezhet
souezhus
soul
soulgarget
sound
sounds
soundtrack
sour
source
sources
sourd
souriezh
sourmek
sourouc
sous
sousa
souten
south
southampton
southern
souvenir
souvenirs
sovie
soviedat
soviedel
soviediz
soviet
sovietek
sowerby
soy
sp
spa
space
spaghetti
spagn
spagnat
spagnol
spagnoled
spagnoleg
spagnolek
spain
spanish
sparfell
sparta
spas
spatula
spd
spe
speak
special
specials
species
spectacle
speed
speer
speg
speied
spencer
sper
spered
speredek
speredel
speredelezh
speredou
spermophilus
spern
spes
spesad
spesadou
speurenn
spi
spian
spider
spiegel
spielberg
spier
spierez
spierezh
spierien
spike
spin
spinning
spinola
spirit
spirituel
spirou
spis
spisaat
spisoc
spisou
spitfire
spizocorys
splann
splet
split
spluj
splujan
spoleto
spont
spontan
sponter
sponterezh
sponterien
spontet
spontus
sporophila
sport
sportel
sportou
sportour
sportourez
sportourien
sports
sportva
sprache
spring
springfield
springs
spy
squadron
square
sr
sri
ss
ssel
sseldorf
st
sta
staatliche
stabil
stabilaat
stabilan
stabilded
stad
stade
stadegou
stadel
stadium
stadou
stadt
stadunanat
stadunaniz
stael
staen
staffordshire
stag
stagadenn
stagan
stagas
stage
stagell
stagellou
staget
stagidigezh
staj
stajou
stal
staley
staliadur
stalian
stalias
staliet
stalin
stalingrad
staliou
stan
stand
standard
standards
stanford
stanislas
stank
stankan
stankell
stanket
stankoc
stankter
stanley
staon
star
stark
starr
stars
starship
start
startijenn
state
states
station
statistics
statistique
stato
statud
statue
status
stay
ste
steam
steel
steele
steen
stefan
stefano
steffan
stein
steinbeck
stejneger
stejnegeri
stekin
stella
sten
stendhal
step
stepennou
stephan
stephanie
stephen
stephens
ster
stered
steredeg
steredegou
steredenn
steredennou
steredoniezh
steredoniour
steredoniourien
steredonourien
sterenn
stergo
steriou
sterling
stern
sterna
sterreich
steud
steudad
steudadou
steudadur
steun
steuziet
stevan
steve
steven
stevens
stevenson
stevie
stewart
stica
stico
stieler
stign
stil
still
stills
stilo
stilou
stirad
stiradou
stiria
stirling
stirner
stivell
stlapet
stlejerez
stlejvil
stlejviled
stlenn
stlenneg
stlennegel
stlennou
sto
stock
stockholm
stok
stokadenn
stoker
stollad
stomog
stone
stones
stop
store
stori
storia
storie
stories
storm
story
stouadur
stouet
stourm
stourmas
stourme
stourmer
stourmerez
stourmerien
stourmet
stourmou
strabon
strad
straed
straedou
strakal
strange
stranger
straparola
strasbourg
strat
strategel
strategiezh
strathclyde
strauss
straßburg
street
strelitz
strelleg
strepera
streptopelia
strewet
striata
strigidae
strike
strilherezh
string
strink
strip
strishoc
striv
strivan
strivou
strix
strizh
strobad
stroll
strollad
strolladig
strolladou
strollan
strollegezh
strollegezhiou
strollet
strollou
stron
strong
strouezheg
strozzi
structure
strujus
strujusted
struktur
struzh
stu
stuart
stuck
studi
studiadenn
studiadennou
studial
studian
studias
studier
studierez
studierien
studierion
studies
studiet
studio
studioiou
studios
studiou
study
stumm
stummadur
stumman
stummet
stummou
stur
sturian
sturienn
sturier
sturiet
sturluson
sturnidae
sturyezhouriezh
stuttgart
stwertka
style
su
sua
suaat
suafrika
suafrikan
suamerika
suan
sub
submarine
such
sucre
sud
sue
suen
suetonius
sueved
suez
suffolk
sugar
sui
suis
suised
suisse
suit
suite
suj
sujan
sujed
sujedou
sujet
sujidi
sujidigezh
sukembre
sukorea
sukorean
sukr
sul
sula
sulawesi
suled
suleg
sulfurek
sulla
sullivan
sully
sulpice
sulpicius
sultan
sultaned
sultanelezh
sulvezh
sulzbach
sumatera
sumatra
sumer
summer
sun
sunda
sunday
sundevall
suner
sung
sunnit
sunset
sunt
suo
supe
super
superbruja
superciliaris
superior
superman
supremes
sur
surcouf
surentez
suresnes
surf
surinam
surjian
surjianerezh
surnoms
surprise
surrey
survey
survival
surzhur
sus
susa
susan
susana
susanna
susanne
sushi
susiniou
sussex
sutherland
sutil
sutirol
sutton
suzana
suzanna
suzanne
suzuki
suzy
sv
svalbard
svedat
svedeg
svedek
sveden
sven
svg
swabia
swainson
swainsonii
swan
sweden
sweet
sweyn
swift
swing
sword
swyddfa
sy
sydney
sylla
sylvain
sylvester
sylvia
sylvie
sylviidae
sylvilagus
symphonie
symphony
synallaxis
syracuse
syria
syste
system
systems
sze
sœurs
t
ta
table
tableau
tablez
tablezennou
taboulin
tabouliner
taboulinou
tabula
tabut
tabutou
tachad
tachenn
tachennad
tachennou
tachybaptus
tacitus
tad
tadjikistan
tadorna
tadou
taer
taf
tag
tagadenn
tagadennou
tagan
tage
tager
taget
tahiti
tai
taieg
taiek
taifa
taiga
taigneraie
tail
tailand
tailh
tailhou
tain
taira
tais
tait
taiwan
takad
takadou
take
taksonomiezh
tal
talabarder
talan
talbenn
talbennou
talbot
talc
taldir
tale
tales
taliesin
talk
tall
tallandier
talm
talmont
talmud
talv
talvez
talveze
talvezet
talvezout
talvoud
talvoudegezh
talvoudegezhiou
talvoudou
talvoudus
tam
tamall
tamallet
tamallou
tamaulipas
tamil
tamileg
tamm
tammig
tammou
tampes
tan
tanac
tanav
tang
tanganyika
tangara
tangi
tango
tanguy
tangwall
taniou
tank
tankou
tant
tantad
tantalom
tanzania
tao
taol
taolenn
taolennadur
taolennet
taolennin
taolennou
taolet
taoliou
taos
taosou
taouarc
tap
tapas
tape
tapet
tapout
tara
taranto
tard
tarempredas
tarn
taro
tarragona
tars
tartaros
tartu
tarv
tarvieg
tarzan
tarzh
tarzhadenn
tarzhadennou
tarzhan
tarzhas
tarzhet
tas
taschen
taschenbuch
tasman
tasmania
tasmant
tastumas
tat
tatareg
tate
tats
tau
tauraco
taurus
tav
tavarn
tavarniou
tavernier
tavoez
taxdetails
taxis
taylor
tazgwered
tb
tbol
tc
tchad
tchadek
tchek
tchekeg
tchekek
tchekia
tchekoslovakia
tchiangek
tchinantekeg
tchinek
tcp
tdn
te
tea
team
tears
teatr
teatro
teau
teaumur
teauneuf
teauroux
teaux
teba
tebai
teborg
tebrin
tec
tech
techet
technical
technology
tecla
ted
tegas
tegasas
tegemer
tegemeras
tegoneg
tegouezh
tegouezhas
tegouezhout
teifi
teil
teir
teiresias
teirgwern
tek
tekla
teknik
teknikel
teknikou
tekno
teknologel
teknologiezh
teknologiezhiou
teksas
tel
tele
telefilm
telemac
telenn
telenovela
telet
television
tell
tellier
tellou
telo
tem
tema
temminck
temminckii
temou
tempera
temperadur
templ
temple
templou
tempo
temps
tempus
temz
ten
tenda
tener
tenerife
tenn
tennad
tennadou
tennan
tennas
tenne
tenner
tennessee
tennet
tennis
tenniserez
tennou
tennyson
tenochtitlan
tenor
tenorio
tenuirostris
teo
teod
teodor
teodora
teodorig
teodosius
teorem
teorienn
teoriennou
teorikel
tepot
ter
terc
terence
terentius
teresa
tereza
terme
termen
termenadur
termenaduriou
termenet
termenin
termenou
terminator
termofis
terpsiphone
terra
terre
terres
terrin
territoire
territoriales
territory
terror
terry
teruel
terzhienn
tes
teschen
teskad
teskadou
teskanv
teskas
teskin
tesla
test
testa
testamant
testament
testeni
testeniekaet
testeniet
testeniou
testenn
testennou
testou
tethys
tetrao
tetris
teu
teuas
teue
teufe
teuio
teuje
teujont
teul
teulfilm
teulfilmou
teuliad
teuliadou
teuliou
teuont
teurel
teurgn
teutonek
teuz
teuzet
teuzverk
tev
teve
texas
text
textdata
texte
textes
texts
tezenn
tezennou
tf
th
tha
thai
thailand
thalassarche
thames
thamnophilidae
thamnophilus
than
that
thatcher
the
theater
theatre
thebai
their
them
then
theo
theodor
theodora
theodore
theodosius
theogonia
theory
there
theresa
therese
theresia
theropoda
these
theseu
thessalia
thetis
they
thie
thierry
thiers
thing
things
think
thionville
third
this
tho
thode
thomas
thompson
thomson
thor
thorel
thorn
those
thouars
thought
thousand
thoutmose
thr
thraupidae
three
threskiornis
threskiornithidae
through
thu
thule
thumb
thumbnail
thunder
thune
thurn
thyestes
ti
tia
tian
tiazezas
tibab
tibabas
tiber
tiberius
tibet
tibetan
tibetat
tibeteg
tibetek
tibetiz
tica
ticino
tico
tie
tiegezh
tiegezhiou
tien
tienne
tiepolo
tier
tiern
tierned
tiernelezh
tierniezh
tierniezhiou
tierra
tiers
tiersen
tiez
tif
tifenn
tiforc
tifuz
tiger
tigoras
tigr
tigre
tigreskas
tigris
tikal
til
tilestras
tilezas
till
tillon
tilly
tilojas
tim
timaliidae
timbr
timbre
timbrou
time
timeaxis
times
timezas
timor
timothy
tin
tina
tinamidae
tinamou
tintin
tintoretto
tio
tiorren
tiorroas
tip
tique
tir
tirant
tire
tired
tireoul
tiriad
tiriadel
tiriadou
tirlu
tirol
tis
tisaverezh
tisavour
tiskenn
tiskle
tiskouez
tiskouezas
tiskoueze
tispleg
tisplegan
tisplegas
tistrein
tistro
tistroas
tit
titan
titanic
titeuf
titl
title
titlet
titlou
tito
titour
titourin
titourou
titrin
titus
tiviz
tivizas
tivroas
tiwanas
tizh
tizhas
tizhet
tizhout
tizian
tiziano
tizoloas
tl
tland
tle
tlee
tleer
tlefe
tm
tnam
to
toaz
toazennou
tobago
tocantins
tockus
tocsin
today
todd
todo
todos
todt
toenn
toennou
toet
tog
together
togo
togou
toi
toile
toiles
toine
tok
tokarn
tokh
tokugawa
tokyo
tolead
toleadou
toledo
tolkien
tolomei
tolosa
toloza
tolpad
tolstoy
tolz
tom
toma
tomas
tomatez
tomatoes
tomaz
tombe
tombeau
tome
tomm
tomman
tommaso
tommder
tommet
tommoc
tommy
tomo
tomorrow
ton
tone
tonenn
tonennou
tonga
toni
tonight
toniou
tonkad
tonkadur
tonkedeg
tonket
tonkin
tonks
tonnerre
tont
tony
too
took
top
topographie
toponymie
tor
torah
torfed
torfedou
torfedour
torfedourien
torgenn
torgennou
torino
toriom
tornaod
tornaodou
toro
toronto
torosad
torosennadur
torquatus
torr
torre
torres
torret
tort
tortue
tortuga
toscana
toserezh
toskana
tost
tosta
tostaat
tostaet
tostan
tostik
tostoc
tot
total
totenkopf
tou
touch
touche
touchennaoueg
touchet
toud
touellet
touer
touesk
touet
touez
touezh
tougen
touin
toujours
toul
toull
toullad
toulladig
toullan
toullbac
toullet
toullgofer
toullgorferezh
toullou
toulon
toulouse
toumperezh
toungousek
tour
tourako
tourc
tourcoing
touren
touriou
tourisme
touristan
touristed
touristel
touristelezh
touristerezh
tournai
tournamant
tournamantou
tourne
tours
tourville
tous
touseg
toussaint
tout
toute
toutes
touva
tov
tower
towers
town
township
toxostoma
toy
toyota
tr
tra
traces
trachyphonus
tracy
trade
tradition
traditional
traditions
traduction
traduit
traezh
traezheg
traezhenn
traezhennou
traezou
trafalgar
trafikerezh
trage
tragedy
tragopan
traianus
trail
train
traite
trajan
trajedienn
trajediennou
trakia
tramor
tran
tranche
trange
trans
transat
transistor
translated
translation
transportou
transvaal
tranzitivel
traon
traonienn
traou
trap
trasta
travail
travaux
travel
travers
trawalc
tre
treant
treasure
trebeurden
trec
tredan
tredanharzusted
tredanleiegezh
trede
tredeog
tredraezh
tree
trees
tregastell
treger
tregon
tregont
treid
trein
treitour
treizh
treizher
trek
trelosk
treloskou
trema
tremen
tremenas
tremene
tremened
tremenerezh
tremenet
tremeniad
tremeven
tren
treniou
trenk
trenkenn
trenkennou
trent
trente
trentino
trento
trenton
treou
treoure
trepas
treron
tres
tresadenn
tresadennou
tresan
tresas
treser
treserien
treset
tresou
tresour
tresse
treut
treuz
treuzas
treuzdougen
treuzet
treuzfurmadur
treuzfurmet
treuzin
treuzjordania
treuzkas
treuzkaset
treuzkiz
treuzlizherennadur
treuzlizherennet
treuzsilvania
treuzskrivadur
treuzskrivan
treuzskrivet
trev
trevadenn
trevadennel
trevadenner
trevadennerezh
trevadennerien
trevadennet
trevadennin
trevadennou
trevell
treves
treveur
trevigny
treviso
trevor
trevour
trevourien
tri
triad
triadou
triaseg
tribune
tribute
tric
tricholaema
tricolor
trier
trieste
triliv
trilogy
trimiziad
tringa
trinidad
trinite
trinity
trio
trioedd
triomphe
triple
tripoli
triskell
trist
tristan
triton
trivet
trivia
trivliadou
triwec
trizek
trizekvet
tro
troad
troadeg
troadegiezh
troadegiezhfichenn
troadou
troas
troatad
troazh
trobarzhellou
troc
trochalopteron
trochilidae
trochilus
troellennek
troer
troerien
troet
trofe
troglodytes
trogon
troia
troiad
troiadou
troid
troidigezh
troidigezhiou
troiennou
troiou
trois
troisie
troll
trompilh
tron
troopers
troour
troourez
troourien
trop
trotski
trotsky
trouble
troude
trouville
trouz
trouziou
trouzus
trova
trovanel
trovanou
trovezh
trowardroiou
troy
troyes
truaj
trubarderezh
trubardet
trubuilhet
trubuilhou
true
truez
truffaut
trugarez
trujillo
truman
trumm
trump
trust
truth
try
ts
tsar
tsunami
tt
ttel
ttingen
ttir
tu
tuadur
tual
tuchenn
tucker
tucuma
tud
tude
tudenn
tudennou
tudes
tudful
tudi
tudie
tudor
tudou
tudual
tudur
tudwal
tuet
tugdual
tuiou
tuniz
tunizia
turball
turbio
turbo
turdidae
turdoides
turdus
turenne
turk
turked
turkeg
turkek
turkestan
turkey
turki
turkia
turkmenistan
turn
turner
turtur
tus
tuta
tutaet
tux
tv
twain
twelve
twilight
twin
twisted
twitter
two
twrch
ty
tyddewi
tyler
tymologique
tyndyrn
tyne
type
typhoon
tyrannidae
tyrannus
tyto
tywi
tz
tze
u
ua
ubi
ubisoft
uble
ubu
uc
ucius
udb
udine
ue
uefa
uffizi
ugent
ugentvet
ugly
ugo
uhel
uhelaat
uhelaet
uhelan
uhelder
uheldiriou
uhelenn
uhelennou
uhelgoad
uhelgompezenn
uhelidi
uheloc
ui
uirhie
uk
ukraina
ukrainat
ukraine
ukraineg
ukrainiz
ul
ulaid
ulla
ulm
ulpius
ulrich
ulrika
ulrike
ulster
ultima
ultimate
ultra
ulysses
um
uma
umberto
umbilia
umbria
ump
un
una
unan
unanadou
unander
unanenn
unanennou
unanet
unaniezh
unanin
uncle
und
under
underground
underworld
une
unesco
unha
uniadur
unicode
unicolor
unio
union
unis
unit
unite
united
unity
univers
universal
universalis
universe
universel
universels
universidad
universidade
universita
universitaires
universite
university
unix
unknown
unnek
unnekvet
uno
unpenniezh
uns
unter
unvan
unvanet
unvanidigezh
unvaniez
unvaniezh
unvanin
unvez
unvezhiou
unveziou
unvouezh
unwisk
unwiskou
unyezhek
uomo
up
upon
upper
uppsala
upright
ur
uraniom
urbain
urban
urbe
urbino
urbs
urh
uri
urien
urlou
urraca
urss
ursula
ursus
uruguay
uruguayat
urzh
urzhaz
urzhiad
urzhiadou
urzhian
urzhiataer
urzhiataerezh
urzhiataeriou
urzhiet
urzhiou
us
usa
usaaf
usach
usage
usb
use
uskerentiad
usmc
usque
uss
ut
utah
utc
utm
utrecht
uttar
uwch
uwe
uzin
v
va
vaals
vaas
vaast
vaat
vab
vac
vacances
vache
vachelouriezh
vad
vadenn
vadennou
vadeziant
vadezin
vadezour
vadou
vadur
vae
vaen
vaer
vaet
vaez
vag
vagad
vagadou
vagan
vage
vaillant
vak
vakan
val
valafenn
valais
valan
valar
valde
valdemar
vale
valenc
valence
valencia
valenciennes
valens
valente
valentia
valentianus
valentin
valentina
valentine
valentinian
valentinianus
valera
valeria
valerius
vali
valijenn
valladolid
valle
vallenato
vallerie
valley
vallie
valls
valoc
valois
valparai
valse
valsenn
value
vamm
vammenn
vammvro
vampire
van
vanac
vanas
vanati
vanav
vancouver
vandaled
vande
vandenn
vandennad
vanellus
vanessa
vanguard
vanifestadeg
vanifesterien
vanifestin
vank
vanke
vann
vannes
vannetais
vanniel
vantell
vanuatu
vaot
vaou
vaouez
vaouezed
var
vara
varbared
varc
vare
varennes
vareou
varese
vargas
vargem
vari
varia
variaclochers
varin
varius
varkizez
varksouriezh
varn
varnadenn
varnerien
varoned
varr
varregezh
varregezhiou
varrenn
varrennig
varsovia
vartezeadenn
vartolod
vartoloded
varus
varv
varvas
varvasmemorialgenweb
varvek
varvfichenn
varvmemorial
varvo
varzh
varzhed
varzhez
varzhin
varzhoneg
varzhonegou
varzhoniezh
vas
vasa
vasari
vasco
vastard
vat
vatezh
vatikan
vauban
vaucluse
vaud
vaughan
vautier
vaux
vaya
vaz
vazh
vder
vdiourez
ve
veaj
veajas
veajin
veajou
veajourien
vec
vecchio
ved
veda
vedalenn
vedou
vefa
vefe
vefent
veg
vega
vegas
vehe
veil
veille
veillon
vein
vek
vel
vela
veladur
velanvet
velder
velderiou
veleg
velegez
veleien
velen
velestradurel
velestradurezh
velgia
velgiat
veli
velik
velin
vell
velluire
velout
velreizh
velrevel
velrevelezh
velrevidi
velson
velster
velsteriou
velvet
vemor
ven
venceslas
vende
vendetta
vendo
venec
veneg
venegin
venere
veneti
veneto
venez
venezia
veneziek
veneziou
venezuela
venezuelat
vengeance
vengleuz
venice
veniliornis
venn
venne
venner
vennozh
vennozhiou
vent
venta
vents
ventura
venus
venveg
ver
vera
veracruz
veran
verb
verbano
verbou
verc
vercelli
verde
verdeadurezh
verdein
verdi
verdun
vered
verger
vergilius
veriadenn
verian
verien
veriet
verk
verkan
verkas
verlag
verlaine
verlin
vermandois
vermeer
vermont
vern
verne
verneuil
vernon
verona
veronese
veronica
verr
verrazzano
vers
versailhez
versailles
versicolor
version
verso
vert
verte
vertical
vertus
vertuz
vertuziou
verus
vervel
vervent
very
verz
verzas
verzer
verzh
ves
vesk
veskan
veskell
vespasian
vespasianus
vespucci
vestr
vestrez
vestroni
vestronian
vet
vetek
vettel
vetus
veur
veure
veurge
veurne
veurzh
veut
veuzenn
vev
vevan
vevas
veve
vevenn
vevoniezh
vevont
vez
vezan
veze
vezed
vezegiezh
vezeien
vezekniezh
vezent
vezer
vezet
vezh
vezin
vezo
vezont
vi
via
viagem
viana
vibien
vibo
vic
vice
vicente
vicenza
vicher
vicherel
vicherourien
vichy
vicious
vicomte
victimes
victoire
victor
victoria
victory
victrix
vida
vidal
vide
video
videoiou
videos
vidi
vie
vieil
vieille
vieillot
vieira
vieja
viejo
vienna
vienne
vierge
vies
viet
vietnam
vietnameg
vieux
view
vig
vigne
vignes
vignon
vignoned
vignonez
vignoniezh
vigo
vigor
vigors
vigoudenn
vihan
vihanaat
vihanan
vihanik
vihanoc
vii
viii
viiie
viiivet
viivet
vije
vijent
vikel
viken
viking
vikinged
vikings
viktor
viktoria
vil
vila
vilafranca
vilaine
vilano
vilanova
vilar
viliadou
vilin
vilion
villa
villafranca
village
villanova
villanueva
villard
villars
villas
ville
villefranche
villemarque
villena
villeneuve
villers
villes
villiers
villon
vilnius
vilour
vilourel
vilourion
vimp
vin
vince
vincent
vincenzo
vinci
vindrailhadeg
vindrailherez
vingt
vingtaine
vini
vinic
vinil
vinistr
vinistred
vinorelezh
vint
vintin
vinviou
vinyl
viola
violante
violence
violin
violon
viou
vir
viras
vire
vireo
virescens
viret
virgen
virgin
virginia
virginie
viridis
virourien
virout
virton
virtual
viruz
vis
visant
visconti
viseu
vision
visionerien
visions
visiteurs
viskoazh
vista
vistri
vit
vita
vital
vite
vitellius
viterbo
vito
vitologiezh
vitrail
vitry
vittoria
vittorio
viva
vive
vives
vivet
vivian
vivien
vivienne
vivo
vivre
viz
vizantat
vizantiz
viziek
vizigoted
vizir
vladimir
vlec
vlenian
vlenier
vlenierien
vleunienn
vlev
vlevenn
vlez
vloavezh
vloavezhiou
vloaz
vloaziek
vloc
vo
voa
voal
voan
voaz
voc
vocabulaire
vocals
voce
vod
vodadeg
vodadenn
vodan
vodas
vode
vodern
vodka
voe
voent
voereb
voeren
voest
vogalenn
vogalennek
vogalennou
vogel
voger
voice
voices
voir
voix
vojenn
vojennel
vol
volca
volcheviked
volekulenn
volga
volkanek
volkswagen
volontez
volotenn
vols
volta
voltaire
volte
voltes
volum
volume
volumes
volunteer
volution
volutionnaire
volz
vom
vombard
vombezadeg
vombezadegme
vombezenn
von
vonarkiezh
voneiz
vongoled
vonreizh
vonreizhan
vonreizhel
vont
vontroulez
voor
vor
vora
voraerien
vord
vorennou
vorfologiezh
vorgium
vorianed
vorlaeron
vorpommern
vortigern
vorzhed
vos
vosenn
vosges
voskeenn
voskov
vot
votadeg
votadegou
votas
voterien
votet
votez
votin
votou
vou
vouc
voudaegezh
voudenn
voudig
voued
voueta
vouezh
vouezhiadeg
vouezhian
vouezhiou
vougev
voul
voulc
vour
vourc
vourdel
vourien
vourzh
vous
vout
voutin
vouzar
voyage
voyager
voyages
voz
vraies
vran
vras
vrasaat
vrasan
vrasoc
vrav
vrazil
vrazilian
vraziliat
vre
vrec
vreiz
vreizh
vreizhat
vreizhveuriat
vreizhveuriz
vreman
vreou
vres
vreserezh
vrest
vreton
vretoned
vreudeur
vreur
vreuriezh
vreux
vrezel
vrezelian
vrezelin
vrezeliou
vrezelourien
vrezhon
vrezhoned
vrezhoneg
vrezhonegerien
vrezhonegerion
vrezhonek
vrezoneg
vrier
vries
vrigadenn
vro
vroad
vroadel
vroadelezh
vroadelour
vroadelourien
vroadelouriezh
vroig
vroiou
vronn
vroudas
vruched
vrud
vrudan
vrudet
vrudetan
vrumenn
vs
vu
vue
vuez
vugale
vugaleaj
vugel
vuhez
vuhezegezh
vuhezskrid
vui
vuian
vuioc
vulgared
vulgaris
vulgata
vulkan
vulpes
vuntr
vunut
vunutenn
vuoc
vurezh
vurgonded
vurutellerien
vus
vuzul
vuzulian
vuzulman
vuzulmaned
vvd
vvet
vy
w
wa
wad
wade
waffen
wagenn
wagler
wagner
wake
wakefield
walarn
walc
waldeck
waldemar
walenn
wales
walk
walker
walking
wall
wallabi
wallace
walloneg
wallonia
wallzarvoud
walsh
walt
walter
walters
walther
wan
wanaat
wanda
wang
want
war
warc
warcraft
ward
warded
wareg
warez
warezin
warhammer
warhol
warizi
warlec
warlerc
warn
warnan
warne
warner
warneton
warni
warno
warren
warrior
warriors
wars
warwick
warwickshire
was
washaat
washan
washington
wask
wastell
wat
watch
watchmen
water
waterfall
waterford
waterhouse
waterloo
waters
watson
watt
wave
way
wayne
waz
wazed
wazh
wd
we
wear
weather
web
webb
webber
webelements
weber
website
webster
wech
wechall
wechou
wedding
week
weekly
wehrmacht
wei
weights
weimar
weiss
weißenfels
wel
weladenn
weladennas
weladennerien
weladennin
welas
welcome
wele
weled
weler
welet
well
wellaat
wellan
welle
welles
wellington
wells
welont
welout
welsh
welt
weltaz
wen
wened
wener
weneted
wengeloniezh
wengelouriezh
wenn
went
wer
werc
were
werenn
werin
wern
werner
werther
werz
werzenn
werzh
werzhan
werzhas
werzhid
wesley
wessex
west
western
westfalen
westhoek
westminster
wettin
weuz
weyden
wezenn
wezh
wezhiou
wezhou
wga
what
wheel
when
where
which
while
whisky
whitchurch
white
whitley
who
whole
why
wi
wicca
wide
widow
width
wie
wien
wiener
wiesbaden
wife
wight
wiki
wikimammenn
wikimedia
wikipedia
wikisource
wilaya
wild
wilde
wiley
wilhelm
wilhelmina
wilhelmine
will
willem
william
williams
williamson
willie
willis
willy
wilmington
wilson
wiltshire
wim
win
winchester
wind
windows
windsor
wine
wings
winsor
winston
winter
wir
wirion
wirionez
wiriou
wisconsin
wise
wisk
wiskan
wiski
witch
witcher
with
within
without
wittelsbach
wittenberg
wizigoted
wladfa
wledig
wnr
wo
wolf
wolfenbu
wolfgang
wolfram
woman
women
won
wonder
wonderful
wonderland
woo
wood
woods
woodstock
woody
woolf
worcester
worcestershire
word
words
work
works
workshop
world
worlds
worldwide
worms
wormslec
would
wrac
wragez
wrecsam
wreg
wrez
wright
writers
writing
writings
written
wrizienn
wrong
wu
wuhan
wulf
ww
www
wyatt
wye
wyn
wynne
wyoming
wysg
władysław
x
xabier
xadrez
xaver
xavier
xbox
xe
xerais
xi
xia
xico
xie
xii
xiie
xiii
xiiie
xiiivet
xiivet
xin
xinjiang
xiv
xive
xivet
xivvet
xix
xixe
xixvet
xl
xose
xs
xue
xun
xv
xve
xvet
xvi
xvie
xvii
xviie
xviii
xviiivet
xviivet
xvivet
xvvet
xx
xxe
xxi
xxian
xxie
xxii
xxiii
xxiv
xxivet
xxvet
xxx
y
ya
yac
yad
yae
yael
yafe
yagu
yahya
yalc
yale
yamamoto
yan
yang
yann
yannick
yannig
yaou
yaouan
yaouank
yaouankan
yaouankik
yaouankiz
yaouankizou
yaouankoc
yar
yayoi
ye
year
years
yeas
yec
yehouda
yellow
yelo
yeltsin
yemen
yen
yenaat
yenijenn
yenoc
yeodi
yer
yes
yesterday
yeun
yeux
yev
yez
yezekael
yezh
yezhadur
yezhadurel
yezhaduriou
yezhadurour
yezhadurourien
yezhel
yezherien
yezhoniel
yezhoniezh
yezhoniour
yezhoniourien
yezhou
yezhour
yezhourien
yi
yideg
yin
ym
yn
yng
ynys
yo
yoc
yod
yoga
yoko
yolanda
yolande
yom
yon
yonne
yoran
yoritomo
york
yorkshire
you
youc
youenn
yougoslavia
youl
young
younger
your
yourself
youth
youtube
yr
ys
ysgol
ystadegau
ystrad
yu
yuan
yucata
yugon
yukon
yun
yungipicus
yunnan
yuzev
yuzevegezh
yuzevek
yuzevien
yuzevion
yvan
yvelines
yves
yvette
yvon
yvonne
yyyy
z
za
zac
zacatecas
zachenn
zack
zad
zadou
zagreb
zalc
zalver
zalvoudegezh
zambia
zamm
zamora
zamveneg
zan
zanevell
zanevellou
zanne
zant
zanvez
zanzibar
zaol
zaolenn
zaou
zaouarn
zaoulagad
zaouzek
zapotekeg
zapotekek
zappa
zar
zaragoza
zaraitzu
zarempred
zarempredin
zarempredou
zarvoudou
zastum
zastumad
zavier
zaza
ze
zealand
zeas
zebr
zebrin
zec
zedong
zee
zeeland
zef
zegas
zegasas
zegase
zegemer
zegemeras
zegouezh
zegouezhas
zehou
zeir
zeit
zeitschrift
zeitung
zeiz
zek
zeland
zelandneveziat
zelc
zelensky
zen
zenaida
zenon
zent
zentrygon
zepartamant
zeppelin
zerbst
zerc
zere
zero
zeskadurezh
zeskas
zeskin
zeskriv
zeskrivan
zeu
zeuas
zeue
zeufe
zeuio
zeus
zevezh
zevin
zevri
zh
zhang
zhi
zho
zhou
zhu
zi
zia
ziaes
ziazez
ziazezan
ziazezas
zibab
zibabas
zidon
zie
ziegezh
zieubin
zifenn
ziforc
zigarez
zigerin
zigor
zigoras
zigresk
zigreskin
zilec
zilenn
zileuriad
zilez
zilezas
zilezel
zilhad
zimbabwe
zimezas
zimezin
zimmer
zin
zindan
zingg
zinzag
ziorren
ziouer
ziplom
zirak
ziriad
zishen
ziskar
ziskenn
ziskenne
ziskennidi
ziskibien
ziskle
ziskleir
ziskouez
ziskouezas
ziskoueze
zisoc
zisparti
zispleg
zisplegan
zistagan
zistrein
zistro
zistroas
zistruj
zistrujan
zistrujas
zita
zitl
ziv
zivellkeineged
ziviz
zivizas
zivout
zivskouarn
ziwall
ziwan
ziwar
ziwezhan
ziwezhat
zizalc
zizober
zizolein
zizoloas
zle
zlee
zo
zoare
zoareou
zoe
zoetrop
zoila
zoken
zol
zola
zollarou
zombied
zon
zona
zone
zonenn
zonotrichia
zont
zoo
zoothera
zor
zorer
zoriou
zorn
zosso
zosteropidae
zosterops
zouar
zouaran
zouarou
zoue
zoueed
zouesk
zouez
zoug
zouge
zougen
zoujan
zouloueg
zour
zquez
zrec
zrede
zreid
zremm
zri
zro
zroad
zu
zuberoa
zud
zug
zugelezh
zuid
zuleta
zum
zur
zurbara
zusammen
zweibru
{
|
}
~
¡
£
¥
§
¨
©
ª
«
­
®
°
±
²
³
´
µ
·
¹
º
»
½
¾
¿
×
ß
æ
ælius
æthelstan
ð
÷
ø
þ
đa
đo
ħ
ı
ŋ
œ
œdipe
œil
œuvre
œuvres
ǃ
ǝ
ɐ
ɑ
ɓ
ɔ
ɕ
ɗ
ə
ɛ
ɟ
ɡ
ɣ
ɤ
ɨ
ɪ
ɫ
ɬ
ɯ
ɲ
ɹ
ɾ
ʁ
ʂ
ʃ
ʉ
ʊ
ʌ
ʎ
ʐ
ʒ
ʔ
ʕ
ʝ
ʧ
ʰ
ʲ
ʷ
ʹ
ʻ
ʼ
ʾ
ʿ
ˀ
ˁ
ˈ
ˌ
ː
ˑ
ˠ
̀
́
̂
̃
̄
̆
̇
̈
̉
̊
̋
̌
̓
̔
̛
̝
̞
̟
̠
̣
̥
̦
̧
̨
̩
̪
̮
̯
̱
̺
̻
͂
ͅ
͡
α
αι
ας
β
γ
δ
ε
ευ
ζ
η
θ
ι
κ
και
λ
μ
με
ν
να
νη
νος
ξ
ο
οι
ος
ου
π
ρ
ρα
ς
σ
τ
τα
τη
της
το
του
υ
φ
χ
ψ
ω
ων
ϕ
а
б
в
г
д
е
ж
з
и
к
л
м
н
на
о
оияи
он
п
р
с
т
у
ф
ц
ч
ш
щ
ъ
ы
ь
э
ю
я
і
ң
ә
ө
ְ
ֲ
ִ
ֵ
ֶ
ַ
ָ
ֹ
ֻ
ּ
־
ֿ
ׁ
ׂ
א
ב
ג
ד
ה
ו
ז
ח
ט
י
כ
ל
ם
מ
ן
נ
ס
ע
פ
צ
ק
ר
ש
ת
،
ا
ب
ة
ت
ج
ح
خ
د
ذ
ر
س
ش
ص
ض
ع
غ
ف
ق
ك
ل
م
ن
ه
و
ي
ٌ
َ
ُ
ِ
ّ
ْ
ٓ
ٔ
ٕ
ं
ः
क
ख
ग
च
ज
ट
ड
ण
त
द
ध
न
प
ब
भ
म
य
र
ल
व
श
ष
स
ह
़
ा
ि
ी
ु
ू
े
ै
ो
्
ং
ত
দ
ব
ম
র
ল
া
ি
ী
ু
ে
্
ੀ
ા
க
ச
த
ப
ர
ா
ி
ு
்
ం
ల
ా
ి
ు
్
್
ം
ക
ച
ട
ത
ന
മ
യ
ര
വ
ാ
ി
ു
െ
േ
്
ก
น
บ
พ
ว
อ
ั
า
ิ
ี
ื
ุ
ู
เ
็
่
้
์
་
ོ
က
အ
ာ
ိ
ီ
ု
ူ
ေ
ဲ
့
း
္
᚛
᚜
᛬
រ
ស
ា
្
​
‌
‍
‎
‏
‐
‑
‒
–
—
―
‘
’
‚
“
”
„
†
•
…
‭
′
″
ⁿ
₁
₂
₃
€
→
↔
↷
−
√
∞
≈
③
④
⑦
─
│
┌
└
├
◆
★
♣
♥
♦
♭
♯
✝
ⴰ
ⴷ
ⴻ
ⵉ
ⵍ
ⵏ
ⵔ
ⵜ
ⵢ
⺀
⺄
⺆
⺈
⺊
⺌
⺕
⺝
⺸
⺼
⿰
⿱
⿲
⿳
⿴
⿵
⿶
⿷
⿸
⿹
⿺
⿻
。
《
》
〢
あ
い
う
お
か
き
く
け
こ
さ
し
す
せ
そ
た
ち
っ
つ
て
と
な
に
の
は
ひ
ふ
へ
ほ
ま
み
も
ゆ
よ
ら
り
る
れ
わ
を
ん
゙
゚
ァ
ア
ィ
イ
ウ
ェ
エ
オ
カ
キ
ク
ケ
コ
サ
シ
ス
セ
タ
チ
ッ
ツ
テ
ト
ナ
ニ
ヌ
ネ
ハ
ヒ
フ
ヘ
ホ
マ
ミ
ム
メ
モ
ヤ
ュ
ユ
ョ
ラ
リ
ル
レ
ロ
ン
・
ー
ㄱ
ㄴ
ㄷ
ㅇ
ㅌ
ㅎ
ㅏ
ㅐ
ㅑ
ㅒ
ㅓ
ㅔ
ㅕ
ㅖ
ㅗ
ㅛ
ㅜ
ㅠ
ㅡ
ㅣ
㇁
㇂
㇄
㇇
㇈
㇉
㇓
㐁
㐄
㐅
㐌
㐫
㐬
㐭
㐮
㐱
㑒
㒵
㒸
㒼
㓁
㓞
㔾
㕛
㕣
㖾
㘝
㚅
㚇
㚔
㚘
㝉
㝡
㝴
㝵
㞋
㞢
㞷
㠩
㠭
㠯
㡀
㡭
㡿
㢲
㢴
㣇
㣺
㥯
㪅
㫄
㫐
㫒
㫺
㬅
㬎
㬥
㬰
㲋
㳄
㷠
㸒
㸚
㸦
㼌
㼲
㽞
㿟
䀠
䂞
䍃
䏍
䒑
䖍
䖒
䖝
䖵
䙴
䚻
䜌
䝿
䡛
䧹
䪞
一
丁
丂
七
丄
丅
丆
万
丈
三
上
下
丌
不
与
丏
丐
丑
专
且
丕
世
丘
丙
业
东
丞
丢
丣
两
严
並
丨
丩
个
丫
丬
中
丮
丰
丱
串
丵
丶
丷
丸
丹
为
主
丽
丿
乀
乂
乃
久
乆
乇
么
义
之
乌
乍
乎
乏
乐
乑
乔
乖
乗
乘
乙
乚
乛
乜
九
乞
也
习
乡
书
乱
乳
乾
亀
亅
了
亇
予
争
事
二
亍
于
亏
亐
云
互
亓
五
井
亘
亚
亜
亞
亟
亠
亡
亢
交
亥
亦
产
亨
亩
享
京
亭
亮
亯
亰
亲
亳
亶
亷
人
亻
亼
亾
仁
今
介
仌
从
仐
仑
仒
仓
仕
他
付
仝
代
令
以
任
企
伊
伏
伐
休
会
伯
但
位
住
何
佘
余
作
佥
使
來
侈
侌
侖
侯
侵
便
保
俞
信
修
倉
倍
候
倠
倭
健
備
僉
僕
儿
兀
允
兂
元
兄
充
兆
兇
先
光
兊
克
兌
免
兑
兒
兓
兔
党
兜
兟
入
全
兩
兪
八
公
六
兮
兰
共
关
兵
其
具
典
兹
兼
冀
冂
冃
冄
内
冈
冉
冊
冋
册
再
冎
冏
冐
冒
冓
冖
冗
冘
军
农
冝
冡
冥
冫
冬
冷
几
凡
凢
凵
凶
凷
凸
凹
出
函
凾
刀
刁
刂
刃
刄
刅
分
切
刊
刍
刑
刕
刖
列
刘
则
初
別
利
别
到
制
刺
則
削
剌
前
剡
剽
劉
力
功
加
劦
助
劫
劳
劵
勃
勇
勉
勒
動
務
勞
勤
勹
勺
勻
勾
勿
匀
匂
包
匆
匈
匊
匋
匍
匕
化
北
匚
匝
匡
匪
匱
匸
匹
区
医
匽
匿
區
十
卂
千
卄
卅
卆
升
午
卉
半
卌
华
卑
卒
卓
单
卖
南
卜
卝
卞
占
卡
卢
卣
卤
卦
卩
卪
卬
卯
印
危
即
却
卵
卷
卸
卻
厂
厃
厄
历
厈
厉
厌
厓
厘
厚
原
厤
厥
厨
厭
厲
厶
厷
厸
去
厼
厽
叀
参
參
叅
又
叉
及
友
双
反
叐
发
叒
叔
叕
取
受
叚
叜
叟
口
古
句
另
叩
只
召
可
台
叱
史
右
叵
号
司
叹
吂
各
吅
合
吉
吊
吋
同
名
后
吏
向
吕
君
吝
吞
否
含
启
吳
吴
吹
吾
呂
呆
呈
告
员
呙
周
命
咅
和
咎
咠
咢
咨
咸
咼
哀
品
哉
員
哥
哲
唐
商
啇
問
啚
啬
啻
善
喜
喬
單
喿
嗇
噩
嚴
囊
囗
囘
囙
囚
四
回
囟
因
囧
囬
困
囱
囷
固
国
圂
圅
國
圍
園
圓
土
圡
圣
圥
在
圭
地
圶
圼
坐
坒
坚
坴
垂
垔
垚
埀
埋
城
埶
執
基
堂
堅
堆
堇
堯
場
塞
墨
壘
士
壬
壯
声
壳
壴
壹
壺
壽
夂
处
夅
夆
备
夊
夋
夌
复
夏
夒
夕
外
夗
夘
多
夜
夢
大
夨
天
太
夫
夬
夭
央
失
夲
头
夷
夸
夹
夻
夾
奂
奄
奇
奈
奉
奎
奏
奐
契
奓
奔
奚
奞
奠
奢
奥
奭
女
奴
奻
好
如
妄
妙
妟
妥
妻
妾
姑
委
姜
威
娄
婁
婴
嬰
嬴
子
孑
孔
孕
孖
字
存
孚
孛
孝
孟
季
孤
学
孫
孱
學
宀
宁
宂
它
宅
宇
守
安
宋
完
宏
宓
宗
官
定
宛
宜
宝
客
宣
室
宮
宰
害
家
容
宾
宿
寄
寅
密
富
寒
察
寧
審
寫
寬
寮
寸
对
寺
寻
寽
対
寿
封
尃
射
将
將
專
尉
尊
尋
尌
對
小
少
尒
尓
尔
尖
尗
尚
尞
尢
尣
尤
尧
尨
尭
就
尸
尹
尺
尻
尼
尽
尾
尿
局
居
屈
屋
屎
屏
屑
展
屖
屚
属
屠
屡
屬
屮
屯
屰
山
屵
屾
岁
岂
岑
岡
岩
岳
岸
峯
島
崇
崎
崑
崔
崖
崙
崩
嵬
嶲
巂
巛
川
州
巟
巠
巢
巤
工
左
巧
巨
巩
巫
差
己
已
巳
巴
巷
巸
巻
巽
巾
巿
帀
市
布
希
帚
帛
帝
带
師
席
帶
常
干
平
年
幵
并
幷
幸
幺
幻
幼
幽
幾
广
広
庄
床
底
店
庚
府
度
庫
庭
庶
康
庸
廉
廌
廛
廣
廩
廴
延
廷
建
廾
廿
开
弁
弃
弄
弇
弋
式
弓
弔
引
弗
弘
弜
弟
弥
弦
弱
張
強
强
彊
彌
彎
彐
彑
当
彔
录
彖
彗
彡
形
彥
彦
彧
彭
彳
役
彼
往
待
律
徒
得
徙
從
復
微
徳
徵
德
心
忄
必
忌
忍
志
忝
忠
忩
快
念
忽
忿
思
怠
急
怱
恆
恒
恩
恭
息
悉
患
悤
悲
悶
惠
惡
惢
愁
愈
意
愛
感
慈
慧
慮
憂
憲
應
戀
戈
戉
戊
戋
戌
戍
戎
成
我
戒
戔
或
戚
戠
戢
戦
截
戲
戶
户
戹
戼
戾
房
所
扁
扇
手
扌
才
打
托
执
承
折
拉
拜
拿
掌
推
提
摩
支
攴
攵
收
攸
改
放
政
敄
敏
敕
敖
敗
教
敝
敞
敢
散
敦
敫
敬
数
敷
數
斂
文
斉
斊
斗
斤
斥
斩
斬
斯
新
方
於
施
斿
旁
旋
族
无
旡
既
旣
日
旦
旧
旨
早
旬
旱
旲
时
旾
昆
昇
昌
昍
明
昏
易
昔
昗
昜
星
春
昬
是
昱
昴
昷
時
晃
晋
晏
普
景
晶
智
暑
暴
曇
曩
曰
曲
曳
更
曷
書
曹
曼
曾
替
最
朁
會
月
有
朋
服
朔
朕
朗
望
朝
木
朩
未
末
本
札
朮
术
朱
朵
朶
朿
杀
李
杏
村
杜
束
条
来
東
杲
杳
松
析
林
枚
果
枝
枲
枼
某
柔
查
柬
柰
柴
栗
株
桀
桑
桼
梁
條
梟
梨
棘
棠
棥
森
楚
業
楽
榮
樂
樊
樹
橋
欠
次
欣
欮
欲
欶
欽
款
歆
歇
歌
歛
止
正
此
步
武
歨
歪
歮
歯
歰
歲
歴
歷
歸
歹
歺
死
殳
段
殷
殸
殹
殺
殻
殿
毋
毌
母
每
毒
比
毕
毚
毛
毳
氏
氐
民
气
氣
水
氵
氶
氷
永
氺
氾
求
汝
汞
江
沃
沓
沙
沝
沢
河
治
泉
法
波
泣
泥
泰
洛
津
洪
洲
活
派
流
浦
浪
浮
海
淡
淮
清
渚
渠
湯
源
滿
漢
漫
漸
火
灬
灭
灰
灵
灷
炅
炎
炏
炗
炙
炭
為
烈
烏
烝
焉
無
焦
焱
然
煞
熊
熏
燕
營
燮
爪
爫
爭
爯
爰
爱
爲
爵
父
爻
爽
爾
爿
片
版
牙
牚
牛
牜
牟
牢
牧
牪
特
牽
犀
犬
犭
犮
狂
狄
狊
独
狺
猋
猒
猪
献
獻
玄
率
玉
王
玟
玨
珎
班
理
琴
瑟
瑩
瓜
瓦
甘
甚
生
産
用
甫
甬
田
由
甲
申
电
甶
男
甸
甹
町
画
甾
畀
界
畏
畐
留
畜
畟
畢
畧
畨
番
畫
異
畱
當
畺
畾
疊
疋
疌
疑
疒
疾
癶
癸
癹
登
發
白
百
皀
皃
的
皆
皇
皋
皐
皕
皮
皷
皿
盃
盆
盇
盈
益
盍
盎
监
盒
盖
盛
盡
監
盤
盧
目
直
相
盾
省
眇
眉
看
眔
眞
真
眷
眼
眾
着
睘
睪
睿
瞏
瞢
瞿
矍
矛
矞
矢
矣
知
矦
短
石
破
碎
磊
磨
示
礻
礼
社
神
祟
票
祭
禀
禁
福
禮
禸
禹
禺
离
禽
禾
禿
秀
秃
秉
秋
科
秝
秦
移
稟
穀
穌
穴
究
穹
空
穿
突
窄
窒
立
竒
竜
竝
竟
章
童
竹
笑
笠
筆
等
答
箕
算
箴
節
篤
篭
米
粉
粛
粟
粤
粦
粲
糞
糸
糹
系
紀
約
紅
納
素
索
紫
累
細
絜
絫
絲
經
維
綿
縣
繇
纍
纟
缶
网
罒
罔
罕
罗
罙
罡
罢
罪
署
罷
羅
羊
羌
羍
美
羔
羕
羗
羞
羡
羣
群
義
羲
羸
羽
翁
翏
習
翕
翟
翠
翼
老
耂
考
者
耆
而
耎
耑
耒
耳
耴
耶
耷
聂
聊
聖
聚
聶
聿
肀
肃
肅
肉
肖
肙
肥
肩
肯
育
肴
胃
背
胡
胥
能
脊
脩
膚
臣
臤
臧
自
臬
臭
臯
臱
至
致
臺
臼
臽
臾
臿
舀
舂
舄
與
興
舉
舌
舍
舛
舜
舞
舟
般
船
艮
良
色
艸
艹
艾
芒
芔
芬
芮
花
芳
芺
芻
苔
苗
苟
若
苦
英
茶
茸
荅
草
荒
荣
荼
莆
莧
莫
莽
菆
菊
菐
華
萬
落
葉
著
葛
董
葵
蒙
蒦
蒼
蓋
蓬
蓺
蔑
蔡
蕉
蕭
薄
薛
薦
薰
藍
藏
藤
藥
蘭
虍
虎
虐
虒
虔
處
虖
虗
虘
虚
虛
虜
虞
虫
虽
蚤
蚩
蜀
蜜
蟲
蠡
血
行
衍
衛
衣
衤
表
衮
衰
袁
袞
裕
褭
褱
襄
襾
西
覀
要
覃
見
規
覓
覧
親
覽
见
角
解
言
訁
訇
計
記
詩
詹
語
誩
諸
讠
记
语
谷
豆
豈
豊
豐
豕
豖
豙
象
豦
豩
豪
豸
貇
貝
貞
貟
負
貢
貧
貪
貫
責
貳
貴
買
費
賁
資
賈
賏
賓
賔
賛
賞
賢
賣
質
賴
贊
贝
贡
责
贯
贲
贵
赖
赞
赤
赦
走
越
足
路
蹇
身
躬
車
軍
軎
軟
輦
车
辛
辜
辞
辟
辥
辰
辱
農
辵
辶
边
达
过
近
连
迷
追
退
送
逆
逐
通
速
造
逢
連
逮
進
遀
遂
過
道
達
遣
適
遷
遺
邊
邑
邕
那
邦
邪
郎
部
郭
都
鄉
酉
酋
配
酓
釆
采
里
重
野
量
金
釒
錢
钅
長
镸
长
門
閃
閉
開
閏
閑
閒
間
閔
関
閵
閻
闌
门
间
闷
阑
阜
阝
阳
阿
降
院
陳
陸
陽
隆
隊
隋
隡
隨
隱
隶
隹
隺
隻
隼
隽
难
雀
雁
雄
雅
集
雈
雋
雍
雐
雔
雙
雚
雜
雝
離
難
雨
雩
雪
雲
零
雷
需
霍
霜
霝
霞
霸
靈
靑
青
非
靡
面
靣
革
韋
韓
韦
韭
韯
韱
音
頁
頃
項
須
頗
頡
頭
頻
顛
页
風
风
飛
飞
食
飠
養
館
饣
首
香
馬
馮
駦
马
骨
高
髟
鬥
鬯
鬲
鬼
魚
魯
鮮
鱼
鲁
鳥
鳳
鸟
鹵
鹿
麃
麗
麥
麦
麻
黃
黄
黍
黎
黑
黒
黨
黹
黽
黾
鼎
鼓
鼠
鼻
齊
齋
齐
齒
齿
龍
龙
龜
龟
龠
龰
龱
龴
龵
龶
龷
龸
龹
ꝃ
者
艹
ﺍ
？
𠀁
𠀃
𠀆
𠀉
𠀎
𠀐
𠁁
𠁣
𠂆
𠂇
𠂈
𠂉
𠂊
𠂋
𠂎
𠂒
𠂔
𠂛
𠂡
𠂢
𠂤
𠂬
𠂭
𠂹
𠃊
𠃋
𠃌
𠃍
𠃎
𠃑
𠃓
𠃔
𠃜
𠄌
𠄎
𠄠
𠄢
𠆢
𠆥
𠇍
𠈌
𠌵
𠓜
𠔉
𠔥
𠔼
𠔽
𠔿
𠕀
𠕁
𠕋
𠘧
𠘨
𠙻
𠙼
𠚏
𠚒
𠚤
𠚪
𠣏
𠤎
𠤕
𠥓
𠦄
𠦑
𠦝
𠧒
𠧗
𠧪
𠩺
𠪚
𠫓
𠫔
𠫤
𠬛
𠬝
𠬞
𠬢
𠬤
𠬶
𠮛
𠮦
𠮷
𠯑
𠱠
𠳮
𠷎
𡈼
𡉀
𡉵
𡌥
𡍮
𡏳
𡕒
𡕩
𡕰
𡖅
𡗗
𡗜
𡘆
𡘤
𡧱
𡨄
𡩧
𡬠
𡭽
𡰣
𡰥
𡰪
𡰯
𡰱
𡷈
𡸁
𡿨
𡿩
𡿪
𡿺
𢀖
𢀛
𢀩
𢁙
𢆉
𢆰
𢆶
𢇁
𢇇
𢉖
𢌬
𢌿
𢏚
𢑑
𢑚
𢖻
𢙣
𢛳
𢦏
𢦒
𢧵
𢼄
𢾕
𣁋
𣄼
𣅀
𣅽
𣍘
𣎳
𣎵
𣏋
𣏼
𣗥
𣥂
𣥖
𣦵
𣦼
𣧄
𣪊
𣪠
𣬉
𣳾
𣶒
𤇾
𤊽
𤐫
𤓰
𤔔
𤕨
𤣩
𤰇
𤰔
𤰞
𤴓
𤴔
𤽄
𥁑
𥁕
𥃦
𥃩
𥃭
𥇡
𥑟
𥘅
𥘈
𥝢
𥫗
𥱡
𦈢
𦉪
𦉬
𦉼
𦍌
𦍒
𦎧
𦐇
𦓔
𦔮
𦘒
𦙃
𦚏
𦣝
𦣞
𦣻
𦥑
𦥔
𦥯
𦨉
𦭝
𦰩
𧆞
𧈧
𧘇
𧰨
𧴪
𧴮
𧵩
𧾷
𨸏
𨾴
𩙿
𩠐
𩫏
𩵋
𪉷
𪜀
𪟽
𪠲
𪩲
𫇦
𫔭
𫜸
𫝀
𫠣
𫠩
𫢉
𫥞
𫩏
𫩠
𫪡
𫲽
𫶧
𬀷
𬐘
𬗌
𬙙
𬛸
𬜯
𬟩
𬯁
𬴘
𬺻
𬼉
𬼖
𭀰
𭁈
𭁨
𭅰
𭑈
𭕄
𭗼
𭤨
𭥫
𭻾
𮅕
𮊿
𮍌
𮍏
𮓗
𮥼
𮧮
廾
𰀁
𰀄
𰀈
𰀉
𰀕
𰀠
𰀡
𰀢
𰀪
𰁜
𰃮
𰆊
𰆘
𰋙
𰕎
𰢴
𰧭
𰯲
0000--
001--
03--
04--
05--
06--
07--
08--
09--
280--
284--
914--
978--
a--
aa--
aals--
ab--
aba--
abd--
abe--
aber--
abi--
abing--
abst--
abu--
abys--
ac--
acant--
acces--
ace--
ach--
act--
ad--
ada--
ade--
adeil--
adel--
aden--
adju--
ae--
aegitha--
aegot--
aegy--
aer--
aes--
aet--
aez--
af--
afg--
afro--
ag--
age--
agos--
agre--
agui--
ah--
ai--
ail--
ain--
aio--
air--
aj--
ak--
aka--
akro--
akt--
aku--
al--
ala--
alb--
albi--
alc--
alde--
aldo--
ale--
alek--
alf--
ali--
aljeria--
alki--
alkm--
all--
allge--
alo--
als--
alt--
alu--
am--
ama--
amaez--
amal--
ame--
amfit--
ami--
amphi--
ampoe--
an--
ana--
anarc--
anc--
and--
ang--
angui--
ani--
ann--
anna--
anne--
anno--
annun--
ano--
ans--
ant--
ante--
anti--
anv--
any--
ao--
aon--
aost--
aostral--
aour--
aoz--
ap--
apo--
apoll--
appe--
appen--
appro--
aqua--
ar--
ara--
arall--
arami--
arc--
arch--
ard--
ardre--
are--
argu--
ari--
ark--
arkitek--
arm--
arn--
arou--
ars--
art--
arti--
aru--
arz--
as--
ash--
asi--
ask--
asp--
associa--
astro--
astu--
at--
atah--
ate--
ath--
atmos--
atre--
atro--
atta--
atten--
au--
auc--
aude--
auf--
aug--
auricul--
aus--
aut--
auto--
av--
ava--
ave--
avin--
avoult--
aw--
ay--
az--
aze--
b--
ba--
bab--
bac--
bach--
back--
bad--
bae--
bag--
bai--
bak--
bal--
bala--
bale--
ball--
balzame--
bamb--
ban--
bar--
bara--
barce--
barn--
bart--
bas--
bat--
bau--
bay--
baz--
be--
beau--
bec--
bed--
bee--
beg--
bei--
beil--
bel--
bell--
ben--
bene--
benn--
beo--
ber--
beren--
berio--
bern--
berr--
bert--
bes--
bet--
beu--
beur--
beuz--
bev--
bey--
bez--
bha--
bhu--
bi--
bia--
biblio--
bie--
bien--
big--
bil--
bin--
bini--
bio--
bir--
bis--
bit--
biz--
bl--
bla--
black--
blan--
blau--
ble--
bleu--
blitz--
bliz--
blo--
blon--
blou--
blu--
blue--
bo--
boa--
bob--
boc--
bod--
boe--
bog--
boi--
bois--
bol--
bom--
bon--
bona--
boo--
bor--
bos--
bot--
bou--
bouc--
bouk--
boul--
boun--
bour--
bourou--
bow--
boy--
boz--
br--
bra--
brage--
bran--
bras--
bre--
bred--
bres--
breut--
brezel--
bri--
brit--
brizh--
bro--
broc--
brous--
bru--
brun--
bry--
bryn--
bt--
bu--
bub--
buce--
buck--
bud--
budd--
buis--
bul--
bun--
bundes--
bur--
bus--
but--
bux--
bw--
by--
c--
ca--
cad--
caec--
caer--
cai--
cal--
calc--
cald--
cali--
calt--
cam--
camp--
can--
cana--
cap--
car--
cara--
carig--
caruncu--
cas--
casa--
castel--
cat--
cau--
caul--
cay--
cc--
ce--
cea--
cele--
celebra--
cell--
celt--
cer--
cere--
cert--
ces--
cet--
ch--
cha--
chal--
chamb--
chamber--
chap--
char--
chara--
chart--
chau--
che--
cher--
chi--
chlo--
chloro--
chloros--
cho--
chou--
chry--
chryso--
chu--
ci--
cid--
cil--
cinc--
cine--
cis--
cit--
ck--
cl--
cla--
cle--
clo--
cly--
cm--
cn--
co--
cocc--
coe--
cogn--
col--
colle--
colum--
com--
compi--
con--
conno--
conomi--
conopop--
convers--
coqui--
cor--
corn--
cory--
cos--
cosmo--
cott--
cou--
coul--
cour--
cout--
cow--
cr--
cre--
creat--
cri--
crist--
cro--
crocody--
crois--
cruc--
crue--
cry--
cs--
cu--
cucu--
cum--
cunning--
cur--
curr--
curt--
curviros--
cut--
cuz--
cwm--
cy--
cyan--
cyano--
cycl--
cyn--
cyr--
cz--
d--
da--
dac--
dae--
dag--
dai--
dal--
dam--
dan--
daou--
dap--
dar--
darn--
das--
dau--
dav--
daw--
day--
daz--
dd--
de--
debre--
dec--
dei--
deir--
dek--
del--
dela--
dem--
demo--
den--
deo--
depart--
der--
des--
det--
deu--
dev--
dez--
dh--
dhe--
di--
dia--
diaez--
dian--
diar--
dic--
did--
die--
diemg--
difer--
difraos--
dig--
digab--
dige--
digemp--
digi--
dik--
dil--
dill--
dilo--
dimen--
din--
dio--
dir--
dis--
disam--
disk--
diskr--
diskriva--
distu--
dit--
div--
diver--
diverra--
divez--
diz--
dizer--
dj--
dje--
dji--
dm--
do--
dober--
docum--
dog--
dol--
dom--
domi--
domm--
don--
dona--
donnc--
dor--
dorn--
doro--
dou--
douar--
dour--
down--
doz--
dr--
dra--
dre--
drei--
dreist--
drek--
dreuz--
drev--
dri--
dro--
droug--
drouk--
dru--
drui--
drum--
dry--
dt--
du--
dub--
duc--
dud--
due--
dum--
dun--
dur--
dy--
dz--
e--
ea--
ead--
eb--
ebu--
ec--
eco--
ed--
edo--
ee--
efe--
eff--
eg--
eh--
ei--
eich--
eil--
ein--
eis--
eitin--
eizh--
ek--
el--
ela--
ele--
elec--
elekt--
elf--
eli--
eliza--
ell--
elo--
els--
em--
emb--
embre--
eme--
emi--
empi--
ems--
emvu--
en--
end--
ene--
eneb--
enep--
enge--
engel--
engra--
enk--
enkorfa--
eno--
ens--
enskr--
ent--
enter--
environ--
eo--
ep--
epik--
epim--
epip--
equi--
er--
era--
ere--
erec--
eremo--
erm--
ero--
erv--
ery--
erythr--
erythrop--
es--
esca--
escu--
est--
et--
etc--
eter--
eth--
ethel--
ethno--
etno--
etre--
etu--
etxe--
etym--
eu--
eudo--
eudy--
euk--
eula--
euph--
eur--
euro--
eury--
eus--
eusta--
ev--
eva--
eve--
ever--
ex--
exe--
explo--
ey--
ez--
f--
fa--
fab--
fac--
fae--
fai--
fair--
fal--
fall--
fan--
fao--
far--
fas--
fat--
fau--
fav--
fe--
fed--
feir--
feld--
feli--
fenn--
fer--
ferru--
fes--
feu--
feur--
ff--
ffyn--
fi--
fic--
fies--
fif--
fil--
film--
fin--
fir--
fire--
fit--
fitz--
fl--
flat--
flav--
fle--
flo--
flu--
fly--
fn--
fo--
fog--
fol--
folk--
fon--
for--
fort--
foto--
fou--
four--
fr--
fra--
frag--
frail--
france--
fre--
free--
frei--
fri--
fro--
from--
fru--
fry--
fu--
ful--
fuli--
fumi--
fun--
fur--
fut--
fy--
g--
ga--
gab--
gad--
gae--
gai--
gal--
gall--
gama--
gamb--
gan--
gang--
gant--
gao--
gar--
gare--
garg--
gari--
garr--
gas--
gast--
gat--
gau--
gav--
gaz--
ge--
ged--
gel--
gemp--
gen--
gens--
geog--
geol--
ger--
ges--
get--
gev--
gevan--
gevat--
ghe--
ghi--
gi--
gia--
gian--
gib--
gig--
gil--
gin--
giov--
gis--
giu--
giz--
gl--
glan--
gle--
glen--
gli--
glo--
gloaz--
gloss--
glu--
gn--
go--
goa--
god--
goe--
gol--
gold--
gompag--
gomun--
gon--
gonfu--
gont--
good--
gor--
got--
gou--
goude--
gouer--
goul--
gour--
gov--
gover--
goz--
gr--
gra--
gran--
grand--
gre--
gren--
grib--
grif--
grig--
gril--
grim--
gris--
gro--
groß--
gru--
gu--
gua--
gue--
guer--
gui--
guil--
guillo--
gul--
gumun--
gun--
gur--
guy--
gw--
gwad--
gwall--
gwam--
gware--
gwaz--
gwe--
gwen--
gwer--
gwike--
gy--
gym--
gymno--
gyn--
h--
ha--
hab--
hac--
had--
hae--
hag--
hai--
hal--
hall--
ham--
han--
hand--
hanter--
hap--
har--
hard--
harp--
hart--
harz--
has--
hat--
hau--
haw--
hay--
haz--
hd--
he--
hec--
hed--
heems--
hef--
heg--
heil--
heile--
heim--
hek--
hel--
helio--
helle--
hem--
hemip--
hemis--
hen--
hent--
hep--
her--
hes--
heski--
het--
heter--
heu--
hev--
hevez--
hey--
hi--
hid--
hig--
high--
hik--
hil--
him--
hin--
hip--
hir--
his--
hit--
hiz--
hl--
hlo--
hm--
ho--
hob--
hoc--
hoch--
hod--
hof--
hohen--
hol--
holl--
home--
hon--
hont--
hop--
hor--
horn--
hos--
hot--
hou--
hour--
how--
hr--
hrea--
hrom--
hru--
hu--
hua--
hue--
hui--
humb--
hun--
hur--
hurr--
hurun--
hus--
hwe--
hwi--
hy--
hydro--
hylo--
hyp--
hyper--
hyps--
i--
ia--
ib--
ibi--
ic--
ice--
id--
ide--
ident--
ie--
if--
ig--
ii--
ik--
ikono--
il--
iliz--
ill--
illus--
im--
imagina--
imp--
impor--
impossi--
impres--
in--
ina--
inc--
indez--
indi--
indo--
ine--
ing--
inn--
ino--
inqui--
inscript--
inst--
instru--
instruc--
int--
inter--
io--
ip--
ir--
is--
isa--
iso--
ist--
istit--
istr--
it--
ita--
iu--
iv--
ivez--
ix--
iz--
izel--
j--
ja--
jac--
jag--
jahrhun--
jal--
jam--
jan--
jar--
jas--
je--
jed--
jen--
jer--
jet--
ji--
jin--
jips--
jo--
jon--
jos--
jou--
ju--
jua--
jud--
jul--
jun--
jus--
k--
ka--
kab--
kac--
kad--
kae--
kaer--
kai--
kal--
kala--
kall--
kamm--
kan--
kann--
kant--
kantved--
kao--
kar--
kara--
karolin--
karr--
kas--
kat--
kau--
kav--
kay--
kaz--
ke--
kef--
kel--
kemm--
kemp--
kemples--
ken--
kent--
ker--
keram--
kern--
kerou--
ket--
kev--
kevra--
key--
kha--
kho--
ki--
kib--
kig--
kil--
kim--
kin--
kina--
kins--
kit--
kize--
kla--
klar--
kle--
klem--
kli--
klo--
klu--
kly--
km--
kna--
kni--
kno--
ko--
koad--
koaz--
kod--
koed--
kok--
kol--
komm--
komn--
komp--
kompag--
komun--
kon--
kor--
kordo--
kos--
kou--
koun--
kr--
kra--
kre--
krei--
kreiz--
krenn--
kreuz--
krib--
kro--
krog--
krou--
kru--
kt--
ku--
kun--
kunst--
kunu--
kur--
kv--
ky--
l--
la--
lab--
labyr--
lac--
lae--
lai--
lak--
lam--
lamb--
lamm--
lan--
land--
lang--
lann--
lao--
lapi--
lapp--
lar--
las--
lat--
lau--
lauder--
laut--
lava--
law--
lay--
laz--
lc--
ld--
le--
lea--
lec--
lech--
led--
lee--
leg--
lei--
lek--
lem--
len--
lenn--
leo--
lept--
ler--
les--
let--
leu--
leuco--
leucoce--
lev--
ley--
lez--
li--
lia--
lib--
lich--
lici--
lid--
lie--
lies--
life--
light--
lik--
lin--
lio--
lip--
lis--
lit--
litua--
liv--
liz--
ll--
lla--
llan--
lle--
llu--
lo--
loc--
loch--
lod--
log--
lok--
lom--
lon--
long--
loph--
lopho--
lophoce--
lophop--
los--
lot--
lou--
louis--
low--
ls--
lt--
lu--
luc--
lud--
ludo--
lug--
luger--
lun--
lur--
lus--
lusk--
luter--
luz--
ly--
lys--
m--
ma--
mab--
mac--
mad--
mae--
maen--
mag--
magi--
magni--
mai--
main--
mak--
make--
mal--
mala--
mali--
malt--
mam--
man--
mani--
mans--
mao--
map--
mar--
mara--
marc--
mari--
marjo--
mark--
marl--
mas--
mat--
mau--
maur--
max--
may--
maz--
mb--
mc--
mccle--
mcfar--
me--
mec--
mecklem--
med--
medio--
mega--
mei--
mel--
mela--
mell--
melo--
mem--
men--
ment--
mer--
merc--
merin--
mes--
mesopo--
met--
meta--
meteo--
meu--
meur--
mexi--
mez--
mi--
mibin--
mic--
micro--
mid--
mie--
migra--
mik--
mikro--
mil--
min--
mindrail--
mini--
mino--
minut--
mio--
mir--
mira--
miro--
mis--
mit--
mix--
miz--
ml--
mm--
mn--
mo--
moc--
mod--
moe--
moi--
mol--
molib--
mon--
mona--
mont--
monte--
mor--
mos--
mot--
mou--
mouc--
moul--
mour--
mous--
mout--
movi--
mp--
ms--
mt--
mu--
mui--
mul--
multi--
mun--
mur--
mus--
musop--
mut--
mw--
my--
myio--
myr--
n--
na--
nad--
nag--
nai--
nak--
nam--
nan--
nann--
nant--
nar--
narrat--
nas--
nat--
nau--
nav--
naz--
nc--
nd--
ne--
nea--
neb--
nec--
neces--
nech--
ned--
nef--
nei--
nemed--
neo--
nep--
ner--
nes--
net--
nether--
neu--
nev--
nevez--
new--
news--
nez--
ng--
nh--
nha--
ni--
nia--
nic--
nico--
nie--
nieder--
nig--
nigri--
nigro--
nij--
nik--
niko--
nil--
nin--
nir--
nis--
nitro--
niv--
nn--
no--
noc--
nom--
non--
nor--
nord--
norzh--
nos--
not--
nou--
now--
noz--
ns--
nt--
nu--
nuk--
nutt--
ny--
nyc--
o--
oa--
ob--
ober--
obli--
obsc--
oc--
oce--
och--
oda--
odd--
odo--
oe--
oeu--
of--
off--
og--
oh--
oi--
ojib--
ok--
ol--
old--
ole--
oll--
olym--
om--
on--
one--
ono--
oos--
op--
or--
ora--
orc--
ordin--
ore--
orfe--
org--
orni--
ornitho--
oro--
ortho--
os--
osis--
ota--
oto--
ott--
ou--
oui--
our--
out--
ouv--
ouz--
ov--
over--
ox--
oxyu--
oz--
p--
pa--
pab--
pac--
pach--
pachy--
pad--
pai--
pal--
pala--
pale--
palla--
pamp--
pan--
pandj--
panzer--
papi--
par--
para--
parmi--
parul--
pas--
pat--
pau--
pav--
pavil--
paw--
pc--
pe--
pec--
ped--
peg--
peiz--
pel--
pela--
pell--
pellge--
pen--
penn--
peny--
pep--
per--
perga--
pes--
pesk--
pet--
petau--
petro--
peu--
peur--
peuz--
pevar--
pez--
ph--
pha--
phaenicop--
phaet--
phe--
phi--
phil--
phoc--
phoenicop--
phono--
phry--
phy--
phyll--
phys--
pi--
pia--
pic--
pie--
pier--
pig--
pik--
pil--
pin--
pio--
pipri--
pist--
pisto--
pitt--
pix--
pl--
pla--
plan--
play--
ple--
pleg--
pleu--
plo--
ploce--
ploe--
plou--
plu--
plus--
po--
poc--
pod--
poe--
poi--
pol--
poli--
poly--
pomp--
pon--
pont--
pop--
pope--
por--
porphyr--
port--
pos--
posit--
post--
pot--
pou--
poul--
pour--
poz--
pp--
pr--
pra--
prad--
prag--
prak--
pre--
pren--
pri--
prie--
pro--
prof--
profes--
pru--
prud--
pry--
prze--
ps--
pseu--
psik--
psy--
psycho--
pt--
pter--
pu--
pub--
pul--
pulc--
pun--
punis--
pur--
put--
puy--
pwll--
px--
py--
pyr--
pyrrho--
q--
qa--
qu--
qua--
quart--
que--
quedlin--
quemp--
quetz--
qui--
quin--
quo--
r--
ra--
rac--
radia--
raf--
rag--
rai--
rain--
rak--
ral--
ram--
ran--
rann--
raoz--
rap--
ras--
rat--
rau--
raw--
ray--
raz--
rb--
rc--
rd--
re--
rea--
rec--
recon--
red--
redi--
ref--
refor--
reg--
regn--
rei--
rein--
reizh--
rejist--
rel--
relat--
rem--
remp--
ren--
rene--
res--
resur--
ret--
reter--
rev--
rey--
rez--
rg--
rh--
rho--
rhu--
rhw--
rhy--
rhyn--
ri--
ria--
rich--
rie--
rif--
rig--
rik--
rim--
rin--
rio--
ris--
rit--
riz--
rk--
rn--
rna--
ro--
rob--
robus--
roc--
rock--
rod--
rode--
roe--
rom--
ron--
ros--
rose--
rot--
rou--
row--
rox--
roz--
rr--
rs--
rt--
ru--
rub--
rubi--
rubri--
rufi--
ruficap--
rufo--
ruis--
run--
rus--
ruz--
ry--
rz--
rð--
s--
sa--
sab--
saba--
sac--
sad--
sae--
sai--
sail--
sakrea--
sal--
sala--
sam--
samm--
san--
sand--
sant--
sao--
saou--
sapp--
sar--
sas--
satu--
sau--
sauro--
sauve--
sav--
saw--
sb--
sc--
scand--
scar--
sch--
scha--
schi--
schin--
schl--
scho--
schu--
sci--
scientifi--
sco--
scolo--
scor--
scri--
scu--
scy--
sd--
se--
sea--
sec--
sed--
see--
seg--
sei--
sek--
sel--
selec--
seleu--
sem--
sen--
sentim--
ser--
ses--
set--
sex--
seym--
sez--
sf--
sh--
sha--
she--
shi--
sho--
show--
shu--
si--
sia--
sic--
sid--
sie--
sik--
sil--
simb--
sin--
sint--
sir--
sis--
sit--
situa--
six--
sk--
ska--
sketc--
ski--
skin--
sko--
skol--
skoua--
skr--
skrid--
sku--
skuil--
sky--
sla--
slo--
sm--
sna--
sno--
so--
socio--
sol--
som--
some--
son--
sor--
sos--
sot--
sou--
soul--
sp--
spa--
spar--
spe--
spec--
spi--
spil--
splen--
spo--
spons--
spur--
squi--
sr--
ss--
st--
sta--
stad--
stan--
stao--
star--
statis--
ste--
sten--
ster--
steu--
stle--
sto--
stou--
strafuil--
stras--
stre--
stres--
stria--
strick--
stris--
stro--
stu--
stur--
sty--
su--
sua--
sub--
sud--
sue--
sui--
sul--
sun--
super--
supp--
sur--
sus--
sv--
sver--
swa--
swe--
sy--
syl--
symb--
symp--
synd--
sz--
sza--
sze--
sæ--
t--
ta--
tac--
tach--
taczanow--
tad--
tag--
tai--
tail--
tak--
taka--
tal--
tam--
tan--
tao--
taol--
tap--
tar--
taremp--
tarr--
tart--
tas--
tat--
tau--
tav--
tax--
tb--
tc--
tchet--
tchou--
te--
tea--
teau--
tec--
teir--
teix--
tek--
tel--
tele--
tem--
ten--
teo--
ter--
tertull--
tes--
teu--
tev--
th--
tha--
the--
theo--
ther--
thessalo--
thib--
tho--
thr--
thu--
ti--
tia--
tie--
tif--
til--
tim--
timo--
tin--
tio--
tip--
tir--
tis--
tit--
tl--
to--
tog--
tok--
tol--
tom--
ton--
top--
tor--
tort--
tot--
tou--
tour--
toy--
tr--
tra--
traez--
tragi--
trans--
tre--
tremb--
tres--
treu--
treus--
treuz--
trev--
tri--
tro--
trou--
tru--
truc--
try--
ts--
tt--
tu--
tud--
tur--
turk--
turn--
tus--
tv--
twe--
twi--
ty--
tz--
u--
ua--
uc--
ue--
uhel--
ui--
uk--
ul--
um--
un--
una--
und--
under--
uns--
up--
ur--
uri--
uroc--
us--
ut--
v--
va--
vac--
vad--
vag--
vak--
val--
van--
vanif--
vann--
vao--
var--
varzhin--
vas--
vat--
vau--
vauc--
vaz--
ve--
vec--
ved--
veg--
vek--
vel--
ven--
ver--
verc--
verk--
verr--
ves--
vet--
veu--
veur--
vev--
vez--
vi--
via--
vic--
vich--
vie--
vig--
vil--
villa--
vin--
vips--
vir--
vis--
vit--
viz--
vla--
vo--
voc--
voe--
voivo--
vol--
volk--
vom--
von--
vor--
vos--
vot--
vou--
voudd--
vre--
vro--
vskeu--
vu--
vul--
vulc--
vur--
vuru--
vy--
w--
wa--
wad--
wal--
wald--
wall--
wamb--
wan--
war--
was--
wat--
way--
waz--
we--
web--
wei--
wel--
welt--
wen--
wer--
west--
wetm--
whis--
whit--
wi--
wie--
wiki--
wil--
wild--
wim--
win--
wind--
winni--
wir--
wit--
witt--
wo--
wol--
wood--
wor--
word--
wu--
wy--
wydd--
x--
xant--
xe--
xi--
xl--
xx--
xxx--
y--
ya--
yan--
yar--
ye--
yehos--
yen--
yer--
yes--
yi--
ym--
yo--
yoshi--
you--
ys--
yu--
z--
za--
zac--
zamb--
zan--
zand--
zar--
zaz--
ze--
zek--
zel--
zen--
zeu--
zez--
zh--
zhu--
zi--
zia--
zie--
zilo--
zin--
zior--
ziou--
zirk--
zisk--
ziski--
ziskul--
zisp--
zisr--
ziv--
zo--
zol--
zon--
zoo--
zor--
zorn--
zou--
zrev--
zro--
zrouk--
zu--
zud--
æ--
æthel--
ð--
þ--
đ--
ı--
ə--
α--
β--
γ--
δ--
ε--
θ--
κ--
κα--
λ--
μ--
μα--
ν--
π--
πα--
πε--
πο--
ρ--
σ--
τ--
φ--
χ--
а--
б--
в--
д--
з--
и--
к--
л--
м--
ма--
н--
с--
се--
т--
ב--
ה--
י--
ا--
ال--
ب--
ع--
مح--
--0
--00
--01
--02
--03
--04
--05
--06
--07
--08
--09
--1
--10
--11
--12
--13
--14
--15
--16
--17
--18
--19
--2
--20
--21
--22
--23
--24
--26
--27
--28
--29
--3
--30
--31
--32
--33
--34
--35
--36
--38
--39
--4
--40
--41
--42
--43
--44
--46
--47
--48
--49
--5
--50
--52
--53
--54
--55
--56
--58
--59
--6
--60
--61
--62
--63
--65
--67
--68
--7
--70
--71
--72
--73
--74
--75
--76
--77
--78
--79
--8
--80
--81
--82
--83
--84
--85
--87
--88
--89
--9
--90
--91
--92
--93
--94
--95
--97
--98
--99
--a
--aa
--aal
--aan
--aar
--aas
--aat
--ab
--abad
--abe
--able
--ables
--ac
--aceus
--ach
--acio
--ack
--aco
--ad
--ada
--adas
--ade
--adeg
--adegou
--adel
--adenn
--adennin
--adennou
--ader
--ades
--adez
--adhe
--ado
--ador
--ados
--adou
--adur
--adurel
--adurezh
--aduriou
--adus
--ady
--ae
--aea
--aed
--aeg
--aek
--ael
--aen
--aennou
--aer
--aerezh
--aerien
--aet
--aez
--af
--ag
--aga
--age
--agh
--agn
--ago
--agu
--ah
--ai
--aia
--aie
--aig
--aigh
--ailh
--ain
--aine
--air
--aire
--ais
--ait
--aj
--ajou
--ak
--aki
--akia
--akr
--al
--ala
--ald
--aldi
--ale
--ales
--ali
--alis
--all
--allus
--alour
--als
--am
--ama
--amant
--amm
--an
--ana
--anan
--anc
--ance
--and
--andre
--ane
--aned
--aneg
--anek
--anes
--anet
--ani
--ania
--ank
--ann
--ano
--anos
--ans
--ant
--anus
--anza
--ao
--aos
--aou
--aoueg
--aouer
--aouet
--aouin
--ap
--apa
--ar
--ara
--arc
--arcisse
--ard
--ardo
--are
--aret
--argo
--ari
--arii
--ario
--aris
--arn
--aro
--arrevarv
--art
--aru
--arum
--arus
--ary
--as
--asa
--asse
--ast
--at
--ata
--ataer
--ataet
--atan
--ate
--ated
--ates
--ath
--ati
--ation
--ative
--ato
--aton
--ator
--atou
--ats
--atte
--atur
--ature
--atus
--au
--aud
--auda
--auer
--ault
--auni
--aupis
--aus
--aux
--av
--avia
--aw
--awa
--ax
--ay
--aya
--aye
--ayek
--az
--azi
--azzo
--b
--ba
--bach
--back
--bad
--badus
--baldo
--bar
--bb
--be
--bed
--bek
--ber
--berg
--bh
--bi
--bl
--ble
--bles
--bly
--bo
--bok
--bon
--bou
--box
--boy
--br
--bre
--briant
--bro
--bru
--bs
--bu
--burg
--burn
--bury
--bus
--by
--c
--ca
--cal
--cas
--cassini
--cat
--cca
--cchio
--cci
--ccio
--cco
--ce
--cea
--cel
--cello
--cens
--cer
--ces
--ceus
--cey
--ch
--cha
--che
--ches
--chi
--chia
--chii
--cho
--cht
--chu
--chus
--chy
--ci
--cia
--cias
--cin
--cino
--cio
--cius
--ck
--cki
--cks
--cle
--co
--col
--com
--copsis
--copus
--cou
--cq
--craft
--cs
--ct
--cta
--cte
--ctes
--ctive
--cto
--cts
--ctus
--cu
--cula
--culum
--cum
--cus
--cy
--cz
--d
--da
--dad
--dae
--dal
--dale
--dan
--dant
--das
--dberg
--dd
--ddau
--de
--ded
--deg
--dek
--del
--den
--denn
--der
--deriou
--des
--det
--dez
--dh
--di
--dia
--die
--dig
--digezh
--dii
--dil
--din
--diou
--dit
--dl
--dma
--dn
--do
--doc
--dog
--don
--donia
--dor
--dorf
--dorn
--dos
--dou
--dour
--dova
--doz
--dr
--dra
--dre
--dro
--ds
--dt
--du
--dun
--dur
--duriou
--dus
--dusta
--dwy
--dwyn
--dy
--dyn
--e
--ea
--ead
--ean
--eau
--eaux
--eb
--ec
--eca
--ech
--ecia
--eck
--ect
--ects
--ed
--eda
--edd
--ede
--eder
--edet
--edig
--edigezh
--edin
--edou
--ee
--eed
--eeg
--eek
--eer
--eet
--ef
--eg
--egan
--eged
--egel
--eger
--egez
--egezh
--egi
--egou
--egour
--eh
--ei
--eia
--eiceps
--eidae
--eien
--eier
--ein
--eion
--eira
--eis
--eit
--eiz
--ek
--ekaat
--ekadur
--ekaennou
--ekaet
--ekan
--eke
--eks
--el
--elaet
--elan
--elc
--eld
--ele
--eled
--elezh
--eli
--ell
--ella
--elle
--ellet
--elli
--ello
--ellou
--elor
--elour
--elouriezh
--em
--ema
--ement
--emo
--emon
--emos
--en
--ena
--enan
--enc
--ence
--encia
--ende
--ene
--eneg
--eng
--eni
--enis
--enn
--ennad
--ennou
--enou
--ens
--ensis
--enstein
--ent
--entez
--enthal
--enti
--ento
--enza
--eo
--eon
--eou
--ep
--ephalus
--er
--era
--ere
--ered
--erel
--erenn
--erez
--erezh
--erezhiou
--erg
--eri
--erie
--erien
--erig
--erion
--eriou
--erke
--ern
--erna
--erne
--ero
--eron
--erou
--erra
--erre
--ers
--ert
--erton
--erts
--erus
--ery
--erz
--es
--escens
--ese
--esh
--esi
--esk
--eson
--ess
--est
--et
--eta
--ete
--etek
--etes
--eth
--eti
--eto
--ets
--ett
--etta
--ette
--ettes
--etti
--etto
--etus
--etz
--eu
--eug
--euil
--eur
--eurs
--eurt
--eus
--euse
--eux
--ev
--evez
--evig
--evr
--ew
--ex
--ey
--ez
--eza
--ezas
--eze
--ezed
--ezek
--ezenn
--ezer
--ezet
--ezh
--ezhiou
--ezin
--eziou
--ezou
--ezus
--f
--fa
--fan
--fe
--feg
--fel
--feld
--fen
--fent
--fer
--ff
--ffe
--ffle
--ffordd
--fi
--fichenn
--fig
--fis
--fly
--fo
--fod
--fon
--ford
--fort
--fos
--fox
--fr
--fra
--franc
--fre
--fs
--ft
--fu
--ful
--furmin
--fyn
--g
--ga
--gad
--gal
--gan
--ganou
--gant
--gar
--garten
--garter
--gas
--gate
--gau
--ge
--ged
--geg
--gel
--gem
--gen
--geon
--ger
--ges
--get
--gez
--gezh
--gg
--ggio
--gh
--gham
--ghem
--ghen
--ght
--gi
--giezh
--gin
--gio
--gir
--git
--gl
--gn
--gna
--gnac
--gnan
--gne
--gno
--gnon
--gny
--go
--gon
--gos
--gou
--gra
--graph
--gri
--gs
--gt
--gton
--gu
--gua
--gue
--gues
--gus
--gy
--gybi
--h
--ha
--hai
--hak
--hal
--ham
--han
--has
--hau
--haud
--he
--head
--hed
--heim
--heiro
--heit
--hek
--hel
--hem
--hen
--henri
--her
--hes
--het
--heu
--hi
--hia
--hie
--hies
--hild
--hin
--hiou
--hip
--hius
--hl
--hn
--hna
--ho
--hoa
--hoe
--hog
--hon
--hos
--hou
--hr
--hra
--hs
--ht
--hte
--http
--https
--hu
--hus
--hut
--hy
--hya
--hynchus
--i
--ia
--iac
--iad
--iadeg
--iadennou
--iadez
--iadou
--iadur
--iaduriou
--iae
--iak
--ial
--iale
--iam
--ian
--iana
--ianed
--iano
--ians
--ianus
--iarth
--ias
--iat
--iata
--iataet
--iau
--iav
--ib
--iba
--ibe
--ible
--ibus
--ic
--ica
--ical
--ican
--icauda
--ice
--iceps
--ich
--ichla
--ici
--icia
--ick
--ico
--icola
--icon
--ics
--icum
--icus
--id
--ida
--idae
--ide
--ided
--ides
--idi
--idig
--idigezh
--idik
--ido
--idon
--idor
--idou
--ie
--ied
--ieg
--iegezh
--iek
--iekaat
--iel
--ien
--ienn
--ienne
--iennes
--iens
--iensis
--ient
--ier
--ierezh
--ieri
--ierien
--iers
--ies
--iet
--ieu
--ieux
--iev
--iewicz
--iez
--iezh
--iezhiou
--if
--ifer
--ifi
--ig
--igan
--ige
--iged
--igell
--igellou
--iger
--igezh
--igh
--ight
--igne
--igneg
--igny
--igou
--ih
--ii
--iin
--ij
--ija
--ijk
--ijl
--ik
--ika
--iked
--ikel
--ikenn
--ikh
--iki
--ikia
--iko
--ikon
--il
--ila
--ilda
--ile
--iler
--ilh
--ili
--ilia
--ilio
--ilis
--ilius
--illi
--illo
--ilo
--ily
--im
--ima
--iman
--ime
--imento
--imer
--imi
--imo
--imp
--imus
--in
--ina
--inae
--ind
--inda
--ine
--ined
--ines
--inet
--ing
--inga
--ings
--ington
--inha
--inho
--ini
--iniog
--inius
--inn
--ino
--ins
--int
--inum
--inus
--io
--iog
--iol
--iom
--ion
--ione
--iones
--ions
--ior
--iorum
--ios
--ioso
--iot
--iou
--ip
--ipes
--ipicus
--ique
--ir
--ira
--ire
--ires
--iri
--iro
--iros
--irs
--is
--isch
--ische
--ischen
--isches
--iscus
--ise
--ish
--isi
--isk
--ism
--isme
--ison
--issa
--isse
--ist
--ista
--iste
--istes
--ists
--isy
--isław
--it
--ita
--ite
--ited
--itek
--ites
--ith
--iti
--itia
--ities
--ition
--itis
--ito
--itor
--its
--itt
--itta
--itude
--itum
--ity
--itz
--iu
--ium
--ius
--iv
--ive
--ivel
--ivo
--ivus
--iw
--ix
--iy
--iya
--iz
--iza
--ize
--izet
--izh
--izi
--izia
--izon
--j
--ja
--je
--jean
--jent
--ji
--jk
--jn
--jo
--jod
--jont
--jou
--ju
--k
--ka
--kaat
--kaet
--kal
--kan
--kar
--ke
--ked
--keg
--kek
--kel
--ken
--kenn
--ker
--kes
--ket
--kh
--ki
--kia
--kie
--kin
--kins
--kis
--kiz
--kl
--kla
--kle
--ko
--kop
--kou
--kov
--kova
--kow
--kriv
--ks
--kt
--ku
--kus
--ky
--l
--la
--lad
--lag
--lage
--lah
--lais
--lan
--land
--lar
--las
--lash
--lau
--laus
--lav
--lay
--lb
--lba
--lc
--ld
--lda
--lde
--ldi
--ldo
--ldri
--le
--lea
--lec
--led
--leg
--lek
--len
--ler
--lerezh
--les
--less
--let
--lett
--ley
--lez
--lezh
--lf
--lh
--lho
--li
--lia
--lic
--lidon
--lie
--lier
--lii
--lin
--line
--ling
--lino
--lis
--lit
--lius
--ll
--lla
--llas
--lle
--llek
--lles
--llet
--lli
--llia
--lling
--llis
--llo
--llon
--llot
--llou
--llus
--lly
--lm
--lma
--lo
--loc
--log
--logiezh
--lon
--lone
--lop
--lor
--lornis
--los
--lot
--lotte
--lou
--lov
--ls
--lt
--lu
--luc
--lum
--lus
--ly
--lyn
--lz
--m
--ma
--man
--mann
--mant
--mar
--mark
--mat
--mb
--mba
--mbe
--mber
--mbert
--mbo
--mbon
--mbus
--me
--meg
--mek
--mel
--men
--ment
--mer
--mes
--mi
--midae
--min
--mis
--miz
--mm
--mma
--mo
--mon
--mont
--mos
--mou
--mour
--mouth
--mov
--mp
--mpa
--mpo
--mps
--ms
--mu
--mus
--my
--mys
--mz
--n
--na
--nac
--nad
--nae
--nah
--naire
--nais
--naise
--nal
--namant
--nan
--nar
--naro
--nas
--nat
--nau
--nay
--nburg
--nc
--nca
--nce
--nces
--nco
--ncourt
--ncy
--nd
--nda
--nde
--ndi
--nding
--ndo
--ndra
--ndre
--ndula
--ndus
--ne
--nea
--neau
--ned
--neg
--nek
--nel
--nelle
--nen
--nenn
--nensis
--ner
--nerien
--nes
--net
--ney
--nez
--nezia
--ng
--nga
--nge
--ngeg
--ngek
--ngen
--nger
--ngo
--ngxi
--nheim
--ni
--nia
--nian
--nic
--nicus
--nidae
--nidigezh
--nie
--nieg
--nier
--nies
--niezh
--nig
--nik
--nil
--nin
--ning
--niom
--nis
--nit
--nite
--nium
--nius
--nk
--nka
--nke
--nn
--nna
--nnad
--nnan
--nne
--nnek
--nnes
--nnet
--nnin
--nnou
--no
--nod
--nog
--nol
--non
--nor
--nos
--not
--nou
--nova
--ns
--nsa
--nse
--nsee
--nsis
--nsor
--nstein
--nt
--nta
--ntan
--ntas
--nte
--ntes
--ntez
--nti
--ntia
--ntin
--ntino
--nto
--ntris
--nts
--nu
--num
--nus
--ny
--nya
--nydd
--nz
--nza
--nzo
--o
--oa
--oat
--ober
--obi
--oc
--oca
--ock
--oco
--od
--odi
--oe
--oed
--oeg
--oek
--oer
--oet
--of
--og
--ogan
--ogiezh
--ogy
--oi
--oid
--oides
--oin
--oine
--oir
--oire
--ois
--oit
--ok
--oko
--ol
--ola
--ole
--oli
--olin
--olo
--ological
--ology
--olt
--om
--oma
--omac
--ome
--omek
--omi
--omiezh
--omo
--omp
--omus
--omy
--omys
--on
--ona
--onat
--ond
--onde
--ondo
--one
--oned
--onek
--onez
--ong
--onge
--oni
--onia
--oniel
--oniezh
--oniour
--onne
--onou
--ons
--ont
--onus
--onwy
--oo
--oon
--op
--opolis
--ops
--or
--ora
--ord
--ore
--ored
--ores
--orf
--ori
--oria
--orius
--orn
--ornis
--oro
--ors
--ort
--orum
--orus
--ory
--os
--osa
--osaurus
--ose
--osen
--oshi
--osi
--oskop
--oso
--ost
--ostris
--osus
--ot
--ota
--ote
--oth
--otte
--otti
--ou
--ouc
--oueg
--ouek
--ouin
--ouk
--oul
--oun
--our
--ourez
--ourien
--ouriezh
--ourion
--ourt
--ous
--out
--oux
--ouz
--ov
--ova
--ove
--ovic
--ovich
--ovii
--ovitch
--ovo
--ovy
--ow
--ows
--ox
--oy
--oya
--oz
--oza
--ozan
--oze
--oziou
--ozoeg
--p
--pa
--pan
--pas
--pe
--pective
--pei
--pel
--per
--perig
--pertes
--ph
--phus
--phy
--pi
--pie
--pillus
--pin
--pis
--pl
--po
--pol
--polis
--pont
--port
--ppa
--ppe
--pr
--pre
--ps
--psis
--pso
--pt
--pta
--pte
--ptes
--pton
--pu
--pus
--py
--q
--qu
--que
--r
--ra
--rad
--rada
--rado
--rae
--rah
--ral
--ralis
--ram
--ran
--rant
--raou
--ras
--rat
--rax
--ray
--rc
--rch
--rchy
--rck
--rcus
--rcy
--rd
[...]
