!
"
#
##0
##1
##10
##11
##12
##13
##14
##15
##16
##17
##18
##19
##2
##20
##21
##22
##23
##24
##25
##26
##27
##28
##29
##3
##30
##31
##32
##33
##34
##35
##36
##37
##38
##39
##4
##40
##41
##42
##43
##44
##45
##46
##47
##48
##49
##5
##50
##51
##52
##53
##54
##55
##56
##57
##58
##59
##6
##60
##61
##62
##63
##64
##65
##66
##67
##68
##69
##7
##70
##71
##72
##73
##74
##75
##76
##77
##78
##79
##8
##80
##81
##82
##83
##84
##85
##86
##87
##88
##89
##9
##90
##91
##92
##93
##94
##95
##96
##97
##98
##99
$
%
&
'
(
)
*
+
,
-
.
/
0
00
000
01
02
03
04
0488
05
06
07
08
09
1
10
100
1000
101
1016
1018
102
103
1031
1035
1038
104
1040
105
1050
106
1060
1063
1065
1066
107
1070
1072
1073
1075
108
1080
1086
1087
109
1093
1095
1098
1099
11
110
1100
111
112
1120
1125
1126
113
1130
1135
1136
1137
114
1148
115
1150
1154
1155
1156
1157
1158
116
1160
1163
1165
117
1170
1173
1179
118
1180
1181
1182
1184
1185
1186
1187
1189
119
1190
1191
1192
1194
1195
1196
1198
1199
12
120
1200
1201
1202
1203
1204
1205
1208
121
1210
1212
1213
1214
1215
1216
1217
1218
122
1220
1221
1226
123
1230
1231
1234
1237
1238
124
1240
1241
1248
125
1250
1252
126
1260
1265
1268
127
1270
1274
1275
1278
128
1280
1282
1283
1284
1285
1286
1287
129
1290
1291
1294
1295
1296
1298
13
130
1300
1302
1305
1306
1308
131
1310
1312
1314
1316
132
1320
1322
1325
1327
1328
133
1330
1333
1334
1336
1339
134
1340
1341
1342
1343
1345
1346
1347
1348
1349
135
1350
1351
1354
1355
1358
1359
136
1360
1362
1363
1364
1368
137
1370
1371
1372
1373
1374
1375
1378
1379
138
1380
1381
1382
1383
1384
1385
1386
1387
1388
1389
139
1390
1391
1392
1393
1394
1395
1396
1397
1398
1399
14
140
1400
1401
1402
1404
1405
1406
1407
1408
141
1410
1412
1413
1415
1416
1417
1418
1419
142
1420
1422
1423
1424
1425
1426
1427
1428
1429
143
1430
1431
1432
1433
1434
1435
1436
1437
1438
1439
144
1440
1441
1442
1443
1444
1445
1446
1447
1448
1449
145
1450
1451
1452
1453
1454
1455
1456
1457
1458
1459
146
1460
1461
1462
1463
1464
1465
1466
1467
1468
1469
147
1470
1471
1472
1473
1474
1475
1476
1477
1478
1479
148
1480
1481
1482
1483
1484
1485
1486
1487
1488
1489
149
1490
1491
1492
1493
1494
1495
1496
1497
1498
1499
15
150
1500
1501
1502
1503
1504
1505
1506
1507
1508
1509
151
1510
1511
1512
1513
1514
1515
1516
1517
1518
1519
152
1520
1521
1522
1523
1524
1525
1526
1527
1528
1529
153
1530
1531
1532
1533
1534
1535
1536
1537
1538
1539
154
1540
1541
1542
1543
1544
1545
1546
1547
1548
1549
155
1550
1551
1552
1553
1554
1555
1556
1557
1558
1559
156
1560
1561
1562
1563
1564
1565
1566
1567
1568
1569
157
1570
1571
1572
1573
1574
1575
1576
1577
1578
1579
158
1580
1581
1582
1583
1584
1585
1586
1587
1588
1589
159
1590
1591
1592
1593
1594
1595
1596
1597
1598
1599
16
160
1600
1601
1602
1603
1604
1605
1606
1607
1608
1609
161
1610
1611
1612
1613
1614
1615
1616
1617
1618
1619
162
1620
1621
1622
1623
1624
1625
1626
1627
1628
1629
163
1630
1631
1632
1633
1634
1635
1636
1637
1638
1639
164
1640
1641
1642
1643
1644
1645
1646
1647
1648
1649
165
1650
1651
1652
1653
1654
1655
1656
1657
1658
1659
166
1660
1661
1662
1663
1664
1665
1666
1667
1668
1669
167
1670
1671
1672
1673
1674
1675
1676
1677
1678
1679
168
1680
1681
1682
1683
1684
1685
1686
1687
1688
1689
169
1690
1691
1692
1693
1694
1695
1696
1697
1698
1699
17
170
1700
1701
1702
1703
1704
1705
1706
1707
1708
1709
171
1710
1711
1712
1713
1714
1715
1716
1717
1718
1719
172
1720
1721
1722
1723
1724
1725
1726
1727
1728
1729
173
1730
1731
1732
1733
1734
1735
1736
1737
1738
1739
174
1740
1741
1742
1743
1744
1745
1746
1747
1748
1749
175
1750
1751
1752
1753
1754
1755
1756
1757
1758
1759
176
1760
1761
1762
1763
1764
1765
1766
1767
1768
1769
177
1770
1771
1772
1773
1774
1775
1776
1777
1778
1779
178
1780
1781
1782
1783
1784
1785
1786
1787
1788
1789
179
1790
1791
1792
1793
1794
1795
1796
1797
1798
1799
18
180
1800
1801
1802
1803
1804
1805
1806
1807
1808
1809
181
1810
1811
1812
1813
1814
1815
1816
1817
1818
1819
182
1820
1821
1822
1823
1824
1825
1826
1827
1828
1829
183
1830
1831
1832
1833
1834
1835
1836
1837
1838
1839
184
1840
1841
1842
1843
1844
1845
1846
1847
1848
1849
185
1850
1851
1852
1853
1854
1855
1856
1857
1858
1859
186
1860
1861
1862
1863
1864
1865
1866
1867
1868
1869
187
1870
1871
1872
1873
1874
1875
1876
1877
1878
1879
188
1880
1881
1882
1883
1884
1885
1886
1887
1888
1889
189
1890
1891
1892
1893
1894
1895
1896
1897
1898
1899
19
190
1900
1901
1902
1903
1904
1905
1906
1907
1908
1909
191
1910
1911
1912
1913
1914
1915
1916
1917
1918
1919
192
1920
1921
1922
1923
1924
1925
1926
1927
1928
1929
193
1930
1931
1932
1933
1934
1935
1936
1937
1938
1939
194
1940
1941
1942
1943
1944
1945
1946
1947
1948
1949
195
1950
1951
1952
1953
1954
1955
1956
1957
1958
1959
196
1960
1961
1962
1963
1964
1965
1966
1967
1968
1969
197
1970
1971
1972
1973
1974
1975
1976
1977
1978
1979
198
1980
1981
1982
1983
1984
1985
1986
1987
1988
1989
199
1990
1991
1992
1993
1994
1995
1996
1997
1998
1999
2
20
200
2000
2001
2002
2003
2004
2005
2006
2007
2008
2009
201
2010
2011
2012
2013
2014
2015
2016
2017
2018
2019
202
2020
2021
2022
2023
2025
203
2030
204
205
206
207
208
209
21
210
211
212
213
214
215
216
217
218
219
22
220
221
222
223
224
225
226
227
228
229
23
230
231
232
233
234
235
236
237
238
239
24
240
241
242
243
244
245
246
247
248
249
25
250
2500
251
252
253
254
255
256
257
258
259
26
260
261
262
263
264
265
266
267
268
269
27
270
271
272
273
274
275
276
277
278
279
28
280
281
282
283
284
285
286
287
288
289
29
290
291
292
293
294
295
296
297
298
299
3
30
300
3000
301
302
303
304
305
306
307
308
309
31
310
311
312
313
314
315
316
317
318
319
32
320
321
322
323
324
325
326
327
328
329
33
330
331
332
333
334
335
336
337
338
339
34
340
341
342
343
344
345
346
347
348
349
35
350
351
352
353
354
355
356
357
358
359
36
360
361
362
363
364
365
366
367
368
369
37
370
371
372
373
374
375
376
377
378
379
38
380
381
382
383
384
385
386
387
388
389
39
390
391
392
393
394
395
396
397
398
399
4
40
400
4000
401
402
404
405
406
407
408
409
41
410
4107
411
412
413
414
415
416
417
418
419
42
420
421
422
423
424
425
426
427
428
429
43
430
431
432
434
435
437
438
439
44
440
441
443
444
445
446
447
448
45
450
451
452
453
454
455
456
457
458
459
46
460
461
462
463
464
465
468
469
47
470
471
472
473
474
475
476
477
478
479
48
480
481
482
483
484
485
486
488
49
490
491
492
495
496
497
499
5
50
500
5000
501
505
506
507
508083
509
51
510
511
512
514
515
517
518
519
52
520
521
522
523
524
525
526
527
529
53
530
532
533
534
535
536
537
538
539
54
540
541
542
545
547
548
55
550
551
552
553
555
559
56
560
565
57
570
571
58
580
582
584
585
587
59
590
6
60
600
6000
604
61
613
61525
618
62
620
626
63
630
631
632
639
64
640
65
650
66
660
67
670
674
675
68
680
685
69
690
7
70
700
705
709
71
710
711
714
715
716
718
72
720
721
725
73
730
737
738
74
740
741
742
743
749
75
750
751
752
754
756
757
758
76
760
764
768
77
770
774
775
779
78
780
781
785
786
79
790
792
794
796
798
8
80
800
803
8041
81
810
814
818
82
820
83
830
84
840
842
843
845
848
8493
85
850
850341
851
855
86
860
86843
87
870
874
876
877
88
880
882
888
89
9
90
900
901383
91
910
911
92
920
924
925
925919
93
930
931
937
939
94
940
942
95
950
96
960
962
97
970
975
978
979
98
980
987
99
992
994
996
:
;
<
=
>
?
@
[
\
]
^
_
`
a
aa
aachen
aaron
aat
ab
aba
abad
abaden
abadenn
abadennou
abadez
abaf
abaixo
abalain
abalamour
abandon
abandonet
abandonnet
abaoe
abaoue
abardae
abardaez
abarde
abarh
abars
abarz
abati
abaty
abbas
abbaye
abbe
abbeville
abbey
abc
abd
abdallah
abdias
abdo
abe
abed
abeg
abegou
abek
abel
aben
abenn
abeozen
aber
abercraf
aberedw
aberfal
aberhafesb
aberhonddu
aberhosan
aberin
aberiou
aberllynfi
aberriw
abers
aberta
abertas
abertawe
aberto
abertos
abertridwr
abertura
aberysgir
aberystwyth
aberz
aberzh
aberzhet
aberzhin
abes
abgrall
abil
abiou
abit
abjad
abjean
abl
able
abner
aboe
aboeissance
aboeissein
abominabl
abondanc
abord
abostol
abostolik
abou
aboue
about
abp
abraham
abram
abrant
abre
abred
abrege
abret
abretoc
abri
abril
abrir
abrobin
abruzzo
absalom
absolu
absolumant
absolut
absolve
absolven
absolvenn
abu
abugida
abus
ac
acade
academia
academy
accademia
access
accipiter
accipitridae
accomplissa
accomplissein
accomplisset
accord
accordein
accordet
accordi
acervo
acervos
acessi
acesso
ach
acha
achap
achard
ache
achihue
acho
achu
achuet
achui
acima
acompanhar
acordo
acqua
acquisita
acre
acredito
acrocephalus
act
acte
actes
acteu
action
actioneu
actionou
activities
actou
actualizacio
actuel
ad
ada
adal
adalec
adaleg
adalek
adam
adams
adanvet
adaozan
adaozet
adar
adare
adarre
adc
adda
addilennet
addimezas
addimezin
ade
adel
adelaid
adelaide
adelheid
adembannadur
adembannet
aden
adenn
adet
adhe
adieu
adige
adimplijet
adipiscing
adkaver
adkavet
adkavit
adkavout
adkemer
adkemeret
adkempennet
adkregin
adlakaat
adlakaet
adlan
adlavaret
adlenn
administrac
administration
admirabl
admiration
ado
adolf
adolfo
adolphe
ador
adorabl
adoration
adorazione
adore
adorein
adoret
adori
adoromp
adou
adprenet
adprennan
adrannet
adre
adren
adresse
adressi
adreuz
adria
adrian
adriana
adriano
adrien
adsav
adsavet
adsavidigezh
adsevel
adskrivet
adste
adstumm
adstummou
adtapet
adtapout
advabet
adventure
adventures
advenue
adverb
adverbel
adverbou
adversour
adversourien
advevan
advrezhonekaat
adwelet
ae
aegotheles
ael
aelez
aelia
aelius
aeneis
aent
aer
aerborzh
aered
aergelc
aerlu
aeron
aerouant
aes
aesa
aesaat
aesoc
aet
aez
aezhenn
af
afe
afen
afer
aferiou
affaire
affcom
affection
affectionou
affer
afferaou
afferiou
afferou
affinis
affliction
afflictioneu
afflictionou
affliget
affo
affær
affærieu
afghanistan
afna
afo
afon
afonso
afrez
africa
african
africanus
afrik
afrika
afrikaans
afrikan
afrikaneg
afrique
afro
afrodite
after
ag
again
against
agamemnon
agata
agatha
age
agence
agency
agenda
agent
agir
agne
agnes
agnus
agora
agostino
agosto
agre
agreabl
agricola
agrigento
agrippa
agrippina
agua
agusti
agx
ah
ahel
ahendall
aheurtet
ahez
ahmed
ahoe
ahoel
ahont
ahuel
ai
aie
ail
ailleurs
aime
aimp
ain
ainda
ainsi
aint
aio
air
aire
aires
ais
aise
aises
aisne
ait
aix
aj
ajan
aje
ajouti
ajuda
ajudar
ak
aka
akademiezh
aked
aket
aketus
aketuz
akilles
akira
akitania
akordeon
akt
akta
aktaou
aktor
aktorez
aktou
aktour
aktourez
aktourien
akuit
akuzativ
akuzativel
al
ala
alaba
alabama
alain
alam
alamagn
alaman
alamaned
alamaneg
alamanek
alamanted
alan
alanig
alanik
alaouret
alar
alarc
alarig
alaska
alb
alba
alban
albaneg
albania
albany
albatroz
albert
alberta
albertina
albertine
alberto
alberzh
albifrons
albin
albis
albom
albomou
albrecht
albret
album
albums
alburquerque
alc
alca
aldo
ale
aled
alegorienn
alegre
alejandro
aleksandr
aleksandria
aleksandrii
alema
alenc
alesant
alese
alesia
alessandria
alessandro
alex
alexander
alexandr
alexandra
alexandre
alexandria
alexis
alfe
alfonso
alfred
alfredo
alge
algeciras
algo
algonkek
algue
algum
alguma
algumas
alguns
ali
alia
alian
alias
aliaz
alice
alie
alies
aliesan
aliesoc
aliet
aliez
aliezik
aline
aliou
alis
alive
alje
aljek
aljer
aljeria
aljerian
alkool
all
alla
allah
allan
allar
allas
allaz
alle
alleluia
allemagn
allemagne
allen
allende
aller
allet
alliance
allians
allier
allmusic
allo
allomp
allon
allons
allweddol
alma
almeida
almere
alo
alone
alonso
alopecoenas
alors
aloubadeg
aloubadegou
aloubas
alouber
alouberien
aloubet
aloubidigezh
aloubin
alpes
alpha
alphonse
alpou
alre
als
alsace
also
alt
alta
altaek
alte
altenburg
alter
alterac
alto
altri
altro
alun
alunos
alusen
aluzen
aluzener
aluzenn
aluzenner
aluzennou
alves
alvokad
always
am
ama
amable
amadeo
amadeus
amalia
amalie
aman
amand
amanda
amann
amant
amar
amatour
amazon
amazona
amazonas
amazonia
amb
ambiente
ambition
ambroaz
ambrosius
ambroug
ambrouger
ambrouget
amc
amdranzitivel
amdremened
ame
amedeo
ameeun
amelia
amen
america
american
americana
amerik
amerika
amerikan
amerikaned
amerindian
amerindianed
amet
ameus
amezeg
amezegez
amezeien
amezek
amhareg
ami
amici
amico
amie
amiegez
amiens
amiet
amigos
amiral
amis
amish
amished
amitie
ammon
amon
among
amor
amore
amorre
amos
amour
amourousdet
amours
ampalaer
amparo
ampart
ampartiz
ampech
ampliar
ampoent
ampoezon
ampoezonin
amprest
amprestet
amprevan
amprevaned
amprevanetaer
amprou
amreizh
amri
amser
amsklaer
amsterdam
amstrizh
amy
amze
amzer
amzerian
amzeriou
amzeriz
amzervezh
an
ana
anadenn
anaie
anal
analysis
anaon
anaoud
anaoudegez
anaoudegezh
anaoudeguez
anaoudek
anaoun
anaout
anarkour
anas
anat
anatol
anatole
anatolia
anave
anaveet
anaveout
anavet
anavez
anavezan
anavezas
anavezaz
anaveze
anavezent
anavezer
anavezet
anavezetan
anavezetoc
anavezit
anavezomp
anavezont
anavezout
anavout
anc
ance
anche
ancien
ancienne
anciens
ancient
ancoe
ancona
ancounac
and
andalouzia
andaman
andamento
andare
anders
andersen
anderson
andon
andoniou
andorra
andou
andrade
andre
andrea
andreas
andret
andrev
andrew
andrews
andronic
anduilhenn
andur
anduret
anduri
andy
ane
anean
anehan
anehon
anei
aneirin
anemis
anemiset
aner
anes
aneval
anevaled
anevalet
anez
aneza
anezan
aneze
anezhan
anezhe
anezhi
anezho
anezi
anezo
anfin
ang
ange
angel
angela
angeles
angeli
angelina
angelo
angelus
angers
angl
anglais
angled
anglia
anglikan
anglo
angola
angolensis
angoule
angoulem
angus
anhalt
anhe
ani
anima
animal
animalbase
animals
animation
animaux
anime
anita
anjela
anjev
anjou
anjuli
anjulieu
ankara
anken
ankeniet
ankiniz
ankou
ankoua
ankouaat
ankouaet
ankoue
ankounac
ann
anna
annai
annaig
annaik
annales
annals
anne
annez
annezad
annezet
annezidi
anni
annie
anno
annonc
annual
ano
anoiou
anomp
anon
anos
another
anoudeguez
anoued
anquin
ans
ansbach
anselm
anser
ansion
ant
anta
antand
antandemant
antarktika
ante
anter
anterin
anterior
antes
anthologie
anthony
anthus
anti
antie
antier
antieramant
antifonen
antigone
antigua
antilhez
antilopenn
antioc
antioch
antiokus
antique
antiquite
anto
antoine
antoinette
anton
antoni
antonia
antonietta
antonin
antoninus
antonio
antonius
antre
antreal
antreas
antreaz
antreet
antreit
antren
antreteni
antretien
antronoz
antwerpen
anu
anual
anv
anvadur
anvas
anver
anvet
anvi
anviou
any
anything
anzao
anzav
anzavas
anzavet
ao
aoalc
aochou
aod
aodou
aogust
aogustin
aon
aonik
aorelian
aos
aosta
aostralazia
aostralia
aostralian
aostrazia
aostria
aostrian
aot
aotenn
aoter
aoteriou
aotre
aotreegezh
aotreet
aotren
aotro
aotronez
aotrou
aotrouien
aotrounet
aotrounez
aotrouniez
aotrouniezh
aou
aoualc
aoun
aounik
aour
aoutrou
aovergn
aoz
aoza
aozadur
aozaduriou
aozan
aozas
aoze
aozer
aozerien
aozet
aozour
ap
apartheid
apelles
apenas
apesar
aphia
aplicac
apo
apoiar
apoio
apollo
apollodoros
apollon
apostol
apostole
apostolet
apotiker
apparanc
apparchant
apparition
appel
apple
application
applied
apre
aprender
aprendizado
aprendizagem
apresenta
apresentac
apresentar
april
aprouet
aprovac
apud
apus
aqu
aqueles
aqui
aquila
aquitaine
aquitania
ar
ara
arab
araba
arabad
arabat
arabed
arabeg
arabek
arabia
arad
aradennad
arago
aragon
aragona
aragoneg
aral
arall
aram
aramaek
aran
araoc
araog
araogenn
araogennou
araok
araokadennou
araozan
arar
arat
arauc
arbenn
arbennigour
arbennigourien
arbennik
arbennikaet
arbois
arbre
arc
arcadia
arcadius
arch
archaeology
arche
arched
archer
archerien
archive
archives
arcisse
arco
arcu
ard
ardamez
ardameziou
ardant
arde
ardea
ardennes
ardeu
ardeur
ardivink
ardivinkou
ardou
ardro
are
area
arem
arena
ares
arezzo
argad
argadenn
argadennou
argadet
argadin
argand
argant
argarzuz
argas
argaset
argent
argentina
argenton
argerzh
argoad
argoed
argonaoted
argos
argourou
arguzenn
arguzennou
argyll
arh
arhant
ari
aria
ariadne
arianed
arica
aridennad
arie
ariel
arigrap
aristoteles
arius
arizona
ark
arkadia
arkansas
arkeologiezh
arktika
arle
arlerh
arles
arm
arman
armand
arme
armead
armee
armel
armen
armenia
armenian
armenieg
armeou
armerzh
armerzhel
armerzhour
armes
armet
armor
armorial
armorica
armorique
armou
arms
armstrong
army
arn
arnaud
arne
arnev
arnevez
arno
arnod
arnodenn
arnodennou
arnodin
arnodou
arnodskrid
arnoh
arnold
aro
aroc
arog
arok
arondisamant
arondisamantou
aroue
arouez
arouezel
arouezenn
arouezennou
arouezian
aroueziet
aroueziou
arouezius
around
arquivo
arquivos
arras
arrasate
arre
arrebeuri
arrest
arretet
arreti
arri
arrie
arrihue
arriu
arriue
arrive
arrondissements
arroud
arroudou
arru
arruas
arrue
arruet
arruo
arruout
ars
arsa
arsailh
arsav
art
arte
artemis
artemisia
artes
artez
arthur
arti
articl
article
articles
artigo
artigos
artist
artists
artizaned
artois
artropoded
arts
artur
arturo
aruba
arvar
arvarus
arver
arveran
arveret
arvern
arvest
arvesterien
arvestin
arvestou
arvez
arvor
arvorig
arvoriz
arz
arzao
arzel
arzh
arzhur
arzorn
arzou
arzour
arzourez
arzourien
arzul
arzur
as
asa
asaf
asambles
asamblez
asant
asantas
asantet
asanti
asantin
asc
ascension
ase
ash
ashley
asi
asia
asian
asie
asin
asiz
ask
askel
askell
askellek
askol
askorn
askre
asm
asp
aspadennou
assai
assam
assambl
assamble
assambles
assamblet
assamblez
assassin
asse
assemble
assembleia
assembly
assim
assinar
assiried
assis
assista
assistance
assistein
associac
associados
association
assomption
assunto
assuntos
assur
assuranc
assure
assuret
assuri
ast
asten
astenn
astennas
astennaz
astenne
astennet
astennit
asteroidenn
asti
astoure
asturianeg
asturias
asturies
asturiez
asuncio
asur
at
ata
atacama
atant
atao
atau
atav
ate
aten
atenc
atersadenn
athanaz
athe
athena
athens
ation
atividade
atividades
ativos
atiz
atlanta
atlantel
atlantic
atlantique
atlantiques
atlas
atmosferenn
ato
atoll
atom
atomek
atomic
atomou
atr
atra
atrave
atreu
atta
attack
attantion
attendant
attention
attila
atuac
atual
atualmente
atuar
au
aube
aubert
aubigny
aubin
auc
auckland
auctor
aucun
aude
audi
audio
audito
auf
aug
auge
augsburg
august
augusta
auguste
augusti
augustin
augusto
augustus
aujourd
aula
aulus
aumentar
aura
aure
aurelius
aurora
aurore
aus
auschwitz
aussi
austin
austol
australia
australian
australis
austria
aut
autant
aute
autem
auter
auteur
auto
autor
autorais
autorite
autour
autramant
autre
autres
autro
autrou
autun
autær
auvergne
aux
auxerre
auxiliar
av
ava
avad
avais
avait
aval
avalaoua
avaleu
avaliac
avaliar
avalon
avalou
avanc
avance
avank
avant
avantach
avantage
avantageu
avantaich
avantajus
avantur
avanturiou
avarice
avaricius
avat
ave
avec
avechou
aveid
aveit
avel
aveliou
avellino
aven
avengers
avenir
aventure
aventures
avenue
avere
avertissa
avertissein
avertisset
aves
avesnes
avest
aveyron
avez
avi
aviation
avibase
avichou
avie
aviel
avieler
avielou
avielour
avignon
avila
avis
aviset
aviseu
avisou
aviv
aviz
aviziou
avoalc
avocat
avoir
avon
avons
avoualac
avoue
avoultr
avoultriach
avranches
avril
avu
awalc
award
awards
away
awechou
awel
awen
awenet
axel
ay
aylward
az
azaleg
azalek
azaouez
azar
azarias
azasaet
azawad
aze
azeet
azen
azenan
azenez
azenn
azenor
azerbaidjan
azeri
azeu
azeuldi
azeulerezh
azeulet
azeulin
azez
azeza
azezan
azezas
azezaz
azezet
azezit
azginivelezh
azi
azia
aziatek
azii
aziliz
azioc
aznaout
azo
azteked
aztekek
azul
azur
azvent
b
ba
baader
baal
bab
babel
babig
babilon
baby
babylon
bac
bacchus
bach
back
bad
badajoz
badaouet
badas
badaz
bade
baden
badez
badezet
badeziant
badezin
badezour
badia
badiziant
bado
badou
badout
baduz
bae
baea
baean
baeit
baekje
baen
baeo
baeron
baez
bag
bagad
bagadou
bagan
baganed
bageal
bageer
baghdad
bagou
bah
bahamas
bahia
bahrein
bai
baianed
baie
bail
baile
bailh
bailly
bains
baiona
baja
bajenn
bak
baka
bakan
baker
bakteri
bal
bala
balaam
balafenned
balak
balamor
balamort
balamour
balan
balanc
balc
bale
baleer
baleet
baleit
balez
bali
baliou
balkaniou
balkanou
ball
ballade
ballard
ballon
baltek
baltel
baltimore
baluc
balum
bambara
bambino
bamde
bamet
ban
banal
banaleg
banco
band
banda
bande
bandenn
bandennadou
bandennou
banell
baner
bang
bangladesh
bangor
baniel
bank
banked
bankou
banks
bann
banna
bannac
bannan
banne
banneou
banner
bannet
banniel
bannielou
bannlev
bannou
banquet
bantouek
banvez
bao
baod
baol
baot
baotr
baotred
baotrez
baoue
baouez
baouezas
baoueze
baour
baourentez
baourez
bap
bapaume
baper
baptiste
bar
bara
barabolen
barados
baradoz
baraer
baran
baraou
baraouis
baras
baraz
barba
barbados
barbar
barbara
barbarossa
barbe
barbier
barbosa
barbuda
barca
barcelona
barde
bardon
bardona
bardonerien
bardoni
bardono
bardouna
bare
barea
barean
bareaz
barez
barfet
barh
bari
baris
bariz
bark
barlant
barlen
barlenn
barn
barna
barnabas
barne
barnedigez
barner
barnerien
barnes
barnet
baro
barok
baron
baroned
barouz
barquement
barr
barra
barrad
barradou
barre
barregezh
barregezhiou
barrek
barres
barrez
barreziou
barros
barrou
barry
bars
bart
barthe
barti
bartienn
bartiennou
bartolome
bartolomeo
barv
barvek
barver
barz
barzaz
barzed
barzh
barzhaz
barzhed
barzhez
barzhig
barzhoneg
barzhonegou
barzhoniezh
bas
base
based
basel
basianted
basic
basil
basion
bask
basket
basq
bass
basse
bassion
basta
bastante
bastard
bastardez
bastell
bastien
bastored
bastoret
bat
batailhon
bataille
bater
bath
batiantet
batiantæt
batman
batrom
batsford
battalion
battement
battista
battle
battlefield
battlestar
bauhaus
baum
bav
bavaria
baviou
bay
bayanet
bayard
bayern
bayeux
bayon
bayreuth
baysantet
baz
bazenn
bazennou
bazh
bazil
bazvalan
bb
bbc
bc
bd
bdg
be
bea
beac
beach
beachour
beadra
beah
beaj
beajin
beajou
beajour
beajourien
bean
bear
bearn
beast
beat
beata
beatles
beatrice
beatrix
beatriz
beau
beaucoup
beaufort
beauharnais
beaulieu
beaumont
beauper
beaurien
beaute
beautiful
beauty
beauvais
beauvoir
beaux
beb
bec
because
beck
becker
bed
beda
bedas
bedaz
bede
bedein
bedel
beden
bedenn
bedennou
beder
bedervet
bedi
bedin
bedo
bedou
bedwyr
bee
been
beet
beethoven
befe
before
beg
begad
begek
begel
begou
behai
behani
behe
beherea
behind
behini
bei
beijing
beilla
beillit
being
beini
beira
beirdd
beizanted
bek
bel
bela
belarus
belaruseg
bele
beleac
belec
beleg
beleget
beleien
belek
beler
belerined
beleyen
belfort
belgia
belgiat
belgica
belgique
beli
belize
bell
bella
bellaat
bellaing
bellay
belle
belles
bellevue
bellgargan
bello
bells
belluno
belmont
belo
beluga
belvedere
bem
bemde
bemdeiz
bemdes
bemdez
bemdeziek
bemnoz
bemp
bempet
bempvet
bemzek
ben
bena
benac
benafarroa
benag
bende
bene
benead
beneat
benedetto
benediction
benedictus
benefi
benel
benet
benevento
benfro
bengaber
bengal
bengaleg
benheres
benigen
beniget
beniguet
benin
benito
benjamin
benn
benna
bennac
bennad
bennadou
bennag
bennak
bennaket
bennan
bennett
bennhe
benniged
benniget
bennigit
benniguet
bennlec
bennoberenn
bennou
bennoz
bennozh
bennrann
benny
benoi
bens
bent
bentivoglio
benveg
benvegou
benz
beo
beoc
beorien
bep
bepred
bepret
ber
berad
berberek
berc
berde
bere
bered
beredou
berengar
berenn
berfection
berg
bergamo
berge
bergen
berger
berh
beria
bering
beriou
berkeley
berlepschi
berlin
berliner
bermen
bermet
bermission
bern
bernabo
bernard
bernardino
bernardo
berne
bernez
bernhard
bernie
berniet
bernikia
berniou
bero
berr
berra
berraat
berradur
berraet
berranv
berrbad
berre
berrien
berroc
berry
bers
bersecution
bersed
berson
bert
berta
bertele
bertha
berthe
berthou
bertin
bertrand
berv
berven
bervet
berz
berzet
berzh
berzhiou
bes
besanc
besk
besked
besketa
besketaerien
besketerien
beskont
besoin
besprezidant
besroue
bessin
best
bestel
bet
beta
bete
betec
beteg
betek
bethesda
bethleem
bethlehem
betleem
betra
better
betterabes
betty
between
betws
beu
beuet
beur
beurante
beure
beurechuin
beurerion
beuri
beurs
beurz
beus
beuz
beuzeg
beuzet
beuzid
beuzin
bev
beva
bevaat
bevan
bevans
bevar
bevare
bevarzek
bevenn
bevennet
bevennou
bevet
bevien
bevin
bevit
bevoniezh
bevoniour
bewech
beyer
beyond
bez
beza
bezan
beze
bezen
bezet
bezh
bezhin
bezhiou
bezian
beziet
bezin
beziou
bezit
bezo
bezomp
bg
bha
bhoutan
bi
bia
bian
bianca
bianchi
bibien
bibl
bible
bibliographie
biblioteca
bibliotecas
bibliothe
bibliotheke
biche
bicolor
bidi
bie
biel
biella
bien
bier
big
bigi
bign
bignas
bignat
bignaz
bigne
bigot
bihan
bihana
bihanaat
bihanan
bihanic
bihanig
bihanik
bihannan
bihannoh
bihanoc
bihue
bihuein
bihuet
bije
bik
bikaouik
biken
bikenn
bikted
bil
bilat
bilbo
bilhed
bilhedou
bili
bilingue
bill
billboard
billet
billig
billy
bilzig
bimbochet
bin
binigen
biniguet
binijen
binijenn
binijennou
binimus
biniou
binniget
binvidien
binvidigez
binvidigezh
binvidik
binviji
binviou
bio
bioc
biographie
biographique
biography
biolin
biou
biouek
biqen
biquen
bir
biramidenn
birc
bird
birdlife
birds
birmania
birmingham
birou
birthday
birvidik
birvidikaat
birviken
birviquen
bis
biscoah
biscoas
biscoaz
biskoas
biskoaz
biskoazh
bismarck
bissau
bistolenn
bistolida
bit
bithynia
bitous
bitouz
biu
biv
biz
bizach
bizantat
bizantion
bizeost
bizhier
bizied
bizier
bizkaia
bizou
bjo
bl
bla
blac
black
blackwell
blad
bladenn
bladennig
bladennou
blaen
blai
blair
blaise
blake
blakenn
blanc
blanca
blanchard
blanche
blanco
blandit
blanedenn
blank
blant
blanta
blantenn
blas
blasen
blasenn
blasphem
blavez
blavezh
blaveziou
blaz
blazet
ble
bleaz
bled
bleg
blega
blegan
blegas
blei
blein
bleinan
bleiner
bleiz
bleizi
blen
blenier
blenierien
bleniet
bleo
bleu
bleud
bleun
bleuniaoua
bleuniou
bleustrin
blev
blevek
blevenn
blez
blica
blicas
blich
blico
blicos
blige
bligeadur
bligein
blij
blijadur
blijas
blijaz
blije
blijfe
blijo
blijout
blind
bloa
bloas
bloaves
bloavez
bloavezh
bloavezhiou
bloaveziou
bloaz
bloaziek
bloaziou
bloc
blocks
blog
blois
blom
blon
blood
bloody
blot
blotviled
blouz
blouzenn
blu
blue
bluen
bluenn
blues
blun
blyth
blæ
bn
bnf
bo
boa
boan
boaniou
board
boas
boaz
boaza
boazet
boaziou
bob
bobaleon
bobby
bobl
boblad
boblan
boblou
boc
bocage
bocca
boccard
bocher
bod
bodad
bodadeg
bodadegou
bodadenn
bodadou
bodan
bodet
bodou
body
boe
boeck
boed
boell
boent
boentou
boeson
boest
boestou
boez
bog
bohemia
boi
boie
bois
bok
bokat
boke
boked
bokedou
boket
bol
bolante
bole
boled
bolero
boleyn
boli
boliserien
bolitikel
bolitikerezh
bolitikourez
bolivia
bolod
bolodou
bologna
bolonte
bolontez
bolotenn
boltred
bolz
bolzano
bom
bombard
bombezadeg
bombezadegou
bombezennou
bombezet
bomm
bommou
bon
bona
bonaparte
bonavantur
bond
boned
bonedou
bonet
boneur
bongo
bonheur
bonifas
bonito
bonjour
bonn
bonne
bonnet
bonnets
bonnie
bonreizh
bonreizhel
bons
bont
book
books
boophis
bopl
bor
borbo
borbone
borc
bord
borderie
borghese
borgia
borgn
borgo
boris
borja
born
borneo
bortugal
borz
borzh
bos
bosch
bosenn
bosneg
bosnia
bost
boston
bosvenegh
bot
botez
both
boto
botou
botred
botrel
botswana
botticelli
bou
bouc
bouche
boucher
bouches
bouchig
boud
bouda
boudou
boue
boued
bouet
boueta
bouez
bouezan
bouezusan
bouille
bouillet
bouillon
boul
boulc
boule
boull
boulogne
boulomig
boulou
boultren
boulvriag
bounner
bount
bountan
bountet
bour
bourbon
bourc
bourchas
bourdel
bourdou
boureviet
bourg
bourgault
bourgeois
bourges
bourgogn
bourgogne
bourien
bourk
bourmen
bourreo
bourrevet
bourz
bourzh
bout
boutan
boutet
boutin
boutou
bouvier
bouvoe
bouzar
bouzellou
bowie
box
boy
boys
boz
bozen
bpitch
br
bra
brabant
brad
bradbury
bradford
bradley
braga
braganc
bragou
brain
brall
brallan
bramm
bran
branca
branco
brancou
brandenburg
brandt
branduardi
branellec
brank
brankou
brann
brao
braoa
braoued
bras
brasa
brasaat
brasaet
brasan
brasi
brasil
brasileira
brasileiras
brasileiro
brasileiros
brasoc
brassa
brassan
brasset
brassoc
brassoh
bratica
bratiquein
brau
braunschweig
brav
brava
bravaat
bravan
brave
braventez
bravig
bravigou
bravo
bravoc
bray
braz
brazez
brazil
brazilian
braziliat
bre
breac
break
brean
brec
bred
brede
breder
brederourien
brederouriezh
brehant
brein
breiz
breizad
breizh
breizhad
breizhat
breizhek
breizhveurat
breizhveuriat
breiziz
brel
brelevenez
brema
bremai
bremaik
breman
bremen
bren
brena
brenan
brenas
brendan
brenestr
brenin
brenn
brennos
brepar
breparation
breparein
brepari
bres
bresanc
bresant
bresanti
brescia
bresel
breset
bresk
bresse
brest
brestiz
bret
bretagne
breton
bretoned
bretonne
bretonnes
bretons
bretteville
breu
breudeur
breuil
breujou
breur
breuriez
breuriezh
breutaer
breve
breved
brevet
brevez
brevirostris
brez
breze
brezeg
brezegaz
brezege
brezegen
brezegenn
brezegennou
brezek
brezel
brezelin
brezeliou
brezeller
brezelour
brezelourien
brezhon
brezhoned
brezhoneg
brezhonegan
brezhoneger
brezhonegerien
brezhonek
brezhonekaat
brezhonekaet
brezidant
brezonec
brezoneg
brezonek
brezoneq
brezonnec
brezounek
brgm
bri
brian
briand
briant
brianza
briata
brid
bridge
brie
bried
briedelez
briedelezh
brief
brieg
briek
brientin
briet
brieuc
brigade
brigadenn
brigadier
brigitte
brikennou
brill
brin
brincet
brini
brinsed
brinsez
bris
brisson
bristol
britain
britannia
britanniae
britannica
british
brito
brittany
briva
briz
brize
brizh
brizonerien
brizonidi
brizoun
bro
broad
broadel
broadelour
broadelourien
broadelouriezh
broadou
broadway
broc
brodu
broduin
brofe
brofeded
brofeted
brogarour
broi
broio
broiou
brokus
bromesa
bromessa
bromet
bron
bronllys
bronn
bronneg
bronneged
bronnou
brononc
bronte
bronze
brookhaven
brooklyn
bropheted
bropos
bros
brosez
brosezat
brotestant
brotestanted
brotestantiezh
brother
brothers
broud
broudan
broudet
broudig
brouscon
brovidanc
brovidance
brovin
brown
broz
bru
bruce
bruched
brud
brudan
brudanc
bruderezh
brudet
brudeta
brudetan
brudetoc
brueghel
brug
brugge
bruit
brume
brun
brunei
bruno
brunswick
brusel
brusk
brussels
brut
brutal
brutus
bruxelles
bruz
bruzunet
bryan
brycheiniog
brydydd
bryn
bs
bu
buan
buana
buanan
buane
buanoc
buas
bubo
bud
budapest
budjed
bue
buena
buenos
bues
buez
buffalo
bug
bugale
bugaleach
bugaleaj
bugaligou
bugeildy
bugel
bugelig
bugelik
buguel
bugul
bugulion
buhan
buhanoc
buhe
buhez
buhezek
buheziou
buhezskrid
building
builh
buissanc
buissance
buissant
bulgar
bulgareg
bulgaria
bull
bulletin
bun
bundle
bunel
bunition
bunker
buoc
buon
buonaparte
bur
bureau
burete
burev
bureviou
burgos
burkina
burmek
burns
burroughs
burton
burtæt
burundi
buruteller
burutellet
burzhud
burzhudou
burzhudus
burzud
burzudou
burzudus
burzuduz
bus
busca
buscar
bush
business
but
bute
buteo
butler
butun
buzhug
buzhugenn
buzhugennin
bwe
bwv
by
byron
bzh
bø
bœlek
bɑ
bɔ
bɛ
c
ca
cabanis
cabec
cabiten
cablus
cabo
cac
cachoeira
cada
cadell
cadiou
cadwaladr
cae
caen
caer
caera
caerdydd
caereinion
caerfyrddin
caernarfon
caersw
caesar
caesariensis
cafe
cahiers
cai
cair
caius
calabria
calais
caldero
cale
calendriers
calet
calidris
california
caligula
call
called
callithrix
calon
calonou
cals
calvados
calvar
calvez
calvin
calz
cam
cambrai
cambre
cambridge
came
cameron
camilla
camille
camp
campagne
campaign
campania
campbell
campephilus
campethera
campo
campobasso
campos
campus
camus
can
cana
canada
canadian
canal
canan
canclaux
cand
candidatos
cane
canet
cani
canis
cannes
cannot
canolfan
canon
cant
canta
cantal
canterbury
cantic
canticou
canto
canton
cantons
cantref
canu
caol
caout
cap
capabl
capable
capacidade
capacitac
cape
capel
capensis
capet
capi
capitaine
capital
capo
caprimulgus
captac
captain
car
cara
caracalla
caracas
caracte
caradog
carante
carantes
carantez
carantezus
caravaggio
cardiff
cardinal
cardoso
care
carein
caret
carg
carga
carget
carguet
carhaix
caridad
carit
carl
carla
carlisle
carlo
carlos
carlota
carmel
carmen
carne
carnet
carno
caro
carol
carolina
caroline
carout
carpodacus
carrara
carre
carroll
carta
carte
carter
carvalho
cas
casa
case
caserta
caset
cash
casi
caso
casos
cass
casse
casset
cassine
cassini
cassius
cassoni
cast
castan
castel
castell
castello
castelnuovo
castelo
castelobrancomsg
casterman
castiglione
castilla
castillo
castle
castro
cat
catala
catalana
catalina
catalisador
catalogue
catalunya
catania
catanzaro
catarina
cate
catechis
categorie
caterina
catharina
catherine
catholic
catholiq
catholique
cato
cauchon
caumont
caus
causa
cause
cavalier
cavallo
cavan
cave
caver
cavet
cavoue
caxton
caz
cazi
cb
cbs
cc
cd
cda
cdn
cdu
ce
ceann
cecilia
cedewain
cegidfa
ceiriog
cela
celebri
celestiel
celeus
celia
celle
celles
celt
celtes
celtic
celtica
celtique
celtiques
celui
cemais
cembre
cemeteries
cemetery
cena
cench
cenedlaethol
census
cent
center
cento
central
centre
centro
centropus
century
ceolwulf
cerca
cerdanya
cerdic
ceredigion
ceres
cerf
ceri
cerro
certen
certenamant
certo
certæn
cervantes
ces
cesar
cesare
cess
cesse
cet
cette
cetu
ceuta
ceux
cezar
cf
ch
cha
chab
chabist
chabistr
chacha
chaco
chaden
chadenn
chadennet
chadennou
chagrin
chai
chair
chal
chalet
chall
challenge
chalon
chaloni
chalonied
chamant
chamantou
chambord
chambre
champ
champagn
champagne
champion
champs
chan
chance
chandelour
chang
change
changein
chann
channel
chans
chanson
chansons
chant
chantal
chante
chanter
chants
chanz
chaokat
chaoser
chap
chape
chapel
chapeled
chapelet
chapeliou
chapelle
chapistr
chapistre
chapman
chapter
chapters
chaque
charadriiformes
charadrius
charente
charge
charitabl
charite
charleroi
charles
charleston
charlez
charlie
charlo
charlotta
charlotte
charlottenburg
chart
chartres
chas
chase
chaseal
chaseer
chaseour
chaseourien
chass
chasse
chasseal
chast
chastete
chat
chatal
chateaubriand
chatham
chaumont
che
chef
cheg
chegar
chelaou
chelette
cheleu
cheleue
cheleuet
chemical
chemin
chemins
chemistry
chen
chench
chenchet
chenn
chennou
chentil
cher
cherbourg
chercher
cherry
chervige
chervigein
cherviget
cheshire
chess
chessgames
chester
chet
chetu
chetui
cheun
cheval
chevalier
chez
chi
chiara
chicago
chico
chief
chien
chiesa
chieti
chihuahua
chilaou
chilaouet
child
children
chile
chileat
chili
chimie
chin
china
chine
chinese
chinon
chirac
chistr
chiz
chloe
cho
choas
choaset
choaz
choazet
chod
choe
chokolad
cholori
chom
chomadenn
choman
chomas
chomaz
chome
choment
chomet
chomfe
chomit
chomje
chomjont
chomlec
chomm
chommas
chomme
chommet
chomo
chomont
chon
chonge
chongeal
chonget
chongeu
chonj
chonjal
chopinad
chose
chou
chouan
chouanted
chouantet
choug
choui
chouk
choum
choumaz
choume
choumet
choumit
choumo
choæge
chr
chre
chris
christ
christe
christen
christenien
christi
christian
christiane
christina
christine
christmas
christoph
christophe
christopher
christum
chronicle
chronicles
chronique
chroniques
chronologie
chrouist
chrysocolaptes
chu
chubut
chuck
chug
chupenn
church
churchill
chute
ci
cia
cial
ciarrai
cias
cicero
ciconiiformes
cid
cidade
cidades
cie
ciel
cielo
cienti
cil
cile
cilicia
cill
cilmeri
cima
cinco
cine
cinema
cinerea
cinereus
cinnamomeus
cinnyris
cinq
cio
cios
circa
circoncision
circonstanc
circonstanceu
circus
cisticola
cit
cita
cite
cities
citta
city
ciudad
cius
civil
civiles
civilisation
civitas
ck
cke
cken
cla
clair
claire
clan
clanv
clara
clare
clarendon
clark
clarke
claro
clas
clasc
clask
clasq
clasquet
class
classe
classic
classical
classics
classification
claude
claudia
claudine
claudio
claudius
cle
clear
cleirwy
cleiz
clemens
clemente
cleo
clerc
clerge
clermont
cles
cleue
cleuet
cleveland
clevet
clevit
clewet
clint
clinton
clique
cloar
cloarec
clochers
cloe
close
cloud
clovis
club
clut
clwyd
clyde
cm
cnica
cnicas
cnn
cnrs
cnwclas
co
coal
coant
coat
coburg
coch
cochran
coco
code
coe
coed
coenraad
coeur
coeza
cohen
coimbra
coin
coisa
coisas
col
cola
colaborac
colaboradores
colaborar
colaborativa
colaborativas
colaborativo
colaptes
cold
cole
colec
coler
coletiva
coletivos
colette
colibri
coligny
colin
coll
collaris
colle
collection
college
collet
collier
collins
colloque
colo
colocar
colombia
colonel
colonia
colonna
color
colorado
columba
columbia
columbidae
columbus
com
combat
come
comec
comenta
comes
cometet
comic
comics
coming
comite
commanc
commance
commancet
command
commandet
comme
commedia
commence
comment
commerce
commette
commins
commission
committee
commodus
common
commons
commonwealth
commun
communaute
commune
communes
communia
communication
communiein
communion
communique
communist
community
como
compagnie
compagnoneah
compagnunez
companion
company
compare
compartilhamento
compartilhar
comple
complete
complidou
compose
composet
compositions
compostela
compre
comprehensive
compren
comprenein
comprenet
computer
coms
comset
comsou
comte
comum
comunicac
comunidade
comunidades
comunista
comunita
comz
comzet
comzou
con
conan
conceic
conceito
concepcio
concert
concevet
conchbooks
conchobar
concil
concise
concolor
concordia
concordo
concurso
condannet
condaonet
conde
condic
condita
condition
condottiero
condui
confe
confere
conference
confession
confia
confianc
confiance
conforme
confusion
congre
congress
congresso
conhecer
conhecimento
conhecimentos
conjunto
connacht
connai
connecticut
connor
connu
conque
conquest
conrad
consacret
consectetur
conseguir
conseil
conselho
consenso
consequat
conservation
conservet
conservi
conside
consideret
consideri
considerit
considine
consolant
consolation
consolet
constance
constans
constant
constantin
constantine
constantinus
constantius
constanza
constitution
construc
construction
construir
consulta
consultet
cont
conta
contant
contar
contas
contato
contatos
conte
contemporary
content
contenu
contes
contet
conteu
contexto
conti
continental
continuar
continue
continuel
contra
contre
contrel
contribui
contribuic
contribuir
control
controle
convenabl
convention
conversa
conversation
conversations
conversion
convertisset
convidados
conwy
conz
conze
conzet
conzeu
cook
coop
cooper
cooperac
coordenac
copa
cor
cora
corazo
corde
core
corentin
corf
corfmat
corfou
corn
corneille
cornelius
cornish
cornouaille
cornouailles
cornwall
corona
coronatus
coronavirus
corpo
corporation
corporel
corps
corpus
corre
correspondance
corrompet
corse
corsica
corte
cortes
corun
corv
corvus
cos
cosa
cose
cosimo
costa
costanza
coste
costez
cou
coue
couent
coueza
couezet
could
couls
coulz
council
count
country
county
coup
coupabl
coupe
coups
cour
courach
courage
couraich
courajus
cource
courcy
courrier
cours
course
court
couscoude
cousgoude
cousket
cousquet
coustet
coutant
couverte
covid
cowries
coz
crac
crai
craig
cranach
crapart
cras
crassirostris
crassus
crazy
crbc
crc
cre
create
creation
creative
creator
crec
creche
crede
credein
credet
credi
credit
credo
creek
cregi
creis
creiz
cremona
cren
cresqui
cresse
cret
creuse
cri
criac
criada
crial
criando
criar
cribrarula
cridi
crie
crihue
crime
crimes
criminal
criminel
cris
cristata
cristatus
cristina
cristo
crit
crite
critique
criz
cro
croaidur
croas
croce
croe
crog
croget
croix
cromwell
crosby
cross
crouadur
croue
crouet
crown
croy
crucifiet
crucywel
cruel
crusoe
cruz
cry
cræce
cs
ctor
cu
cuando
cuatro
cuba
cue
cuhet
cui
cuit
culhwch
culo
culos
culpa
cultura
culturais
cultural
culture
culturel
cum
cumberland
cumbria
cumprir
cunduet
cundui
cuneo
cunha
cuore
cup
cura
cure
curie
curso
cursos
curtis
curunet
cusio
custo
custos
custum
cut
cuzet
cwm
cwmwd
cy
cymdeithas
cymraeg
cymru
cynan
cynical
cynog
cynon
cyornis
cypraea
cypraeidae
cypraeovula
cyr
cyril
cœli
cœur
d
da
daboulin
dac
dach
dachen
dachenn
dachennad
dachennou
dacia
dad
dada
dado
dados
dadou
dae
dael
daelou
daer
daero
daerou
daet
dafar
dafydd
dag
dagadenn
dagan
dagobert
dahomey
dai
daibrein
daik
daily
dakar
dakenn
dakota
dal
dalai
dalan
dalbenn
dalc
dale
dalean
daleet
dalet
dalh
dalhet
dali
dalif
dalit
dall
dalla
dallas
dalledigueah
dallentez
dallet
dalmatia
dalv
dalve
dalvez
dalvezas
dalveze
dalvezfe
dalvezo
dalvezont
dalvezout
dalvoudegez
dalvoudegezh
dam
dama
damall
damalle
damant
damas
damask
damc
damdost
dame
dames
damhen
damian
damien
damkaniezh
damm
dammig
dammou
damvarv
dan
dana
danat
danav
danc
dance
dane
daned
daneg
danek
danevell
daneveller
danevellet
danevellou
dange
danger
dangerus
danie
daniel
danilo
danjer
danmark
dann
danne
dannet
danny
dans
dansal
danse
danses
dansou
dant
dante
dantec
dantek
dantelez
danuvios
danva
danvad
danve
danvez
danvezel
danveziou
dao
daoegezh
daofin
daol
daolas
daolaz
daole
daolen
daolenn
daolennou
daoler
daolet
daoliou
daolo
daon
daonet
daou
daouad
daouarn
daoubleget
daouder
daoulagad
daoulagat
daoulamm
daoulaz
daoulin
daoulinet
daoust
daouze
daouzec
daouzeg
daouzek
daouzekved
daouzekvet
dap
dapas
dapout
daqui
dar
daravat
darbet
darc
dard
dare
darempred
darempredet
darempredin
darempredou
dareu
darev
darevin
dargaud
dargreiz
dario
darius
dark
darkness
darmstadt
darn
darnou
darnvuia
darthur
darvoud
darvoudou
darwin
darz
darzh
darzhadenn
darzhan
darzhas
das
daskirier
daskoret
dasorc
dasparzh
dasparzhan
dasparzhet
daspre
dasson
dastum
dastumad
dastumadeg
dastumadenn
dastumadou
dastumer
dastumet
dat
data
database
date
dau
daughter
daul
daulen
dault
dauzat
dav
davantage
davarn
dave
daved
daveou
davet
davetan
david
davies
davis
davit
dawn
day
days
daz
dazont
dazorc
db
dc
dd
ddew
ddinbych
ddr
ddu
de
dea
deac
dead
dean
dear
deas
death
deaz
debate
debates
debauvais
debauve
debr
debrer
debrerien
debret
debri
debrin
debrit
dec
december
dechou
decisa
deciso
decvet
ded
dedennet
dedennus
dedi
dediet
dee
deep
defaut
defauteu
defautou
defe
defense
deffe
definic
definir
defo
defoa
defoe
defynnog
deg
degadou
degas
degaset
degemer
degemeret
degli
degouezet
degouezh
degouezhet
degouezhiou
degouezhout
degre
dehai
dehe
deheubarth
dehi
dehon
dehou
dehue
dehuehan
dei
deign
deil
dein
deio
deiou
deir
deira
deirvet
deis
deisiou
deit
deixa
deixar
deiz
deiziad
deiziadou
deiziadur
deiziou
deizlevr
deja
dek
deknologiezh
dekred
dekved
dekvet
del
dela
delannoy
delaporte
delaware
delc
delcourt
dele
delen
delenn
deles
delfi
delfin
delhi
deliaoua
delie
delien
delienn
deliet
deliou
delivret
dell
della
delle
dellezek
delphine
dels
delt
delta
delwenn
delwennou
dem
demad
demais
demande
demat
demb
demdost
dememes
demeuranc
demeus
demeuz
demezel
demezell
demezet
demi
demo
democracy
demokrat
demokratel
demokratelezh
demp
dempl
demptasion
den
dendrocopos
dendropicos
denel
denelezh
dener
denez
denis
denise
denjentil
denn
denna
dennan
dennas
dennaz
denne
denner
dennet
dennis
dennit
denno
dennou
denoe
dent
dentasion
dentation
dentationou
denti
dentro
denvalijen
denved
denvet
denzor
deo
deoai
deoc
deod
deog
deoh
deol
deomp
deorienn
deos
deou
deourn
departamant
departamantou
department
depois
depovere
depuis
depute
deputeed
der
derby
derc
dere
deread
dereat
derez
dereziou
derhel
dermen
dernie
dernier
dero
deroet
derou
derri
derrien
derrin
derv
derven
dervenn
dervez
derveziou
derzhienn
derzien
derzienn
des
desachet
desafio
desafios
desavet
desconfere
descric
desde
desedet
desenvolver
desenvolvimento
desert
deserz
desevel
deshayes
design
desinformac
desir
desire
desirein
desiret
desirieu
desirou
desirout
desk
deskadurez
deskadurezh
deskard
desket
deski
deskin
deskit
deskrivadur
deskrivan
deskrivet
desped
despet
desquet
dessa
dessas
dessau
desse
dessein
desses
dessin
dessus
dest
desta
destamant
deste
desteni
destenn
destinet
destou
destum
destumet
det
detalhes
detroit
deu
deuas
deuaz
deud
deue
deuet
deufe
deui
deuio
deuit
deuje
deulegad
deulegat
deuler
deulin
deum
deun
deuont
deur
deurel
deus
deusto
deustou
deut
deutsch
deutsche
deutschen
deutscher
deutschland
deux
deuxie
deuy
deuz
dev
devai
devaligen
devalijen
devanagari
devant
deve
devehai
devehe
devel
development
devem
devemos
devenir
dever
devera
deveret
deveria
deveriou
deves
devet
deveus
deveuz
devez
devezai
deveze
devezh
devezhiou
deveziou
devezo
devi
devije
devil
devin
devize
devo
devoa
devod
devoe
devon
devosion
devot
devotamant
devotion
devou
devoue
devout
devri
devy
deværieu
dewi
dez
deza
dezan
deze
dezembro
dezenn
dezert
dezerzh
dezhan
dezhe
dezhi
dezho
dezi
dezir
dezo
dezougen
dezrevell
df
dh
dhe
dhraked
di
dia
diabars
diabarz
diabarzh
diable
diablo
diadren
diaes
diaesoc
diaesteriou
diagent
diagon
diaguent
diakritek
dial
dialecte
diam
diamant
diamantou
diana
dianav
dianavezet
diane
dianket
dianv
dianveaz
diaoul
diaouled
diaoulou
diar
diaraoc
diaraog
diaraok
diarbenn
diarc
diarvar
dias
diasur
diaul
diavaez
diave
diaveaz
diavez
diavis
diavolo
diaz
diazad
diaze
diazez
diazezadur
diazezan
diazezer
diazezerien
diazezet
diazezou
diazlec
dibab
dibabet
dibad
dibaot
dibaouez
dibar
dibe
dibec
dibenn
dibenna
dibennet
dibennou
diberc
diblaset
diboan
diboell
dibosupl
dibourc
dibr
dibreder
dibri
dibunan
dibunet
dic
dica
dicaeum
diccionario
dice
dichek
diciona
dick
dickens
dico
dicrurus
diction
dictionary
dictionnaire
dictum
did
dida
didaer
didalve
didalvez
didalvoud
didamall
didamallet
didan
dide
dider
didier
didrec
didrevadennin
didro
didroc
didrous
didrouz
didrue
didruez
didu
didud
die
diechu
died
dieeun
diegez
diegezh
diegi
diego
diegui
diehan
dielfennadur
dielfennan
dielfennet
diell
diellaoueg
diellet
diellou
diembann
dien
dienez
dienn
dierniezh
dies
dietrich
dieu
dieub
dieubet
dieubidigezh
dieubin
dieux
dievez
diez
dif
difazi
difeiz
difen
difenn
difenner
difennerien
difennet
difennou
difennour
diferenc
diferente
diferentes
difetis
diffe
differant
different
difficulte
difi
dificuldade
dificuldades
difin
diforc
diframmet
difusa
dig
diga
digabestr
digacet
digalon
digaloun
digan
digand
diganen
diganeoc
diganeomp
diganez
diganin
diganit
digant
diganta
digantan
digante
diganthan
diganthi
digantho
diganti
diganto
digar
digare
digarez
digas
digasaz
digaset
digasit
digass
digasset
dige
digemer
digemeraz
digemeret
digemm
digenvez
digeri
digerin
digez
digitais
digital
digitalizac
digitized
diglok
dign
digne
digo
digoll
digompez
digor
digoradur
digoret
digorit
digorret
digoue
digoueet
digouet
digouezet
digouezout
digoust
digresk
digresket
digreskin
digristen
digueneoc
digueor
digwe
digwener
dihellou
dihen
dihoal
dihoallet
dihue
dihuennet
dihun
dihunamb
dihunet
dihunin
dija
dije
dijentil
dijon
dijuni
dik
diktatour
diktatouriezh
dil
dilabour
dilamet
dilavar
dile
dilec
dilenn
dilennadeg
dilennadegou
dilenner
dilennerez
dilennet
dilennidi
dilentan
dilerc
dilestradeg
dilestran
dileuriad
dileuridi
dilez
dilezel
dilezet
dilhad
dilivra
dilivret
dillad
dillat
dillo
dilojan
dilost
dilouzan
diluch
dilun
dimanche
dime
dimerc
dimet
dimeus
dimeuz
dimezel
dimezell
dimezelled
dimezet
dimezi
dimezin
dimeziou
dimi
dimizi
dimiziou
dimp
din
dina
dinac
dinam
dinamm
dinan
dinaou
dinarzh
dinas
dinatur
dinbych
dinda
dindan
dindanan
dindani
dine
dinec
dinedin
diner
dinerz
dinerzet
dinerzh
dinerzhan
dinheiro
diniver
dinn
dinosaored
dint
dio
dioc
dioce
diocletianus
diod
diodoros
diofisiel
dioklesian
dion
dionysos
diorren
diorroadur
diorroet
dios
diot
diou
dioual
diouall
diouallet
diouallit
diouaskel
diouc
dioud
diouelian
dioueliet
diouennan
diouer
dioueret
diougan
diouganer
diouganet
diouganou
dious
diouscouarn
diouskoaz
diouskouarn
dioustu
diout
diouta
dioutan
dioute
diouthan
diouthi
dioutho
diouti
diouto
diouz
diouzh
diouzhtu
diouzin
diouzoc
diouzomp
dipitet
diplom
diplomat
diplomatiezh
diplomet
dir
dira
dirac
dirag
dirak
dirakan
dirake
diraz
diraza
dirazan
dirazhan
dirazhi
dirazho
dirazi
dirazo
dirazoc
dirazomp
dirazon
dirazoun
dire
direbech
direct
directeur
direction
director
directors
directour
diredet
diredig
direglet
direito
direitos
direiz
direizh
direnk
direol
diresis
diretamente
diretor
diri
diriad
diroll
dirollet
dis
disadorn
disait
disc
discar
discaret
disciple
disciplina
discleria
discleriet
disco
discoe
discoein
discoeit
discours
discoverers
discovery
discussa
discussion
discusso
discutir
disec
disent
disentez
disesper
disfiz
dishe
dishen
dishenvel
disheol
dishonest
dishual
dishualded
disi
disivoud
diskabel
diskan
diskar
diskaramzer
diskaret
diskarg
diskarget
disken
diskenn
diskennad
diskennet
diskennidi
diskennit
disket
diski
diskian
diskiant
diskib
diskibien
diskibl
diskibled
diskiblien
diskle
diskleria
diskleriadur
disklerian
diskleriet
diskoe
diskolian
diskouarn
diskoue
diskouez
diskouezadeg
diskouezadegou
diskouezet
diskouezit
diskoulm
diskoulman
diskred
diskregin
diskriverien
diskrivet
diskroc
diskrog
diskuez
diskuezet
diskuillet
diskuiz
diskuiza
diskuizh
diskuizhan
diskuliadur
diskulian
diskuliet
diskwel
dislavar
dislavaret
disle
disleal
dislealded
disman
dismantr
dismantret
dismantrou
disme
dismegan
dismegans
dismeganz
disney
disoc
dison
dispac
dispak
dispakan
dispaket
dispar
disparti
dispartia
dispartian
dispartiet
dispenn
dispennet
dispign
dispignet
dispignou
dispis
displaystyle
disple
displeg
displega
displegadenn
displegadennou
displegadur
displegaduriou
displegan
displeget
displijadur
displijet
displijout
displijus
disponi
dispont
disposet
disposition
dispositioneu
dispositionou
dispredet
dispriget
disprijet
disprisance
disprisein
dispriset
dispriz
disprizet
disput
disque
disquein
disquennet
disquet
disquez
disqui
disrann
disrannet
disse
disseminac
disso
dissul
distabil
distag
distaga
distagadur
distagan
distaget
distamman
distaol
distaolet
distaoliadeg
diste
dister
distera
disteran
disterik
disteroc
disterra
disto
distol
distolet
distrei
distrein
distribui
distribuic
distribution
district
distrig
distrigou
distro
distroadet
distroein
distroet
distroi
distroit
distruj
distruja
distrujan
distrujet
distrujou
disul
dit
ditation
dite
diteur
dition
ditions
ditl
dito
ditourou
diu
diuzet
div
divac
divalav
divalo
divar
divarben
divarbenn
divarc
divarrek
divarvel
divaskell
divc
dive
divec
divelfenneged
divellkeineged
divent
divergont
diversas
diversidade
diversity
diversos
dives
divesker
divez
diveza
divezad
divezan
divezat
divezatoc
divhar
divi
diviche
divije
divin
divinite
divinour
division
diviz
divizet
divizion
divizou
divizout
divlam
divoal
divoas
divodet
divouezh
divoutin
divreac
divrec
divro
divroad
divroan
divroet
divroidi
divskoaz
divskouarn
divugel
divulgac
divulgar
divy
divyezhek
diw
diwall
diwaller
diwallet
diwallit
diwan
diwanet
diwar
diwarbenn
diwarnan
diwarni
diwarno
diwean
diweuz
diwez
diweza
diwezat
diwezatoc
diwezh
diwezhan
diwezhat
diwezhatoc
diwisk
diwiskan
diwisket
dix
dixit
diz
dizalc
dizale
dizanv
dizaon
dize
dizec
dizehan
dizemglev
dizenor
dizent
dizer
dizereat
dizesk
dizesper
dizh
dizhas
dizhout
dizimez
dizimezin
dizionario
dizoan
dizoare
dizober
dizolein
dizolo
dizoloadenn
dizoloet
dizouar
dizoue
dizoursi
dizrei
dizro
dizursiou
dizurz
dizurzh
diæz
dj
djibouti
djvu
dle
dlea
dlead
dlean
dleann
dlee
dleer
dleet
dlefe
dleit
dleomp
dleont
dleour
dleourien
dleout
dlie
dlient
do
doa
doac
doai
doan
doaniet
doar
doare
doareou
dobe
dober
doc
docteur
doctor
doctored
doctoret
doctrin
documentac
documento
documentos
documents
dodenn
dodennou
doe
doen
doenn
does
dog
dogan
doh
dohemb
dohoh
doi
dois
doit
dok
doktor
doktored
doktorelezh
dol
dolanog
dolau
dollar
dolor
dolores
dolz
dom
domage
domani
domaniou
domb
domder
domenico
domi
domine
domingo
domini
dominica
dominik
dominikan
dominikaned
dominique
domino
dominum
dominus
domitianus
domm
domma
domman
domp
domremy
domusaurea
don
dona
donald
donan
donatien
donc
dond
donder
done
donedigez
donedigezh
donediguez
donemat
donenn
donet
donezon
donezonet
donezonou
donezoun
dong
doniou
donn
donna
donne
donner
donnet
donoc
donostia
donovan
dont
donvor
donæson
donæzon
door
doors
dor
dora
dordogne
dore
dorfed
dorfedourien
dorgenn
doriou
doris
dorn
dornad
dornan
dornet
dornlevr
dornskrid
dornskridou
dorojou
dorothea
dorothy
dorr
dorras
dorraz
dorset
dorz
dorzh
dos
dosenn
dost
dosta
dostaas
dostaat
dostaaz
dostae
dostan
dosteas
dot
dottin
dou
douar
douaran
douard
douarel
douaret
douarnenez
douaroniel
douaroniezh
douaroniour
douarou
doubl
double
doubs
douc
douce
douch
doud
doue
doueed
doueel
doueez
doueezed
doueoniezh
doueoniour
doueou
douet
douetan
douetans
douez
doug
douge
dougeance
dougein
dougen
dougenn
douger
dougerez
douget
douglas
douguein
douguen
douguet
doui
douj
douja
doujan
doujanc
doujans
doujanz
doujet
doull
doun
dounder
dounoc
dour
doura
dourdu
doure
doureier
dourek
dourenn
douret
douriou
douristed
dourn
dous
dousder
dousen
dousenn
dousig
dousik
douste
douster
dout
doute
doux
douz
dove
dover
down
doyle
dozvet
dr
dra
draen
draezhenn
dragon
dragoned
drai
draig
drailh
drailhan
drailhet
draillet
drajedienn
drama
dramaour
dramm
drammou
drant
draon
draonienn
draou
draouien
drask
drastet
drastus
dravidek
dre
dream
dreams
drean
drec
dredan
drede
drederenn
dregantad
dreger
dregont
drei
dreid
drein
dreinded
dreindet
dreinek
dreist
dreistbevan
dreistordinal
dreit
dreizan
dreizhan
dreizo
drek
drekstaon
drem
dreme
dremen
dremenas
dremenaz
dremene
dremenet
dremenidi
dremeno
dremenvan
dremm
dremmou
dremmwel
dren
drenewydd
drenkenn
drenv
dreo
dres
dresadenn
dresan
dresden
dreset
drest
dreu
dreujou
dreux
dreuz
dreuzas
dreuze
dreuzi
dreuzin
dreuzou
drev
drevadenn
drevadennel
drevadennerien
dreyfus
drez
drezan
drezen
drezi
drezo
dri
dric
drid
dridal
dride
drinded
drindet
drist
dristidigez
dristidiguez
drive
drivet
drizek
dro
droad
droas
droaz
droc
droch
droe
droet
droiad
droidigezh
droienn
droiou
droit
drompein
drompil
drompill
drompla
dron
drouc
droug
drougiez
drougueu
drouiz
drouized
drouk
drouklazhet
droukveskan
drouz
drouziwezh
dru
drue
druez
drugare
drugarekaat
drugarez
drusus
druz
druzoni
du
dua
duaat
duarte
duas
dub
dublin
dubna
dubois
duc
duchamp
duchenn
duchentil
duck
ducoudray
duction
dud
dudchentil
dudenn
dudennou
dudi
dudiou
dudius
dudiuz
dudjentil
due
duet
duff
dug
duged
dugelezh
dugez
duhamel
duhont
duk
dukark
duke
duked
dukez
dulce
dulenn
dum
dumas
dumbledore
dumont
dun
duncan
duo
duos
dupuis
dur
dura
durand
durant
durante
durham
during
durked
durzunel
dut
dutch
duval
duz
duze
dvd
dy
dydd
dyfed
dyffryn
dyfrdwy
dylan
dz
dɔ
dɛ
dɛl
dɛn
e
ea
each
eadem
eah
eahus
eal
ean
eant
ear
earhart
earl
earliest
early
earp
earth
eas
easoc
eassoc
east
eastern
eastwood
eat
eau
eaust
eaz
eb
ebad
ebars
ebarz
ebarzhet
ebat
ebatou
ebed
eben
ebestel
ebet
ebeul
ebiou
ebken
ebqen
ebrel
ebreul
ebssa
ec
ecce
eccl
eccle
ecclesia
eccli
echedou
echo
echu
echuas
echuet
echui
echuin
econo
economic
ecossistema
ecuador
ed
edan
edda
eddie
eddy
eden
edenc
edern
edgar
edge
edic
edicio
ediciones
edicions
edinburgh
edit
editar
editatona
edited
edith
edition
editions
editor
editore
editores
editori
editorial
edmond
edmund
edo
edoc
edod
edomp
edon
edont
edot
edou
edouard
edouarzh
eds
edu
eduard
eduardo
educac
educacionais
educacional
educadores
education
edward
edwards
edwin
ee
een
eer
eet
eeun
eeunaet
eeunoc
ef
efa
efed
efedou
efedus
efedusted
efet
effac
effaci
effejou
effet
efflam
efflamm
effort
efomp
eg
egar
egbert
egea
eged
egedon
eget
egetan
egeti
egeto
eghet
egile
egipt
egiptat
egiz
ego
egor
egorlestr
egretta
eguet
eguile
eguis
egypt
eh
ehan
ehana
ehanas
ehane
ehanent
ehanet
eharz
ehe
ehess
ehoc
ehue
ehun
ei
eid
eidomb
eien
eienen
eienenn
eienin
eih
eil
eilean
eilenn
eiler
eilet
eilvet
ein
einaudi
eine
einep
einer
eines
einion
einstein
eis
eisenach
eisteddfod
eit
eixo
eixos
eiz
eizh
eizhvet
eizved
eizvet
ejen
ejened
ejenn
ejenned
ejipsianed
ejipt
ejont
ejus
ek
ekologel
ekologiezh
ekonomiezh
ekonomikel
ekwall
el
ela
elaborar
elas
elba
elbe
ele
eleac
eleal
eleanor
eleanora
elec
electronic
elegans
eleiz
elektra
elektron
elektronek
elektronou
elements
elen
elena
eleonora
eleonore
eler
elerc
eles
elesbed
elet
elez
eleze
elfael
elfe
elfed
elfenn
elfennou
eli
elias
eliminac
elis
elisabet
elisabeth
elisabetta
elit
elizabet
elizabeth
ell
ella
ellan
ellas
elle
ellehai
ellehet
ellein
ellen
eller
elles
ellet
elliant
elliot
ellis
ellit
ello
ellomp
ellont
ellot
ellou
ellout
elo
elorn
else
elum
elven
elvira
elvis
elzas
em
ema
email
emaint
eman
emanuel
emanuele
emaoc
emaomp
emaon
emaoun
emaout
emb
embaixadores
embann
embannadur
embannaduriou
embannas
embanne
embanner
embannerien
embannet
embannou
embaran
emberiza
emberr
emboltred
embreger
embregerezh
embregerezhiou
emdroadur
emdroet
eme
emean
emei
emellout
emeur
emeus
emez
emeza
emezan
emezelan
emezelas
emezhan
emezhi
emezho
emezi
emezo
emgann
emgannan
emgannou
emgav
emgefreek
emgleo
emglev
emgleviou
emi
emichan
emichans
emil
emile
emilia
emilio
emily
emir
emirelezh
emirelezhiou
emlazh
emled
emlyn
emma
emmanuel
emober
emoc
emomp
emon
emoun
emp
empenn
empereurs
emperor
empire
empresa
empresas
emprisonne
emren
emrenerezh
ems
emsav
emsavadeg
emsavadegou
emsaver
emsaverez
emsaverien
emsavet
emsavidi
emskiant
emsley
emstumm
emvod
emvodou
emwe
emzalc
emzifenn
emzivad
emzivaded
emzivadez
en
enaouet
enaoui
enbroidi
enciclope
encontrar
encontro
encontros
encore
encyclopaedia
encyclope
encyclopedia
encyclopædia
end
endalc
enderc
endra
endro
ene
eneb
enebas
eneber
eneberezh
enebet
enebi
enebiez
enebiezh
enebin
enebour
enebourien
ened
enem
enemise
eneou
enep
energiezh
enez
enezeg
enezen
enezenn
enezennig
enezennou
enfant
enfants
enfer
enframmet
engajamento
engehentas
engehentet
engels
england
english
engouestlet
engravadur
engravaduriou
engraver
engravet
engroez
enha
enhan
enhe
enhi
enho
enim
enk
enkadenn
enklask
enklasker
enklaskerien
enklaskou
enklozet
enkresiou
enkrez
enkrezet
enlarged
enlinenn
enn
enna
ennan
enne
ennes
ennhan
ennhi
ennho
ennhoc
enni
enno
ennoc
ennomp
ennon
ennoun
ennout
eno
enoc
enomp
enon
enor
enorabl
enoret
enori
enorin
enoriou
enorus
enough
enoun
enpad
enquanto
enque
enrico
enrique
enrolladenn
enrolladennou
enrollan
enrollas
enrollet
ens
ensavadur
ensavaduriou
enseignement
enseller
ensemble
ensino
enskrivadur
enskrivaduriou
enskrivet
ent
enta
entanet
entanto
entender
entendre
entent
ententamant
entente
ententet
enterramant
enterret
enterri
entertainment
enteuzet
entidade
entra
entrada
entrar
entre
entrevista
entrevistas
entrezho
env
envel
enviar
envolver
envor
envou
enwau
eo
eoc
eog
eol
eomp
eon
eont
eontr
eor
eorum
eos
eost
eostig
eostik
eostou
eot
eoul
eoullivadur
eozen
ep
epad
epic
epken
epquen
equidade
equipe
er
era
erasmus
erbe
erbed
erbedet
erbedi
erbet
erc
ercole
ere
ereet
eren
ereou
erer
erevent
erez
erfad
erfat
erfin
ergativel
erge
ergerzhadeg
ergerzhadenn
ergerzher
ergerzhet
ergerzhour
erhad
erhat
erhoalh
eric
erich
erien
erik
erika
eris
eritrea
erlec
erlerc
erm
ermaeziadeg
ermengarde
erminig
erminou
ermit
ermitach
ernault
ernest
ernesto
ernod
ernst
ero
eros
erotek
errance
erreka
erreur
erru
erruas
erruaz
errue
erruet
errujont
erruo
erruout
erv
erva
ervad
ervat
erves
ervez
ervlan
ervoan
ervoanik
erwan
erwanig
erwd
eryri
erythropitta
erzh
es
esa
esae
esaeou
esaouenn
escaut
esclav
escob
escobty
escola
escolas
escolha
escop
escopo
escopti
escrever
escrito
esder
esforc
eskell
eskemm
eskemmet
eskemmou
eskern
eskibien
eskob
eskop
eskopti
eskoptiou
esop
espac
espace
espagne
espagnole
espan
espe
especi
especial
especialmente
esper
espera
esperanc
esperans
esperanteg
esperantek
esperanto
esperanz
esperanza
espern
espernaz
espernet
esperout
espi
espoir
esprit
esquibien
essa
essai
essais
essas
essays
esse
essere
esses
essex
essonne
est
esta
estabelecer
estadio
estado
estados
estaj
estamos
estar
estara
estas
estate
estatuto
estava
este
esteban
ester
estes
esther
estik
estimet
estimular
estlamm
estlammadell
estlammet
estlammin
estlammuz
eston
estoneg
estonet
estonia
estou
estran
estranch
estranjour
estranjourien
estrate
estre
estreget
estren
estrenien
estrenvro
estrutura
estudantes
estudo
estudos
esus
eswatini
et
eta
etablisset
etal
etapa
etapas
etat
etc
eternel
eternelamant
eternite
ethnologue
etienne
etimologiezh
etiopia
etouez
etre
etrebroadel
etrekeltiek
etrekumuniezh
etrerannyezhel
etrese
etretant
etrevroadel
etrezan
etreze
etrezeg
etrezek
etrezhe
etrezho
etrezi
etrezo
etrezoc
etrezomp
etro
etruria
etrusked
etruskeg
etudes
etymological
eu
eudes
eue
euge
eugen
eugene
eugenia
eugenio
eujen
eul
eulalii
eulemur
eum
eun
eunius
eunn
eur
eurazia
eure
eured
euredas
euredet
euredin
euredou
euret
eureu
eureujet
eureuji
eurier
euriou
euripides
euro
euroiou
europ
europa
europat
europe
european
europiz
eurovision
eurus
eurusded
eurusoc
eurusted
euruz
euruzded
euruzdet
eurvad
eurvezh
eurvezhiou
eus
eusa
eusebius
euskadi
euskal
euskarat
euskareg
euskarek
eutru
eux
euz
euzeb
euzhus
euzhvil
euzhviled
euzus
euzuz
ev
eva
evach
evaj
evajou
evan
evans
eve
eveit
evel
evelato
eveldhan
eveldoc
eveldomp
eveldon
eveldout
evelhen
evelhenn
evelkent
evellen
evelse
eveltan
evelte
evelti
evelto
evelyn
even
evening
event
evento
eventos
ever
everton
every
everything
eves
evesaat
evesait
eveshaat
evet
evez
evezh
evezhiadennou
evezhian
evid
evidhoc
evidoc
evidomp
evidon
evidoud
evidoun
evidout
evil
evinta
evintan
evit
evita
evitan
evite
evithan
evithe
evithi
evitho
eviti
evito
evn
evned
evnig
evnoniezh
evnoniour
evnoniourien
evo
evoa
evolution
evor
evou
evrog
evurus
evurusted
evuruz
ewan
ewen
ewit
ex
examen
examina
examinein
examinet
exampl
example
exampleu
exant
exaudi
excellant
excita
exe
executivo
exempl
exemplo
exemplos
exemplou
exerci
exercic
exercice
exerciceu
exeter
exil
existe
existem
existentes
expe
experianc
experie
experience
explica
explication
exposet
exposi
exposic
exposition
express
expression
exterieur
exterior
extra
extraordinal
extre
extremadura
ey
eyck
eye
eyes
ez
ezan
ezans
ezau
eze
ezed
ezel
ezen
ezh
ezhan
ezhe
ezhi
ezho
ezhomm
ezhommou
ezi
ezo
ezom
ezomm
ezommek
ezommou
ezomou
ezporzhian
ezra
eztaolet
f
fa
fab
faber
fabian
fabien
fabio
fabl
fable
fablenn
fablennou
fables
fablou
faboursiou
fac
face
facebook
fach
fachet
facil
facilisis
facilitar
fact
facto
factory
fad
fae
faen
faero
faeroeg
faeron
faezhet
faezhidigezh
fai
fair
faire
fairy
fait
faite
faith
fal
fala
falando
falar
falc
falco
falconiformes
falez
falfe
fall
falla
fallaat
fallagr
fallagrie
fallagriez
fallakr
fallan
fallante
fallentez
falloc
fallout
falls
falou
fals
false
falta
faltazi
faltaziek
faltazius
falvezas
falvezaz
falveze
falvezet
falvezout
falz
fame
fameil
familh
familhou
familier
famill
famille
family
fan
fanch
fanchig
fanchik
fanchon
fank
fanny
fant
fantasi
fantasy
fantig
fantik
fanto
fao
faos
faot
faotr
faou
faoued
faouet
faout
faoutet
faoz
far
fara
faraon
faraoned
fard
fardan
farded
farder
fardet
fardono
fare
fari
farizianed
farnese
faro
farrez
fars
farsal
farsus
farz
fas
fase
fask
faskour
faso
fasq
fast
fater
father
fato
faus
faustina
faut
faute
fauteu
fautou
fav
fave
faver
favereau
faveur
favor
favorabl
fawr
fay
fayard
faz
fazan
fazem
fazendo
fazer
fazi
fazia
fazian
faziet
faziou
fb
fbi
fc
fe
feahein
feahet
feal
fealded
fear
feat
february
fec
fecit
fectoral
fed
fede
feden
fedenn
fedennou
federal
federico
fedi
fedou
feel
feen
fehe
feilhan
feira
feis
feita
feitas
feito
feiz
feizidi
fel
felger
felice
felin
felipe
felis
felix
feliz
fell
fellas
fellaz
felle
fellet
fellfe
fello
fellout
femme
femmes
femp
fen
fenisek
fenn
fennad
fennou
fenoz
fense
fent
fentigellour
fentus
fer
ferc
ferch
ferdinand
ferdinando
ferdinant
ferenc
fergus
ferm
ferme
ferna
fernand
fernanda
fernandes
fernando
fero
ferramenta
ferramentas
ferrand
ferrante
ferrara
ferrari
ferreira
ferrer
ferrie
ferry
fersen
ferson
fervant
ferveur
fervor
ferz
ferzh
fes
feskenn
feson
fesoun
fest
festa
festival
festou
fet
fete
fetis
feu
feugiat
feuket
feuls
feulster
feun
feunten
feunteun
feunteuniou
feur
feuriou
feurm
feurmet
fevar
fevereiro
fevrer
fez
fezh
ff
ffin
fflint
ffæd
fi
fia
fiakr
fians
fiat
fic
fica
ficar
ficas
ficedula
fich
ficha
fichenn
fichet
fico
ficos
ficou
fiction
fide
fidel
fidele
fidelite
fidji
fieg
field
fields
fier
fiez
figaro
fight
figur
figure
figus
fil
filberzh
file
files
filhor
fili
filii
filip
filipinez
filippo
filistined
filius
fille
filles
fillion
fillorez
film
filman
filmaozer
filmaozour
filmet
filmig
filmou
films
filomena
fils
fim
fin
final
financiamento
find
fine
finesa
finger
finiste
finister
finland
finn
finneg
finnek
finoc
fins
finv
finval
fiore
fire
firenze
first
firth
fiscal
fischer
fish
fisian
fisians
fisianz
fistoulig
fistoulik
fit
fitzgerald
five
fiz
fizian
fizianc
fizians
fizianz
fiziet
fizik
fizikel
fizikour
fiziout
fk
fl
fla
flac
flach
fladenn
flaer
flag
flam
flamank
flamenco
flamm
flammarion
flammou
flandrez
flandrezat
flandrezeg
flas
flash
flastra
flastran
flastret
flavia
flavirostris
flavius
flb
fle
flem
fleming
flemm
flemmet
flemmus
fleu
fleur
fleuriot
fleurs
fleury
flight
flijadur
flip
fln
floc
flodad
flohic
flor
flora
florence
florent
flores
florian
florida
flour
flouran
flowers
floyd
flu
flusket
fly
flying
fm
fo
foan
foaniou
foar
foariou
fobl
foblan
foco
fod
foe
foei
foel
foeltr
foen
foenn
foenneier
foent
foet
foetan
foeter
foi
fois
foix
fol
folgoat
folha
folio
folk
foll
folle
folleah
follenn
follennata
follennou
follentez
foltred
fomentar
fon
fona
fonadur
fonctionou
fond
fondamentale
fondation
fonem
fonenn
fonetik
fonetikel
fonksion
fonnus
fonologiezh
fons
font
fontaine
fontainebleau
fontaines
fontanella
fontanellan
fonte
fontenay
fontenella
fontes
fontet
fool
foot
football
for
fora
foram
foran
forban
forbannet
forbes
forc
force
forces
ford
fore
foreign
forest
forestier
forever
forh
forli
form
forma
formac
formas
formation
formato
forme
formet
formosa
formula
formulenn
forn
forniou
forom
fors
forster
fort
forte
fortun
fortuna
fortunatus
fortune
forum
forz
forzh
fosse
foster
foto
fotogra
fotos
fou
foucauld
foue
fouenant
fouet
fouez
fouge
fougeal
foul
foulk
foull
found
foundation
founder
founnus
fount
four
fourgadenn
fourmaj
fourn
fournier
fournis
fowler
fox
foy
foz
foziou
fr
fra
frac
fraezh
fragil
fragilite
fraim
framm
frammadur
framman
frammer
frammet
frammou
fran
franc
franca
france
frances
francesa
francesca
francesco
franche
francia
francis
francisca
francisco
francisien
francisque
franck
franco
frank
franked
frankek
frankfurt
frankia
frankiz
frankizenn
frankizour
frankizourien
franklin
franquin
frans
franse
fransez
franseza
fransizien
franz
franziska
frapad
fraser
frau
frazenn
frazennou
frazer
frazione
fre
frealz
frealzet
frealzi
frealzidigez
freaz
fred
frederick
frederig
frederik
fredrik
free
freedom
freiburg
frekan
french
frente
frer
frered
fresk
freuz
freuzet
frezidant
fri
friday
fried
friederike
friedrich
friend
friends
friet
friko
frikotan
frin
friouleg
frit
fritan
fritz
friuli
friz
frizeg
fro
froger
from
fromet
frond
fronellou
front
frontalis
frontera
frontie
froud
frouden
froudou
frouez
frouezh
frouezhenn
frovin
fru
fu
fuc
fuchs
fuego
fui
fujiwara
fulenn
full
fulor
fuloret
fulup
fulvus
fun
func
funciona
funcionamento
fundac
fundamental
fuoco
fur
fura
furch
furcha
furchadennou
furchal
furchet
furien
furlukin
furm
furmet
furmou
furnes
furnez
furoc
furzod
fut
future
futuro
fuzil
fuziliou
fuzuilh
fuzuilhet
fuzuilhou
fy
fychan
fynwy
fynydd
fæc
fæd
fæt
fɔ
g
ga
gab
gabiten
gabon
gabriel
gabriela
gabriele
gabrielle
gac
gad
gador
gadourien
gae
gael
gaelic
gaer
gaera
gaeran
gaerfyrddin
gaeroc
gaesar
gaezh
gaf
gafe
gagn
gai
gaia
gaillimh
gainsbourg
gaius
gal
gala
galaad
galactica
galatia
gale
galeazzo
galega
galego
galenos
galeou
galerie
galet
galetaat
galhue
galia
galian
galianed
galianeg
galianek
galicia
galile
galilea
galilee
galileo
galite
galiza
galizat
galizeg
galizek
gall
galla
gallaoued
gallaoueg
gallec
galleg
gallek
gallekaet
galleria
gallery
galles
gallet
gallia
gallica
gallico
gallimard
gallinago
gallo
gallois
galloud
galloudec
galloudek
galloudou
galloudus
galloudusan
galloudusoc
gallouduz
gallout
gallus
galon
galoun
gals
galv
galvaz
galve
galvet
galvit
galz
gama
gamaladed
gamarad
gamaraded
gambia
gambr
game
games
gamm
gamma
gammed
gamp
gampion
gampr
gan
gana
ganac
ganan
ganaouen
ganaouenn
ganaouennou
ganas
ganaz
gand
gandhi
gandryll
gane
ganec
ganed
ganedigezh
ganedigezhiou
ganehoc
ganen
ganeoc
ganeomp
ganer
ganerez
ganerien
ganet
ganez
gang
ganga
ganhen
ganimp
ganin
ganit
gann
ganna
gannad
gannaded
gannan
gannas
ganne
gannedigueah
gannet
gano
ganol
gant
ganta
gantan
gante
gantenn
gantha
ganthan
ganthe
ganthi
gantho
ganti
ganto
ganton
gantved
gao
gaol
gaoter
gaou
gaouad
gaoud
gaoued
gaouenn
gaouet
gaouiad
gaout
gaoz
gaozeadenn
gaozeal
gaptived
gaptivite
gar
garan
garann
garante
garantes
garantez
garantir
garc
garci
garcia
gard
garde
garden
gardie
gardien
gardinal
gardinaled
gardner
gare
garehe
garer
garet
garfe
garfen
garfet
garg
garga
gargam
gargan
gargaz
gargou
gari
garibaldi
garie
garin
garit
garje
garm
garmez
garnel
garnier
garo
garomp
garona
garonne
garont
garout
garr
garreg
garrek
garrie
garry
gars
garta
gartenn
garv
gary
gas
gasa
gasas
gasaz
gase
gaset
gaso
gasoni
gass
gassas
gassaz
gasset
gasso
gassoni
gast
gastel
gastell
gastiz
gastiza
gaston
gat
gate
gatedral
gatholik
gatoligiezh
gatolik
gatoliked
gatto
gauche
gaud
gauguin
gaule
gaulle
gaulois
gauloise
gaus
gautier
gav
gavadenn
gavan
gavann
gavas
gavaz
gavchont
gave
gaved
gavel
gavell
gaven
gavent
gaver
gavet
gavi
gavin
gavit
gavjont
gavo
gavomp
gavont
gavot
gavotenn
gavou
gavoud
gavoue
gavout
gavr
gay
gaz
gaza
gazeg
gazel
gazetenn
gazetennerez
gazette
gazou
gd
ge
gear
geaz
ged
gedal
gedon
gedour
gefridi
gegin
geier
gein
geinn
geiriadur
geit
geiz
gejas
gel
gelaouenn
gelc
gelen
gelenn
gelennadurez
gelennadurezh
gelenner
gelennerien
gell
gellan
gellet
gelli
gellig
gellout
gelou
gelted
geltiat
geltieg
geltiek
gelver
gema
gember
gembraek
gembre
gemend
gemene
gemenn
gemennadenn
gement
gemer
gemeras
gemeraz
gemere
gemeret
gemerit
gemero
gemerout
gemm
gemman
gempenn
gemper
gen
genac
genad
genadou
genaoueg
genaouek
genas
gendalc
gende
genderc
genderv
gendes
gendeuzin
gendrec
gene
gened
genedlaethol
genel
general
generalitat
generation
genes
genetek
geneva
genevie
genidik
geniterv
genitiv
genkiz
genlabourat
gennad
gennigaz
geno
genou
genova
genovefa
genrouedad
gens
genseurted
gensonenn
genstrivadeg
gent
genta
gentan
gente
gentel
genteliou
gentil
gentileschi
gentoc
genurzhian
genus
genver
genvreudeur
genvroiz
genweb
genwerzh
geo
geobreizh
geoded
geodedourien
geoffrey
geoffroy
geografiezh
georg
george
georges
georgetown
georgia
geot
geotdebrer
geotenn
ger
gera
geraint
gerais
geral
gerald
gerar
gerard
gerberga
gerc
gerdarzh
gere
gerent
gerfet
gerhard
geriaden
geriadenn
geriadur
geriadurig
geriaduriou
geriadurour
geriaoueg
geriou
germain
germaine
german
germaned
germaneg
germanek
germania
germanicus
germany
gern
gerne
gernev
gernevez
gernez
gerniel
gerot
gers
gervais
gervel
gerven
gerveur
gerz
gerzaz
gerze
gerzet
gerzo
gerzu
ges
geschichte
gest
gesta
gestapo
get
getan
gete
geton
geu
geun
geuniou
geuz
gevell
gevellet
gevezadeg
gevier
gevnidenn
gevr
gevrat
gevred
gevredet
gevredidi
gevredigez
gevredigezh
gevrenn
gevrennek
gevret
gevridi
gez
gezeg
gezek
gg
ghana
ghenta
ghevredighez
ghost
gi
gia
giacomo
gian
gias
gib
gibson
gica
gichen
gichenn
gico
gicos
gie
giez
gig
gil
gilan
gilbert
gilberto
gildas
gile
gilles
giment
gimiek
gimiezh
gin
gina
ginas
ginea
ginevra
ginidik
ginivelez
ginivelezh
ginnig
ginnigas
ginnigaz
ginnige
ginou
gio
gioc
gion
gionales
gionalismes
giordano
giorgio
giorno
giovanna
giovanni
gipuzkoa
gir
giray
gireg
giri
girillek
girl
girls
girolamo
gironde
girri
gis
gisela
gisserot
gisti
gitar
gitarour
giulia
giuliano
giulio
giuseppe
give
givri
giz
giziou
gkervella
gl
gla
glac
glad
gladdalc
glah
glahar
glam
glan
glana
glanded
glann
glanndour
glannou
glantwymyn
glanv
glanvourez
glanvourien
glao
glaoda
glaou
glaouaer
glaouer
glas
glasc
glascwm
glasgow
glask
glaskan
glaskas
glaskaz
glaske
glaskent
glasker
glasket
glaskit
glasko
glaskomp
glaskont
glasq
glasque
glass
glav
glaveier
glaz
glazaour
glazarded
glazet
glazur
gle
gleb
glebiadur
glebian
glebiet
glebor
gleborek
glein
gleiz
glem
glemm
glemme
glemmou
glen
glenmor
glenn
glenved
gleo
glesker
glet
gleu
gleue
gleuz
glev
glevan
glevann
glevas
glevaz
glevchont
gleve
gleved
glevent
glever
glevet
glevit
gleviz
glevjont
glevo
glevont
glevout
gleze
gli
glin
glip
glise
gliz
glo
gloada
gloan
gloar
gloaz
gloazet
global
globe
gloc
gloe
gloer
gloerdi
glok
glokaat
gloria
glorifiet
glorius
gloriuz
glory
glot
glotan
gloucestershire
gloued
gloz
glu
glujar
glyn
glyndw
gmail
gmelin
gn
gne
gnu
go
goa
goab
goabren
goad
goadeg
goaf
goafiou
goah
goaid
goal
goalc
goalen
goall
goan
goanag
goania
goann
goant
goantenn
goanv
goap
goapaat
goapaer
goar
goard
goardou
goarn
goarnet
goas
goasa
goasoc
goassa
goassoc
goat
goaz
goazed
goazez
goaziou
gobe
gober
gobr
goch
god
godel
godell
godellek
godellou
godest
godig
godik
gododdin
gods
goe
goebbels
goel
goela
goeled
goelet
goell
goes
goest
goestlet
goethe
goez
goeza
gof
gofes
goff
goffic
gogh
goia
going
goire
gol
gold
golden
gole
golein
goleit
goler
golf
goll
gollas
gollaz
golle
gollet
gollo
golo
goloet
golonenn
golvan
golvaneged
gombat
gombati
gomedienn
gomer
gomes
gommanc
gommance
gommand
gommansaz
gommun
gommunia
gommuniein
gommunion
gompagnunez
gompagnunezh
gompez
gompezenn
gomportamant
gompren
goms
gomsiou
gomsou
gomunourien
gomunouriezh
gomz
gomzas
gomzaz
gomze
gomzer
gomzet
gomziou
gomzo
gomzont
gomzou
gon
gonc
goncourt
gondition
gondui
gone
goneet
gonezet
gonfession
gonfiance
gonfirmation
gonfusianegezh
gonid
gonidec
gonideg
gonit
gonscianc
gonsecration
gonsequance
gonservi
gonsideri
gonsist
gonsolation
gonsolationou
gonstantinopl
gont
gonta
gontadenn
gontan
gontantamant
gontas
gonte
gontel
gontelezh
gontell
gonter
gontez
gonto
gontrition
gonversion
gonvertissa
gonvertissein
gonz
gonza
gonzaga
gonze
gonzeu
good
google
gopr
gopret
goprou
goprsoudarded
gor
gorden
gordenn
gordon
gore
gorf
gorizia
gorn
gornandoned
gornaoueg
gornek
gorno
goro
gorre
gorread
gorrek
gorreou
gorrigan
gorrigein
gorroidigezh
gorruption
gorsedd
gorto
gortos
gortoz
gortozet
gortozit
gorv
gorventenn
gorzen
gorzenn
gos
gosa
goscinny
goshan
gostaria
goste
gostez
gostezenn
got
goteg
gotek
gotha
gottfried
gottorp
gou
gouarn
gouarnamant
gouarnamantou
gouarner
gouarnerez
gouarnet
gouarnour
goud
goude
goudese
goudeze
goudor
goudorin
goue
goueas
gouel
gouela
gouelan
gouelanig
gouelec
goueled
gouelet
goueliou
gouelou
gouen
gouenn
gouennan
gouennelour
gouennlazh
gouennou
gouenou
gouent
gouer
gouere
goueriaded
gouerien
gouest
gouestl
gouestlet
gouestlou
gouet
gouez
goueza
gouezan
gouezas
gouezaz
goueze
gouezeleg
gouezelek
gouezet
gouezh
gouezhan
gouezhas
gouezit
gouezo
gougleiz
gouhere
goui
gouian
gouie
gouiet
gouil
gouir
gouizieg
gouiziegez
gouiziegezh
gouizieien
gouiziek
goukoug
goularz
goulc
gould
goule
gouleier
goulen
goulenn
goulennata
goulennet
goulennit
goulennomp
goulennou
goulet
gouli
gouliet
goulieu
gouliou
goullo
goullonderin
goullou
goulm
goulmik
goulou
goulskoude
goulven
goulz
goulzgoude
goumoulen
goumpagnoun
goumpagnunez
goumunion
goun
gounez
gounezerezh
gounezet
gounid
gounideien
gounidou
gouniet
gounit
gounnar
gount
gounta
gountaz
gour
gourach
gouraich
gourc
gourdoner
gourdonet
gourdonin
gourdrouz
gourdrouzet
gourdrouzou
goured
gourel
gouren
gourenez
gourfenn
gourfennad
gourhæme
gourin
gouriz
gourmandis
goursez
gourve
gourvez
gourvezet
gourvil
gousciance
gouscoude
gousk
gouskaz
gouske
gousket
gousko
gouspero
gousperou
goust
goustad
goustadig
goustadik
goustianc
goustians
gousto
gout
gouvernement
gouvezet
gouvezout
gouzan
gouzanv
gouzanvet
gouzoud
gouzoug
gouzout
gov
gove
goveliet
governanc
government
governo
govez
govezion
gow
goya
goz
gozed
gozh
gozhni
gozni
gp
gr
gra
graal
grabanou
grac
grace
grad
gradlon
graer
graet
graf
grafo
gragez
graguez
graham
grai
grall
grallon
gralon
gram
grammaire
grammar
gramme
grammy
gran
granada
grand
grande
grandes
grands
grant
grants
granville
graon
graou
gras
graso
grasou
grasset
grassou
grateit
gratianus
gravada
grave
graves
gray
graz
gre
greantel
greanterezh
great
greatest
greaz
grec
greche
gred
gredan
gredann
gredas
gredaz
grede
gredein
greden
gredenn
gredennou
gredent
greder
gredfe
gredi
gredin
gredit
gredo
gredont
gredus
greek
green
greene
greet
grefier
greg
gregach
gregam
gregi
gregin
gregor
gregorian
gregorio
gregory
greis
greisteiz
greiz
greizenn
grek
gremm
gren
grena
grenada
grenadinez
grene
grenn
grennamzer
grennarded
grenoble
grenv
greomp
gres
gresian
gresianed
gresianeg
gresianek
gresk
greskas
greskaz
greske
greski
greskin
gresko
gresq
gret
greta
greun
greunenn
greunland
grevus
grey
grez
gri
griaden
griadenn
grial
griaz
grid
gridi
grie
grik
grimm
grin
gris
gristen
gristenez
gristenien
gristeniezh
gristof
grit
griz
griziou
gro
groa
groage
groaguez
groas
groaz
groaziadeg
groazidi
groazig
groc
groe
groed
groeg
groeit
groes
groet
groez
grog
grogad
grogadou
grogas
grogaz
groge
grogenn
grogo
gron
groningen
gronnet
grons
gros
grosso
grou
grouadur
grouadurien
grouas
groue
grouer
groug
grouidigezh
grouin
group
groupe
grove
groz
gru
gruffudd
gruffydd
grupo
grupos
grus
grusifi
græce
græceu
græt
gu
gua
guadalajara
guadalupe
gual
guam
guarda
guardian
guas
guatemala
guchenn
gudenn
gudennou
gue
gueach
guech
guechal
guechall
gued
guef
gueffot
gueich
guein
guel
guele
gueled
gueleou
guelet
guelit
guell
guella
guellad
guellet
guelloc
guelomp
guelout
gueme
guemen
guemense
guement
guemer
guemeras
guemeret
guen
guenan
guene
guened
guenemb
gueneoc
gueneoh
gueneomp
guener
guenet
guengolo
guenn
guennek
guenoh
guenta
guentel
guenver
guer
guerc
guerent
guerra
guerre
guerrero
guerres
guers
guervel
guerz
guerza
guerzenneu
guerzet
gues
guesclin
guest
guet
guetan
guetou
guettan
gueu
guez
guglielmo
guh
guharal
guhave
gui
guichen
guide
guido
guier
guieysse
guilcher
guile
guillaume
guillerm
guillermo
guillo
guillou
guilmer
guin
guinidic
guinis
guiniz
guir
guirhie
guiriec
guirieu
guirion
guirione
guirionez
guirioneziou
guirionezou
guiriou
guis
guise
guiskamant
guisket
guita
guitaas
guitaat
guitaaz
guitar
guiteaz
gujarati
gul
gularis
gulieu
gumun
gumuniezh
gun
gundu
gundui
gunelezh
gup
gupta
gure
gurionne
guriosite
guru
gurun
gurunen
gurunenn
gustaf
gustav
gustave
gustavo
gustum
gutenberg
guy
guyana
guyon
guyonvarc
guz
guza
guzat
guzet
guzh
guzhat
guzma
guzul
guzulerien
guzulier
guær
gv
gw
gwa
gwad
gwadek
gwadeloup
gwagenn
gwagennou
gwaien
gwak
gwal
gwalarn
gwalc
gwaled
gwalen
gwalenn
gwalennou
gwall
gwalldaol
gwalldaoliou
gwallet
gwalleur
gwallgaset
gwallou
gwallzarvoud
gwan
gwanaet
gwap
gward
gwarded
gwardou
gwareg
gwarez
gwarezet
gwarezin
gwarizi
gwarnizon
gwas
gwasa
gwasan
gwasg
gwashan
gwashoc
gwask
gwaska
gwaskan
gwasked
gwasket
gwaskogn
gwasoc
gwastell
gwastet
gwaz
gwazdoue
gwazed
gwazh
gwazhied
gwazi
gwaziou
gwe
gweach
gwech
gwechad
gwechall
gwechou
gwegen
gwej
gwel
gweladenn
gweladennet
gweladennin
gwelan
gwelas
gwelaz
gwele
gweled
gweledva
gweledvaou
gweleou
gweler
gwelet
gwelfet
gwelit
gweliz
gwell
gwella
gwellaat
gwellaet
gwellan
gwelloc
gwelomp
gwelout
gweltas
gweltaz
gwen
gwenael
gwenan
gwenc
gwendal
gwened
gwenedeg
gwener
gwengamp
gwengelouriezh
gwengolo
gwenholon
gwenn
gwenneg
gwenneien
gwennek
gwennik
gwennili
gwennilied
gwennola
gwennole
gwennoll
gwennou
gwenodenn
gwenole
gwenrann
gwent
gwentan
gwentlou
gwenvenez
gwenvidik
gwer
gwerc
gwerenn
gwern
gwernenez
gwernig
gwerniou
gwerz
gwerza
gwerzenn
gwerzennou
gwerzet
gwerzh
gwerzhan
gwerzhav
gwerzher
gwerzhet
gwerziou
gwes
gwesklen
gwesklin
gwestlet
gweuz
gwevn
gwez
gweza
gwezenn
gwezh
gwezhall
gwi
gwiad
gwiader
gwiadou
gwiana
gwidel
gwilen
gwiler
gwilh
gwilherm
gwilhom
gwilhou
gwilioud
gwillerm
gwillou
gwilun
gwilym
gwin
gwini
gwinieg
gwiniegi
gwiniz
gwinizh
gwinn
gwion
gwir
gwiraour
gwirhen
gwirion
gwirione
gwirionez
gwiriou
gwirvoud
gwisk
gwiskad
gwiskadou
gwiskamant
gwiskamantou
gwiskan
gwisket
gwitalmeze
gwitibunan
gwitreg
gwivan
gwiziek
gwizien
gwladol
gwrac
gwragez
gwreg
gwregel
gwrez
gwrezverk
gwriat
gwrizienn
gwriziennou
gwriziou
gwy
gwyn
gwynedd
gyfer
gymraeg
gær
h
ha
haad
haag
haarlem
haas
haat
hab
habana
habask
habaskded
habil
habila
habit
habitantet
habitants
habiten
habitenn
habsbourg
habsburg
hac
hachette
hacker
had
hada
hadan
hade
hadeg
haden
hadenn
hadennou
hader
hadet
hador
hadou
hadour
hadourez
hadourezh
hadourezhiou
hadourien
hadrian
hadur
hae
hael
haer
haera
haeran
haet
hafe
hafren
hag
hagen
hagn
hagnet
hagrid
hai
haier
hail
hain
hainaut
hait
haiti
haj
hajou
hal
halaksienn
halan
halated
halc
halcyon
halde
hale
haleg
halen
half
halia
halian
halianed
halice
halif
halile
halir
hall
hallan
hallaoued
hallas
halle
halled
halleg
hallek
hallent
haller
hallez
hallfe
hallit
hallje
hallo
hallomp
hallont
halloud
halloudec
halloudeg
halloudek
halloudou
halloudus
hallout
hallus
halo
halon
haloneu
halono
halonou
haloun
halounou
haloupat
halv
halvar
halvas
halvaz
halve
halver
halvez
halz
ham
hama
hamant
hamarad
hamb
hambr
hamburg
hamilton
hamlet
hamm
hamon
hamp
hampionad
hampou
hampr
hampshire
hampton
han
hana
hanada
hanamb
hanan
hanane
hanaouenn
hanaouennou
hanas
hanau
hanaz
hance
hand
handbook
handelvou
hands
hane
haned
hanedigezh
hanel
haner
hanes
hanet
hangeul
hanhoc
hanhue
hanhuet
hani
hann
hannad
hannaded
hannadour
hannah
hanni
hannibal
hanno
hannover
hano
hanoc
hanod
hanoh
hanoi
hanoiou
hanol
hanoliou
hanomp
hanon
hanot
hanoud
hanoun
hanout
hans
hant
hanta
hantaouin
hante
hantel
hantener
hanter
hanterc
hanterenn
hanternoz
hanterouriezh
hantervoul
hantervreur
hantet
hantic
hantik
hantikou
hantina
hantinat
hanton
hantved
hantvedou
hanu
hanv
hanvadurezh
hanval
hanvaz
hanver
hanvet
hanviou
hanvou
hao
haokaz
haol
haoliad
haor
haou
haoueg
haout
hap
haper
happy
har
hara
haral
harald
haran
harante
harantez
harbor
hard
harde
hardel
hardi
hardinal
hardisegez
hardy
hare
harek
haret
harg
harga
hargou
hari
harid
haridik
harit
harlem
harlu
harluet
harm
harmattan
harmaz
harmon
harnez
haro
harold
haroz
harozed
harozez
harp
harpa
harpan
harpe
harper
harpercollins
harperien
harpet
harr
harrad
harrez
harriet
harris
harrison
harry
hars
hart
hartennou
harter
harteriou
hartou
harus
harv
harvard
harvey
harz
harzal
harzet
harzh
harzhal
harzou
has
hasas
hasaz
hase
haset
haso
hass
hassas
hasset
hast
hasta
hastan
hastaz
hastel
hastell
hastet
hastings
hastit
hastiz
hat
hata
hatalaneg
hatechis
hatekiz
hatolikon
haus
haut
haute
hautes
hauts
hav
haval
havarn
havas
have
havel
havell
haven
haver
havera
havet
havia
havo
havout
havr
haw
hawaieg
hawaii
hay
haz
hazeg
hazetenner
hazetennou
hazh
hbw
hcatholicon
hcolumbidae
hded
hder
hdi
hdug
hdugez
he
head
heal
health
hear
heariou
heart
hearts
heat
heaul
heaven
heavy
heaz
heb
hebdo
hebiou
hebken
hebraeg
hebraek
hebreed
hebreeg
hebreek
hec
hector
hed
hedal
heden
hedenn
hedeu
hedigou
hedou
hedvig
hedwig
hee
heet
hef
heflusker
hefridi
heg
hegarat
heger
hegerien
hegezh
hegiezh
heheder
hehentin
hei
heian
heidelberg
heien
hein
heine
heinrich
heinz
heit
heiz
heizez
hej
heja
hejan
hejet
hejo
hejou
hek
hekleo
hektar
hektor
hel
helaouennou
helavar
helc
helder
heleier
helen
helena
helene
helenn
helenner
helfe
helias
heliaz
helien
helios
helje
hell
hellan
hellann
hellas
hellaz
hellazat
helle
helled
hellehe
hellein
hellek
hellen
hellent
heller
hellet
helleur
hellez
hellfe
hellfen
helli
helligou
hellimp
hellin
hellinn
hellint
hellit
hellje
helljont
hello
helloc
hellomp
hellont
hellot
hellou
hellout
hellys
helmut
helou
help
helsinki
helt
helted
heltieg
helver
hem
hema
heman
hemb
hembraeg
hemen
hemenaz
hemener
hemenet
hemenn
hemennas
hemenne
hemennet
hemenno
hemennou
hemeno
hemenou
hement
hementad
hemer
hemeraz
hemeret
hemingway
hemm
hemmadur
hemmou
hemolc
hemon
hemp
hempkin
hen
hena
henad
henamzer
henan
henbont
henc
hencha
henchou
hend
hendad
hendadou
hendalc
hendall
henderc
henderson
henderv
hened
henegipt
henel
heneliezh
henemglev
henet
heng
hengevread
hengevredad
hengoun
hengounel
hengouniou
henhebraeg
henidik
heniwerzhoneg
henlabour
henn
henna
hennan
henne
henned
hennes
hennet
hennez
hennezh
henniezh
hennou
heno
henoadvezh
henor
henoret
henori
henoriou
henou
henoz
henri
henriette
henrik
henrique
henroma
henroman
henry
hensaozneg
hensaoznek
hensonennou
hent
henta
hentad
hentan
hentchou
henteliou
hentenn
hentennou
henteu
hentez
hentou
henvel
henver
henvrezhoneg
henvrezhonek
henvroi
henvroidi
henvroiz
henwerzh
heodedou
heol
hep
hepburn
hepdale
hepken
hepmui
hepmuiken
hepqen
hepquen
her
hera
herakles
herberc
herbert
herc
herder
herdin
here
herent
herentiad
heretik
heretiked
heretiquet
herez
herezh
herghest
heriadur
heriaoueg
herien
herion
heriou
heritach
heritage
heritour
heritourien
herman
hermaned
hermanek
hermann
hermes
hermine
hermione
hermit
hermitage
hern
herna
herneveureg
herniel
hero
herodes
herodez
herodotos
heroes
herr
herreg
herrek
herri
herria
herrieu
herrio
herriou
herry
hersart
herve
hervel
herves
hervez
hervezan
hervezo
herzegovina
herzel
hes
hescop
hesiodos
hesk
heskenn
heskinerezh
heskinet
heskob
heskop
heskopti
heson
hess
hesse
hessen
hestell
het
heta
hetaer
hetan
hetin
hettan
heu
heug
heuil
heuilh
heuilhet
heuill
heuilla
heuillet
heul
heulia
heuliad
heuliadenn
heuliadou
heulian
heulias
heuliaz
heulie
heulierien
heuliet
heulio
heur
heure
heures
heureuchin
heuriou
heurus
heus
heuz
heuzus
heuzuz
hevandir
heve
hevel
hevelebiezh
hevelep
hever
heverk
hevier
hevre
hevread
hevred
hevredad
hevredigezhiou
hey
heydrich
heyl
hez
hezan
hezed
hezeg
hezek
hezoug
hfe
hh
hhouarner
hi
hia
hiad
hiadur
hian
hias
hiaul
hiberni
hic
hichen
hichenn
hid
hidalgo
hidi
hidigez
hidigezh
hidrogen
hie
hiek
hien
hienn
hiennou
hier
hieroglifou
hieronymus
hiet
hieu
hiezh
hig
higed
higenn
higennou
higer
higgins
high
higolin
hik
hikan
hiko
hil
hilaire
hilda
hildburghausen
hildegard
hiler
hilhog
hili
hiliber
hill
hilleih
hills
him
himalaya
himalayek
himiad
himiour
himmler
hin
hinad
hindeg
hindi
hindouegezh
hini
hinienn
hiniennel
hiniennou
hinihue
hiniu
hinivelez
hinn
hinnig
hinou
hint
hiou
hip
hippolit
hippolyte
hiq
hir
hira
hiraat
hiragana
hiram
hiran
hirc
hirder
hirie
hirin
hirinan
hirinded
hirined
hirio
hiriv
hiroc
hiron
hiroshima
hirr
hirra
hirri
hirroc
hirundo
hirvi
hirvoud
hirvoudi
hirvoudou
his
hisien
hispania
hispaniola
hist
histo
histoar
histoe
histoire
histoires
histor
historia
historical
historik
historique
historiques
history
hit
hitler
hits
hiver
hiviz
hiviziken
hiz
hizeller
hizhier
hizien
hizio
hiziv
hjont
hl
hlac
hlan
hlanded
hlann
hlanvour
hlao
hlas
hlask
hlasker
hlasou
hlav
hlaz
hlazenn
hle
hleier
hlemmou
hlen
hlenn
hlenved
hlenvejou
hlenvet
hlerg
hleu
hleub
hleuz
hleuziou
hlevaz
hleve
hlevet
hlevout
hleze
hlezeier
hlin
hlinhue
hlizher
hloar
hloarec
hloareg
hloarek
hloastr
hloaz
hloc
hlodwig
hloe
hloerdi
hlopenn
hlorifia
hloz
hlub
hm
hmad
hmat
ho
hoabr
hoad
hoadegi
hoadeier
hoadou
hoaf
hoah
hoai
hoaid
hoais
hoajou
hoal
hoalen
hoalet
hoan
hoand
hoant
hoanta
hoantaas
hoantaat
hoantae
hoantaet
hoantea
hoanteaz
hoantegesiou
hoantek
hoantou
hoar
hoarezed
hoarh
hoari
hoarias
hoarie
hoariell
hoarier
hoarierez
hoarierien
hoarierion
hoariet
hoarieu
hoarigan
hoariganerez
hoario
hoariou
hoariva
hoarve
hoarveet
hoarvez
hoarvezas
hoarvezaz
hoarveze
hoarvezet
hoarvezfe
hoarvezo
hoarvezout
hoarz
hoarzas
hoarze
hoarzh
hoarzhin
hoarzin
hoas
hoat
hoaz
hoazez
hoazh
hobbit
hobe
hober
hobregon
hobregonet
hoc
hoch
hockey
hod
hodel
hodell
hodellou
hodgson
hoe
hoec
hoed
hoef
hoel
hoell
hoez
hof
hoffmann
hog
hogen
hoghen
hogos
hogozik
hoguen
hoh
hohenzollern
hoje
hokanek
hol
hola
holbein
holc
hold
holden
hole
holen
holl
hollad
holland
hollc
hollek
hollou
holloueziadur
hollsent
hollved
hollvedel
hollvrudet
hollywood
holmes
holo
holoe
holofern
holstein
holy
hom
homan
homandant
homb
hombat
hombod
homburg
home
homem
homer
homeros
homiser
homme
hommes
hommonwealth
homo
homodor
homp
hompezennou
hompren
homsou
homt
homz
homziou
homzou
hon
honcil
honda
honddu
hondt
honduras
honest
honestis
hong
honid
honikl
honne
honnes
honneur
honnez
honnezh
honor
honore
honorius
honseil
honsil
honsolation
honsoli
honsul
hont
hontadennou
hontou
hontrel
hontrol
honzeu
hood
hop
hopal
hopas
hope
hopkins
hopper
hopr
hor
hora
horai
horaiz
horan
horas
horatius
hordenn
hore
horeaneg
horf
horfad
horfou
horizonte
horn
hornad
hornandoned
hornaoueg
hornek
horniou
horno
hornog
horo
horolaj
horonal
horr
horre
horread
horreur
horribl
horrig
horrol
horrubl
hors
horse
horsfield
hortos
hortoz
hortoze
horus
horv
hos
hosa
hoshan
hospital
hospitaliou
hostaleri
hostaliri
hoste
hostez
hosteziou
hosti
hostiv
hostivou
hostiz
hostizez
hot
hoted
hotel
hotmail
hou
houad
houarn
houarnamant
houarner
houarnet
houarnour
houblad
houc
houd
houde
houdevez
houe
houeac
houec
houeder
houek
houel
houenchou
houenon
houent
houer
houerc
houere
houero
houervder
houesiou
houest
houevrer
houez
houeza
houeze
houezek
houezen
houezet
houezi
houeziou
houfe
houg
houghton
houi
houidi
houie
houient
houitell
houl
houlaouen
houlaouenn
houldri
houle
houlen
houlenn
houlennan
houlennann
houlennas
houlennaz
houlenne
houlennent
houlenner
houlennet
houlennit
houlenno
houlennomp
houlennont
houlennot
houlennou
houli
houliou
houll
houlou
houls
houlz
houlzad
houma
houman
houmoul
houn
houndaonaz
hounez
hounezas
hounezaz
houneze
hounezer
hounezo
hounid
hounit
hounnez
hounnezh
hount
hountrol
hour
hourc
hourdoner
hourdrouz
hourenez
hourien
houriz
hourrier
hourvez
hous
house
housk
housked
housperou
houst
houstianc
houstians
houstianz
hout
houve
houver
houzan
houzanv
houzoc
houzomp
houzon
houzont
houzoud
houzoug
houzouk
houzout
houæc
hov
hove
hovezour
how
howard
hoxha
hoz
hozael
hozh
hoziad
hpenn
hr
hra
hrabanou
hrac
hrad
hraet
hrafenn
hragez
hran
hrank
hrant
hraou
hras
hrasou
hraz
hre
hreat
hrec
hreche
hred
hreden
hredennou
hredet
hredi
hredit
hreg
hregin
hrei
hreiste
hreisteiz
hreiz
hrek
hren
hrennard
hrennlavar
hrennvrezhoneg
hrenvlec
hrer
hres
hresian
hresianed
hresianeg
hresianek
hresk
hresteiz
hret
hreu
hreun
hreunen
hri
hrign
hrim
hrist
hristen
hroaidur
hroaz
hroaziou
hroc
hroe
hroeit
hrog
hrogad
hronik
hrouadur
hroue
hrouer
hrouet
hrsg
hræce
hræceu
hskeudenn
hskeudenner
hskeudennerezh
hskeudennin
hskeudennou
hstan
hted
htm
html
htro
http
https
htu
hu
huanad
huanada
huanadi
huanadou
hub
hubert
hubet
huchal
hud
hudennou
hudour
hudouriezh
hudson
hudur
hue
huec
huel
huela
huella
huelloc
hueloc
huero
hues
huez
hugennou
hugh
hughes
hugo
hugues
hugunodet
hui
huirione
huitaat
hul
hum
humaine
human
humanite
humano
humbl
humble
humboldt
hume
humen
humilia
humiliein
humiliet
humilite
humor
humphrey
humun
humuniezhiou
humuniou
hun
hunan
huned
hungarat
hungareg
hungarek
hungaria
hunt
hunter
hunvre
hunvreal
hunvreou
huon
hur
hure
hurun
hurunen
hus
hussein
hustum
huvre
huw
huy
huz
huzh
huzul
huzulier
huzuliou
hved
hvet
hvien
hwec
hwed
hweder
hwek
hwel
hwen
hwerv
hwevrer
hwez
hwezan
hwezek
hwezh
hwezhan
hwezhet
hwezin
hwi
hwil
hwiled
hwitadenn
hwitan
hwitellat
hwitet
hwytyn
hy
hyacinthe
hyde
hydrornis
hyginus
hymn
hywel
hæ
hæd
i
ia
iac
iad
iade
iaith
ialc
ian
iann
iannic
iannig
iannik
iaou
iaouan
iaouanc
iaouang
iaouank
iaouanka
iaouankik
iaouankiz
iar
ias
ibe
ibered
iberek
iberia
iberocoop
ibid
ibil
ibiz
ibn
ibrahim
ic
ice
ich
ici
icterus
id
ida
idade
idan
ide
idea
ideal
ideia
ideias
idem
identelezh
identificac
identificar
identity
ideologiezh
idiomas
ido
idol
idolatri
idolou
idou
idris
idume
idwal
ie
iea
ieas
ieaz
iec
iehann
iei
iel
ielo
ien
ienien
ienn
iennou
ieo
ieot
ieoten
ier
ies
ieu
ieuan
iez
if
ifan
ifern
iferniou
ig
iga
iglesias
ign
ignacio
ignas
ignoranc
ignorance
ignorant
igor
igou
ihue
ihuel
ihuelloh
ihuern
ii
iiet
iii
iiide
iiie
iiiet
iiivet
iit
iivet
ije
ijin
ijinadenn
ijinadennou
ijinan
ijinas
ijiner
ijinerez
ijinerezh
ijinet
ijinour
ijinourien
ik
ikko
il
ildefonso
ildud
ildut
ile
ilh
ilha
ilias
ilin
ilinad
ilis
ilisieu
ilisou
iliz
ilizo
ilizou
ill
illa
ille
illinois
illirianed
illit
illustrated
illustre
ils
iltud
im
imach
imachou
image
imagem
imagens
images
imagination
imagine
imbourc
imdb
imita
imitation
immortel
imor
imp
impacto
impalae
impalaer
impalaerded
impalaered
impalaerel
impalaerez
impalaerezh
impalaerien
impalaeriezh
impe
imperia
imperial
impi
imple
implementac
implich
implij
implija
implijad
implijas
implije
implijer
implijerien
implijet
implijetan
implijidi
implijou
implijout
importa
important
importante
importantes
impossible
impossubl
imprensa
impression
imprimerie
impur
impurete
imre
imur
in
ina
inbhir
inc
incarnation
incentivar
inclination
inclinationeu
inclinationou
inclui
incluindo
incluir
inclusa
inclusive
ind
indan
inde
independent
index
indez
indezeuropek
indi
india
indian
indiana
indianapolis
indianed
indicator
indicus
indie
indign
indivi
individual
indo
indonezeg
indonezia
indre
indul
indulgeanc
induljance
induljansou
industriezh
indycar
ine
inean
ineanneu
inemp
ineo
ineou
infam
infant
infantez
infantry
infe
inferior
inferno
infini
infinimant
infinit
infinite
infirmiteou
info
infobretagne
informac
information
ingal
ingalan
ingalet
inge
ingeborg
ingle
ingorto
ingrat
ingrateri
ingres
ini
inicial
iniciativa
iniciativas
inis
inisan
inizan
inizi
injur
injust
inka
inkane
inkin
inn
innoc
innosant
innsbruck
ino
inosant
inou
inour
inourein
inouret
inourieu
inovac
inquietud
inscric
insee
inside
insignis
inspira
inspiration
inspirationou
inspiret
instant
institue
instituet
instituic
institut
institute
institution
instituto
instruction
instructioneu
instructionou
instruet
instrugein
instrui
insularis
int
intan
intantion
intanv
intanves
intanvez
intanvezed
inte
integrac
intel
intelligence
intent
intention
inter
interac
interactive
interamant
intercession
interdum
interessadas
interessados
interessante
interesse
interesses
interest
interet
interieur
interior
interlingua
intermedia
intermedius
internacional
international
internationale
internet
interno
interret
interview
into
introduction
intron
introun
intru
intrudu
inuktitut
inutil
invasion
inve
inverno
invisibl
io
ioa
ioc
iod
iolo
ion
iona
ionia
iorwerth
iou
ioual
iouank
iouc
ioue
ioul
ioulou
iowa
ip
ipa
iparralde
ippolita
ippolito
ipsum
ir
ira
irak
iran
iranek
iraq
irc
ire
ireann
ireland
irene
irien
irienn
irione
iris
irish
irland
irlande
irma
iron
irvi
irvin
irving
is
isaac
isabel
isabella
isabelle
isaf
isai
isaias
isbn
ise
isidor
isis
iskerentiad
iskevandir
iskis
iskiz
isla
islam
islamek
island
islandeg
islands
islavarenn
isle
islonk
ismael
iso
isola
isotopic
ispicial
ispilh
ispisial
isprefeti
isprit
israe
israel
israelat
israelited
isrannet
issahara
isskourr
issn
isso
isspesad
issue
ist
istanbul
istim
istime
istimet
isto
istor
istorel
istoriou
istorour
istorourez
istorourien
istribilh
isurzhian
it
ita
itali
italia
italian
italiana
italianed
italianeg
italianek
italiano
italo
italy
ite
iter
itre
itron
itronezed
itroun
its
ittein
iu
iucn
iud
iudal
iulius
iun
iune
iupac
ius
iuze
iuzevien
iv
ivan
ive
iverzon
ives
ivet
ivez
ivi
ivin
ivinou
ivon
ivona
ivonig
ivvet
iwan
iwe
iwerzhon
iwerzhonat
iwerzhoneg
iwerzhonek
iwerzhoniz
iwerzon
iwerzoneg
iwerzonek
iwerzoniz
iwo
ix
ixvet
iz
izaak
izabel
ize
izel
izela
izelaat
izelan
izell
izella
izelloc
izeloc
izelvroat
izelvroeg
izelvroek
izelvroiou
izelvroiz
izidor
izili
izold
izom
izomm
izotop
izotopou
j
ja
jabadao
jac
jack
jackie
jackson
jacky
jacob
jacobs
jacopo
jacq
jacqueline
jacques
jadenn
jadennou
jae
jaffa
jaffre
jaffrennou
jaffrez
jafrez
jahinerezh
jahinet
jaime
jakes
jaketa
jakez
jakob
jakou
jal
jala
jalm
jam
jamaika
jamais
james
jamin
jamæs
jan
jane
janed
janedig
janedik
janeiro
janet
janig
jann
janned
jannedig
jannedik
jannet
january
janvier
jaoua
jaouen
japan
japanat
japaneg
japanek
japanese
japaniz
japel
japon
jar
jardim
jardin
jardiner
jardinn
jardrin
jarl
jarlig
jas
jason
jauge
jaugeabl
jaume
jaune
java
jave
javier
javre
jawa
jay
jazz
je
jean
jeann
jeanne
jeannette
jeant
jec
jed
jedet
jedi
jedin
jedoniezh
jedoniour
jef
jeff
jefferson
jeffrey
jeg
jehan
jela
jelvestr
jemp
jen
jena
jench
jener
jeneral
jeneraled
jenkins
jenn
jenned
jennifer
jenny
jenovefa
jent
jentil
jentiled
jer
jeremi
jeremy
jeriko
jermen
jero
jerom
jerry
jersey
jerus
jerusalem
jeruzalem
jerzenez
jerzenezek
jes
jesse
jessie
jesu
jesus
jet
jetsemani
jeu
jeune
jeunes
jeunesse
jeux
jewish
jez
jezegou
jezuist
jezuisted
jezus
jezuz
ji
jibraltar
jil
jili
jilig
jim
jima
jime
jimmy
jin
jing
jipt
jiptianed
jistr
jit
jj
jk
jo
joa
joab
joachim
joaiou
joakim
joan
joanna
joaqui
joaquim
joas
joau
job
jobig
joc
jod
joe
joel
johan
johann
johanna
johannes
john
johnny
johns
johnson
johnston
joie
joint
joinville
jojeb
jolie
jolori
jom
jomas
jomaz
jome
jomm
jomme
jomo
jomp
jon
jonas
jonatas
jonathan
jones
jong
jont
joram
jord
jordan
jordania
jordi
jorge
jorj
jorjia
jorjianeg
jorjieg
jos
jose
josef
josefa
josep
joseph
josepha
joshua
josias
josilin
josse
josue
jou
jouan
jouissa
joumaz
joume
jour
jourdan
jourden
journal
journe
journey
jours
jout
joy
joyce
jozafat
jozeb
jozef
jozeph
jozue
jpg
jr
ju
jua
juan
juana
jubainville
jubile
jud
juda
judas
judaz
jude
judea
judee
judeo
judevien
judit
judith
judual
juge
jugeamant
jugein
jugemant
jugemanteu
juillet
juin
juive
jul
jules
julho
julia
julian
juliana
julie
julien
juliette
julio
julius
jullian
juluan
july
june
jungle
junho
junior
juniper
junto
jupiter
jura
jure
juri
jus
jusevien
jusqu
jussieu
just
juste
justic
justice
justices
justifiet
justin
justinian
justis
justiz
jutland
juzevien
k
ka
kaat
kab
kabac
kabell
kabestr
kabilia
kabiten
kablus
kabluz
kac
kachmir
kad
kadarn
kadarnaat
kadarnaet
kadig
kado
kador
kadored
kadoriad
kadoriou
kadou
kadoudal
kadour
kae
kaer
kaera
kaeraet
kaeran
kaero
kaeroc
kaesar
kaez
kaezar
kaezh
kafe
kafka
kai
kaier
kailh
kain
kala
kalc
kale
kaled
kaledet
kaledonia
kalet
kaletoc
kalif
kalifornia
kallag
kalloc
kalloud
kalon
kalonad
kalonek
kalonou
kaloun
kalounek
kalounou
kals
kalvar
kalvez
kalz
kalzig
kalzik
kam
kamarad
kambodja
kambr
kameroun
kamm
kammbronn
kammed
kamp
kampagn
kampion
kampionad
kampionez
kampou
kampr
kan
kana
kanaan
kanab
kanada
kanadian
kanan
kanaouen
kanaouenn
kanaouenno
kanaouennou
kanariez
kanas
kane
kanenn
kaner
kanerez
kanerien
kanet
kanin
kanit
kankaven
kann
kannad
kannaded
kannadez
kannadig
kannadour
kannan
kannati
kannerez
kannet
kanol
kanolierezh
kanoliou
kanomp
kanou
kansas
kant
kantadou
kantik
kantikou
kanton
kantoniou
kantren
kantrev
kantved
kantvedou
kantvet
kanv
kanvet
kanvou
kaoc
kaokaz
kaokazek
kaol
kaon
kaou
kaoud
kaouenn
kaourintin
kaout
kaoz
kaozeal
kaozeet
kaoziou
kap
kappadokia
kar
karabac
karadeg
karadon
karaez
karan
karante
karantez
karantezus
karantezuz
karbed
karbedou
karbon
karc
kardinal
kare
karel
karen
karet
karez
karfe
karfec
karfen
karg
karga
kargan
karget
kargidi
kargou
kari
karib
karibek
karie
karin
karintia
karit
karje
karl
karloman
karlsruhe
karmel
karmez
karn
karnag
karnoed
karo
karolina
karoline
karomp
karoud
karout
karozh
karr
karreg
karrek
karrez
karta
kartada
kartenn
kartennou
karter
karteriou
kartou
karv
kas
kasas
kasaz
kase
kased
kaset
kasi
kasin
kasit
kasjont
kaso
kasoni
kasouni
kaspar
kaspia
kass
kassaz
kassel
kasset
kassoni
kast
kastel
kastell
kastellin
kastilha
kastilhaneg
kastilli
kastiz
kastiza
kastizan
kastizet
kat
katakana
katalan
katalaneg
katalanek
katalog
katalonia
katarina
kate
katekiz
katel
katelin
katell
katellig
katharina
kathedral
katherine
kathleen
katholik
kato
katolik
katoliked
kaup
kav
kavadenn
kavan
kavas
kavaz
kave
kaved
kavell
kavent
kaver
kavet
kaveur
kavi
kavin
kavit
kavjont
kavo
kavomp
kavont
kavot
kavoud
kavout
kawan
kaz
kazac
kazakstan
kazeg
kazel
kazetenn
kazetenner
kazetennerez
kazetennerien
kazetennou
kazh
kazi
kbsa
ke
kea
keal
kear
keaz
kebek
kebekat
ked
kedez
keep
kef
keflusker
kefluskeriou
kefridi
kefridiel
kefridiou
kegin
keginan
keginer
keginerezh
kehentin
kei
keid
kein
keit
keitat
keith
keiz
kej
kejan
kejas
kejet
kel
kelaouenn
kelaouenner
kelaouennou
kelaouin
kelc
keleier
kelen
kelenn
kelennadurez
kelennadurezh
kelennas
kelenne
kelenner
kelennerez
kelennerien
kelennet
kelien
kell
keller
kelligou
kelly
kelo
kelou
kelt
kelted
keltia
keltiat
keltieg
keltiek
kelvez
kember
kemberin
kembraeg
kembraegerien
kembraek
kembre
kembreat
kembreiz
keme
kemen
kemend
kemener
kemenn
kemennet
kement
kementad
kementadou
kementse
kemer
kemeras
kemeraz
kemere
kemeret
kemerit
kemerjont
kemeromp
kemerout
kemm
kemmadur
kemman
kemmas
kemmesk
kemmeskan
kemmesket
kemmet
kemmou
kempen
kempenn
kempennet
kemper
kemperle
kemplezh
kempouez
kempred
ken
kenan
kenaozet
kenavezo
kenavo
kendalc
kendelc
kenderc
kenderv
kendeuzet
kendeuzin
kendirvi
kendrec
kened
kenedus
keneil
kenemglev
kenetreze
kenetrezo
kengevread
kengevreet
kenglad
kengor
keniterv
kenkent
kenkiz
kenkouls
kenkoulz
kenlabour
kenlabouras
kenlabourat
kenlabouret
kenn
kennebeud
kennebeut
kennedy
kennerzet
kenneth
kennig
kenniga
kenniget
kenofisiel
kenou
kenseurt
kenseurtez
kenskrivet
kensonenn
kensonennel
kensonennou
kenstrivadeg
kenstrivadegou
kenstur
kent
kenta
kentael
kentan
kentanv
kente
kenteh
kentel
kenteliet
kenteliou
kentidik
kentoc
kentucky
kenunaniezh
kenver
kenveria
kenvreuriez
kenwerzh
kenwerzhel
kenya
keoded
keodedel
keodedou
keodedour
keodedourien
ker
keraat
keraez
kerangal
kerarborn
kerbalanek
kerc
kerdin
kerdiz
kerdu
kere
keren
kerent
kerentiad
kerentiezh
keret
kerez
kergidu
kergrist
kergustentin
kerhet
kerhuon
kerien
keriou
kerjean
kerken
kerkent
kerkouls
kerkoulz
kerlaban
kerlo
kerlouan
kermenguy
kermoal
kern
kerne
kernev
kerneveg
kerneveureg
kerneveurek
kerniel
kernow
keroc
kerofis
keroulaz
kerrain
kerreg
kerrier
kers
kerse
kervalan
kervarker
kervarzin
kervel
kervella
kervoura
keryann
kerz
kerzet
kerzh
kerzhet
kerzhout
kerzit
kerzout
kerzu
kerzuliek
kest
kestal
kestell
ket
ketan
keu
keun
keuneud
keuneut
keuneuta
keur
keuz
kev
kevanaozet
kevandir
kevandirel
kevatal
kever
kevezadeg
kevezerezh
kevig
kevin
kevnid
kevre
kevread
kevreadel
kevreadurezhel
kevredad
kevredadel
kevredadou
kevredet
kevredigez
kevredigezh
kevredigezhel
kevredigezhiou
kevreet
kevrenn
kevrennek
kevret
kevrin
kevrinus
key
kez
kezar
kezeg
kezek
kg
khan
khm
ki
kian
kib
kiberen
kichen
kichenik
kichenn
kid
kids
kiel
kiev
kig
kigdebrer
kigenn
kigennou
kiger
kignat
kignet
kik
kil
kilan
kilhog
kill
killer
killing
kilometr
kilometrad
kim
kimerc
kimiad
kimiada
kimiadin
kimiek
kimiezh
kimiour
kin
kind
kinder
king
kingdom
kingdoms
kings
kingston
kinkladur
kinklan
kinklet
kinnig
kinnigas
kinniget
kinnigou
kintin
kiprenez
kirby
kirgizstan
kiribati
kiriek
kirillek
kirit
kirk
kirke
kirri
kirvi
kis
kiss
kistin
kistreberzh
kit
kitts
kivoron
kiz
kizeller
kizellet
kizellour
kizhier
kizidik
kjk
kk
kla
klan
klann
klanv
klaoda
klaodinai
klaoustre
klara
klas
klasel
klask
klaskas
klaske
klasker
klaskerien
klasket
klaskit
klaskont
klasou
klaus
klavier
kle
kleder
kleier
klein
kleiz
kleman
klemant
klemm
klemmou
klen
klenved
klenvejou
kleo
kleopatra
klerg
klet
kleu
kleub
kleuz
kleuzan
kleuzet
klev
klevas
klevaz
kleve
kleved
klever
klevet
klevit
kleviz
klevout
klewas
klewet
kleze
klezeier
klison
klo
kloar
kloareg
kloarek
kloc
klod
kloerdi
klok
klopenn
klot
klotaat
klotan
klouar
klovis
kloz
klozan
klozet
klt
klub
kluchan
kludet
km
knight
know
knowledge
knut
ko
koad
koadeg
koadegi
koadeier
koadek
koadou
koajou
koan
koanian
koant
koantik
koantoc
koar
koat
koc
koch
kod
kodet
kodianan
kodou
koe
koed
koen
kof
kofesour
koh
kolai
kolier
koll
kollas
kollet
kollou
kolo
kolombia
kolombian
koman
komandant
komark
kombod
komedienn
komer
komerret
komiser
kommunia
komor
komorez
kompagnunez
kompagnunezh
kompez
kompezenn
kompezennou
kompren
komprenet
koms
komsou
komunour
komz
komza
komzan
komzaz
komze
komzer
komzet
komziou
komzit
komzo
komzou
kon
konan
kondaonet
kondon
kondt
konfort
konfusian
konfusius
kong
kongar
kongo
kongoek
konikl
konk
konrad
konsakret
konsevet
konsil
konstans
konstantin
konstantinopl
konstanza
konsul
kont
konta
kontadenn
kontadennou
kontammet
kontan
kontant
konted
kontelezh
kontelezhiou
kontell
konter
kontet
kontez
kontilli
kontrol
kontrollet
konwoion
konz
kopenhagen
kor
korantin
kordenn
kordofanek
kore
korea
korean
koreaneg
korf
korfad
korfadurezh
korfou
korn
kornad
kornaoueg
kornek
korniou
korno
kornog
koroll
korollerez
koronal
korr
korrig
korseg
korsika
korvoin
korz
kos
kosa
koshaat
koshan
koshoc
koskoriad
kosoc
kosovo
koste
kostez
kostezenn
koton
kou
koublad
koublet
kouchitek
koue
koueet
kouenchou
kouent
kouer
kouerien
kouevr
kouez
koueza
kouezan
kouezas
kouezaz
kouezet
kouezh
kouezhan
kouezhas
kouezhet
kouh
koukiek
koukoug
koulm
koulmig
kouls
koulskoude
koulz
koulzad
koulzgoude
koumanant
koumoul
koumpagnunez
koumpren
koun
kounac
koundaonet
kounje
kounnar
kounnaret
kount
kounta
kountet
kountrol
kourc
kouronkan
kousk
kouske
kousket
kouskoude
koust
koustet
koustians
kousto
koustus
kovesour
kovez
koweit
koz
kozh
kozhan
kr
kra
krabanou
krag
krai
kraj
krak
krampoez
krampouez
krampouezh
kran
kranked
kraon
kraou
kraouian
kraozon
kras
kraz
kre
kreac
krec
kred
kredabl
kredan
kredas
krede
kreden
kredenn
kredennou
kreder
kredet
kredi
kredin
kredit
kregi
kregin
kreis
kreiste
kreisteiz
kreiz
kreizafrikan
kreizamerika
kreizdouar
kreizdouarek
kreizdouarel
kreizenn
kreizennet
kreizennou
kren
krena
krenan
krenn
krennamzerel
krennard
krennarded
krennet
krennlavar
krennvrezhoneg
krennvrezhonek
krenv
krenvoc
kreoleg
kreon
kresk
kreskas
kreske
kresket
kreski
kreskin
kresteneged
kreta
krevoc
krez
kri
krial
kridi
krign
krigner
krignerien
krignet
krimea
krin
krisoc
krist
kristen
kristenez
kristenien
kristian
kristina
kristof
kristol
kriu
kriz
krizder
kro
kroateg
kroatia
kroaz
kroaziadeg
kroaziou
kroc
krog
krogad
krogadou
krogas
kroge
kroget
krogit
kromm
kronologiezh
kronos
krouadur
krouas
krouer
krouerien
krouet
krouget
krouidigezh
krouin
kroz
krozal
krozon
kru
kt
ku
kuba
kuban
kubrick
kudenn
kudennou
kui
kuit
kuita
kuitaas
kuitaat
kuitaet
kuitat
kumun
kumuniezh
kumuniezhiou
kumuniou
kun
kunsthistorisches
kupidon
kurdeg
kurdistan
kure
kurt
kurun
kurunen
kurunenn
kurunennet
kurunet
kush
kustentin
kustum
kuz
kuzat
kuzet
kuzh
kuzhat
kuzhet
kuzul
kuzulerien
kuzuliadeg
kuzulier
kuzulierez
kuzulierien
kuzuliou
kv
kved
kw
kwe
kwele
kwelet
kwit
ky
kyiv
kymwt
kyo
kyrie
kyu
kzu
kær
kɑ
kɔ
kɔj
kɔjn
kɔn
kɛ
l
la
lab
laban
labe
label
laboratory
labour
laboura
labourad
labouradeg
labouradegou
labouras
labourat
labouraz
laboure
labourer
labourerien
labourerion
labouret
labourieu
labouriou
labourit
labouro
labouromp
labourou
labourva
labous
laboused
labouz
labrador
lac
laca
lacaas
lacaat
lacad
lacai
lacat
lacroix
lado
lady
lae
laer
laeres
laeret
laerez
laerezh
laeron
laeronsi
laeroun
laez
laezh
laffont
lafolye
laga
lagad
lagadeg
lagadennou
lagat
lago
lagoa
lagos
laguna
lahein
lahet
lai
laine
lair
laireah
lait
lajat
lak
laka
lakaad
lakaas
lakaat
lakad
lakae
lakaer
lakaet
lakafe
lakai
lakaio
lakait
lakaje
lakas
lakat
lakaz
lake
lakea
lakeas
lakeat
lakeaz
lakeet
lakeit
lakejont
lakeomp
laker
laket
lakez
lakin
lakit
lakjont
lako
lakomp
lam
lama
lamb
lambal
lambaol
lambert
lamborghini
lamet
lamm
lammas
lammat
lammaz
lamme
lammet
lammig
lammou
lammout
lamp
lampon
lan
lanc
lancashire
lancaster
lance
lancelot
land
lande
landerne
landes
landevenneg
landevennek
landgrav
landivizio
landreger
lane
lanfeust
lang
langach
langage
lange
langlais
langleiz
langoned
language
languages
langue
languedoc
langues
lanhuon
lanie
lanig
lanik
lanius
lanka
lann
lannarste
lanneg
lanneier
lannevern
lannig
lannion
lannstefan
lannuon
lans
lanv
lanzeon
lao
laon
laoran
laos
laosk
laoskaat
laoskas
laoskaz
laosket
laou
laoudour
laoue
laouen
laouenaat
laouenan
laouenedigez
laouenidigez
laouenn
laouer
laouet
laoui
laouig
laouik
laouit
laouo
lapin
lapineta
laporte
lapous
lapoused
lapurdi
laq
laqat
laqet
laqit
laqua
laquad
laquas
laquat
laque
laqueet
laquei
laqueit
laquet
lar
lara
larai
laramb
laran
larann
laras
laraz
lard
larda
lare
larer
laret
large
largentez
larkoc
laro
larou
larousse
larout
larry
lars
lart
larus
las
laser
lasou
last
lastez
lat
late
latin
latina
latinaat
latinekaet
latino
latran
latveg
latvia
lau
lauda
laudate
laudes
lauenburg
laura
laure
laurence
laurent
laurie
laus
lausanne
lausket
lausq
lausquet
lava
laval
lavar
lavara
lavaran
lavarann
lavaras
lavarat
lavaraz
lavare
lavared
lavaren
lavarenn
lavarent
lavarer
lavaret
lavarez
lavarfe
lavarfen
lavarin
lavariou
lavarit
lavarjont
lavaro
lavaromp
lavaront
lavarou
lavaroud
lavarout
lavnenn
lavreer
law
lawrence
laws
lay
laz
laza
lazan
lazar
lazas
lazaz
laze
lazer
lazerez
lazet
lazh
lazhadeg
lazhadeget
lazhadegou
lazhan
lazhas
lazher
lazhet
lazio
lazit
lazo
lazou
lb
ld
le
lea
leac
leach
league
leah
leal
lealded
lealdet
lean
leandi
leandro
leaned
leanes
leanez
leanezed
learn
learning
leaz
leb
leben
lec
lecce
lecco
lech
lechatjaune
leclerc
lectur
lecture
led
leda
ledan
ledanaat
ledanaet
ledander
ledanoc
ledas
ledenez
ledet
lee
leeds
lefebvre
lefournier
left
leg
legal
legend
leger
legio
legion
legitim
legumaj
leh
lei
leian
leicester
leiden
leien
lein
leina
leinan
leine
leinet
leiningen
leinster
leipzig
leiz
leizh
lejion
lejionou
lek
lekeat
lekeaz
lekejont
lekeot
lellig
lem
lemel
lemet
lemm
lemmet
lemoine
lemojez
lemy
len
lena
lengua
lenin
leningrad
leninour
lenn
lenna
lennas
lennaz
lenne
lenneg
lennegel
lennegez
lennegezh
lenneien
lenner
lennerien
lennet
lennit
lenno
lennomp
lennon
lennou
lens
lent
lenva
leo
leon
leonard
leonardo
leone
leoned
leonor
leopold
leopoldo
leor
leorig
leorik
leoriou
leou
lep
lepus
lequeas
lequeat
lequeet
ler
lerc
lerenn
lerer
leret
lerh
lern
lerolle
leroux
leroy
les
lesanv
lesanvet
lesanviou
lesel
lesen
leshanvet
leski
leskin
leslie
lesneven
lesotho
less
lesson
lest
lester
lestr
lestraz
let
letanant
letern
leti
leton
letonenn
letras
letter
letters
lettre
lettres
leu
leucophrys
leue
leueou
leun
leunian
leuniet
leur
leuren
leurenn
leurennou
leurge
leuriou
leurs
leuskel
leusket
lev
levar
leve
level
leven
levenez
leveou
lever
leverer
leveret
leverez
leverjont
leveromp
leveront
leverot
leverrot
levezon
levezonet
levezonin
levezonou
levi
levian
levier
levierez
levr
levraoueg
levraouegou
levrdi
levrenn
levrennou
levrig
levriou
levrlennadur
lew
lewis
lewys
lex
lexique
leyden
lez
lezas
lezaz
leze
lezel
lezen
lezenn
lezennel
lezennin
lezenno
lezennou
lezer
lezet
lezhanvet
leziou
lezirek
lezit
lezo
lezobre
lezomp
lezvab
lezvamm
lezvarn
lezvarnel
lezvreur
lfe
li
lia
liam
liamm
liamman
liammet
liammou
lian
liane
liard
lias
liaz
lib
liban
libanus
libe
liber
libera
liberal
liberdade
liberia
libertad
liberte
libertin
liberty
libia
libr
librairie
library
libre
libri
libro
lica
licenc
license
lich
lichtenberg
licinius
licite
lid
lida
lidan
lide
lidel
lideranc
liderezh
lidet
lidi
lido
lidou
lie
liebe
liechtenstein
lien
lienn
lies
liesliv
liessan
liesseurt
liester
liet
lieu
lieux
liez
life
lig
liger
light
ligne
lignez
ligue
ligured
liguria
lijer
lik
like
likid
likiinn
likit
lila
lili
lilien
lille
lima
limage
limageu
limbourg
limbourgeg
limburg
limestra
limitation
limite
limited
limites
lin
lincoln
lincolnshire
linda
line
linea
linen
linenn
linennou
lingala
lingu
lingua
linguistics
linguistique
linha
link
links
linn
linnaeus
linne
lintier
linux
lio
lion
lionel
liors
liorz
liorzh
liorzhou
liorzou
liou
lip
lipat
lippe
lique
liquit
lire
lirzin
lis
lisa
lisabeth
lisboa
lisbon
lise
lisieux
list
lista
liste
listenn
listennad
listri
lit
litaniou
lite
lited
literary
literatura
literature
litr
litrad
litte
little
lituaneg
lituania
lituanian
liu
liv
liva
livadur
livaduriou
livan
livas
live
livenn
liveou
liver
liverezh
liverpool
lives
livet
livia
living
liviou
liviri
livirin
livirinn
livirit
liviriz
livius
livour
livourez
livourien
livouriezh
livr
livre
livremente
livres
livret
livreu
livro
livros
lix
liz
lize
lizer
lizeren
lizerennou
lizeri
lizeriou
lizerou
lizher
lizherenn
lizherenneg
lizherennegou
lizherennou
lizherou
lizhiri
liziri
ljɔw
ll
lla
llad
llamb
llan
llanafan
llanandras
llanarmon
llanbadarn
llanbedr
llanbister
llanbryn
llanddewi
llandinam
llandrindod
llandrinio
llandysilio
llanelwedd
llanerfyl
llanfair
llanfechain
llanfihangel
llanfrynach
llanfyllin
llangadfan
llangadwaladr
llangamarch
llangatwg
llangedwyn
llangors
llangurig
llangynidr
llangynllo
llangynog
llangynyw
llanidloes
llanigon
llanllugan
llanlly
llanrhaeadr
llansanffraid
llansantffraed
llansilin
llant
llanwddyn
llanwrin
llanwrthwl
llanwrtyd
llanwyddelan
llanymynech
lle
lleoedd
ller
llogel
llorona
lloyd
llui
llwyd
llwydiarth
lly
llydaw
llyfr
llyn
llys
llythynwg
llywarch
llywel
llywelyn
ln
lo
loa
load
loaiou
loan
loaned
loar
loarell
loarenn
loarennou
loc
locais
local
loch
lochen
lochenn
locus
lod
lode
lodek
loden
lodenn
lodennet
lodennou
lodi
lodie
lodies
loe
loeiz
loeiza
loen
loened
loenet
loenig
loenoniezh
loenoniour
loerou
log
loge
logell
logigou
logo
logod
logoden
logodenn
logunec
loi
loin
loir
loire
loiret
lois
loiz
loj
loja
lojan
lojeiz
lojet
lok
lokeored
lokmaria
lokorn
lokournan
lokrist
lola
lolfa
loloek
lom
lombard
lombarded
lombardia
lomig
lomm
lommig
lon
london
londres
londrez
long
longirostris
longo
longue
lonk
lonka
lonkan
lonker
lonket
lonne
lons
look
looking
lope
lopes
lopez
lor
lorans
loranz
lorc
lorca
lord
lore
loreet
lorem
loren
lorenz
lorenzo
lorgnez
lorh
lorient
loro
lorraine
los
losk
losket
lost
lostek
lostenn
lostger
lostgeriou
lostou
lot
lotar
lotei
loth
lotus
lou
louarn
louc
loud
loude
loudieg
loued
louet
louis
louise
louisiana
louiz
louiza
louiziana
loull
loun
loup
loupard
lourd
lourdes
lous
loustoni
lout
louvre
louz
louzaouenn
louzaouer
louzaoui
louzaouin
louzawour
louzawouriezh
louzeier
louzou
love
lovecraft
loves
lovisa
low
lp
ls
lt
ltd
ltima
ltimo
ltimos
lu
lubric
lubricite
luc
luca
lucas
lucca
luce
luch
lucia
luciana
luciano
lucien
lucifer
lucius
luck
lucky
lucrativos
lucrezia
lucy
ludovico
ludu
ludueg
ludwig
lue
lufr
luftwaffe
lug
lugan
lugar
lugdunensis
lugern
lugerne
lugerni
lugernus
lugernuz
lugo
lugubris
lugus
lui
luigi
luiou
luis
luisa
luise
luiz
lukas
lukaz
luke
lukian
luksembourg
luksembourgeg
lumen
lumie
lun
luna
lune
lunedou
luniou
lupo
lupus
lur
luriou
lus
luscinia
lusia
lusian
lusifer
lusine
lusitania
lusk
luskad
luskadou
luskellat
lusker
lusket
luso
lusofonia
luther
lutley
lux
luxembourg
luxemburg
luz
luzel
luziet
lv
lvarez
lvaro
ly
lybius
lydia
lynch
lynn
lyon
lyrics
lys
lyskerrys
læc
læn
lɑ
lɔ
lɔj
lɔjn
lɔn
lɛ
lɛn
m
ma
maarten
maastricht
mab
mabic
mabig
mabik
mabinogi
mabinogion
mac
macaca
macdonald
mace
macedonia
macha
machado
machikoul
machine
machynlleth
macmillan
macron
maculatus
mad
madagascariensis
madagaskar
madalen
madame
madarek
maddalena
made
madec
madeg
madeira
madele
madeleah
madeleine
madelen
madeles
madelez
madelezou
madelezus
madelezuz
mademoiselle
madeu
madison
mado
madoberou
madog
madonna
madou
madre
madrid
mae
mael
maen
maer
maerdi
maeronez
maes
maez
maeziou
mafalda
mafia
mag
maga
magadur
magadurez
magalha
magallanes
magan
magazin
magazine
magdalena
magdalene
mager
magerez
maget
maggiore
maghreb
magi
magic
magister
magna
magnificat
magnifico
magnus
maha
mahe
maheu
mahomet
mai
maid
maigh
mail
mailh
main
maine
maint
mainz
maio
maior
maiores
maioria
mair
maire
mais
maison
maisonneuve
maivon
maiz
majeste
major
makao
make
makedoneg
makedonia
makes
making
maksim
mal
mala
malan
malatesta
malawi
malayseg
malaysia
malcolm
maldivez
male
malet
maleu
maleur
maleurus
malezia
malheur
malheurus
mali
malice
malin
mall
mallorca
malloz
mallozh
malmanche
malo
malory
malou
malraux
malta
malteg
maluku
malurus
mam
mameu
mamm
mammal
mammenn
mammennou
mammig
mammik
mammou
mamou
man
manac
manafon
management
manase
manati
manatiou
manav
manaveg
mancha
manche
manchester
manchouria
mancini
mancout
mandela
mane
maneira
maner
maneriou
manet
manga
mangeek
mango
manha
manhattan
mani
manie
manifestadeg
manifestadegou
manifesto
manila
manitoba
mank
manket
mankout
mann
mano
manos
manq
manque
manquein
manquet
mans
mant
mantel
mantell
manter
mantova
mantret
mantrus
manu
manuel
manus
manuscrit
many
mao
maodez
maodiern
maoour
maoris
maoron
maouez
maouezed
maouezi
maouritania
maout
maoutken
map
mar
mara
marabout
marais
maranha
maratona
marbr
marc
marca
marce
marcel
march
marchand
marche
marchosi
marcinelle
marco
marcos
marcus
mard
mare
maread
marechal
maredudd
marek
marellet
mareou
marevez
marevezh
margaret
margareta
margarete
margarethe
margarita
margherita
margodic
margot
margrav
marguerite
marh
marhue
marhuel
marhuet
mari
maria
mariage
mariana
marianna
marianne
mariano
marichal
marie
marigo
marilh
marilhet
marilhou
marilyn
marin
marina
marine
marines
marinespecies
marino
mario
marion
maris
maritime
maritimes
marius
marivonig
mark
market
markis
markiz
markizez
marksour
marley
marmouz
marmouzed
marne
maro
maroko
marque
marquis
mars
marse
marseilh
marseille
marsel
marselha
marshall
mart
marta
marte
martel
martese
marteville
marteze
martha
marthe
marti
martial
martin
martina
martine
martinez
martini
martinik
martino
martins
martinus
martolod
martoloded
maru
marv
marvad
marvailh
marvailhou
marvaillou
marvat
marvel
marvet
marviou
marvus
marw
marwet
marx
mary
maryland
maryse
maryvonne
marz
marzh
marzhin
marzin
marziou
mas
mascote
masimilian
maskl
mason
maspero
mass
massa
massachusetts
massacre
massignon
masson
master
masters
mat
mata
matamoros
match
mate
matematik
matematikou
matematikour
mater
materi
materiais
material
mates
mateus
mateusnobre
matez
matezh
math
mathews
mathias
mathieu
mathilde
mathurin
matier
matilda
matilin
matin
matisse
mato
matt
matteo
matth
matthew
matthias
maud
maufrigneuse
maule
maupassant
maureen
mauretania
maurice
mauris
maurizio
mauro
mauvais
mawr
mawrth
max
maxim
maxima
maxime
maximianus
maximilian
maximus
may
maya
mayaeg
mayenne
mayo
mayor
mayotte
maz
mazarin
maze
mazhev
mazoi
mb
mc
mccartney
mccay
mclaren
md
me
mea
meam
mean
means
mear
meas
meau
meaz
mec
mechain
mechan
mechant
mecklenburg
med
medal
medalen
medalenn
medalennou
medar
medea
medesin
medi
media
mediaou
mediawiki
medicea
medici
medieval
medina
medio
medisin
medisined
medisinerezh
medita
meditation
meet
meeting
meglio
mehmet
mei
meid
meifod
meiji
meilh
mein
meinek
meiningen
meio
meios
meirionnydd
meit
meiz
meizad
mekanik
mekanikou
mekka
mel
melan
melanerpes
melangell
melani
melanotaenia
melar
melbourne
melc
melchen
melchon
melen
melenn
melestradur
melestradurel
melestradurezh
melezour
melhor
melhorar
melhores
melhoria
melilla
melin
meliner
meliphagidae
melki
melkoni
mell
mellad
melldroader
mellezour
mellkeineged
mellou
melo
melville
mem
memb
members
membres
membro
membros
meme
memento
memes
memestra
memeus
memeuz
memez
memo
memor
memoria
memorial
memorialgenweb
memories
memory
memphis
memprou
men
mendes
mendon
mendoza
mene
menec
meneg
meneget
menegin
menegou
menek
menel
meneou
menez
meneziek
meneziou
meng
mengleuz
mengleuziou
menguy
menn
mennad
mennaz
mennet
mennou
mennout
mennoz
mennozh
mennozhiou
mennoziou
meno
menoe
menor
menos
menosiou
menoz
menoziou
mensagem
ment
mental
mente
mentek
mentet
mentor
mentou
ments
meo
mer
mera
meran
merc
mercader
mercado
mercedes
mercer
merch
merche
merchet
mercheu
mercia
mercier
mercou
mercury
merdeer
merdein
meren
merenn
merennan
merer
meret
mergl
merh
merhe
merhuel
merien
merit
meritet
meritou
meritout
merk
merka
merkan
merket
merkou
merlin
mern
mero
merops
merour
merq
merquet
merry
merser
merthyr
merveille
mervel
mervent
merzer
merzerenti
merzerez
merzerien
merzeriet
merzet
merzher
merzherez
merzherien
merzheriet
merzout
mes
mesa
mesaer
mesaerien
meses
mesias
mesiaz
mesk
meskaj
meskan
mesket
meskl
mesma
mesmo
mesnil
mesq
messalina
messe
messi
messias
messieurs
messina
mest
mestr
mestrc
mestre
mestres
mestrez
mestroni
mestronian
mestroniet
mesure
mesures
met
meta
metal
metalek
metalou
metamorfozou
method
metodologia
metou
metr
metrad
metro
metropolitan
mettre
metus
metz
meu
meud
meulet
meuleudi
meuleudiou
meulgan
meuli
meulit
meulodi
meulomp
meum
meur
meurbed
meurbet
meurc
meurdezus
meurgan
meurge
meurgorf
meuriad
meuriadou
meurig
meurlarjez
meurs
meurthe
meurvor
meurvoriou
meurz
meurzh
meus
meuse
meutad
meuz
meuziou
mevel
mevelien
meven
mewan
mewel
mexicanus
mexico
meyer
mez
mezeg
mezegiezh
mezek
mezer
mezeven
mezh
mezheven
mezhus
meziant
meziantou
mezo
mezopotamia
mezur
mezus
mezuz
mezv
mezvier
mf
mg
mi
mia
miami
mias
mibien
mibin
mic
mica
micas
mich
michael
miche
michel
michelangelo
michele
michelle
micher
micherel
micheriou
micherour
micherourien
michigan
mick
mickey
mico
micos
microsoft
microtus
middle
midi
midlands
midnight
midway
mie
mies
mieux
might
mignon
mignoned
mignonet
mignonez
mignonezed
mignoniezh
mignoun
mignouned
miguel
mihi
mije
mik
mikael
mike
mikeal
mikel
mikhail
mikronezia
mikstekeg
mikstekek
mil
milan
milano
mile
milendall
miles
milho
miliadou
miliard
milieu
milin
miliner
milinou
milion
milionou
military
mill
mille
miller
milliget
milliguet
million
mills
milon
milour
milourel
milton
milved
mim
min
mina
minamoto
minas
mind
mine
minerva
mines
ming
minh
minha
mini
minic
minie
minihi
ministe
ministr
ministred
ministrerezh
ministrez
minna
minnesota
minoc
minor
minorelezhiou
minos
mintin
mintinvez
minuit
minutes
minutos
mio
mipien
mique
miquel
mir
mira
mirabeau
miracl
miraclou
mirakl
miraklou
miranda
mirc
mirdi
mirdiou
mire
mirer
miret
mirit
mirlec
miro
mirour
mirout
mirror
mirva
mis
mise
miser
miserabl
miserere
misericord
mision
misioner
misionerien
misionou
miss
missa
mission
missionou
mississippi
missouri
miste
mister
misteriou
mistr
mistral
mistri
mit
mitchell
mithridates
mitizien
mitologiezh
mitterrand
miwl
mix
miyazaki
miz
mizer
mizerig
miziek
miziou
mizou
mizvezh
mk
ml
mm
mme
mn
mo
moab
moal
moan
moarvat
mobile
moby
moc
mocae
mochdre
mochnant
mod
mode
model
modelo
modena
modern
moderne
modest
modesti
modification
modo
moe
moel
moereb
moesia
moged
mogedet
moger
mogeriet
mogerio
mogeriou
mohamed
mohammed
moi
moing
moins
moire
moires
mois
moises
moizez
mojenn
mojennel
mojennou
mol
moldavia
moldova
molecular
molekulennou
molenez
moliac
molie
molina
molise
molto
momand
momant
moment
momento
momet
mon
mona
monaco
monako
monarkiezh
monarkiezhou
mond
mondadori
monde
mondiale
mondo
mone
moneiz
monet
monetaria
money
monferrato
monfort
mongoleg
mongolia
monica
monika
monkontour
monne
monnet
mons
monsieur
mont
montagne
montagner
montaigu
montana
montauban
monte
montefeltro
monteiro
montenegro
montes
montesquieu
montevideo
montfort
montgomery
monticola
montigny
montpellier
montre
montreal
montreuil
montroulez
monts
montserrat
monumant
monumantou
monument
monumental
monumentale
monuments
monza
moon
moore
mor
mora
moraer
moral
morales
moravia
morbihan
morc
mordiern
mordred
mordrel
more
moreau
morel
moreno
morfem
morfologel
morfologiezh
morgan
morgane
morgannwg
mori
morial
morian
morin
moriou
moris
moritz
moriz
morlaer
morlaeron
morlaix
morlu
morning
moro
morris
morrison
morro
mors
morse
mort
morte
mortel
mortification
morto
morton
morts
morvan
morvannou
morvarc
morvil
morvran
morzhed
morzhol
morzol
mos
moselle
moskou
moskov
moskva
mosoul
most
mostrar
mot
motacilla
mother
motion
motivo
motivos
moto
mots
motte
mou
moualc
mouar
mouchouer
moudenn
moue
moueek
mouez
mouezh
mouezhiadegou
mouezhian
mouezhiet
mouezhiou
moueziou
moug
mouga
mougan
mouget
mougev
mouilc
mouk
moul
mouladur
mouladuriou
moulerez
moulerezh
moulet
moulin
moulins
moullan
mouller
moullerez
moullerezh
moullet
mount
mountain
mourir
mous
mousc
mouse
mouster
moustret
moutiers
mouton
mouvamant
mouvement
movement
movie
movimento
moyand
moyandeu
moyant
moyen
moyenou
moyne
moyses
mozambik
mozart
mp
mr
mrs
ms
mss
mt
mtv
mu
muallt
much
mud
mudanc
mudar
muhammad
mui
muia
muian
muiel
muihan
muioc
muioh
muita
muitas
muito
muitos
mujer
mul
mulheres
multi
mun
mundi
mundial
mundo
munich
munici
municipal
muntr
muntrer
muntrerien
muntret
muntrou
munud
munudou
munut
munutenn
mur
murat
murcia
murder
muriou
murlivadur
murphy
murray
mus
muscicapa
muscicapidae
musculus
muse
museo
museu
museum
museus
music
musica
musical
musique
musk
mussolini
must
mustafa
mut
mutira
mutiro
muy
muya
muyan
muyoh
muzellou
muzik
muzilheg
muzul
muzulian
muzuliet
muzuliou
muzulman
muzulmaned
muzulmat
muzulmiz
muzur
muzuriou
mw
my
myanmar
mynydd
myspace
myste
myster
mysteriou
mystery
myth
mythe
mythes
mythologie
mythology
mæs
mæstr
mæstre
mæz
mœs
mœz
mɑ
mɔ
mɛ
n
na
nabukodonosor
nac
nach
nacional
nad
nada
nadoz
nadoziou
nadurez
naer
naered
naet
naetaat
nafarroa
nag
nagaek
nagorno
nai
naig
naissance
nak
nam
name
nameid
nameit
names
namibia
nammet
namur
nan
nana
nancy
nann
nant
nantes
nantmel
nao
naon
naoned
naonegezh
naonet
naontek
naontekvet
naoun
naoune
naoured
naoz
napl
naplez
napole
napoleon
napoleone
napoli
narbonensis
nard
naren
narsis
nas
nasa
nash
nask
nassau
nat
natal
nathalie
nathan
nation
national
nationale
nationou
nations
native
natur
natura
natural
nature
naturel
naturour
nau
nav
naval
navarra
naved
navet
navy
nay
naz
nazaret
nazareth
nazer
nazi
nazied
naziegezh
nazionale
nc
nchen
nchez
ncia
ncias
ncipe
nd
nde
nder
ndeu
ndez
ndia
ne
nea
neac
neah
neal
nean
neant
near
neat
neb
nebedigueu
nebeud
nebeudic
nebeudig
nebeudik
nebeudou
nebeut
nebeuta
nebeutan
nebeutoc
neblec
nebraska
neburg
nec
necessa
necessariamente
necesser
necessidade
necessidades
necessite
necessær
ned
nedd
nedelec
nedeleg
nedelek
nederlandat
nederlandeg
nederlandek
need
nef
nefoa
neg
negra
negro
nehai
nehi
nehou
nehue
nei
neil
neill
nein
neiz
neizh
neizhan
neizher
neizhian
nek
neket
neketa
nel
nell
nella
nelson
nem
nemb
nemed
nemedoc
nement
nemert
nemet
nemetan
nemethan
nemeti
nemetken
nemeto
nemeur
nemo
nemorant
nen
nend
nenhum
nenhuma
nennius
nenv
nenvou
neo
neoah
neoazh
neolitik
nep
nepal
nepas
nepell
nepred
nepreizh
neptu
ner
nerh
neri
nerien
nero
neron
ners
nervennou
nerz
nerzh
nerzhiou
nerzhus
nerzus
nerzuz
nes
nesa
nesan
ness
nessa
nessan
nesse
nesta
neste
nestor
net
netra
network
neu
neubet
neubeud
neubeut
neubeutoc
neuburg
neucha
neud
neuden
neudenn
neudennou
neue
neuf
neuial
neuilly
neumenoiou
neun
neus
neuse
neustadt
neustria
neutron
neutronou
neuville
neuz
neuze
neuziet
nev
nevada
neve
neved
nevenoe
neventi
never
nevers
neves
nevesaet
nevesan
nevesoc
nevet
nevez
nevezamzer
nevezc
nevezenti
nevezi
neville
nevinho
nevis
nevo
nevoa
new
newcastle
newe
newez
newman
newport
news
newton
newydd
next
nez
neza
nezan
neze
ng
ngall
ngc
ngel
ngeles
nger
ngtaine
ngua
nguas
nguye
ngwynfa
nh
nheengatu
ni
nia
nic
nica
nicaragua
niccolo
nice
nicholas
nicht
nick
nico
nicola
nicolas
nicole
nicun
nid
nidiad
nidiction
nie
niel
niet
nietzsche
nieu
nig
nige
nigen
niger
nigeria
niget
night
nigra
nigsberg
nigsmarck
nigue
nihil
nij
nijadenn
nijal
nijas
nije
nijer
nijerek
nijerez
nijerezh
nijereziou
nijet
nijour
nijva
nik
nikolai
nikolas
nikolaz
nikun
nil
nilez
nilotek
nils
nimfenn
nimo
nin
nina
nine
ningue
ninox
nintendo
nio
nion
niou
nipalensis
nis
nisa
nisi
nit
nitra
niv
nive
niver
niveradeg
niverel
niverenn
niverennet
niverennin
niverennou
niveri
niverin
niverou
niverus
niverusan
niverusoc
nivlennad
niz
nizez
nizon
njal
nl
nn
nne
nnein
nnet
nneu
nnn
no
noah
noal
noalleg
noas
noaz
noazh
noazout
noazus
noazuz
nobel
nobiliaire
nobis
nobl
noblan
noblanc
noblans
noblanz
noble
nobletz
nobre
noc
noche
noe
noel
noh
noi
noir
noire
noite
nolwenn
nom
nombr
nombre
nome
nomen
nomenoe
nomes
nominativ
nominativel
nomine
nominoe
noms
non
nonita
nonn
nonpas
noord
nor
nora
norbert
nord
nordeste
nordrhein
norfolk
norge
nori
normal
norman
normand
normandet
normandi
normandie
normaned
norseg
norsek
norte
north
northern
northumberland
northumbria
norton
norvegat
norvegeg
norvegek
norvegia
norvegiat
norzh
norzhafrika
norzhamerika
norzhiwerzhon
nos
nosiou
nossa
nossas
nosso
nossos
noster
nostra
nostrand
nostri
nostrum
nosvez
not
nota
notas
note
notenn
notennet
notennou
noter
notes
notet
nothing
noti
notice
notre
notte
nou
noue
nouel
nouelig
nouen
nouenn
nouga
noun
nous
nout
nouveau
nouveaux
nouvel
nouvelle
nouvellement
nouvelles
nova
novaehollandiae
novara
novas
nove
novel
november
novembre
novembro
novo
novos
now
noz
nozvez
nozvezh
nozveziou
nr
ns
nsdap
nster
nt
nta
ntara
nte
ntein
ntet
ntoh
nu
nubia
nuclear
nueva
nuevo
nugent
nuguent
nuit
nuits
nukleel
nukleu
nul
null
nullet
num
numa
number
nume
numidia
nun
nunc
nunca
nuovo
nus
nuz
nv
nva
nved
nvel
nver
nvet
ny
nynorsk
nærh
nɑ
nɔ
nɔj
nɔjn
nɔn
nɛ
nɛn
nɛr
o
oa
oabl
oac
oad
oadet
oadvez
oadvezh
oaget
oai
oaid
oaint
oajet
oak
oakland
oal
oaled
oamp
oan
oann
oant
oar
oas
oat
oaxaca
oaz
ob
obama
obe
obeissa
ober
oberenn
oberennou
obererezh
obererezhiou
oberiadenn
oberiadur
oberiaduriou
oberiant
oberiantiz
oberiet
oberiou
oberou
oberour
oberourien
obidou
objedou
objet
objetivo
objetivos
oblast
obligation
obligationeu
oblige
obliget
oblijet
oboissa
oboissanc
obra
obras
obscura
obscurus
observi
obten
obtenet
obteni
obtenit
oc
ocastro
occasion
occasioneu
occasionou
occidentalis
occupation
occupationou
occupet
occupi
oce
ocean
och
ochoa
oclc
octave
octavius
october
octobre
od
ode
oder
odila
odilon
odin
odio
odo
odon
odore
odysseia
odysseu
oe
oed
oeit
oela
oele
oelet
oelje
oen
oenanthe
oent
oer
oeste
oet
oeuvres
oez
of
oferen
oferenn
oferennou
ofern
off
offa
offanc
offance
offancein
offancet
offanci
offanset
offansi
offeren
offerenn
offerenna
offern
offic
office
officer
officeu
official
offis
offiser
offiserien
offisou
offline
offr
offre
offrein
offret
offrit
ofic
oficial
oficina
oficinas
ofis
ofiser
ofiserien
ofisiel
ofisou
ofisour
ofr
og
oge
ogham
ogni
ognon
ograou
ographie
ographique
oguet
ogwr
oh
ohio
oi
oidipou
oil
ois
oise
oiseau
oiseaux
ok
okeania
okeanos
okinawa
okitaneg
okitanek
okitania
oklahoma
oksigen
ol
ola
olaf
old
oldenburg
ole
oleo
olga
olier
olifant
olifanted
olimpek
olimpia
oliv
olive
olived
oliveira
oliver
olivet
olivetti
olivez
olivia
olivier
oll
ollendorff
ollivier
ollivro
ologie
ologique
olonne
olwen
olympia
olympos
om
oman
omar
omb
ombre
omega
omer
omnes
omni
omnia
omnibus
omniglot
omnis
omnium
omotek
omp
on
once
onction
onde
one
onenn
onest
onestiz
ong
oni
online
only
onn
ono
ons
ont
ontario
oo
oona
op
opc
ope
open
opera
operation
ophile
opinia
opinio
opinion
opold
oportunidade
oportunidades
oppidum
opt
opus
or
ora
orakl
oran
orange
oranje
orc
orchestra
order
ordinal
ordinær
ordinæremant
ordo
ordon
ordre
ordren
ordrenas
ordrenaz
ordrenet
ore
oregon
oremus
orestes
org
organ
organek
organisation
organizac
organizado
organizar
organization
organou
orgue
orgueil
orgueillus
oriant
orien
orient
orientac
oriental
orientales
orientalis
oriente
origin
original
origine
originel
origines
origins
orin
orinou
oriolus
orion
orjal
orlando
orle
orlean
orleans
orne
oro
orsay
orsini
orson
ortiz
ortodoks
orwell
oræson
oræsonou
oræsoun
os
osa
oscar
oseania
oskar
oslo
ospital
ospitaliou
osroene
ossola
ost
ostaleri
ostaleriou
ostilhou
ostiz
ostizez
ostrogoted
oswald
ot
otavio
otek
oter
other
others
othon
otiz
oto
otoiou
otoman
otomaned
otorite
otro
otrou
ottavio
otto
otus
ou
ouair
ouc
oud
oude
oue
ouel
ouela
ouelan
ouele
ouelou
ouen
ouenn
ouent
ouesk
ouest
ouez
ouezas
ouezer
ouezo
ouf
oufac
oufe
oufed
oufen
oufenn
ouffe
ouganda
ougrek
oui
ouie
ouien
ouient
ouier
ouilein
ouilet
ouiziegez
ouiziegezh
ouizieien
oule
oulen
oump
oun
ouned
ounn
ounta
our
oural
ouranos
ourdoueg
ourense
ourgouil
ourgouill
ourhæme
ouro
ours
ourz
ous
ouspen
ouspenn
out
outa
outan
oute
outhan
outhe
outhi
outho
outi
outo
outoek
outra
outras
outre
outro
outros
outubro
ouvrage
ouz
ouzbekistan
ouzer
ouzh
ouzhin
ouzhoc
ouzhpenn
ouzhpennan
ouzhpennet
ouzid
ouzign
ouzimp
ouzin
ouzinn
ouzit
ouzoc
ouzomp
ouzon
ouzonn
ouzont
ouzoud
ouzoun
ouzout
ouzpen
ov
over
overe
overen
ovidius
oviedo
owain
owen
own
oxford
oz
ozac
ozhac
ozymandias
p
pa
pab
pabed
pablo
pabu
pac
pace
pacha
pachik
pacific
paco
pad
padal
padas
pade
padelezh
padet
pado
padout
padova
padre
padrig
padus
paduz
pae
paea
paean
paeet
paen
paeo
paeron
paet
pag
pagan
paganed
page
pagenum
pages
pagos
pagus
pai
paian
paianed
pain
paix
paj
pajen
pajenn
pajennad
pajennou
pak
paka
pakad
pakan
paket
pakistan
pal
palace
palais
palantines
palau
palavra
palazzo
pale
paler
palermo
pales
palestina
palestinat
palestra
palestras
palez
paleziou
paliou
pallas
pallenn
pallennou
pallida
pallidus
palma
palmer
palmez
paloma
palud
paludou
palv
palvezek
pampa
pamplona
pan
panama
pandora
pane
panellou
paner
paneve
paneved
panevet
panez
pannonia
pantecost
pantekost
panthera
panzer
pao
paol
paola
paoli
paolig
paolo
paosanias
paot
paotr
paotred
paotret
paotrig
paotrik
paouez
paouezas
paouezet
paour
paourentez
paourkaezh
paourkez
pap
papa
pape
papel
paper
paperiou
paperou
papers
papes
papiamento
papier
papoua
papouek
par
para
parabolen
parabolennou
parade
paradis
paradise
paraguay
parai
paran
parana
parc
parce
parceiros
parceria
parcerias
pardaez
pardon
pardonet
pardoni
pardonin
pardoniou
pardonit
pardonne
pardonnet
pardono
pardoun
pardounet
pare
parea
parean
parece
pared
pareet
parez
parezed
parfet
parfæt
pari
paris
pariz
parizian
park
parkad
parkeier
parker
parkou
parks
parlamant
parlant
parlantet
parle
parler
parma
paroisse
paroisses
parole
paroles
parouz
parque
parrat
parrez
parreziou
parry
part
partage
parte
partement
partes
parti
partia
participac
participantes
participar
particulie
particulier
particulieramant
partido
partie
partienn
partiennou
partir
partout
party
pas
pascal
pasgen
pasianted
pasion
pask
paskal
pasq
pass
passa
passado
passage
passar
passe
passer
passeriformes
passet
passion
passo
passos
past
pastell
pastellou
pasteur
pastor
pastoret
pat
patachomuhammad
patagonia
patant
patatez
pater
patern
patiant
patiantet
patiantæt
patri
patria
patriarch
patrice
patricia
patrick
patrik
patrimo
patrimoine
patris
patrom
patromou
patron
patronez
pau
paud
paul
paula
paulin
pauline
paulinus
paulista
paulo
paulus
pauta
pautr
pautred
pauvre
pav
pave
pavia
paviou
pax
payen
payot
pays
paz
pazenn
pazennou
pazzi
pb
pc
pdf
pdg
pe
pea
peace
peadra
peah
pearl
peau
peautramant
peb
pebeiladur
pebes
pebeuz
pebez
pebezh
pebr
pec
peccata
pechet
pectoralis
ped
pedair
pedan
pedas
pedaz
pede
pedein
peden
pedenn
pedenneu
pedenno
pedennou
peder
pedervet
pedet
pedi
pedido
pedin
pedir
pedit
pedomp
pedro
pee
peel
pefe
peg
pegeit
pegement
pegementin
pegen
peger
peget
peggy
pegouls
pegoulz
pegours
peguement
peguen
peguer
pegwir
peh
pehai
pehani
pehe
pehet
pehini
peine
peini
peintres
pek
pel
pela
pelas
pelayo
peleac
pelec
pelerinaj
pelerined
pell
pella
pellaat
pellaet
pellait
pellan
pellat
pellder
pelle
pelleit
pellen
pellgent
pellgomz
pellik
pelloc
pelo
peloponnesos
pelos
pemb
pembo
pembroke
pemdez
pemdezieg
pemdeziek
pemoc
pemp
pemped
pempet
pempoull
pempved
pempvet
pemzec
pemzek
pemzekvet
pen
pena
penaos
penaoz
penaus
penauz
penda
pendant
penegoes
penegwir
penelope
penfaou
penfro
penguin
penheres
penisarcwm
penitant
peniti
penitiour
penker
penmarc
penn
penna
pennad
pennadic
pennadig
pennadik
pennadou
pennadurezhiou
pennaenn
pennaennou
pennan
pennant
pennaod
pennaouin
pennek
pennger
pennhe
pennigo
penniliz
pennkaoz
pennlec
pennors
pennou
pennoz
pennrann
pennrener
pennsans
pennsylvania
pennwydh
penny
peno
penos
penoutiek
penoz
pensando
pensar
pense
pentevr
pentre
pentref
penybont
peoc
peogwir
people
peorien
peotramant
pep
pephini
pepin
per
pera
perac
perag
perak
perc
perche
percy
perde
pere
pereira
perfect
perfection
pergen
pergunta
perguntas
perhue
peri
perig
period
perlez
permet
permetet
permette
permettet
permission
permite
pernambuco
pero
peroked
peron
perou
perpet
perpetua
perrault
perrin
perros
perrot
perroz
perry
pers
perse
persecutet
perseg
perseu
persia
persier
person
personaich
personal
personel
personne
personnes
persoun
pertes
perth
peru
perugia
perz
perzh
perzhiou
pes
pesaro
peseurt
pesk
pesked
pesketa
pesketaer
pesketaerien
pesort
pesquisa
pesquisas
pessoa
pessoal
pessoas
pestivien
pet
pete
peter
peterbourg
peters
petersbourg
petit
petite
petites
petits
petore
petra
petroica
petronilh
petronius
peu
peuc
peul
peuliou
peulvan
peulvanou
peuple
peuples
peur
peurachuet
peurante
peurbadel
peurbadus
peurc
peurechuet
peurgetket
peurhen
peuri
peurin
peuriwerzhonekaat
peurlavaret
peurliesa
peurliesan
peurrest
peurunvan
peurvat
peurvuia
peurvuian
peus
peut
peuz
pevar
pevarad
pevare
pevarvet
pevarzek
pevarzekved
pevarzekvet
pevarzroadek
peveus
pewar
pez
pezet
pezh
pezhiou
peziou
pezit
pezo
pfalz
pg
ph
phalacrocorax
phane
pharaon
pharisianed
phasianidae
phe
phil
philadelphia
philemon
philip
philipp
philippe
philippine
philips
phillips
philosophie
philosophy
philotee
phine
phoenicurus
phoenix
phono
php
phrase
phrases
phu
phylip
phylloscopus
phylogenetics
phylogeny
physics
physique
pi
pia
piacenza
piano
pianoour
piaui
piazza
pic
picard
picasso
picidae
pico
picoides
picos
picture
pictures
piculus
picumnus
picus
pidi
pie
pied
pieds
piemonte
piemonteg
pier
piero
pierr
pierre
pierres
piet
pieta
pieter
pietro
pietror
pig
pign
pignal
pignas
pignat
pignet
pigos
pihue
pije
pik
pika
pikardi
pikol
pikou
pikted
pil
pilalau
pilar
pilat
pilet
pilhaouer
pilhou
pin
ping
pinhuic
pinhuiq
pini
pinigen
pinijen
pinijenn
pinijennou
pink
pinto
pinvidic
pinvidig
pinvidigez
pinvidigezh
pinvidigezhiou
pinvidik
pinvidikaat
pinvidikan
pinvidikoc
pinvik
pinyin
pio
pios
piou
piper
pipi
pipton
piramidenn
piramidennou
piran
pirc
pireneou
pis
pisa
pisin
pistols
pitcairn
pitta
piu
pius
piv
piz
pizh
pizza
pl
pla
plabenneg
plac
place
placet
placidia
plad
pladenn
pladennou
plaen
plaenenn
plaenennou
plai
plaid
plakenn
plakennou
plan
plane
planedenn
planedennou
planejamento
planet
planken
plankenn
plankennou
plano
plant
planta
plantan
plantet
plas
plasenn
plasou
plastik
plat
plata
plataforma
plataformas
plateau
platin
platon
play
playstation
ple
please
plebs
pled
pledin
pleg
plega
plegan
pleget
plegou
pleiben
plein
plen
plessis
pleustr
pleustrek
pleustret
pleustri
pleustrin
pleuveur
pleuwigner
pleven
plich
plige
pligeadur
pligeadurieu
pligein
pliget
plij
plijadur
plijaduresiou
plijadurezou
plijadurieu
plijaduriou
plije
plijet
plijo
plijout
plijus
plinius
plistin
ploaz
ploceus
ploe
ploermael
plom
plomelin
plomer
plon
plou
plouared
plouaret
ploue
ploueg
plouenan
plougastel
plougastell
plouge
plougerne
plougouloum
plouha
plouider
plouigno
ploum
ploumm
plouneour
plounevez
plourin
ploutarc
plouz
plouzane
plouzeniel
plu
pluen
pluenn
plun
pluriel
plus
plusieurs
pluto
pluveleg
pluvio
pluzunet
plymouth
po
poa
poai
poan
poania
poaniet
poanio
poaniou
poanius
poaniuz
poatev
poaz
poazet
poazh
poazhan
poazhet
pobl
poblad
pobladou
poblan
poblek
poblel
poblet
pobletan
poblou
poc
poca
poche
pocket
poco
pod
podad
pode
podem
podemos
poder
podera
poderi
poderia
poderiam
podiceps
podou
poe
poell
poellad
poellek
poellgor
poemas
poems
poent
poentou
poesi
poetry
poez
poeziou
poggio
pogoniulus
poher
point
pointe
points
pois
poisson
poitiers
pok
pokat
poket
pol
pole
poli
police
policy
polikarp
polinezia
polis
poliser
poliserien
political
politics
politik
politikel
politiker
politikerez
politikerezh
politikour
politikourez
politikourien
politique
polo
pologn
polonat
poloneg
polonek
polonia
poloniat
poloniz
polontez
poltred
poltredet
poltredou
poltriji
pomerania
pompe
pompei
pompeius
pompidou
pon
ponce
pondi
pondivi
ponne
ponner
pons
ponsrys
pont
ponte
pontekroaz
pontevedra
pontkastell
ponto
pontos
pontou
pontrev
pontrobert
pontsenni
pontus
poor
pop
pope
populac
populaire
populaires
popular
population
poque
por
porc
porched
pordenone
pore
pornizh
pornografek
porpant
porque
pors
port
porta
portal
portant
portanto
porte
porter
portes
porth
portland
porto
portrait
portraits
portugal
portugalat
portugaleg
portugalek
portugaliz
portugue
portuguesa
portuguese
porz
porzana
porzh
porzhig
porzhiou
pos
poseidon
posic
position
possa
possam
posse
possession
possi
possibilidade
possibilidades
possibl
possible
posso
possubl
possui
post
postan
poste
postou
posubl
posupl
pot
potencial
potier
potr
potred
potrik
potsdam
potter
pou
pouar
pouco
poucos
pouez
pouezan
pouezet
poueziou
pouezus
pouezusan
pouezusoc
poul
pouldahud
poull
poullou
poultr
poultrenn
poulzet
pouner
pounner
pounneroc
pount
pour
pourchas
pourchaset
pourfit
pourmen
pourquoi
pourvei
pourvezet
pourveziou
pout
poutin
pouvoir
povo
powell
power
powys
poz
poziou
pozitivel
pp
pq
pr
pra
prad
pradesh
prado
pradou
praha
praia
prajeier
prajou
prantad
prantadou
prat
pratic
pratica
pratiq
pratique
pratiquein
pratiquet
prazo
pre
prec
precisa
precisam
precisamos
preciso
precius
pred
prede
predefinic
preden
predeneg
predenek
preder
prederian
prederiet
prederour
prederourien
prederouriezh
predou
prefed
prefet
prefeti
preiz
preizh
preizhet
premie
premier
premiers
premio
pren
prena
prenan
prenas
prendre
prener
prenest
prenestr
prenestrou
prenet
prenn
prennan
prennestr
prennet
preocupac
preparation
preparet
prepari
pres
presanc
presant
presantet
presbital
preseg
presenc
present
presente
presentes
president
presidente
presley
presque
press
presse
pressense
presses
prest
prestan
prestet
prestik
preston
pret
pretende
preti
pretiou
preto
pretty
preu
preudeur
preur
preußen
prevez
prez
prezant
prezec
prezeg
prezege
prezegen
prezegenn
prezegennou
prezeger
prezeget
prezek
prezidant
prezidanted
prezidantez
pri
pria
price
prie
pried
priedou
priejou
priel
prientet
prientin
priest
prifysgol
prigent
prim
prima
primated
primavera
primeira
primeiro
primel
primera
primeve
primo
primoc
primus
prin
princ
prince
princes
princess
princesse
princeton
princi
principais
principal
principala
principalamant
principalmente
principe
principes
principles
prinia
prins
prinsed
printemps
prinz
prio
priol
prioldi
prios
pris
prison
private
privet
prix
priz
prize
prizet
priziet
priziou
prizius
prizon
prizoniad
prizonidi
prizonier
prizoniet
prizoun
prizouniet
pro
prob
problema
problemas
proce
proceedings
procession
processo
processos
produadur
produc
production
productions
produer
produerezh
produet
produin
produiou
produour
prof
profan
profe
profed
profession
professor
professores
profet
profissionais
profissional
profit
profita
profitabl
profou
profundis
profæt
program
programa
programac
programas
programm
programmou
project
projects
projeto
projetos
prokulor
promesaou
promessaou
promesseu
prometet
prometin
promoc
promover
prompt
prononc
prononce
prononcet
pronost
pront
pronto
proofreadpage
propaganda
prope
prophet
propo
propor
propos
proposta
propostas
propr
propre
proprie
propter
prosesion
prosez
prosper
protection
protestant
protestanted
proto
prouenn
prouennou
prouet
prouin
proux
prov
provan
provence
proverbes
proveri
providans
providence
provin
province
provincia
prozision
prud
prudant
prudhomme
prunella
prunus
prus
prusia
prusian
prusianed
prydain
ps
psalm
pseudo
psilopogon
pt
pternistis
pterocles
ptilinopus
ptolemaios
pu
puar
public
publicac
publications
publie
publik
publiq
publique
publishers
publishing
publius
puccini
pue
puebla
puente
puerto
puez
puf
pugale
puglia
puhe
puig
puigdemont
puilh
puill
puis
puissance
puissant
pulluc
puma
pun
punek
punissa
punissein
punisset
punition
punk
puns
punta
punz
puo
pur
pure
purgatoe
purgator
purifiet
purkator
purus
put
pute
putin
puy
pvda
pwllgloyw
px
pycnonotus
pygmalion
pyre
python
pɑ
pɔ
pɛ
pɛn
q
qatar
qe
qeit
qement
qementse
qemer
qemeret
qen
qent
qenta
qentoc
qer
qerqent
qet
qi
qian
qin
qing
qq
qu
qua
quai
quais
qual
qualidade
qualite
qualquer
quam
quand
quando
quantidade
quanto
quase
quasi
quatre
quatro
que
qued
queen
queens
queensland
queit
quel
quellies
quello
quelqu
quelque
quelques
quem
queme
quemen
quemense
quement
quemer
quemeret
quemerit
quen
quent
quenta
quente
quentel
quentin
quentoc
quenver
quer
quere
querem
queremos
queria
quero
querquent
querzu
ques
quest
questa
question
questiona
questions
questo
quet
quetan
queve
quevir
quez
qui
quia
quid
quimper
quin
quinta
quinto
quintus
quis
quiser
quit
quitaat
quo
quod
quonia
quotations
quæ
r
ra
rabbi
rabin
rable
rac
race
races
rachel
racine
racing
ractal
rad
raden
radikal
radio
rae
raed
raemp
raen
raent
raer
raetia
raez
raf
rafac
rafael
rafe
rafec
rafemp
rafen
rafenn
rafent
rafet
raffaello
rag
raganv
raganviou
rage
ragistor
ragistorel
raguel
rah
rai
raimp
rain
rainbow
rainer
raint
raio
raire
raison
raje
rajent
rak
rakger
rakgeriou
rakig
raklavar
rakskrid
raktal
raktres
raktreset
raktresou
rakwelet
ral
rale
raloc
ralph
ram
rama
ramb
rambo
rami
ramiro
ramo
ramon
ramos
ramouek
ramp
rampo
ramz
ramzed
ramzel
ran
ranc
rance
rancontr
random
raned
rang
rank
rankan
rankas
rankaz
ranke
ranked
rankent
ranker
ranket
rankfe
ranki
rankin
rankje
ranko
rankomp
rankont
rankout
rann
ranna
rannadur
rannan
rannarme
rannas
rannaz
rannbarzh
rannbennad
ranndi
ranne
rannet
rannfrazenn
rannig
rannigou
rannlu
ranno
rannou
rannved
rannvro
rannvroel
rannvroiou
rannyezh
rannyezhel
rannyezhou
ranquer
rant
rantein
ranteleah
rantet
ranuccio
raog
raok
raoskl
raouaz
raoul
rap
rapari
raphae
raphael
rapport
raquel
rard
ras
rastell
rastellet
rat
ration
ratoz
ratozh
rature
rau
raug
rauk
rault
rautopia
raven
ravenna
ravisset
ray
raylton
raymond
rayo
rayon
raz
razed
razh
razhed
razon
rbara
rbe
rbenn
rc
rca
rd
rdoba
re
rea
reac
read
reading
ready
real
realizac
realizada
realizadas
realizado
realizar
really
realmente
rean
reant
rear
reas
reat
reaz
rebecca
rebech
rebechet
rebechou
rec
receber
receo
receu
receue
receuet
recevas
recevet
recevit
recevo
recevomp
recherche
recherches
rechont
recife
recomendac
recommandi
recompanc
recompance
recompans
reconhecimento
record
recordings
records
recour
recours
recteurs
recueil
recursos
red
redadeg
redadegou
redadenn
redas
redaz
rede
redec
redeg
redek
redemptor
reder
rederien
redes
redet
redi
redian
redias
rediet
redo
redon
ree
reed
reent
reer
ref
refere
referendom
refet
reflexion
reflexionou
refomp
refont
refus
refuset
reg
regard
regensburg
reggae
reggio
regia
regiment
regina
regio
region
regional
regis
register
registro
reglen
reglet
regli
regno
regras
regret
regulus
regum
rehai
rehe
rehemp
rehet
rei
reich
reichenbach
reichstag
reier
reign
reih
reims
rein
reina
reinac
reinach
reine
reinhard
reino
reint
reio
reis
reishoc
reit
reiz
reiza
reizded
reizet
reizh
reizhan
reizhel
reizhet
reizhiad
reizhiadou
reizhskrivadur
reizhskrivan
rejant
rejantez
rejimant
rejomp
rejont
rejouissa
rekis
rekord
rekoumpans
rel
relac
relacionados
relations
relato
rele
release
releg
relego
relegou
relevante
relevantes
religieuse
religion
religions
religius
religiuset
relijiel
relijion
relijionou
rem
reman
rembrandt
reme
remed
remejou
remengol
rement
remerkaz
remerket
remerquet
remi
remission
remix
remm
remon
remont
remziad
ren
renabl
renablet
renad
renadenn
renadur
renaissance
renan
renard
renas
renato
renaud
renault
renaz
renc
rence
rencomp
rencontre
rend
rendael
rendre
rene
renea
rener
renerez
renerezh
renerien
renet
reng
renk
renka
renkad
renkadou
renkadur
renkan
renkas
renkaz
renke
renkennad
renker
renket
renko
renkou
renn
rennes
reno
renoir
renonc
renq
renquer
rent
renta
rentan
rentas
rentaz
rente
rentet
rentit
rento
reo
reoc
reol
reolad
reolen
reolenn
reolennou
reolian
reoliek
reomp
reont
reor
reot
reou
reparein
repari
repas
report
repos
repoz
repre
represant
represantet
represanti
representac
representantes
repu
repuad
repubblica
republic
republik
republikan
republikaned
republikanet
republikou
repuet
repuidi
repuin
reputation
requiem
requis
rer
res
rescond
research
reseo
reserve
reservet
reset
resev
resevas
resevaz
reseve
resevet
resination
resis
resisaat
resisoc
resista
resistein
resolution
resolutionou
resolvet
reson
resont
resources
respe
respect
resped
respeito
respet
respetet
respeti
responder
responsa
respont
respontas
respontaz
responte
respontet
respontit
responto
resposta
respostas
respoun
respount
respountaz
respounte
ressuscitet
rest
reste
restr
restric
restrou
resultado
resultados
resumo
resurrection
resussitet
ret
rete
reter
retorn
retorno
retour
retred
retrejou
retret
retrieved
return
retz
reu
reudied
reun
reunia
reunig
reunio
reunir
reut
reuz
reuzeudik
rev
reve
revel
revelation
revelet
revelezh
reveulzi
review
revised
revista
revolt
revolusion
revolution
revou
revoy
revr
revue
rewiz
rex
rey
reyes
reynaud
reynolds
rez
rezh
rezin
rezistan
rezistant
rezon
rezont
rg
rga
rh
rhaeadr
rhe
rheged
rhein
rheinland
rhet
rhie
rhin
rhinolophus
rhipidura
rhisiart
rho
rhode
rhodes
rhodri
rhondda
rhos
rhun
rhydderch
rhydieithon
rhys
rhythm
ri
ria
riad
riadenn
riadennig
riadennou
riadur
rian
rias
riata
rib
ribeira
ribera
ribl
riblenn
riblou
ribod
riboul
ric
rica
ricardo
ricci
rice
rich
richard
richarzh
richelieu
richemont
richmond
richter
rick
rico
ricou
rid
rida
ride
ridellat
ridgway
riding
rie
rieg
riegezh
rien
ries
riet
rieu
rieur
rieure
rieux
riez
riezou
rif
rig
riga
rigadell
right
rights
rijenn
rijksmuseum
rik
riklan
riko
rimadell
rimadellou
rime
rimini
rimp
rin
ring
ringen
rings
rinn
rint
rio
riodique
rioja
rion
rior
rios
riot
riou
rique
ris
rise
rising
riskl
risklou
risklus
risus
rit
rita
ritable
ritage
rite
ritein
ritet
riteu
rito
ritratto
ritt
riv
river
rivera
rivet
rivie
rivier
rivinet
rivinou
rivod
riwal
rix
riz
rj
rjclaudio
rk
rkaris
rm
rn
rnberg
ro
road
roadennou
roan
roann
roas
roaz
roazhon
roazon
rob
robert
roberta
roberto
roberts
robespierre
robin
robinson
roboam
robot
roc
roca
rocca
rocco
roch
rocha
roche
roched
rochefort
rocher
rochester
rock
rockwell
rod
roda
rodez
rodos
rodou
rodri
rodrigo
rodrigopadula
rodrigues
rodriguez
roe
roeal
roed
roei
roen
roent
roer
roet
rofe
rofet
rog
roger
rogers
roget
roh
rohan
roi
roin
roinn
roio
rois
roit
roje
rojont
rok
rol
roland
role
roll
rolland
rolling
rollou
rom
roma
romagna
romain
romaine
romains
roman
romana
romance
romancero
romaned
romanek
romanekadur
romanekaet
romani
romania
romanikaet
romano
romans
romant
romantel
romantou
romantour
romantourez
rome
romen
romeo
romuald
romulus
ron
ronald
ronan
rond
ronde
rondel
ronsed
ront
room
roomp
roont
roosevelt
root
roparz
roparzh
roperzh
roque
ros
rosa
rosario
rosay
rose
rosenberg
rosera
roses
rosie
rosko
rosmadek
rosporden
ross
rossa
rossetti
rossi
rossignol
rossini
rosso
rost
rostaing
rostet
rostren
rostrenenn
rot
rotten
rotterdam
rou
rouan
rouane
rouaned
rouanes
rouanez
rouanezed
rouanne
rouante
rouantelez
rouantelezh
rouantelezhiou
rouanteleziou
rouart
roud
roudaut
roudenn
roudennou
roudou
roudour
roue
roued
rouedad
rouedadou
rouedou
roueed
roueel
rouejou
rouen
rouez
roufl
rouge
rouges
rough
roum
roumaneg
roumania
round
rour
rous
rousin
rousseau
roussillon
rout
route
routledge
rouville
roux
rouz
rouzig
rovere
roveri
row
rowling
roy
royal
royale
roz
roza
roze
rozen
rozenn
rozera
rozmelchon
rr
rran
rs
rss
rsssf
rt
rttemberg
ru
rua
ruban
ruben
rubens
rudolf
rue
rufescens
ruficeps
ruficollis
rufiventris
rufus
rugbi
rugbier
ruilh
ruilhal
ruill
ruilla
ruio
ruiou
ruiz
rujumant
rum
rumengol
rumengoll
rumm
rummad
rummadou
rummatadur
rummataet
rummenn
rummet
rummou
run
runan
runou
rus
rusalem
rusdet
rused
ruseg
rusek
rusia
rusian
rusianed
rusianeg
rusianek
rusk
russe
russell
russia
russian
rust
rusta
rusted
rustoni
ruth
ruz
ruzalem
ruzan
ruzell
ruzenn
ruzia
ruziet
rw
rwanda
ry
ryan
ryu
ræson
ræsonabl
ræsonieu
ræzon
rɑ
rɔ
rɔj
rɔjn
rɔn
rɛ
rɛn
rɛs
s
sa
saba
sabatuet
sabbat
sabe
sabel
saber
sabina
sabine
sables
sabrenn
sac
sach
sacha
sachan
sachas
sachet
sachsen
sacr
sacra
sacramancho
sacramanchou
sacramant
sacre
sacremand
sacremant
sacremanteu
sacret
sacrific
sacrifice
sacrilege
sad
sada
sadorn
sadourn
sae
saena
saeou
saez
saezh
safar
saga
sage
saguinus
sahara
saharek
sai
said
saigon
sain
saint
sainte
saintes
saints
sair
sais
sakr
sakramant
sakret
sakrifis
sakrifisou
sakrifiz
sakrist
saks
sakson
saksoned
sal
sala
salamanca
salau
salaun
salazar
sale
salem
salerno
sales
saliou
sall
sally
salm
salmou
salo
salocroas
salome
salomon
salon
salsa
salt
salto
salud
saludet
saludi
saludin
saludit
salut
salv
salvador
salvadori
salvatore
salve
salvedigueah
salvein
salver
salvet
salvin
salzburg
sam
samari
samba
sambre
same
samieg
samm
samma
sammad
samman
sammet
samoa
samos
samson
samuel
samurai
samzun
san
sancha
sancho
sancta
sancte
sancti
sancto
sanctorum
sanctum
sanctus
sand
sandhi
sandra
sandro
sandwich
sane
sang
sank
sankan
sankenn
sanket
sankt
sans
sansibl
sant
santa
santad
santana
santander
santas
sante
santefiein
santein
santel
santela
santelamant
santeleah
santeles
santelez
santeloc
santer
santes
santet
santez
santi
santiago
santifia
santifiet
santimanchou
santimant
santimanteu
santo
santos
santout
santual
sao
saonenn
saoron
saotradur
saotret
saoud
saoudat
saout
saouzanet
saoz
saozneg
saoznek
saoznekaet
saozon
sap
sapiens
sapr
sar
sara
sarah
sardigna
sardinia
sarkozy
sarmon
sarmoniou
sarpant
sarret
sart
sarthe
sarzhav
sas
saskatchewan
saskell
satan
satanaz
satanazet
satanig
satisfaction
satisfia
saturn
sau
sauber
saul
saunders
sauvage
sauve
sav
savadur
savaduriou
savanennou
savant
savas
savaz
savboent
save
saved
savenn
savenneg
savennou
savent
saver
saverien
savet
savetaet
savete
saveteet
savetei
savetein
saviad
savidigezh
savit
savjont
savo
savoia
savoie
savoir
savomp
savont
savour
savouriezh
saw
saxicola
saxon
say
says
sbi
sc
sca
scala
scan
scandal
scandalus
sce
schilder
schiller
schleswig
schmidt
schneider
scho
school
schott
schro
schumacher
schwerin
science
sciences
scientific
scipio
sclater
sclateri
scle
sclear
scler
sclerde
sclerder
sclerigen
sclerijen
sclær
sclærde
sco
scoas
scob
scoe
scoed
scoet
scol
scorn
scotia
scotland
scots
scott
scottish
scouarn
scribed
scrifa
scrifet
scritur
scriva
scrivet
scu
scuderia
scuer
scuil
scuilla
scuillet
sculpture
scupoli
se
sea
seac
sean
search
seattle
sebastia
sebastian
sebastiano
sebeliet
sebezet
seblant
seblante
seblantout
sec
sechelez
second
seconde
secour
secouret
secourieu
secre
secret
secrets
section
secunda
secundus
sed
sedan
sede
seder
sedr
see
seeger
seg
segal
segobrani
segue
seguinte
seguintes
seguir
segunda
segundo
sehuel
sei
seier
seigneur
seih
sein
seine
seis
seite
seitek
seitekvet
seiz
seizet
seizh
seizhvet
seizved
seizvet
seja
sejam
sekred
sekretour
sekretourez
sel
selaou
selaoue
selaouerien
selaouet
selaouit
selec
selected
selestin
selezh
self
sell
sellas
selle
selled
seller
sellet
sellit
sello
sellou
sellout
selon
sem
semana
semestre
semitek
semper
sempl
sempladurez
semplan
semplet
sempre
sen
sena
senario
senarioour
sence
sendo
sene
seneca
sened
senedour
senedourien
senegal
senegalensis
senesal
senhora
seni
senin
sens
sense
sent
sente
sentet
sentezed
senti
sentido
sentin
sentit
sentus
sentuz
senza
seoul
separet
sepikek
sept
september
septembre
septimius
ser
sera
serait
serb
serbeg
serbia
serc
serem
serez
serezh
serge
sergei
sergio
seria
seriam
serie
serien
series
serj
serjant
sermant
sermon
serpant
serr
serra
serre
serret
serri
serrin
sert
servan
servat
serve
servez
servic
service
services
servich
servicha
serviche
servicher
servicherien
servichet
servicho
servichout
servij
servija
servijan
servijas
servije
servijer
servijerien
servijet
serviji
servijou
servijout
servir
serviterion
servitour
serzh
ses
sesc
sessa
set
setanc
setembro
seth
setu
seu
seuel
seuil
seul
seuliou
seulles
seulvui
seurez
seurt
seurtou
seus
sevel
seven
sevenadur
sevenadurel
sevenadurezh
sevenaduriou
sevenas
sevener
sevenet
sevenin
severus
sevilla
sex
sexta
sez
seza
sezed
seziz
sforza
sh
sha
shadow
shah
shakespeare
shall
shame
shanghai
share
sharon
sharpe
shaw
she
shelley
sherlock
shi
ship
shmouel
sho
shoah
shore
short
should
show
shropshire
shu
si
sia
siad
siam
sias
siastique
siastiques
siberia
sibiria
sibylla
sibylle
sic
sica
sichem
sichenn
sichuan
sicilia
sicour
sicouret
sicourit
sicut
sid
sidan
side
sident
sidi
sidney
sido
sidon
sie
siel
siell
siellet
siena
sierra
sies
siet
sifr
sifrou
sigismund
sign
signe
signifi
significa
signification
sigur
sigurd
sikilia
sikilianeg
sikl
sikour
sikouras
sikouret
sikourit
sil
silabenn
silabenneg
silabennek
silabennou
silan
silanc
silance
silaou
silaouet
silas
silence
silet
silezia
silla
sillan
silmarillion
siloe
silva
silver
silvia
silvidigez
silvidigues
silvidiguez
silvio
silzig
sim
sima
simbol
sime
simeon
simfonienn
siminal
simo
simon
simone
simonetta
simpl
simple
simples
simplex
simplicite
sin
sina
sinaat
sinadur
sinaeg
sinaek
sinagog
sinagogenn
sinagogou
sinai
sinaiz
sinalun
sinan
sinas
sinat
since
sincer
sindikad
sindikadou
sine
sinek
sinema
sinensis
sinet
sing
singapour
singer
singh
single
singles
sinifi
sinn
sinou
sint
sio
sioaz
sion
siorrachd
siou
siouah
siouas
siouaz
sioul
sioulaat
sioulder
sioulik
sir
siracusa
sire
siria
sirill
sirius
sirk
sis
sistance
sistem
sistema
sistemou
sister
sisters
sistr
sit
site
sites
sito
sitta
situac
situation
sivi
sivil
siviled
siwazh
six
sizhun
sizhunieg
sizhuniek
sizhunvezh
sizhunvezhiou
sizun
sk
ska
skabel
skabell
skaer
skalfad
skalier
skan
skandinavek
skandinavia
skanv
skaon
skapular
skarzhan
skarzhet
skav
ske
sked
skedus
skedusoc
skeduz
skei
skein
skes
sketla
skeu
skeud
skeuden
skeudenn
skeudennaouer
skeudennaouet
skeudennet
skeudennin
skeudennou
skeul
skeuliad
skevent
ski
skian
skianchou
skiant
skiantel
skiantou
skiantour
skiantourien
skign
skigna
skignan
skignas
skignet
skilfou
skiltr
skiltrus
skin
skingomz
skinhead
skinheaded
skinoberiek
skinou
skinwel
skipailh
skipailhou
skla
sklaer
sklaeroc
sklav
sklave
sklaved
sklaverezh
sklavez
skle
sklear
sklent
skler
sklerder
skleridighez
sklerijen
sklerijenn
sklerijenna
sklerijennet
skluz
sko
skoa
skoas
skoaz
skoazel
skoazell
skoazellan
skoazeller
skoazellerien
skoazellet
skoazia
skod
skoe
skoed
skoedou
skoet
skoilh
skoit
skol
skolach
skolaer
skolaerez
skolaerien
skolaj
skolajidi
skolajou
skolan
skolia
skoliad
skoliataet
skolidi
skoliet
skolio
skoliou
skor
skoret
skorf
skorn
skornan
skornet
skos
skosat
skoseg
skosiz
skoteg
skouarn
skouarnek
skoubleg
skoue
skoued
skouedou
skouer
skouerenn
skouerennou
skoueriou
skoul
skoulm
skoulman
skoulmet
skour
skourje
skourjez
skourjeza
skourjezet
skourr
skourrou
skr
skrab
skraban
skramm
skrammou
skrapan
skrapet
skrav
skri
skribed
skrid
skridou
skrijadenn
skrijus
skrijuz
skriteg
skritek
skritell
skritellou
skritur
skrituriou
skriv
skriva
skrivadur
skrivagner
skrivagnerez
skrivagnerien
skrivagnour
skrivan
skrivas
skrivaz
skrive
skriver
skrivet
skrivit
skuba
skubet
skudel
skudell
skudellad
skuer
skuilh
skuilhan
skuilhet
skuill
skuilla
skuillaz
skuillet
skuiz
skuiza
skuizder
skuizh
skuizhan
skul
sky
sl
slav
slaved
slavek
slides
slovak
slovakeg
slovakia
sloveneg
slovenia
sm
small
smith
snake
snorri
snow
so
soaz
soazig
sob
sobre
soc
sociais
social
sociale
sociales
socialism
socialiste
socie
sociedade
societe
society
sod
sodom
soe
sofia
sofonisba
software
soi
soign
soin
soir
soissons
soit
sokial
sokialour
sokialouriezh
sokrates
sol
solar
soldats
sole
soledad
soleil
solenn
solier
solitud
soljenitsyn
solo
sologne
solomon
solstag
soluc
solut
solution
solutioneu
som
soma
somalia
somaliland
some
somente
somerset
something
somme
sommes
somos
son
sonadeg
sonadegou
sonadenn
sonaozer
sonaozour
sonaozourez
sonaozourien
sonas
sonch
sonchus
sone
sonenn
sonennou
soner
sonerez
sonerezh
sonerien
sonerion
sonet
song
songeal
songesonou
songet
songit
songs
sonic
soniou
sonj
sonjal
sonjan
sonjaz
sonje
sonjet
sonjezonou
sonjit
sonjou
sonn
sono
sonora
sons
sont
sony
soon
sophia
sophie
sopra
soprano
sor
sorbonne
sorc
sord
sorex
soroc
sorser
sorserez
sorserezed
sorserien
sort
sorte
sorti
sortial
sortiet
sos
sot
soto
sotoni
sotto
sou
souben
soubenn
soubet
soubla
soublet
soudan
soudanek
soudard
soudarded
soudardel
soudardet
souden
soue
souez
souezet
souezh
souezhet
souezhus
souezus
souezuz
souffr
souffranc
souffranceu
souffre
souffrein
souffret
soufr
soul
soulagein
soulagi
soulgarget
soumission
soun
sound
sounn
sour
source
sourcen
sources
sourci
sourciou
sourcius
sourd
sourouc
soursi
sous
sousa
souten
south
southampton
southern
soutre
souvenir
souvenirs
souveren
souveræn
souza
souzan
soviedat
soviedel
soviediz
sowerby
soy
sp
spa
space
spagn
spagnat
spagnol
spagnoled
spagnoleg
spagnolek
spain
spanish
sparfel
sparfell
sparl
sparlet
sparta
spd
spe
speak
spec
special
species
speed
speg
speied
spencer
sper
spere
spered
speredek
speredel
speredou
sperejou
speret
spern
spes
spesad
spesadou
spesou
speurenn
spi
spian
spider
spielberg
spier
spierien
spilhenn
spilhou
spiou
spirit
spiritu
spirituel
spiritus
spirou
spis
spisoc
spisou
splan
splande
splann
splet
split
spluj
spoleto
spont
sponta
spontan
sponterezh
sponterien
spontet
spontus
spontuz
sport
sportou
sports
sportva
spoun
spount
spounta
spountet
spountuz
spouron
spouronet
spring
springfield
sq
squadron
square
sque
squei
squein
squiant
sr
sranan
sri
ss
sseldorf
ssion
ssour
st
sta
staaz
stabil
stad
stade
stadegou
stadou
stadt
stadunanat
staen
stag
staga
stagadenn
stagan
stagas
stagaz
stage
stagell
stager
staget
stagit
stago
staguet
stal
stalian
stalias
staliet
stalin
stalingrad
staliou
stambouc
stamm
stan
stanc
stand
standard
standards
stanford
stang
stanislas
stank
stanka
stankan
stankell
stanket
stankoc
stankter
stanley
staon
star
stard
starda
stardan
stardet
stare
starr
stars
start
startaat
startijenn
startoc
stat
state
states
station
statistical
statistics
statistique
stato
statud
status
stay
ste
steam
sted
stefan
stefano
steiz
stejnegeri
steki
stekin
stella
sten
step
stephan
stephanie
stephen
stephens
ster
stered
steredeg
stereden
steredenn
steredennou
steredoniezh
steredoniour
sterenn
steriou
sterling
stern
sterna
sternet
sterreich
steu
steudad
steudadur
steun
steuziet
steve
steven
stevens
stevenson
stewart
sti
stica
sticas
stico
stign
stignet
stil
still
stirad
stiria
stirling
stivell
stl
stlap
stlapas
stlapet
stlej
stleja
stlejet
stlejvil
stlejviled
stlenneg
stlepel
stlet
stlou
sto
stock
stockholm
stok
stokadenn
stoke
stoker
stoket
stomog
stomok
stone
stones
stop
storia
stories
storlok
storlokan
storm
story
stou
stouet
stoui
stouin
stoup
stourm
stourmad
stourmas
stourmaz
stourme
stourmer
stourmerez
stourmerien
stourmet
stourmi
stourmou
str
strabon
strad
straed
straedou
strafuilhet
strafuillet
strak
strakal
strake
strange
strasbourg
strat
strategel
strategiezh
strathclyde
strauss
straßburg
stre
street
strelitz
strewet
stri
striata
strin
strink
strinka
strinkan
strinkas
strinkaz
strinke
strinket
stripou
strishoc
striv
strivan
strivou
strix
striz
strizh
stro
stroll
strollad
strolladig
strolladou
strollan
strollaz
strollder
strollet
stron
strong
strouezheg
structure
strujus
stu
stuart
studi
studia
studiadenn
studiadennou
studial
studian
studias
studier
studierien
studies
studiet
studio
studioiou
studios
studiou
study
stum
stumm
stummadur
stumman
stummet
stummou
stur
sturian
sturienn
sturier
sturm
stuttgart
stwertka
style
su
sua
suaat
suafrika
suafrikan
suamerika
suas
sub
submit
succe
sucesso
such
sucre
sud
sue
suetonius
sueved
suez
suffolk
sug
sugesta
sugesto
suhun
sui
suis
suisse
suit
suite
suj
sujan
sujed
sujedou
sujet
sujidi
sujidigezh
sukorea
sukr
sul
sula
sulawesi
suled
suliou
sulla
sullivan
sulpice
sultan
sultanelezh
sulvezh
sulvui
sum
sumatera
sumatra
summer
sun
sunday
sunt
suo
supe
super
superciliaris
superior
superioret
supli
suporte
suppli
support
sur
surentez
surf
surinam
surjian
surnames
surprenet
surrey
surtout
survey
sus
susan
susanna
sussex
sustenta
sut
sutal
sutirol
sutton
suum
suzana
suzanna
suzanne
sv
svedat
svedeg
svedek
sveden
sven
sw
swabia
swahili
swainson
swedish
sweet
swift
sword
swyddfa
sy
sycharth
sydney
sylvain
sylvia
sylvie
symbol
syria
syste
system
sæcula
sæculum
sænt
sœur
sœurs
sɑ
sɔ
sɛ
sɛr
t
ta
tabernakl
table
tablez
taboulin
tabouliner
taboulinou
tabut
tabutou
tach
tachad
tachenn
tachennou
tachou
tacitus
tad
tadeu
tadig
tadjikistan
tado
tadou
taer
taf
tag
tagadenn
tagadennou
tagalog
tagan
taget
tahiti
tai
taiek
taient
taifa
taigneraie
tail
tailand
tailh
tailhou
tain
tair
tais
tait
taiwan
taj
takad
takadou
take
takenn
tal
talan
talant
talbenn
talbot
talc
taldir
tale
tales
talgarth
taliesin
talk
tall
talmud
talv
talvez
talveze
talvezet
talvezout
talvoud
talvoudegez
talvoudegezh
talvoudegezhiou
talvoudek
talvoudou
talvoudus
talvoudusoc
talvouduz
talvout
tam
tamall
tamallet
tamallou
tambe
tamic
tamig
tamik
tamil
tamileg
tamm
tammig
tammik
tammou
tamporel
tan
tana
tanac
tanav
tane
tanet
tanfoeltr
tang
tanganyika
tangara
tangi
tango
tanguy
tangwall
tank
tankou
tann
tano
tansal
tant
tantad
tantation
tantationeu
tanto
tanva
tanzania
tao
taol
taolas
taole
taolen
taolenn
taolennet
taolennin
taolennou
taoler
taolet
taolig
taoliou
taolit
taos
taou
taouarc
taouarn
taoulagad
taoulin
tap
tapas
tapet
tapis
tapout
tar
tarac
taran
tard
tarde
tarefa
tarn
taro
tars
tarv
tarz
tarzan
tarzh
tarzhadenn
tarzhan
tarzhas
tarziou
tas
tasman
tasmania
tasmant
tastum
tat
tate
tats
tau
taul
taulen
taulet
tauleu
tauraco
tav
tavarn
tavarniou
tavernier
tavet
tavit
tavoez
tawet
taxdetails
taylor
taz
tb
tbp
tchad
tchadek
tchagos
tchek
tchekeg
tchekia
tchekoslovakia
tchinek
tcp
tdn
te
teac
team
teatr
teatro
teau
teauneuf
tebr
tebre
tebrin
tec
tech
techet
technical
technology
techou
tecnolo
tecnologia
tecnologias
ted
teg
tegas
tegoneg
tegouezh
tegouezhas
tegouezher
tehai
tehou
tei
teifi
teign
teil
teir
teirgwern
tek
tekla
teknik
teknikel
teknikou
teknologiezh
teknologiezhiou
tel
tela
telc
tele
telemac
telen
telenn
telenovela
teles
television
teli
teliamb
telie
teliet
tell
tellou
telo
telt
teltou
tem
tema
temas
temb
tement
temminck
temos
temou
temp
tempe
tempera
temperadur
templ
templatepajenn
temple
templou
tempo
temporel
temps
temptasionou
temptet
temz
ten
tendo
tenenan
tener
tenerife
tenha
tenham
tenho
tenn
tenna
tennad
tennan
tennas
tennaz
tenne
tennein
tenner
tennessee
tennet
tennis
tennit
tenno
tennou
tenor
tensor
tentar
tentation
tentationou
tentet
tenuirostris
tenval
tenvalijen
tenzor
teo
teod
teodorig
teodou
teoh
teoria
teorienn
tepot
ter
tera
terc
terceiro
tere
teremos
teresa
tereza
teria
terme
termen
termenadur
termenet
termenin
termenou
termes
terminator
termo
termofis
termos
ternel
ternite
terpsiphone
terra
terre
terri
terribl
terrible
terrin
territoriales
terrubl
terrupl
terry
terzhienn
tes
teskad
teskas
teske
teski
teskin
test
testa
testamand
testamant
testament
teste
testeni
testeniekaet
testeniet
testeniou
testenn
testennou
testou
tet
tetsuo
teu
teuan
teuas
teuaz
teue
teuent
teuer
teuez
teufac
teufe
teufet
teui
teuimp
teuin
teuint
teuio
teuit
teuje
teujont
teul
teulegat
teuler
teulfilm
teuliad
teuliou
teun
teuomp
teuont
teuot
teurel
teurgn
teus
teuy
teuz
teuzet
tev
teval
teve
tevel
tevenn
tever
tevet
tevi
tevoc
texas
text
texte
textes
texto
textos
texts
tez
tezenn
tf
th
tha
thabor
thai
thailand
thames
thamnophilidae
than
that
the
theatre
thebai
their
them
then
theodor
theodore
theodosius
theogonia
theoloji
theory
there
theresa
therese
theresia
thereza
these
theseu
they
thie
thierry
thiers
thing
things
think
third
this
tho
thomas
thompson
thomson
thor
those
thought
thraupidae
three
through
thu
thule
thune
ti
tiad
tiadou
tiazezas
tibab
tibabas
tiber
tiberius
tibet
tibetek
tibi
tibri
tic
tica
ticas
tico
ticos
tie
tiec
tieg
tiegez
tiegezh
tiegezhiou
tiegeziou
tieien
tiek
tien
tienne
tiens
tier
tiern
tierniezh
tierra
tiers
tiez
tifenn
tigas
tige
tigeri
tigor
tigoras
tigouez
tigouezas
tigouezaz
tigouezout
tigr
tigre
tigris
til
tiled
tilezas
tilezel
tili
till
tillad
tillon
tilojas
tim
tima
timad
timat
timbr
timbre
timbrou
time
times
timezas
timo
timor
timothee
timothy
tin
tina
tine
tiner
tinha
tintin
tio
tiou
tiouall
tipo
tipos
tique
tir
tirabad
tirant
tire
tired
tireoul
tiriad
tiriadou
tirlu
tirol
tirvi
tis
tisavour
tisken
tiskenn
tiskennas
tiskennaz
tiskenne
tiskle
tiskoue
tiskouez
tiskouezas
tiskouezaz
tiskoueze
tispleg
tistrei
tistrein
tistro
tistroas
tistroaz
tistrojont
tit
titan
titl
title
titlet
titlou
tito
titourou
titre
titus
tive
tivemos
tiver
tiviz
tivizas
tiwall
tiz
tizet
tizh
tizhet
tizhout
tizian
tizoloas
tizout
tizrei
tl
tle
tlean
tlee
tleer
tlefe
tleit
tleomp
tleont
tlie
tlient
tlos
to
toaz
tobago
tobi
tobias
toc
tocantins
toda
todas
today
todd
todo
todos
toe
toenn
toennou
toet
tog
together
togo
togou
toi
toile
tok
tokarn
tokugawa
tokyo
tol
tolead
toledo
tolet
tolkien
tollis
tolosa
toloza
tolpad
tolpet
tolz
tom
toma
tomadas
tomar
tomatez
tomaz
tombe
tomder
tome
tomm
tomma
tomman
tommaso
tommder
tommet
tommoc
tomorrow
ton
tond
tone
toned
tonenn
tonennou
tonet
tonga
toniou
tonkad
tonkadur
tonket
tonkin
tonn
tonnerre
tont
tonton
tony
too
tools
top
topo
topographie
tor
torah
toret
torfed
torfedou
torfedour
torfedourien
torfejou
torfet
torfetour
torgenn
torgennou
torino
torn
torna
tornaod
tornaodou
tornar
torno
toro
toronto
torosad
torquatus
torr
torras
torre
torrein
torres
torret
tort
toskana
tost
tosta
tostaat
tostae
tostaet
tostait
tostan
tostat
tostik
tostoc
total
toto
tou
touar
touch
touche
touchet
toud
toue
touellan
touellet
touer
touesk
touet
touez
toug
touge
tougen
tougn
tougo
toui
touin
toujours
toul
toull
toulla
toullad
toulladig
toullan
toullbac
toullet
toullou
toulon
toulouse
tour
tourako
tourc
tourello
touriou
tourisme
touristed
touristerezh
tourmanchou
tourmant
tourmantet
tourmanteu
tourn
tournamant
tournamantou
tours
tourter
tourz
tous
touseg
toussaint
tout
toutafæt
toute
toutes
touz
touzet
tower
town
township
tr
tra
trabalhar
trabalho
trabalhos
trabas
trad
trade
tradition
traditions
traduc
traduction
traduit
traez
traezh
traezhenn
traezou
trai
train
traite
traitour
trajan
trajedienn
trakia
trallwng
tramor
tran
trange
tranquil
trans
transat
translation
transpare
tranzitivel
traon
traonienn
traonlavane
traou
trap
travail
travaux
travers
trawalc
trazer
tre
treac
treaz
trebez
trebilleu
trec
trecastell
tred
tredan
trede
tredeog
tree
trefaldwyn
trefeglwys
trefyclawdd
treger
tregont
treguer
tregynon
trei
treid
trein
treitour
treiz
treizh
trek
trelosk
trema
treme
tremen
tremenas
tremenaz
tremene
tremened
tremener
tremenet
tremeniad
tremeur
tremp
tren
treniou
trenk
trenkenn
trent
trente
trentino
trento
treo
treou
treoure
treron
tres
tresadenn
tresadennou
tresan
treser
treset
tresou
tresour
tresse
tret
treu
treud
treust
treut
treutaat
treuz
treuzdougen
treuzet
treuzfurmet
treuzi
treuzin
treuzkas
treuzkaset
treuzlizherennadur
treuzou
treuzsilvania
treuzskrivan
treuzskrivet
trev
trevadenn
trevadennel
trevadennerezh
trevadennerien
trevadennet
trevadennin
trevadennou
trevell
trevour
trevourien
trezeg
trezek
trezol
tri
triad
tribu
tribunal
tric
tricentenario
tricolor
tridal
trier
trieste
trifina
triliv
trin
trinidad
trinite
trinkan
trio
triouac
triouec
trist
tristan
triste
tristidigez
trivac
trivec
trivet
trivia
triwec
trizek
trizekvet
tro
troad
troadec
troadeg
troadegiezh
troas
troatad
troazh
troc
troca
trochilidae
troe
troed
troer
troet
trofe
troglodytes
trogon
troi
troia
troiad
troiadou
troidigezh
troidigezhiou
troienn
troiennou
troiou
trois
troisie
troit
troll
trompilh
trompla
tromplet
tron
troour
trop
tropel
tropellou
tros
trou
trouble
troublet
trouc
troude
trous
trouve
trouz
trouzus
trova
trovanel
trowardroiou
troy
troyes
tru
truaj
trubard
trubuilh
trubuilhet
trubuilhou
true
truez
truezin
truezus
truezuz
trugaire
trugare
trugareca
trugarecaat
trugarecat
trugareka
trugarekaat
trugarez
trugarezus
trugarezuz
truhe
truilhennig
trum
trumm
trump
truru
trust
truth
try
tryphine
ts
tsar
tsb
tsbr
tsi
tsolya
tt
ttel
ttingen
tu
tua
tuadur
tual
tuam
tuar
tuchenn
tuchentil
tucker
tud
tude
tudenn
tudennou
tudes
tudi
tudie
tudjentil
tudo
tudor
tudou
tudual
tudur
tue
tuet
tugdual
tui
tuiou
tulo
tulos
tunizia
tunk
tuo
tuont
tur
turdus
turk
turked
turkeg
turkek
turki
turkia
turkmenistan
turn
turner
turpis
tus
tut
tuta
tutte
tutti
tutto
tuum
tuvalu
tuz
tuæ
tv
tve
twitter
two
twrch
ty
tymologique
tyne
type
tyrannidae
tywi
tz
tɑ
tɔ
tɔj
tɔjn
tɔn
tɛ
tɛn
u
ua
ub
ubi
ubu
uc
uchaf
udb
udine
ue
uedigueah
uein
uet
uffizi
ugen
ugent
ugentved
ugentvet
ughent
ugue
uguen
uguent
uhel
uhela
uhelaat
uhelaet
uhelan
uhelder
uheldiriou
uhelenn
uhelennou
uhelgoad
uhelgompezenn
uhelidi
uhelloc
uheloc
ui
uigue
uirhie
uk
ukraina
ukrainat
ukraine
ukraineg
ul
ulad
ulaid
ulrich
ulrika
ulrike
ulster
ultima
ultra
um
uma
umberto
umbria
ump
un
una
unan
unander
unanderenn
unanenn
unanennou
unanet
unani
unaniezh
unanik
unanin
und
under
underground
une
unesco
unia
unic
unicolor
unio
union
uniq
unis
unissa
unisset
unite
united
univers
universal
universe
universel
universidade
universidades
universita
universitaires
universite
university
unix
unnek
unnekved
unnekvet
uno
uns
unvan
unvanet
unvanidigezh
unvaniez
unvaniezh
unvanin
unvez
unveziou
uol
uomini
uomo
uou
up
upon
ur
uraniom
urban
urbe
urbino
urbs
urh
uri
urien
url
urraca
urs
ursiou
urss
ursula
uruguay
uruguayat
urz
urzh
urzhaz
urzhiad
urzhian
urzhiataer
urzhiataerezh
urzhiataeriou
urzhiet
urzhiou
urziou
urzou
us
usa
usaaf
usach
usage
usaich
usar
use
used
user
usmc
uso
usp
usque
uss
usua
usuels
ut
utah
utc
util
utilizac
utilizar
utm
utrecht
uu
uwch
uz
uzet
uzin
v
va
vaast
vaat
vab
vabilon
vac
vachelouriezh
vad
vadalen
vade
vadeleah
vadeles
vadelez
vadenn
vadeu
vadez
vadezi
vadeziant
vadezour
vadie
vadiziant
vado
vadou
vae
vaen
vaer
vaet
vaez
vag
vaga
vagad
vagadou
vagadurez
vagan
vagas
vage
vagerez
vagig
vai
vaillant
vais
vajeste
vak
vakan
val
valafenn
valan
valde
valdemar
vale
valed
valee
valencia
valenciennes
valens
valentin
valentina
valentine
valentinian
valentinianus
valeria
valerian
valerius
valeur
vali
valic
valice
valien
valijenn
vall
valladolid
valle
vallenato
vallerie
valley
valloz
valois
valor
valores
valtouterien
vam
vame
vamen
vamm
vammen
vammenn
vamos
vampire
van
vanac
vanas
vanati
vanav
vancouver
vandaled
vande
vanden
vandenn
vandennad
vane
vanellus
vaner
vanessa
vanifestadeg
vanifestin
vanite
vank
vanke
vanko
vankout
vann
vanne
vannes
vannetais
vanniel
vanos
vanq
vanque
vantel
vantell
vanuatu
vaot
vaouez
vaouezed
vap
var
vara
varadoz
varbared
varc
vardro
vare
varese
vargas
varhue
vari
varia
variante
varin
varkizes
varlec
varlenn
varlerc
varn
varna
varnadenn
varne
varnedigez
varner
varnerien
varnez
varnezan
varnezhan
varnezhe
varnezhi
varnezho
varnezo
varnhan
varnhi
varnho
varno
varnoc
varnomp
varnugent
varnuguent
varo
varoned
varr
varregezh
varrenn
varrikenn
varsovia
vartezeadenn
vartolod
vartoloded
vartolodet
varu
varv
varvas
varvaz
varve
varvin
varvo
varvont
varzed
varzh
varzhed
varzhez
varzhin
varzhoneg
varzhonegou
varzhoniezh
varzu
vas
vasa
vasco
vastard
vastarned
vat
vate
vates
vatez
vatezh
vatikan
vatimant
vatriona
vauban
vaucluse
vaz
vaze
vazh
vc
vcs
ve
vea
veac
veach
veaj
veajas
veajin
veajou
veajourien
vean
vec
vecchio
vech
vechant
vechou
ved
vedalen
vedalenn
vedisin
vedisined
vedita
veditation
vedou
vefa
vefe
vefemp
vefen
vefent
vefet
vefomp
vefont
veg
vega
vegas
vehai
vehe
vehet
vehoh
vei
veich
veil
veilla
veille
vein
veint
veis
veja
vejo
vek
vel
vela
velan
velanvet
velas
velaz
velderiou
vele
velean
veleg
velegiach
veleien
velek
velen
velent
veler
velestradurel
velestradurezh
velet
veleyen
velged
velgiat
veli
velia
velin
velint
velit
veliz
veljont
velkent
velkoni
vell
vella
vellou
velo
veloc
velomp
velont
velot
velout
velrevelezh
velster
velsteriou
velvet
vem
vemor
vemp
vemprou
ven
venac
vende
vendo
vene
venec
venediction
veneg
venel
venenatis
venere
veneto
venez
venezia
veneziou
venezuela
vengleuz
vengolo
veni
veniel
veniliornis
venjanc
venji
venn
vennas
vennaz
venne
vennein
venner
vennet
vennigaz
venniget
vennoz
vennozh
vennozhiou
veno
venoz
vent
ventre
ventura
venus
venveg
veo
veot
ver
vera
veracruz
veran
verb
verbano
verbetes
verbou
verbum
verc
vercelli
verchon
verdade
verde
verdeadurezh
verdun
vere
vered
vereuri
vergilius
verh
verhuel
verian
verien
veriet
verit
veritou
verk
verkan
verke
verkingetorix
verlag
verlin
vermeer
vermont
vern
verne
vernon
vero
verona
veronese
verq
verr
verri
vers
versa
versailhez
versailles
versicolor
version
verso
vert
verte
vertu
vertui
vertus
vertuyeu
vertuz
vertuziou
vertuzus
vertuzuz
verus
verv
verve
vervel
vervent
very
verz
verza
verzas
verzer
verzerenti
verzerez
verzerien
verzerinti
verzh
ves
vesa
vesk
veskan
vespasian
vespasianus
vespucci
vestr
vestre
vestrez
vet
vetal
vete
vetek
veu
veul
veule
veuleudi
veuli
veur
veure
veuriad
veurs
veus
veux
veuzi
veuzin
vev
veva
vevan
vevas
vevaz
veve
vevel
vevelien
vevenn
vevent
vevin
vevo
vevomp
vevont
vez
veza
vezai
vezan
veze
vezed
vezegiezh
vezen
vezenn
vezent
vezer
vezes
vezet
vezeven
vezez
vezh
vezi
vezimp
vezin
vezinn
vezint
vezit
vezo
vezoc
vezomp
vezont
vezot
vezventi
vi
via
viagem
vian
viana
viber
vibien
vic
vice
vicente
vicenza
viche
vichent
vicher
vicherourien
vichy
victim
victimes
victoe
victoire
victor
victoria
victorius
vid
vida
vidal
vidas
vide
video
videoiou
vidi
vie
vieille
vieillot
vien
vienna
vienne
vient
vier
vierge
viet
vietnam
vietnameg
vieux
view
vige
vigil
vignon
vignoned
vignonet
vignonez
vignoniezh
vignoun
vignounaich
vignouned
vigo
vigor
vigors
vigoudenn
vihan
vihana
vihanaat
vihanan
vihanik
vihanoc
vihue
vihuein
vii
viii
viiie
viiivet
viivet
vijac
vije
vijec
vijemp
vijen
vijenn
vijent
vijes
vikel
viken
vikenn
viking
vikinged
viktimou
viktor
viktoria
vil
vila
vilaine
vilan
vilar
vilin
vilion
villa
villafranca
village
villanova
villanueva
villars
ville
villefranche
villemarque
villeneuve
villers
villes
villiers
villiget
vilour
vilourel
vimp
vin
vince
vincent
vincenzo
vinci
vinda
vindose
vindrailherez
vingt
vini
vinicius
vinien
vinistr
vinistred
vinn
vinniget
vino
vinorelezh
vint
vintin
vinz
vio
vioc
viola
violante
violet
violin
violon
viot
viou
vipien
vir
viraclou
virakl
viraklou
viras
viraz
vire
virer
viret
virgin
virginia
virgo
virhuiquin
viridis
virionez
virit
viro
virout
virton
virtual
viruz
virvi
virviken
virvin
vis
visa
visach
visant
viscoah
visconti
vise
visericord
viseu
vision
visionerien
visit
visita
viskamant
viskaz
viskoaz
viskoazh
vissurix
vista
visto
vistri
visual
vit
vita
vitae
vital
vite
vited
vitellius
viterbo
vitin
vito
vitologiezh
vittoria
vittorio
viu
viva
vive
vivet
vivo
vivre
viz
vizach
vize
vizer
vizied
viziek
vizigoted
vizita
vla
vladimir
vlai
vlaz
vle
vlec
vleiz
vlenierien
vleo
vleu
vleud
vleun
vleuniou
vlev
vlevenn
vloa
vloas
vloavez
vloavezh
vloavezhiou
vloaz
vloaziek
vlotaat
vn
vo
voa
voad
voair
voal
voalc
voalen
voall
voan
voant
voar
voas
voay
voaz
vobis
voc
vocabulaire
vocation
voce
vod
vodadeg
vodadenn
vodan
vodas
vode
voden
voder
vodern
vodesti
voe
voed
voen
voent
voereb
voeren
voest
voez
vogalenn
vogalennek
vogalennou
voged
voger
voi
voice
voici
voila
voir
vois
voix
voizez
vojenn
vojennel
vol
volante
volga
volkswagen
volonte
volontes
volontez
volotenn
volta
voltaire
volte
volume
volunta
volunteers
volution
volutionnaire
volz
vom
vombard
vombezadeg
vombezenn
von
vonarkiezh
vond
voned
voneiz
vonet
vongoled
vonheur
vonjoure
vonreizh
vont
vontade
vontroulez
vor
vora
voraerien
vorc
vord
vorennou
vorgan
vorianed
vortigern
vorzed
vos
vosen
vosenn
vosges
voskeen
vot
votac
votadeg
vote
votet
votez
votin
voto
votou
votre
vou
voualc
vouc
voud
voudaegezh
voudenn
voue
voued
vouel
vouela
vouele
vouenn
vouent
voueta
vouez
vouezh
vouezhiadeg
voug
vouga
vougan
vougev
vouie
vouiziegez
voul
voulc
voulouz
vour
vourboned
vourc
vourdel
vourgogn
vourien
vourrevien
vourzh
vous
vousc
vout
voutailh
voutailhad
voutin
voutou
vouzar
vouzellou
voyage
voyen
voyenou
voz
vr
vra
vragal
vragou
vrai
vran
vrao
vras
vrasa
vrasaat
vrasan
vrasoc
vrassa
vrassan
vrassoc
vrav
vraz
vrazilian
vre
vreac
vrec
vreg
vrein
vreina
vreinadurez
vreiz
vreizad
vreizh
vreizhat
vreizhveuriat
vreiziz
vrema
vreman
vreou
vres
vreskenn
vrest
vret
vreton
vretoned
vretonet
vretouned
vreu
vreudeur
vreur
vreuriez
vrezel
vrezelin
vrezelourien
vrezhon
vrezhoned
vrezhoneg
vrezhonegerien
vrezhonek
vrezoned
vrezoneg
vrezonek
vri
vriad
vriata
vrier
vrigadenn
vro
vroad
vroadel
vroadelezh
vroadelourien
vroadelouriezh
vroeg
vroig
vroiou
vron
vronn
vroudas
vruched
vrud
vrudan
vrudet
vrudetan
vs
vu
vuan
vuane
vue
vuel
vues
vuez
vugale
vugaleach
vugaleaj
vugaligou
vugel
vugulion
vuhan
vuhe
vuhez
vuhezegezh
vui
vuia
vuian
vuioc
vuntrerien
vunut
vunutenn
vuoc
vur
vurgonded
vurzud
vurzudou
vurzudus
vus
vutun
vuzellou
vuzul
vuzulian
vuzulman
vuzulmaned
vv
vvd
vvet
vy
væn
væstr
vœu
vɑ
vɔ
vɛl
vɛr
w
wa
wad
waffen
wagenn
wagler
wagner
wake
walarn
walc
walen
walenn
wales
walh
walk
walker
wall
wallace
walloneg
wallonia
walsh
walt
walter
walton
wan
wanda
wang
want
war
waray
warc
ward
warded
wardro
wareg
waremm
warez
warezin
warizi
warlec
warlene
warlerc
warn
warnan
warne
warner
warnezan
warneze
warnezi
warni
warno
warnoc
warnomp
warnon
warnoun
warnout
warnugent
warren
warrior
wars
warwick
warzu
was
wasa
washaat
washington
wask
watch
water
waterloo
waters
watson
watt
wave
way
wayne
waz
wazed
wazh
wd
we
weach
web
webelements
weber
website
webster
wech
wechall
wechou
wedding
week
weekly
ween
weenn
wehrmacht
wei
weights
weimar
wej
wejo
wel
wela
weladenn
weladennerien
weladennin
welan
welann
welas
welaz
welcome
wele
weled
welent
weler
welet
welez
welfet
weli
welimp
welin
welinn
welis
welit
weliz
welje
weljont
well
wella
wellaat
wellan
welles
wellington
welloc
welo
welomp
welont
welot
welout
welsh
welt
wen
wened
wener
wengamp
wengolo
wenn
wenneg
wenodenn
went
wer
werc
were
werenn
werennad
werin
wern
werner
werz
werza
werzenn
werzh
werzhan
werzhas
wes
wessex
west
western
westfalen
westhoek
westminster
wetur
wez
wezen
wezenn
wezh
wezhiou
wezhou
what
when
where
which
while
white
who
whole
why
wi
wialen
wialenn
wiber
wide
wie
wien
wife
wikeriadur
wiki
wikibrasil
wikicon
wikidata
wikimammenn
wikimania
wikimedia
wikimedista
wikimedistas
wikinoti
wikipe
wikipedia
wikipedistas
wikis
wikisource
wikispecies
wikiversidade
wild
wilde
wiley
wilhelm
wilhelmine
will
willem
william
williams
willie
willou
willy
wilson
win
winchester
wind
windows
windsor
winien
winston
winter
wir
wirion
wirione
wirionez
wiriou
wisconsin
wise
wisk
wiska
wiskamant
wiskan
wiskas
wiski
wit
with
within
without
wiz
wizie
wiziegez
wizigoted
wledig
wm
wmb
wmbr
wmf
wo
wolf
wolfenbu
wolfgang
wolfram
woman
women
won
wonder
woo
wood
woods
woody
word
words
work
works
workshop
world
worlds
worldwide
worms
would
woulfe
wp
wrac
wrecsam
wreg
wrez
wright
writers
writing
written
wrizienn
wrong
wu
wulf
ww
www
wy
wyn
wyoming
wysg
x
xadrez
xavier
xbox
xerais
xet
xi
xico
xie
xii
xiie
xiii
xiiivet
xiivet
xima
ximo
xinjiang
xiv
xivet
xivvet
xix
xixvet
xl
xose
xun
xv
xve
xvet
xvi
xvii
xviii
xviiivet
xviivet
xvivet
xvvet
xwa
xx
xxi
xxii
xxiii
xxiv
xxivet
xxix
xxv
xxvet
xxvi
xxvii
xxviii
xxx
xxxi
xxxii
xxxiii
y
ya
yac
yae
yafe
yagu
yah
yahoo
yalc
yale
yamamoto
yan
yang
yann
yannick
yannig
yao
yaou
yaouanc
yaouanctis
yaouank
yaouanka
yaouankan
yaouankik
yaouankiz
yaouankizou
yaouankoc
yaouanq
yar
yas
ye
yea
year
years
yeas
yec
yee
yeha
yehaid
yehan
yehouda
yei
yein
yellow
yelo
yemen
yen
yenaat
yenien
yenijenn
yeo
yeodi
yeot
yer
yes
yet
yeun
yeunig
yeux
yev
yez
yezh
yezhadur
yezhadurel
yezhadurour
yezhel
yezhoniel
yezhoniezh
yezhoniour
yezhou
yezhour
yezhourien
yezou
yi
ym
yn
yng
ynys
yo
yoa
yoc
yod
yoga
yon
yonne
yontr
yoran
york
yorkshire
you
youanq
youc
youen
youenn
yougoslavia
youl
young
your
yourc
youth
youtube
yr
ys
ysgol
ystadegau
ystog
ystrad
ystradenni
ystradgynlais
yu
yuan
yucata
yud
yudal
yue
yun
yuniou
yunnan
yuzev
yuzevegezh
yuzevek
yuzevien
yuzevion
yvelines
yves
yvette
yvon
yvonne
yy
z
za
zabulon
zac
zachenn
zad
zadorn
zadou
zae
zaelou
zaerou
zai
zakarias
zakr
zakramanchou
zakramant
zakrifis
zakrifiz
zakrist
zal
zalc
zale
zaleas
zaleaz
zalh
zall
zalud
zaludi
zalver
zalvoudegezh
zalwer
zambia
zamm
zammig
zamora
zan
zane
zanevell
zanevellou
zann
zanne
zansal
zant
zante
zantel
zantelez
zantes
zantez
zantifia
zantimant
zanvez
zanzibar
zao
zaol
zaou
zaouarn
zaoud
zaoulagad
zaoulagat
zaoulin
zaoulina
zaout
zaouzek
zaoz
zaozon
zapotekeg
zapotekek
zappa
zar
zara
zaragoza
zarempred
zarempredin
zarempredou
zarn
zarpant
zarvoud
zas
zastum
zastumad
zastumas
zastumaz
zastume
zastumet
zau
zav
zavas
zavaz
zave
zavet
zavetei
zavid
zavier
zavo
zaz
zchon
ze
zea
zeac
zealand
zeas
zeblant
zeblante
zebr
zebraz
zebre
zebri
zebrin
zebro
zec
zed
zedong
zeeland
zeg
zegas
zegasas
zegase
zegemer
zegemeras
zegouezh
zegouezhas
zehou
zei
zeir
zeisiou
zeiz
zek
zel
zeland
zelaou
zelaouaz
zelc
zeli
zeliamb
zeliant
zelie
zeliet
zell
zellas
zellaz
zelle
zellet
zello
zellou
zempladurez
zen
zenaida
zenn
zenna
zennet
zennou
zent
zentaz
zenti
zentidigez
zenved
zeo
zeod
zeou
zeourn
zepartamant
zer
zerc
zere
zerhel
zero
zerr
zerri
zervez
zervich
zervicha
zervichaz
zerviche
zervicher
zervicherien
zervicho
zervichout
zes
zesir
zesk
zeskadurez
zeskas
zeskaz
zeski
zeskin
zesko
zeskriv
zesq
zestamant
zestum
zet
zetans
zeu
zeuas
zeuaz
zeue
zeufe
zeui
zeuio
zeuje
zeulegad
zeuont
zeur
zeus
zeve
zevel
zever
zeveriou
zevez
zevezh
zevi
zevosion
zevotion
zevri
zez
zezir
zh
zhan
zhang
zhi
zho
zhou
zhu
zi
zia
ziabarz
ziabell
ziagent
ziar
ziarbenn
ziavaez
ziave
ziaveaz
ziazez
ziazezan
ziazezas
zibab
zibabas
zibluo
zibri
zic
zicour
zidon
zie
ziegezh
zier
zieu
zieubin
ziez
zifen
zifenn
zifennaz
zifenne
ziforc
zigac
zigarez
zigas
zigasas
zigasaz
zigase
zigaso
zigass
zige
zigemer
zigemeret
zigeri
zigerin
zigoll
zigor
zigoras
zigoraz
zigore
zigoro
zigouez
zigouezas
zigouezaz
zigoueze
zigresk
zigwe
zihoal
zihue
zihun
zihuna
zihunas
zihunaz
zikour
zikouret
zil
zilaou
zile
zilec
zilenn
zilerc
zileuriad
zilez
zilezas
zilezel
zilhad
zillad
zilvidigez
zimbabwe
zime
zimez
zimezas
zimezi
zimezin
zimezo
zimizi
zimp
zin
zinac
zindan
zingg
zinifi
zinn
zint
zioc
zion
ziorren
ziou
ziouall
ziouc
ziouer
ziougan
ziouskoaz
ziouskouarn
zira
zirak
zired
ziredas
ziredaz
zirede
ziriad
zirollas
zis
zisciple
ziscleria
zisco
ziscoein
ziscuez
zishen
ziskar
zisken
ziskenn
ziskennas
ziskennaz
ziskenne
ziskennidi
ziskenno
ziskibien
ziskibl
ziskibled
ziskiblien
ziskle
ziskleria
ziskleriaz
ziskoe
ziskouarn
ziskoue
ziskouez
ziskouezas
ziskouezaz
ziskoueze
ziskouezet
ziskouezo
ziskuez
ziskuiza
zisoc
zispac
zisparti
zispenn
zispign
zispleg
zisplega
zisplegan
zisplich
zisplige
zispriz
zisq
zisquen
zisquez
zisquibien
zistag
zistaga
zistagan
zistagas
zister
zistrei
zistrein
zistro
zistroas
zistroaz
zistroe
zistroio
zistruj
zistrujan
zistrujas
zit
zita
zitl
ziv
zive
zivesker
ziveza
zivezad
zivezat
ziviz
zivizas
zivout
zivreac
zivrec
zivskouarn
ziwall
ziwalle
ziwan
ziwar
ziwezhan
ziwezhat
zizec
zizober
zizun
zle
zo
zoa
zoar
zoare
zoareou
zoc
zoctrin
zod
zoe
zoh
zoken
zol
zola
zolier
zollarou
zomm
zomp
zon
zonch
zond
zone
zonenn
zonet
zoniou
zonj
zonjal
zonjan
zonjas
zonjaz
zonje
zonjou
zonne
zonnet
zont
zor
zoriou
zorn
zorserez
zosso
zosterops
zot
zou
zouar
zouarou
zouben
zoubenn
zouc
zoudard
zoudarded
zoudardet
zoue
zoueed
zouesk
zouez
zoug
zougas
zougaz
zouge
zougein
zougen
zouget
zougo
zouguen
zouj
zoujan
zoujans
zoujanz
zouloueg
zoun
zour
zourcen
zourn
zousder
zouste
zout
zouten
zoz
zquez
zra
zraou
zrec
zrede
zreid
zremenvan
zremm
zri
zro
zroad
zrouc
zroug
zrougiez
zrouk
zu
zuberoa
zud
zudi
zug
zuid
zujidi
zul
zulvez
zum
zun
zuperior
zur
zus
zuz
zweibru
zy
zz
zænt
zɑ
zɔ
zɛn
zɛr
{
|
}
~

¡
£
§
©
ª
«
¬
­
®
°
±
²
³
´
µ
·
¹
º
»
½
¿
×
ß
æ
æl
æle
ælet
ælez
ær
æs
æt
æternum
æthelred
ævreu
æz
ð
÷
ø
þ
đo
ħ
ı
ŋ
œ
œuvr
œuvre
œuvres
œuvro
œuvrou
œvreu
ǀ
ǁ
ǂ
ǃ
ɐ
ɑ
ɔ
ɔn
ɔr
ɔt
ɔx
ɕ
ə
ɛ
ɛl
ɛn
ɛr
ɛs
ɛt
ɛx
ɡ
ɡa
ɡal
ɡe
ɡi
ɡo
ɡu
ɡwe
ɡɑ
ɡɔ
ɡɛ
ɡɛl
ɡɛn
ɡɛs
ɡɥe
ɣ
ɣa
ɣe
ɣu
ɣɑ
ɤ
ɨ
ɪ
ɫ
ɬ
ɯ
ɲ
ɳ
ɴ
ɹ
ɾ
ʁ
ʂ
ʃ
ʃa
ʃe
ʃi
ʃɔ
ʉ
ʎ
ʒ
ʒe
ʒu
ʒɔ
ʔ
ʘ
ʰ
ʲ
ʷ
ʹ
ʻ
ʼ
ʾ
ʿ
ˀ
ˈ
ˌ
ː
ˑ
ˠ
ˤ
˥
˧
˩
˱
˲
̀
́
̂
̃
̄
̆
̇
̈
̉
̊
̋
̌
̍
̑
̓
̔
̛
̝
̞
̟
̠
̣
̤
̥
̦
̧
̨
̩
̪
̫
̮
̯
̱
̺
̻
͂
ͅ
͡
α
αι
ας
β
γ
δ
ε
ζ
η
θ
ι
κ
και
λ
μ
με
ν
να
νη
ξ
ο
ος
π
ρ
ς
σ
τ
της
το
υ
φ
χ
ψ
ω
ϕ
а
б
в
г
д
е
ж
з
и
к
л
м
н
на
о
оияи
п
р
с
т
у
ф
ц
ч
ш
щ
ы
ь
э
я
ְ
ֲ
ִ
ֵ
ֶ
ַ
ָ
ֹ
ּ
־
ֿ
ׁ
ׂ
א
ב
ג
ד
ה
ו
ז
ח
י
כ
ל
ם
מ
ן
נ
ס
ע
פ
צ
ק
ר
ש
ת
،
ا
ب
ة
ت
ج
ح
خ
د
ر
س
ص
ع
ف
ق
ك
ل
م
ن
ه
و
ي
ٌ
َ
ُ
ِ
ّ
ْ
ٓ
ٔ
ٕ
ं
ः
क
ख
ग
च
ज
ट
ड
ण
त
थ
द
ध
न
प
फ
ब
भ
म
य
र
ल
व
श
ष
स
ह
़
ा
ि
ी
ु
ू
ृ
े
ै
ो
्
ক
চ
ত
দ
ন
প
ব
ম
র
ল
ষ
া
ি
ী
ু
ূ
ে
্
ਪ
ਾ
ੁ
ੱ
મ
ર
ા
િ
ે
્
க
த
ன
ப
ம
ர
ற
ா
ி
ு
ெ
ே
்
ం
న
య
ల
ా
ి
ు
్
ರ
ಿ
ೂ
್
ം
ക
ഞ
ര
ാ
ി
ു
്
න
ි
น
อ
ั
ิ
ี
ื
ุ
ู
่
้
์
་
།
བ
ལ
ི
ུ
ོ
က
အ
ာ
ေ
္
᛬
រ
ា
្
​
‌
‎
‏
‐
‑
‒
–
—
―
‘
’
‚
“
”
„
†
•
…
‭
′
″
‿
⁂
⁡
ⁿ
₁
₂
₃
€
ℓ
℟
℣
→
↔
↷
−
∗
√
∞
∫
≈
③
④
⑦
─
│
┌
└
├
█
■
◆
♣
♦
♭
⚜
✝
ⴰ
ⴷ
ⵉ
⺀
⺄
⺆
⺈
⺊
⺌
⺕
⺝
⺸
⺼
⿰
⿱
⿲
⿳
⿴
⿵
⿶
⿷
⿸
⿹
⿺
⿻
。
《
》
〢
あ
い
う
お
か
き
く
け
こ
さ
し
す
せ
そ
た
ち
っ
つ
て
と
な
に
の
は
ひ
ふ
へ
ほ
ま
み
も
ゆ
ょ
よ
ら
り
る
れ
わ
を
ん
゙
゚
ア
ィ
イ
ウ
ェ
エ
オ
カ
キ
ク
ケ
コ
サ
シ
ス
セ
タ
チ
ッ
ツ
テ
ト
ナ
ニ
ハ
ヒ
フ
ヘ
ホ
マ
ミ
ム
メ
ャ
ヤ
ュ
ユ
ョ
ラ
リ
ル
レ
ロ
ン
・
ー
㇁
㇂
㇄
㇇
㇈
㇉
㇓
㐁
㐄
㐅
㐌
㐫
㐬
㐭
㐮
㐱
㑒
㒵
㒸
㒼
㓁
㓞
㔾
㕛
㕣
㖾
㘝
㚅
㚇
㚔
㚘
㝉
㝡
㝴
㝵
㞋
㞢
㞷
㠩
㠭
㠯
㡀
㡭
㡿
㢲
㢴
㣇
㣺
㥯
㪅
㫄
㫐
㫒
㫺
㬅
㬎
㬥
㬰
㲋
㳄
㷠
㸒
㸚
㸦
㼌
㼲
㽞
㿟
䀠
䂞
䍃
䏍
䒑
䖍
䖒
䖝
䖵
䙴
䚻
䜌
䝿
䡛
䧹
䪞
一
丁
丂
七
丄
丅
丆
万
丈
三
上
下
丌
不
与
丏
丐
丑
专
且
丕
世
丘
丙
业
东
丞
丢
丣
两
严
並
丨
丩
个
丫
丬
中
丮
丰
丱
串
丵
丶
丷
丸
丹
为
主
丽
丿
乀
乂
乃
久
乆
乇
么
义
之
乌
乍
乎
乏
乐
乑
乔
乖
乗
乘
乙
乚
乛
乜
九
乞
也
习
乡
书
乳
乾
亀
亅
了
亇
予
争
事
二
亍
于
亏
亐
云
互
亓
五
井
亘
亚
亜
亞
亟
亠
亡
亢
交
亥
亦
产
亨
亩
享
京
亭
亮
亯
亰
亲
亳
亶
亷
人
亻
亼
亾
仁
今
介
仌
从
仐
仑
仒
仓
仕
他
付
仝
代
令
以
任
企
伊
伏
伐
休
会
伯
但
位
何
佘
余
作
佥
使
來
侈
侌
侖
侯
侵
便
保
俞
信
修
倉
倍
候
倠
備
僉
僕
儿
兀
允
兂
元
兄
充
兆
兇
先
光
兊
克
兌
免
兑
兒
兓
兔
党
兜
兟
入
全
兩
兪
八
公
六
兮
兰
共
关
兵
其
具
典
兹
兼
冀
冂
冃
冄
内
冈
冉
冊
冋
册
再
冎
冏
冐
冒
冓
冖
冗
冘
军
农
冝
冡
冥
冫
冬
冷
几
凡
凢
凵
凶
凷
凸
凹
出
函
凾
刀
刁
刂
刃
刄
刅
分
切
刊
刍
刑
刕
刖
列
刘
则
初
別
利
别
到
制
刺
則
削
剌
前
剡
剽
劉
力
功
加
劦
助
劫
劳
劵
勃
勇
勉
勒
動
務
勞
勤
勹
勺
勻
勾
勿
匀
匂
包
匆
匈
匊
匋
匍
匕
化
北
匚
匝
匡
匪
匱
匸
匹
区
医
匽
匿
區
十
卂
千
卄
卅
卆
升
午
卉
半
卌
华
卑
卒
卓
单
卖
南
卜
卝
卞
占
卡
卢
卣
卤
卦
卩
卪
卬
卯
印
危
即
却
卵
卷
卸
卻
厂
厃
厄
历
厈
厉
厌
厓
厘
厚
原
厤
厥
厨
厭
厲
厶
厷
厸
去
厼
厽
叀
参
參
叅
又
叉
及
友
双
反
叐
发
叒
叔
叕
取
受
叚
叜
叟
口
古
句
另
叩
只
召
可
台
叱
史
右
叵
号
司
叹
吂
各
吅
合
吉
吊
吋
同
名
后
吏
向
吕
君
吝
吞
否
含
启
吳
吴
吹
吾
呂
呆
呈
告
员
呙
周
命
咅
和
咎
咠
咢
咨
咸
咼
哀
品
哉
員
哥
哲
唐
商
啇
問
啚
啬
啻
善
喜
喬
單
喿
嗇
噩
嚴
囊
囗
囘
囙
囚
四
回
囟
因
囧
囬
困
囱
囷
固
国
圂
圅
國
圍
圓
土
圡
圣
圥
在
圭
地
圶
圼
坐
坒
坚
坴
垂
垔
垚
埀
埋
城
埶
執
基
堂
堅
堆
堇
堯
塞
墨
壘
士
壬
壯
声
壳
壴
壹
壺
壽
夂
处
夅
夆
备
夊
夋
夌
复
夏
夒
夕
外
夗
夘
多
夜
夢
大
夨
天
太
夫
夬
夭
央
失
夲
头
夷
夸
夹
夻
夾
奂
奄
奇
奈
奉
奎
奏
奐
契
奓
奔
奚
奞
奠
奢
奥
奭
女
奴
奻
好
如
妄
妙
妟
妥
妻
妾
姑
委
姜
威
娄
婁
婴
嬰
嬴
子
孑
孔
孕
孖
字
存
孚
孛
孝
孟
季
孤
学
孫
孱
學
宀
宁
宂
它
宅
宇
守
安
宋
完
宏
宓
宗
官
定
宛
宜
宝
客
宣
室
宮
宰
害
家
容
宾
宿
寄
寅
密
富
寒
察
寧
審
寫
寬
寮
寸
对
寺
寻
寽
対
寿
封
尃
射
将
將
專
尉
尊
尋
尌
對
小
少
尒
尓
尔
尖
尗
尚
尞
尢
尣
尤
尧
尨
尭
就
尸
尹
尺
尻
尼
尽
尾
尿
局
居
屈
屋
屎
屏
屑
展
屖
屚
属
屠
屡
屬
屮
屯
屰
山
屵
屾
岁
岂
岑
岡
岩
岳
岸
峯
島
崇
崑
崔
崖
崙
崩
嵬
嶲
巂
巛
川
州
巟
巠
巢
巤
工
左
巧
巨
巩
巫
差
己
已
巳
巴
巷
巸
巻
巽
巾
巿
帀
市
布
希
帚
帛
帝
带
師
席
帶
常
干
平
年
幵
并
幷
幸
幺
幻
幼
幽
幾
广
広
庄
床
底
店
庚
府
度
庫
庭
庶
康
庸
廉
廌
廛
廣
廩
廴
延
廷
建
廾
廿
开
弁
弃
弄
弇
弋
式
弓
弔
引
弗
弘
弜
弟
弥
弦
弱
張
強
强
彊
彌
彎
彐
彑
当
彔
录
彖
彗
彡
形
彥
彦
彧
彭
彳
役
彼
往
待
律
徒
得
徙
從
復
微
徵
心
忄
必
忌
忍
志
忝
忠
忩
快
念
忽
忿
思
怠
急
怱
恆
恒
恩
恭
息
悉
患
悤
悲
悶
惠
惡
惢
愁
愈
意
愛
感
慈
慧
慮
憂
憲
應
戀
戈
戉
戊
戋
戌
戍
戎
成
我
戒
戔
或
戚
戠
戢
戦
截
戲
戶
户
戹
戼
戾
房
所
扁
扇
手
扌
才
打
托
执
承
折
拉
拜
拿
指
掌
推
提
摩
支
攴
攵
收
攸
改
放
政
敄
敏
敕
敖
敗
敝
敞
敢
散
敦
敫
敬
数
敷
數
斂
文
斉
斊
斗
斤
斥
斩
斬
斯
新
方
於
施
斿
旁
旋
族
无
旡
既
旣
日
旦
旧
旨
早
旬
旱
旲
时
旾
昆
昇
昌
昍
明
昏
易
昔
昗
昜
星
春
昬
是
昱
昴
昷
時
晃
晋
晏
普
景
晶
智
暑
暴
曇
曩
曰
曲
曳
更
曷
書
曹
曼
曾
替
最
朁
會
月
有
朋
服
朔
朕
朗
望
朝
木
朩
未
末
本
札
朮
术
朱
朵
朶
朿
杀
杏
村
杜
束
条
来
東
杲
杳
松
析
林
枚
果
枝
枲
枼
某
柔
查
柬
柰
柴
栗
桀
桑
桼
梁
條
梟
梨
棘
棠
棥
森
楚
業
楽
榮
樂
樊
欠
次
欣
欮
欲
欶
欽
款
歆
歇
歌
歛
止
正
此
步
武
歨
歪
歮
歯
歰
歲
歴
歷
歸
歹
歺
死
殳
段
殷
殸
殹
殺
殻
殿
毋
毌
母
每
毒
比
毕
毚
毛
毳
氏
氐
民
气
氣
水
氵
氶
氷
永
氺
氾
求
汝
汞
江
沃
沓
沙
沝
河
治
泉
法
波
泣
泥
泰
洛
洪
活
派
流
浦
浪
浮
海
淡
淮
清
渚
渠
湯
滿
漢
漫
漸
火
灬
灭
灰
灵
灷
炅
炎
炏
炗
炙
炭
為
烈
烏
烝
焉
無
焦
焱
然
煞
熊
熏
燕
營
燮
爪
爫
爭
爯
爰
爱
爲
爵
父
爻
爽
爾
爿
片
牙
牚
牛
牜
牟
牢
牧
物
牪
牽
犀
犬
犭
犮
狂
狄
狊
独
狺
猋
猒
猪
献
獻
玄
率
玉
王
玟
玨
珎
班
理
琴
瑟
瑩
瓜
瓦
甘
甚
生
産
用
甫
甬
田
由
甲
申
电
甶
男
甸
甹
画
甾
畀
界
畏
畐
留
畜
畟
畢
畧
畨
番
畫
異
畱
當
畺
畾
疊
疋
疌
疑
疒
疾
癶
癸
癹
登
發
白
百
皀
皃
的
皆
皇
皋
皐
皕
皮
皷
皿
盃
盆
盇
盈
益
盍
盎
监
盒
盖
盛
盡
監
盤
盧
目
直
相
盾
省
眇
眉
看
眔
眞
真
眷
眼
眾
着
睘
睪
睿
瞏
瞢
瞿
矍
矛
矞
矢
矣
知
矦
短
石
破
碎
磊
磨
示
礻
礼
社
神
祟
票
祭
禀
禁
福
禸
禹
禺
离
禽
禾
禿
秀
秃
秉
秋
科
秝
秦
移
稟
穀
穌
穴
究
穹
空
穿
突
窄
窒
立
竒
竜
竝
竟
章
童
竹
笑
笠
筆
等
答
箕
算
箴
節
篤
篭
米
粉
粛
粟
粤
粦
粲
糞
糸
糹
系
紀
約
納
素
索
紫
累
細
絜
絫
絲
經
維
綿
縣
繇
纍
纟
缶
网
罒
罔
罕
罗
罙
罡
罢
罪
署
罷
羅
羊
羌
羍
美
羔
羕
羗
羞
羡
羣
群
義
羲
羸
羽
翁
翏
習
翕
翟
翠
翼
老
耂
考
者
耆
而
耎
耑
耒
耳
耴
耶
耷
聂
聊
聖
聚
聶
聿
肀
肃
肅
肉
肖
肙
肥
肩
肯
育
肴
胃
背
胡
胥
能
脊
脩
膚
臣
臤
臧
自
臬
臭
臯
臱
至
致
臺
臼
臽
臾
臿
舀
舂
舄
與
興
舉
舌
舍
舛
舜
舞
舟
般
艮
良
色
艸
艹
艾
芒
芔
芬
芮
花
芳
芺
芻
苔
苗
苟
若
苦
英
茶
茸
荅
草
荒
荣
荼
莆
莧
莫
莽
菆
菊
菐
華
萬
落
葉
著
葛
董
葵
蒙
蒦
蒼
蓋
蓬
蓺
蔑
蔡
蕉
蕭
薄
薛
薦
薰
藍
藏
藤
藥
蘭
虍
虎
虐
虒
虔
處
虖
虗
虘
虚
虛
虜
虞
虫
虽
蚤
蚩
蜀
蜜
蟲
蠡
血
行
衍
衛
衣
衤
表
衮
衰
袁
袞
褭
褱
襄
襾
西
覀
要
覃
見
規
覓
覧
親
覽
见
角
解
言
訁
訇
計
記
詹
語
誩
諸
讠
记
语
谷
豆
豈
豊
豐
豕
豖
豙
象
豦
豩
豪
豸
貇
貝
貞
貟
負
貢
貧
貪
貫
責
貳
貴
買
費
賁
資
賈
賏
賓
賔
賛
賞
賢
賣
質
賴
贊
贝
贡
责
贯
贲
贵
赖
赞
赤
赦
走
越
足
路
蹇
身
躬
車
軍
軎
軟
輦
车
辛
辜
辟
辥
辰
辱
農
辵
辶
边
达
过
近
连
迷
追
退
送
逆
逐
通
速
造
逢
連
逮
進
遀
遂
過
道
達
遣
適
遷
遺
邊
邑
邕
那
邦
邪
郎
部
郭
都
鄉
酉
酋
配
酓
釆
采
里
重
野
量
金
釒
錢
钅
長
镸
长
門
閃
閉
開
閏
閑
閒
間
閔
閵
閻
闌
门
间
闷
阑
阜
阝
阿
降
陳
隆
隊
隋
隡
隨
隱
隶
隹
隺
隻
隼
隽
难
雀
雁
集
雈
雋
雍
雐
雔
雙
雚
雜
雝
離
難
雨
雩
雪
雲
零
雷
需
霍
霜
霝
霞
霸
靈
靑
青
非
靡
面
靣
革
韋
韦
韭
韯
韱
音
頁
頃
項
須
頗
頡
頻
顛
页
風
风
飛
飞
食
飠
養
饣
首
香
馬
馮
駦
马
骨
高
髟
鬥
鬯
鬲
鬼
魚
魯
鮮
鱼
鲁
鳥
鳳
鸟
鹵
鹿
麃
麗
麥
麦
麻
黃
黄
黍
黎
黑
黒
黨
黹
黽
黾
鼎
鼓
鼠
鼻
齊
齋
齐
齒
齿
龍
龙
龜
龟
龠
龰
龱
龴
龵
龶
龷
龸
龹
ꝃ
者
艹
ﬁ
ﬂ
？
𐌰
𐌹
𠀁
𠀃
𠀆
𠀉
𠀎
𠀐
𠁁
𠁣
𠂆
𠂇
𠂈
𠂉
𠂊
𠂋
𠂎
𠂒
𠂔
𠂛
𠂡
𠂢
𠂤
𠂬
𠂭
𠂹
𠃊
𠃋
𠃌
𠃍
𠃎
𠃑
𠃓
𠃔
𠃜
𠄌
𠄎
𠄠
𠄢
𠆢
𠆥
𠇍
𠈌
𠌵
𠓜
𠔉
𠔥
𠔼
𠔽
𠔿
𠕀
𠕁
𠕋
𠘧
𠘨
𠙻
𠙼
𠚏
𠚒
𠚤
𠚪
𠣏
𠤎
𠤕
𠥓
𠦄
𠦑
𠦝
𠧒
𠧗
𠧪
𠩺
𠪚
𠫓
𠫔
𠫤
𠬛
𠬝
𠬞
𠬢
𠬤
𠬶
𠮛
𠮦
𠮷
𠯑
𠱠
𠳮
𠷎
𡈼
𡉀
𡉵
𡌥
𡍮
𡏳
𡕒
𡕩
𡕰
𡖅
𡗗
𡗜
𡘆
𡘤
𡧱
𡨄
𡩧
𡬠
𡭽
𡰣
𡰥
𡰪
𡰯
𡰱
𡷈
𡸁
𡿨
𡿩
𡿪
𡿺
𢀖
𢀛
𢀩
𢁙
𢆉
𢆰
𢆶
𢇁
𢇇
𢉖
𢌬
𢌿
𢏚
𢑑
𢑚
𢖻
𢙣
𢛳
𢦏
𢦒
𢧵
𢼄
𢾕
𣁋
𣄼
𣅀
𣅽
𣍘
𣎳
𣎵
𣏋
𣏼
𣗥
𣥂
𣥖
𣦵
𣦼
𣧄
𣪊
𣪠
𣬉
𣳾
𣶒
𤇾
𤊽
𤐫
𤓰
𤔔
𤕨
𤣩
𤰇
𤰔
𤰞
𤴓
𤴔
𤽄
𥁑
𥁕
𥃦
𥃩
𥃭
𥇡
𥑟
𥘅
𥘈
𥝢
𥫗
𥱡
𦈢
𦉪
𦉬
𦉼
𦍌
𦍒
𦎧
𦐇
𦓔
𦔮
𦘒
𦙃
𦚏
𦣝
𦣞
𦣻
𦥑
𦥔
𦥯
𦨉
𦭝
𦰩
𧆞
𧈧
𧘇
𧰨
𧴪
𧴮
𧵩
𧾷
𨸏
𨾴
𩙿
𩠐
𩫏
𩵋
𪉷
𪜀
𪟽
𪠲
𪩲
𫇦
𫔭
𫜸
𫝀
𫠣
𫠩
𫢉
𫥞
𫩏
𫩠
𫪡
𫲽
𫶧
𬀷
𬐘
𬗌
𬙙
𬛸
𬜯
𬟩
𬯁
𬴘
𬺻
𬼉
𬼖
𭀰
𭁈
𭁨
𭅰
𭑈
𭕄
𭗼
𭤨
𭥫
𭻾
𮅕
𮊿
𮍌
𮍏
𮓗
𮥼
𮧮
廾
𰀁
𰀄
𰀈
𰀉
𰀕
𰀠
𰀡
𰀢
𰀪
𰁜
𰃮
𰆊
𰆘
𰋙
𰕎
𰢴
𰧭
𰯲
00--
01--
02--
03--
04--
07--
08--
09--
57--
70--
72--
73--
74--
80--
81--
82--
84--
85--
86--
88--
89--
90--
91--
95--
978--
a--
aa--
ab--
aba--
aband--
abe--
aber--
abon--
absti--
abys--
ac--
acant--
acce--
accid--
accom--
accu--
accusa--
ach--
acompan--
acontec--
act--
actua--
acustu--
ad--
ada--
adal--
ade--
ado--
adreiz--
advo--
ae--
aer--
aerod--
aet--
aez--
af--
affl--
afil--
ag--
age--
agricul--
agui--
ah--
ai--
ail--
ain--
air--
aj--
ak--
aka--
akt--
al--
ala--
alau--
alb--
albic--
alc--
alder--
ale--
alek--
aless--
ali--
alinh--
all--
almo--
almora--
alo--
aloub--
alph--
alt--
alta--
alter--
alum--
am--
ama--
amb--
ame--
ami--
ampl--
ampoe--
an--
ana--
anarc--
anc--
and--
ane--
ang--
angui--
ani--
anje--
anna--
anne--
anni--
ano--
ans--
ant--
ante--
anti--
anu--
anv--
any--
ao--
aos--
aot--
aou--
aour--
aoz--
aoza--
ap--
apo--
apoll--
appen--
appli--
appro--
approu--
apro--
aprovei--
aqu--
ar--
ara--
arall--
arc--
ard--
are--
argu--
arh--
ari--
ark--
arm--
arn--
aro--
arpi--
ars--
art--
arti--
arz--
as--
asa--
asamb--
asc--
ash--
asi--
ask--
asp--
assoc--
associa--
ast--
at--
ata--
ate--
atin--
atlan--
atlet--
atr--
atta--
atten--
au--
auf--
aug--
aure--
auricul--
aus--
aut--
auto--
av--
ava--
aval--
ave--
avi--
avoc--
awa--
ay--
az--
aze--
azi--
azo--
b--
ba--
bab--
bac--
bach--
back--
bad--
bae--
bag--
bah--
bai--
bail--
bak--
bal--
bala--
bale--
bali--
ball--
bamb--
ban--
bap--
bar--
bara--
bari--
barrik--
bart--
bas--
bat--
batim--
bau--
baut--
bav--
bay--
baz--
bazh--
be--
bea--
beau--
beb--
bec--
bed--
bee--
beg--
bei--
beil--
bel--
bell--
belle--
bem--
ben--
bene--
benn--
beo--
ber--
bern--
berr--
bers--
bert--
bes--
besk--
bet--
beu--
beur--
bev--
bez--
bha--
bi--
bia--
bien--
big--
bihan--
bik--
bil--
bin--
bio--
bir--
bis--
bit--
biz--
bl--
bla--
ble--
bleu--
blo--
blou--
blu--
blue--
bo--
boa--
bob--
boc--
bod--
boe--
bog--
boi--
bois--
bok--
bol--
bom--
bon--
bona--
bor--
bos--
bot--
bou--
bouc--
bougainv--
boul--
bour--
boz--
br--
bra--
bran--
bras--
bre--
bred--
bren--
bret--
bri--
brin--
brizh--
bro--
broc--
bros--
brous--
bru--
brun--
bry--
bræs--
bu--
bud--
bug--
bul--
bun--
bur--
buroc--
burut--
bus--
but--
by--
c--
ca--
cac--
cad--
cae--
cai--
cal--
cald--
cali--
calv--
cam--
camin--
camp--
can--
cana--
cap--
capac--
capi--
car--
cas--
casa--
cast--
cat--
cau--
cauc--
cb--
cc--
ce--
celeb--
cell--
cer--
cert--
ces--
ch--
cha--
chal--
chan--
chap--
char--
charm--
chau--
che--
cher--
chi--
chloro--
cho--
chou--
chr--
chrys--
chu--
ci--
cic--
cid--
cinc--
circ--
cit--
cito--
civiliz--
cla--
cle--
cli--
clin--
clo--
cly--
co--
coe--
cogn--
col--
colo--
com--
compara--
compro--
comput--
con--
conc--
conce--
conec--
confirm--
confl--
conju--
consc--
conse--
coor--
coorden--
cor--
corn--
cory--
cos--
cott--
cou--
coves--
cow--
cra--
cre--
cri--
cro--
crois--
cru--
cry--
cu--
cucu--
cue--
cui--
cum--
cup--
cur--
curr--
cut--
cy--
cyano--
cyc--
cyn--
cyr--
cœ--
d--
da--
dac--
dael--
daf--
dag--
dai--
dal--
dalv--
dam--
dan--
dane--
daou--
dap--
dar--
das--
dat--
dau--
dav--
davan--
day--
daz--
dc--
dd--
de--
dec--
decis--
ded--
defin--
deg--
dei--
dek--
del--
dela--
deliv--
dem--
demet--
demo--
den--
depart--
depen--
der--
des--
desco--
desenvol--
desk--
det--
detec--
deu--
dev--
dex--
dez--
dh--
di--
dia--
diaez--
diam--
dian--
dibr--
dibun--
dic--
did--
die--
dif--
difi--
dig--
digo--
digreiz--
digue--
dik--
dil--
dilam--
dile--
din--
dio--
diok--
diou--
dir--
dire--
dis--
disc--
disko--
distin--
dit--
diu--
div--
dive--
divu--
divul--
divy--
diw--
diz--
dize--
dizon--
dizou--
dj--
dji--
dle--
do--
doa--
doc--
docum--
dog--
doh--
dol--
dom--
domi--
don--
dona--
dor--
dorn--
dos--
dou--
doue--
dour--
down--
dr--
dra--
dre--
dreist--
dreuz--
dri--
dro--
dromp--
droub--
droug--
drouk--
dru--
drubu--
dry--
dryo--
du--
dub--
duc--
due--
dum--
dun--
dur--
dut--
dwy--
dy--
dz--
e--
ea--
ead--
eb--
eber--
ebur--
ec--
ecg--
ed--
ediz--
edo--
edu--
ee--
ef--
eg--
eh--
ei--
eil--
ein--
eis--
ek--
el--
ela--
ele--
elec--
elekt--
eleph--
eli--
ell--
elo--
em--
ema--
emb--
eme--
emi--
emp--
emvuhez--
en--
encamin--
encerr--
end--
ene--
enep--
enga--
enge--
engin--
engra--
enk--
enklo--
enkor--
eno--
ens--
ent--
enter--
entre--
env--
environ--
envol--
eo--
eon--
eor--
eoul--
ep--
epis--
equipa--
er--
era--
ere--
erger--
erm--
ero--
erv--
eryth--
es--
esca--
escol--
eskla--
esse--
est--
esta--
estim--
estu--
et--
etio--
etre--
eu--
eudy--
eul--
eum--
eun--
euph--
eur--
euro--
eury--
eus--
euz--
ev--
eva--
evel--
evo--
ex--
exami--
exc--
exce--
excu--
exe--
exhor--
expan--
expe--
expl--
expli--
explora--
explos--
exten--
exter--
extra--
ey--
ez--
eze--
f--
fa--
fab--
fac--
facil--
facul--
fad--
fae--
fai--
fair--
fal--
fall--
fals--
fami--
famil--
fan--
fant--
far--
fars--
fas--
fati--
fau--
fav--
fe--
fec--
fede--
feir--
fel--
fen--
fenik--
fenn--
fer--
fes--
feu--
feur--
ff--
fi--
fia--
fif--
fil--
film--
fin--
final--
firm--
fit--
fix--
fiz--
fl--
fla--
flam--
flavi--
fle--
flemm--
flexi--
flu--
fo--
foe--
fol--
folk--
fon--
fonc--
fond--
fonol--
for--
foss--
fou--
four--
fr--
fra--
frag--
fre--
fred--
frei--
fres--
fri--
fro--
fru--
fu--
ful--
fulig--
fulv--
fun--
fur--
fut--
fy--
g--
ga--
gab--
gad--
gae--
gael--
gaf--
gai--
gal--
gale--
galou--
galv--
gamb--
gan--
gant--
gao--
gaol--
gar--
gas--
gat--
gaut--
gav--
gaz--
gd--
ge--
ged--
gel--
gemp--
gen--
geo--
ger--
gerz--
ges--
get--
gevan--
ghi--
gi--
gian--
gib--
gig--
gil--
gilomet--
gin--
gio--
gion--
gir--
girau--
gis--
giu--
giz--
gla--
glau--
gle--
glen--
gli--
glo--
gloss--
glu--
gn--
go--
goa--
goap--
goar--
god--
goe--
gogu--
gol--
gold--
gomm--
gomp--
gompag--
gompor--
gomun--
gon--
gonfu--
gonside--
gont--
good--
gor--
gos--
got--
gou--
goump--
goun--
gour--
gout--
gove--
goz--
gra--
gram--
gran--
grand--
gre--
gred--
gri--
grign--
gro--
gros--
grou--
gru--
gu--
gua--
guana--
guang--
guas--
gue--
guen--
guer--
gui--
guil--
guin--
guis--
gul--
gun--
gur--
gutt--
guy--
gv--
gw--
gwa--
gwall--
gwas--
gwe--
gwel--
gwen--
gwer--
gwes--
gwez--
gwi--
gwin--
gwy--
gy--
gym--
gymno--
h--
ha--
hab--
hac--
had--
hae--
hag--
hai--
hal--
hall--
ham--
han--
hana--
hant--
hanter--
hap--
har--
hard--
hart--
harz--
has--
hat--
hav--
haw--
hay--
haz--
he--
heb--
hec--
hed--
hef--
heg--
hei--
hek--
hel--
helio--
hem--
hemb--
hemp--
hen--
hend--
hengel--
heno--
hent--
hep--
her--
here--
hes--
het--
heu--
hi--
hid--
hig--
high--
hil--
him--
hin--
hip--
hipoc--
hir--
his--
hit--
hiz--
hl--
hle--
hlor--
hm--
ho--
hoap--
hoar--
hod--
hoe--
hof--
hog--
hol--
holl--
holo--
hom--
home--
hon--
hont--
hop--
hor--
horiz--
horje--
horn--
hos--
hot--
hou--
houi--
hour--
hove--
how--
hoz--
hr--
hra--
hramp--
hre--
hri--
hroas--
hros--
hroz--
ht--
hu--
hub--
hud--
hue--
hui--
hum--
hun--
hur--
hus--
hwezh--
hwi--
hy--
hypoc--
hæ--
i--
ia--
ibe--
ic--
ice--
id--
ident--
identific--
ie--
if--
ig--
ign--
ik--
il--
ill--
illus--
ilus--
im--
imag--
imp--
impro--
impu--
in--
inc--
inclu--
incom--
incomp--
incor--
indez--
indi--
indo--
indus--
ine--
infirm--
infra--
ini--
ino--
insc--
inscript--
insol--
insti--
institu--
instr--
instrum--
int--
inte--
inter--
invan--
io--
iou--
ip--
ir--
ire--
is--
iso--
ist--
it--
ita--
iu--
iud--
iun--
iv--
ivrai--
ix--
iz--
izel--
j--
ja--
jac--
jal--
jam--
jan--
jar--
jas--
je--
jed--
jen--
jer--
jes--
jez--
ji--
jil--
jilet--
jo--
joa--
job--
joc--
joe--
jon--
jorn--
jos--
jou--
joy--
ju--
jud--
juge--
jul--
jun--
k--
ka--
kab--
kac--
kad--
kai--
kal--
kall--
kam--
kamm--
kan--
kant--
kaou--
kap--
kar--
karr--
kas--
kat--
kav--
kaz--
ke--
ked--
kef--
kej--
kel--
kemp--
ken--
kent--
ker--
kerag--
kern--
ket--
kev--
key--
ki--
kib--
kig--
kil--
kilog--
kim--
kin--
kirch--
kis--
kit--
kiz--
kla--
kle--
klev--
kli--
klo--
klot--
klu--
km--
ko--
koad--
koat--
koaz--
kod--
koe--
kof--
kol--
komb--
komm--
komp--
kompag--
kon--
kor--
korn--
kos--
kou--
koun--
kr--
kra--
kre--
kreiz--
krenn--
kri--
kro--
kroaz--
krou--
kru--
kt--
ku--
kun--
kunst--
kunu--
kur--
kutuil--
kv--
kw--
kwe--
ky--
l--
la--
lab--
lac--
lae--
lafres--
lai--
lak--
lake--
lam--
lamb--
lan--
land--
lang--
lann--
lanv--
lao--
laq--
lar--
las--
lat--
lau--
law--
lay--
laz--
lazh--
ld--
le--
lea--
leb--
lec--
led--
leg--
leh--
lei--
lek--
lem--
len--
leo--
leon--
lep--
leque--
ler--
les--
let--
leu--
leuco--
lev--
ley--
lez--
li--
lia--
lib--
libr--
lid--
lie--
lies--
lig--
lik--
lin--
lind--
lio--
lip--
lis--
lit--
litua--
liv--
liva--
liz--
ll--
lla--
llan--
lle--
lo--
loa--
loar--
loc--
lod--
log--
loj--
lok--
lom--
lon--
long--
lor--
los--
lou--
loun--
low--
ls--
lt--
lu--
luc--
lud--
ludo--
lug--
lus--
lusk--
luz--
lv--
ly--
lys--
læt--
m--
ma--
mab--
mac--
mad--
maen--
mag--
magni--
mai--
mak--
make--
mal--
mala--
male--
mali--
mam--
man--
mani--
mao--
map--
mapea--
mar--
mara--
mare--
mari--
mark--
mars--
mas--
mat--
mau--
max--
may--
maz--
mb--
mc--
me--
mea--
mec--
med--
medi--
mei--
mel--
mell--
melus--
mem--
men--
ment--
mer--
merid--
mes--
met--
meta--
meu--
meur--
mexi--
mez--
mezo--
mi--
mic--
micro--
mid--
mie--
mik--
mil--
min--
mindrail--
mini--
mir--
mira--
mis--
mit--
miz--
mo--
moc--
mod--
moe--
moi--
mol--
mon--
monog--
mons--
mont--
monte--
mor--
mora--
mos--
moske--
mot--
mou--
mous--
movi--
mp--
mu--
mui--
mul--
multi--
mun--
mur--
mus--
mut--
mw--
my--
myio--
myrm--
n--
na--
nac--
nag--
nahouat--
nai--
nam--
nan--
nao--
nar--
nas--
nat--
nau--
nav--
naz--
nc--
nd--
ne--
nea--
neb--
nec--
neces--
neder--
nef--
neg--
negli--
nei--
nem--
nen--
neo--
ner--
nes--
net--
neu--
nevez--
new--
news--
ng--
nh--
ni--
nic--
nie--
nieder--
nig--
nigri--
nij--
nik--
nin--
nis--
nit--
niv--
nj--
nn--
no--
noc--
nom--
non--
nor--
norzh--
nos--
not--
nou--
nov--
nova--
now--
noz--
ns--
nt--
nu--
num--
nun--
nv--
ny--
nyc--
o--
oa--
oad--
oar--
ob--
ober--
obser--
obsti--
oc--
occid--
och--
ocor--
octav--
od--
odo--
oe--
oeu--
of--
off--
og--
oh--
oi--
ok--
ol--
old--
oll--
olym--
om--
omb--
on--
one--
oni--
oo--
op--
or--
ora--
orbi--
orc--
ore--
org--
ori--
ornam--
ornit--
oro--
ortho--
os--
ost--
ot--
ou--
oui--
our--
ous--
out--
ouz--
ov--
over--
oz--
p--
pa--
pac--
pachyceph--
pad--
pae--
paea--
pag--
pai--
pal--
palat--
pale--
palla--
pamp--
pan--
pao--
pap--
par--
para--
part--
pas--
pat--
pau--
pav--
paw--
pe--
pea--
peb--
pec--
ped--
peg--
peiz--
pel--
peler--
pell--
pem--
pen--
penn--
pep--
per--
pere--
peri--
perse--
perspec--
peru--
pes--
pesket--
pet--
peu--
peur--
peuz--
pevar--
ph--
phae--
phaet--
phari--
phe--
phil--
photo--
phy--
phyll--
phys--
pi--
pia--
pic--
pie--
pier--
pig--
pign--
pik--
pil--
pimp--
pin--
pio--
pis--
pitt--
piz--
pl--
pla--
plan--
ple--
plen--
pleu--
pleur--
ploe--
plon--
plou--
plougon--
plov--
plu--
plus--
po--
poa--
pod--
poe--
pok--
pol--
poli--
poly--
pomp--
pon--
pont--
pop--
por--
pors--
pos--
pot--
poten--
pou--
poul--
pour--
poz--
pp--
pr--
pra--
prac--
prak--
pre--
pres--
pri--
prio--
pro--
proku--
promo--
prou--
prov--
pry--
præ--
præs--
ps--
psit--
psitta--
psy--
psycho--
pt--
ptero--
ptole--
pu--
publis--
puf--
pul--
pun--
pur--
put--
py--
pyg--
pyr--
pyrrho--
pytha--
q--
qe--
qi--
qu--
qua--
que--
quel--
quem--
quen--
quer--
qui--
quo--
quæ--
r--
ra--
rac--
rad--
raf--
rag--
rah--
[...]
