!
"
#
##a
##aa
##ab
##ac
##ad
##ae
##af
##ag
##ah
##ai
##aj
##ak
##al
##am
##an
##ao
##ap
##aq
##ar
##as
##at
##au
##av
##aw
##ax
##ay
##az
##b
##ba
##bb
##bc
##bd
##be
##bf
##bg
##bh
##bi
##bj
##bk
##bl
##bm
##bn
##bo
##bp
##bq
##br
##bs
##bt
##bu
##bv
##bw
##bx
##by
##bz
##c
##ca
##cb
##cc
##cd
##ce
##cf
##cg
##ch
##ci
##cj
##ck
##cl
##cm
##cn
##co
##cp
##cq
##cr
##cs
##ct
##cu
##cv
##cw
##cx
##cy
##cz
##d
##da
##db
##dc
##dd
##de
##df
##dg
##dh
##di
##dj
##dk
##dl
##dm
##dn
##do
##dp
##dq
##dr
##ds
##dt
##du
##dv
##dw
##dx
##dy
##dz
##e
##ea
##eb
##ec
##ed
##ee
##ef
##eg
##eh
##ei
##ej
##ek
##el
##em
##en
##eo
##ep
##eq
##er
##es
##et
##eu
##ev
##ew
##ex
##ey
##ez
##f
##fa
##fb
##fc
##fd
##fe
##ff
##fg
##fh
##fi
##fj
##fk
##fl
##fm
##fn
##fo
##fp
##fq
##fr
##fs
##ft
##fu
##fv
##fw
##fx
##fy
##fz
##g
##ga
##gb
##gc
##gd
##ge
##gf
##gg
##gh
##gi
##gj
##gk
##gl
##gm
##gn
##go
##gp
##gq
##gr
##gs
##gt
##gu
##gv
##gw
##gx
##gy
##gz
##h
##ha
##hb
##hc
##hd
##he
##hf
##hg
##hh
##hi
##hj
##hk
##hl
##hm
##hn
##ho
##hp
##hq
##hr
##hs
##ht
##hu
##hv
##hw
##hx
##hy
##hz
##i
##ia
##ib
##ic
##id
##ie
##if
##ig
##ih
##ii
##ij
##ik
##il
##im
##in
##io
##ip
##iq
##ir
##is
##it
##iu
##iv
##iw
##ix
##iy
##iz
##j
##ja
##jb
##jc
##jd
##je
##jf
##jg
##jh
##ji
##jj
##jk
##jl
##jm
##jn
##jo
##jp
##jq
##jr
##js
##jt
##ju
##jv
##jw
##jx
##jy
##jz
##k
##ka
##kb
##kc
##kd
##ke
##kf
##kg
##kh
##ki
##kj
##kk
##kl
##km
##kn
##ko
##kp
##kq
##kr
##ks
##kt
##ku
##kv
##kw
##kx
##ky
##kz
##l
##la
##lb
##lc
##ld
##le
##lf
##lg
##lh
##li
##lj
##lk
##ll
##lm
##ln
##lo
##lp
##lq
##lr
##ls
##lt
##lu
##lv
##lw
##lx
##ly
##lz
##m
##ma
##mb
##mc
##md
##me
##mf
##mg
##mh
##mi
##mj
##mk
##ml
##mm
##mn
##mo
##mp
##mq
##mr
##ms
##mt
##mu
##mv
##mw
##mx
##my
##mz
##n
##na
##nb
##nc
##nd
##ne
##nf
##ng
##nh
##ni
##nj
##nk
##nl
##nm
##nn
##no
##np
##nq
##nr
##ns
##nt
##nu
##nv
##nw
##nx
##ny
##nz
##o
##oa
##ob
##oc
##od
##oe
##of
##og
##oh
##oi
##oj
##ok
##ol
##om
##on
##oo
##op
##oq
##or
##os
##ot
##ou
##ov
##ow
##ox
##oy
##oz
##p
##pa
##pb
##pc
##pd
##pe
##pf
##pg
##ph
##pi
##pj
##pk
##pl
##pm
##pn
##po
##pp
##pq
##pr
##ps
##pt
##pu
##pv
##pw
##px
##py
##pz
##q
##qa
##qb
##qc
##qd
##qe
##qf
##qg
##qh
##qi
##qj
##qk
##ql
##qm
##qn
##qo
##qp
##qq
##qr
##qs
##qt
##qu
##qv
##qw
##qx
##qy
##qz
##r
##ra
##rb
##rc
##rd
##re
##rf
##rg
##rh
##ri
##rj
##rk
##rl
##rm
##rn
##ro
##rp
##rq
##rr
##rs
##rt
##ru
##rv
##rw
##rx
##ry
##rz
##s
##sa
##sb
##sc
##sd
##se
##sf
##sg
##sh
##si
##sj
##sk
##sl
##sm
##sn
##so
##sp
##sq
##sr
##ss
##st
##su
##sv
##sw
##sx
##sy
##sz
##t
##ta
##tb
##tc
##td
##te
##tf
##tg
##th
##ti
##tj
##tk
##tl
##tm
##tn
##to
##tp
##tq
##tr
##ts
##tt
##tu
##tv
##tw
##tx
##ty
##tz
##u
##ua
##ub
##uc
##ud
##ue
##uf
##ug
##uh
##ui
##uj
##uk
##ul
##um
##un
##uo
##up
##uq
##ur
##us
##ut
##uu
##uv
##uw
##ux
##uy
##uz
##v
##va
##vb
##vc
##vd
##ve
##vf
##vg
##vh
##vi
##vj
##vk
##vl
##vm
##vn
##vo
##vp
##vq
##vr
##vs
##vt
##vu
##vv
##vw
##vx
##vy
##vz
##w
##wa
##wb
##wc
##wd
##we
##wf
##wg
##wh
##wi
##wj
##wk
##wl
##wm
##wn
##wo
##wp
##wq
##wr
##ws
##wt
##wu
##wv
##ww
##wx
##wy
##wz
##x
##xa
##xb
##xc
##xd
##xe
##xf
##xg
##xh
##xi
##xj
##xk
##xl
##xm
##xn
##xo
##xp
##xq
##xr
##xs
##xt
##xu
##xv
##xw
##xx
##xy
##xz
##y
##ya
##yb
##yc
##yd
##ye
##yf
##yg
##yh
##yi
##yj
##yk
##yl
##ym
##yn
##yo
##yp
##yq
##yr
##ys
##yt
##yu
##yv
##yw
##yx
##yy
##yz
##z
##za
##zb
##zc
##zd
##ze
##zf
##zg
##zh
##zi
##zj
##zk
##zl
##zm
##zn
##zo
##zp
##zq
##zr
##zs
##zt
##zu
##zv
##zw
##zx
##zy
##zz
$
%
&
'
(
)
*
+
,
-
.
/
0
00
000
001
006
01
02
03
04
05
06
07
08
09
0a
0b
0c
0d
0e
0f
0g
0h
0i
0j
0k
0l
0m
0n
0o
0p
0q
0r
0s
0t
0u
0v
0w
0x
0y
0z
1
10
100
1000
101
102
103
1035
104
1040
105
1050
106
1060
1066
107
1070
108
1080
1086
109
1093
1095
11
110
1100
111
112
1120
113
1130
1135
1137
114
115
1150
1154
1155
1156
1157
1158
116
1160
117
1170
118
1180
1184
1185
1187
1189
119
1190
1191
1198
1199
12
120
1200
1204
121
1214
1215
122
1220
1221
1226
123
1230
124
1240
1241
125
1250
126
127
1270
1274
128
1280
1282
1283
1285
1286
1287
129
1290
1291
1296
13
130
1300
1305
1308
131
1314
1316
132
1320
1327
1328
133
1330
1333
134
1340
1341
1342
1343
1345
1347
1348
1349
135
1350
136
1360
1363
1364
1368
137
1370
1371
1373
1374
1375
1378
138
1380
1381
1382
1383
1385
1386
1387
1388
1389
139
1394
1395
1397
1399
14
140
1400
1401
1402
1404
1405
1407
141
1410
1412
1415
1416
1419
142
1420
1422
1423
1424
1425
1426
1427
1428
1429
143
1430
1431
1432
1433
1434
1435
1436
1437
1438
1439
144
1440
1441
1442
1444
1445
1446
1447
1448
1449
145
1450
1451
1452
1453
1455
1457
1458
146
1460
1461
1462
1464
1465
1466
1467
1468
1469
147
1470
1471
1472
1473
1474
1475
1476
1477
1478
1479
148
1480
1481
1482
1483
1484
1485
1486
1487
1488
1489
149
1490
1491
1492
1493
1494
1495
1496
1497
1498
1499
15
150
1500
1501
1502
1503
1504
1505
1506
1507
1508
1509
151
1510
1511
1512
1513
1514
1515
1516
1517
1518
1519
152
1520
1521
1522
1523
1524
1525
1526
1527
1528
1529
153
1530
1531
1532
1533
1534
1535
1536
1537
1538
1539
154
1540
1541
1542
1543
1544
1545
1546
1547
1548
1549
155
1550
1551
1552
1553
1554
1555
1556
1557
1558
1559
156
1560
1561
1562
1563
1564
1565
1566
1567
1568
1569
157
1570
1571
1572
1573
1574
1575
1576
1577
1578
1579
158
1580
1581
1582
1583
1584
1585
1586
1587
1588
1589
159
1590
1591
1592
1593
1594
1595
1596
1597
1598
1599
16
160
1600
1601
1602
1603
1604
1605
1606
1607
1608
1609
161
1610
1611
1612
1613
1614
1615
1616
1617
1618
1619
162
1620
1621
1622
1623
1624
1625
1626
1627
1628
1629
163
1630
1631
1632
1633
1634
1635
1636
1637
1638
1639
164
1640
1641
1642
1643
1644
1645
1646
1647
1648
1649
165
1650
1651
1652
1653
1654
1655
1656
1657
1658
1659
166
1660
1661
1662
1663
1664
1665
1666
1667
1668
1669
167
1670
1671
1672
1673
1674
1675
1676
1677
1678
1679
168
1680
1681
1682
1683
1684
1685
1686
1687
1688
1689
169
1690
1691
1692
1693
1694
1695
1696
1697
1698
1699
17
170
1700
1701
1702
1703
1704
1705
1706
1707
1708
1709
171
1710
1711
1712
1713
1714
1715
1716
1717
1718
1719
172
1720
1721
1722
1723
1724
1725
1726
1727
1728
1729
173
1730
1731
1732
1733
1734
1735
1736
1737
1738
1739
174
1740
1741
1742
1743
1744
1745
1746
1747
1748
1749
175
1750
1751
1752
1753
1754
1755
1756
1757
1758
1759
176
1760
1761
1762
1763
1764
1765
1766
1767
1768
1769
177
1770
1771
1772
1773
1774
1775
1776
1777
1778
1779
178
1780
1781
1782
1783
1784
1785
1786
1787
1788
1789
179
1790
1791
1792
1793
1794
1795
1796
1797
1798
1799
18
180
1800
1801
1802
1803
1804
1805
1806
1807
1808
1809
181
1810
1811
1812
1813
1814
1815
1816
1817
1818
1819
182
1820
1821
1822
1823
1824
1825
1826
1827
1828
1829
183
1830
1831
1832
1833
1834
1835
1836
1837
1838
1839
184
1840
1841
1842
1843
1844
1845
1846
1847
1848
1849
185
1850
1851
1852
1853
1854
1855
1856
1857
1858
1859
186
1860
1861
1862
1863
1864
1865
1866
1867
1868
1869
187
1870
1871
1872
1873
1874
1875
1876
1877
1878
1879
188
1880
1881
1882
1883
1884
1885
1886
1887
1888
1889
189
1890
1891
1892
1893
1894
1895
1896
1897
1898
1899
19
190
1900
1901
1902
1903
1904
1905
1906
1907
1908
1909
191
1910
1911
1912
1913
1914
1915
1916
1917
1918
1919
192
1920
1921
1922
1923
1924
1925
1926
1927
1928
1929
193
1930
1931
1932
1933
1934
1935
1936
1937
1938
1939
194
1940
1941
1942
1943
1944
1945
1946
1947
1948
1949
195
1950
1951
1952
1953
1954
1955
1956
1957
1958
1959
196
1960
1961
1962
1963
1964
1965
1966
1967
1968
1969
197
1970
1971
1972
1973
1974
1975
1976
1977
1978
1979
198
1980
1981
1982
1983
1984
1985
1986
1987
1988
1989
199
1990
1991
1992
1993
1994
1995
1996
1997
1998
1999
1a
1b
1c
1d
1e
1f
1g
1h
1i
1j
1k
1l
1m
1n
1o
1p
1q
1r
1s
1t
1u
1v
1w
1x
1y
1z
2
20
200
2000
2001
2002
2003
2004
2005
2006
2007
2008
2009
201
2010
2011
2012
2013
2014
2015
2016
2017
2018
2019
202
2020
2021
2022
203
204
205
206
207
208
209
21
210
211
212
213
214
215
216
217
218
219
22
220
221
222
223
224
225
226
227
228
229
23
230
231
232
233
234
235
236
237
238
239
24
240
241
242
243
244
245
246
247
248
249
25
250
251
252
253
254
255
256
257
258
259
26
260
261
262
263
264
265
266
267
268
269
27
270
271
272
273
274
275
276
277
278
279
28
280
281
282
283
284
285
286
287
288
289
29
290
291
292
293
294
295
296
297
298
299
2a
2b
2c
2d
2e
2f
2g
2h
2i
2j
2k
2l
2m
2n
2o
2p
2q
2r
2s
2t
2u
2v
2w
2x
2y
2z
3
30
300
3000
301
302
303
304
305
306
307
308
309
31
310
311
312
313
314
315
316
317
318
319
32
320
321
322
323
324
325
326
327
328
329
33
330
331
332
333
334
335
336
337
338
339
34
340
341
342
343
344
345
346
347
348
349
35
350
351
352
353
354
355
356
357
358
359
36
360
361
362
363
364
365
366
367
368
37
370
371
372
373
375
376
377
378
379
38
380
381
382
383
384
385
386
387
388
389
39
390
391
392
393
394
395
396
397
399
3a
3b
3c
3d
3e
3f
3g
3h
3i
3j
3k
3l
3m
3n
3o
3p
3q
3r
3s
3t
3u
3v
3w
3x
3y
3z
4
40
400
4000
401
402
404
405
406
407
408
409
41
410
411
412
413
414
415
416
417
418
42
420
421
422
423
424
425
426
427
428
429
43
430
431
432
434
435
437
438
439
44
440
441
443
445
448
45
450
451
452
453
454
455
456
457
458
46
460
461
462
468
469
47
470
471
473
474
475
476
477
479
48
480
481
483
484
485
486
488
49
490
491
496
499
4a
4b
4c
4d
4e
4f
4g
4h
4i
4j
4k
4l
4m
4n
4o
4p
4q
4r
4s
4t
4u
4v
4w
4x
4y
4z
5
50
500
5000
501
505
51
510
511
514
515
518
52
520
521
522
523
524
525
527
53
530
534
535
538
54
540
541
542
545
547
548
55
550
552
559
56
560
565
57
570
58
580
584
59
590
5a
5b
5c
5d
5e
5f
5g
5h
5i
5j
5k
5l
5m
5n
5o
5p
5q
5r
5s
5t
5u
5v
5w
5x
5y
5z
6
60
600
6000
61
618
62
63
639
64
640
65
650
66
67
670
68
680
69
6a
6b
6c
6d
6e
6f
6g
6h
6i
6j
6k
6l
6m
6n
6o
6p
6q
6r
6s
6t
6u
6v
6w
6x
6y
6z
7
70
700
705
71
710
711
714
715
72
720
721
725
73
730
737
738
74
741
742
743
749
75
750
754
756
757
76
760
768
77
770
774
775
78
780
785
79
798
7a
7b
7c
7d
7e
7f
7g
7h
7i
7j
7k
7l
7m
7n
7o
7p
7q
7r
7s
7t
7u
7v
7w
7x
7y
7z
8
80
800
803
81
810
814
818
82
83
84
840
843
848
85
850
855
86
86843
87
876
88
880
89
8a
8b
8c
8d
8e
8f
8g
8h
8i
8j
8k
8l
8m
8n
8o
8p
8q
8r
8s
8t
8u
8v
8w
8x
8y
8z
9
90
900
901383
91
911
92
925919
93
939
94
95
950
96
960
97
978
98
987
99
9a
9b
9c
9d
9e
9f
9g
9h
9i
9j
9k
9l
9m
9n
9o
9p
9q
9r
9s
9t
9u
9v
9w
9x
9y
9z
:
;
<
=
>
?
@
[
[CLS]
[MASK]
[PAD]
[SEP]
[UNK]
\
]
^
_
`
a
a0
a1
a2
a3
a4
a5
a6
a7
a8
a9
aa
aaron
aat
ab
aba
abad
abaden
abadenn
abadennou
abadez
abalain
abalamour
abandon
abandonet
abandonnet
abaoe
abaoue
abardae
abardaez
abarde
abarh
abars
abarz
abati
abaty
abbas
abbaye
abbe
abbey
abc
abd
abdallah
abdias
abed
abeg
abegou
abeh
abek
abel
aben
abenn
abeozen
aber
abercraf
aberedw
aberhafesb
aberhonddu
aberhosan
aberin
aberiou
aberllynfi
aberriw
abertawe
abertridwr
aberysgir
aberystwyth
aberz
aberzh
abes
abgrall
abil
abimelek
abit
abjad
abjean
aboe
aboeissance
aboeissein
abondanc
abord
abostol
abostolik
abou
aboue
about
abraham
abram
abred
abrege
abret
abretoc
abri
abrobin
absalom
absolumant
absolut
absolven
absolvenn
abu
ac
academia
academie
academy
accipiter
accipitridae
accomplissa
accomplissein
accomplisset
accord
accordet
ach
achap
achu
achuet
achui
acqua
acrocephalus
act
acte
actes
acteu
action
actioneu
actionou
actou
actualizacion
actuel
ad
ada
adal
adalec
adaleg
adalek
adam
adams
adanvet
adaozet
adare
adarre
adc
addilennet
addimezas
addimezin
adelaid
adelaide
adele
adelheid
adembannadur
adembannet
adenn
adet
adhesion
adieu
adimplijet
adkaver
adkavet
adkavit
adkavout
adkemer
adkemeret
adkempennet
adlakaat
adlakaet
adlenn
admirabl
admiration
adolf
adolfo
adolphe
ador
adorabl
adoration
adorazione
adorein
adoret
adori
adprenet
adprennan
adrannet
adre
adren
adrenv
adressee
adria
adrian
adriana
adrien
adsav
adsavet
adsevel
adskrivet
adster
adsteriou
adstumm
adtapet
adtapout
advabet
adventure
adventures
advenue
adverb
adverbou
adversour
adversourien
advevan
advrezhonekaat
adwelet
ae
aegotheles
ael
aelez
aelius
aeneis
aent
aer
aerborzh
aered
aergelc
aerlu
aeron
aerouant
aes
aesa
aesaat
aesoc
aet
aez
aezhenn
af
afe
afer
aferiou
affaire
affection
affectionou
affer
afferaou
afferiou
afferou
affinis
affliction
afflictionou
affliget
affo
affær
affærieu
afghanistan
afna
afon
afonso
afrez
africa
african
africanus
afrik
afrika
afrikaans
afrikan
afrique
afrodite
after
ag
again
against
agamemnon
agatha
age
agent
ages
agnes
agnus
agostino
agreabl
agreable
agricola
agrippa
agrippina
agua
aguas
agustin
ah
ahel
aheurtet
ahez
ahmed
ahoel
ahont
ahuel
ai
ailleurs
aime
aimee
aimp
ain
ainsi
aint
aio
air
aire
aires
aisne
ait
aix
aj
ajans
aje
ak
akademiezh
aked
aket
aketus
aketuz
akitania
akordeons
akt
akta
aktaou
aktor
aktorez
aktour
aktourez
aktourien
akuzativ
akuzativel
al
ala
alabama
alain
alam
alamagn
alaman
alamaned
alamaneg
alamanek
alamanted
alan
alanig
alanik
alaouret
alar
alarc
alarig
alaska
alb
alba
alban
albaneg
albania
albany
albatroz
albert
alberta
albertina
alberto
alberzh
albifrons
albin
albis
albom
albomou
albrecht
albret
album
alc
alcantara
ale
aled
alegre
aleksandr
aleksandria
aleksandrii
alencon
alesant
alese
alesia
alessandro
alex
alexander
alexandr
alexandra
alexandre
alexandria
alexis
alezon
alfe
alfonso
alfred
alfredo
algonkek
ali
alia
alian
alias
alice
alies
aliesan
aliesoc
aliet
aliez
aliou
alis
alive
aljek
aljer
aljeria
aljerian
alkool
all
alla
allah
allan
allar
allas
allaz
alle
alleluia
allemagn
allemagne
allen
aller
allet
alliance
allians
allier
allmusic
allo
allon
allweddol
alma
alo
alonso
alopecoenas
aloubadeg
aloubadegou
aloubas
alouber
alouberien
aloubet
aloubidigezh
aloubin
alpes
alpha
alphonse
alpou
alre
als
alsace
also
alt
alta
altaek
alte
altenburg
alter
alto
altro
alun
alusen
aluzen
aluzener
aluzenn
aluzennou
alvarez
alvaro
alvokad
always
am
ama
amable
amadeus
amalia
amalie
aman
amand
amann
amatour
amazon
amazona
amazonas
amazonia
amb
ambition
ambroaz
ambrosius
ambroug
ambrouger
ambrouget
amc
amdranzitivel
amdremened
ame
amedeo
amelia
amelie
amen
america
american
americana
amerik
amerika
amerikan
amerikaned
amerindian
amerindianed
amerique
ameus
amezeg
amezeien
amezek
ami
amici
amied
amiegez
amiens
amiet
amiral
amis
amish
amished
amitie
ammon
amon
amor
amore
amorreed
amos
amour
amours
ampalaer
ampart
ampartiz
ampech
ampoent
ampoezon
ampoezonin
amprestet
amprevan
amprevaned
amprevanetaer
amreizh
amri
amser
amsklaer
amsterdam
amstrizh
amy
amzer
amzerian
amzeriou
amzervezh
an
ana
anaie
anal
anaon
anaoud
anaoudegez
anaoudegezh
anaoudeguez
anaoudek
anaoun
anaout
anarkour
anas
anat
anatol
anatole
anatolia
anaveet
anaveout
anavet
anavez
anavezan
anavezann
anavezas
anavezaz
anaveze
anavezent
anavezer
anavezet
anavezetan
anavezetoc
anavezit
anavezo
anavezomp
anavezont
anavezout
anc
anche
ancien
ancienne
anciens
ancient
ancoeheit
ancounac
and
andalouzia
andalus
andare
anders
andersen
anderson
andon
andoniou
andorra
andou
andre
andrea
andreas
andres
andret
andrev
andrew
andrews
andronic
anduilhenn
andur
anduret
anduri
andy
ane
anean
anei
aneirin
anemis
anemiset
aner
anes
aneval
anevaled
anez
aneza
anezan
aneze
anezhan
anezhe
anezhi
anezho
anezi
anezo
anfin
ang
ange
angel
angela
angeles
angeli
angelica
angelo
angelus
angers
angl
anglais
angled
anglia
anglikan
anglo
angola
angoulem
angouleme
anhalt
anhe
anima
animal
animalbase
animation
anita
anje
anjela
anjev
anjou
anjulieu
anken
ankeniet
ankiniz
ankou
ankouaat
ankouaet
ankounac
ann
anna
annaig
annaik
annales
annals
anne
annee
annees
annez
annezad
annezet
annezidi
annie
anno
ano
anoiou
anomp
anon
anos
another
anquin
ans
ansbach
anselm
anser
ant
antand
antarktika
ante
anter
anterin
anthologie
anthony
anthus
anti
antier
antieramant
antifonen
antigone
antigua
antilhez
antilopenn
antioch
antiokus
antique
antiquite
antoine
antoinette
anton
antonia
antonin
antoninus
antonio
antonius
antre
antreal
antreas
antreein
antreet
antren
antreteni
antretien
antronoz
antwerpen
anv
anvadur
anvas
anver
anvet
anvi
anviou
any
anzao
anzav
anzavas
anzavet
ao
aoalc
aochou
aod
aodou
aogust
aogustin
aon
aonik
aorelian
aosta
aostralia
aostralian
aostrazia
aostria
aostrian
aot
aoter
aoteriou
aotre
aotreegezh
aotreet
aotren
aotro
aotronez
aotrou
aotrouien
aotrounet
aotrounez
aotrouniezh
aoualc
aoun
aounik
aour
aout
aoutrou
aovergn
aoz
aoza
aozadur
aozaduriou
aozan
aozas
aozer
aozerien
aozet
aozour
ap
apartheid
aphia
apollo
apollodoros
apollon
apostol
apostoled
apostolet
apotiker
apparanc
apparchant
appel
apple
applied
apres
april
aprouet
apus
aq
aquila
aquitaine
aquitania
ar
ara
arab
araba
arabad
arabat
arabed
arabeg
arabek
arabia
aradennad
aragon
aragona
aral
arall
aramaek
aran
araoc
araog
araogenn
araogennou
araok
araokadennou
arar
arat
arauc
arbenn
arbennigour
arbennigourien
arbennik
arbennikaet
arbois
arc
arch
arched
archeol
archeologie
archeologique
archer
archerien
archive
archives
arco
ard
ardamez
ardameziou
ardant
ardea
ardeche
ardennes
ardeur
ardivink
ardivinkou
ardou
ardro
are
area
arem
ares
argad
argadenn
argadennou
argadet
argadin
argand
argant
argarzuz
argas
argaset
argent
argerzh
argoad
argoed
argonaoted
argos
argourou
arguzenn
arguzennou
arh
arhant
aria
arianed
aridennad
ariel
arigrap
aristoteles
arizona
ark
arkansas
arktika
arle
arlerh
arm
armand
arme
armead
armee
armel
armen
armenia
armenieg
armeou
armerzh
armerzhel
armerzhour
armes
armet
armor
armorial
armorica
armorique
armou
armstrong
army
arnaud
arne
arnev
arnevez
arno
arnod
arnodenn
arnodennou
arnodin
arnodskrid
arnoh
arnold
aroc
arog
arok
arondisamant
arondisamantou
arouez
arouezenn
arouezennou
arouezian
aroueziet
aroueziou
arouezius
around
arras
arre
arrebeuri
arrest
arret
arrete
arretet
arreti
arri
arrihue
arriue
arrondissements
arru
arruas
arrue
arruet
arruo
arruout
ars
arsa
arsailh
arsau
arsav
art
arte
artemis
artemisia
artez
arthur
articl
article
articles
artists
artois
artropoded
arts
arturo
arvar
arvarus
arver
arveran
arveret
arvern
arvest
arvesterien
arvestin
arvestou
arvez
arvor
arvorig
arvoriz
arz
arzel
arzh
arzhur
arzou
arzour
arzourez
arzourien
arzul
arzur
as
asa
asambles
asamblez
asant
asantas
asantet
asantin
ascansion
ase
ashley
asia
asin
asiz
askel
askell
askellek
askol
askorn
askre
asm
asp
aspadennou
assam
assambl
assamble
assambles
assamblet
assamblez
assemblee
asses
assiried
assista
assistein
association
assomption
assur
assuret
assuri
ast
asten
astenn
astennas
astennaz
astenne
astennet
astennit
asteroidenn
astoure
asturies
asturiez
asuncion
asur
at
atant
atao
atau
atav
ate
aten
atersadenn
athanaz
athena
atiz
atlantel
atlantic
atlantique
atlantiques
atlas
ato
atoll
atom
atomek
atomic
atomou
attantion
attau
attention
attila
au
aube
aubert
aubigny
aubin
auc
aucun
aude
audi
auf
aug
auge
augsburg
august
augusta
auguste
augustin
augusto
augustus
aujourd
aulus
aurelius
aurora
aus
auschwitz
aussi
austin
australia
australian
australis
austria
aut
autant
autem
auter
auteur
auto
autorite
autour
autramant
autre
autres
autro
autrou
autun
autær
auvergne
aux
auxerre
av
avad
avais
avait
aval
avalaoua
avaleu
avalon
avalou
avanc
avance
avant
avantach
avantage
avantageu
avantajus
avantur
avanturiou
avarice
avaricius
avat
ave
avec
avechou
aveid
aveit
avel
aveliou
aven
avengers
aventure
aventures
avertissein
avertisset
aves
avesnes
avest
aveyron
avi
avibase
avichou
aviel
avieler
avielour
avignon
avila
avis
aviset
aviseu
avisou
aviv
aviz
aviziou
avoalc
avocat
avoir
avon
avons
avoualac
avoultriach
avranches
avril
avu
aw
awalc
award
awards
away
awechou
awen
awenet
ax
axel
ay
az
azaleg
azalek
azaouez
azarias
azasaet
aze
azeet
azen
azenan
azenez
azenn
azenor
azerbaidjan
azeri
azeuldi
azeulerezh
azeulet
azeuli
azeulin
azez
azeza
azezan
azezas
azezaz
azezet
azezit
azginivelezh
azi
azia
aziatek
azii
azioc
aznaout
azo
azteked
aztekek
azur
azvent
b
b0
b1
b2
b3
b4
b5
b6
b7
b8
b9
ba
baal
bab
babel
babig
babilon
baby
babylon
bac
bacchus
bach
back
bad
badajoz
badas
badaz
bade
badeet
baden
badez
badezet
badeziant
badezin
badezour
badiziant
bado
badou
badout
baduz
bae
baea
baean
baeit
baeo
baeron
baez
bag
bagad
bagadou
bagan
baganed
bageal
bageer
baghdad
bagou
bah
bahamas
bahia
bahrein
bai
baianed
baie
bail
baile
bailh
bains
baiona
baja
bajenn
bak
baka
baker
bakteri
bal
bala
balaam
balafenned
balak
balamor
balamort
balamour
balan
balc
bale
baleer
baleet
balez
bali
baliou
balkaniou
balkanou
ball
ballade
ballard
ballon
baltek
baltel
baltimore
baluc
balum
bambara
bambino
bamde
bamet
ban
banal
banaleg
band
banda
bande
bandenn
bandennou
baner
bangladesh
bangor
baniel
bank
banked
bankou
banks
bann
bannac
bannan
banne
banneou
bannet
banniel
bannielou
bannlev
bannou
banquet
banvez
bao
baol
baotr
baotred
baoue
baouez
baouezas
baour
baourentez
baourez
baper
baptiste
bar
bara
barabolen
barados
baradoz
baraer
baraou
baraouis
baraz
barba
barbados
barbar
barbara
barbier
barbuda
barcelona
bardon
bardonerien
bardoni
bardono
bardouna
bare
barea
barean
barez
barfet
bari
baris
bariz
bark
barlant
barlen
barlenn
barn
barnabas
barnedigez
barner
barnerien
barnet
baro
barok
baron
baroned
barouz
barr
barra
barrad
barradou
barre
barregezh
barregezhiou
barrek
barres
barrez
barreziou
barrou
barry
bars
bart
barthelemy
bartienn
bartiennou
bartolomeo
barv
barvek
barz
barzaz
barzed
barzh
barzhaz
barzhed
barzhez
barzhig
barzhoneg
barzhonegou
barzhoniezh
bas
base
based
basel
basianted
basion
bask
basket
basq
bass
basse
bassion
bastard
bastell
bastored
bastoret
bat
batailhon
bataille
bater
bath
batiantet
batiantæt
batman
batrom
batsford
battalion
battista
battle
battlefield
battlestar
bauhaus
bavaria
baviou
bay
bayanet
bayard
bayern
bayeux
bayon
baysantet
baz
bazenn
bazennou
bazh
bazil
bb
bbc
bc
bd
bdg
be
bea
beac
beach
beachour
beadra
beah
beaj
beajin
beajou
beajour
beal
bean
bear
bearn
beast
beat
beatles
beatrice
beatrix
beatriz
beau
beaucoup
beaufort
beauharnais
beaulieu
beaumont
beauper
beaurien
beauty
beauvais
beaux
beb
bec
becassine
beck
becker
bed
beda
bedas
bedaz
bede
bedein
bedel
beden
bedenn
bedennou
beder
bedervet
bedi
bedin
bedo
bedou
bedwyr
beed
been
beet
beethoven
befe
before
beg
begad
begek
begel
begou
beh
behai
behani
behedeu
beherea
beherion
behet
behini
bei
beijing
beillit
being
beini
bek
bel
bela
belarus
belaruseg
beleac
belec
beleg
beleget
beleien
belek
belerined
beleyen
belgia
belgiat
belgica
beli
belize
bell
bella
bellaat
bellat
bellay
belle
belles
bellevue
bello
belo
beluga
bemde
bemdeiz
bemdez
bemdeziek
bemnoz
bemp
bempet
bempvet
bemzek
ben
benac
benag
bendekar
bene
benead
beneat
benediction
benel
benet
benfro
bengaber
bengal
benheres
beni
benigen
beniget
beniguet
benin
benito
benjamin
benn
bennac
bennad
bennadou
bennag
bennak
bennaket
bennan
benniged
benniget
bennigit
benniguet
bennlec
bennoberenn
bennou
bennoz
bennozh
bennrann
benoit
benveg
benz
beo
beoc
beorien
bep
bepred
bepret
ber
berad
berberek
berc
berder
bere
bered
beredou
berengar
berfection
berg
bergen
berger
berh
berkeley
berlepschi
berlin
berliner
bermen
bermet
bermission
bern
bernabo
bernard
bernardo
berne
bernez
bernhard
berniet
bernikia
berniou
bero
berr
berra
berraat
berradur
berraet
berranv
berrbad
berre
berroc
berry
bers
bersecution
bersed
berson
berta
bertele
bertha
berthe
berthou
bertin
bertrand
berv
berven
bervet
berz
berzet
berzh
berzhiou
bes
besancon
besiet
besk
besked
besketa
beskont
besprezidant
besroue
best
bet
beta
bete
betec
beteg
betek
bethleem
bethlehem
betra
better
betterabes
between
betws
beuet
beur
beurante
beure
beurechuin
beurerion
beuri
beurz
beus
beuz
beuzeg
beuzet
beuzin
bev
beva
bevaat
bevan
bevans
bevar
bevare
bevarzek
bevenn
bevennet
bevennou
bevet
bevezet
bevien
bevin
bevoniezh
bevoniour
bewech
beyer
beyond
bez
beza
bezan
bezans
beze
bezen
bezet
bezh
bezhin
bezhiou
bezian
beziet
bezin
beziou
bezit
bezo
bezomp
bf
bg
bh
bhoutan
bi
bian
bianca
bianchi
bibien
bibl
bible
bibliographie
bibliotheke
bibliotheque
bidi
biel
bien
bier
big
bigi
bign
bignas
bignat
bignaz
bigne
bigot
bihan
bihana
bihanaat
bihanan
bihanik
bihannan
bihannoh
bihanoc
bihue
bihuein
bihuet
bije
bikaouik
biken
bikenn
bikted
bilat
bilbo
bilhed
bilhedou
bili
bilingue
bill
billboard
billig
billy
bilzig
bimbochet
bin
binaz
binigen
binijen
binijenn
binijennou
biniou
binniget
binvidigez
binvidigezh
binvidik
binviji
binviou
bio
bioc
biographie
biographique
biography
biolin
biou
biouek
biqen
biquen
bir
biramidenn
birc
bird
birdlife
birds
birmingham
birou
birthday
birvidik
birvidikaat
birviken
bis
biscoas
biscoaz
biskoas
biskoaz
biskoazh
bismarck
bissau
bistolenn
bistolida
bit
bitous
bitouz
biz
bizantion
bizeost
bizhier
bizied
bizkaia
bizou
bj
bk
bl
bla
blac
black
blad
bladenn
bladennou
blaen
blai
blair
blaise
blake
blakenn
blanc
blanca
blanchard
blanche
blanco
blanedenn
blant
blantenn
blas
blasenn
blavez
blavezh
blaz
ble
bleaz
bled
bleg
blega
blegan
blei
blein
bleinan
bleiner
bleiz
bleizi
blenier
bleniet
bleo
bleu
bleud
bleun
bleuniaoua
bleuniou
bleunv
blev
blevek
blez
blich
blige
bligeadur
bligein
blij
blijadur
blijas
blije
blijo
blijout
blind
bloa
bloas
bloaves
bloavez
bloavezh
bloavezhiou
bloaveziou
bloaz
bloaziek
bloaziou
bloc
blocks
blog
blois
blom
blood
bloody
blot
blotviled
blouz
blue
bluen
bluenn
blues
blunv
blyth
blæ
bm
bn
bnf
bo
boa
boan
boaniou
boas
boaz
boaza
boazet
boaziou
bob
bobaleon
bobby
bobl
boblad
boblans
boblou
boc
bocage
bocca
boccard
bocher
bod
bodad
bodadeg
bodadegou
bodadenn
bodan
bodet
bodou
body
boe
boeck
boed
boen
boenieu
boent
boentou
boeson
boest
boestou
boet
boez
bohemia
boie
bois
bok
bokat
boked
bokedou
boket
bol
bole
bolero
boliserien
bolitikel
bolitikerezh
bolitikourez
bolivar
bolivia
bologna
bolontez
bolz
bom
bombard
bombezadeg
bombezadegou
bombezennou
bombezet
bomm
bon
bona
bonaparte
bonavantur
bond
boned
bonedou
bonet
boneur
bonheur
bonifas
bonjour
bonn
bonne
bonnet
bonnets
bonreizh
bont
book
books
boophis
bopl
borbon
borbone
bord
borderie
borghese
borgia
boris
borja
born
borneo
bortugal
borz
borzh
bos
bosch
bosenn
bosnia
bost
boston
botez
boto
botou
botr
botred
botrel
botswana
botticelli
bou
bouc
boucher
bouches
bouchig
boud
boudou
boue
boued
bouet
boueta
bouez
bouezusan
bouillet
bouillon
boul
boulc
boule
boull
boulogne
boulomig
boulou
boulvriag
bounner
bountan
bountet
bourbon
bourc
bourchas
bourdel
bourdou
bourg
bourgault
bourgeois
bourges
bourgogn
bourgogne
bourk
bourmen
bourreo
bourz
bourzh
bout
boutin
boutou
bouvier
bouvoer
bouzar
bouzellou
box
boy
boys
boz
bp
bq
br
bra
brabant
brad
bradbury
bradford
braga
braganca
bragou
brain
brall
brallan
bran
branco
brancou
brandenburg
branduardi
branellec
brank
brankou
brann
brao
braoa
bras
brasa
brasaat
brasaet
brasan
brasil
brasoc
brassa
brassan
brasset
brassoc
brassoh
bratica
bratiquein
braunschweig
brav
brava
bravaat
bravan
brave
braventez
bravig
bravigou
bravo
bravoc
bray
braz
brazez
brazil
brazilian
bre
breac
break
brean
brec
bred
breder
brederourien
brederouriezh
brein
breiz
breizad
breizh
breizhad
breizhat
breizhek
breizhveurat
breizhveuriat
breiziz
brelevenez
brema
bremaik
breman
bremen
bren
brena
brenan
brendan
brenestr
brenn
breparation
breparein
brepari
brer
bresanc
bresant
bresel
bresk
brest
brestiz
bret
bretagne
breton
bretoned
bretonne
bretonnes
bretons
breudeur
breujou
breur
breuriez
breuriezh
breutaer
breved
brevet
brevez
brevirostris
brez
brezeg
brezegaz
brezegen
brezegenn
brezegennou
brezek
brezel
brezelin
brezeliou
brezelour
brezelourien
brezhon
brezhoned
brezhoneg
brezhonegan
brezhoneger
brezhonegerien
brezhonek
brezhonekaat
brezhonekaet
brezidant
brezonec
brezoneg
brezonek
brezoneq
brezonnec
brezounek
bri
brian
briand
briant
briata
brid
bridge
bried
briedelez
briedelezh
brieg
briek
brientin
brieuc
brigade
brigadenn
brigadier
brigitte
brikennou
brill
brin
brincet
brini
brins
brinsed
brinselezh
brinsez
bris
brisson
bristol
britain
britannia
britanniae
britannica
british
brito
brittany
briz
brizh
brizonerien
brizonidi
bro
broad
broadel
broadelour
broadelourien
broadelouriezh
broadou
broadway
broc
brodu
broduin
brofeded
brofeted
brogarour
broiou
broiz
brokus
bromesa
bromessa
bromet
bron
bronllys
bronn
bronneg
bronneged
bronnou
bronze
brooklyn
bropheted
bros
brosezat
brotestant
brotestanted
brotestantiezh
brother
brothers
broud
broudan
broudet
broudig
brovidanc
brovins
brown
bruce
bruched
brud
brudan
brudanc
bruderezh
brudet
brudeta
brudetan
brudetoc
brueghel
brug
brugge
brume
brun
brunei
bruno
brunswick
brusel
brusk
brussels
brut
brutal
brutus
bruxelles
bruzunet
brycheiniog
brydydd
bryn
bs
bt
bu
buan
buanan
buanegez
buanoc
bubo
bud
budapest
budjed
bue
buena
buenos
bues
buez
buffalo
bugale
bugaleach
bugaleaj
bugaligou
bugeildy
bugel
bugelig
bugelik
buguel
bugul
buhan
buhe
buhez
buhezek
buheziou
buhezskrid
building
buissanc
buissance
buissant
bulgar
bulgareg
bulgaria
bull
bulletin
bundestag
bunel
bunition
bunker
buoc
buon
buonaparte
bur
bureau
burete
burev
bureviou
burgos
burkina
burmek
burns
burroughs
burton
burtæt
burundi
burutellet
burzhud
burzhudus
burzud
burzudou
burzudus
burzuduz
bus
bush
business
but
buteo
butler
butun
buzhug
buzhugennin
bv
bw
bwv
bx
by
bz
bzh
bœlek
bɑ
bɔ
bɛ
c
c0
c1
c2
c3
c4
c5
c6
c7
c8
c9
ca
cabanis
cabeca
cabiten
cablus
cabo
caceres
cadiou
cadiz
cadwaladr
caen
caer
caera
caerdydd
caereinion
caerfyrddin
caernarfon
caeroc
caersws
caesar
cafe
cahiers
cain
cair
caius
calabria
calais
calderon
calendriers
calet
calidris
california
call
callithrix
calon
calonou
cals
calvados
calvar
calvez
calvin
calz
cam
cambrai
cambresis
cambridge
cameron
camille
camp
campagne
campania
campbell
campephilus
campethera
campo
campos
camus
can
cana
canada
canadian
canal
canan
canclaux
cand
cane
canet
canis
cannes
canolfan
canon
cant
canta
cantal
canterbury
cantic
canticou
canto
canton
cantons
cantref
caout
cap
capabl
capable
cape
capel
capensis
capitaine
capital
caprimulgus
captain
car
caracalla
caradog
carante
carantes
caranteus
carantez
carantezus
caravaggio
cardiff
cardinal
care
carein
caret
carg
carget
carguet
carhaix
caridad
carit
carl
carlisle
carlo
carlos
carlota
carmen
carne
carno
caro
carol
carolina
caroline
carrara
carre
carroll
carter
cas
casa
case
casi
cass
casset
cassini
cassius
castel
castell
castello
castelo
casterman
castilla
castillo
castle
castro
cat
catalina
catalogue
catalunya
catarina
catechis
categorie
caterina
catharina
catherine
catholic
catholiq
catholique
cato
cauchon
caumont
caus
causa
cause
cave
caver
cavet
cavouet
caz
cb
cbs
cc
cd
cda
cdu
ce
cecile
cecilia
cedewain
cegidfa
cela
celestiel
celeus
celia
celle
celt
celtes
celtic
celtique
celtiques
celui
cemais
cemeteries
cemetery
cench
cenedlaethol
census
cent
center
central
centre
centro
century
cerdanya
ceredigion
cerf
ceri
certen
certenamant
certæn
cervantes
ces
cesar
cesare
cess
cesse
cet
cette
cetu
ceuta
ceux
cf
cg
ch
cha
chab
chabist
chabistr
chacha
chaden
chadenn
chadennet
chadennou
chagrin
chal
chalon
chaloni
chalonied
chalons
chambord
chambre
champ
champagn
champagne
champion
champs
chan
chandelour
change
changein
chann
channel
chans
chanson
chansons
chant
chantal
chante
chanter
chants
chanz
chaokat
chaoser
chap
chapel
chapeled
chapelet
chapeliou
chapelle
chapistr
chapistre
chaque
charadriiformes
charadrius
charente
charitabl
charite
charles
charleston
charlez
charlie
charlo
charlotta
charlotte
chartres
chas
chase
chaseal
chaseour
chaseourien
chass
chasse
chasseal
chast
chastete
chat
chatal
chateau
chateaubriand
chateauneuf
chatel
chatham
che
chef
chelaou
cheleu
cheleuet
chemical
chemin
chemins
chemistry
chen
chench
chenchamant
chenchamantou
chenchas
chenchet
chentil
cher
cherbourg
chercher
cherry
chervad
chervige
chervigein
cherviget
chess
chessgames
chester
chet
chetu
chetui
cheun
cheval
chevalier
chez
chi
chiara
chicago
chico
chien
chiesa
chihuahua
chilaou
chilaouet
child
children
chile
chileat
chimie
chin
china
chinese
chinon
chistr
chloe
choas
choaset
choaz
choazet
chokolad
cholori
chom
choman
chomas
chomaz
chome
chomet
chomfe
chomit
chomje
chomjont
chomlec
chomm
chommas
chommet
chomo
chomont
chonge
chongeal
chonget
chongeu
chonj
chopinad
chose
chou
chouan
chouanted
chouantet
choug
choui
chouk
choum
choumaz
choume
choumet
choumit
choumo
chretien
chretienne
chris
christ
christe
christen
christenien
christi
christian
christiane
christina
christine
christmas
christoph
christophe
christopher
christum
chronicle
chronicles
chronique
chronologie
chrouist
chubut
chuck
chug
chupenn
church
churchill
ci
cia
cicero
ciconiiformes
cie
ciel
cielo
cil
cill
cilmeri
cinema
cinerea
cinereus
cinnyris
cinq
circa
circoncision
circonstanceu
circus
cisticola
cit
cita
citato
cite
cites
cities
citta
city
ciudad
civil
civiles
civilisation
civitas
cj
ck
cl
clair
claire
clan
clanv
clara
clarendon
clark
clarke
clas
clasc
clask
clasq
clasquet
classical
classification
claude
claudia
claudio
claudius
cleirwy
cleiz
clemens
clement
clemente
cleo
clerc
clerge
clermont
cleuet
cleveland
clevet
clevit
clewet
clint
cloar
cloarec
clochers
clovis
club
clut
clwyd
clyde
cm
cn
cnwclas
co
coal
coant
coat
coburg
coch
coco
code
coed
coenraad
coeur
cohen
coimbra
col
colaptes
cold
cole
coler
colette
colibri
colin
coll
collection
college
collet
collins
colombia
colon
colonel
colonia
colonna
colorado
columba
columbia
columbidae
com
combat
come
comes
cometet
comic
comics
coming
comite
commanc
commancamant
commance
commancet
command
commandet
comme
comment
commettet
commins
commission
commodus
commons
commonwealth
commun
communaute
commune
communes
communia
communication
communiein
communion
communique
communist
como
compagnie
compagnoneah
compagnunez
companion
company
complete
composee
composet
compostela
comprehensive
compren
comprenein
comprenet
coms
comsou
comte
comunista
comz
comzet
comzou
con
conan
conceicao
concepcion
concert
concevet
conchbooks
concise
concolor
concordia
condannet
condaonet
conde
condita
condition
condottiero
conference
confession
confiance
congress
connecticut
conrad
consacret
conseil
conservation
conservet
conservi
considerein
consideret
consideri
considerit
consolation
constant
constantin
constantine
constantinus
constantius
constanza
constitution
construction
cont
conta
contant
conte
contes
contet
continuel
contra
contre
contrel
control
conversations
conversion
convertisset
conwy
conz
conze
conzet
conzeu
cook
coop
cooper
cor
corazon
corde
cordoba
corf
corfmat
corfou
corn
cornelius
cornish
cornouaille
cornwall
coronavirus
corporation
corporel
corps
corpus
correze
corrompet
cortes
coruna
corv
corvus
cos
cosa
cosimo
costa
costanza
coste
costez
cote
cotes
coueh
couehet
coueza
couezet
could
couls
coulz
council
count
country
county
coup
coupabl
cour
courach
courage
couraich
courajus
courcy
courrier
cours
course
court
couscoude
cousgoude
cousket
cousquet
coutant
covezour
cowries
coz
cp
cq
cr
crac
crai
craig
crapart
crbc
crc
cre
creation
creator
crechen
crechenion
cred
credein
credet
credi
credit
credo
creek
cregi
creis
creiz
cren
cresqui
cresse
creuse
cri
crial
cribrarula
cridi
crihue
crime
criminel
cristata
cristina
cristo
cristobal
critique
criz
crog
croget
croix
cromwell
cross
crouadur
croueet
crouet
croy
crucifiet
crucywel
cruel
cruz
cry
cræce
cs
ct
cu
cuando
cuba
cuhet
culpa
cultura
cultural
culture
culturel
cum
cumbria
cunduet
cundui
cunha
cup
cura
cure
cures
curtis
curunet
custum
cut
cuzet
cv
cw
cwm
cwmwd
cx
cy
cymru
cynan
cynog
cynon
cyornis
cypraea
cypraeidae
cypraeovula
cyr
cyril
cz
cœli
cœur
d
d0
d1
d2
d3
d4
d5
d6
d7
d8
d9
da
dac
dach
dachen
dachenn
dachennad
dachennou
dacia
dad
dada
dadou
dael
daelo
daelou
daer
daero
daerou
dafar
dafydd
dag
dagadenn
dagan
dagobert
dai
daik
daily
dakenn
dakota
dal
dalan
dalbenn
dalc
dale
dalean
daleet
dalet
dalh
dalhet
dali
dalif
dalit
dall
dalla
dalledigueah
dallentez
dallet
dalmatia
dalv
dalvez
dalvezas
dalveze
dalvezfe
dalvezo
dalvezont
dalvezout
dalvoudegez
dalvoudegezh
dam
dama
damall
damant
damas
damask
damc
damdost
dame
dames
damhenvel
damian
damien
damkaniezh
damm
dammou
dan
dana
danat
danav
dance
daneg
danek
danevell
daneveller
danevellet
danevellou
danger
dangerus
daniel
danjer
danjeriou
danjerus
danmark
dann
danne
dannet
danny
dans
dansal
danse
danser
danserez
danses
danset
dansou
dant
dante
dantek
dantelez
danuvios
danva
danvad
danvadez
danve
danvez
danveziou
dao
daoegezh
daofin
daol
daolas
daolaz
daole
daolen
daolenn
daolennou
daoler
daolet
daoliou
daolo
daon
daonet
daou
daouad
daouarn
daoubleget
daouder
daoulagad
daoulagat
daoulamm
daoulaz
daoulin
daoulinet
daoust
daouzec
daouzeg
daouzek
daouzekved
daouzekvet
dap
dapas
dapout
dar
daravat
darbet
darc
dare
darempred
darempredet
darempredin
darempredou
dareu
darev
darevin
dargaud
dargreiz
dario
darius
dark
darmstadt
darn
darnou
darnvuia
darthur
darvoud
darvoudou
darwin
darzh
darzhadenn
darzhan
darzhas
das
daskirier
daskoret
dasorc
dasparzh
dasparzhan
dasparzhet
dastum
dastumad
dastumadeg
dastumadenn
dastumadou
dastumer
dastumet
dat
data
database
date
dau
daughter
daul
daulen
dault
dauzat
dav
davanjer
davarn
dave
daved
daveou
davet
davetan
david
davies
davis
dawn
day
days
dazont
dazorc
db
dc
dd
ddew
ddinbych
ddr
ddu
de
dea
deac
dead
dean
dear
deas
death
deaz
debarquement
debauve
debr
debrer
debrerien
debret
debri
debrin
debrit
debut
dec
december
decembre
dechelette
dechou
decouverte
decret
decvet
ded
dedennet
dedennus
dedi
dediet
deep
defaut
defauteu
defe
defense
deffe
defo
defoa
defoe
defynnog
deg
degadou
degas
degaset
degass
degasset
degemer
degemeret
degli
degouezet
degouezh
degouezhet
degouezhiou
degouezhout
dehai
dehe
deheubarth
dehi
dehon
dehou
dehuehan
dei
deieu
deign
deil
dein
deio
deiou
deir
deira
deirvet
deis
deisiou
deit
deiz
deiziad
deiziadou
deiziadur
deiziou
deizlevr
deja
dek
dekred
dekved
dekvet
del
delannoy
delaware
delc
delen
delenn
delfi
delfin
delhi
deliaoua
delienn
deliet
delimitation
deliou
delivret
dell
della
delle
dellezek
delt
delta
delwenn
delwennou
dem
demad
demat
demb
demdost
demeus
demeuz
demezel
demezet
demi
demokrat
demokratel
demokratelezh
demp
dempl
demptasion
den
dendrocopos
dendropicos
denel
denelezh
dener
denez
denis
denise
denjentil
denn
denna
dennan
dennas
dennaz
denne
dennein
dennet
dennis
denno
dennou
dent
dentation
dentationou
denti
denvalijen
denvalijenn
denved
denvet
denzor
deo
deoai
deoc
deod
deog
deoh
deol
deomp
deorienn
deou
deourn
departamant
departamantou
departement
depuis
depute
deputeed
deputes
der
derby
derc
dere
deread
dereat
derez
dereziou
derhel
dermen
dernier
derniere
dero
deroet
derou
derri
derrien
derrin
derv
derven
dervenn
dervez
derveziou
derzhienn
derzien
des
desachet
desavet
desert
deserz
deshayes
design
desir
desire
desiret
desirieu
desirou
desirout
desk
deskadurez
deskadurezh
deskard
desket
deski
deskin
deskit
deskrivadur
deskrivan
deskrivet
desped
despet
desquein
desquet
dessau
dessus
dest
destamant
desteni
destenn
destinet
destou
destum
destumet
det
detroit
deu
deuas
deuaz
deud
deue
deued
deuehan
deuet
deufe
deui
deuio
deuit
deuje
deulegad
deulegat
deuler
deulin
deum
deur
deurel
deus
deusto
deustou
deut
deutsch
deutsche
deutschen
deutscher
deux
deuxieme
deuz
dev
devai
devalien
devalijen
devanagari
devant
deve
devehai
devehe
devel
development
devenir
dever
deveret
deverieu
deveriou
deves
devet
deveus
deveuz
devez
devezai
deveze
devezh
devezhiou
deveziou
devezo
devi
devije
devil
devin
devize
devo
devoa
devod
devoe
devon
devosion
devot
devotamant
devotion
devou
devoue
devout
devri
devy
deværieu
dewi
dez
deza
dezan
deze
dezenn
dezert
dezerzh
dezhan
dezhe
dezhi
dezho
dezi
dezir
dezo
dezougen
dezrevell
df
dg
dh
dhraked
di
dia
diabarz
diabarzh
diable
diablo
diaes
diaesoc
diaesteriou
diagent
diaguent
diakritek
dial
dialecte
diamant
diamantou
diana
dianav
dianavezet
diane
dianket
dianv
diaoul
diaouled
diaoulou
diar
diaraoc
diaraok
diarbenn
diarc
diarvar
dias
diasur
diaul
diavaez
diaveaz
diavesiad
diavesidi
diavez
diavezidi
diavis
diavolo
diaz
diazad
diazeet
diazez
diazezadur
diazezan
diazezer
diazezerien
diazezet
diazezou
diazlec
dibab
dibabet
dibad
dibaot
dibaouez
dibar
dibec
dibenn
dibenna
dibennet
dibennou
diblaset
diboell
dibosupl
dibourc
dibr
dibreder
dibri
dibunan
dibunet
dic
diccionario
dice
dichek
dick
dictionary
dictionnaire
did
didaer
didalvez
didalvoud
didamall
didamallet
didan
dide
dider
didier
didrec
didroc
didrous
didrouz
didruez
didud
die
diechu
died
dieeun
diegez
diegezh
diegi
diego
dielfennan
diell
diellaoueg
diellet
diellou
diembann
dien
dienez
dienn
dierniezh
dies
diesoc
dietrich
dieu
dieub
dieubet
dieubidigezh
dieubin
dieux
dievez
diez
difazi
difeiz
difen
difenn
difenner
difennerien
difennet
difennou
difennour
difetis
differant
difin
difinv
diforc
diframmet
digabestr
digacet
digalon
digaloun
digan
digand
diganen
diganeoc
diganeomp
diganin
digant
diganta
digantan
digante
diganthan
diganthi
digantho
diganti
diganto
digar
digare
digarez
digas
digaset
digasit
digass
digasset
digemer
digemeraz
digemeret
digemm
digenvez
digeri
digerin
digital
digitized
diglok
dign
digoll
digor
digoradur
digoret
digorit
digorret
digoueet
digouet
digouezet
digouezout
digoust
digresk
digresket
digreskin
digueneoc
digwener
digwez
dihellou
dihoal
dihoallet
dihue
dihuen
dihuennet
dihun
dihunamb
dihunet
dihunin
dija
dije
dijentil
dijon
dik
diktatour
diktatouriezh
dilabour
dilad
dilamet
dilavar
dilec
dilenn
dilennadeg
dilennadegou
dilenner
dilennet
dilennidi
dilentan
dilerc
dilestradeg
dilestran
dileuriad
dileuridi
dilez
dilezel
dilezet
dilhad
dilivret
dillad
dillo
dilojan
dilost
dilouzan
dilun
dimanche
dimerc
dimet
dimeus
dimeuz
dimezel
dimezell
dimezelled
dimezet
dimezi
dimezin
dimeziou
dimizi
dimiziou
dimp
din
dinac
dinam
dinamm
dinan
dinarzh
dinas
dinatur
dindan
dindanan
dindani
dinec
dinedin
diner
dinerz
dinerzet
dinerzh
dinerzhan
diniver
dinn
dinosaored
dins
dint
dio
dioc
diocese
diod
diodoros
diofisiel
dioklesian
dionysos
diorren
diorroadur
diorroet
dios
diot
diou
dioual
diouall
diouallet
diouallit
diouc
dioud
diouelian
dioueliet
diouer
dioueret
diougan
diouganer
diouganet
diouganou
dious
diouskoaz
diouskouarn
dioustu
diout
dioutan
dioute
diouthan
dioutho
diouti
diouto
diouz
diouzh
diouzhtu
diouzin
diouzoc
diouzomp
dipitet
diplom
diplomat
diplomatiezh
diplomet
dir
dira
dirac
dirag
dirak
dirakan
diraz
dirazan
dirazhan
dirazhi
dirazho
dirazi
dirazo
dirazoc
dirazomp
dirazon
dire
direbech
direction
directour
diredet
direglet
direiz
direizh
direnk
direol
diresis
diri
diriad
diroll
dirollet
dis
disc
discar
discaret
discleria
discleriet
disco
discoein
discoeit
discours
disec
disesper
disfiz
dishenvel
dishenvelout
disheol
dishonest
dishual
dishualded
disi
diskan
diskar
diskaret
diskarg
diskarget
disken
diskenn
diskennad
diskennet
diskennidi
disket
diski
diskian
diskiant
diskib
diskibien
diskibl
diskibled
diskiblien
diskleria
diskleriadur
disklerian
diskleriet
diskoe
diskolian
diskouarn
diskouez
diskoueza
diskouezadeg
diskouezadegou
diskouezet
diskouezit
diskoulm
diskoulman
diskred
diskredik
diskregin
diskriverien
diskrivet
diskuez
diskuillet
diskuiz
diskuizh
diskulian
diskuliet
diskwel
dislavar
dislavaret
disleal
disman
dismantr
dismantret
dismantrou
dismegans
dismeganz
disney
disoc
disonjet
dispac
dispak
dispakan
dispaket
dispar
disparti
dispartia
dispartian
dispartiet
dispenn
dispennet
dispign
dispignet
dispignou
dispis
displaystyle
displeg
displega
displegadenn
displegadennou
displegadur
displegaduriou
displegan
displeget
displijadur
displijet
displijout
displijus
dispont
disposet
disposition
dispositioneu
dispositionou
dispriget
disprijet
disprisance
disprisein
dispriset
dispriz
disprizet
disput
disquein
disquennet
disquet
disquez
disqui
disrann
disrannet
dissul
distabil
distag
distaga
distagadur
distagan
distaget
distamman
distaolet
distaoliadeg
dister
distera
disteran
disterik
disteroc
disterra
disterran
disteurel
distol
distolet
distrei
distrein
district
distrig
distrigou
distro
distroadet
distroet
distroit
distruj
distruja
distrujan
distrujet
distrujou
disul
dit
ditl
ditourou
div
divac
divalav
divalo
divar
divarben
divarbenn
divarc
divarrek
divarvel
divaskell
divc
divellkeineged
divent
divergont
dives
divesker
divez
diveza
divezad
divezan
divezat
divezatoc
divhar
divi
diviche
divije
divin
divinite
division
diviz
divizet
divizou
divizout
divlam
divoal
divodet
divouezh
divoutin
divreac
divrec
divroad
divroan
divroet
divroidi
divskouarn
divugel
divy
divyezhek
diwall
diwaller
diwallet
diwallit
diwan
diwanet
diwar
diwarbenn
diwarnan
diwarni
diwarno
diwean
diweuz
diwez
diweza
diwezatoc
diwezh
diwezhan
diwezhat
diwezhatoc
diwisk
diwiskan
diwisket
dix
diz
dizalc
dizale
dizanv
dizaon
dizec
dizehan
dizemglev
dizenor
dizent
dizesk
dizesper
dizh
dizhout
dizimez
dizionario
dizoan
dizoare
dizober
dizolein
dizolo
dizoloadenn
dizoloet
dizouar
dizoue
dizrei
dizro
dizursiou
dizurz
dizurzh
diæz
dj
djibouti
djvu
dk
dl
dle
dlead
dlean
dleann
dlee
dleer
dleet
dlefe
dleit
dleomp
dleont
dleour
dleourien
dleout
dlie
dlient
dm
dn
do
doa
doai
doan
doar
doare
doareou
dober
doberieu
doc
doctor
doctored
doctrin
documents
dodenn
doe
doen
doenn
dog
dogan
doh
dohemb
dohoh
doi
dois
doit
dok
doktor
doktored
doktorelezh
dol
dolanog
dolau
doliou
dollar
dolores
dolz
dom
domage
domani
domaniou
domb
domder
dome
domenico
domine
domingo
domini
dominik
dominikan
dominikaned
dominique
domino
dominum
dominus
domitianus
domm
domma
domman
domp
domremy
don
dona
donald
donan
donatien
donc
dond
donder
donedigez
donedigezh
donemat
donenn
donet
donezon
donezonet
donezonou
donezoun
dong
doniou
donn
donna
donne
donner
donnet
donoc
donostia
dont
donv
donvaet
donvor
donæson
donæzon
dor
dora
dordogne
dore
dorfed
dorfedourien
dorgenn
doriou
doris
dorn
dornad
dornet
dornskrid
dornskridou
dorojou
dorothea
dorothy
dorr
dorras
dorraz
dorset
dorz
dos
dost
dosta
dostaas
dostaat
dostaaz
dostae
dostan
dostat
dottin
dou
douar
douaran
douarel
douaret
douarnenez
douaroniel
douaroniezh
douaroniour
douarou
doubl
double
doubs
douc
doucder
douce
douch
doue
doueed
doueel
doueez
doueezed
doueoniezh
doueoniour
doueou
douet
douetans
douez
doug
douge
dougeance
dougen
dougenn
douger
dougerez
douget
douglas
douguein
douguen
douguet
doui
douj
doujan
doujanc
doujans
doujanz
doujet
doull
doun
dounder
dounoc
dour
doura
doureier
dourek
dourenn
douret
douriou
douristed
dourn
dous
dousder
dousen
dousenn
dousig
dousik
douster
dout
doute
dove
dover
down
dp
dq
dr
dra
draen
draezhenn
dragon
dragoned
draig
draik
drailh
drailhan
drailhet
drama
dramaour
dramm
drammou
drant
draon
draonienn
draou
draouien
drask
drastus
dravidek
dre
dream
drean
drec
dredan
drede
drederenn
dreger
dregont
drei
dreid
drein
dreinded
dreindet
dreinek
dreist
dreistordinal
dreit
dreizan
dreizhan
dreizo
drek
drekstaon
drem
dremen
dremenas
dremenaz
dremene
dremenet
dremenidi
dremeno
dremenvan
dremm
dremmou
dremmwel
dren
drenewydd
drenkenn
drenv
dreo
dres
dresadenn
dresan
dresden
dreset
drespet
drest
dreu
dreux
dreuz
dreuzas
dreuzi
dreuzin
dreuzou
drev
drevadenn
drevadennel
drevadennerien
dreyfus
drez
drezan
drezen
drezi
drezo
dri
drid
dridal
drinded
drindet
dristidigez
dristidiguez
drivet
drizek
dro
droad
droas
droaz
droc
droch
droe
droet
droiad
droidigezh
droienn
droiou
droit
drome
drompein
drompla
dron
drouc
droug
drougiez
drougueu
drouiz
drouized
drouk
drouklazhet
droukveskan
drouz
dru
drue
druez
drugare
drugarecat
drugarekaat
drugarez
drusus
druz
druzoni
ds
dt
du
duaat
duarte
dub
dublin
dubna
dubois
duc
duchamp
duchentil
duck
ducoudray
dud
dudchentil
dudenn
dudi
dudiou
dudius
dudiuz
dudjentil
due
duet
dug
duged
dugelezh
dugez
duhamel
duhont
duk
dukark
duke
dukez
dulce
dulenn
dum
dumas
dumbledore
dun
dupuis
dur
durand
durant
durer
durham
durked
durzunel
dusseldorf
dut
dutch
duval
duze
dv
dvd
dw
dx
dy
dydd
dyfed
dyffryn
dylan
dz
dɔ
dɛ
dɛn
e
e0
e1
e2
e3
e4
e5
e6
e7
e8
e9
ea
ead
eahus
eal
ean
eant
ear
earl
earliest
early
earp
earth
eas
easoc
east
eastern
eastwood
eat
eau
eaust
eaz
eb
ebad
ebars
ebarz
ebarzhet
ebat
ebatou
ebed
eben
ebestel
ebet
ebeul
ebiou
ebken
ebqen
ebrel
ebreul
ebssa
ec
ecce
eccl
ecclesiastique
ecclesiastiques
eccli
echedou
echo
echu
echuas
echuet
echui
echuin
eclair
ecole
economic
ecuador
ed
edan
edda
eddie
eddy
eden
edern
edgar
edicion
ediciones
edicions
edinburgh
editeur
edith
edition
editions
editorial
edmond
edmund
edo
edoc
edod
edom
edomp
edon
edont
edot
edou
edouard
edouarzh
eds
edu
eduard
eduardo
education
edward
edwards
edwin
ee
eel
eell
eellamb
eellant
eellein
eeller
eellet
een
eer
eet
eeun
eeunder
ef
efa
efed
efedou
efedus
efedusted
efet
effaci
effejou
effet
efflam
effort
effæd
efomp
efraim
eg
egar
egea
eged
egedon
eget
egetan
egeti
eghet
egile
egipt
egiptat
egiz
eglise
ego
egor
egretta
eguet
eguile
eguis
egypt
eh
ehan
ehana
ehanas
ehanaz
ehane
ehanet
eharz
ehess
ehi
ehoc
ehue
ehun
ei
eid
eidomb
eien
eienen
eienenn
eienin
eil
eilean
eilenn
eilet
eilvet
ein
einaudi
eine
einep
einer
einion
einstein
eis
eisenach
eisteddfod
eit
eiz
eizh
eizhvet
eizved
eizvet
ej
ejen
ejened
ejenn
ejenned
ejipsianed
ejipt
ejiptianed
ejon
ejont
ejus
ek
ekologel
ekologiezh
ekonomiezh
ekonomikel
el
ela
elba
ele
eleac
eleal
eleanor
eleazar
elec
eled
elegans
eleison
eleiz
elektra
elektron
elektronek
elements
elen
elena
eleonora
eleonore
eler
elesbed
elez
eleze
elfael
elfe
elfed
elfenn
elfennou
eli
elias
elis
elisabet
elisabeth
elisabetta
elizabet
elizabeth
elizeus
ell
ella
ellan
ellas
elle
ellen
eller
elles
ellet
elliant
ellis
ellit
ello
ellomp
ellont
ellot
ellou
elo
elorn
else
elu
elum
elven
elvira
elvis
elzas
em
ema
emaint
eman
emanuel
emanuele
emaoc
emaomp
emaon
emaoun
emaout
emb
embann
embannadur
embannaduriou
embannas
embanne
embanner
embannerien
embannet
embannou
ember
emberiza
emberr
emboltred
embreger
embregerezh
embregerezhiou
emdroadur
eme
emean
emen
emeur
emeus
emez
emeza
emezan
emezelan
emezelas
emezhan
emezhi
emezho
emezi
emezo
emgann
emgannan
emgannou
emgav
emgleo
emglev
emgleviou
emi
emichans
emil
emile
emilia
emilie
emilio
emily
emir
emirelezh
emirelezhiou
emlazh
emled
emma
emmanuel
emober
emoc
emomp
emoun
emp
empenn
empereurs
empire
emprisonne
emren
emrenerezh
emsav
emsavadeg
emsavadegou
emsaver
emsaverez
emsaverien
emsavet
emsavidi
emskiant
emsley
emstumm
emvod
emvodou
emzalc
emzivad
emzivaded
emzivadez
en
enan
enaouet
enaoui
enbroidi
encore
encyclopaedia
encyclopedia
encyclopedie
encyclopædia
end
endalc
endra
endro
ene
eneb
enebas
eneber
enebet
enebi
enebiez
enebiezh
enebin
enebour
enebourien
ened
enem
eneou
enep
energiezh
enez
enezeg
enezen
enezenn
enezennig
enezennou
enfant
enfants
engehentas
engehentet
engels
england
english
engouestlet
engravadur
engravaduriou
engraver
engravet
engroez
enhan
enhe
enhi
enk
enkadenn
enklask
enklaskou
enklozet
enkrez
enkrezet
enlarged
enlinenn
enn
enna
ennan
enne
ennhan
ennhi
ennho
ennhoc
enni
enno
ennoc
ennomp
ennon
ennoun
ennout
eno
enoc
enomp
enon
enor
enorabl
enoret
enori
enorin
enoriou
enorus
enoruz
enoun
enpad
enrico
enrique
enrolladenn
enrolladennou
enrollan
enrollas
enrollet
ensavadur
ensavaduriou
enseller
ensemble
enskrivadur
enskrivaduriou
enskrivet
ent
enta
entanet
entendre
entent
ententet
enterramant
enterret
enterri
entertainment
entre
entrezho
env
envel
envor
envorennou
envou
enwau
eo
eoc
eog
eol
eoliet
eomp
eon
eont
eontr
eor
eorum
eos
eost
eostig
eostik
eostou
eot
eoul
eoullivadur
eozen
ep
epad
epic
epken
epopee
epoque
epquen
eq
er
era
erbed
erbedet
erbedi
erbet
erc
ercole
ere
ereet
ereou
erer
erevent
erez
erfad
erfat
erfin
ergativel
erge
ergerzhadeg
ergerzhadenn
ergerzher
ergerzhet
erhad
erhat
erhoalh
eric
erich
erik
erika
eritrea
erlec
erlerc
erm
ermengarde
erminig
ermit
ermitach
ernault
ernest
ernesto
ernod
ernst
ero
erotek
errance
erreka
erru
erruas
erruaz
errue
erruet
errujont
erruo
erruout
erv
ervad
ervat
erves
ervez
ervlan
ervoan
ervoanik
erwan
erwanig
erwd
eryri
erythropitta
erzh
es
esa
esae
esaeou
esaouenn
escaut
escob
escobty
escop
escopti
eskell
eskemm
eskemmou
eskern
eskibien
eskob
eskop
eskopti
eskoptiou
esop
espagne
espagnole
espana
espanola
esper
esperan
esperanc
esperance
esperans
esperanteg
esperanto
esperanz
espern
espernaz
espernet
esperout
espres
esprit
esquibien
essa
essai
essays
esse
essere
essex
essonne
est
esta
estadio
estaj
estar
estate
este
ester
esther
estimet
estlamm
estlammet
estlammin
eston
estoneg
estonia
estranjour
estranjourien
estreget
estren
estrenvro
esus
eswatini
et
eta
etablisset
etais
etait
etal
etat
etats
etc
ete
eternel
eternelamant
eternite
ethnologue
etienne
etimologiezh
etiopia
etouez
etre
etrebroadel
etrekeltiek
etrekumuniezh
etrerannyezhel
etrese
etrevroadel
etrezan
etreze
etrezeg
etrezek
etrezho
etrezi
etrezo
etrezoc
etrezomp
etrusked
etude
etudes
etudie
etymologique
eu
eudes
eue
eugen
eugene
eugenia
eugenie
eujen
eul
eum
eun
eunius
eunn
eur
eurazia
eure
eured
euredet
euredin
euredou
euret
eureu
eureud
eureujet
eureuji
euriou
euripides
euro
euroiou
europ
europa
europat
europe
european
europiz
eurovision
eurus
eurusded
eurusdet
eurusoc
eurusted
euruz
euruzded
eurvad
eurvezh
eurvezhiou
eus
eusa
euskadi
euskal
euskarat
euskareg
euskarek
eutru
eux
euz
euzeb
euzhus
euzhvil
euzus
euzuz
ev
eva
evach
evaj
evan
evans
eve
eveit
evel
evelato
eveldhan
eveldoc
eveldomp
eveldon
eveldout
evelhen
evelhenn
evelkent
evellen
evelse
eveltan
evelte
evelti
evelto
evelyn
even
eveque
eveques
ever
every
everything
eves
evesaat
evesait
evet
evez
evezh
evezhiadennou
evezhian
evid
evidhoc
evidoc
evidomp
evidon
evidoun
evidout
evil
evintan
evit
evita
evitan
evite
evithan
evithi
evitho
eviti
evito
evn
evned
evnig
evnoniezh
evnoniour
evnoniourien
evo
evoa
evolution
evor
evou
evreux
evrog
evurus
evurusted
evuruz
ew
ewen
ewit
ex
examen
examina
examinein
examinet
exampl
exampleu
exant
exaudi
excellant
excita
exempl
exemplou
exerci
exercic
exercice
exercicou
exeter
exil
experience
explication
expliquet
exposet
exposi
exposition
expres
express
exterieur
exterior
extremadura
ey
eye
eyes
ez
ezan
ezans
ezau
eze
ezec
ezed
ezel
ezen
ezet
ezh
ezhan
ezhe
ezhi
ezho
ezhomm
ezhommou
ezi
ezo
ezom
ezomm
ezommek
ezommou
ezomou
ezra
eztaolet
f
f0
f1
f2
f3
f4
f5
f6
f7
f8
f9
fa
fab
faber
fabian
fabien
fabl
fablenn
fablennou
fables
fablou
faboursiou
fac
face
facebook
fach
fachet
facil
facto
factory
fad
fae
faen
faero
faeroeg
faeron
faezhet
faezhidigezh
fair
faire
fairy
fait
faith
fal
falc
falco
falfe
fall
falla
fallaat
fallagr
fallagriez
fallagriezou
fallakr
fallan
fallante
fallentez
falloc
fallout
falls
fals
faltazi
faltazius
falvezas
falvezaz
falveze
falvezet
falvezout
falz
fame
fameil
familh
familhou
famill
famille
family
fan
fanch
fanchig
fanchik
fanchon
fank
fanny
fant
fantasy
fantig
fantik
fao
faos
faot
faotr
faou
faoued
faouet
faout
faoutet
faoz
far
faraon
faraoned
fardan
farder
fardet
fare
fari
farizianed
farnese
faro
farrez
fars
farsal
farsus
farz
fas
fask
faskour
faso
fater
father
faus
faustina
faut
faute
fauteu
fautou
fav
fave
faver
favereau
faveur
fawr
fayard
fazan
fazi
fazia
fazian
faziet
faziou
fb
fc
fd
fe
feahein
feahet
feal
fealded
fear
feat
february
fec
fecit
fecon
fed
feden
fedenn
fedennou
federal
federation
federico
fedi
fedou
fehedeu
feira
feis
feiz
feizidi
fel
felger
felice
felicite
felin
felipe
felis
felix
fell
fellas
fellaz
felle
fellet
fellfe
fellout
femme
femmes
femp
fen
fenisek
fenn
fennad
fennou
fenoz
fent
fentigellour
fentus
fer
ferc
ferch
ferdinand
ferdinando
ferdinant
ferm
ferme
fernand
fernandez
fernando
fero
ferrand
ferrante
ferrara
ferrari
ferreira
ferrer
ferry
fersen
ferson
fervant
ferveur
fervor
ferzh
fes
feskenn
feson
fesoun
fest
festival
festou
fet
fete
fetis
feu
feuls
feulster
feun
feunteun
feunteuniou
feur
feuriou
feurm
feurmet
fevar
fevrer
fevrier
fez
fezh
ff
ffin
fflint
fg
fh
fi
fiakr
fians
fic
ficedula
fich
fichenn
fichet
fiction
fide
fidel
fidelet
fidelite
field
fier
fiez
figaro
fight
figur
figure
fil
file
filhor
filii
filip
filipinez
filippo
filistined
filius
fille
filles
fillion
film
filman
filmaozer
filmaozour
filmet
filmig
filmou
films
filomena
fils
fin
final
find
fine
finister
finistere
finland
finn
finneg
finnek
finv
finval
finvou
fire
firenze
first
firth
fischer
fish
fisian
fisians
fisianz
fistoulik
fit
fitzgerald
five
fizianc
fizians
fizianz
fiziet
fizik
fizikel
fizikour
fiziout
fj
fk
fl
flac
fladenn
flaer
flam
flamank
flamm
flammarion
flammou
flandrez
flandrezat
flandrezeg
flas
flastran
flastret
flavia
flavius
flb
flem
fleming
flemm
flemmet
flemmus
fleur
fleuriot
fleury
fleut
flijadur
flip
fln
floc
flodad
flohic
flor
flora
florence
florent
flores
florian
florida
flour
flouran
floyd
flying
fm
fn
fo
foan
foaniou
foar
foariou
fobl
foblans
foei
foeltr
foen
foenn
foenneier
foet
foetan
foeter
foi
fois
foix
fol
folgoat
folio
folk
foll
folleah
follenn
follennata
follennou
follentez
foltred
fonadur
fonctionou
fond
fonem
fonetik
fonetikel
fonksion
fonnus
fonologiezh
fons
font
fontaine
fontainebleau
fontanella
fontanellan
fontenay
fontenella
fontet
foot
football
for
foran
forbannet
forbes
forc
force
forces
ford
forest
forestier
foret
forever
forh
forli
form
forme
formet
formulenn
forn
forom
fors
fort
fortun
fortuna
fortunatus
fortune
forum
forz
forzh
foster
fotr
fou
foucauld
fouenant
fouet
fouez
fouge
fougeal
foul
foulk
foull
foundation
founnus
four
fourmaj
fourn
fournier
fournis
fowler
fox
foz
foziou
fp
fq
fr
fra
frac
fraezh
fragilite
framm
frammadur
frammer
frammet
frammou
fran
franc
franca
francais
francaise
france
frances
francesca
francesco
franche
francia
francis
francisca
francisco
francisien
francisque
franck
franco
francois
francoise
francæs
frank
franked
frankfurt
frankia
frankiz
frankizour
franklin
franquin
frans
fransez
franseza
fransizien
franz
franziska
frapad
fraser
frazenn
frazennou
frealz
frealzet
frealzi
frealzidigez
freaz
fred
frederic
frederick
frederig
frederik
fredrik
free
freedom
freh
freiburg
french
frer
frere
freres
fresk
freuz
freuzet
fri
fried
friederike
friedrich
friends
friet
friko
frikotan
frit
fritan
fritz
friz
frizeg
froger
from
front
froud
frouden
frouez
frouezh
frouezhenn
frovins
fs
ft
fu
fuc
fuchs
fuego
fujiwara
fulenn
full
fulor
fuloret
fulup
fulvus
fun
fur
fura
furch
furcha
furchal
furchet
furien
furm
furmet
furmou
furnes
furnez
furoc
furzod
fut
future
fuzil
fuziliou
fuzuilh
fuzuilhet
fv
fw
fx
fy
fychan
fynwy
fynydd
fz
fæcon
fæcoun
fæd
g
g0
g1
g2
g3
g4
g5
g6
g7
g8
g9
ga
gab
gabiten
gabon
gabriel
gabriele
gabrielle
gac
gad
gador
gae
gael
gaelic
gaer
gaera
gaeran
gaerfyrddin
gaf
gafe
gagn
gaia
gaillimh
gainsbourg
gaius
gal
gala
galaad
galactica
galapagos
galatia
galeazzo
galega
galego
galenos
galeou
galet
galetaat
galhuet
galia
galian
galianeg
galianek
galicia
galile
galilea
galilee
galileo
galite
galiza
galizat
galizeg
galizek
gall
galla
gallaoued
gallaoueg
gallec
galleg
gallek
gallekaet
galleria
gallery
galles
gallet
gallia
gallica
gallico
gallimard
gallinago
gallo
gallois
galloud
galloudec
galloudek
galloudou
galloudus
galloudusan
galloudusoc
gallouduz
gallout
gallus
galon
galoun
gals
galv
galvaz
galvet
galvit
galz
gamarad
gamaraded
gambia
gambr
game
games
gamm
gamma
gammed
gamp
gampion
gampr
gan
gana
ganac
ganan
ganaouen
ganaouenn
ganaouennou
ganas
gand
gandhi
gandryll
gane
ganec
ganed
ganedigezh
ganedigezhiou
ganehoc
ganen
ganeoc
ganeomp
ganer
ganerez
ganerien
ganet
ganez
gang
ganga
ganhen
ganimp
ganin
ganit
gann
ganna
gannad
gannaded
gannan
gannas
gannedigueah
gannet
gano
ganol
gant
ganta
gantan
gante
gantenn
gantha
ganthan
ganthe
ganthi
gantho
ganti
ganto
ganton
gantved
gao
gaol
gaoter
gaou
gaoud
gaoued
gaouenn
gaouiad
gaout
gaoz
gaozeadenn
gaozeal
gaptived
gar
garan
garann
garante
garantes
garantez
garcia
garcon
gard
garde
garden
gardie
gardien
gardinal
gardinaled
gardner
gare
garehe
garein
garer
garet
garfe
garfen
garfet
garg
garga
gargam
gargaz
gari
garibaldi
garie
garin
garit
garje
garm
garmez
garnel
garnier
garo
garomp
garona
garonne
garont
garout
garr
garreg
garrek
garta
gartenn
garv
gary
gas
gasa
gasas
gasaz
gase
gaset
gaso
gasoni
gass
gassas
gassaz
gassoni
gast
gastel
gastell
gastiz
gastiza
gaston
gat
gatedral
gatholik
gatoligiezh
gatolik
gatoliked
gatto
gauguin
gaule
gaulle
gaulois
gauloise
gaus
gautier
gav
gavan
gavas
gavaz
gave
gaved
gavel
gaven
gavent
gaver
gavet
gavi
gavin
gavit
gavjont
gavo
gavomp
gavont
gavot
gavou
gavoud
gavouet
gavout
gavr
gay
gaz
gaza
gazeg
gazel
gazetenn
gazou
gb
gc
gd
ge
gear
geaz
ged
gedal
gedon
gedour
gefridi
gegin
gehen
geier
gein
geinn
geiz
gelaouenn
gelc
gelen
gelenadurez
gelenn
gelennadurez
gelennadurezh
gelenner
gelennerien
gelennou
gell
gellet
gelli
gellout
gelou
gelted
geltiat
geltieg
geltiek
gelver
gember
gembraek
gembre
gemen
gemend
gemenn
gement
gemer
gemeras
gemeraz
gemere
gemeret
gemerit
gemero
gemerout
gemm
gemman
gempenn
gemper
gen
genac
genad
genadou
genaoueg
genaouek
gendalc
genderc
genderv
gendrec
gene
gened
genel
general
generale
generalitat
generation
genetek
geneva
geneve
genevieve
genidik
geniterv
genitiv
genkiz
genlabourat
gennad
gennigaz
geno
genou
genova
genrouedad
gens
genseurted
gensonenn
genstrivadeg
gent
genta
gentan
gente
gentel
genteliou
gentil
gentileschi
gentoc
genurzhian
genus
genver
genverian
genvreudeur
genvroiz
genweb
geo
geobreizh
geoded
geodedourien
geoffrey
geoffroy
geographie
geographique
georg
george
georges
georgia
geot
geotdebrer
geotenn
ger
gerais
gerald
gerard
gerbenn
gerc
gerdarzh
gere
gerent
gerhard
geriaden
geriadenn
geriadennig
geriadur
geriadurig
geriaduriou
geriadurour
geriaoueg
gerig
geriou
germain
germaine
german
germaned
germaneg
germanek
germania
germanicus
germany
gern
gerne
gernev
gernez
gerniel
gers
gervel
gerven
gerveur
gerz
gerze
gerzet
geschichte
gest
gestapo
get
gete
geton
geun
geuniou
geuz
gevell
gevellet
gevezadeg
gevier
gevr
gevrat
gevred
gevredet
gevredidi
gevredigez
gevredigezh
gevrenn
gevret
gez
gezeg
gezek
gf
gg
gh
ghana
ghenta
ghost
gi
gia
giacomo
gian
gib
gichen
gichenn
giez
gig
gik
gil
gilbert
gildas
gilles
gimiek
gimiezh
gin
ginea
ginidik
ginivelez
ginnig
ginnigas
ginnigaz
ginnige
ginou
gioc
giordano
giorgio
giorno
giovanna
giovanni
gipuzkoa
gir
giray
gireg
girl
girls
girolamo
gironde
girri
gisela
gisserot
gisti
gitar
gitarour
giulia
giuliano
giulio
giuseppe
give
givri
giz
giziou
gj
gk
gkervella
gl
glac
glad
glah
glahar
glan
glanded
glann
glanndour
glannou
glantwymyn
glanv
glanvourien
glao
glaoda
glaou
glaouer
glas
glasc
glascwm
glasgow
glask
glaskan
glaskas
glaskaz
glaske
glaskent
glasker
glasket
glaskit
glasko
glaskont
glasq
glass
glav
glaveier
glaz
glazaour
glazet
glazur
gleb
glebiadur
glebian
glebiet
gleiz
glem
glemm
glemme
glen
glenmor
glenn
glenved
gleo
glesker
gleu
gleuz
glev
glevan
glevann
glevas
glevaz
gleve
gleved
glever
glevet
glevit
glevjont
glevo
glevout
gleze
gli
glin
gliz
gloada
gloan
gloar
gloazet
global
globe
gloc
gloer
glok
glokaat
gloria
glorifiet
glorius
gloriuz
glot
gloued
glyn
glyndwr
gm
gmelin
gn
gnu
go
goa
goab
goabren
goad
goadeg
goaf
goafiou
goah
goaid
goal
goalc
goalen
goall
goan
goanag
goania
goann
goant
goantenn
goanv
goap
goar
goard
goardou
goarn
goarnet
goas
goasa
goasoc
goassa
goassoc
goat
goaz
goazed
goazez
goaziou
gober
gobr
goch
god
godel
godell
godellek
godellou
godig
godik
gododdin
goebbels
goed
goel
goela
goeled
goelet
goell
goes
goession
goest
goethe
gof
gofes
goff
goffic
gogh
goias
going
gol
gold
golden
golein
goleit
goler
golf
goll
gollas
gollaz
golle
gollet
gollo
golo
goloet
golonenn
golvan
golvaneged
gombat
gombati
gomedienn
gomer
gomez
gommancamant
gommance
gommand
gommansaz
gommun
gommunia
gommunion
gompagnunez
gompagnunezh
gompezenn
gompren
goms
gomsiou
gomsou
gomunouriezh
gomz
gomzas
gomzaz
gomze
gomzer
gomzet
gomziou
gomzo
gomzou
goncourt
gondition
gondui
gone
goneet
gonezet
gonfession
gonfiance
gonfirmation
gonfusianegezh
gonid
gonidec
gonideg
gonit
gonje
gonsequance
gonservi
gonsideri
gonsist
gonsolation
gonstantinopl
gont
gonta
gontadenn
gontan
gontantamant
gontas
gonte
gontel
gontelezh
gontell
gonter
gontez
gonto
gontrition
gonvansion
gonversion
gonvertissa
gonvertissein
gonz
gonzaga
gonzalez
gonzeu
good
google
gopr
gopret
goprou
gor
gorden
gordenn
gordon
gore
gorf
gorn
gornaoueg
gornek
gornog
gorre
gorread
gorrek
gorreou
gorrigan
gorrigein
gorroidigezh
gorruption
gorsedd
gorto
gortos
gortoz
gortozet
gortozit
gorv
gorventenn
gos
gosa
goscinny
goshan
goste
gostez
gostezenn
got
goteg
gotek
gotha
gottfried
gottingen
gottorp
gou
gouarn
gouarnamant
gouarnamantou
gouarner
gouarnet
gouarnour
goud
goude
goudese
goudeze
goudor
goudorin
goue
goueh
gouel
gouela
gouelan
gouelanig
gouelec
goueled
gouelet
goueliou
gouelou
gouenn
gouennan
gouennlazh
gouennou
gouenou
gouent
gouer
gouere
gouerien
gouest
gouestl
gouestlet
gouet
gouez
goueza
gouezan
gouezas
gouezaz
goueze
gouezeleg
gouezelek
gouezet
gouezh
gouezhan
gouezhas
gouezit
gouezo
gougleiz
gouhere
gouian
gouie
gouiet
gouil
gouilieu
gouir
gouiziegez
gouiziegezh
gouiziek
goukoug
goularz
goulc
gould
gouleier
goulen
goulenn
goulennata
goulennet
goulennit
goulennomp
goulennou
gouli
gouliet
gouliou
goullo
goullonderin
goullou
goulm
goulmik
goulou
goulskoude
goulven
goulz
goulzgoude
goumoulen
goumpagnoun
goumpagnunez
goun
gounez
gounezerezh
gounezet
gounid
gounidou
gouniet
gounit
gounnar
gounta
gountaz
gour
gourach
gouraich
gourc
gourdoner
gourdrouz
gourdrouzet
gourdrouzou
gourel
gouren
gourenez
gourfenn
gourfennad
gourhæmen
gourin
gouriz
gourmandis
goursez
gourvez
gourvezet
gourvil
gousciance
gouscoude
gousk
gouske
gousket
gouspero
gousperou
gousquet
goust
goustad
goustadik
goustians
gousto
gout
gouvernement
gouvezout
gouzan
gouzanv
gouzanver
gouzanvet
gouzoud
gouzoug
gouzout
gov
goveliet
government
govez
govezion
gow
goya
goz
gozed
gozh
gozni
gp
gq
gr
gra
graal
grabanou
grac
grace
gracou
grad
gradlon
graer
graet
graf
gragez
graguez
graham
grall
grallon
gralon
gram
grammaire
grammar
grammy
gran
granada
grand
grande
grandes
grands
grant
granville
graou
gras
grasou
grasset
grassou
grateit
gratianus
grave
graves
gray
graz
gre
gread
greantel
greanterezh
great
greatest
greaz
grec
grecheneah
grechenion
gred
gredan
gredann
gredas
gredaz
grede
gredein
greden
gredenn
gredennou
gredent
greder
gredfe
gredi
gredin
gredit
gredo
gredont
gredus
greek
green
greene
greet
grefier
greg
gregach
gregam
gregi
gregin
gregoire
gregor
gregorian
gregorio
gregory
greis
greisteiz
greiz
greizenn
grek
gremm
gren
grena
grenada
grenadinez
grene
grenn
grennamzer
grennarded
grenoble
grenv
grenvaat
greomp
gres
gresian
gresianed
gresianeg
gresianek
gresk
greskas
greskaz
greske
greski
greskin
gresko
gresq
gret
greta
greun
greunland
grevus
grey
grez
gri
griaden
griadenn
grial
griaz
grid
gridi
grie
grik
grimm
gris
gristen
gristenez
gristenien
gristeniezh
grit
griz
groa
groas
groaz
groazig
groc
groe
groed
groeg
groeit
groes
groet
groez
grog
grogadou
grogas
grogaz
groge
grogenn
groningen
gronnet
grons
gros
grosso
grou
grouadur
grouadurien
grouas
grouer
groug
grouidigezh
grouin
group
groupe
groz
gruffudd
gruffydd
grusifi
græce
græceu
græt
gs
gt
gu
guadalupe
gual
guam
guardian
guatemala
guchenn
gudenn
gudennou
gue
gueach
guech
guechal
guechall
gued
gueffot
gueh
guehave
gueich
guel
guele
gueled
gueler
guelet
guelit
guell
guella
guellad
guellan
guellat
guelleit
guellet
guelloc
guelomp
guelout
guemen
guemense
guement
guemer
guemeras
guemeret
guen
guenan
guened
guenemb
gueneoc
gueneoh
gueneomp
guener
guenet
guengolo
guenic
guenn
guenoh
guenole
guenta
guenver
guer
guerc
guerent
guerin
guerra
guerre
guerrero
guerres
guers
guerz
guerza
guerzenneu
guerzet
guest
guet
guetan
guetou
guettan
gueu
guez
guglielmo
guharal
guhave
guichen
guide
guido
guieysse
guilcher
guillaume
guillerm
guillermo
guillome
guillou
guilmer
guin
guinidic
guinis
guir
guirhies
guirieu
guirion
guirione
guirioneeu
guirionez
guirioneziou
guirionezou
guiriou
guis
guise
guiskamant
guisket
guitaas
guitaat
guitaaz
guitar
guiteaz
gul
gularis
gumun
gumuniezh
gun
gundu
gundui
gup
gupta
gure
gurionne
gurionneeu
gurun
gurunen
gurunenn
gustaf
gustav
gustave
gustavo
gustum
gutenberg
guy
guyana
guyon
guz
guzat
guzet
guzh
guzhat
guzman
guzul
guzulerien
guzulier
guær
gv
gw
gwa
gwad
gwadek
gwadeloup
gwagenn
gwagennou
gwaien
gwal
gwalarn
gwalc
gwalen
gwalenn
gwalennou
gwall
gwalldaol
gwalldaoliou
gwallet
gwalleur
gwallgaset
gwallzarvoud
gwan
gwanaet
gward
gwarded
gwardou
gwareg
gwarez
gwarezet
gwarezin
gwarizi
gwarnizon
gwas
gwasa
gwasan
gwasg
gwashan
gwashoc
gwask
gwaskan
gwasked
gwasket
gwaskogn
gwasoc
gwastet
gwaz
gwazdoue
gwazed
gwazh
gwazi
gwaziou
gwe
gweach
gwech
gwechad
gwechall
gwechou
gwej
gwel
gweladennet
gweladennin
gwelan
gwelas
gwelaz
gwele
gweled
gweledvaou
gweleou
gweler
gwelet
gwelit
gweliz
gwell
gwella
gwellaat
gwellaet
gwellan
gwelloc
gwelomp
gwelout
gweltaz
gwen
gwenael
gwenan
gwenc
gwendal
gwened
gwenedeg
gwener
gwengamp
gwengolo
gwenholon
gwenn
gwenneg
gwenneien
gwennek
gwennik
gwennili
gwennola
gwennole
gwennoll
gwennou
gwenole
gwenrann
gwent
gwentan
gwenvenez
gwer
gwerc
gwerenn
gwern
gwernenez
gwernig
gwerniou
gwerz
gwerza
gwerzenn
gwerzennou
gwerzet
gwerzh
gwerzhan
gwerzhav
gwerzher
gwerzhet
gwerziou
gwes
gwesklen
gwestl
gwestlet
gweuz
gwevn
gwez
gweza
gwezen
gwezenn
gwezh
gwezhall
gwiad
gwiader
gwiadou
gwiana
gwidel
gwilen
gwilh
gwilherm
gwilhom
gwilhou
gwilioud
gwillerm
gwillou
gwilun
gwilym
gwin
gwinegr
gwini
gwinieg
gwiniz
gwinizh
gwinn
gwinver
gwion
gwir
gwiraour
gwirhenvel
gwirion
gwirione
gwirionez
gwiriou
gwirvoud
gwisk
gwiskad
gwiskamant
gwiskamantou
gwiskan
gwisket
gwitalmeze
gwitibunan
gwitreg
gwivan
gwiziegez
gwiziek
gwizien
gwladol
gwrac
gwragez
gwreg
gwregel
gwrez
gwrezverk
gwriat
gwrizienn
gwriziou
gwy
gwyn
gwynedd
gwyr
gx
gy
gyfer
gymraeg
gz
gær
h
h0
h1
h2
h3
h4
h5
h6
h7
h8
h9
ha
haad
haag
haarlem
haat
hab
habana
habask
habaskded
habil
habit
habitantet
habitants
habiten
habitenn
habsburg
hac
hachette
had
hada
hadan
hadeg
hadelez
haden
hadenn
hadennou
hader
hadet
hadou
hadour
hadourez
hadourezh
hadourien
hadrian
hadur
hae
hael
haer
haera
haeran
haet
hafe
hafren
hag
hagn
hagnet
hai
hail
hain
hainaut
hait
haiti
haj
hajou
hal
halaksienn
halan
halated
halc
halcyon
haldeed
haleg
halen
half
halia
halian
halianed
halir
hall
hallan
hallaoued
hallas
halle
halled
halleg
hallek
hallent
haller
hallez
hallfe
hallit
hallje
hallo
hallomp
hallont
halloud
halloudek
halloudus
hallout
hallus
halon
haloneu
halonou
haloun
halounou
haloupat
halv
halvar
halvas
halvaz
halve
halver
halvez
halz
ham
hama
hamant
hamarad
hambr
hamburg
hamilton
hamon
hamp
hampou
hampshire
hampton
han
hanamb
hanan
hanaouenn
hanaouennou
hanaouet
hanas
hanau
hanauedigueah
hanauein
hanauet
hanaz
hand
handbook
handelvou
hane
hanedigezh
hanel
haner
hanet
hangeul
hanhoc
hanhue
hanhuet
hani
hann
hannad
hannah
hanni
hannibal
hanno
hannover
hano
hanoc
hanod
hanoh
hanoiou
hanol
hanoliou
hanomp
hanon
hanot
hanoud
hanoun
hanout
hans
hant
hanta
hantel
hantener
hanter
hanterc
hanterenn
hanternoz
hanterouriezh
hantervoul
hantervreur
hantet
hantic
hantik
hantina
hantinat
hanton
hantved
hantvedou
hanu
hanv
hanvadurezh
hanval
hanvaz
hanver
hanvet
hanvezh
hanviou
hanvou
hao
haokaz
haol
haou
haout
hap
haper
happy
har
hara
harald
haran
harante
harantez
harbor
hard
hardel
hardi
hardinal
hardisegez
hardy
hare
harein
harek
haret
harg
hargou
hari
harid
haridik
harit
harlem
harlu
harluet
harmattan
harmon
harnez
haro
harold
haroz
harozed
harozez
harp
harpa
harpan
harpe
harper
harpercollins
harperien
harpet
harr
harris
harrison
harry
hars
hart
hartennou
harter
harteriou
hartou
harus
harv
harvard
harvey
harz
harzal
harzet
harzh
harzhal
harzou
has
hasas
hasaz
haset
haso
hass
hasset
hast
hasta
hastan
hastel
hastell
hastet
hastings
hastit
hastiz
hat
hata
hatalaneg
hatekiz
hatolikon
haus
haut
haute
hautes
hauts
hav
haval
have
havel
haven
haver
havet
havout
havr
haw
hawaieg
hawaii
hay
haz
hazeg
hazetenner
hazetennou
hazh
hb
hbw
hc
hcatholicon
hd
hded
hder
hdi
hdug
hdugez
he
head
heal
hear
heariou
heart
hearts
heat
heaul
heaven
heavy
heaz
heb
hebiou
hebken
hebraeg
hebraek
hebreed
hebreeg
hebreek
hebron
hec
hector
hed
hedal
heden
hedenn
hedou
hedvig
hedwig
heet
hef
heflusker
hefridi
heg
hegarat
heger
hegerien
hegezh
hegiezh
heheder
hehentin
hei
heian
heidelberg
heien
hein
heine
heinrich
heinz
heiz
heizez
hej
heja
hejan
hejet
hejo
hejou
hek
hektar
hel
hela
helaouennou
helavar
helc
helder
heleier
helen
helena
helene
helenn
helenner
helennou
helfe
heli
helias
heliet
helios
hell
hellan
hellann
hellas
hellaz
hellazat
helle
helled
hellehe
hellein
hellek
hellen
hellent
heller
hellet
helleur
hellez
hellfe
helli
helligou
hellimp
hellin
hellinn
hellint
hellit
hellje
hello
hellomp
hellont
hellot
hellou
hellout
helmut
helou
helsinki
helt
heltieg
hem
hema
heman
hemb
hembraeg
hemen
hemenaz
hemener
hemenet
hemenn
hemennas
hemennaz
hemenne
hemennet
hemenno
hemennou
hemenou
hement
hementad
hemer
hemeraz
hemeret
hemingway
hemm
hemmadur
hemmou
hemolc
hemon
hemp
hen
hena
henad
henaff
henamzer
henan
henaoured
henbont
henc
hencha
henchan
henchet
henchou
hend
hendad
hendadou
hendalc
henderc
henderson
henderv
hened
henegipt
henel
heneliezh
heng
hengevread
hengoun
hengounel
hengouniou
henhebraeg
henidik
heniwerzhoneg
henlabour
henn
hennan
henned
henneh
hennes
hennet
hennez
hennezh
henniezh
hennou
heno
henor
henoret
henori
henoriou
henou
henoz
henri
henriette
henroma
henry
hensaozneg
hensonennou
hent
henta
hentad
hentan
hentchou
henteliou
hentenn
hentennou
henteu
hentez
hentou
henvel
henvelanvet
henvelrevelezh
henvelster
henver
henvrezhoneg
henvrezhonek
henvroidi
henvroiz
henwerzh
heo
heol
hep
hepdale
hepken
hepmuiken
hepqen
hepquen
her
hera
herakles
herault
herbenn
herberc
herbert
herc
herder
herdin
here
hered
heren
herent
herentiad
heretik
heretiked
herez
herezh
herghest
heriadennou
heriadur
heriaoueg
herien
heriou
heritach
heritage
heritour
heritourien
herman
hermaned
hermanek
hermann
hermes
hermine
hermione
hermitage
hern
hernandez
herneveureg
herniel
hero
herodes
herodez
herodotos
heroes
herouville
herr
herreg
herrek
herri
herria
herrieu
herrio
herriou
herry
hersart
herve
hervel
herves
hervez
hervezan
hervezo
herzegovina
herzel
hes
hesiodos
hesk
heskinet
heskob
heskop
heskopti
hessen
hestell
het
heta
hetaer
hetan
hetin
hettan
hetuz
heu
heug
heuil
heuilh
heuilhet
heuill
heuillet
heul
heulia
heuliad
heuliadenn
heuliadou
heulian
heulias
heuliaz
heulie
heulierien
heuliet
heulio
heuneud
heur
heure
heures
heuriou
heurus
heus
heuz
heuzuz
hevandir
hevel
heveleb
hevelep
hever
heverk
hevier
hevre
hevread
hevred
hevredad
hevredigezhiou
heydrich
hez
hezan
hezec
hezed
hezeg
hezek
hezoug
hf
hfe
hg
hh
hhouarner
hi
hia
hiad
hiadur
hian
hias
hiberni
hic
hichen
hid
hidalgo
hidi
hidigez
hidigezh
hidrogen
hiek
hien
hienn
hiennou
hier
hiet
hiezh
hig
higed
higennou
higer
higgins
high
hik
hikan
hiko
hilaire
hildburghausen
hilhog
hili
hiliber
hill
hilleih
hills
him
himalaya
himalayek
himiad
himiour
himmler
hin
hindeg
hindi
hini
hinienn
hiniennel
hiniennou
hinihue
hinivelez
hinn
hinnig
hinou
hint
hiou
hip
hippolyte
hir
hiraat
hiragana
hiran
hirc
hirder
hirie
hirin
hirinded
hirined
hirio
hiriv
hiroc
hiron
hiroshima
hirr
hirra
hirri
hirroc
hirundo
hirvoud
hirvoudi
hirvoudou
his
hispania
hispaniola
hist
histoar
histoire
histoires
histor
historia
historical
historique
historiques
history
hit
hitler
hiver
hiviziken
hiz
hizeller
hizhier
hizien
hizio
hiziv
hj
hjont
hk
hl
hlac
hlan
hlanded
hlann
hlanvour
hlas
hlask
hlasker
hlasou
hlav
hlaz
hlazenn
hleier
hlemmou
hlenn
hlenved
hlenvedou
hlenvejou
hlenvet
hlerg
hleub
hleuz
hleuziou
hleve
hlevet
hlevout
hleze
hlezeier
hlin
hloar
hloarec
hloareg
hloarek
hloastr
hloc
hlodwig
hloer
hloerdi
hlopenn
hlorifia
hlub
hm
hmad
hmat
hn
ho
hoad
hoadegi
hoadeier
hoadou
hoaf
hoah
hoai
hoaid
hoajou
hoal
hoalen
hoan
hoand
hoant
hoanta
hoantaas
hoantaat
hoantae
hoantaet
hoantea
hoanteaz
hoantegesiou
hoantou
hoanvin
hoar
hoarezed
hoari
hoarias
hoarie
hoarier
hoarierez
hoarierien
hoarierion
hoariet
hoarieu
hoarigan
hoariganerez
hoario
hoariou
hoariva
hoarveet
hoarvez
hoarvezas
hoarvezaz
hoarveze
hoarvezet
hoarvezfe
hoarvezo
hoarvezoud
hoarvezout
hoarz
hoarze
hoarzh
hoarzhin
hoarzin
hoas
hoat
hoaz
hoazez
hoazh
hobbit
hober
hobregonet
hoc
hoch
hod
hodel
hodell
hodgson
hoed
hoef
hoel
hoell
hoereset
hoes
hof
hoffmann
hog
hogen
hoghen
hogos
hogozik
hoguen
hoh
hohenzollern
hokanek
hol
hola
holbein
holden
hole
holen
holl
hollad
holland
hollek
hollou
holloueziadur
hollsent
hollved
hollvedel
hollvrudet
hollywood
holmes
holo
holoe
holofern
holstein
holy
hom
homan
homandant
homb
hombat
hombod
home
homer
homeros
homiser
homme
hommes
hommonwealth
homo
homp
hompezennou
hompren
homsou
homt
homz
homziou
homzou
hon
honcil
honda
honddu
honduras
honest
honestis
hong
honid
honnes
honneur
honnez
honnezh
honor
honore
honorius
honseil
honsil
honsul
hont
hontadennou
hontrel
hontrol
honzeu
hood
hop
hopal
hopas
hope
hopkins
hopper
hopr
hor
hora
horais
horaiz
horan
horeaneg
horf
horfad
horfou
horn
hornad
hornaoueg
hornek
horniou
hornog
horolaj
horonal
horre
horread
horreur
horrig
horrol
horrubl
hors
horse
hortos
hortoz
hortoze
horus
horv
hos
hosa
hospital
hospitaliou
hostaleri
hostaliri
hoste
hostez
hosti
hostiv
hostivou
hostiz
hot
hoted
hotel
hou
houad
houarn
houarnamant
houarnet
houarnour
houblad
houc
houd
houde
houdevez
houe
houeac
houec
houeder
houek
houel
houenchou
houenon
houent
houer
houere
houero
houes
houesiou
houest
houevrer
houez
houeza
houeze
houezek
houezen
houezet
houezi
houeziou
houfe
houg
houghton
houi
houidi
houie
houient
houitell
houl
houlaouen
houlaouenn
houlen
houlenn
houlennan
houlennann
houlennas
houlennaz
houlenne
houlennent
houlenner
houlennet
houlennit
houlenno
houlennomp
houlennont
houlennot
houlennou
houliou
houll
houlou
houls
houlz
houlzad
houma
houman
houmoul
houn
hounez
hounezas
hounezaz
houneze
hounezo
hounid
hounit
hounnez
hount
hountrol
hour
hourc
hourdrouz
hourien
houriz
hourrier
hourvez
hous
house
housk
housked
houst
houstians
houstianz
hout
houzan
houzanv
houzanvas
houzanve
houzoc
houzomp
houzont
houzoud
houzoug
houzout
hov
hovezour
how
howard
hoz
hozael
hozh
hoziad
hp
hpenn
hq
hr
hra
hrabanou
hrac
hracou
hrad
hraet
hragez
hrank
hrant
hraou
hras
hrasou
hraz
hre
hreat
hrec
hrechen
hred
hreden
hredennou
hredi
hredit
hreg
hregin
hrei
hreisteiz
hreiz
hrek
hren
hrennard
hrennvrezhoneg
hrenvlec
hrer
hres
hresian
hresianed
hresianeg
hresianek
hresk
hresteiz
hret
hreunen
hri
hrign
hrim
hrist
hristen
hroaidur
hroaz
hroaziou
hroc
hrog
hrogad
hronik
hrouadur
hroueour
hrouer
hrouet
hrsg
hræce
hræceu
hs
hskeudenn
hskeudenner
hskeudennin
hskeudennou
hstan
ht
hted
htm
html
htro
http
https
htu
hu
huanad
huanadi
huanadou
hubert
hubet
huchal
hud
hudennou
hudour
hudson
hudur
huec
hueh
huel
huela
hueler
huelet
huella
huelloc
hueloc
huero
hues
huez
hugennou
hugh
hughes
hugo
hugues
hui
huirione
hul
hum
human
humbl
humble
humboldt
hume
humen
humilia
humiliet
humilite
humor
humun
humuniezhiou
humuniou
hun
hunan
huned
hungarat
hungareg
hungaria
hunt
hunter
hunvre
hunvreal
hunvreou
huon
hur
hure
hurun
hurunen
hus
hussein
hustum
huvre
huw
huy
huz
huzh
huzul
huzulier
huzuliou
hv
hved
hvet
hvien
hw
hwec
hweder
hwek
hwel
hwen
hwerv
hwevrer
hwez
hwezan
hwezek
hwezh
hwezhan
hwezhet
hwezin
hwi
hwil
hwiled
hwitadenn
hwitellat
hwitet
hwytyn
hx
hy
hyacinthe
hydrornis
hyginus
hymn
hywel
hz
hæ
i
i0
i1
i2
i3
i4
i5
i6
i7
i8
i9
ia
iac
iad
iaith
ialc
ian
iann
iannic
iannig
iannik
iaou
iaouan
iaouanc
iaouang
iaouank
iaouanka
iaouankik
iaouankiz
iar
ib
iberek
iberia
ibid
ibil
ibiz
ibn
ibrahim
ic
ice
ich
ici
id
ida
idan
idem
identelezh
ideologiezh
ido
idol
idolatri
idolou
idou
idris
ie
iea
ieas
ieaz
iec
iehann
iei
iel
ielo
ien
ienien
ieo
ier
ies
ieuan
iez
if
ifan
ifern
iferniou
ig
ign
ignacio
ignas
ignoranc
ignorant
ih
ihuel
ihuern
ii
iiet
iii
iiide
iiie
iiiet
iit
iivet
ij
ije
ijin
ijinadenn
ijinadennou
ijinan
ijinas
ijiner
ijinerez
ijinerezh
ijinet
ijinour
ijinourien
ik
il
ildefonso
ildut
ile
iles
ilh
ilha
ilias
ilin
ilinad
ilis
ilisieu
ilisou
iliz
ilizo
ilizou
illa
ille
illinois
illit
illustrated
ils
iltud
im
imach
imachou
image
images
imbourc
imdb
imita
imitation
imor
imp
impalaer
impalaerded
impalaered
impalaerel
impalaerez
impalaerezh
impalaerien
impalaeriezh
impi
imple
implij
implija
implijas
implije
implijer
implijerien
implijet
implijidi
implijou
implijout
important
impossible
impossubl
impression
imprimerie
impur
impurete
imur
in
ina
inc
incarnation
inclination
inclinationeu
inclinationou
ind
indan
independent
index
indez
indezeuropek
india
indian
indiana
indianapolis
indianed
indicator
indicus
indign
indo
indonezeg
indonezia
indre
indul
induljance
induljansou
industriezh
indycar
ine
inean
ineanneu
inemp
ineo
ineou
ines
infam
infant
infantez
infantry
inferieure
inferior
infini
infinimant
infinit
info
infobretagne
information
ingal
ingalan
ingalet
ingeborg
ingorto
ingrat
ingrateri
ini
inis
inisan
inizan
inizi
injur
injust
inka
inkane
inkin
inn
innocant
ino
inosant
inou
inour
inourein
inouret
inourieu
insee
inside
inspiration
inspirationou
inspiret
instant
instituet
institut
institute
instituto
instruction
instructioneu
instructionou
instruet
instrui
int
intantion
intanv
intanves
intanvez
intanvezed
intanvezet
intel
intelligence
intent
intention
inter
interamant
intercession
interest
interet
interieur
interior
interlingua
intermedia
international
internationale
internet
interret
interview
into
introduction
intron
introun
intru
intrudu
inuktitut
inutil
invisibl
io
ioa
ioc
iod
iolo
ion
iona
iorwerth
iou
ioual
iouank
iouc
ioul
ioulou
iowa
ip
ipa
iparralde
ippolito
iq
ir
ira
irak
iran
iranek
iraq
ireland
irene
irien
irienn
irish
irland
irlande
irma
iron
irvi
irvin
is
isaac
isabel
isabella
isabelle
isaf
isai
isaias
isbn
isere
isidor
iskerentiad
iskevandir
iskis
iskiz
isla
islam
islamek
island
islandeg
islands
islavarenn
isle
islonk
ismael
iso
ispicial
ispisial
isprefeti
isprit
israel
israelat
israelited
isrannet
issahara
isskourr
issn
isspesad
ist
istanbul
istim
istimet
istor
istorel
istoriou
istorour
istorourien
istribilh
isurzhian
it
itali
italia
italian
italiana
italianed
italianeg
italianek
italiano
italy
iter
itre
itron
itronezed
itroun
its
iu
iucn
iud
iudal
iun
iune
iupac
iuzevien
iv
ivan
ive
iverzon
ives
ivet
ivez
ivi
ivin
ivinou
ivon
ivona
ivonig
ivvet
iw
iwan
iwe
iwerzhon
iwerzhonat
iwerzhoneg
iwerzhonek
iwerzhoniz
iwerzon
iwerzoneg
iwerzonek
iwerzoniz
ix
ixvet
iy
iz
izaak
izabel
izel
izela
izelaat
izelan
izeloc
izelvroat
izelvroeg
izelvroek
izelvroiou
izelvroiz
izidor
izili
izold
izom
izotop
izotopou
iɲ
j
j0
j1
j2
j3
j4
j5
j6
j7
j8
j9
ja
jabadao
jac
jack
jackie
jackson
jacob
jacobs
jacopo
jacq
jacqueline
jacques
jadennou
jaffa
jaffre
jaffrennou
jafrez
jahinet
jaime
jakes
jakez
jakob
jakou
jalm
jam
jamaika
jamais
james
jamin
jamæs
jan
jane
janed
janedig
janedik
janeiro
janet
janig
jann
janned
jannedig
jannedik
jannet
january
janvier
jaoua
jaouen
japan
japanat
japaneg
japanek
japanese
japaniz
japon
jardin
jardinn
jarl
jarlig
jason
jauge
jaune
java
jave
javier
javre
jawa
jay
jazz
jb
jc
jd
je
jean
jeann
jeanne
jeant
jec
jed
jedet
jedin
jedoniezh
jedoniour
jef
jeff
jefferson
jeffrey
jehan
jemp
jen
jench
jeneral
jeneraled
jenkins
jenovefa
jent
jentil
jentiled
jeremi
jeremias
jeriko
jermen
jeroboam
jerom
jerome
jerry
jersey
jerusalem
jeruzalem
jerzenez
jes
jesse
jesu
jesus
jet
jeu
jeune
jeunes
jeunesse
jewish
jezegou
jezuist
jezuisted
jezus
jezuz
jf
jg
jh
ji
jibraltar
jil
jili
jilig
jim
jimenez
jimmy
jin
jing
jistr
jj
jk
jl
jm
jn
jo
joa
joab
joachim
joaiou
joakim
joan
joanna
joao
joaquin
joas
joaus
job
jobig
joc
jod
joe
joel
joentein
joentet
johan
johann
johanna
johannes
john
johnny
johnson
johnston
joie
joint
joinville
jojeb
jolie
jolori
jom
jomas
jomaz
jome
jomm
jomme
jomo
jomp
jon
jonas
jonatas
jonathan
jones
jong
jont
joram
jord
jordan
jordania
jordi
jorge
jorj
jorjia
jorjianeg
jorjieg
jos
jose
josef
josep
joseph
josepha
josephine
josias
josilin
josue
jouan
jouissa
joumaz
joume
jour
jourdan
jourden
journal
journey
jours
jout
joy
joyce
jozafat
jozeb
jozef
jozeph
jozue
jp
jpg
jq
jr
js
jt
ju
juan
juana
juarez
jubainville
jubile
jud
juda
judas
judaz
jude
judea
judee
judevien
judikael
judit
judith
judual
juge
jugeamant
jugein
jugemant
jugemanteu
juillet
juin
jul
jules
julia
julian
juliana
julich
julie
julien
julio
julius
jullian
juluan
july
june
junger
junior
juniper
jupiter
jura
jure
juri
jusevien
jusqu
jussieu
just
justic
justice
justices
justifiet
justin
justinian
justis
justiz
jv
jw
jx
jy
jz
k
k0
k1
k2
k3
k4
k5
k6
k7
k8
k9
ka
kab
kabac
kabell
kabiten
kablus
kabluz
kac
kachmir
kad
kadarn
kadarnaat
kadarnaet
kado
kador
kadored
kadoriad
kadoriou
kadou
kadoudal
kadour
kae
kaer
kaera
kaeraet
kaeran
kaero
kaeroc
kaesar
kaez
kaezar
kaezh
kafe
kafka
kai
kaier
kain
kala
kalc
kaled
kaledet
kaledonia
kalet
kaletoc
kalif
kalifornia
kallag
kalloc
kalloud
kalon
kalonad
kalonek
kalonou
kaloun
kalounek
kalounou
kals
kalvar
kalvez
kalz
kalzig
kalzik
kam
kambodja
kambr
kameroun
kamm
kammed
kamp
kampagn
kampion
kampionad
kampionez
kampou
kampr
kan
kana
kanaan
kanab
kanada
kanadian
kanan
kanaouen
kanaouenn
kanaouennou
kanariez
kanas
kane
kaner
kanerez
kanerien
kanet
kanfarded
kanit
kann
kannad
kannaded
kannadig
kannan
kannet
kanol
kanolierezh
kanoliou
kanomp
kanou
kansas
kanseller
kant
kantadou
kantik
kantikou
kanton
kantoniou
kantrev
kantved
kantvedou
kantvet
kanv
kanvou
kaoc
kaokaz
kaokazek
kaol
kaon
kaoud
kaouenn
kaourintin
kaout
kaoz
kaozeal
kaozeet
kaoziou
kap
kappadokia
kar
karabac
karaez
karan
karante
karantez
karantezus
karantezuz
karbedou
karbon
kardinal
kare
karel
karen
karet
karez
karfe
karfec
karfen
karg
karga
kargan
karget
kargou
karib
karibek
karie
karin
karintia
karit
karje
karl
karlsruhe
karmel
karmez
karn
karnag
karnoed
karo
karolina
karoline
karomp
karoud
karout
karozh
karr
karreg
karrek
karrez
karta
kartada
kartenn
kartennou
karter
karteriou
kartou
karv
kas
kasas
kasaus
kasaz
kase
kased
kaset
kasi
kasit
kasjont
kaso
kasoni
kasouni
kass
kassaz
kassel
kasset
kast
kastel
kastell
kastellin
kastilha
kastilhaneg
kastiz
kastiza
kastizan
kastizet
kat
katakana
katalan
katalaneg
katalanek
katalog
katalonia
katarina
kate
katekiz
katel
katelin
katell
katellig
katharina
katholik
kato
katolik
katoliked
kaup
kav
kavan
kavas
kavaz
kave
kaved
kavell
kavent
kaver
kavet
kaveur
kavi
kavit
kavjont
kavo
kavomp
kavont
kavot
kavout
kaz
kazac
kazakstan
kazeg
kazel
kazetenn
kazetenner
kazetennerez
kazetennerien
kazetennou
kazh
kazi
kb
kbsa
kc
kd
ke
kea
keal
kear
keaz
kebek
ked
kedez
kef
keflusker
kefluskeriou
kefridi
kefridiel
kefridiou
kegin
keginer
kehentin
keid
kein
keit
keitat
keith
keiz
kej
kejan
kejas
kejet
kel
kelaouenn
kelaouenner
kelaouennou
kelaouin
kelc
keleier
kelen
kelenn
kelennadurez
kelennadurezh
kelennas
kelenne
kelenner
kelennerez
kelennerien
kelennet
kelien
keller
kelly
kelo
kelou
kelt
kelted
keltia
keltiat
keltieg
keltiek
kember
kemberin
kembraeg
kembraegerien
kembraek
kembre
kembreat
kembreiz
kemen
kemend
kemener
kemenn
kemennet
kement
kementad
kementse
kemer
kemeras
kemeraz
kemere
kemeret
kemerit
kemerjont
kemeromp
kemeroud
kemerout
kemm
kemmadur
kemman
kemmas
kemmesk
kemmeskan
kemmesket
kemmet
kemmou
kempen
kempenn
kempennet
kemper
kemperle
kemplezh
kempouez
kempred
ken
kenan
kenaozet
kenavezo
kenavo
kendalc
kendelc
kenderc
kenderv
kendeuzet
kendeuzin
kendrec
kened
kenetreze
kenetrezo
kengevread
kengevreet
kenglad
keniterv
kenkent
kenkiz
kenkoulz
kenlabour
kenlabouras
kenlabourat
kenlabouret
kenn
kennebeut
kennedy
kenneth
kennig
kenniga
kenniget
kenofisiel
kenou
kenseurtez
kenskrivet
kensonenn
kensonennel
kensonennou
kenstrivadeg
kenstrivadegou
kent
kenta
kentael
kentan
kentanv
kenteh
kentel
kenteliou
kentoc
kentucky
kenunaniezh
kenver
kenveria
kenverian
kenveriet
kenvreuriez
kenwerzh
kenwerzhel
kenya
keoded
keodedel
keodedou
keodedour
keodedourien
ker
keraat
kerangal
kerarborn
kerbalanek
kerbenn
kerc
kerdin
kerdiz
kerdu
kere
keren
kerent
kerentiad
keret
kerez
kergidu
kergrist
kergustentin
kerhet
kerhuon
keriadenn
keriadennou
keriou
keriz
kerjean
kerken
kerkent
kerkouls
kerkoulz
kerlaban
kerlo
kermoal
kern
kerne
kernev
kerneveureg
kerneveurek
kerniel
kernow
kerofis
keroulaz
kerrain
kerreg
kers
kerse
kervarker
kervarzin
kervel
kervella
kervoura
kerz
kerzet
kerzh
kerzhet
kerzhout
kerzit
kerzout
kerzu
kerzuliek
kes
kest
kestal
kestell
ket
keun
keuneud
keuneut
keuneuta
keuz
kev
kevanaozet
kevandir
kevandirel
kevatal
kever
kevezadeg
kevezerezh
kevig
kevin
kevnid
kevre
kevread
kevreadel
kevreadurezhel
kevredad
kevredadel
kevredadou
kevredet
kevredigez
kevredigezh
kevredigezhel
kevredigezhiou
kevreet
kevrenn
kevrennek
kevret
kevrin
kevrinus
key
kez
kezar
kezeg
kezek
kf
kg
kh
khan
khm
ki
kian
kib
kiberen
kichen
kichenik
kichenn
kiel
kiev
kig
kigdebrer
kigenn
kigennou
kiger
kignat
kignet
kik
kil
kilan
kilhog
kill
kilometr
kim
kimerc
kimiad
kimiada
kimiek
kimiezh
kimiour
kin
kinder
king
kingdom
kings
kingston
kinklan
kinklet
kinnig
kinnigas
kinniget
kinnigou
kintin
kiprenez
kirby
kirgizstan
kiribati
kiriek
kirillek
kirit
kirk
kirri
kirvi
kis
kiss
kistin
kistreberzh
kit
kitts
kivoron
kiz
kizeller
kizellet
kizhier
kizidik
kj
kjk
kk
kl
klan
klanv
klaoda
klaodinaig
klaoustre
klara
klas
klasel
klask
klaskas
klaske
klasker
klasket
klaskit
klasou
klaus
kle
kleier
klein
kleiz
klemans
klemant
klemm
klemmou
klenved
klenvedou
klenvejou
kleo
kleopatra
klerg
klet
kleub
kleuz
kleuzan
kleuzet
klev
klevas
klevaz
kleve
kleved
klever
klevet
klevit
kleviz
klevout
klewas
klewet
kleze
klezeier
klison
kloar
kloareg
kloarek
kloc
klod
kloerdi
klok
klopenn
klot
klotaat
klotan
klouar
klovis
kloz
klozan
klozet
klub
kluchan
km
kn
knight
know
knut
ko
koad
koadeg
koadegi
koadeier
koadou
koajou
koan
koanian
koant
koantik
koantoc
koar
koat
koc
koch
kod
kodet
kodianan
koed
kof
koh
kolaig
kolier
koll
kollas
kollet
kollou
koln
kolo
kolombia
kolombian
komandant
komans
komanset
komark
kombod
komedienn
komer
komiser
kommunia
komor
komorez
kompagnunez
kompagnunezh
kompez
kompezenn
kompezennou
kompren
komprenet
koms
komsou
komunour
komz
komza
komzaz
komze
komzer
komzet
komziou
komzit
komzo
komzou
kon
konan
konchennou
kondaonet
kondt
konfort
konfusius
kong
kongo
kongoek
konigsmarck
konikl
konk
konrad
konsakret
konsevet
konsil
konstans
konstantin
konstantinopl
konsul
konsuled
kont
konta
kontadenn
kontadennou
kontammet
kontan
kontant
konted
kontelezh
kontelezhiou
kontell
konter
kontet
kontez
kontrol
kontrollet
konwoion
konz
kopenhagen
kor
korantin
kordenn
korea
korean
koreaneg
korf
korfad
korfadurezh
korfou
korn
kornad
kornaoueg
kornek
korniou
kornog
kornogel
kornok
koroll
korollerez
koronal
korr
korrig
korseg
korsika
korvoin
korz
kos
kosa
koshaat
koshan
koshoc
koskoriad
kosoc
kosovo
koste
kostez
kostezenn
koublad
kouchitek
koueet
kouenchou
kouent
kouer
kouerien
kouevr
kouez
koueza
kouezan
kouezas
kouezaz
kouezet
kouezh
kouezhan
kouezhas
kouezhet
kouh
koukiek
koukoug
koulm
kouls
koulskoude
koulz
koulzad
koulzgoude
koumanant
koumoul
koumpagnunez
koumpren
koun
kounac
koundaonet
kounje
kounnar
kounnaret
kount
kounta
kountet
kountrol
kourc
kouronkan
kousk
kousket
kouskoude
koust
koustet
koustians
kousto
kovez
koweit
koz
kozh
kozhan
kp
kq
kr
krabanou
kraj
krak
krakow
krampouez
krampouezh
kranked
kraon
kraou
kraouian
kraozon
kras
kraz
kre
kreac
krec
kred
kredabl
kredas
krede
kreden
kredenn
kredennou
kreder
kredet
kredi
kredin
kredit
kregi
kregin
kreis
kreiste
kreisteiz
kreiz
kreizafrikan
kreizamerika
kreizdouar
kreizdouarek
kreizdouarel
kreizenn
kreizennet
kreizennou
kren
krena
krenan
krenn
krennamzerel
krennard
krennarded
krennet
krennlavar
krennvrezhoneg
krennvrezhonek
krenv
krenvaat
krenvaet
krenvan
krenvlec
krenvoc
kresk
kreskas
kreske
kresket
kreski
kreskin
kreta
krevoc
krez
kri
krial
kridi
krign
krigner
krignerien
krignet
krimea
krin
krisoc
krist
kristen
kristenez
kristenien
kristian
kristina
kristof
kristol
kriu
kriz
kroateg
kroatia
kroaz
kroaziadeg
kroaziou
kroc
krog
krogad
krogadou
krogas
kroget
krogit
kromm
kronologiezh
krouadur
krouas
krouer
krouerien
krouet
krouget
krouidigezh
krouin
kroz
krozal
krozon
ks
kt
ku
kuba
kuban
kubrick
kudenn
kudennou
kuit
kuitaas
kuitaat
kuitaet
kuitat
kumun
kumuniezh
kumuniezhiou
kumuniou
kun
kunsthistorisches
kunv
kurdeg
kurdistan
kure
kurt
kurun
kurunen
kurunenn
kurunennet
kurunet
kush
kustentin
kustum
kuz
kuzat
kuzet
kuzh
kuzhat
kuzhet
kuzul
kuzulerien
kuzuliadeg
kuzulier
kuzuliou
kv
kw
kwele
kwelet
kwelout
kwit
kx
ky
kyiv
kymwt
kyoto
kz
kzu
kær
kɑ
kɔ
kɔn
kɛ
l
l0
l1
l2
l3
l4
l5
l6
l7
l8
l9
la
lab
laban
label
laboratory
labour
laboura
labourad
labouradeg
labouradegou
labouras
labourat
labouraz
laboure
labourer
labourerien
labourerion
labouret
labourieu
labouriou
labourit
labouro
labouromp
labourou
labous
laboused
labrador
lac
laca
lacaat
lacad
lacai
lacat
lacroix
lady
lae
laer
laeres
laeret
laerez
laerezh
laeron
laeronsi
laeroun
laez
laezh
laffont
lagad
lagadeg
lagadennou
lagoa
lagos
lahet
laine
lair
lajat
lak
laka
lakaad
lakaas
lakaat
lakad
lakae
lakaer
lakaet
lakafe
lakai
lakaio
lakait
lakaje
lakas
lakat
lakaz
lake
lakea
lakeas
lakeat
lakeaz
lakeet
lakeit
lakejont
lakeomp
laker
laket
lakez
lakit
lako
lakomp
lam
lama
lambal
lambaol
lambert
lamborghini
lamet
lamm
lammas
lammat
lammaz
lamme
lammet
lammig
lammou
lamp
lan
lancashire
lancaster
lance
lancelot
land
lande
landerne
landes
landevenneg
landevennek
landivizio
landreger
lane
lang
langach
langage
langleiz
langoned
language
languages
langue
langues
lanig
lanius
lanka
lann
lannarster
lanneg
lanneier
lannevern
lannig
lannion
lannuon
lans
lanset
lanv
lanzeon
lao
laon
laorans
laos
laosk
laoskas
laoskaz
laosket
laou
laoudour
laouen
laouena
laouenaat
laouenai
laouenan
laouenedigez
laouenidigez
laouenn
laouer
laouig
laouik
lapin
lapineta
laporte
lapous
lapoused
lapurdi
laq
laqat
laqet
laqit
laqua
laquad
laquas
laquat
laqueet
laquei
laqueit
laquet
lar
lara
larai
laran
larann
laras
laraz
lard
larda
lare
larer
laret
large
largentez
larin
larkoc
laro
larou
larousse
larout
larry
lart
larus
las
laser
lasou
last
lastez
lat
late
latin
latina
latinaat
latinekaet
latran
latveg
latvia
lauda
lauenburg
laura
laure
laurence
laurent
lausanne
lausq
lausquet
laval
lavar
lavaran
lavarann
lavaras
lavarat
lavaraz
lavare
lavared
lavaren
lavarenn
lavarent
lavarer
lavaret
lavarez
lavarfe
lavarfen
lavarin
lavariou
lavarit
lavarjont
lavaro
lavaromp
lavaront
lavarou
lavaroud
lavarout
lavnenn
law
lawrence
laws
lay
laz
laza
lazan
lazar
lazaz
laze
lazer
lazerez
lazet
lazh
lazhadeg
lazhadeget
lazhadegou
lazhan
lazhas
lazhet
lazio
lazo
lazou
lb
lc
ld
le
lea
leac
leach
league
leah
leal
lealded
lealdet
lean
leandi
leaned
leanes
leanez
leanezed
leaz
leben
lec
lech
leclerc
led
leda
ledan
ledanaat
ledanaet
ledander
ledanoc
ledas
ledenez
ledet
lee
lefebvre
lefournier
left
legend
legende
legendes
leger
legio
legion
legitim
legumaj
leh
lehieu
lei
leian
leiden
lein
leina
leinan
leine
leinet
leinster
leipzig
leiz
leizh
lejion
lejionou
lekea
lekead
lekeat
lekeaz
lekejon
lekejont
lekeot
lem
lemel
lemet
lemm
lemoine
lemojez
len
lena
lengua
lenin
leningrad
leninour
lenn
lennas
lenne
lenneg
lennegel
lennegez
lennegezh
lenneien
lenner
lennerien
lennet
lennit
lenno
lennomp
lennon
lennou
lens
lent
lenv
lenva
lenvan
leo
leon
leonard
leonardo
leone
leoned
leonor
leopold
leor
leorik
leoriou
leou
lepus
lequeat
lequeer
lequeet
ler
lerc
lerenn
leret
lerh
lern
lerolle
leroux
leroy
les
lesanv
lesanvet
lesanviou
lesel
lesen
leshanvet
leski
leslie
lesneven
lesotho
lesson
lest
lester
lestr
let
letanant
letern
leti
letters
lettre
lettres
leu
leue
leueou
leun
leunia
leunian
leuniet
leur
leuren
leurenn
leurger
leuriou
leurs
leuskel
leusket
lev
leve
levenez
leveou
lever
leverchon
leverer
leveret
leverez
leverjont
leveromp
leveront
leverot
leverrot
levezon
levezonet
levi
levian
levier
levierez
levited
levr
levraoueg
levrdi
levrenn
levrig
levriou
levrlennadur
levy
lew
lewis
lexique
leyden
lez
lezas
lezaz
leze
lezel
lezen
lezenn
lezennel
lezennin
lezenno
lezennou
lezer
lezet
lezhanvet
leziou
lezirek
lezit
lezo
lezobre
lezomp
lezvamm
lezvarn
lezvarnel
lezvreur
lf
lfe
lg
lh
li
lia
liam
liamm
liamman
liammet
liammou
lian
liard
liban
libanus
liber
libera
liberal
liberation
liberia
libertad
liberte
libertin
libia
libr
librairie
library
libre
libri
libro
lid
lida
lidan
lide
lidel
liderezh
lidet
lidou
liechtenstein
liege
lien
lienn
lies
liesder
liesseurt
liester
lieu
lieux
liez
life
liger
light
ligne
lignez
ligue
liguria
lijer
lik
like
likid
likiinn
likit
lili
lilien
lille
lima
limage
limbourg
limbourgeg
limestra
limites
lin
lincoln
linda
line
linea
linenn
linennou
lingua
linguistics
linguistique
linnaeus
linne
linsel
linux
linvenn
lion
lionel
liors
liorz
liorzh
liorzhou
liorzou
liou
lip
lipat
lippe
liquit
lire
lirzin
lisa
lisboa
lisbon
lise
lisieux
list
listenn
listennad
listri
lit
litaniou
literatura
literature
litr
litrad
litteraire
litterature
little
lituaneg
lituania
liu
liv
livadur
livaduriou
livan
livas
live
livenn
liveou
liverezh
liverpool
lives
livet
livia
living
liviou
liviri
livirin
livirinn
livirit
livius
livour
livourez
livourien
livr
livre
livres
livret
livreu
lizer
lizeren
lizerennou
lizeri
lizeriou
lizerou
lizher
lizherenn
lizherenneg
lizherennou
lizherou
lizhiri
liziri
lj
lk
ll
llan
llanafan
llanandras
llanarmon
llanbadarn
llanbister
llanbryn
llanddewi
llandinam
llandrindod
llandrinio
llandysilio
llanelwedd
llanerfyl
llanfair
llanfechain
llanfihangel
llanfrynach
llanfyllin
llangadfan
llangadwaladr
llangamarch
llangatwg
llangedwyn
llangors
llangurig
llangynidr
llangynllo
llangynog
llangynyw
llanidloes
llanigon
llanllugan
llanllyr
llanrhaeadr
llansanffraid
llansantffraed
llansilin
llanwddyn
llanwrin
llanwrthwl
llanwrtyd
llanwyddelan
llanymynech
lleoedd
llogel
llorona
lloyd
llwyd
llwydiarth
llyfr
llyn
llys
llythynwg
llywarch
llywel
llywelyn
lm
ln
lo
loa
load
loaiou
loan
loaned
loar
loarell
loarenn
loarennou
loc
loch
lochen
lochenn
locus
lod
lodeg
lodek
loden
lodenn
lodennet
lodennou
loeiz
loeiza
loen
loened
loenet
loenig
loennet
loenoniezh
loenoniour
loerou
log
logigou
logo
logod
logodenn
logunec
loi
loic
loir
loire
loiret
lois
loiz
loj
loja
lojan
lojeiz
lojet
lok
lokeored
lokmaria
lokournan
lokrist
lola
lolfa
loloek
lom
lombard
lombarded
lombardia
lomig
lomm
lon
london
londres
londrez
long
lonk
lonka
lonkan
lonket
lonned
lonnet
look
lope
lopez
lor
lorans
loranz
lorc
lord
lore
loreet
loren
lorenz
lorenzo
lorgnez
lorraine
los
losk
losket
lost
lostek
lostger
lostgeriou
lostou
lot
lotar
lotei
loth
lotus
lou
louarn
loudeac
loudieg
loued
louet
louis
louise
louisiana
louiz
louiza
louiziana
loull
loun
loup
loupard
lourd
lous
loustoni
louvre
louz
louzaouenn
louzaouer
louzaouin
louzawour
louzeier
louzou
love
lovecraft
lovisa
low
lp
lq
lr
ls
lt
ltd
lu
lubric
lubricite
luc
luca
lucas
lucca
luce
luch
lucia
luciano
lucien
lucifer
lucius
lucky
lucrezia
lucy
ludovico
ludu
ludwig
lufr
luftwaffe
lug
lugan
lugdunensis
lugern
lugerne
lugerni
lugernus
lugernuz
lugo
lugus
lui
luigi
luiou
luis
luisa
luise
luiz
lukas
lukaz
luke
lukian
luksembourg
luksembourgeg
lumiere
lun
luna
lune
luneburg
lunedou
lupus
lur
luscinia
lusia
lusian
lusifer
lusk
luskad
luskadou
lusker
lusket
luther
lux
luxembourg
luxemburg
luz
luzel
luziet
lv
lw
lx
ly
lybius
lynch
lyon
lyrics
lys
lz
læc
læn
lɑ
lɔ
lɔj
lɔjn
lɔn
lɛ
lɛn
m
m0
m1
m2
m3
m4
m5
m6
m7
m8
m9
ma
maarten
maastricht
mab
mabic
mabig
mabik
mabinogi
mabinogion
mac
macaca
macdonald
macedonia
machikoul
machine
machynlleth
macmillan
mad
madagascariensis
madagaskar
madalen
madame
madarek
maddalena
made
madeg
madeira
madeleah
madeleine
madelen
madelez
madelezus
madelezuz
mademoiselle
madeu
madison
mado
madoberou
madog
madonna
madou
madre
madrid
mae
mael
maen
maer
maerdi
maeronez
maes
maez
maeziou
mafalda
mafia
mag
maga
magadur
magadurez
magalhaes
magallanes
magan
magazin
magazine
magdalena
magdalene
mager
magerez
maget
maghreb
magi
magic
magister
magna
magnificat
magnus
mahe
maheu
mai
mailh
main
maine
maint
mainz
mair
maire
mais
maison
maisonneuve
maitre
maitresse
maivon
maiz
majeste
major
make
makedoneg
makedonia
making
maksim
mal
mala
malaga
malan
malatesta
malawi
malayseg
malaysia
malcolm
maldivez
male
malet
maleur
maleurus
malezia
malheur
malheurus
mali
malice
mall
mallorca
malloz
mallozh
malmanche
malo
malory
malou
malraux
malta
malteg
maluku
malurus
mam
mameu
mamm
mammal
mammenn
mammennou
mammig
mammik
mammou
mamou
man
manac
manafon
management
manase
manati
manatiou
manav
manaveg
manche
manchester
manchouria
mancini
mancout
mane
maner
maneriou
manet
mang
manga
mangeek
manhattan
mani
maniere
manifestadeg
manifestadegou
manifesto
manila
mank
manket
mankout
mann
mano
manos
manquein
manquet
mans
mant
mantel
mantell
mantova
mantret
mantrus
manu
manuel
manus
manuscrit
many
mao
maodez
maodiern
maoour
maoris
maouez
maouezed
maouezi
maouritania
maout
maoutken
map
mar
mara
marabout
marais
maranhao
marbr
marc
marce
marcel
march
marchand
marche
marchosi
marcinelle
marco
marcos
marcus
mard
mare
maread
marechal
maredudd
maree
marek
marellet
mareou
marevez
marevezh
margaret
margarete
margarita
margherita
margot
marguerite
marhue
marhuel
marhuet
mari
maria
mariana
marianna
marianne
marichal
marie
marigo
marilh
marilhet
marilyn
marin
marina
marine
marines
marinespecies
marino
mario
marion
maris
maritime
marius
mark
markaris
markis
markiz
markizez
marksour
marmouz
marne
maro
maroko
marquis
mars
marse
marseilh
marseille
marsel
marselha
marshall
marta
martel
martese
marteville
marteze
martha
marthe
martial
martin
martina
martinez
martini
martinik
martino
martinus
martolod
martoloded
maru
marv
marvad
marvailh
marvailhou
marvaillou
marvat
marvel
marvet
marviou
marw
marwet
marx
mary
maryland
maryvonne
marz
marzh
marzhin
marzin
mas
masimilian
maskl
mason
maspero
massa
massachusetts
massignon
masson
master
mat
mata
match
matematik
matematikour
mater
materi
mates
matez
matezh
math
mathews
mathias
mathieu
mathilde
mathurin
matier
matilda
matin
matisse
mato
matt
matteo
matth
matthew
maud
maufrigneuse
maupassant
mauretania
maurice
mauvais
mawr
mawrth
max
maxim
maxima
maximilian
maximus
may
maya
mayaeg
mayenne
mayo
mayor
mayotte
maz
maze
mazhev
mazoig
mb
mc
mccartney
mccay
mclaren
md
me
mea
meala
meam
mean
mear
meas
meaz
mec
mechain
mechans
mechant
mecklenburg
med
medalenn
medalennou
medar
medard
medecin
medesin
medi
media
mediaou
mediawiki
medici
medieval
medina
medisin
medisinerezh
medita
meditation
meglio
meh
mehmet
mehus
mei
meid
meifod
meilh
mein
meiningen
meit
meiz
meizad
mekanik
mekanikou
mekka
mel
melan
melanerpes
melangell
melani
melanie
melanotaenia
melar
melbourne
melc
melchen
melchon
melein
melen
melenn
melestradur
melestradurel
melestradurezh
melet
melezour
melilla
meliner
meliphagidae
mell
mellad
melldroader
mellezour
mellou
melodie
melodies
melusine
mem
memb
meme
memento
memes
memestra
memeus
memeuz
memez
memoire
memoires
memor
memoria
memorial
memorialgenweb
memories
memprou
men
menard
mendes
mendoza
mene
menec
meneg
meneget
menegin
menek
menel
meneou
menesiou
menez
meneziek
meneziou
meng
mengleuz
mengleuziou
menguy
menn
mennad
mennet
mennoz
mennozh
mennozhiou
mennoziou
meno
menoe
menosiou
menoz
menoziou
ment
mentek
mentet
mentou
meo
mer
meran
merc
mercader
mercedes
mercer
merch
merche
merchet
mercheu
mercia
mercier
mercou
mercury
merdeer
merdein
mere
meren
merenn
merennan
merer
meret
merh
merhed
merhet
merhuel
merien
merimee
merit
meritein
meritet
meriteu
meritout
merk
merka
merkan
merket
merkou
merlin
mern
merops
merour
merq
merquet
merser
merthyr
merveille
mervel
mervent
merzer
merzerenti
merzerien
merzeriet
merzet
merzher
merzherien
merzheriet
merzout
mes
mesa
mesaer
mesaerien
mesi
mesias
mesiou
mesk
meskaj
meskan
mesket
meskl
mesnil
mesq
messalina
messi
messieurs
mest
mestr
mestrc
mestres
mestrez
mestronian
mesure
mesures
met
metal
metalou
metamorfozou
method
metou
metr
metrad
metro
metropolitan
mettre
metz
meu
meud
meulet
meuleudi
meuleudiou
meulgan
meuli
meulit
meulodi
meulomp
meum
meur
meurbed
meurbet
meurc
meurgan
meurger
meurgorf
meuriad
meuriadou
meurig
meurlarjez
meurs
meurthe
meurvor
meurvoriou
meurz
meurzh
meus
meuse
meuz
meuziou
mevel
mevelien
meven
mewel
mexicanus
mexico
meyer
mez
mezeg
mezegez
mezek
mezekeet
mezer
mezeven
mezh
mezheven
meziant
meziantou
mezo
mezopotamia
mezus
mezuz
mezv
mezvier
mf
mg
mh
mi
mia
mibien
mic
mich
michael
michel
michelangelo
michele
michelle
micher
micherel
micheriou
micherour
micherourien
michigan
mickey
microsoft
microtus
middle
midi
midlands
midnight
midway
mieux
mignon
mignoned
mignonet
mignonez
mignoniezh
mignoun
mignouned
miguel
mihi
mik
mikael
mike
mikeal
mikel
mikhail
mikronezia
mikstekeg
mikstekek
mil
milan
milano
milendall
miles
miliadou
miliard
milieu
milin
miliner
milinou
milion
milionou
military
mill
mille
miller
milliget
milliguet
million
mills
milour
milourel
milton
milved
min
mina
minamoto
minas
mind
mine
minerva
mines
ming
minh
minic
minihi
ministr
ministred
ministrerezh
ministrez
minna
minnesota
minoc
minor
minorelezhiou
minos
minoun
mintin
mintinvez
minuit
mio
mipien
miquel
mir
mira
miracl
miraclou
mirakl
miraklou
miranda
mirc
mirdi
mirdiou
miret
mirit
miro
mirour
mirout
mirror
mirva
mis
miser
miserabl
miserere
misericord
misioner
misionerien
misionou
miss
mission
missionou
mississippi
missouri
mister
misteriou
mistr
mistral
mistri
mit
mitchell
mithridates
mitologiezh
mitterrand
miwl
mix
miyazaki
miz
mizer
mizerig
miziou
mizou
mizvezh
mj
mk
ml
mm
mme
mn
mo
moab
moal
moan
moarvat
moc
mocaer
mochdre
mochnant
mod
mode
model
modena
modern
moderne
modest
modesti
modification
moel
moereb
moesia
moez
moged
mogedet
moger
mogeriet
mogeriou
mohamed
mohammed
moi
moing
moins
mois
moises
moizes
moizez
mojenn
mojennel
mojennou
moldova
molecular
molekulennou
molenez
moliac
moliere
molina
momand
momant
moment
momet
mon
mona
monaco
monako
monarkiezh
monarkiezhou
mond
mondadori
monde
mondo
moneiz
monet
money
monferrato
monforzh
mongoleg
mongolia
monica
monika
monnet
mons
monsieur
mont
montagne
montagner
montaigu
montana
montauban
monte
montefeltro
montenegro
montevideo
montfort
montgomery
montigny
montpellier
montreal
montreuil
montroulez
monts
montserrat
monumant
monumantou
monumental
monuments
moon
moore
mor
moraer
moral
moran
moravia
morbihan
morc
mordiern
mordred
mordrel
more
moreau
morel
morfem
morfologel
morgan
morgannwg
mori
morian
morin
moriou
moris
moritz
morlaer
morlaeron
morlaix
morlu
morning
moro
morris
morrison
mors
morse
mort
morte
morton
morts
morvan
morvil
morvran
morzhol
morzol
moselle
moskov
moskva
most
mot
motacilla
mother
mots
motte
mouar
mouchouer
moudenn
mouez
mouezh
mouezhiadegou
mouezhiet
mouezhiou
moueziou
moug
mouga
mougan
mouget
mouk
mouladur
mouladuriou
moulerez
moulerezh
moulet
moulin
moulins
moullan
mouller
moullerez
moullet
mount
mountain
mous
mousc
mouse
mouster
mouvamant
mouvement
movement
movie
moyand
moyandeu
moyant
moyen
moyenou
moyne
moyses
mozambik
mozart
mp
mq
mr
mrs
ms
mss
mt
mu
muallt
much
mud
muhammad
mui
muia
muian
muiel
muihan
muioc
muioh
mul
muller
multi
munchen
mundi
mundo
municipio
munoz
munster
muntr
muntrer
muntrerien
muntret
muntrou
munud
munudou
munut
munutenn
mur
murat
murcia
murder
muriou
murlivadur
murphy
murray
mus
muscicapidae
musculus
musee
museo
museum
music
musica
musique
mussolini
must
mut
muy
muyan
muyoh
muzellou
muzik
muzilheg
muzul
muzulian
muzuliet
muzuliou
muzulman
muzulmaned
muzur
muzuriou
mv
mw
mx
my
myanmar
mynydd
myspace
myster
mystere
mysteriou
mystery
myth
mythology
mz
mæs
mæstr
mæstre
mæz
mœz
mɑ
mɔ
mɛ
n
n0
n1
n2
n3
n4
n5
n6
n7
n8
n9
na
nabukodonosor
nac
nach
nacional
nad
nadoz
naer
naered
naet
naetaat
nafarroa
nag
nagaek
nagorno
naig
naissance
nak
nam
name
nameid
nameit
names
namibia
namur
nan
nana
nancy
nann
nant
nantes
nantmel
nao
naon
naoned
naonegezh
naonet
naontek
naontekvet
naoun
naounegez
naoz
napl
naplez
napoleon
napoleone
napoli
narbonensis
naren
narsis
nas
nasa
nash
nassau
nat
natal
nathalie
nathan
nation
national
nationale
nationou
nations
natur
natura
natural
nature
naturel
naturour
nau
nav
navarra
naved
navet
navy
nay
nazaret
nazareth
nazer
nazi
nazied
nb
nc
nd
ne
neac
nean
neant
neat
neb
nebedigueu
nebeud
nebeudic
nebeudig
nebeudik
nebeudou
nebeut
nebeuta
nebeutan
nebeutoc
neblec
nebraska
nec
necesser
necessite
necessær
ned
nedd
nedelec
nedeleg
nedelek
nederlandat
nederlandeg
nederlandek
need
nef
nefoa
negra
negro
nehai
nehi
nehou
nehue
nei
neil
neill
neiz
neizh
neizhan
neizher
nek
neket
neketa
nel
nell
nella
nelson
nem
nemb
nemed
nemert
nemet
nemetan
nemethan
nemeti
nemetken
nemeto
nemeur
nemo
nemorant
nen
nennius
nenv
nenvou
neo
neoah
neoazh
nep
nepal
nepas
nepell
nepred
nepreizh
neptu
nerh
neri
nero
neron
ners
nerz
nerzh
nerzhiou
nerzhus
nerzus
nerzuz
nes
nesa
nesan
nessa
nessan
nested
nestor
net
netra
network
neu
neubet
neubeud
neubeut
neubeutoc
neud
neuden
neudenn
neue
neuf
neuial
neuilly
neunv
neunvin
neus
neuse
neustria
neuville
neuz
neuze
nev
nevada
neve
neved
nevenoe
never
nevers
neves
nevesaet
nevesan
nevesoc
nevet
nevez
nevezamzer
nevezc
nevezi
nevis
nevoa
new
newcastle
newe
newez
newport
news
newton
newydd
nez
neza
nezan
neze
nf
ng
ngall
ngc
nguyen
ngwynfa
nh
ni
nicaragua
niccolo
nice
nicholas
nicht
nick
nico
nicola
nicolas
nicole
nicun
nid
nidiad
nievre
niger
nigeria
night
nigra
nij
nijadenn
nijal
nijas
nije
nijer
nijerek
nijerez
nijereziou
nijet
nijour
nijva
nik
nikolas
nikolaz
nikun
nil
nilez
nilotek
nimes
nimfenn
nin
nina
nine
nino
ninox
nintendo
nipalensis
nis
nisa
nisi
nitra
niv
niver
niveradeg
niverel
niverenn
niverennet
niverennou
niveret
niveri
niverin
niverou
niverus
niverusoc
nivlennad
niz
nizez
nizon
nj
nk
nl
nm
nn
nnn
no
noal
noalleg
noas
noaz
noazh
noazout
noazus
nobel
nobiliaire
nobis
nobl
noblans
noblansed
noblansou
noblanz
noble
nobletz
noc
noche
noe
noel
noi
noir
noire
noite
nolwenn
nom
nombr
nombre
nomen
nomenoe
nominativ
nominativel
nomine
noms
non
nonita
nonpas
noord
nor
nora
norbert
nord
nordeste
nordrhein
norfolk
norge
norman
normand
normandet
normandi
normandie
normaned
norseg
norte
north
northern
northumberland
northumbria
norvegeg
norvegek
norvegia
norvegiat
norzh
norzhafrika
norzhamerika
norzhiwerzhon
nos
noster
nostra
nostri
nostrum
nosvez
not
note
notenn
notennet
notennou
noter
notes
notet
nothing
notice
notre
nouel
nouelig
nouen
nouga
noun
nous
nouveau
nouvel
nouvelle
nouvelles
nova
novel
november
novembre
novo
now
noz
nozvez
nozvezh
nozveziou
np
nq
nr
ns
nsdap
nt
nu
nubia
nuclear
nueva
nuevo
nugent
nuit
nuits
nukleel
nul
nullet
number
numero
numidia
nun
nunc
nunez
nurnberg
nuz
nv
nw
nx
ny
nynorsk
nz
nærh
nɑ
nɔ
nɔj
nɔjn
nɔn
nɛ
nɛn
nɛr
o
o0
o1
o2
o3
o4
o5
o6
o7
o8
o9
oa
oabl
oac
oad
oadet
oadvez
oadvezh
oai
oaid
oajet
oakland
oal
oaled
oamp
oan
oann
oant
oar
oas
oat
oaxaca
oaz
ob
ober
oberenn
oberennou
obererezh
obererezhiou
oberiadur
oberiaduriou
oberiant
oberiantiz
oberiou
oberou
oberour
oberourien
obidou
objedou
objet
oblast
obligation
obliget
oblijet
oboissa
oboissanc
observi
obten
obtenet
obteni
oc
occasion
occasioneu
occasionou
occidentalis
occupation
occupet
occupi
ocean
och
ochoa
oclc
octave
octavius
october
octobre
od
ode
oder
odila
odin
odo
odon
odysseia
odysseus
oe
oed
oeit
oela
oele
oelet
oelje
oen
oenanthe
oent
oeste
oet
oeuvres
oez
of
oferen
oferenn
oferennou
ofern
off
offa
offance
offancein
offancet
offanci
offanset
offansi
offeren
offerenn
offerenna
offern
office
official
offis
offiser
offiserien
offisou
offr
offrein
offret
ofic
ofis
ofiser
ofiserien
ofisiel
ofisou
ofisour
og
ogee
ogham
ogni
ognon
ograou
ogwr
oh
ohio
oi
oidipous
oil
oise
oiseaux
oj
ok
okeania
okitaneg
okitanek
okitania
oklahoma
oksigen
ol
olaf
old
oldenburg
oleo
olga
olier
olifant
olifanted
olimpek
olimpia
oliv
olived
oliveira
oliver
olivet
olivetti
olivez
olivia
olivier
oll
ollendorff
ollivier
ollivro
olonne
olwen
olympia
om
oman
omar
omb
omega
omer
omnes
omni
omnia
omnibus
omniglot
omnium
omp
on
once
one
onenn
onest
onestiz
oni
online
only
onn
ono
ont
ontario
oo
op
open
opera
operation
opinion
opt
opus
oq
or
ora
orange
oranje
oranjez
orc
orchestra
order
ordinal
ordinær
ordono
ordre
ordren
ordrenas
ordrenaz
ordrenet
ore
oregon
oremus
orestes
org
organ
organisation
organou
orgue
orgueil
oriant
orient
oriental
orientales
orientalis
origin
original
origine
originel
origines
origins
orin
orinou
oriolus
orion
orjal
orlando
orleans
orne
oro
orsay
orsini
orson
ortiz
ortodoks
oræson
oræsonou
oræsoun
os
osa
oscar
oseania
oskar
oslo
ospital
osroene
ostaleri
ostaleriou
osterreich
ostilhou
ostiz
ostrogoted
oswald
ot
otek
oter
other
oto
otoiou
otoman
otomaned
otorite
otre
otro
otrou
otto
otus
ou
ouair
ouc
oud
oude
oue
ouel
ouela
ouelan
ouele
ouen
ouenn
ouent
ouest
ouez
ouezas
ouezer
ouezo
ouf
oufac
oufe
oufen
oufenn
ouffe
ouganda
ougrek
oui
ouie
ouien
ouient
ouier
ouilein
ouilet
ouiziegez
ouiziegezh
oulen
oump
oun
ounn
ounta
ountan
our
oural
ouranos
ourdoueg
ourense
ourgouil
ourgouill
ourhæmen
ours
ous
ouspen
ouspenn
out
outan
oute
outhan
outhe
outhi
outho
outi
outo
outoek
ouvrage
ouz
ouzbekistan
ouzer
ouzh
ouzhin
ouzhoc
ouzhpenn
ouzhpennan
ouzhpennet
ouzid
ouzign
ouzimp
ouzin
ouzinn
ouzit
ouzoc
ouzomp
ouzon
ouzonn
ouzont
ouzoud
ouzoun
ouzout
ouzpen
ov
over
overen
ovidius
ow
owain
owen
own
ox
oxford
oy
oz
ozac
ozhac
p
p0
p1
p2
p3
p4
p5
p6
p7
p8
p9
pa
pab
pabed
pablo
pabu
pac
pace
pacha
pacific
paco
pad
padal
padas
padelezh
padet
pado
padout
padova
padre
padrig
padus
paduz
pae
paea
paean
paeet
paen
paeo
paeron
paet
pag
pagan
page
pagenum
pages
paian
paianed
pain
pais
paix
paj
pajen
pajenn
pajennad
pajennou
pak
paka
pakad
pakan
paket
pakistan
pal
palais
palantines
palau
palazzo
palermo
pales
palestina
palez
paleziou
paliou
pallas
pallenn
pallida
pallidus
palma
palmez
palud
paludou
palv
palvezek
pamplona
pan
panama
pandora
pane
panellou
paner
paneved
panevet
panez
pannonia
pantecost
pantekost
panthera
panzer
paol
paolig
paolo
paosanias
paot
paotr
paotred
paotret
paotrig
paotrik
paouez
paouezas
paouezet
paour
paourentez
paourkaezh
paourkez
pap
papa
pape
paper
paperiou
paperou
papes
papiamento
papier
papoua
papouek
par
para
parabolen
parade
paradis
paraguay
paran
parana
parc
parce
pardaez
pardon
pardonet
pardoni
pardoniou
pardonit
pardonnet
pardoun
pare
parea
parean
pared
pareet
parez
parezed
parfet
parfæt
paris
pariz
park
parkad
parkeier
parker
parkou
parks
parlamant
parlant
parlantet
parle
parler
parma
paroisses
parole
paroles
parouz
parrez
parreziou
part
partage
parti
particulier
particulieramant
partido
partie
partienn
partiennou
partout
party
pas
pascal
pasgen
pasianted
pasion
pask
paskal
pasq
passage
passe
passer
passeriformes
passet
passion
past
pastell
pastellou
pastor
pastoret
pat
patagonia
patatez
pater
patern
patiant
patiantet
patiantæt
patri
patria
patriarch
patrice
patricia
patrick
patrik
patrimoine
patris
patrom
patromou
patron
patronez
pau
paud
paul
paula
pauline
paulo
paulus
paun
pautr
pautred
pauvre
pav
pave
pavia
paviou
pax
payot
pays
paz
pazenn
pazzi
pb
pc
pd
pdf
pe
pea
peace
peadra
peah
pearl
peau
peautramant
peb
pebeiladur
pebes
pebeuz
pebez
pebezh
pebr
pec
peccata
peche
pechet
ped
pedair
pedan
pedas
pedaz
pede
pedein
peden
pedenn
pedenneu
pedenno
pedennou
peder
pedervet
pedet
pedi
pedin
pedit
pedomp
pedro
peel
peet
pefe
peg
pegeit
pegement
pegementin
pegen
peger
peget
pegouls
pegoulz
pegours
peguement
peguen
peguer
pegwir
peh
pehai
pehani
pehe
pehed
pehedeu
pehein
pehet
pehini
pehour
peine
peini
peintres
pek
pel
pelayo
peleac
pelec
pelerinaj
pell
pella
pellaat
pellaet
pellait
pellan
pellat
pellder
pelleet
pelleit
pellen
pellgent
pellgomz
pellik
pelloc
peloponnesos
pemb
pembo
pembroke
pemdez
pemdezieg
pemdeziek
pemoc
pemp
pemped
pempet
pempoull
pempved
pempvet
pemzek
pen
pena
penaos
penaoz
penaus
penauz
pendant
penegoes
penegwir
penelope
penfaou
penfro
penguin
penheres
penigen
penigenneu
penisarcwm
penitant
peniti
penitiour
penker
penmarc
penn
penna
pennad
pennadig
pennadik
pennadou
pennadurezhiou
pennaenn
pennaennou
pennan
pennant
pennaod
pennaouin
pennek
pennger
pennher
pennherez
pennigo
penniliz
pennlec
pennors
pennou
pennoz
pennrann
pennsans
pennsylvania
penos
penoz
pense
pensee
pentevr
pentre
pentref
penybont
peoc
peogwir
people
peorien
peotramant
pep
pephini
pepin
per
perac
perag
perak
perc
perche
percy
pere
perez
perfection
pergen
perhueh
perig
periodique
perlez
permet
permetet
permettet
permission
pernambuco
peroked
peron
perou
perpet
perrault
perrin
perrot
perroz
perry
pers
persecutet
perseg
perseus
persia
persier
person
personel
personne
persoun
pertes
peru
perugia
perz
perzh
perzhiou
pes
peseurt
pesk
pesked
pesketa
pesketaer
pesketaerien
pesort
pestivien
pet
petain
pete
peter
petersbourg
petit
petite
petites
petits
petore
petra
petronilh
petros
peu
peuc
peul
peuliou
peulvan
peulvanou
peuple
peuples
peur
peurbadus
peurc
peurechuet
peurgetket
peuri
peurin
peuriwerzhonekaat
peurlavaret
peurliesa
peurliesan
peurrest
peurunvan
peurvat
peurvuia
peurvuian
peus
peut
peuz
pevar
pevarad
pevare
pevarvet
pevarzek
pevarzekved
pevarzekvet
peveus
pewar
pez
pezet
pezh
pezhiou
peziou
pezit
pezo
pf
pfalz
pg
ph
phalacrocorax
pharaon
pharisianed
phasianidae
phil
philadelphia
philip
philipp
philippe
philippine
philips
phillips
philosophy
philotee
phoenix
phono
php
phrase
phylip
phylloscopus
phylogenetics
phylogeny
physics
physique
pi
pia
piacenza
piano
pianoour
piaui
piazza
picard
picasso
picidae
pico
picture
pictures
picumnus
picus
pidi
pie
piece
pieces
pied
pieds
piemonte
pier
piero
pierr
pierre
pierres
pieter
pietro
pig
pign
pignal
pignas
pignat
pignet
pihue
pije
pik
pika
pikardi
pikol
pikou
pil
pilalau
pilar
pilat
pilet
pilhaouer
pilhou
pin
pina
pinet
pinhuiq
pini
pinigen
pinijen
pinijenn
pinijennou
pink
pinvidic
pinvidig
pinvidigez
pinvidigezh
pinvidigezhiou
pinvidik
pinvidikan
pinvidikoc
pinvik
pinyin
pio
piou
pipi
pipton
piramidenn
piramidennou
piran
pirc
pireneou
pis
pisa
pisin
pitta
piu
pius
piv
piz
pizh
pizza
pj
pk
pl
pla
plabenneg
plac
place
placet
plad
pladenn
pladennou
plaen
plaenennou
plaid
plakenn
plakennou
plan
planedenn
planedennou
planet
planken
plankenn
plant
planta
plantagenet
plantan
plantet
planvour
plas
plasenn
plasou
plastik
plat
plata
platon
play
playstation
ple
plebs
pled
pledin
pleg
plega
plegan
pleget
plegou
pleiade
pleiben
plein
plen
plenier
plessis
pleustr
pleustrek
pleustret
pleustri
pleustrin
pleuveur
pleven
plich
pligeadur
pligeadurieu
pligein
pliget
plij
plijadur
plijadurezou
plijadurieu
plijaduriou
plije
plijet
plijo
plijout
plijus
plinius
plistin
ploceus
ploermael
plom
plomelin
plomer
plon
plouared
plouaret
ploue
ploueg
plouenan
plougastel
plougastell
plouger
plougerne
plougouloum
plouha
plouneour
plounevez
plourin
ploutarc
plouz
plouzane
plu
pluenn
plunv
plus
plusieurs
pluviose
pluzunet
plymouth
pm
pn
po
poa
poai
poan
poania
poaniet
poanio
poaniou
poanius
poaniuz
poatev
poaz
poazet
poazh
poazhan
poazhet
pobl
poblad
pobladou
poblans
poblansou
poblek
poblel
poblet
poblou
poc
poche
pocket
poco
pod
podad
poder
podiceps
podou
poe
poell
poellek
poellgor
poemas
poemes
poems
poen
poenieu
poent
poentou
poesia
poesie
poesies
poetique
poetry
poez
poeziou
pogoniulus
poher
point
pointe
poisson
poitiers
pok
pokat
poket
pol
police
polinezia
polis
poliser
political
politics
politik
politikel
politiker
politikerezh
politikour
politikourez
politique
polo
pologn
polonat
poloneg
polonek
polonia
poloniat
poloniz
polontez
poltred
poltredet
poltredou
poltriji
pomerania
pompeius
pompidou
pondi
pondivi
ponner
pons
pont
ponte
pontevedra
pontkastell
pontos
pontou
pontrev
pontrobert
pontsenni
pontus
pop
populaire
populaires
popular
population
por
porc
porched
pornizh
pornografek
porpant
pors
port
porta
portant
porte
porter
portes
porth
portland
porto
portrait
portugal
portugalat
portugaleg
portugalek
portugaliz
porz
porzh
porzhig
porzhiou
poseidon
possibl
possible
possubl
post
postan
poste
postou
posubl
posupl
pot
potier
potr
potred
potrig
potsdam
potter
pou
pouez
pouezan
pouezet
poueziou
pouezus
pouezusan
pouezusoc
poul
poull
poullaouen
poullou
poultr
poulzet
pouner
pounner
pounneroc
pount
pour
pourchas
pourchaset
pourmen
pourvei
pourveziou
pout
poutin
pouvoir
powell
power
powys
poz
poziou
pp
pq
pr
pra
prad
pradesh
prado
pradou
praha
praia
prajeier
prajou
prantad
prantadou
prat
pratiq
pratique
pratiquein
pratiquet
pre
precius
pred
preden
predenek
preder
prederian
prederiet
prederour
prederourien
prederouriezh
preface
prefectoral
prefed
prefet
prefeti
preiz
preizh
preizhet
premier
premiere
premiers
premio
pren
prena
prenan
prenas
prendre
prener
prenest
prenestr
prenestrou
prenet
prenn
prennan
prennet
prenv
prenved
preparation
preparet
pres
presanc
presant
presbital
presence
present
presente
president
presidente
presque
press
presse
pressense
presses
prest
prestet
prestik
preston
pret
preti
pretre
preudeur
preur
preußen
prevez
prez
prezec
prezeg
prezege
prezegen
prezegenn
prezegennou
prezeger
prezeget
prezek
prezidant
prezidanted
prezidantez
pri
price
pried
priedou
priejou
priel
prientet
prientin
prifysgol
prigent
prim
prima
primated
primavera
primevere
primo
prin
princ
prince
princess
princeton
principal
principala
principalamant
principe
principes
prins
prinsed
prinselezh
prinsez
prinsezed
prinz
priol
prioldi
pris
prison
privet
prix
priz
prize
prizet
priziet
priziou
prizius
prizon
prizoniad
prizonidi
prizonier
prizoniet
prizoun
prizouniet
pro
prob
proces
procession
produadur
production
productions
produer
produet
produin
produiou
produour
prof
profan
profed
profeded
profession
profet
profit
profitabl
profou
profundis
profæt
program
programm
programmou
project
prokulor
promesaou
promessaou
prometet
prometheus
prononcet
pronost
pront
proofreadpage
propaganda
prope
prophet
propos
propr
propre
propter
prosesion
prosez
prosper
protection
protestant
protestanted
proto
prouenn
prouennou
prouet
prouin
proux
prov
provans
provence
providans
province
provincia
provins
provinsou
prozision
prud
prudant
prunus
prus
prusia
prusian
ps
psalm
pseudo
psilopogon
pt
pternistis
pterocles
ptilinopus
ptolemaios
pu
puar
public
publications
publik
publiq
publishers
publishing
publius
puccini
puebla
puerto
puez
pugale
puglia
puhe
puig
puigdemont
puilh
puill
puis
puissance
puissant
pulluc
pun
punek
punissein
punisset
punition
punk
puns
punz
puo
pur
pure
purgatoer
purgator
purifiet
purkator
put
putin
puy
pv
pvda
pw
pwllgloyw
px
py
pycnonotus
pygmalion
pyrenees
pz
pɑ
pɔ
pɛ
q
q0
q1
q2
q3
q4
q5
q6
q7
q8
q9
qa
qatar
qb
qc
qd
qe
qeit
qement
qementse
qemer
qemeret
qen
qent
qenta
qer
qerqent
qet
qez
qf
qg
qh
qi
qin
qj
qk
ql
qm
qn
qo
qp
qq
qr
qs
qt
qu
quam
quand
quando
quasi
quatre
que
quebec
qued
queen
queensland
queit
quel
quellies
quelqu
quelque
quelques
quem
quemen
quemend
quemense
quement
quemer
quemeret
quemerit
quen
quend
quent
quenta
quenteh
quentel
quentin
quentoc
quentoh
quenver
quer
querhet
querquent
question
questions
quet
quetan
quever
quevir
qui
quia
quid
quimper
quin
quintus
quis
quit
quittat
quo
quod
quoniam
quæ
qv
qw
qx
qy
qz
r
r0
r1
r2
r3
r4
r5
r6
r7
r8
r9
ra
rabbi
rac
race
rachel
racine
racing
ractal
raden
radio
rae
raed
raen
raent
raer
raez
raf
rafac
rafael
rafe
rafec
rafemp
rafen
rafenn
rafent
raffaello
rag
raganv
raganviou
ragistor
rah
rai
raikkonen
raimp
rain
raint
raio
raison
raje
rajent
rak
rakger
rakgeriou
rakig
rakskrid
raktal
raktres
raktreset
raktresou
rakwelet
ral
raloc
ralph
ram
ramb
rambo
ramirez
ramiro
ramon
ramouek
ramp
rampo
ramz
ramzed
ramzel
ran
rancontr
raned
rang
rank
rankan
rankas
rankaz
ranke
ranked
ranker
ranket
rankfe
ranko
rankomp
rankont
rankout
rann
ranna
rannadur
rannan
rannas
rannaz
rannbarzh
ranndi
ranne
rannet
rannfrazenn
rannig
rannigou
rannlu
ranno
rannou
rannved
rannvro
rannvroel
rannvroiou
rannyezh
rannyezhel
rannyezhou
ranquer
rant
rantein
ranteleah
rantet
ranuccio
raog
raok
raoul
rap
rapari
raphael
rapport
ras
rastell
rat
ratoz
ratozh
raug
rauk
raul
raven
ravenna
ray
raymond
rayo
rayon
raz
razed
razh
razhed
razon
rb
rc
rca
rd
re
rea
reac
read
reading
real
rean
reant
rear
reas
reat
reaz
rebecca
rebech
rebechet
rebechou
rec
receo
receu
receuet
recevas
recevet
recevit
recevo
recevomp
recherche
recherches
recit
recommandet
recommandi
recompanc
recompance
recompans
record
records
recour
recours
recteurs
recueil
red
redadeg
redadegou
redadenn
redas
redaz
rede
redec
redeg
redek
redemptor
reder
rederien
redet
redi
redian
rediet
redo
redon
reduction
ree
reed
reel
reent
reer
reeur
ref
referendom
refet
reflexion
reflexionou
refomp
refont
refus
refuset
reg
regensburg
reggae
reggio
regia
regiment
regina
region
regional
regionales
regionalismes
regions
regis
register
regl
regle
reglein
reglen
reglet
regli
regret
regum
rehet
rei
reich
reichenbach
reichstag
reier
reims
rein
reinac
reinach
reine
reint
reio
reit
reiz
reiza
reizded
reizet
reizh
reizhan
reizhel
reizhet
reizhiad
reizhiadou
reizhskrivadur
reizhskrivan
rejant
rejantez
rejimant
rejomp
rejon
rejont
rejouissa
rekis
rekord
rekoumpans
relations
releg
relego
relegou
religion
religions
religius
religiuset
relijiel
relijion
relijionou
reman
rembrandt
remed
remejou
remengol
remerkaz
remerket
remerquet
remi
remission
remix
remm
remon
remont
remy
remziad
ren
rena
renabl
renablet
renad
renadenn
renadur
renaissance
renan
renard
renas
renaud
renault
renaz
rencomp
rencontre
rendael
rendre
rene
renea
renee
rener
renerez
renerezh
renerien
renet
reni
renk
renka
renkad
renkadou
renkadur
renkan
renkas
renkaz
renke
renkennad
renker
renket
renkou
rennes
reno
renoir
renonc
renos
renq
renquer
rent
renta
rentan
rentas
rentaz
rente
rentet
rentit
rento
reo
reoc
reol
reolad
reolen
reolenn
reolennou
reoliek
reomp
reon
reont
reor
reot
reou
reparein
repari
report
repos
repoz
represant
represantet
repu
repubblica
republic
republik
republikan
republikaned
republikanet
republikou
republique
repuet
repuidi
repuin
reputation
requiem
requis
rer
reral
res
rescond
research
reseo
reserve
reservet
resev
resevas
resevaz
reseve
resevet
resination
resis
resisaat
resisoc
resistance
resistein
resolution
resolutioneu
resolutionou
reson
respect
resped
respet
respetet
respeti
respont
respontas
respontaz
responte
respontet
respontit
responto
respoun
respount
respountaz
respounte
ressuscitet
rest
reste
restr
restrou
resurrection
resussitet
ret
reter
retorn
retour
retred
retrejou
retret
retrieved
return
reudied
reun
reunion
reustlet
reut
reuz
reuzeudik
rev
reve
revel
revelation
revelet
revelezh
reveulzi
review
revised
revolt
revolte
revolusion
revolution
revolutionnaire
revou
revoy
revr
revue
rex
rey
reynaud
reynolds
rez
rezin
rezistans
rezistant
rezon
rezont
rf
rg
rh
rhaeadr
rheged
rheinland
rhin
rhinolophus
rhisiart
rhode
rhodri
rhondda
rhone
rhos
rhydieithon
rhys
ri
ria
riata
ribl
riblenn
riblou
riboul
rica
ricardo
rich
richard
richarzh
richelieu
richmond
rico
ricou
rid
ride
ridellat
ridgway
rieg
rien
riez
riezou
rif
riga
rigadell
right
rik
rimadell
rimadellou
rimini
rimp
rin
ring
rings
rinn
rio
rioja
rios
riou
ris
rise
rising
riskl
risklou
risklus
rit
rita
ritratto
riv
river
rivera
rivet
rivier
riviere
rivinet
rivinou
rivod
riwal
riz
rj
rk
rl
rm
rn
ro
road
roadennou
roan
roann
roas
roaz
roazhon
roazon
rob
robert
roberto
roberts
robespierre
robin
robinson
roc
roca
rocca
roch
roche
roched
rochefort
rocher
rochester
rock
rockwell
rod
rodos
rodou
rodrigo
rodrigues
rodriguez
roe
roeal
roed
roei
roen
roent
roenv
roer
roet
rofe
rog
roger
rogers
roget
rohan
roi
roin
roinn
roio
rois
roit
roje
rojont
rok
rol
roland
roll
rolland
rolling
rollou
rom
roma
romagna
romain
romaine
romains
roman
romana
romance
romancheg
romaned
romanek
romanekaet
romanikaet
romano
romans
romant
romantel
romantou
romantour
romantourez
rome
romen
romeo
romulus
ron
ronald
ronan
rond
ronde
rondel
ronfl
ronsed
ront
roomp
roont
roosevelt
root
roou
roparz
roparzh
roperzh
roque
ros
rosa
rosario
rosay
rose
rosenberg
rosera
roses
rosko
rosmadek
rosporden
ross
rossetti
rossi
rossignol
rosso
rostaing
rostet
rostren
rostrenenn
rotten
rotterdam
rouan
rouane
rouaned
rouanes
rouanez
rouanezed
rouannes
rouantelez
rouantelezh
rouantelezhiou
rouanteleziou
rouart
roud
roudaut
roudenn
roudennou
roudou
roudour
roue
roued
rouedad
rouedadou
roueed
roueel
rouejou
rouen
rouez
roufl
rouge
rouges
roum
roumaneg
roumania
round
rous
rousin
rousseau
rout
route
routledge
rouville
roux
rouz
rovere
rowling
roy
royal
royale
roz
roza
rozen
rozenn
rozera
rp
rq
rr
rs
rss
rsssf
rt
ru
ruben
rubens
rudolf
rue
rufescens
ruficeps
ruficollis
rufiventris
rufus
rugbi
rugbier
ruilh
ruilhal
ruio
ruiou
ruiz
rujumant
rum
rumengol
rumengoll
rumm
rummad
rummadou
rummatadur
rummataet
rummenn
rummet
run
runan
runou
rus
rused
ruseg
rusek
rusia
rusian
rusianed
rusianeg
rusk
russell
russia
russian
rust
rustoni
ruth
ruz
ruzan
ruzell
ruzenn
ruzia
ruziet
rv
rw
rwanda
rx
ry
ryan
rz
ræson
ræzon
rɑ
rɔ
rɔj
rɔjn
rɔn
rɛ
rɛn
rɛs
s
s0
s1
s2
s3
s4
s5
s6
s7
s8
s9
sa
saba
sabbat
sabel
sabina
sables
sabrenn
sac
sach
sacha
sachan
sachas
sachet
sachsen
sacr
sacramancho
sacramanchou
sacramant
sacre
sacremand
sacremant
sacremanteu
sacret
sacrific
sacrifice
sacrilege
sad
sada
sadorn
sae
saena
saeou
saez
saezh
safar
saga
sage
sahara
saharek
said
saig
saigon
saik
sain
saint
sainte
saintes
saints
sais
sakr
sakramant
sakret
sakrifis
sakrifisou
sakrifiz
sakrist
saks
saksoned
sal
sala
salamanca
salaun
salazar
sale
salem
saliou
sall
sally
salm
salmou
salo
salome
salomon
salons
salud
saludet
saludi
saludin
salut
salv
salvador
salve
salvedigueah
salvein
salver
salvet
sam
samari
samba
sambre
sami
samieg
samm
sammad
samman
sammet
samoa
samson
samuel
samurai
samzun
san
sancha
sanchez
sancho
sancta
sancte
sancti
sancto
sanctus
sand
sandra
sandro
sane
sang
sank
sankan
sankenn
sanket
sankt
sans
sanset
sansibl
sanskr
sanskriteg
sanskritek
sant
santa
santana
santander
santas
sante
santein
santel
santela
santelamant
santeleah
santelez
santeloc
santer
santes
santet
santez
santi
santiago
santifia
santifiet
santimanchou
santimant
santimanteu
santo
santos
santout
santual
sao
saone
saonenn
saotradur
saotret
saoud
saoudat
saout
saouzanet
saoz
saozneg
saoznek
saoznekaet
saozon
sapiens
sapr
sar
sara
sarah
sardigna
sardinia
sarmon
sarmoniou
sarret
sarthe
sarzhav
satan
satanaz
satanazet
satanig
satisfaction
satisfia
sau
sauber
sauet
saul
saunders
sauvage
sav
savadur
savaduriou
savant
savas
savaz
savboent
save
saved
savenn
savenneg
savennou
savent
saver
saverien
savet
savetaet
savete
saveteet
savetei
savetein
savidigezh
savit
savjont
savo
savoia
savoie
savoir
savomp
savont
savour
savouriezh
saw
saxicola
saxon
say
sb
sc
scala
scan
scandal
scene
schilder
schleswig
schmidt
schneider
school
schott
schumacher
schwamenthal
schwerin
science
sciences
scipio
sclater
sclateri
sclear
scler
sclerder
sclerigen
sclerijen
sclær
sclærder
sco
scoed
scoet
scol
scorn
scotia
scotland
scots
scott
scottish
scouarn
scribed
scrifa
scrifet
scritur
scriva
scrivet
scuderia
scuil
scuilla
scuillet
scuir
scupoli
sd
se
sea
seac
sean
search
seattle
sebastian
sebastiano
sebastiao
sebastien
sebeliet
sebezet
seblant
seblante
seblantout
sec
sechelez
second
seconde
secour
secouret
secourieu
secret
secrets
secunda
secundus
sed
sede
seder
sedr
see
seeger
seellet
segal
segobrani
seh
sehuel
sei
seier
seigneur
seih
sein
seine
seis
seite
seitek
seiz
seizet
seizh
seizhvet
seizved
seizvet
sekred
sekretour
sekretourez
sel
selaou
selaoue
selaouerien
selaouet
selaoui
selaouit
selected
selestin
sell
sellas
selle
selled
seller
sellet
sellit
sello
sellou
sellout
selon
sem
semitek
semper
sempl
sempladurez
semplan
semplet
sempre
sen
senario
senarioour
seneca
sened
senedour
senedourien
senegal
senesal
seni
senin
sens
sent
sentein
sentet
sentezed
senti
sentin
sentit
sentus
sentuz
senza
separet
sepikek
sept
september
septembre
septimius
ser
sera
serait
serb
serbeg
serbia
serc
serge
sergio
serie
series
serj
serjant
sermant
sermon
serpant
serr
serra
serret
serri
serrin
servat
servez
service
servich
servicha
servicher
servicherien
servichet
servicho
servichout
servij
servijan
servijas
servije
servijer
servijerien
servijet
serviji
servijou
servijout
servir
serviterion
servitour
serzh
ses
set
setanc
seth
setu
seuel
seuil
seul
seuliou
seulles
seulvui
seurt
seurtou
sevel
seven
sevenadur
sevenadurel
sevenadurezh
sevenaduriou
sevener
sevenet
seveni
sevenin
severus
sevilla
sevres
sex
sez
seza
seziz
sf
sforza
sg
sh
shadow
shah
shakespeare
shall
shanghai
sharon
sharpe
shaw
she
shi
ship
shoah
shogun
shonen
short
should
show
shu
si
siam
siberia
sibiria
sibylla
sibylle
sic
sichem
sichenn
sichuan
sicilia
sicour
sicouret
sicut
sidan
side
sidney
sidon
siecle
siecles
siell
siellet
siena
sierra
sifr
sifrou
sigismund
sign
signe
sigur
sigurd
sikilia
sikilianeg
sikl
sikour
sikouras
sikouret
sil
silabenn
silabenneg
silabennek
silabennou
silan
silanc
silaou
silence
silet
silezia
silla
sillan
silva
silver
silvidigez
silvidigues
silvidiguez
silzig
sima
simbol
simeon
simfonienn
siminal
simon
simone
simpl
simple
simplex
simplicite
sin
sina
sinaat
sinadur
sinaeg
sinaek
sinagog
sinagogenn
sinai
sinaiz
sinalun
sinan
sinas
sinat
sincer
sindikad
sindikadou
sine
sinek
sinema
sinet
sing
singapour
singer
single
sinifi
sinou
sint
sion
siou
siouas
siouaz
sioul
sioulaat
sioulik
sir
siracusa
siria
sirill
sirius
sirk
sistem
sistemou
sister
sistr
sit
site
sivi
sivil
siwazh
six
sizhun
sizhunieg
sizhuniek
sizhunvezh
sizun
sj
sk
ska
skabel
skabell
skaer
skalier
skan
skandinavek
skandinavia
skanv
skanvoc
skaon
skarzhan
skarzhet
sked
skedus
skeduz
skei
skein
skes
sketla
skeud
skeuden
skeudenn
skeudennaouer
skeudennaouet
skeudennet
skeudennin
skeudennou
skeul
skevent
ski
skian
skianchou
skiant
skiantel
skiantou
skiantour
skiantourien
skign
skigna
skignan
skignet
skilfou
skiltr
skiltrus
skin
skinet
skingomz
skinoberiek
skinou
skinwel
skipailh
skipailhou
sklaer
sklaeroc
sklav
sklaved
sklaverez
sklaverezh
sklavez
sklear
skler
sklerder
skleridighez
sklerijen
sklerijenn
sklerijennet
skluz
sko
skoa
skoas
skoaz
skoazel
skoazell
skoazellan
skoazeller
skoazellerien
skoazellet
skod
skoe
skoed
skoedou
skoet
skoilh
skoit
skol
skolach
skolaer
skolaerez
skolaerien
skolaj
skolan
skoliad
skoliataet
skolidi
skoliet
skolio
skoliou
skor
skorf
skorn
skornan
skornet
skos
skosat
skoseg
skosiz
skoteg
skouarn
skouarnek
skoued
skouedou
skouer
skouerenn
skouerennou
skoueriou
skoul
skoulm
skoulman
skoulmet
skour
skourjez
skourjeza
skourjezet
skourr
skourrou
skrab
skraban
skramm
skrapan
skrapet
skrav
skribed
skrid
skridou
skrijus
skrijuz
skritell
skritellou
skritur
skrituriou
skriv
skriva
skrivadur
skrivagner
skrivagnerez
skrivagnerien
skrivagnour
skrivan
skrivas
skrivaz
skrive
skriver
skrivet
skrivit
skuba
skubet
skudell
skudellad
skuer
skuilh
skuilhan
skuilhet
skuill
skuilla
skuillet
skuiz
skuiza
skuizder
skuizh
skulet
sky
sl
slaved
slavek
slovak
slovakeg
slovakia
sloveneg
slovenia
sm
small
smith
sn
snorri
snow
so
soaz
soazig
sobre
soc
social
societe
society
sod
sodom
soez
sofia
sofonisba
software
soign
soin
soir
soit
sokial
sokialour
sokialouriezh
sokrates
sol
soldats
sole
soleil
solier
solitud
soljenitsyn
solo
solomon
som
somalia
somaliland
some
somerset
something
somme
son
sonadeg
sonadegou
sonadenn
sonaozer
sonaozour
sonaozourez
sonaozourien
sonas
sonch
sonchus
sone
sonenn
sonennou
soner
sonerez
sonerezh
sonerien
sonet
song
songeal
songesonou
songet
songit
songs
sonic
soniou
sonj
sonjal
sonjan
sonjas
sonjaz
sonje
sonjen
sonjer
sonjet
sonjezonou
sonjit
sonjont
sonjou
sonn
sono
sonora
sons
sont
sony
soon
sophia
sophie
soprano
sorbonne
sorc
sord
sorex
soroc
sorser
sorserez
sorserien
sort
sorte
sorti
sortial
sortiet
sot
soter
sou
souben
soubenn
soubet
soudan
soudanek
soudard
soudarded
soudardet
souden
souehet
souez
souezet
souezh
souezhet
souezhus
souezus
souezuz
souffr
souffranceu
souffrancou
souffrein
souffret
soufr
soul
soulagi
soulgarget
soumission
soun
sound
sounn
source
sourcen
sources
sourci
sourcius
sourd
sourouc
soursi
sous
sousa
souten
south
southampton
southern
souvenir
souvenirs
souveren
souveræn
souzan
soviedat
soviedel
soviediz
soy
sp
space
spagn
spagnol
spagnoled
spagnoleg
spagnolek
spanish
sparfel
sparfell
sparlet
sparta
spd
speak
spec
special
species
speed
speg
speied
spencer
spered
speredek
speredel
speredou
sperejou
speret
spern
spes
spesad
spesadou
spesou
speurenn
spi
spian
spider
spier
spierien
spilhenn
spilhou
spiou
spirit
spiritu
spirituel
spiritus
spirou
spis
spisoc
splan
splander
splann
splet
spluj
spoleto
spont
spontan
sponterezh
sponterien
spontet
spontus
spontuz
sport
sportou
sportva
spoun
spount
spountet
spountuz
spring
springfield
sq
squadron
square
squendeu
squer
squiant
sr
sranan
sri
ss
st
sta
stabil
stad
stade
stadegou
stadou
stadunanat
staen
stag
staga
stagadenn
stagan
stagas
stagaz
stage
stagell
stager
staget
staguet
stal
stalian
stalias
staliet
stalin
stalingrad
staliou
stambouc
stamm
stan
stanc
stand
standard
standards
stanford
stang
stanislas
stank
stanka
stankan
stankell
stanket
stankoc
stankter
stanley
staon
star
stard
starda
stardan
stardet
stare
starr
stars
start
startijenn
startoc
stat
state
states
station
statistical
statistics
statistique
stato
statud
steam
stefan
stefano
steki
stekin
stella
sten
stephan
stephane
stephanie
stephen
stephens
ster
stered
steredeg
stereden
steredenn
steredennou
steredoniezh
steredoniour
sterenn
steriou
sterling
stern
sterna
sternet
steudad
steunv
steve
steven
stewart
stignet
stil
still
stirad
stiria
stirling
stivell
stlapet
stlej
stleja
stlejet
stlejvil
stlejviled
stlenneg
stlepel
stock
stockholm
stok
stoket
stomok
stone
stones
stop
storia
stories
storlok
storlokan
storm
story
stouet
stoui
stourm
stourmad
stourmas
stourme
stourmer
stourmerez
stourmerien
stourmet
stourmi
stourmou
strabon
strad
straed
straedou
strafuilhet
strak
strakal
strange
strasbourg
strategel
strategiezh
strathclyde
strauss
street
strelitz
strewet
strink
strinka
strinkaz
strinket
stripou
strishoc
striv
strivan
strivou
striz
strizh
stroll
strollad
strolladig
strolladou
strollan
strollaz
strollder
strollet
strons
strouezheg
strujus
stuart
studi
studia
studiadenn
studiadennou
studian
studias
studier
studierien
studies
studiet
studio
studioiou
studios
studiou
study
stum
stumm
stummadur
stumman
stummet
stummou
stur
sturienn
sturier
stuttgart
style
su
sua
suaat
suafrika
suamerika
sub
submit
such
sud
sue
suetonius
sueved
suffolk
sug
sui
suis
suit
suite
suj
sujan
sujed
sujet
sujidi
sukorea
sukr
sul
sula
sulawesi
suliou
sulla
sullivan
sulpice
sultan
sultanelezh
sulvui
sum
sumatera
sumatra
summer
sun
sunday
sunt
suo
super
superior
superioret
supli
suppli
sur
surentez
surf
surinam
surjian
surnames
surtout
survey
sus
susan
sussex
sut
sutal
suzanne
sv
svedat
svedeg
svedek
sveden
sven
sw
swabia
swahili
swainson
sweet
swyddfa
sx
sy
sycharth
sydney
sylvain
sylvia
sylvie
symbol
syria
system
sz
sænt
sœur
sœurs
sɑ
sɔ
sɛ
t
t0
t1
t2
t3
t4
t5
t6
t7
t8
t9
ta
tabernakl
table
tablez
taboulin
tabouliner
taboulinou
tabut
tabutou
tach
tachad
tachenn
tachennou
tachou
tacitus
tad
tadeu
tadig
tadjikistan
tado
tadou
taer
taf
tag
tagadenn
tagadennou
tagalog
tagan
taget
tahiti
tai
taiek
taifa
tailand
tailh
tailhou
tair
taiwan
takad
takadou
take
takenn
tal
talan
talant
talbenn
talbot
talc
taldir
tale
tales
talgarth
taliesin
talk
tall
talv
talvez
talveze
talvezet
talvezout
talvoud
talvoudegez
talvoudegezh
talvoudek
talvoudus
talvoudusoc
talvouduz
talvout
tam
tamall
tamallet
tamic
tamig
tamik
tamil
tamileg
tamm
tammig
tammik
tammou
tamporel
tan
tanac
tanav
tanet
tanfoeltr
tang
tangi
tango
tanguy
tangwall
tank
tankou
tann
tano
tansal
tant
tantad
tantation
tantationeu
tanva
tanzania
tao
taol
taolas
taole
taolen
taolenn
taolennet
taolennin
taolennou
taoler
taolet
taoliou
taolit
taou
taouarc
taouarn
taoulagad
tap
tapas
tapet
tapout
tarn
taro
tars
tarv
tarz
tarzan
tarzh
tarzhadenn
tarzhan
tarzhas
tas
tasmania
tasmant
tastum
tate
taul
taulet
tauraco
tav
tavarn
tavarniou
tavet
tavit
tawet
taxdetails
tay
taylor
taz
tb
tbp
tc
tchad
tchadek
tchek
tchekeg
tchekia
tchekoslovakia
tchinek
td
tdn
te
teac
team
teatr
teatro
tebre
tebrin
tec
tech
techet
technical
technology
techou
ted
tegas
tegoneg
tegouezh
tegouezhas
tegouezher
tehai
tehou
tei
teifi
teign
teil
teir
teirgwern
tek
tekla
teknik
teknikel
teknikou
teknologiezh
tel
tele
telegramme
telen
telenn
telet
television
telez
teli
teliamb
telier
teliet
tell
tellou
telt
teltou
tem
temb
temminck
temou
temp
tempera
temperadur
templ
templatepajenn
temple
templou
tempo
temporel
temps
temptasionou
temptet
temz
ten
tener
tenn
tenna
tennad
tennan
tennas
tenne
tennein
tenner
tennessee
tennet
tennis
tennit
tenno
tennou
tensor
tentet
tenval
tenzor
tenzoriou
teo
teod
teodorig
teodou
teoh
teorienn
ter
terc
tere
teresa
tereza
terme
termen
termenadur
termenet
termenin
termenou
termes
terminator
termofis
terra
terre
terri
terribl
terrible
terrin
territoriales
terrubl
terry
terzhienn
tes
teskad
teskas
teski
teskin
test
testamand
testamant
testeni
testeniekaet
testeniet
testeniou
testenn
testennou
testou
tet
tete
teu
teuan
teuas
teuaz
teue
teuent
teuer
teuez
teufac
teufe
teufet
teui
teuin
teuint
teuio
teuit
teuje
teujon
teujont
teul
teuler
teulfilm
teuliou
teuomp
teuont
teuot
teurel
teurgn
teus
teuz
teuzet
tev
teval
tevel
tevenn
tever
tevet
tevi
texas
text
texte
textes
tez
tezenn
tf
tg
th
thai
thailand
thames
thamnophilidae
than
that
the
theatre
thebai
their
them
then
theodor
theodore
theodosius
theophile
theory
there
theresa
therese
theresia
thereza
these
theseus
they
thierry
thiers
thing
things
think
third
this
thomas
thompson
thor
those
thraupidae
three
through
thuringen
ti
tiad
tibabas
tiber
tiberius
tibet
tibetek
tibi
tibri
tic
tieg
tiegez
tiegezh
tiegezhiou
tiegeziou
tieien
tiek
tier
tiern
tierniezh
tierra
tiez
tiezou
tifenn
tigas
tigeri
tigor
tigoras
tigouez
tigouezas
tigouezaz
tigouezout
tigr
tiled
tilezas
tilezel
till
tilojas
tim
timad
timbr
timbre
timbrou
time
times
timezas
timor
timothee
timothy
tin
tiner
tintin
tiou
tir
tirabad
tirant
tire
tired
tireoul
tiriad
tiriadou
tirlu
tirol
tirvi
tis
tisavour
tisken
tiskenn
tiskennas
tiskennaz
tiskenne
tisklerias
tiskouez
tiskouezas
tiskouezaz
tiskoueze
tispleg
tistrei
tistrein
tistro
tistroas
tistroaz
tistrojont
tit
titan
titl
title
titlet
titlou
tito
titourou
titre
titus
tiviz
tivizas
tiwall
tiz
tizet
tizh
tizhet
tizhout
tizian
tizout
tj
tk
tl
tle
tlean
tlee
tleer
tlefe
tleit
tleomp
tleont
tlie
tlient
tm
tn
to
toaz
tobago
tobias
toc
tocantins
today
todd
todo
toenn
toennou
toet
tog
togo
togou
toi
tok
tokarn
tokugawa
tokyo
tol
tolead
toledo
tolet
toliou
tolkien
tolosa
toloza
tolpad
tolz
tom
tomas
tomatez
tomaz
tombe
tomder
tome
tomm
tomma
tomman
tommaso
tommder
tommet
tommoc
tomorrow
ton
tond
tonenn
tonennou
tonet
tonga
toniou
tonkad
tonkadur
tonket
tonkin
tonnerre
tont
tonton
tony
too
top
tor
torah
torfed
torfedou
torfedour
torfedourien
torfejou
torfet
torfetour
torgenn
torgennou
torino
torn
tornaod
toro
toronto
torosad
torquatus
torr
torre
torres
torret
tort
toskana
tost
tosta
tostaad
tostaat
tostae
tostaet
tostait
tostan
tostat
tostik
tostoc
total
tou
touar
touch
touchet
toud
toue
touellet
touer
touesk
touet
touez
toug
touge
tougen
tougn
toui
touin
toujours
toul
toull
toulla
toullad
toulladig
toullan
toullbac
toullet
toullou
toulon
toulouse
tour
tourc
touriou
tourisme
touristed
touristerezh
tourmanchou
tourmant
tourmantet
tourmanteu
tourn
tournamant
tours
tourter
tourz
tous
touseg
tout
toute
toutes
touz
touzet
tower
town
township
tp
tq
tr
tra
trade
tradition
traditions
traduction
traezh
traezhenn
traezou
train
traite
traitour
trajan
trajedienn
trakia
trallwng
tramor
tranquil
trans
transat
translation
tranzitivel
traon
traonienn
traoniennou
traou
trap
travail
travaux
travers
trawalc
tre
treac
treaz
trebez
trebilleu
trec
trecastell
tredan
trede
tree
trefaldwyn
trefeglwys
trefoet
trefyclawdd
treger
tregon
tregont
tregor
treguer
treguier
tregynon
trei
treid
trein
treitour
treiz
treizh
trek
trelosk
trema
tremen
tremenas
tremenaz
tremene
tremened
tremener
tremenet
tremeniad
tremeur
tremp
tren
treniou
trenk
trente
trento
treo
treou
treron
tres
tresadenn
tresadennou
tresan
treser
treset
tresor
tresou
tresour
tret
treu
treud
treust
treut
treutaat
treuz
treuzdougen
treuzet
treuzfurmet
treuzi
treuzin
treuzkas
treuzkaset
treuzlizherennadur
treuzou
treuzsilvania
treuzskrivan
treuzskrivet
trev
trevadenn
trevadennel
trevadennerezh
trevadennerien
trevadennet
trevadennin
trevadennou
treves
trez
trezeg
trezek
tri
triad
tribunal
tric
tricentenario
tricolor
tridal
trier
trieste
trifina
triliv
trinidad
trinkan
trio
triouec
trist
tristan
triste
tristidigez
trivac
trivet
trivia
triwec
trizek
trizekved
trizekvet
tro
troad
troadeg
troadegiezh
troas
troatad
troc
trochilidae
troed
troer
troet
trofe
trogon
troia
troiad
troiadou
troidigezh
troidigezhiou
troienn
troiennou
troiou
trois
troisieme
trompilh
trompla
tromplet
tron
tronoz
troour
trop
tropel
tropellou
trou
trouble
troublet
trouc
troude
trous
trouve
trouz
trouzus
trova
trovanel
trowardroiou
troy
troyes
truaj
trubard
trubuilhet
trubuilhou
true
truez
truezin
truezus
truezuz
trugare
trugareca
trugarecaat
trugarecat
trugarekaat
trugarekat
trugarez
trugarezus
trugarezuz
truhe
truilhennig
trumm
trump
truru
trust
truth
try
tryphine
ts
tsar
tsi
tsolyani
tt
tu
tua
tual
tuam
tuar
tuchentil
tucker
tud
tudenn
tudennou
tudi
tudjentil
tudor
tudou
tudual
tudur
tuet
tugdual
tui
tunizia
tunk
tuo
tuont
turdus
turk
turked
turkeg
turkek
turki
turkia
turkmenistan
turn
turner
tut
tutti
tutto
tuum
tuvalu
tuæ
tv
tw
twitter
two
twrch
tx
ty
type
tyrannidae
tywi
tz
tɑ
tɔ
tɔj
tɔjn
tɔn
tɛ
tɛn
u
u0
u1
u2
u3
u4
u5
u6
u7
u8
u9
ua
ub
uber
ubi
ubu
uc
uchaf
ud
udb
ue
ueh
uel
uelet
ueries
uf
uffizi
ug
ugen
ugent
ugentved
ugentvet
ughent
uguent
uh
uhel
uhela
uhelaat
uhelan
uhelder
uheldiriou
uhelidi
uheloc
ui
uiguend
uirhies
uj
uk
ukraina
ukrainat
ukraine
ukraineg
ul
ulrich
ulrika
ultima
um
uma
umberto
un
una
unan
unander
unanderenn
unanenn
unanennou
unanet
unani
unaniezh
unanik
unanin
und
under
underground
une
unesco
unic
union
uniq
unissa
unisset
unite
united
univers
universal
universe
universel
universitaires
universite
university
unix
unnek
unnekved
unnekvet
uno
unvan
unvanet
unvaniez
unvaniezh
unvanin
unvez
unveziou
uo
uomo
up
upon
uq
ur
uraniom
urban
urbe
urbino
urh
urien
urraca
urs
ursiou
urss
ursula
uruguay
uruguayat
urz
urzh
urzhiad
urzhian
urzhiataer
urzhiataerezh
urzhiataeriou
urzhiet
urzhiou
urziou
urzou
us
usa
usaaf
usach
usage
usaich
usmc
usque
usuels
ut
utah
util
utrecht
uu
uv
uw
ux
uy
uz
uzet
uzin
v
v0
v1
v2
v3
v4
v5
v6
v7
v8
v9
va
vaast
vab
vabilon
vac
vachelouriezh
vad
vadalen
vadeleah
vadeles
vadelez
vadeu
vadezi
vadeziant
vadezour
vadiend
vadiziant
vado
vadou
vae
vaen
vaer
vaez
vag
vaga
vagad
vagadurez
vagan
vage
vagerez
vai
vaillant
vais
vajeste
vak
vakansou
val
valan
valdes
vale
valee
valencia
valenciennes
valens
valentin
valentina
valentine
valentinian
valeria
valerian
valerius
valeur
vali
valic
vall
valladolid
valle
vallee
vallerie
valles
valley
valloz
valois
valparaiso
valtouterien
vam
vamen
vamm
vammen
vammenn
van
vanac
vanas
vanati
vanav
vancouver
vandaled
vande
vanden
vandenn
vandennad
vane
vaner
vanessa
vanifestadeg
vanite
vank
vanke
vanko
vankout
vann
vanne
vannes
vannetais
vanos
vanq
vantel
vantell
vanuatu
vaot
vaouez
vaouezed
vap
var
vara
varadoz
varbared
varc
vardro
vare
vargas
varhue
vari
varia
variante
varin
varlec
varlerc
varn
varnedigez
varner
varnerien
varnezan
varnezhan
varnezhe
varnezhi
varnezho
varnezo
varnhan
varnhi
varnho
varno
varnoc
varnomp
varnugent
varnuguent
varo
varoned
varr
varregezh
varrenn
varrikenn
varsovia
vartezeadenn
vartolod
vartoloded
vartolodet
varv
varvas
varvaz
varve
varvin
varvo
varzed
varzhed
varzhez
varzhin
varzhoneg
varzhonegou
varzhoniezh
varzu
vas
vasa
vasco
vastarned
vat
vates
vatez
vatezh
vatikan
vatimant
vatriona
vaucluse
vaz
vaze
vazh
vb
vc
vd
ve
vea
veac
veach
veaj
veajas
veajin
veajou
veajourien
vean
vec
vecchio
vech
vechant
ved
vedalen
vedalenn
vedita
veditation
veet
vefe
vefen
vefent
vefet
vefomp
vefont
veg
vega
vegas
vehai
vehe
vehemb
vehent
vehet
vehoh
veich
veilla
veillee
vein
veint
vek
vel
velan
velas
velaz
velazquez
vele
velean
veleg
velegiach
veleien
velek
velen
velent
veler
velestradurel
velestradurezh
velet
veleyen
velez
velgiat
veli
velin
velit
veliz
veljont
velkent
velkoni
vell
vella
velo
velomp
velont
velot
velout
velvet
vemor
vemp
vemprou
ven
venac
vendee
vendome
venec
venediction
veneg
venel
veneto
venez
venezia
veneziou
venezuela
vengleuz
veni
veniel
veniliornis
venji
venn
vennas
venne
venner
vennet
vennigaz
venniget
vennoz
vennozh
vennozhiou
veno
venosiou
venoz
vent
venus
venveg
veo
ver
vera
veracruz
veran
verb
verbou
verbum
verc
verde
verdeadurezh
verder
verdun
vered
vergilius
verh
verhuel
verit
veritable
veritan
verite
veriteu
veritou
verk
verkan
verke
verkingetorix
verlag
vermeer
vermont
vern
verne
vernon
verona
verr
verri
vers
versailhez
versailles
version
vert
vertu
vertuieu
vertus
vertuyeu
vertuz
vertuziou
vertuzus
vertuzuz
verus
verv
verve
vervel
vervent
very
verz
verza
verzas
verzer
verzerenti
verzerien
verzerinti
verzh
ves
vesa
vesk
veskan
vespasianus
vespucci
vestr
vestres
vestrez
vet
veu
veul
veule
veuleudi
veuli
veulo
veur
veure
veuriad
veurs
veuzi
vev
veva
vevan
vevas
vevaz
veve
vevel
vevelien
vevenn
vevent
vevo
vevomp
vevont
vez
veza
vezai
vezan
veze
vezegez
vezegiezh
vezen
vezenn
vezent
vezer
vezet
vezeven
vezh
vezi
vezimp
vezin
vezinn
vezint
vezit
vezo
vezoc
vezomp
vezont
vezventi
vf
vg
vh
vi
via
vian
viana
vibien
vic
vice
vicente
viche
vicher
vicherourien
vichy
vicou
victimes
victoer
victoire
victor
victoria
victorius
vid
vida
video
videoiou
vie
vieille
vieillot
vienna
vienne
vient
vierge
viet
vietnam
vietnameg
vieux
view
vige
vignon
vignoned
vignonet
vignonez
vignoniezh
vignoun
vignouned
vigo
vigors
vigoudenn
vihan
vihana
vihanaat
vihanan
vihanik
vihue
vihuein
vii
viii
viiie
viiivet
viivet
vije
vijec
vijemp
vijen
vijenn
vijent
vijes
vikel
viken
vikenn
viking
vikinged
viktor
viktoria
vil
vila
vilaine
vilanova
vilar
vilin
vilion
villa
village
villanueva
villars
ville
villemarque
villeneuve
villers
villes
villiers
vilourel
vimp
vin
vince
vincent
vincenzo
vinci
vindosetlos
vingt
vingtaine
vinistr
vinistred
vinn
vino
vinoun
vins
vint
vintin
vinz
vioc
violante
violin
violons
viot
viou
vipien
vir
viraclou
virakl
viraklou
viras
viraz
vire
virer
viret
virgin
virginia
virgo
virhuiquin
viridis
virionez
virit
viro
virout
virton
viruz
virvi
virviken
vis
visant
viscoah
visconti
vise
visericord
vision
visionerien
visit
viskoaz
viskoazh
vista
vistri
vit
vita
vite
vitin
vitologiezh
vitoria
vittoria
vittorio
vive
vivet
vivo
vivre
viz
vizach
vize
vizer
vizied
vizigoted
vizita
vj
vk
vl
vla
vladimir
vlai
vlaz
vlenierien
vleo
vleud
vlev
vlevenn
vloa
vloas
vloavez
vloavezh
vloavezhiou
vloaz
vloaziek
vlotaat
vm
vn
vo
voa
voad
voair
voal
voalc
voalen
voall
voan
voant
voar
voay
voaz
vobis
voc
vocabulaire
vocation
voce
vod
vodadeg
vodadenn
vodan
vodas
vode
voden
vodern
vodesti
voe
voed
voeh
voen
voent
voereb
voes
voest
voez
vogalenn
vogalennek
vogalennou
voged
voger
voice
voici
voila
voir
voix
voizes
voizez
vojenn
vol
volante
volkswagen
volonte
volontes
volontez
volotenn
volta
voltaire
volume
volz
vom
vombard
vombezadeg
vombezenn
von
vonarkiezh
vond
vonet
vonreizh
vont
vontroulez
vor
vorc
vord
vorgan
vortigern
vorzed
vos
vosen
vosenn
vosges
voskeen
vot
votadeg
votet
votez
votin
votou
votre
vou
voualc
vouc
voud
voudaegezh
voudenn
voue
voued
voueh
vouel
vouela
vouent
voueta
vouez
vouezh
voug
vouga
vougan
vougev
vouie
voul
voulc
voulouz
vourboned
vourc
vourdel
vourrevien
vourzh
vous
vousc
vout
voutailh
voutailhad
voutin
voutou
vouzar
voyage
voyen
voz
vp
vq
vr
vragal
vragou
vrai
vran
vrao
vras
vrasa
vrasan
vrasoc
vrassa
vrassan
vrassoc
vrav
vraz
vrazilian
vreac
vrec
vreg
vrein
vreina
vreiz
vreizh
vreizhat
vreizhveuriat
vreiziz
vrema
vreman
vreskenn
vrest
vreton
vretoned
vretonet
vretouned
vreudeur
vreur
vreuriez
vrezel
vrezelidi
vrezelin
vrezelourien
vrezhon
vrezhoned
vrezhonegerien
vrezhonek
vrezoned
vrezoneg
vrezonek
vriad
vriata
vro
vroad
vroadel
vroadelourien
vroadelouriezh
vroadou
vroeg
vroig
vroiou
vronn
vroudas
vruched
vrud
vrudan
vrudet
vrudetan
vs
vt
vu
vuan
vuanegez
vue
vues
vuez
vugale
vugaleach
vugaleaj
vugaligou
vugel
vuhe
vuhez
vuhezegezh
vui
vuia
vuian
vuioc
vuntrerien
vunut
vunutenn
vuoc
vur
vurgonded
vurzud
vurzudou
vurzudus
vutun
vuzellou
vuzulman
vuzulmaned
vv
vvd
vvet
vw
vx
vy
vz
væn
væstr
vœu
vɑ
w
w0
w1
w2
w3
w4
w5
w6
w7
w8
w9
wa
wad
waffen
wagenn
wagler
wagner
wake
walarn
walc
walen
walenn
wales
walh
walk
walker
wall
wallace
walloneg
wallonia
walt
walter
walton
wan
wang
want
war
waray
warc
ward
warded
wardro
wareg
waremm
warez
warezin
warizi
warlec
warlene
warlerc
warn
warnan
warne
warner
warnezan
warnezi
warni
warno
warnoc
warnomp
warnon
warnout
warren
warrior
wars
warzu
was
washaat
washington
wask
watch
water
waterloo
watson
wave
way
wayne
waz
wazed
wazh
wb
wc
wd
we
weach
web
weber
website
wech
wechall
wechou
weekly
ween
weenn
wehrmacht
wei
weights
weimar
wej
wejo
wel
wela
weladennin
welan
welann
welas
welaz
welcome
wele
weled
weledigez
welent
weler
welet
welez
welfet
weli
welimp
welin
welinn
welis
welit
weliz
welje
weljont
well
wella
wellaat
wellan
welles
wellington
welloc
welo
welomp
welont
welot
welout
welsh
welt
wen
wened
wener
wengamp
wengolo
wenn
wenneg
wenodenn
wer
werc
were
werenn
werennad
werin
wern
werner
werz
werza
werzenn
werzh
werzhan
wessex
west
western
westfalen
westhoek
westminster
wetur
wez
wezen
wezenn
wezh
wezhiou
wezhou
wezo
wf
wg
wh
what
when
where
which
white
who
why
wi
wialenn
wiber
wie
wien
wikeriadur
wiki
wikimammenn
wikimedia
wikipedia
wikisource
wikispecies
wild
wilde
wiley
wilhelm
wilhelmine
will
willem
william
williams
willie
willy
wilson
win
winchester
wind
windows
winien
winston
winter
wir
wirion
wirione
wirionez
wiriou
wisconsin
wisk
wiska
wiskan
wiskas
wiski
wit
with
without
wiz
wiziegez
wizigoted
wj
wk
wl
wm
wn
wo
wolf
wolfenbuttel
wolfgang
wolfram
woman
women
woo
wood
woody
word
words
work
works
world
worldwide
worms
would
woulfe
wp
wq
wr
wrac
wrecsam
wreg
wrez
wright
wrizienn
ws
wt
wu
wurttemberg
wv
ww
www
wx
wy
wyn
wyoming
wysg
wz
x
x0
x1
x2
x3
x4
x5
x6
x7
x8
x9
xa
xadrez
xavier
xb
xbox
xc
xd
xe
xerais
xf
xg
xh
xi
xii
xiii
xiiivet
xiivet
xiv
xivet
xivvet
xix
xixvet
xj
xk
xl
xm
xn
xo
xp
xq
xr
xs
xt
xu
xun
xv
xvet
xvi
xvii
xviii
xviiivet
xviivet
xvivet
xvvet
xw
xx
xxi
xxii
xxiii
xxiv
xxivet
xxix
xxv
xxvet
xxvi
xxvii
xxviii
xxx
xxxi
xxxii
xxxiii
xy
xz
y
y0
y1
y2
y3
y4
y5
y6
y7
y8
y9
ya
yac
yae
yafe
yalc
yale
yamamoto
yan
yang
yann
yannick
yannig
yao
yaou
yaouanc
yaouank
yaouanka
yaouankan
yaouankik
yaouankiz
yaouankizou
yaouankoc
yaouanq
yar
yas
yb
yc
yd
ye
yea
year
years
yeas
yec
yee
yehan
yehouda
yein
yellow
yelo
yemen
yen
yenien
yeo
yeot
yer
yes
yeun
yeunig
yeux
yev
yez
yezh
yezhadur
yezhadurel
yezhadurour
yezhel
yezhoniel
yezhoniezh
yezhoniour
yezhou
yezhour
yezhourien
yezou
yf
yg
yh
yi
yj
yk
yl
ym
yn
yng
ynys
yo
yoa
yoc
yod
yoga
yon
yonne
yontr
yoran
york
yorkshire
you
youanq
youc
youen
youenn
yougoslavia
youl
young
your
yourc
youth
youtube
yp
yq
yr
ys
ysgol
ystadegau
ystog
ystrad
ystradenni
ystradgynlais
yt
yu
yucatan
yud
yudal
yun
yunnan
yuzev
yuzevegezh
yuzevien
yuzevion
yv
yvelines
yves
yvette
yvon
yvonne
yw
yx
yy
yz
z
z0
z1
z2
z3
z4
z5
z6
z7
z8
z9
za
zac
zachenn
zad
zadorn
zadou
zae
zaelou
zaerou
zakarias
zakr
zakramanchou
zakramant
zakrifis
zakrist
zal
zalc
zale
zaleas
zaleaz
zalh
zall
zalud
zaludi
zalver
zalwer
zambia
zamm
zammig
zamora
zan
zanevell
zanevellou
zansal
zant
zante
zantel
zantelez
zantes
zantez
zantifia
zantimant
zanvez
zanzibar
zao
zaol
zaou
zaouarn
zaoud
zaoulagad
zaoulin
zaout
zaouzek
zaoz
zaozon
zapotekek
zaragoza
zarempred
zarpant
zas
zastum
zastumad
zastumas
zastumaz
zav
zavas
zavaz
zave
zavet
zavetei
zavid
zavier
zavo
zb
zc
zd
ze
zea
zeas
zeblant
zeblante
zebr
zebraz
zebre
zebri
zebrin
zebro
zec
zedong
zeeland
zegas
zegasas
zegemer
zegouezh
zegouezhas
zehou
zei
zeir
zeisiou
zeiz
zek
zel
zeland
zelaou
zelaouaz
zelaouo
zelc
zeli
zeliamb
zeliant
zelier
zeliet
zell
zellaz
zelle
zellet
zellou
zempladurez
zen
zenaida
zenna
zennet
zent
zentaz
zenti
zentidigez
zenved
zeo
zeod
zeou
zeourn
zepartamant
zerc
zere
zerhel
zero
zerr
zerri
zervez
zervich
zervicha
zervichaz
zerviche
zervicher
zervicherien
zervicho
zervichout
zesir
zesk
zeskadurez
zeskas
zeski
zeskin
zesko
zesq
zestum
zet
zetans
zeu
zeuas
zeuaz
zeue
zeufe
zeui
zeuio
zeuje
zeuont
zeus
zevel
zever
zeveriou
zevez
zevezh
zevi
zevosion
zevotion
zevri
zezir
zf
zg
zh
zhang
zhou
zhu
zi
ziabarz
ziabell
ziagent
ziar
ziarbenn
ziaveaz
ziazez
ziazezan
ziazezas
zibab
zibluo
zibri
zic
zicour
ziegezh
zier
zieubin
ziez
zifen
zifenn
zifennaz
zifenne
ziforc
zigarez
zigas
zigasas
zigasaz
zigase
zigaso
zigemer
zigemeret
zigeri
zigerin
zigoll
zigor
zigoras
zigoraz
zigore
zigoro
zigouez
zigouezas
zigouezaz
zigoueze
zigresk
zigwez
zihoal
zihuen
zihun
zihunas
zikour
zikouret
zilad
zilaou
zilerc
zileuriad
zilez
zilezas
zilezel
zilhad
zillad
zilvidigez
zimbabwe
zimez
zimezas
zimezi
zimezin
zimezo
zimizi
zin
zinac
zindan
zingg
zinifi
zint
zioc
ziorren
ziou
ziouall
ziouc
ziouer
ziougan
ziouskoaz
ziouskouarn
zirag
zirak
ziredas
ziredaz
zirede
zis
ziscleria
zisco
ziscoein
ziscuez
zishenvel
ziskar
zisken
ziskenn
ziskennas
ziskennaz
ziskenne
ziskennidi
ziskenno
ziskibien
ziskibled
ziskiblien
ziskler
ziskleria
zisklerian
zisklerias
ziskleriaz
zisklerie
ziskouarn
ziskouez
ziskouezas
ziskouezaz
ziskoueze
ziskouezet
ziskouezo
ziskuez
ziskuiza
zisoc
zispac
zisparti
zispenn
zispign
zispleg
zisplega
zisplegan
zisplige
zispriz
zisq
zisquen
zisquez
zisquibien
zistag
zistaga
zistagan
zistagas
zister
zistrei
zistrein
zistro
zistroas
zistroaz
zistroe
zistroi
zistroio
zistruj
zistrujan
zita
zitl
ziv
zivesker
ziveza
zivezad
ziviz
zivizas
zivout
zivreac
zivrec
zivskouarn
ziwall
ziwar
ziwezhan
ziwezhat
zizec
zizober
zizun
zj
zk
zl
zle
zm
zn
zo
zoa
zoar
zoare
zoareou
zoc
zoctrin
zod
zoe
zoh
zoken
zol
zolier
zomp
zon
zonch
zond
zone
zonenn
zonet
zoniou
zonj
zonjal
zonjan
zonjas
zonjaz
zonje
zonjou
zonnet
zont
zor
zoriou
zorn
zorserez
zosso
zosterops
zou
zouar
zouarou
zouben
zoubenn
zoucder
zoudard
zoudarded
zoudardet
zoue
zoueed
zouez
zoug
zougas
zougaz
zouge
zougein
zougen
zouget
zougo
zouguen
zouj
zoujan
zoujans
zoujanz
zouloueg
zoun
zour
zourn
zousder
zouster
zoz
zozon
zp
zq
zr
zra
zrec
zreid
zremenvan
zremm
zri
zro
zroad
zron
zrouc
zroug
zrouk
zs
zt
zu
zuberoa
zud
zudi
zug
zujidi
zul
zum
zun
zuniga
zuperior
zur
zurich
zv
zw
zweibrucken
zx
zy
zz
zænt
zɔ
zɛn
{
|
}
~
¡
£
§
©
ª
«
®
°
±
²
³
´
µ
·
¹
º
»
½
¿
×
ß
æ
æl
æled
ælet
ælez
ær
æt
æthelred
ævreu
æz
ð
÷
ø
þ
đ
ħ
ı
ł
ŋ
œ
œuvre
œuvres
œuvro
œuvrou
œvreu
ŧ
ſ
ǀ
ǁ
ǂ
ǃ
ǝ
ɐ
ɑ
ɒ
ɓ
ɔ
ɔr
ɔt
ɔx
ɕ
ɖ
ɗ
ɘ
ə
ɛ
ɛl
ɛn
ɛr
ɛs
ɛt
ɛx
ɜ
ɟ
ɡ
ɡa
ɡe
ɡi
ɡo
ɡu
ɡwe
ɡɑ
ɡɔ
ɡɛn
ɡɛs
ɢ
ɣ
ɣa
ɣe
ɤ
ɥ
ɦ
ɨ
ɪ
ɫ
ɬ
ɯ
ɲ
ɳ
ɴ
ɵ
ɸ
ɹ
ɻ
ɾ
ʀ
ʁ
ʂ
ʃ
ʃi
ʈ
ʉ
ʊ
ʋ
ʌ
ʎ
ʏ
ʐ
ʑ
ʒ
ʒe
ʒɔ
ʔ
ʕ
ʝ
ʤ
ʦ
ʧ
ʰ
ʲ
ʷ
ʹ
ʻ
ʼ
ʾ
ʿ
ˀ
ˈ
ˌ
ː
ˑ
ˠ
ˤ
˧
˩
α
β
γ
δ
ε
ζ
η
θ
ι
κ
λ
μ
ν
ξ
ο
π
ρ
ς
σ
τ
υ
φ
χ
ψ
ω
ϐ
ϕ
а
б
в
г
д
е
ж
з
и
к
л
м
н
о
оияи
п
р
с
т
у
ф
х
ц
ч
ш
щ
ъ
ы
ь
э
ю
я
є
і
ј
љ
њ
ћ
ѳ
қ
ң
ҧ
ҩ
ү
ә
ө
ա
գ
դ
ե
զ
թ
ի
լ
կ
հ
ղ
մ
յ
ն
շ
ո
պ
ռ
ս
վ
տ
ր
ց
ւ
ք
և
־
א
ב
ג
ד
ה
ו
ז
ח
ט
י
ך
כ
ל
ם
מ
ן
נ
ס
ע
פ
ץ
צ
ק
ר
ש
ת
ײ
،
ء
ا
ب
ة
ت
ث
ج
ح
خ
د
ذ
ر
ز
س
ش
ص
ض
ط
ظ
ع
غ
ـ
ف
ق
ك
ل
م
ن
ه
و
ى
ي
پ
چ
ک
گ
ہ
ی
ܐ
ܘ
ܝ
अ
उ
क
ख
ग
च
ज
ट
ड
ण
त
थ
द
ध
न
प
फ
ब
भ
म
य
र
ल
व
श
ष
स
ह
উ
ক
চ
ণ
ত
দ
ন
প
ব
ম
র
ল
শ
ষ
স
ৰ
ਣ
ਪ
ਬ
ਮ
ਰ
ક
ત
દ
ન
પ
મ
ર
શ
க
ட
த
ன
ப
ம
ர
ற
ல
ழ
வ
త
న
య
ర
ల
వ
ಕ
ತ
ಪ
ರ
ക
ഞ
ട
ന
ര
വ
න
ก
ข
ค
ง
จ
ฉ
ช
ด
ต
ท
น
บ
ป
พ
ม
ย
ร
ล
ว
ศ
ส
ห
อ
ะ
า
เ
ใ
າ
་
།
ང
ན
བ
ར
ལ
က
အ
ა
ბ
გ
დ
ე
ვ
თ
ი
კ
ლ
მ
ნ
ო
რ
ს
ტ
უ
ქ
ღ
შ
ხ
ᄀ
ᄂ
ᄃ
ᄅ
ᄆ
ᄇ
ᄉ
ᄋ
ᄌ
ᄎ
ᄏ
ᄐ
ᄑ
ᄒ
ᅡ
ᅢ
ᅣ
ᅥ
ᅦ
ᅧ
ᅩ
ᅪ
ᅮ
ᅯ
ᅲ
ᅳ
ᅴ
ᅵ
ᆨ
ᆫ
ᆯ
ᆷ
ᆸ
ᆺ
ᆼ
ᐅ
ᑐ
ᑦ
ᖅ
ᚐ
ᚒ
ᚔ
ᛅ
᛬
រ
ស
‐
‑
–
—
―
‘
’
‚
“
”
„
†
•
…
′
″
‿
⁂
ⁿ
₁
₂
₃
€
ℓ
℟
℣
→
↔
↷
−
√
∞
≈
③
④
⑦
─
│
┌
└
█
■
◆
♣
♦
♭
⚜
✝
ⴰ
ⵉ
⺀
⺄
⺆
⺈
⺊
⺌
⺕
⺝
⺸
⺼
⿰
⿱
⿲
⿳
⿴
⿵
⿶
⿷
⿸
⿹
⿺
⿻
《
》
〢
あ
い
う
お
か
き
く
け
こ
さ
し
す
せ
そ
た
ち
つ
つける
て
と
とその
な
に
についての
の
は
ひ
ふ
へ
ほ
ま
み
も
よ
ら
り
る
れ
を
ん
ア
ィ
イ
ウ
エ
オ
カ
キ
ク
ケ
コ
サ
シ
ス
セ
タ
タル
チ
ッ
ツ
テ
ト
ナ
ニ
ハ
ヒ
フ
ヘ
ホ
マ
ミ
ム
ャ
ヤ
ュ
ユ
ョ
ラ
リ
ル
レ
ロ
ン
・
ー
㇁
㇂
㇄
㇇
㇈
㇉
㇓
㐁
㐄
㐅
㐌
㐫
㐬
㐭
㐮
㐱
㑒
㒵
㒸
㒼
㓁
㓞
㔾
㕛
㕣
㖾
㘝
㚅
㚇
㚔
㚘
㝉
㝡
㝴
㝵
㞋
㞢
㞷
㠩
㠭
㠯
㡀
㡭
㡿
㢲
㢴
㣇
㣺
㥯
㪅
㫄
㫐
㫒
㫺
㬅
㬎
㬥
㬰
㲋
㳄
㷠
㸒
㸚
㸦
㼌
㼲
㽞
㿟
䀠
䂞
䍃
䏍
䒑
䖍
䖒
䖝
䖵
䙴
䚻
䜌
䝿
䡛
䧹
䪞
一
丁
丂
七
丄
丅
丆
万
丈
三
上
下
丌
不
与
丏
丐
丑
专
且
丕
世
丘
丙
业
东
丞
丢
丣
两
严
並
丨
丩
个
丫
丬
中
丮
丰
丱
串
丵
丶
丷
丸
丹
为
主
丽
丿
乀
乂
乃
久
乆
乇
么
义
之
乌
乍
乎
乏
乐
乑
乔
乖
乗
乘
乙
乚
乛
乜
九
乞
也
习
乡
乳
乾
亀
亅
了
亇
予
争
事
二
亍
于
亏
亐
云
互
亓
五
井
亘
亚
亜
亞
亟
亠
亡
亢
交
亥
亦
产
亨
亩
享
京
亭
亮
亯
亰
亲
亳
亶
亷
人
亻
亼
亾
仁
今
介
仌
从
仐
仑
仒
仓
仕
他
付
仝
代
令
以
任
企
伊
伏
伐
休
会
伯
但
位
何
佘
余
作
佥
使
來
侈
侌
侖
侯
侵
便
保
俞
信
修
倉
倍
候
倠
備
僉
僕
儿
兀
允
兂
元
兄
充
兆
兇
先
光
兊
克
兌
免
兑
兒
兓
兔
党
兜
兟
入
全
兩
兪
八
公
六
兮
兰
共
关
兵
其
具
典
兹
兼
冀
冂
冃
冄
内
冈
冉
冊
冋
册
再
冎
冏
冐
冒
冓
冖
冗
冘
军
农
冝
冡
冥
冫
冬
冷
几
凡
凢
凵
凶
凷
凸
凹
出
函
凾
刀
刁
刂
刃
刄
刅
分
切
刊
刍
刑
刕
刖
列
刘
则
初
別
利
别
到
制
刺
則
削
剌
前
剡
剽
劉
力
功
加
劦
助
劫
劳
劵
勃
勇
勉
勒
動
務
勞
勤
勹
勺
勻
勾
勿
匀
匂
包
匆
匈
匊
匋
匍
匕
化
北
匚
匝
匡
匪
匱
匸
匹
区
医
匽
匿
區
十
卂
千
卄
卅
卆
升
午
卉
半
卌
华
卑
卒
卓
单
卖
南
卜
卝
卞
占
卡
卢
卣
卤
卦
卩
卪
卬
卯
印
危
即
却
卵
卷
卸
卻
厂
厃
厄
历
厈
厉
厌
厓
厘
厚
原
厤
厥
厨
厭
厲
厶
厷
厸
去
厼
厽
叀
参
參
叅
又
叉
及
友
双
反
叐
发
叒
叔
叕
取
受
叚
叜
叟
口
古
句
另
叩
只
召
可
台
叱
史
右
叵
号
司
叹
吂
各
吅
合
吉
吊
吋
同
名
后
吏
向
吕
君
吝
吞
否
含
启
吳
吴
吹
吾
呂
呆
呈
告
员
呙
周
命
咅
和
咎
咠
咢
咨
咸
咼
哀
品
哉
員
哥
哲
唐
商
啇
問
啚
啬
啻
善
喜
喬
單
喿
嗇
噩
嚴
囊
囗
囘
囙
囚
四
回
囟
因
囧
囬
困
囱
囷
固
国
圂
圅
國
圍
圓
土
圡
圣
圥
在
圭
地
圶
圼
坐
坒
坚
坴
垂
垔
垚
埀
埋
城
埶
執
基
堂
堅
堆
堇
堯
塞
墨
壘
士
壬
壯
声
壳
壴
壹
壺
壽
夂
处
夅
夆
备
夊
夋
夌
复
夏
夒
夕
外
夗
夘
多
夜
夢
大
夨
天
太
夫
夬
夭
央
失
夲
头
夷
夸
夹
夻
夾
奂
奄
奇
奈
奉
奎
奏
奐
契
奓
奔
奚
奞
奠
奢
奥
奭
女
奴
奻
好
如
妄
妙
妟
妥
妻
妾
姑
委
姜
威
娄
婁
婴
嬰
嬴
子
孑
孔
孕
孖
字
存
孚
孛
孝
孟
季
孤
学
孫
孱
學
宀
宁
宂
它
宅
宇
守
安
宋
完
宏
宓
宗
官
定
宛
宜
宝
客
宣
室
宮
宰
害
家
容
宾
宿
寄
寅
密
富
寒
察
寧
審
寫
寬
寮
寸
对
寺
寻
寽
対
寿
封
尃
射
将
將
專
尉
尊
尋
尌
對
小
少
尒
尓
尔
尖
尗
尚
尞
尢
尣
尤
尧
尨
尭
就
尸
尹
尺
尻
尼
尽
尾
尿
局
居
屈
屋
屎
屏
屑
展
屖
屚
属
屠
屡
屬
屮
屯
屰
山
屵
屾
岁
岂
岑
岡
岩
岳
岸
峯
島
崇
崑
崔
崖
崙
崩
嵬
嶲
巂
巛
川
州
巟
巠
巢
巤
工
左
巧
巨
巩
巫
差
己
已
巳
巴
巷
巸
巽
巾
巿
帀
市
布
希
帚
帛
帝
带
師
席
帶
常
干
平
年
幵
并
幷
幸
幺
幻
幼
幽
幾
广
広
庄
床
底
店
庚
府
度
庫
庭
庶
康
庸
廉
廌
廛
廣
廩
廴
延
廷
建
廾
廿
开
弁
弃
弄
弇
弋
式
弓
弔
引
弗
弘
弜
弟
弥
弦
弱
張
強
强
彊
彌
彎
彐
彑
当
彔
录
彖
彗
彡
形
彥
彦
彧
彭
彳
役
彼
往
待
律
徒
得
徙
從
復
微
徵
心
忄
必
忌
忍
志
忝
忠
忩
快
念
忽
忿
思
怠
急
怱
恆
恒
恩
恭
息
悉
患
悤
悲
悶
惠
惡
惢
愁
愈
意
愛
感
慈
慧
慮
憂
憲
應
戀
戈
戉
戊
戋
戌
戍
戎
成
我
戒
戔
或
戚
戠
戢
戦
截
戲
戶
户
戹
戼
戾
房
所
扁
扇
手
扌
才
打
托
执
承
折
拉
拜
拿
指
掌
推
提
摩
支
攴
攵
收
攸
改
放
政
敄
敏
敕
敖
敗
敝
敞
敢
散
敦
敫
敬
数
敷
數
斂
文
斉
斊
斗
斤
斥
斩
斬
斯
新
方
於
施
斿
旁
旋
族
无
旡
既
旣
日
旦
旧
旨
早
旬
旱
旲
时
旾
昆
昇
昌
昍
明
昏
易
昔
昗
昜
星
春
昬
是
昱
昴
昷
時
晃
晋
晏
普
景
晶
智
暑
暴
曇
曩
曰
曲
曳
更
曷
書
曹
曼
曾
替
最
朁
會
月
有
朋
服
朔
朕
朗
望
朝
木
朩
未
末
本
札
朮
术
朱
朵
朶
朿
杀
杏
杜
束
条
来
東
杲
杳
松
析
林
枚
果
枝
枲
枼
某
柔
查
柬
柰
柴
栗
桀
桑
桼
梁
條
梟
梨
棘
棠
棥
森
楚
業
楽
榮
樂
樊
欠
次
欣
欮
欲
欶
欽
款
歆
歇
歛
止
正
此
步
武
歨
歪
歮
歯
歰
歲
歴
歷
歸
歹
歺
死
殳
段
殷
殸
殹
殺
殻
殿
毋
毌
母
每
毒
比
毕
毚
毛
毳
氏
氐
民
气
氣
水
氵
氶
氷
永
氺
氾
求
汝
汞
江
沃
沓
沙
沝
河
泉
法
波
泣
泥
泰
洛
洪
活
派
流
浦
浪
浮
海
淡
淮
清
渚
渠
湯
滿
漢
漸
火
灬
灭
灰
灵
灷
炅
炎
炏
炗
炙
炭
為
烈
烏
烝
焉
無
焦
焱
然
煞
熊
熏
燕
營
燮
爪
爫
爭
爯
爰
爱
爲
爵
父
爻
爽
爾
爿
片
牙
牚
牛
牜
牟
牢
牧
牪
牽
犀
犬
犭
犮
狂
狄
狊
独
狺
猋
猒
猪
献
獻
玄
率
玉
王
玟
玨
珎
班
琴
瑟
瑩
瓜
瓦
甘
甚
生
産
用
甫
甬
田
由
甲
申
电
甶
男
甸
甹
画
甾
畀
界
畏
畐
留
畜
畟
畢
畧
畨
番
畫
異
畱
當
畺
畾
疊
疋
疌
疑
疒
疾
癶
癸
癹
登
發
白
百
皀
皃
的
皆
皇
皋
皐
皕
皮
皷
皿
盃
盆
盇
盈
益
盍
盎
监
盒
盖
盛
盡
監
盤
盧
目
直
相
盾
省
眇
眉
看
眔
眞
真
眷
眼
眾
着
睘
睪
睿
瞏
瞢
瞿
矍
矛
矞
矢
矣
知
矦
短
石
破
碎
磊
磨
示
礻
礼
神
祟
票
祭
禀
禁
禸
禹
禺
离
禽
禾
禿
秀
秃
秉
秋
科
秝
秦
移
稟
穀
穌
穴
究
穹
空
穿
突
窄
窒
立
竒
竜
竝
竟
章
童
竹
笑
笠
筆
等
答
箕
算
箴
節
篤
篭
米
粉
粛
粟
粤
粦
粲
糞
糸
糹
系
約
納
素
索
紫
累
細
絜
絫
絲
維
綿
縣
繇
纍
纟
缶
网
罒
罔
罕
罗
罙
罡
罢
罪
署
罷
羅
羊
羌
羍
美
羔
羕
羗
羞
羡
羣
群
義
羲
羸
羽
翁
翏
習
翕
翟
翠
翼
老
耂
考
者
耆
而
耎
耑
耒
耳
耴
耶
耷
聂
聊
聖
聚
聶
聿
肀
肃
肅
肉
肖
肙
肥
肩
肯
育
肴
胃
背
胡
胥
能
脊
脩
膚
臣
臤
臧
自
臬
臭
臯
臱
至
致
臺
臼
臽
臾
臿
舀
舂
舄
與
興
舉
舌
舍
舛
舜
舞
舟
般
艮
良
色
艸
艹
艾
芒
芔
芬
芮
花
芳
芺
芻
苔
苗
苟
若
苦
英
茶
茸
荅
草
荒
荣
荼
莆
莧
莫
莽
菆
菊
菐
華
萬
落
葉
著
葛
董
葵
蒙
蒦
蒼
蓋
蓬
蓺
蔑
蔡
蕉
蕭
薄
薛
薦
薰
藍
藏
藤
藥
蘭
虍
虎
虐
虒
虔
處
虖
虗
虘
虚
虛
虜
虞
虫
虽
蚤
蚩
蜀
蜜
蟲
蠡
血
行
衍
衛
衣
衤
表
衮
衰
袁
袞
褭
褱
襄
襾
西
覀
要
覃
見
規
覓
覧
親
覽
见
角
解
言
訁
訇
計
記
詹
語
誩
諸
讠
记
语
谷
豆
豈
豊
豐
豕
豖
豙
象
豦
豩
豪
豸
貇
貝
貞
貟
負
貢
貧
貪
貫
責
貳
貴
買
費
賁
資
賈
賏
賓
賔
賛
賞
賢
賣
質
賴
贊
贝
贡
责
贯
贲
贵
赖
赞
赤
赦
走
越
足
路
蹇
身
躬
車
軍
軎
軟
輦
车
辛
辜
辟
辥
辰
辱
農
辵
辶
边
达
过
近
连
迷
追
退
送
逆
逐
通
速
造
逢
連
逮
進
遀
遂
過
道
達
遣
適
遷
遺
邊
邑
邕
那
邦
邪
郎
部
郭
都
鄉
酉
酋
配
酓
釆
采
里
重
野
量
金
釒
錢
钅
長
镸
长
門
閃
閉
開
閏
閑
閒
間
閔
閵
閻
闌
门
间
闷
阑
阜
阝
阿
降
陳
隆
隊
隋
隡
隨
隱
隶
隹
隺
隻
隼
隽
难
雀
雁
集
雈
雋
雍
雐
雔
雙
雚
雜
雝
離
難
雨
雩
雪
雲
零
雷
需
霍
霜
霝
霞
霸
靈
靑
青
非
靡
面
靣
革
韋
韦
韭
韯
韱
音
頁
頃
項
須
頗
頡
頻
顛
页
風
风
飛
飞
食
飠
養
饣
首
香
馬
馮
駦
马
骨
高
髟
鬥
鬯
鬲
鬼
魚
魯
鮮
鱼
鲁
鳥
鳳
鸟
鹵
鹿
麃
麗
麥
麦
麻
黃
黄
黍
黎
黑
黒
黨
黹
黽
黾
鼎
鼓
鼠
鼻
齊
齋
齐
齒
齿
龍
龙
龜
龟
龠
龰
龱
龴
龵
龶
龷
龸
龹
ꝃ
者
艹
ﬁ
ﬂ
？
𐌰
𠀁
𠀃
𠀆
𠀉
𠀎
𠀐
𠁁
𠁣
𠂆
𠂇
𠂈
𠂉
𠂊
𠂋
𠂎
𠂒
𠂔
𠂛
𠂡
𠂢
𠂤
𠂬
𠂭
𠂹
𠃊
𠃋
𠃌
𠃍
𠃎
𠃑
𠃓
𠃔
𠃜
𠄌
𠄎
𠄠
𠄢
𠆢
𠆥
𠇍
𠈌
𠌵
𠓜
𠔉
𠔥
𠔼
𠔽
𠔿
𠕀
𠕁
𠕋
𠘧
𠘨
𠙻
𠙼
𠚏
𠚒
𠚤
𠚪
𠣏
𠤎
𠤕
𠥓
𠦄
𠦑
𠦝
𠧒
𠧗
𠧪
𠩺
𠪚
𠫓
𠫔
𠫤
𠬛
𠬝
𠬞
𠬢
𠬤
𠬶
𠮛
𠮦
𠮷
𠯑
𠱠
𠳮
𠷎
𡈼
𡉀
𡉵
𡌥
𡍮
𡏳
𡕒
𡕩
𡕰
𡖅
𡗗
𡗜
𡘆
𡘤
𡧱
𡨄
𡩧
𡬠
𡭽
𡰣
𡰥
𡰪
𡰯
𡰱
𡷈
𡸁
𡿨
𡿩
𡿪
𡿺
𢀖
𢀛
𢀩
𢁙
𢆉
𢆰
𢆶
𢇁
𢇇
𢉖
𢌬
𢌿
𢏚
𢑑
𢑚
𢖻
𢙣
𢛳
𢦏
𢦒
𢧵
𢼄
𢾕
𣁋
𣄼
𣅀
𣅽
𣍘
𣎳
𣎵
𣏋
𣏼
𣗥
𣥂
𣥖
𣦵
𣦼
𣧄
𣪊
𣪠
𣬉
𣳾
𣶒
𤇾
𤊽
𤐫
𤓰
𤔔
𤕨
𤣩
𤰇
𤰔
𤰞
𤴓
𤴔
𤽄
𥁑
𥁕
𥃦
𥃩
𥃭
𥇡
𥑟
𥘅
𥘈
𥝢
𥫗
𥱡
𦈢
𦉪
𦉬
𦉼
𦍌
𦍒
𦎧
𦐇
𦓔
𦔮
𦘒
𦙃
𦚏
𦣝
𦣞
𦣻
𦥑
𦥔
𦥯
𦨉
𦭝
𦰩
𧆞
𧈧
𧘇
𧰨
𧴪
𧴮
𧵩
𧾷
𨸏
𨾴
𩙿
𩠐
𩫏
𩵋
𪉷
𪜀
𪟽
𪠲
𪩲
𫇦
𫔭
𫜸
𫝀
𫠣
𫠩
𫢉
𫥞
𫩏
𫩠
𫪡
𫲽
𫶧
𬀷
𬐘
𬗌
𬙙
𬛸
𬜯
𬟩
𬯁
𬴘
𬺻
𬼉
𬼖
𭀰
𭁈
𭁨
𭅰
𭑈
𭕄
𭗼
𭤨
𭥫
𭻾
𮅕
𮊿
𮍌
𮍏
𮓗
𮥼
𮧮
廾
𰀁
𰀄
𰀈
𰀉
𰀕
𰀠
𰀡
𰀢
𰀪
𰁜
𰃮
𰆊
𰆘
𰋙
𰕎
𰢴
𰧭
𰯲
0--
00--
01--
02--
03--
04--
05--
06--
07--
08--
09--
1--
2--
3--
4--
5--
50--
56--
57--
59--
6--
61--
62--
7--
70--
71--
72--
73--
74--
75--
76--
77--
78--
8--
80--
81--
82--
83--
84--
85--
850--
86--
87--
88--
89--
9--
90--
91--
92--
93--
94--
95--
978--
98--
a--
aa--
ab--
aba--
aband--
aber--
abom--
abon--
abst--
abu--
abys--
ac--
acad--
academi--
acant--
acca--
acci--
accom--
accu--
ach--
act--
actua--
acustu--
ad--
ada--
adreiz--
ae--
aer--
aet--
aez--
af--
affl--
ag--
age--
agri--
agui--
ah--
ai--
ain--
air--
aj--
ak--
akad--
akt--
al--
ala--
alb--
alc--
ale--
aless--
ali--
all--
alle--
almor--
alo--
aloub--
als--
alt--
alum--
am--
ama--
amb--
ame--
ami--
ampoe--
an--
ana--
anc--
ancoe--
and--
ane--
ang--
ann--
anna--
anne--
ano--
ans--
ant--
ante--
anti--
anv--
any--
ao--
aot--
aour--
aoz--
ap--
apoc--
apoll--
apparit--
appl--
applicat--
appro--
aq--
aqua--
aqui--
aquitt--
ar--
ara--
arall--
arbo--
arc--
arch--
ard--
are--
argu--
arh--
ark--
arkitek--
arm--
ars--
art--
artiz--
arz--
as--
asamb--
ascens--
asp--
assa--
assem--
assi--
ast--
astur--
at--
atac--
atah--
ate--
atlet--
atre--
atta--
atten--
attri--
au--
auc--
aug--
aure--
auri--
aus--
aut--
auto--
av--
avar--
ave--
avertis--
avi--
avoult--
aw--
ax--
ay--
az--
aze--
azeul--
azi--
azo--
b--
ba--
bab--
bac--
back--
bad--
bae--
bag--
bah--
bai--
bail--
bak--
bal--
bala--
bale--
ball--
bamb--
ban--
bao--
bapt--
bar--
barn--
barrik--
bas--
bat--
batim--
baud--
baut--
bay--
baz--
be--
bea--
beau--
bec--
bed--
beg--
beh--
bei--
bel--
bell--
belle--
ben--
bene--
beni--
benn--
beo--
ber--
berje--
bern--
berr--
bers--
bes--
besk--
bet--
beul--
beur--
beuv--
bev--
bez--
bh--
bi--
bien--
big--
bihan--
bin--
binni--
bio--
bir--
birvi--
bis--
bit--
biz--
bj--
bl--
bla--
ble--
blenc--
blon--
blou--
blue--
bo--
boa--
bob--
boc--
bod--
boe--
bois--
bok--
bol--
bolitik--
bolot--
bom--
bon--
bona--
borg--
borr--
bors--
bos--
bou--
bouc--
boul--
bourb--
bourd--
bourr--
bourv--
boz--
bp--
br--
bra--
bran--
bras--
bre--
bred--
bren--
bret--
breut--
bri--
brizh--
bro--
broc--
bron--
brook--
brous--
brus--
bruz--
bræ--
bu--
buar--
buck--
bud--
buis--
bund--
bur--
burut--
bus--
but--
bw--
by--
bæl--
ca--
cadw--
calc--
cald--
calen--
cali--
calv--
cam--
can--
cana--
cap--
car--
cas--
casa--
casti--
cat--
caud--
cb--
ce--
cele--
cell--
ceol--
cerc--
cert--
cerv--
ces--
ch--
cha--
chair--
chal--
chan--
chap--
charl--
charr--
chart--
chaum--
chaus--
che--
cher--
chi--
chlor--
choe--
choi--
chol--
chom--
chou--
choæ--
chry--
chryso--
ci--
cil--
cinc--
cine--
circon--
cit--
cl--
clar--
clif--
cn--
co--
cocc--
cogn--
col--
colum--
com--
compl--
compo--
con--
confl--
confu--
conser--
consi--
cor--
corn--
corri--
cos--
couc--
coue--
coul--
cous--
cout--
couv--
coves--
cr--
cras--
cre--
cri--
crist--
croc--
cruc--
cs--
ct--
cu--
cucu--
cuis--
cum--
cw--
cx--
cy--
cyano--
cycl--
cyr--
cz--
cœ--
d--
da--
dac--
dael--
dag--
dai--
dal--
dalv--
dam--
dan--
daou--
dap--
dar--
das--
dat--
dau--
dav--
day--
dazg--
dd--
de--
deba--
dec--
ded--
deg--
dei--
dek--
del--
deliv--
dem--
democ--
den--
depart--
depo--
der--
des--
det--
deu--
deur--
dev--
dez--
dh--
di--
dia--
dibu--
dic--
did--
didrev--
die--
diff--
difr--
difton--
dige--
digl--
digo--
dik--
dili--
din--
dio--
dioc--
diou--
dir--
dis--
disc--
disi--
disko--
disku--
disme--
disol--
dispo--
dissi--
distri--
dit--
div--
diver--
divertis--
diz--
dizou--
dj--
dl--
dle--
dm--
do--
doc--
docum--
dog--
doh--
dol--
dom--
domin--
domit--
don--
dor--
dorn--
dos--
dou--
dour--
dr--
dra--
dre--
dreist--
dreuz--
drev--
dri--
dro--
dromp--
droub--
droug--
drouk--
dru--
drubu--
dryo--
dt--
du--
dub--
duc--
dum--
dun--
dur--
dw--
dy--
dɔ--
ea--
ead--
ear--
eas--
eb--
eber--
ec--
ecol--
ecriv--
ed--
edit--
ediz--
ee--
ef--
eg--
egor--
eh--
ei--
eil--
ein--
eis--
eisen--
ej--
ek--
el--
ela--
ele--
elec--
elekt--
eleph--
eli--
ell--
elo--
em--
ema--
emb--
eme--
emell--
emge--
emi--
emp--
en--
encicl--
end--
ene--
enep--
engra--
enk--
enklo--
enkor--
enseign--
ent--
enter--
env--
eo--
eon--
ep--
eq--
equi--
er--
era--
ere--
ergerz--
erm--
ero--
erv--
eryt--
erythr--
es--
esca--
escl--
esclav--
escu--
espi--
est--
estim--
et--
eta--
etc--
etio--
etre--
etxe--
etym--
etymol--
eu--
eukar--
eul--
eum--
euph--
eur--
euro--
eus--
euz--
ev--
eva--
evange--
eve--
evel--
even--
eves--
ew--
ex--
exce--
excu--
execut--
exper--
expl--
expo--
extra--
ey--
ez--
f--
fa--
fab--
fac--
fae--
fair--
fal--
fall--
fals--
famil--
fan--
far--
fars--
fas--
fati--
fav--
fe--
fec--
fed--
fel--
fen--
fenik--
fenn--
fer--
ferri--
fes--
feu--
feur--
ff--
fi--
fil--
fin--
finv--
firm--
fist--
fit--
fj--
fl--
flam--
flat--
flavi--
flemm--
fo--
fol--
folk--
fond--
fono--
for--
foss--
fou--
four--
fr--
fra--
fragm--
fran--
frei--
frek--
freq--
fres--
fri--
fring--
frot--
fu--
fun--
fur--
furlu--
fut--
fy--
g--
ga--
gab--
gad--
gae--
gaf--
gal--
galou--
galv--
gamb--
gan--
gant--
gao--
gapt--
gar--
gas--
gat--
gaut--
gav--
gaz--
gb--
gc--
gd--
ge--
ged--
geir--
gemp--
gen--
geo--
ger--
gerz--
get--
gevan--
gh--
gi--
gian--
gib--
gig--
gil--
gin--
giov--
gir--
giz--
gk--
gl--
glad--
glau--
gli--
glor--
glos--
glouc--
gn--
go--
goa--
goap--
god--
gogu--
gol--
gold--
gomm--
gomp--
gompag--
gompor--
gomu--
gonc--
gond--
gonf--
gonfes--
gonfus--
gonn--
gons--
gonsid--
gont--
gonver--
gopr--
gor--
gorn--
gos--
got--
gou--
gouiz--
goump--
goun--
gour--
gourlan--
gout--
gov--
goz--
gr--
gra--
gram--
gre--
gri--
groß--
grun--
gu--
guaj--
gue--
gueh--
guen--
guer--
guil--
guim--
guin--
guit--
guja--
gul--
gun--
gutt--
guy--
gv--
gw--
gwa--
gwall--
gwas--
gwe--
gwel--
gwen--
gwer--
gwes--
gwia--
gwil--
gwin--
gwit--
gwy--
gy--
gymn--
h--
ha--
hab--
habsb--
hac--
had--
hae--
hag--
hai--
hal--
hall--
ham--
hamp--
han--
hans--
hant--
hanter--
hap--
har--
hart--
harz--
has--
hat--
hatec--
hav--
haw--
hay--
haz--
hc--
hd--
he--
heb--
hec--
hed--
hef--
heg--
hei--
hek--
hel--
hell--
hem--
hemp--
hen--
hent--
heo--
hep--
her--
here--
hereti--
herit--
hes--
hesk--
het--
heu--
hf--
hg--
hi--
hid--
hig--
high--
hild--
him--
hin--
hip--
hipoc--
hir--
his--
hit--
hiz--
hj--
hk--
hl--
hliz--
hm--
hn--
ho--
hoap--
hoar--
hoc--
hod--
hof--
hog--
hol--
holl--
holo--
hom--
home--
hompag--
hon--
hont--
hop--
hor--
horiz--
horn--
hors--
hos--
hot--
hou--
houn--
hour--
hous--
hov--
how--
hoz--
hr--
hra--
hre--
hri--
hroas--
hs--
ht--
hu--
hud--
huer--
hugun--
hui--
hum--
humil--
humph--
hun--
hur--
hus--
hv--
hw--
hwezh--
hwi--
hy--
hyper--
hypoc--
hæ--
ia--
ib--
ic--
id--
ie--
ieo--
if--
ig--
ign--
ih--
ij--
ik--
il--
illi--
illu--
illust--
illustrat--
ilus--
im--
imag--
imp--
imper--
impri--
in--
inc--
incon--
ind--
indep--
indez--
indo--
indus--
ine--
infi--
infl--
ini--
inn--
innoc--
inscript--
inspi--
inst--
instru--
instrum--
int--
integ--
inter--
invas--
investi--
io--
ion--
ip--
ir--
is--
iso--
ist--
it--
iu--
iud--
iun--
iv--
ix--
iz--
izel--
j--
ja--
jac--
jam--
jan--
je--
jed--
jelv--
jen--
jes--
jet--
ji--
jil--
jn--
jo--
joa--
job--
jon--
jos--
joy--
ju--
jud--
juge--
jutl--
k--
ka--
kab--
kac--
kad--
kai--
kalk--
kall--
kam--
kamm--
kan--
kann--
kant--
kaou--
kap--
kar--
karl--
karr--
kas--
kat--
kav--
kaz--
ke--
ked--
kef--
kej--
kel--
kemp--
ken--
kent--
ker--
kern--
kes--
kev--
key--
kh--
ki--
kib--
kig--
kil--
kim--
kin--
kinkl--
kirc--
kis--
kit--
kiz--
kl--
kle--
kluc--
km--
kn--
ko--
koad--
koaz--
kod--
koet--
kofes--
koman--
komb--
komm--
komp--
kompag--
komu--
kon--
kor--
kordo--
korn--
kos--
koub--
koue--
koui--
koul--
koun--
kour--
koves--
koz--
kr--
kram--
kre--
kreiz--
krenn--
kri--
krog--
krom--
kroni--
krou--
krug--
ks--
kt--
ku--
kun--
kunst--
kunuj--
kv--
kw--
ky--
kɔ--
kɛ--
l--
la--
lab--
lac--
lae--
lafres--
lais--
lak--
lam--
lan--
land--
lang--
lann--
lanv--
lao--
laq--
lar--
las--
lat--
laus--
lavor--
lavr--
laz--
lazh--
le--
lea--
lec--
led--
leh--
lei--
leke--
lem--
len--
lenn--
leo--
lept--
leque--
ler--
les--
let--
leu--
leuco--
lev--
lexi--
lez--
lh--
li--
lich--
lici--
lid--
lieb--
lies--
lik--
lin--
lip--
lit--
liv--
ll--
llan--
llew--
lo--
loa--
loar--
loc--
log--
loj--
lok--
lom--
lon--
long--
loph--
lor--
los--
lou--
loun--
low--
lu--
luc--
ludo--
lug--
lun--
lur--
lusk--
luz--
lv--
lx--
ly--
lys--
læt--
m--
ma--
mab--
mac--
mad--
mag--
magni--
mai--
mal--
mala--
mali--
mam--
man--
mani--
mao--
mar--
mari--
mark--
marty--
mas--
mat--
mata--
maur--
max--
may--
maz--
mb--
mc--
me--
mec--
med--
medi--
meh--
mei--
meill--
mel--
mell--
mem--
men--
mer--
merid--
mes--
met--
meu--
meur--
mexi--
mez--
mh--
mi--
mic--
mik--
mil--
milit--
min--
mir--
mira--
mis--
mit--
mitiz--
ml--
mn--
mo--
moc--
mod--
moi--
mold--
mon--
mont--
monte--
monum--
mor--
mosk--
mot--
mouc--
moul--
moum--
mour--
mous--
mout--
mp--
mu--
mui--
mul--
munici--
mur--
mus--
musci--
mut--
mw--
my--
myio--
myrm--
n--
na--
nag--
nam--
nan--
nao--
narb--
nas--
nat--
nau--
nav--
naza--
nd--
ne--
neb--
nec--
neder--
nef--
negat--
negl--
negli--
nei--
nem--
nen--
neo--
nep--
nerv--
nes--
net--
neu--
nev--
nevez--
new--
ng--
nh--
ni--
nieder--
nieu--
nigri--
nij--
nik--
nil--
nin--
nis--
niv--
nj--
nk--
no--
noc--
nom--
non--
nor--
norzh--
nos--
not--
now--
noz--
nt--
nu--
nul--
nun--
ny--
nyct--
oa--
oar--
ob--
obeis--
ober--
obli--
obsc--
obser--
obst--
oc--
occi--
och--
octav--
od--
odo--
oe--
of--
off--
og--
oh--
oi--
oj--
ok--
ol--
old--
oll--
om--
omb--
on--
ono--
oo--
op--
oppi--
or--
ora--
orc--
ore--
orfe--
org--
ornam--
orni--
oro--
orph--
os--
ot--
ou--
oui--
our--
ous--
out--
ouvr--
ouz--
ov--
over--
ox--
oy--
oz--
p--
pa--
pac--
pad--
pae--
pag--
pal--
pamp--
pan--
pap--
par--
para--
part--
pas--
pat--
pau--
pav--
pavil--
pe--
peb--
pec--
ped--
peg--
peiz--
pel--
peler--
pell--
pen--
penin--
penit--
penn--
pep--
per--
perru--
pers--
peru--
pes--
pet--
peu--
peur--
peuri--
peuz--
pevar--
pf--
ph--
phae--
phaet--
pharis--
phariz--
photo--
phyl--
phys--
pi--
pia--
picc--
pie--
pig--
pik--
pil--
pin--
pis--
pitc--
pitt--
piz--
pl--
pla--
plan--
ple--
plig--
ploe--
plon--
plou--
plougonv--
plov--
plu--
po--
poc--
pod--
poe--
poen--
pol--
pomp--
pond--
pont--
pop--
por--
pors--
posit--
poss--
posses--
post--
pot--
pou--
poul--
pour--
poz--
pr--
pra--
pre--
pres--
pri--
prin--
pro--
prof--
prov--
pryd--
præ--
ps--
pseu--
psit--
psyc--
pt--
ptero--
ptil--
ptol--
pu--
publ--
pulc--
pun--
pur--
put--
pw--
py--
pyrr--
pɔ--
qa--
qe--
qi--
qu--
quad--
quat--
que--
queff--
quel--
quem--
quer--
qui--
quo--
quæ--
r--
ra--
rac--
raf--
rag--
rah--
rai--
rak--
ral--
ram--
ramp--
ran--
rank--
rann--
rap--
ras--
rat--
ravis--
re--
rec--
recom--
recomman--
recon--
red--
redampt--
ref--
refor--
reg--
rei--
rein--
reizh--
rejo--
relat--
reli--
religi--
remar--
ren--
rene--
res--
resol--
ressus--
resus--
ret--
reus--
rev--
reve--
reykj--
rez--
rh--
rhyd--
ri--
ricc--
rid--
rik--
rin--
rio--
ris--
rit--
riv--
riz--
ro--
rob--
rod--
rog--
rok--
rom--
ron--
ros--
rose--
roth--
roub--
rouf--
roul--
rouv--
roz--
ru--
rubi--
rubri--
rufi--
rufo--
rum--
run--
rus--
ruz--
ry--
s--
sa--
saar--
saba--
sacr--
sad--
sae--
sakr--
sal--
sala--
sam--
san--
sao--
sar--
saskatche--
satu--
sau--
sav--
sc--
scac--
scar--
schis--
schl--
schon--
schr--
schw--
scla--
sco--
scri--
scul--
scyt--
sd--
se--
sea--
sec--
see--
seh--
sei--
sel--
sem--
sen--
senec--
sepu--
ser--
ses--
set--
seur--
sex--
sez--
sf--
sg--
sh--
she--
shi--
shu--
si--
sic--
sieg--
sige--
sigi--
sil--
simb--
simp--
sin--
sinfoni--
sir--
sit--
sk--
ska--
skan--
skarz--
ski--
skin--
sko--
skol--
skoua--
skrap--
skri--
skrid--
skrija--
skub--
skui--
skul--
skut--
sky--
sl--
slov--
sm--
sn--
so--
soc--
sofo--
sois--
sokiolog--
sol--
solit--
som--
some--
son--
song--
soph--
sora--
sot--
sou--
soul--
sp--
spar--
spaz--
spi--
spiel--
splen--
spour--
spur--
sq--
squa--
squi--
sr--
st--
sta--
stad--
steg--
stein--
stejne--
step--
ster--
steu--
stla--
stok--
stol--
stou--
stra--
straf--
strat--
stre--
streptop--
stri--
strilh--
stris--
stro--
strobin--
stru--
stud--
stur--
su--
sua--
sub--
succ--
sud--
sue--
suff--
sug--
sui--
sul--
sum--
sun--
supp--
sur--
sus--
sut--
sv--
sw--
sy--
sylv--
symp--
synd--
sz--
sæcu--
t--
ta--
tad--
tag--
tai--
taill--
tal--
tam--
tan--
tao--
taol--
tap--
taremp--
tarr--
tart--
tas--
tata--
tav--
tc--
te--
tei--
teir--
tek--
tel--
tele--
telou--
tem--
ten--
tentati--
teo--
ter--
terro--
tes--
test--
tet--
teu--
teurv--
tev--
tez--
th--
thalass--
the--
theop--
thess--
thom--
thou--
ti--
tic--
tim--
timot--
tin--
tior--
tiou--
tir--
tis--
tisku--
tit--
tiz--
tizol--
tl--
tle--
to--
tok--
tol--
tom--
ton--
topog--
tor--
tou--
touell--
tour--
tous--
tr--
tra--
trafi--
trans--
tre--
treuz--
trev--
tri--
tric--
tro--
troid--
tromp--
trou--
trubu--
trug--
trui--
try--
ts--
tu--
tua--
tud--
tuem--
turd--
turk--
tut--
tv--
tw--
ty--
tz--
ua--
ub--
uc--
ud--
ue--
uel--
uf--
ug--
uh--
uhel--
ui--
uj--
uk--
ul--
um--
un--
und--
under--
unter--
uo--
up--
ur--
uroc--
us--
ut--
uv--
uw--
ux--
uz--
v--
va--
vac--
vad--
vado--
vag--
vai--
vak--
val--
vale--
van--
vanif--
var--
varks--
varn--
varv--
vas--
vat--
vaug--
vaz--
vb--
ve--
vec--
ved--
vedis--
veg--
vel--
ven--
ver--
ves--
vet--
veu--
vev--
vez--
vi--
via--
vic--
vid--
vie--
vikt--
vil--
vila--
villa--
ville--
villi--
vin--
viol--
vir--
vis--
vit--
viz--
vl--
vla--
vlen--
vleun--
vm--
vo--
voa--
voc--
voe--
vol--
volks--
vom--
von--
vor--
vorti--
vos--
vou--
vr--
vres--
vrig--
vro--
vruz--
vu--
vue--
vulg--
vunt--
vur--
vurut--
vuzul--
vy--
w--
wa--
wald--
wall--
wan--
war--
was--
water--
waz--
we--
web--
wei--
weißen--
wel--
wela--
wen--
wer--
west--
wh--
whit--
wi--
wie--
wiki--
win--
wir--
wit--
wiz--
wl--
wo--
wood--
worc--
wr--
writ--
wu--
wy--
xa--
xant--
xe--
xh--
xi--
xl--
xo--
xu--
xw--
xxx--
ya--
ye--
yen--
yeo--
yer--
yes--
yi--
ym--
yn--
yo--
yoshi--
you--
ys--
yu--
yud--
yun--
yv--
z--
za--
zac--
zaib--
zal--
zan--
zao--
zaou--
zarm--
zarv--
zas--
zav--
zd--
ze--
zec--
zei--
zel--
zemp--
zen--
zera--
zerv--
zeu--
zeule--
zh--
zi--
ziav--
zic--
zifr--
zin--
ziou--
zis--
zisku--
zisme--
ziv--
zizol--
zo--
zol--
zon--
zone--
zor--
zou--
zour--
zr--
zra--
zro--
zrug--
zu--
zug--
zul--
zur--
zw--
zy--
æ--
æl--
ær--
æss--
æt--
æthel--
æz--
æðel--
þ--
đ--
œ--
ɔ--
ə--
ɛ--
ɡ--
ɡa--
ɡɥ--
ɣ--
ɥis--
ɪ--
ɲ--
ɾ--
ʁ--
ʃ--
ʎ--
ʒ--
ε--
κ--
τ--
а--
н--
с--
י--
ا--
ال--
ب--
म--
ᄀ--
ᄃ--
ᄅ--
ᄆ--
ᄇ--
ᄉ--
ᄋ--
ᄌ--
ᄒ--
--0
--0
--00
--1
--1
--10
--2
--2
--3
--3
--4
--4
--46
--5
--5
--6
--6
--7
--7
--78
--8
--8
--83
--9
--9
--a
--aa
--aad
--aan
--aar
--aas
--aat
--ab
--abe
--abi
--abl
--able
--ac
--aca
--ace
--acea
--aceus
--ach
--achou
--acion
--active
--acus
--ad
--ada
--adan
--ade
--adeg
--adegou
--adek
--adel
--adell
--aden
--adenn
--adennou
--ades
--adez
--adia
--adig
--adiou
--adius
--ado
--adon
--ados
--adou
--adur
--adurez
--adurezh
--aduriou
--adus
--ae
--aea
--aed
--aeg
--aek
--ael
--aen
--aenn
--aer
--aerien
--aet
--aeum
--af
--afa
--aff
--ag
--aga
--age
--agein
--agh
--agi
--agne
--ago
--agus
--ah
--ai
--aia
--aich
--aig
--aign
--aigne
--ail
--ailh
--ailhou
--aill
--aillad
--ain
--aine
--aio
--aire
--ais
--aise
--ait
--aiz
--aj
--aji
--ajou
--ak
--aka
--aki
--akl
--ako
--akr
--al
--ala
--ald
--aldo
--ale
--ales
--alis
--all
--alo
--als
--alve
--am
--amanchou
--amant
--amb
--amm
--amo
--amp
--amus
--an
--ana
--anc
--ance
--anchou
--and
--ande
--ando
--ane
--aned
--anet
--ani
--ania
--anite
--ank
--ann
--ano
--ans
--ansou
--ant
--ants
--anus
--anz
--ao
--aog
--aol
--aos
--aou
--aoue
--aoueg
--aouek
--aouen
--aouer
--aouet
--aoui
--aouin
--apa
--apl
--aploc
--ar
--ara
--ard
--arded
--are
--arez
--ari
--aria
--arin
--ario
--aris
--arius
--arn
--aro
--arou
--arro
--art
--arum
--ary
--as
--ashi
--asi
--asion
--asse
--at
--ata
--ataet
--atan
--ate
--ates
--ath
--ati
--ation
--ationeu
--ationou
--ations
--atis
--ato
--ator
--atur
--atus
--au
--aud
--auda
--ault
--aus
--aux
--av
--ava
--aw
--awa
--ax
--ay
--aya
--az
--azh
--b
--ba
--bad
--ban
--be
--beg
--bel
--ben
--ber
--berg
--bert
--bet
--bi
--bia
--bidae
--bie
--bit
--bl
--ble
--bo
--borough
--bot
--bow
--box
--br
--bria
--bs
--bu
--buch
--burg
--bus
--by
--c
--ca
--cal
--cao
--cas
--cat
--cco
--ce
--cea
--ced
--cel
--cen
--cens
--ceps
--cer
--ces
--ceu
--ch
--cha
--che
--ches
--chi
--cho
--chon
--chont
--chou
--cht
--chu
--chus
--chy
--ci
--cia
--cidae
--cin
--cing
--cio
--cion
--cis
--cius
--ck
--cks
--cle
--co
--cocephalus
--col
--cop
--cou
--cout
--cq
--cs
--ct
--ctes
--cteur
--ctum
--ctus
--cu
--cula
--culus
--cum
--cus
--cy
--d
--da
--dad
--dae
--dahud
--dan
--das
--day
--dd
--de
--ded
--dee
--deg
--degou
--dek
--del
--den
--denn
--der
--deriou
--des
--det
--deu
--dez
--dh
--dha
--dhi
--di
--dia
--diction
--die
--dig
--digez
--digezh
--dik
--din
--dina
--dne
--do
--don
--donin
--dor
--dos
--dou
--dr
--dra
--dre
--dro
--ds
--dt
--du
--dui
--duit
--dur
--durez
--duriou
--dus
--dwy
--dy
--dyn
--dæt
--e
--ea
--eac
--eah
--eal
--ean
--eas
--eat
--eau
--eaux
--eaz
--eb
--ec
--eca
--ech
--eck
--ect
--ective
--ects
--ed
--eda
--edad
--edd
--ede
--edek
--edet
--edi
--edia
--edig
--edigez
--edigueah
--ediguez
--edin
--ee
--eed
--eeg
--een
--eer
--ees
--eet
--ef
--efe
--efi
--eg
--egan
--eged
--egel
--eger
--egez
--egezh
--egezhiou
--egi
--egou
--egues
--eguez
--eh
--ehai
--ehe
--ehemb
--ehet
--ehoh
--ei
--eia
--eien
--eier
--eign
--eil
--eille
--ein
--eion
--eira
--eiro
--eis
--eit
--eiz
--ej
--ejo
--ejou
--ek
--eka
--ekaat
--ekadur
--ekaet
--eke
--ekeg
--el
--ela
--elan
--ele
--elet
--elez
--elezh
--eli
--elia
--elin
--ell
--ella
--ellet
--elli
--elour
--elouriezh
--els
--ely
--em
--ema
--emant
--ement
--emon
--emont
--emp
--en
--ena
--enc
--ence
--encia
--enco
--ene
--eni
--eniel
--enn
--enne
--enned
--ennet
--ennou
--enou
--ens
--ensis
--enstein
--ent
--ente
--entes
--entez
--enti
--enza
--eo
--eoh
--eor
--eou
--eour
--ep
--ephalus
--eq
--er
--era
--erc
--ere
--ereah
--eres
--erez
--erezh
--erg
--eri
--eria
--erie
--erien
--erig
--erin
--erion
--eriou
--eris
--erk
--ern
--ero
--eros
--erre
--ers
--ert
--erus
--ery
--erz
--erzet
--es
--ese
--eset
--esi
--esia
--esiou
--esk
--eson
--ess
--est
--estr
--et
--eta
--etaer
--etan
--ete
--eter
--eth
--eti
--eto
--etos
--etr
--ets
--ett
--etta
--ette
--etti
--etto
--etus
--eu
--euc
--euil
--eur
--eurs
--eus
--euse
--eut
--eux
--ev
--eve
--evra
--ex
--ey
--ez
--eza
--ezas
--ezed
--ezet
--ezh
--ezhiou
--eziou
--ezou
--f
--fa
--fac
--fal
--fat
--fe
--fec
--fed
--feld
--femp
--fen
--fenn
--fent
--fer
--fes
--fet
--ff
--ffe
--fi
--fiein
--fiet
--fig
--fit
--fo
--foc
--fod
--fois
--fomp
--fon
--font
--fort
--fot
--fr
--fre
--frons
--fs
--ft
--ful
--fusian
--fæt
--g
--ga
--gad
--gam
--gan
--gar
--gas
--gate
--gau
--ge
--gea
--geanc
--ged
--geg
--gek
--gel
--gem
--gen
--ger
--ges
--get
--gez
--gezh
--gh
--gham
--ghem
--ghez
--ght
--gi
--gida
--gidae
--gie
--gio
--gion
--gis
--git
--gius
--gl
--gle
--gn
--gna
--gne
--gno
--gny
--go
--gon
--gou
--grav
--gs
--gt
--gton
--gu
--gua
--gue
--gues
--gui
--gus
--gy
--h
--ha
--hai
--hal
--ham
--han
--har
--has
--hat
--hau
--hd
--he
--hea
--hed
--hee
--heim
--hel
--hemb
--hen
--hent
--her
--hes
--het
--hi
--hia
--hie
--hild
--hilus
--hin
--hiou
--hip
--hiz
--hl
--hm
--hmi
--ho
--hof
--hoh
--hon
--hood
--hos
--hou
--hr
--hs
--ht
--hu
--hua
--hue
--hued
--huou
--hus
--hy
--hynia
--i
--ia
--iach
--iad
--iaded
--iadeg
--iadenn
--iadez
--iadou
--iadur
--iaduriou
--iae
--iah
--iak
--ial
--iale
--iam
--ian
--iana
--ianc
--ianed
--iano
--ians
--iant
--ianus
--ianz
--ias
--iat
--iata
--iau
--iaz
--ib
--iba
--ibert
--ibl
--ibus
--ic
--ica
--ical
--ication
--ice
--iceps
--ich
--ici
--ick
--ico
--icola
--icolor
--icou
--ics
--icum
--icus
--id
--ida
--idad
--idae
--ide
--ided
--idence
--ides
--idi
--idia
--idig
--idigez
--idigezh
--idigues
--idiguez
--idik
--ido
--idus
--ie
--iec
--ied
--ieg
--iegezh
--iein
--iek
--iekaet
--iel
--ieme
--ien
--ienn
--ienne
--iennou
--iens
--iensis
--ient
--ier
--iere
--ieres
--ierez
--ierezh
--ieri
--ierien
--iers
--ies
--iet
--ietta
--ieu
--ieur
--ieux
--iez
--iezh
--if
--ife
--ifi
--ifia
--ification
--ifiet
--ifis
--ifiz
--ig
--iga
--igan
--ige
--iged
--igell
--igen
--igern
--iget
--igez
--igezh
--igh
--igi
--ign
--igny
--igo
--igot
--igou
--iguet
--iguez
--ih
--ihue
--ii
--iidae
--iit
--ij
--ija
--ijen
--ijenn
--iji
--ik
--ika
--ikel
--iken
--ikia
--ikl
--iko
--ikon
--iks
--il
--ila
--ild
--ilde
--ile
--ilh
--ilhon
--ili
--ilia
--ilieg
--ilius
--ill
--illi
--illo
--illon
--illus
--illy
--ilo
--im
--ima
--ime
--imer
--imo
--imp
--imus
--in
--ina
--inan
--ine
--ined
--ineg
--inenn
--inental
--iner
--ing
--ingen
--inger
--ings
--ington
--inho
--ini
--inier
--inn
--ino
--inos
--ins
--int
--inti
--inum
--inus
--io
--iog
--iom
--ion
--ione
--ionou
--ions
--ior
--ios
--iot
--iou
--ip
--iq
--ique
--iques
--iquet
--ir
--ira
--ire
--ireg
--ires
--iri
--iro
--irostris
--irs
--is
--isa
--isan
--isch
--ische
--ise
--iser
--iset
--ish
--isi
--ism
--isme
--iso
--ison
--iss
--issa
--isse
--isset
--ist
--ista
--iste
--isted
--istes
--it
--ita
--ital
--itan
--itas
--itat
--ite
--ited
--iten
--iteou
--ites
--itet
--ith
--iti
--itia
--ities
--ition
--itis
--ito
--itol
--itou
--itt
--itta
--ity
--itz
--iu
--ium
--ius
--iuz
--iv
--iva
--ival
--ive
--ivel
--ix
--iya
--iz
--iza
--ization
--ize
--izet
--izh
--izi
--izia
--izon
--iæ
--j
--ja
--jab
--jal
--jas
--je
--jec
--jed
--jemp
--jen
--jenn
--jent
--jer
--jes
--jet
--jez
--ji
--jk
--jn
--jo
--joc
--jod
--jomp
--jon
--jont
--jot
--jou
--jout
--ju
--k
--ka
--kaat
--kaet
--kal
--kan
--kas
--kat
--ke
--ked
--keg
--kek
--kel
--ken
--ker
--ket
--ki
--kia
--kin
--kiz
--kje
--kl
--kladur
--klin
--ko
--koaz
--koe
--kol
--kop
--kos
--kou
--koul
--kov
--ks
--kt
--ku
--kul
--kus
--ky
--l
--la
--lad
--lag
--lagat
--lais
--lamant
--lan
--land
--las
--lat
--lav
--lava
--lavane
--laz
--lc
--ld
--ldo
--le
--lec
--led
--leg
--lek
--lement
--len
--ler
--lerezh
--lerien
--les
--less
--let
--ley
--lez
--lezh
--lf
--lh
--lhet
--lhou
--li
--lia
--lic
--lich
--lie
--lien
--lier
--liet
--lig
--lin
--lina
--ling
--linus
--lio
--liou
--lis
--lit
--liv
--liz
--ll
--lla
--llat
--lle
--lled
--llek
--llen
--ller
--lles
--llet
--lley
--lli
--llion
--llo
--llon
--llou
--llus
--lly
--lo
--loc
--loh
--lon
--lor
--lou
--ls
--lt
--lton
--lu
--lus
--ly
--m
--ma
--mac
--mad
--man
--mand
--mant
--mar
--mat
--mb
--mba
--mbo
--me
--med
--meg
--mek
--men
--ment
--mer
--mes
--met
--mi
--mie
--min
--mir
--mis
--mm
--mmou
--mne
--mo
--mol
--mon
--mor
--mos
--mot
--mou
--mouth
--mp
--mper
--mpet
--mpil
--mpill
--mpli
--mpt
--ms
--mu
--munion
--mus
--my
--mys
--n
--na
--nad
--nai
--nais
--nal
--nan
--nant
--nar
--nard
--nas
--nat
--nay
--nberg
--nburg
--nc
--nca
--ncas
--nce
--nces
--nch
--ncy
--nd
--nda
--nde
--nder
--ndi
--ndo
--ndra
--ne
--neau
--nec
--ned
--nee
--neg
--neh
--nein
--nek
--nel
--nen
--nenn
--ner
--nes
--ness
--net
--neu
--ney
--nez
--ng
--nga
--nge
--ngen
--nger
--ngo
--ni
--nia
--nian
--nic
--nica
--nidae
--nie
--nieg
--niel
--nier
--niez
--niezh
--nig
--nigo
--nik
--nin
--ning
--nio
--niou
--nis
--nit
--nite
--nius
--nk
--nka
--nken
--nket
--nn
--nna
--nnadur
--nne
--nnek
--nnes
--nnet
--nni
--nnig
--nnou
--no
--noc
--nol
--nomp
--non
--nos
--nou
--nour
--noz
--ns
--nse
--nsis
--nt
--nta
--ntan
--nte
--nted
--nter
--ntes
--ntet
--nti
--ntia
--ntin
--nto
--ntris
--nts
--nu
--num
--nus
--nv
--ny
--nz
--nza
--o
--oa
--oad
--oc
--ock
--od
--odan
--odenn
--odi
--oe
--oed
--oeg
--oek
--oel
--oer
--oes
--og
--ogel
--ogie
--ogiezh
--ogue
--ogy
--oh
--oi
--oin
--oir
--oire
--ois
--oisse
--oit
--oj
--ojn
--ok
--ol
--ola
--ole
--oleg
--olensis
--olet
--oli
--olig
--olin
--olo
--ologia
--ologie
--ology
--olor
--om
--oma
--omac
--omb
--ome
--omp
--omys
--on
--ona
--onatus
--onc
--ond
--onde
--ondo
--one
--oned
--oneg
--ones
--onet
--ong
--oni
--onia
--oniel
--oniet
--oniez
--oniezh
--oniour
--onjal
--onne
--onou
--ons
--ont
--onus
--oo
--oon
--op
--ope
--ophilus
--opolis
--ops
--oque
--or
--ora
--ord
--ore
--orek
--orf
--ori
--oria
--orio
--orn
--ornis
--orno
--oro
--ors
--ort
--orum
--orus
--ory
--os
--osa
--ose
--osi
--osiou
--oso
--oss
--ossa
--ost
--ostom
--osus
--ot
--ota
--ote
--otis
--ou
--oud
--oued
--ouer
--ouet
--ouigou
--ouin
--oul
--oum
--oun
--our
--ourez
--ourien
--ouriezh
--ourion
--ourt
--ous
--out
--oux
--ouz
--ov
--ova
--ovitch
--ovo
--ow
--oy
--oz
--oza
--ozan
--p
--pa
--pe
--ped
--pet
--ph
--phe
--phic
--phin
--phis
--phus
--phy
--pi
--pire
--pl
--ploc
--po
--pon
--port
--pos
--pose
--posi
--ppe
--pr
--ps
--psis
--pt
--pte
--ptes
--pti
--ption
--pul
--pus
--py
--q
--qi
--que
--ques
--r
--ra
--rad
--rade
--rai
--rais
--rait
--ral
--ralis
--ram
--ramant
--ran
--rans
--rao
--raon
--ras
--rat
--ration
--rc
--rca
--rce
--rch
--rd
--rdd
--rdi
--re
--red
--reg
--reh
--rek
--rel
--rell
--rella
--rem
--ren
--rer
--res
--ret
--rev
--rez
--rezh
--rg
--rge
--rh
--ri
--ria
--rian
--ric
--rice
--rick
--rie
--ried
--riel
--rien
--rienn
--rier
--ries
--rieu
--riezh
--rig
--rii
--rik
--rilhez
--rim
--rin
--rina
--rio
--rion
--ris
--rius
--rix
--rk
--rly
--rm
--rman
--rme
--rn
--rna
--rne
--rneg
--rnis
--rno
--ro
--roc
--roh
--rol
--ron
--ror
--ros
--rot
--rou
--roun
--row
--rr
--rrai
--rre
--rret
--rrevi
--rs
--rse
--rson
--rt
--rte
--rth
--rts
--ru
--rud
--rum
--rupl
--rus
--ry
--rygon
--rys
--rz
--rzet
--rzh
--s
--sa
--saat
--sai
--san
--sas
--sat
--saz
--sberg
--sbruck
--sburg
--scens
--sch
--schaft
--se
--sed
--seg
--sek
--sel
--sen
--senn
--ser
--ses
--set
--seu
--seur
--sey
--sh
--shan
--shire
--shoc
--si
--sia
--sian
--sias
--sie
--sien
--sier
--sim
--sin
--sio
--siou
--sis
--sit
--sius
--sive
--sk
--ska
--ske
--sker
--sket
--ski
--skop
--sley
--sm
--smus
--so
--soc
--soft
--soh
--son
--soni
--sor
--sos
--sou
--sour
--sq
--sqet
--sque
--ss
--ssa
--sse
--sser
--sset
--ssi
--ssin
--sson
--st
--ste
--stein
--stet
--sti
--sto
--ston
--stone
--str
--stra
--su
--sus
--sville
--sy
--sz
--t
--ta
--taat
--tad
--tadt
--tadur
--tae
--tak
--tal
--tale
--tan
--taned
--tar
--tard
--tas
--tat
--tation
--taz
--te
--tea
--ted
--tee
--teg
--tein
--tek
--tel
--ten
--ter
--teri
--ters
--tes
--tet
--teu
--teur
--tez
--th
--tha
--thi
--thon
--ti
--tia
--tian
--tias
--tic
--tica
--ticus
--tida
--tidae
--tie
--tien
--tif
--tig
--tii
--tik
--til
--tin
--ting
--tino
--tio
--tion
--tioneu
--tionou
--tions
--tique
--tis
--tit
--tius
--tive
--tka
--tl
--to
--toer
--tof
--toh
--ton
--tor
--tos
--tot
--tou
--town
--toz
--tr
--tra
--tre
--tris
--tro
--trud
--trum
--trus
--ts
--tt
--tta
--tte
--tter
--ttes
--tti
--tto
--tu
--tula
--tum
--tung
--tur
--tura
--ture
--tus
--ty
--tz
--tæd
--tæt
--u
--ua
--uac
--ual
--uan
--uant
--uar
--uarius
--uas
--ub
--ubl
--ubli
--uc
--ucci
--uch
--uck
--ud
--uda
--ude
--udeguez
--ue
--ued
--ueg
--uein
--uel
--uen
--uenn
--uer
--ues
--uet
--ueu
--uez
--uf
--ug
--uge
--uget
--ugh
--ui
--uil
--uilh
--uillet
--uin
--uine
--uis
--uit
--uj
--uk
--uka
--uki
--ul
--ula
--ulae
--ularis
--ulata
--ulatus
--ule
--ules
--uli
--ulo
--ult
--ulte
--ulum
--ulus
--um
--ume
--umet
--umi
--un
--ung
--uni
--unt
--uo
--uou
--up
--upis
--ur
--ura
--ure
--ured
--urel
--ures
--urez
--urezh
--urg
--uri
--uria
--urien
--uriezh
--urin
--uriou
--uro
--urs
--uru
--urus
--ury
--us
--usa
--usan
--use
--uses
--usoc
--ust
--usted
--ut
--uta
--ute
--utes
--uti
--uto
--utus
--uus
--uv
--uve
--uvet
--uvi
--ux
--uy
--uz
--v
--va
--vaat
--val
--van
--vanou
--vaou
--varc
--vat
--vaux
--vder
--ve
--ved
--vedenn
--vee
--vejou
--vel
--ven
--ver
--ves
--vet
--veuriz
--vez
--vezh
--vi
--vik
--viked
--ville
--vio
--vit
--vius
--vo
--vor
--vr
--vre
--vren
--vro
--vus
--vy
--w
--wa
--wal
--wald
--way
--wch
--we
--weg
--wek
--well
--welus
--wen
--wet
--wg
--wi
--wich
--wick
--wn
--wood
--worth
--wr
--ws
--wski
--wulf
--wy
--wydh
--wyn
--x
--xe
--xi
--xia
--xo
--y
--ya
--yd
--ydd
--ye
--yeg
--yer
--yet
--yi
--yias
--yl
--yn
--yne
--yo
--you
--ypraea
--yr
--yrn
--ys
--yth
--yu
--yx
--z
--za
--zai
--zan
--zaz
--zburg
--ze
--zec
--zed
--zeg
--zek
--zen
--zenn
--zer
--zet
--zh
--zhan
--zhe
--zhed
--zhet
--zhi
--zi
--zia
--zie
--zien
--zig
--zin
--zio
--zit
--zo
--zoc
--zon
--zonou
--zu
--zy
--zzi
--ß
--æ
--æc
--æd
--ær
--æs
--æt
--ø
--ı
--ław
--ŋ
--œur
--ɐ
--ɑ
--ɔ
--ɔn
--ɔw
--ə
--ɛ
--ɛn
--ɛr
--ɪ
--ɲ
--ʁ
--ʃ
--ʃɔ
--ʊ
--α
--ας
--η
--ι
--ια
--ις
--ν
--ος
--ς
--ων
--а
--е
--и
--к
--ка
--н
--на
--о
--р
--т
--ть
--د
--ر
--ن
--ᆨ
--ᆫ
--ᆯ
--ᆼ
