!
"
#
##0
##1
##10
##11
##12
##13
##14
##15
##16
##17
##18
##19
##2
##20
##21
##22
##23
##24
##25
##26
##27
##28
##29
##3
##30
##31
##32
##33
##34
##35
##36
##37
##38
##39
##4
##40
##41
##42
##43
##44
##45
##46
##47
##48
##49
##5
##50
##51
##52
##53
##54
##55
##56
##57
##58
##59
##6
##60
##61
##62
##63
##64
##65
##66
##67
##68
##69
##7
##70
##71
##72
##73
##74
##75
##76
##77
##78
##79
##8
##80
##81
##82
##83
##84
##85
##86
##87
##88
##89
##9
##90
##91
##92
##93
##94
##95
##96
##97
##98
##99
$
%
&
'
(
)
*
+
,
-
.
/
0
00
000
0000
00001
001
002
008
01
012
0140
02
020630
03
04
05
050979
06
07
08
09
1
10
100
1000
1001
1002
1007
101
10152210186652610
1016
1017
102
1028
103
1038
104
105
106
1066
10665
107
108
1080
109
1093
11
110
1100
111
112
113
1136
114
1148
115
116
117
1177
118
119
12
120
1200
1201
120652571
1209
121
121101
122
123
1236
124
125
1250
126
126770
127
128
129
1294
13
130
1307301550763712512
131
132
133
134
134340
135
136
137
1371
138
139
14
140
1400
141
142
1420
143
1430
144
1450
146
14651858
147
148
1487
149
15
150
1500
1502
152
156
16
160
1600
1601
1609
161
1610
1616
1619
162
1620
163
1642
16494711
165
1650
1666
167
1670
1688
169
1693
1697
17
170
1700
1703
171
1714
174
1750
1757
1760
1764
177
178
1787
1788
179
1790
1795
1796
18
180
1800
1801
1806
1814
1815
1816
1818
1820
1821
1828
1829
183
1833
1834
184
1845
1846
1847
1848
1850
1858
1859
1861
1866
1867
187
1872
1876
1877
1880
1885
1887
1889
1890
1891
1893
1894
1895
1896
1897
1898
1899
19
190
1900
1901
1902
1903
1904
1905
1906
1907
1908
1910
1911
1912
1913
1914
1915
1916
1917
1918
1919
192
1920
1921
1922
1923
1924
1925
1926
1927
1928
1929
1930
1931
1932
1933
1934
1935
1936
1937
1938
1939
194
1940
1941
1942
1943
1944
1945
1946
1947
1948
1949
1950
1951
1952
1953
1954
1955
1956
1957
1958
1959
1960
1961
1962
1963
1964
1965
1966
1967
1968
1969
1970
1971
1972
1973
1974
1975
1976
1977
1978
1979
198
1980
1981
1982
1983
1984
1985
1986
1987
1988
1989
1990
1991
1992
1993
1994
1995
1996
1997
1998
1999
2
20
200
2000
2001
2002
2003
2004
2005
2006
2007
2008
2009
201
2010
2011
2012
2013
2014
2015
2016
2017
2018
2019
20190212
202
2020
20200608
202012
2021
2022
203
204
205
206
207
2077
209
2098
21
210
211
212
215
218
219
22
220
221
222
223
224
2244
225
227
2271
22766
228
22946
23
230
2307
2321
233
2338
235
236
237
23791
238
239
24
240
241
242
244
245
246
2478
248
249
249025163
25
250
2500
251
251814157
252
253
254
255
25530442
256
257
258
2589
2598
26
260
261
263
264
265
266
2685
269
27
270
271
272
273
274
275
276
2760
278
28
280
281
282
284
285
286
2861
287
29
290
291
292
293
294
295
296
297
298
3
30
300
3000
301
302
303
304
305
306
307
308
309
31
310
3100
311
312
313
314
315
316
317
319
32
320
3201
321
3210
322
323
3237
3245
325
326
327
328
329
3291398
33
330
332
333
334
336
337
338
339
34
340
347
348
349
35
350
351
352
3523
3528
353
3534
354
356
357
3581
359
36
360
3606
361
362
365
366
3666
3672
3673
3681
3699
37
3723
373
374
377
378
38
380
3801
381
3836
385
386
39
390
392
393
4
40
400
4000
40282455
403
405
406
41
413
41388230
42
427
428
43
430
431
434
44
440
441
443235
444
445
45
450
46
460
468
47
472
48
480
487
49
494241
5
50
500
501
504
51
52
526
527
529
53
532
533
535
536
538
54
540
542
545
55
550
551
557
56
57
575
58
586
58843
59
593
59884
6
60
600
601
61
615
61682
62
626
63
630
639
64
65
650
66
67
6736
68
680
69
7
70
700
7021
704
71
715
72
722
73
74
75
750
7500
76
763
77
772
78
788
79
8
80
800
8080
81
82
83
84
846
85
850
86
864
87
871
88
880
881
883
889
89
9
90
900
91
912
918
92
93
94
949
95
951
96
967
97
978
9780520951570
9781284057560
98
99
999
:
;
<
=
>
?
@
\
^
_
`
a
aa
aakaita
aambe
aana
aanda
aaragus
aardvark
aaron
aayi
ab
aba
ababa
abagusii
abale
abalingane
abandon
abandoned
abantu
abarahama
abasement
abata
abate
abatwa
abba
abbeys
abbreviata
abc
abcd
abcess
abdala
abdel
abdomen
abe
abednego
abel
abheru
abhurahama
abhuramu
abi
abide
abigail
abikwa
ability
abiriwiri
able
abnormal
abnormally
abo
abode
abominable
abominate
aboriginal
abort
abou
abound
about
above
abraham
abrahama
abram
abrama
abramson
abreast
abril
abroad
abruptly
abscess
absence
absent
absolutely
absorb
absorbed
absorption
abstain
abstract
abuda
abude
abuja
abundance
abundant
abundantly
aburitsa
abuse
abusing
abusive
abva
abvisa
abyss
abyssinica
ac
acacia
academia
academic
academy
acanthospermum
acase
accelerate
acceleration
accept
acceptable
access
accessed
accident
acclaim
accommodate
accompanied
accompany
accompanying
accomplish
accord
according
accordingly
account
accountability
accountant
accra
accumulate
accumulation
accursed
accusation
accuse
accused
accustom
accustomed
acetylene
acfu
achada
achadiwa
achaiswa
achakupinza
achamudzosera
achange
achangobva
achangopfuura
achava
achazodiwa
ache
achembera
acherechedza
achibata
achibaukira
achibuda
achiburitsa
achiburuka
achibva
achibvuma
achida
achidarika
achidudza
achidudzwa
achidya
achidzika
achiedza
achienda
achieve
achievements
achifamba
achifunga
achigadzira
achigara
achiimba
achiisa
achiita
achiitwa
achikohwa
achikura
achikwanisa
achimirira
achimurevera
achinanga
achinge
achinyora
achinzi
achinzwa
achipa
achipanga
achipesaniswa
achipfuura
achipinda
achipokana
achiramba
achirambidza
achiratidza
achireva
achiri
achiriko
achiroorwa
achirova
achirungu
achirwara
achisarudza
achishanda
achishandisa
achishandiswa
achishanduka
achisiya
achisvika
achitamba
achitanga
achitarira
achitarisa
achitarisira
achitaura
achitenda
achitengesa
achitevedza
achitevera
achiteverwa
achiti
achitonga
achitora
achitorwa
achitsiva
achitsvaga
achitungamirirwa
achiudzwa
achiuya
achiva
achive
achiverenga
achiwana
achiwanzo
achiwedzera
achiziva
achizivisa
achizopa
achizopedzisira
achizvizivisa
acho
achromatic
acid
acidity
acids
acorus
acquaintance
acquire
acquired
acquit
acre
acrid
acrobatics
across
act
acting
action
actions
active
activism
activist
activities
activity
actor
actors
actress
acts
actual
actually
aculeastrum
acuminata
acute
acuteness
acytelene
ad
ada
adam
adama
adamant
adams
adansonia
adapt
add
added
adder
addicted
adding
addis
addition
additional
additionally
additions
address
ade
adele
adenovirus
adhamawa
adhamu
adheni
adhere
adheres
adhering
adhesion
adhoni
adiwa
adiwanashe
adj
adjacent
adjective
adjoin
adjoining
adjudge
adjudgement
adjust
administer
administration
administrative
administrator
admirable
admiration
admire
admit
admonition
adolescence
adolf
adolphe
adonai
adopt
adopted
adoption
adorn
adornment
adrian
adult
adulterate
adulterer
adultery
adulthood
adults
adv
advance
advanced
advancement
advantage
advantageous
advent
adventures
adversary
adversity
advertising
advesary
advice
advise
adviser
advisors
advisory
advocacy
advocate
adya
adye
adza
adze
adzingwa
adzo
adzoka
adzorera
adzose
ae
aegyptiaca
aegyptium
aenda
aende
aenderere
aeneas
aerial
aeroplane
aesthetic
aesthetics
aethiopica
aethiopum
afa
afamba
afar
affable
affair
affairs
affect
affected
affecting
affection
affectionate
affects
affinity
affirm
affliction
affluence
afghanistan
afirwa
afonso
afraid
afresh
africa
africamuseum
african
africana
africanews
africanism
africans
africanum
afrika
afrikaans
after
afterbirth
afternoon
afterwards
afughanistani
afunga
afurika
agache
agadzirwe
agadzwa
again
against
agara
agare
age
aged
agency
agent
agents
ages
aggression
agidzirwe
agitate
agitated
agnes
ago
agone
agony
agra
agree
agreed
agreement
agricultural
agriculture
agrinovation
agronomist
aguila
agumbuka
agunzvana
agust
ah
ahead
ahmed
ahn
ahwaradadika
ahweva
ahydrogen
ai
aibva
aid
aida
aids
aidzidzira
aidzidzisa
aifamba
aifanhira
aifanira
aifarira
aifunga
aigadzirwa
aigara
aigona
aiitwa
aikura
ailment
aim
aima
aimbova
aimbove
aimed
aimee
aimless
aimlessly
ain
aine
ainge
ainyanya
ainzi
aionekwa
aipesaniswa
aipfekwa
air
airborne
aircraft
aires
airidza
airimwa
airinda
airlift
airplane
airport
airs
airtime
aisakwanisa
aisanganisa
aisanganisira
aise
aisha
aishanda
aishandira
aishandisa
aishandiswa
aita
aitarisira
aitarisirwa
aitariswa
aitaura
aite
aitendwa
aiti
aitonga
aitwa
aiva
aivawo
aive
aivewo
aivimba
aiwa
aiwanzo
aizikirimu
aizivikanwa
aizopihwa
aja
ajagbe
ajentina
ajinga
ajingu
ajr
ak
aka
akabarwa
akabata
akabatana
akabatanidza
akabatanidzwa
akabatsira
akabatwa
akabereka
akaberekerwa
akaberekwa
akabuda
akabudirira
akaburitsa
akaburitswa
akabva
akabviswa
akabvuma
akabvumira
akachekwa
akachema
akachenjera
akachinja
akachinjika
akada
akadai
akadandiranyika
akadanwa
akadarika
akadaro
akadhakwa
akadya
akadyiwa
akadzama
akadzidza
akadzidzira
akadzidzisa
akadzidziswa
akadzika
akadzikatidza
akadzingwa
akadzivana
akadzokera
akadzokororwa
akadzosa
akaenda
akaenderera
akaenza
akaenzana
akafa
akafamba
akafanana
akafanira
akafanirwa
akafirwa
akafunda
akafunga
akafungidzira
akafuta
akagadzira
akagadziridzwa
akagadzirira
akagadzirirwa
akagadzirwa
akagadzwa
akagamuchira
akagamuchirwa
akagara
akagashira
akagomberwa
akagwinya
akahwina
akaibva
akaimba
akaipa
akaipfeka
akaisa
akaiswa
akaita
akaitwa
akaivhwa
akajairika
akajeka
akakodzera
akakokwa
akakomberedza
akakomberwa
akakonzera
akakosha
akakotsira
akakubereka
akakumbira
akakunda
akakundwa
akakura
akakurira
akakurudzira
akakurudzirwa
akakurumbira
akakurumidza
akakwanisa
akakwikwidza
akakwira
akakwirira
akambenge
akamboitawo
akamira
akamubatsira
akamuka
akamuti
akamutsa
akan
akana
akanaka
akanakisa
akanakwe
akananga
akanangana
akanarwa
akanga
akange
akangwara
akanhara
akanogara
akanominetwa
akanyanya
akanyogwa
akanyora
akanyoresa
akanyorwa
akanzi
akanzwa
akanzwisisa
akaoma
akaona
akaonekwa
akaonekwawo
akaongororwa
akaora
akapa
akapambwa
akapara
akaparadzanisa
akaparura
akapatsanurwa
akapedza
akapera
akapesana
akapesvedzerwa
akapfeka
akapfuma
akapfuura
akapihwa
akapinda
akapindawo
akapindira
akapindura
akapinza
akapiwa
akapomerwa
akapona
akapoteredza
akapurojusa
akapusa
akaramba
akarambwa
akaranda
akarangarirwa
akarara
akararama
akarasika
akarasikirwa
akaratidza
akare
akareba
akarekodha
akaremara
akareruka
akarerwa
akaripa
akaronga
akarongeka
akarongwa
akaroora
akaroorana
akaroorwa
akarova
akarukwa
akarumbidza
akarumbidzwa
akarurama
akarwara
akarwiwa
akasaina
akasainwa
akasangana
akasara
akasarenda
akasarudza
akasarudzwa
akashaika
akashanda
akashandawo
akashandisa
akashandura
akashandurwa
akashanyira
akashata
akashaya
akashinga
akasiiwa
akasika
akasikwa
akasimba
akasimbisa
akasiya
akasiyana
akasiyanasiyana
akasungirirwa
akasungwa
akasununguka
akasunungurwa
akasurukirwa
akasviba
akasvika
akatadza
akatakura
akatamba
akatambura
akatambwa
akatamira
akatanga
akatangawo
akatanhamara
akataramukana
akatarisa
akatarisana
akatarwa
akataura
akataurawo
akatendeka
akatenderera
akatendeuka
akatenga
akatengeswa
akatetepa
akatevedzana
akatevera
akati
akatiza
akatizira
akatonga
akatongerwa
akatora
akatorwa
akatsakatika
akatsanangura
akatsaukana
akatsemurwa
akatsigira
akatsika
akatsikisa
akatsvaga
akatsvuka
akatumidza
akatumidzwa
akatumira
akatumwa
akatungamira
akatungamirira
akaudza
akaudzwa
akaumba
akaumbwa
akauraiwa
akauraya
akauya
akava
akavaka
akavakirwa
akavakwa
akavamba
akavanzika
akavapindurawo
akavapo
akave
akaverenga
akavhara
akavharika
akavhura
akavhurwa
akavigwa
akavimbiswa
akawana
akawanawo
akawanda
akawandisa
akawanikwa
akawira
akawoma
akawomera
akazara
akazarura
akazaze
akaziva
akazivisa
akaziviswa
akazoenda
akazoita
akazonyora
akazoonekwa
akazorora
akazoshanda
akazosiya
akazotama
akazova
akazove
akazozivikanwa
akazvara
akazvarirwa
akazvarwa
akazvibvisa
akazvimirira
akazvipa
akazviratidza
akazvitakura
ake
akebu
akidoka
akipelago
akiso
akita
akitiki
akkadian
ako
akoose
akrikaans
aku
akulaleki
akuna
akunda
akunde
akura
akuruma
akushandiswa
akusizi
akuvara
akuzivikwa
akwana
akwandza
akwanise
akwarisi
al
ala
aladdin
alaiansmedia
alain
alamanni
alarm
alaska
alata
alba
albania
albert
alberto
albida
albino
albizia
album
albums
alchemilla
alchemy
alcohol
alcoholic
ale
alejandro
alele
alenga
alert
alex
alexander
alexandre
alexandria
alfeld
alfred
alfredo
algae
algeria
algorithm
algorithms
ali
alice
alick
alien
alight
align
alike
alive
alka
alkali
all
allafrica
allah
allegiance
allegory
allen
allergy
allex
alliance
allied
alligator
allocation
allotment
allotropes
allotted
allow
allowing
allows
alloy
allt
allude
allure
alluvial
ally
alma
almas
almighty
almond
almost
alms
alo
aloe
alofa
aloft
alois
alone
along
alongside
aloof
alopochen
aloud
aloviou
alpha
alphabet
alps
already
also
alt
altar
alter
alteration
altered
alternate
alternating
alternative
although
altitude
altogether
alu
aluka
aluminium
alunga
always
alɛ
am
ama
amabamu
amabeka
amabele
amabutho
amadili
amaduku
amadzimambo
amafuku
amagama
amagezi
amagobela
amagwegwe
amagwenya
amahobela
amai
amaiguru
amainini
amakaramu
amakhaphanyongo
amakhiwa
amakhokhelo
amakhono
amakhuwa
amakoba
amalima
amalunga
amalwa
amambo
amanaka
amanakabaphathi
amanda
amandava
amandebele
amandla
amani
amanzi
amaphepha
amapiano
amara
amaranthus
amare
amarildo
amarwi
amaryllis
amashushu
amasoko
amass
amateka
amateurs
amavukuthu
amayele
amazi
amazing
amazulu
amazuvano
amba
ambai
ambaleeŋge
ambana
ambassador
ambata
ambaura
ambayi
ambedkar
ambenge
ambers
ambhuya
ambi
ambia
ambila
ambique
ambition
ambuka
ambulacraria
ambulula
ambura
amburakarari
ambuya
ambuyawasha
amc
ame
amen
amend
america
american
americana
americanah
amerika
amethyst
amhanya
amharic
ami
amid
amidst
amina
amino
amir
amire
amiss
ammonia
among
amongst
amorphous
amos
amosi
amount
ample
amputate
amsterdam
amu
amubatsire
amufurosi
amuka
amuse
amusement
amutsirwe
amwa
amwari
amwe
amy
amygdalina
an
ana
anacho
anaemia
analefa
analyses
analysis
anamanu
anashe
anatayc
anatomy
anatoria
anayo
ancestor
ancestors
ancestral
ancestry
anchor
ancient
and
anda
andakitika
andere
anderson
andi
andira
andiswa
ando
andora
andorra
andre
andrea
andreas
andrew
android
andromeda
andu
andwa
andy
andza
ane
anechiedza
anehukama
anehutachiwana
anehydrogen
anemakumi
anemavambo
anemavara
anemone
anenge
anesu
anew
anezvirevo
anga
angaagara
angadai
angagona
angaita
angaitwa
angangoita
angangove
anganzi
angasanganisa
angati
angava
angave
ange
angel
angela
angeles
angelfish
angeline
angelo
angels
anger
anginamnako
angle
angled
angles
anglican
anglo
angola
angolensis
angoti
angry
angu
anguish
angular
angustifolium
angwa
anhasi
ani
anii
animal
animalia
animals
animation
animosity
anions
anita
anja
ankle
ankosa
ann
anna
annals
anne
annie
annihilate
annihilation
annoint
annona
announce
announced
announcement
announces
annoy
annoyance
annoyed
annoys
annual
ano
anoba
anobata
anobatana
anobatanidza
anobatanidzwa
anobatsira
anobatwa
anobhadhara
anobika
anobikwa
anobindikita
anobuda
anoburitsa
anoburitswa
anobva
anobvinina
anochamira
anochekana
anochengeta
anochengetwa
anochera
anocherechedza
anocherwa
anoda
anodaidzwa
anodanwa
anodarika
anodaro
anode
anodikanwa
anodiwa
anodudza
anodudzira
anodya
anodyaira
anodyiwa
anodzidza
anodzidzisa
anodzika
anodzinga
anodzverevenda
anoenda
anoenderana
anoenderera
anofadza
anofamba
anofambirana
anofanhira
anofanira
anofanirwa
anofarira
anofarirwa
anofunga
anofungidzirwa
anogadzira
anogadzirwa
anogadzwa
anogara
anogarako
anogaramo
anogaro
anogona
anogovera
anoguma
anohoreka
anohwerengedzwa
anoimba
anoint
anointed
anointer
anoisa
anoiswa
anoita
anoitawo
anoitika
anoitirwa
anoitwa
anokanda
anoketa
anokonzera
anokonzerwa
anokosha
anokudzwa
anokukurutswa
anokunda
anokura
anokurumuka
anokwana
anokwanisa
anokwanisawo
anokwaniswa
anokwata
anokweva
anokwezverwa
anolyte
anomanikidzwa
anomera
anomhanya
anomirira
anomiririra
anonatsa
anonaya
anonongedza
anonyanya
anonyanyo
anonyngera
anonyora
anonyorwa
anonzi
anonziwo
anonzwa
anonzwika
anoona
anooneka
anoonekwa
anoongorora
anopa
anoparadza
anopera
anopfekedzwa
anopfurwa
anopfuura
anopihwa
anopikisa
anopimwa
anopinda
anopindura
anopinga
anopisa
anopiwa
anopota
anopoteredza
anoramba
anorara
anorarama
anoraswa
anoratidza
anoratidzwa
anoreva
anoridza
anorima
anorimwa
anoronga
anorova
anorumbidza
anorwara
anorwisa
anosangana
anosanganisa
anosanganisira
anosanganiswa
anosara
anosarudza
anosarudzwa
anosarudzwazve
anosetsa
anosevenza
anoshamisa
anoshanda
anoshandawo
anoshandira
anoshandisa
anoshandiswa
anoshandiswawo
anoshanduka
anoshandura
anosika
anosiya
anosiyana
anosiyanisa
anosvetuka
anosvika
anotadza
anotakura
anotakurwa
anotamba
anotambanuka
anotambira
anotanga
anotangira
anotapuriranwa
anotapwa
anotara
anotaridza
anotaridzika
anotarisa
anotarisana
anotarisira
anotarisirwa
anotariswa
anotaura
anotaurwa
anoteera
anoteerwa
anotenda
anotendera
anotenderwa
anotendwa
anotengesa
anotevedzana
anotevera
anoteverwa
another
anoti
anotiza
anotodza
anotodzana
anotodzera
anotonga
anotora
anotorwa
anotsanangura
anotsanangurwa
anotsangura
anotsemurwa
anotsigira
anotsikisa
anotsiva
anotumwa
anotungamira
anotungamirwa
anoturikira
anoturikirwa
anotya
anoudzwa
anoumba
anounganidza
anounza
anourayiwa
anouya
anova
anovaka
anovamba
anovambwa
anovanikwa
anovava
anove
anoverengwa
anoveza
anovhara
anovhima
anoviga
anowana
anowanikwa
anowanikwawo
anowanza
anowanzo
anowanzoonekwa
anowanzove
anowira
anowonekwa
anoyemera
anoyerera
anoyevedza
anoziva
anozivikanwa
anozivikanwawo
anozivikwa
anozovamba
anozvarwa
anozviita
anozvipira
anozviti
ans
ansikte
answer
answers
ant
antarctic
antarctica
antbear
antelope
anthem
anthill
anthony
anthropology
anthroponyms
anti
antibiotics
antibodies
antibody
antics
antidesma
antigen
antiquity
antoine
antonio
antonto
ants
antsirabe
antu
anu
anufe
anula
anus
anvil
anwa
anwe
anxiety
anxious
any
anya
anymore
anyone
anyore
anyorwa
anything
anyway
anywhere
anza
anzenza
anzi
anzwe
ao
aoi
aoki
aona
ap
apa
aparadze
apart
ape
apedza
apetalus
apex
apfave
apfuura
apiculatum
apihwe
apinda
apinde
apiwa
apiwe
apo
apocrypha
apokirifa
apollo
apostatize
apostle
apostles
apostolic
app
apparent
appeal
appear
appearance
appearances
appeared
appearing
appears
appease
appellation
appendiculata
appetite
appl
applaud
applauder
applause
apple
apples
application
applied
applies
apply
appoint
appointed
appointment
apportion
appreciation
apprentice
approach
appropriate
approval
approve
approved
apricots
april
apron
apwanyiwa
aquarius
aquifer
ar
ara
arab
arabhia
arabhiya
arabhu
arabia
arabic
arabs
arachis
arairwa
aram
aramba
arambe
aramu
aran
arara
ararame
arbiter
arbitrate
arbitrated
arbitrating
arbitrator
arc
arch
archaea
archbishop
archipelago
architect
architects
architectural
architecture
archive
archived
archives
arctic
arcturus
ard
ardhi
are
area
areas
arege
arekisondira
ares
argentina
argentine
argentines
argon
argue
arguement
arguing
argument
ari
arid
ariel
aries
arika
ariko
arild
arimo
arimunyika
aripadhuze
aripazasi
aripedyo
aripo
arira
arise
aristocracy
arithimetic
ariwo
ariye
ark
arm
armpit
armpits
arms
army
arnold
aro
arohwa
aromatic
aron
aronzerwa
aroora
aroorwe
around
arowana
arrange
arranged
arrangement
arranger
arranges
arrest
arrival
arrive
arrived
arrives
arrogance
arrogant
arrow
arrows
arsenic
art
arteries
artery
artfulness
arthropoda
arthur
article
articles
articulate
artifacts
artificial
artist
artistic
artists
artribution
arts
aru
arubhamu
arubhaniya
arufabheti
aruje
arujeria
arujeriya
arukeya
arukoni
arumeniya
aruseni
arwisa
arya
as
asa
asamweri
asangana
asante
asaparadzire
asapikisane
asara
asarudzwa
asaruka
asati
ascend
ascendancy
ascension
ascent
asclepias
ase
ash
asha
ashamed
ashanda
ashande
ashandisa
ashandiswa
ashaya
ashe
ashem
ashes
ashgate
ashi
ashinga
ashley
asi
asia
asian
asiatic
asiatica
aside
asidhi
asika
asikumhiri
asimo
asina
asingadi
asingadiwe
asingadyi
asingakwanise
asinganyare
asingareve
asingasvike
asingatendere
asingawanikwe
asipo
asiri
asisina
asisiri
asiwo
asizve
ask
asked
asking
asks
asleep
aslo
asmara
asparagoides
asparagus
aspect
aspects
aspirate
aspx
ass
assam
assange
assault
assegai
assemblage
assemble
assembled
assembling
assembly
assendelft
assent
assert
assertion
assessor
assets
assiduous
assigned
assist
assistance
assistant
associate
associated
association
assort
assumed
assured
assyria
astarte
aster
asteraceae
asteroid
asteroids
asthma
astonishing
astonishment
astray
astro
astrological
astrology
astronomical
astronomy
asu
asunder
asungwe
asvika
asvitsa
asylum
aszelia
at
ata
ataa
atakura
atanga
atange
atarise
ataurwa
ataxacantha
ate
atenda
atenga
atheletics
athletics
ati
atlandiki
atlanta
atlantic
atlas
atmosphere
atmospheric
atom
atomic
atoms
atomu
atora
atore
atoropodha
atorwa
atova
atsa
att
attach
attached
attachment
attachments
attack
attacked
attacks
attempt
attempts
attend
attendant
attended
attention
attentive
attentively
attire
attitude
attract
attracted
attracting
attraction
attractive
attractiveness
attributes
attribution
atumwa
atwot
atya
atyiri
au
aubrey
auburn
audacious
audacity
audience
audio
audius
audrey
audzwa
aug
auger
august
augustin
augustine
augustus
aunt
aureus
austin
australia
australian
austria
austrian
author
authoritative
authorities
authority
auto
automaker
automatic
automobile
autumn
auxiliary
auya
auye
av
ava
available
avalanche
avanoita
avanomudeedza
avanotaura
avanoti
avant
avapostori
avarice
avasikana
ave
avenge
avengers
avenue
average
avhareji
avho
avimbiswa
aviv
avo
avocado
avoid
avoidance
avoids
awa
awai
await
awaiting
awake
awaken
awana
awanda
awane
awanikwa
award
awards
away
awful
awkward
awl
awo
awustiriya
axe
axes
axis
aya
ayanda
ayi
ayiwa
ayo
az
aza
azanza
azerbaijani
azeribhaijani
aziva
azive
azivikanwe
azokwanisa
azote
azoteri
azure
azuri
azvarwa
azvo
azərbaycan
b
ba
baa
baaba
baal
baala
baara
baare
baaru
baba
babakadzi
babamudiki
babamukuru
babamunini
babango
babe
babel
babies
baboon
baboons
babungo
babusi
baby
babylon
bac
baca
baccalaureate
bach
bachelor
bacillus
back
backbite
backbiting
backbone
backed
background
backs
backside
backstroke
backward
backwards
backyards
bacteria
bacterial
bad
badger
badly
badmouth
badness
badza
badzi
baek
bafanji
bafu
bag
baganya
bagel
baggage
bahamas
bahari
bahazvi
bahrain
bai
bail
baila
bailey
bait
bak
baka
bakaka
bakal
bakalanga
bakana
bakanya
bakanyira
bakanyire
bakare
bakasa
bake
baking
bako
bakoko
bakole
bakong
bakonzo
bakupi
bakwena
bakweri
bala
balala
balance
balanced
balancing
balanites
balaton
bald
baldness
bale
baleni
bali
balima
ball
ballad
ballet
ballings
balls
baloguna
balongwe
baloyi
bamba
bambara
bambe
bambo
bamboo
bamboozle
bamburg
bami
bamnakile
bamunyumba
ban
bana
banana
bananas
band
banda
bandadzi
bandage
bandama
bandamba
bandamuchenene
bande
bandiko
bandira
bands
bandu
bandundu
bandwe
bandy
bang
banga
bangala
banganhundu
bangime
bangira
bangladesh
bango
bangtan
bangu
bangui
bangula
bangwa
banhwa
bani
banish
bank
banket
banks
banning
bantu
banya
banyai
banza
banze
baobab
bape
bapedi
bapiro
baptiste
bapu
bar
bara
barack
baradza
baradzanwa
baradzarudzi
barain
baraka
barama
baranya
barara
bararira
baraureya
baravara
barawa
barawani
baraza
barbados
barbara
barbarian
barbel
barber
barbuda
bare
bargain
bari
barika
barikira
barivafa
bark
barley
barn
barnes
baro
baron
baronga
barotse
barracks
barre
barrel
barrels
barren
barrier
barron
bars
bart
barter
bartlett
barton
baru
baruch
barwa
bas
basa
basabasa
basal
basamuridzi
base
based
bashe
bashful
basi
basic
basilica
basin
basis
bask
basket
basketball
baskets
baskin
basotho
bass
bassa
bast
bastard
bat
bata
batamoyo
batanai
batata
batch
bateleur
bath
bathe
bathing
bato
baton
batonga
batsira
batsirai
batswana
battery
battle
batya
bau
bauhinia
bavili
bawehama
bawraq
bay
baya
bayard
bazezuru
bazi
bazu
bb
bbc
bc
bce
bcg
be
bea
beach
beacon
bead
beads
beak
beam
beams
bean
beans
bear
beard
bearing
bears
beast
beat
beaten
beating
beatrice
beats
beautiful
beautify
beauty
beaux
beba
bebe
became
because
beche
bechinambya
beckon
becky
become
becomes
becoming
bed
bedding
bedroom
bedstead
bedzi
bee
beehive
beelden
beele
been
beer
bees
beestings
beeswax
beetle
befall
befitting
before
beforehand
befu
befura
beg
began
beget
beggar
begin
beginner
beginning
begins
behalf
behave
behaves
behavior
behaviour
behead
behind
behold
beijing
being
beings
beira
beit
beitbridge
beja
beka
bekli
bekweli
bel
bela
belarus
belch
bele
beleka
belekela
belenga
belgium
belgrade
beli
belief
beliefs
believe
believer
belinda
belittle
bell
bellow
bellows
belly
belong
belonged
belonging
belongings
belongs
belontos
beloved
below
belt
belts
bemba
bembera
ben
bena
benard
bench
bend
bendekete
bending
bendo
bene
beneath
benedicte
benefactor
benefit
benevolence
benevolent
benga
bengal
bengali
bengo
benhura
benin
benito
benjamin
bennett
benny
bensa
benson
bent
benzi
beon
bepa
bepanhau
bepe
bepete
bepu
bepura
bequaertiodendron
bera
berber
berchemia
bere
bereaved
bereka
berengo
berere
berg
bergman
beri
beria
berkshire
berlin
bern
bernadette
bernadotte
bernard
bernice
berry
bertha
beryllium
besa
besanwa
beside
besides
besiege
best
besu
bet
beta
bete
beth
betray
betroth
betrothed
betsira
betsva
better
betty
between
beure
beuring
beverage
beware
bewilder
bewildered
bewitch
bewitched
beyonce
beyond
beza
bezosscholars
bg
bh
bha
bhaa
bhaaru
bhabhironi
bhaca
bhachi
bhahareyini
bhahari
bhahariganhi
bhaibheri
bhaisikopo
bhakasa
bhakiteriya
bhakitiriya
bhamu
bhanan
bhanana
bhande
bhandu
bhanga
bhangu
bhara
bharabhara
bhari
bharibhudha
bharu
bharukhu
bhasa
bhasera
bhasiketi
bhasikoro
bhatani
bhatiri
bhavha
bhavhu
bhawaraki
bhazi
bhebhe
bhegi
bhendi
bhengari
bhenini
bhenji
bhera
bherarusi
bhero
bherujyamu
bheseni
bhesini
bheti
bheya
bhii
bhila
bhimrao
bhinzi
bhirateriya
bhiriji
bhiriyoni
bhiro
bhiza
bhizimusi
bhizinesi
bhizinisi
bho
bhobha
bhodhi
bhodhoro
bhokisi
bhomba
bhondi
bhonza
bhoo
bhora
bhoso
bhosvo
bhoti
bhotswana
bhoziniya
bhucha
bhudhapesti
bhudhi
bhuku
bhumhi
bhumi
bhunu
bhuraki
bhurasho
bhurauni
bhurazakongo
bhurazavhiri
bhuraziri
bhuritani
bhuritaniya
bhuru
bhurugariya
bhurugwa
bhurukina
bhurumu
bhururuka
bhuruu
bhusumane
bhuti
bhutsu
bi
bia
bias
bibcode
bibi
bibiri
bible
biblical
biblio
bibliotheken
bicolor
bicycle
bid
biden
bidens
bienenstich
biennale
bier
bifurcation
big
bigger
biggest
bigness
bii
biinga
bikita
bila
bile
bilharzia
bill
billboard
billed
billion
billionaire
billions
billow
billy
biltong
bimbiri
bimha
bin
bina
binary
bind
binding
bindirira
bindu
binduko
bindura
biney
bing
binga
bingandadi
bingu
bini
bio
biographical
biography
biological
biologist
biology
biosphere
bipingushi
bira
birchenough
bird
birdlime
birds
bire
biri
biribidi
birima
birira
birkenhead
birrea
birth
birthday
births
bishapisha
bishi
bishop
bisi
bissa
bissau
bit
bite
biti
biting
bitira
bitongole
bits
bitstream
bitten
bitter
bitterness
biya
biyo
bl
blabbing
black
blackbird
blackness
blacksmith
bladder
blade
bladed
blaise
blame
blanc
blanca
blanket
blankets
blaze
bleach
bleed
bleeding
blemish
bless
blessed
blessing
blessings
bleus
blew
blica
blind
blindfaith
blindness
blink
blinking
blister
bloated
blob
block
blogspot
blomme
blood
bloodshot
bloodwood
bloom
blossom
blossoms
blow
blowing
blown
blows
blu
blue
blues
bluff
blumea
blundar
blunder
blunt
blunted
blushing
bmj
bn
bo
boa
boar
board
boast
boasting
boat
boaz
bob
bobangi
bobby
bobo
bodenplatte
bodied
bodies
bodo
body
bodzi
bodzo
boehmii
bofu
bog
boi
boil
boiled
boiling
boils
boka
bokora
bold
boldness
bole
bolivia
bolo
bolt
bom
boma
bomar
bomb
bomba
bombax
bombo
bombs
bomera
bomho
bomvana
bomvu
bon
bona
bond
bonda
bonde
bondeka
bondera
bondo
bondokoto
bondongo
bone
bones
bong
bonga
bongani
bongo
bongozozo
boni
boniface
bonnie
bono
bonongwe
bonyongo
bonyora
book
books
boom
boophone
boora
booth
bope
bopoma
bopoto
bor
bora
borassus
borax
borbonica
border
borders
bore
bored
born
borna
borne
boro
boroma
boron
borrow
boscia
boseman
bosha
bosho
bosna
bosnia
boss
boston
bot
bota
botala
botanic
botch
bote
boterekwa
boterero
both
botha
bother
bothered
bothering
bothwell
botso
botswana
bottle
bottom
bough
bought
boulder
bound
boundaries
boundary
bounds
bow
bowed
bowels
bowl
bowling
bows
box
boxing
boy
boya
boyfriend
boys
boyz
bozho
bp
br
bra
bracelet
bracelets
brachiaria
brachylophus
brachypetala
brachystegia
brackish
brae
brag
braid
braided
brain
brains
bramante
bran
branch
branched
branches
branching
brand
brandenburg
brandhoek
brass
brauni
bravanese
brave
bravery
brawl
brazil
brazilian
brazilians
brazzaville
bre
breach
bread
breadth
break
breakable
breakdown
breaking
breaks
breast
breasts
breath
breathe
breathing
breed
breeding
breeds
breeze
brenda
breuer
brevipes
brevity
brew
brewed
brewer
breweries
brewing
brian
briar
bribe
brick
bricks
bride
bridegroom
bridelia
bridge
bridget
brief
briefing
briefness
brigade
bright
brighten
brightness
brighton
brilliant
brim
brine
bring
bringing
brings
brink
britain
britannica
british
brittle
brittleness
broad
broadcast
broadcasting
broaden
broadway
broke
broken
brontosaurus
bronze
brook
broom
brother
brotherhood
brotherly
brothers
brought
brow
brown
brownii
browse
bruce
bruise
brunelleschi
bruno
brush
brussels
brutal
brutalism
brutality
brute
bts
btsblog
bu
bua
buala
bubble
bubi
bubles
bubye
buch
bucharest
buchilo
buck
bucket
bucku
bud
buda
budambi
budandibudewo
buddha
buddhism
buddhist
buddy
bude
budha
budiriro
buditsa
buene
buenos
buffalo
bufu
bug
buganda
bugu
buhera
buhle
buhobe
buhwola
build
builder
building
buildings
built
buja
bujumbura
buka
bukalanga
bukira
bukulu
bukusu
bukuta
bula
bulawayo
bulaya
bulb
bule
bulele
bulevardul
bulgaria
bulgarian
bulge
bulili
bulk
bulky
bull
bullet
bulletin
bulletproof
bully
buloongo
bulrush
bulu
bulunga
bulungana
bulungu
bumba
bumbiro
bumburu
bumburudzi
bumbwa
bumha
bumhi
bumhira
bumi
bumosi
bunch
bunched
bundle
bundo
bundu
bundutso
bune
bung
bunga
bungu
bungula
bunguzeze
bungwa
bunny
bunoge
bunonga
bununu
bupilo
bupira
bur
bura
burden
bure
burger
burgundy
buri
burial
buried
burimhuri
buritsa
burkei
burkina
burma
burn
burned
burning
burnt
burp
burrow
burrowing
bursa
burst
bursts
buru
burumbwa
burundi
burunga
burura
bururu
buruvuru
bury
bus
busa
bush
bushbuck
bushes
bushu
bushwillow
bushy
busi
busied
business
businessman
busonga
busy
but
buta
butaala
butaka
butala
butale
butali
butcher
bute
butha
buthana
buthidae
butoka
butsu
butt
butter
butterfly
buttock
buttocks
button
butu
butukulu
buure
buusi
buwa
buwe
buxifolia
buy
buyambi
buyer
buying
buyu
buyurimwe
buzi
buzumo
buzz
buŋga
bv
bveke
bveni
bvira
bvokocho
bvudzi
bvuma
bvumba
bvumidzwi
bvumo
bvungapfunga
bvunye
bvunza
bvunzo
bvupa
bvura
bvute
bvuururo
bvuvo
bw
bwa
bwai
bwalo
bwalya
bwami
bwamikadzi
bwana
bwanga
bwatama
bwato
bwe
bwenge
bwere
bweru
bwerudza
bwila
bwile
bwino
bwirazuva
bwo
bwola
by
bya
bye
byoto
bypass
bɔ
bə
bɛ
bɩnkɛ
bɪ
bʊ
c
ca
cabaret
cabbage
cabo
cache
cactus
cad
caesar
caffra
cage
caiman
cairo
caja
cake
cal
cala
calabash
calamity
calaz
calcium
calculate
calculated
calculation
caleb
caledonia
calendar
calf
cali
calico
california
call
calla
calle
called
calligraphy
calling
calls
calm
calmann
calmette
calmness
calves
calvin
calycinum
cam
cambodia
cambridge
cambroernida
came
camel
camellia
cameroon
cammera
camouflage
camp
campaign
campbell
camps
campus
can
canaan
canada
canadian
canal
canals
cancer
candle
cane
canidae
canine
caning
canini
canis
canisius
cannes
cannon
cannot
canoe
canoes
canon
canons
canopus
canvas
cap
capability
capable
capacity
capassa
cape
capense
capensis
capillary
capital
capitol
capleton
capparis
capricon
capricorn
caprivi
caps
capsule
captain
captive
captives
captivity
capture
captured
car
caravan
carbide
carbo
carbohydrates
carbon
card
cardiff
cardinal
care
career
careers
carefree
careful
carefully
carefulness
careless
carelessly
carelessness
caren
caress
caretaker
cargo
caribbean
carissa
carl
carla
carlos
carmel
carnivore
carnivorous
carol
carolina
caroline
carotenes
carpenter
carpentry
carpet
carpodiptera
carrere
carried
carrier
carries
carrots
carry
carrying
cart
cartridge
carve
carved
carving
case
cases
cash
cashel
casi
cass
cassava
cassia
cast
caste
castel
castle
castor
castrate
castrated
casual
cat
catalogue
catalyst
cataract
catch
catching
category
caterpillar
caterpillars
catfish
cathedral
cathedrals
catherine
cathode
catholic
catholyte
cathrine
cations
cattle
caucasian
caucasus
caught
caus
causative
cause
caused
causes
causing
cautious
cave
cavendish
caves
cavity
cb
cc
cd
cdc
cdot
cdots
ce
cease
cec
cecil
cecilia
cedric
cedrick
cee
celebration
celebrations
celebrity
celeste
celestino
celia
cell
celliers
cells
cellular
celosia
celsius
cement
cemetery
censor
censorship
censure
census
centenary
center
centers
centipede
central
centre
centripetal
centropyge
centuries
century
ceo
cephas
ceramic
ceramics
cereal
ceremonial
ceremonies
ceremony
certain
certainly
certainty
cervical
cervix
cessation
cet
ch
cha
chaana
chababa
chabarika
chabata
chabikwa
chabuka
chabva
chabvamuperu
chabvonga
chabvuta
chachekwa
chacho
chad
chademana
chadenga
chadereka
chadhi
chadwick
chadyiwa
chadzera
chadzo
chadzvurwa
chaenda
chaerera
chafamba
chafesuka
chaff
chafukwa
chagara
chagonda
chaguduka
chagutira
chahuvhe
chai
chaibva
chaicho
chaidzidzisa
chaidzo
chaiko
chaikoiko
chain
chaingova
chainzi
chaipa
chaipo
chair
chaira
chairman
chairo
chairs
chaishandiswa
chaisingadyi
chaiswa
chaita
chaitika
chaiva
chaive
chaivo
chaiwo
chaiye
chaiyo
chaizvo
chaizvoizvo
chaji
chaka
chakabatana
chakabatanidzwa
chakabatwa
chakaburitswa
chakabva
chakadai
chakadaro
chakadirwa
chakadzika
chakaenzana
chakafa
chakafanana
chakagadzikwa
chakagadzirwa
chakagara
chakahwata
chakahwina
chakaipa
chakaipisisa
chakaita
chakaitika
chakaitwa
chakajeka
chakakamurwa
chakakosha
chakakumbanidza
chakakura
chakakurumbira
chakakwana
chakakwirira
chakali
chakamira
chakanaka
chakanakira
chakanangana
chakandama
chakandwa
chakanga
chakanyanya
chakanyorwa
chakanyuka
chakanzi
chakaoma
chakapamhama
chakapararira
chakapetwa
chakapfava
chakapihwa
chakapinza
chakapiwa
chakare
chakareba
chakarembedzwa
chakarembera
chakareruka
chakari
chakarukwa
chakarurama
chakasara
chakashata
chakasiiwa
chakasikwa
chakasimba
chakasiyana
chakasungwa
chakasununguka
chakata
chakatakura
chakatandarika
chakatanga
chakatarisana
chakatekeshera
chakati
chakaumbana
chakaumbwa
chakaunganidza
chakaurungana
chakauya
chakavakwa
chakavezwa
chakavharika
chakavigwa
chakawanikwa
chakawata
chakawumbwa
chake
chakeredza
chako
chakona
chakonda
chakonza
chakota
chakuwa
chakwa
chakwanza
chakwita
chala
chali
chalk
challa
challenge
challenges
challenging
chalo
chalybeum
chama
chamai
chamapiwa
chamazuva
chamazuvaose
chambati
chambenge
chamber
chambers
chambizo
chambo
chamboko
chambuko
chameleon
chamhembe
chamhembechemabvazuva
chamhembechemadokero
chamhota
chaminuka
chaminungwe
chamo
champion
champions
championship
champs
chamu
chamudzungururu
chamuhwande
chamumbwa
chamunorwa
chamupupuri
chamwari
chan
chana
chance
chancellor
chanda
chandakadzi
chandengenda
chando
chandra
chandza
chandzo
chanetsa
chang
changa
changamire
change
changed
changes
changing
changmin
changu
chanhasi
chani
chanja
chanjandara
channel
chansa
chantal
chanyamusi
chanza
chanzi
chanzo
chao
chaos
chapangura
chapara
chapararira
chaparira
chapatarongo
chapelle
chapepa
chapera
chaperuka
chapfunga
chapinda
chapinduka
chapinga
chapingidza
chapotera
chaps
chapter
chapungu
chapupu
chapwanya
chara
character
characterised
characteristic
characteristics
characters
charadza
charaka
charama
charamba
charandura
charara
charasika
charcoal
chare
charehwa
charge
charged
chari
charity
charlene
charles
charlie
charm
charmaine
charms
charo
charova
charovedzera
chart
chartered
chartreuse
charumbira
charunda
charungura
charwara
charwe
chasakwa
chasambazika
chasauka
chase
chasi
chasm
chasten
chastise
chasvika
chat
chataika
chatema
chatemabanze
chatemagombwe
chatemamhomho
chatemamwari
chatemanjonda
chatemanyanzvi
chatemavabinyi
chati
chatikita
chatindo
chatinodya
chatonda
chatora
chatter
chatukuta
chatunga
chaturikirwa
chauke
chaukura
chaunga
chaunoda
chauri
chava
chavamugabe
chavanoda
chavarika
chave
chavo
chavovo
chavuma
chavunduka
chawanda
chawapiwa
chawo
chayera
chayina
chayo
chaza
chazezesa
chazvo
che
cheafrika
cheafrkia
cheafurika
cheamerika
cheap
cheaper
cheat
cheating
chebamba
chebasa
chebezos
chebhii
chebhuku
cheboka
chebvunzurudzo
chechamhembe
chechayina
cheche
chechetere
chechi
chechibani
chechikadzi
chechikristu
chechina
chechindeya
chechingezi
chechinhu
chechinyakare
chechinyorwa
chechipiri
chechirungu
chechirwere
chechishanu
chechishona
chechisi
chechitatu
chechiuno
check
checorona
checovid
chedahunha
chedenderedzwa
chedenga
chedu
chedumbu
chedunhu
chedza
chedzidzo
chedzihwa
chedzinza
cheek
cheeks
cheenglish
cheer
cheerful
cheese
cheetah
cheezhiya
chefashoni
cheffers
chefu
chefundoyetsimba
chega
chegomo
chegonyonhatu
chegumbo
chegumi
chegutu
chehondo
chehuchi
chehudyu
chehunyanzvi
chehupenyu
chehuremu
chehurumende
chehushe
chehutachiona
chehutachiwana
chehuwandu
cheicho
cheka
chekambani
chekare
cheki
chekiwani
chekoriya
cheku
chekuchamhembe
chekuchengetedza
chekuchera
chekucheresa
chekuda
chekudya
chekudzidzisa
chekufanza
chekugadzira
chekugona
chekugwamba
chekuita
chekumabvazuva
chekumaodzanyemba
chekumisa
chekupa
chekupedza
chekupedzisira
chekureva
chekuroorana
chekushandira
chekusunungura
chekutanga
chekutarisa
chekuti
chekutsvaga
chekuuraya
chekuvandudza
chekuyanana
chekuzvara
chekwedu
chela
chema
chemabvazuva
chemadokero
chemagariro
chemagombenyina
chemajudah
chemakumi
chemamwe
chemanheru
chemaodzanyemba
chemapapu
chemari
chemasvomhu
chematombo
chemavara
chemazuva
chemazuvano
chemazuvaose
chemba
chembere
chembutu
chemera
chemhandara
chemhando
chemhanzi
chemhembe
chemhuka
chemhuri
chemical
chemically
chemicals
chemiriyoni
chemishonga
chemist
chemistry
chemitauro
chemombe
chemubhaibheri
chemuchato
chemudurikidzanwa
chemufirimu
chemuganhu
chemukadzi
chemukaka
chemukati
chemunda
chemunhu
chemunhukadzi
chemuravanegumi
chemurume
chemusangano
chemushonga
chemusoro
chemutauro
chemutevedzeri
chemuti
chemuviri
chemuzimbabwe
chemvura
chemwaka
chemwana
chemweya
chen
chena
chenai
chenda
chenei
chenga
chengarava
chengeta
chengetai
chengetayi
chengetedzo
chengetedzwa
chengo
chengu
chenguva
chenhabvu
chenhambwe
chenhangande
chenhengo
chenhomba
chenhoroondo
cheni
chenje
chenjedzo
chenjerai
chenjodzi
chennai
chenonceau
chenyama
chenye
chenyika
chenyu
chenza
chenzungu
chenzvimbo
chepakati
chepamusoro
chepamutemo
chepasirose
chepfu
chepfungwa
chepimanyika
chepiri
chepo
cheprimary
chepuraimari
chera
chere
cherechedzai
cherish
chero
cheroman
cherry
cheruambamhenyu
cheruambanyeredzi
cherudo
cherudzi
cherurindi
cheruwoko
cherwendo
cherwiyo
chesafira
chesainzi
chesango
chescience
chese
chesekondari
cheshiri
cheshoko
cheshuga
cheshuramatongo
chesimbi
chess
chest
chester
chetarachisi
chetaranyika
chetatu
chetb
chete
chetero
cheteyo
chetsika
chetsoka
cheuswa
chevadiki
chevagari
chevakwasvi
chevana
chevanhu
chevarimi
chevashandi
chevashona
chevasikana
chevatengi
chevron
chew
chewa
chewed
chewing
cheya
chezana
chezasi
chezera
chezimbabwe
chezita
chezulu
chezuva
chezvikamu
chezvinhu
chezvinotevera
chezvinyakare
chezvipenyu
chezvirwere
chezvitsuwa
chezvivezwa
chezwi
chh
chi
chiadhamawa
chiadzwa
chiafurika
chiakoose
chiamba
chiambamhenyu
chiambandanga
chiambanzanga
chiambaro
chiambi
chiandana
chianza
chiara
chiarabhu
chiaramu
chiasamiya
chiatlandiki
chiazeri
chibage
chibaka
chibale
chibanda
chibange
chibangwa
chibantu
chibanze
chibaradenda
chibarinye
chibatamatosi
chibatiro
chibatiso
chibato
chibaya
chibayiro
chibendo
chibere
chibereko
chibeto
chibhakera
chibhama
chibhantu
chibharo
chibhebhe
chibhende
chibhengari
chibhokisi
chibhunu
chibi
chibinge
chibisa
chibodzi
chibodzwa
chibooreso
chibudya
chibuja
chibuku
chibundule
chibune
chibure
chibuti
chibuza
chibviko
chibvumirano
chibwa
chibwe
chicago
chichangotanga
chichava
chichayina
chichena
chicherwa
chichetu
chichewa
chichi
chichibuda
chichibva
chichifamba
chichiita
chichinge
chichinzi
chichiparura
chichireva
chichiri
chichishandisa
chichishandiswa
chichiso
chichitevedza
chichitevera
chichiti
chichiva
chick
chicken
chickenpox
chida
chidaka
chidamba
chidamoyo
chidao
chidau
chidaviro
chidawanyika
chidawo
chide
chidembo
chidenhi
chidester
chideu
chidewu
chideya
chidhachi
chidhakwa
chidhau
chidhevhanagari
chidhindo
chidhinha
chidhongi
chidikanwi
chidiki
chidimbu
chido
chidoda
chidodo
chidoko
chidokohori
chidokwa
chidokwadokwa
chidongo
chidowe
chiduku
chidya
chidyausiku
chidyiwe
chidyo
chidza
chidzero
chidzidzi
chidzidzo
chidzikwe
chidziro
chidzitiro
chidziva
chidziviro
chidziwerere
chidzo
chidzoke
chidzonga
chidzudzani
chiedza
chief
chiefdom
chiefs
chiefship
chieftain
chieftainship
chiendambuya
chienza
chiera
chifamba
chifananidzo
chifani
chifanikiso
chifemo
chiffon
chifo
chifufuro
chifukidziro
chifula
chifumo
chifumuro
chifunda
chifundo
chifungo
chifunyise
chifurenji
chifuro
chifurufurudhe
chifwamba
chiga
chigaazira
chigaba
chigadzamapfihwa
chigadzirwa
chigaga
chigagairwa
chigamba
chiganda
chigango
chiganze
chigaro
chigarochoumambo
chigava
chigayo
chige
chigebenga
chigero
chigeveng
chigevenga
chigiriki
chigodora
chigomba
chigombe
chigombo
chigonda
chigondiso
chigoya
chigu
chigubhu
chigumbu
chigumbura
chigumi
chigumira
chigumo
chigunda
chigunwe
chigura
chiguro
chigutiro
chigutsa
chiguvare
chiguwa
chigwa
chigwada
chigwana
chigwedere
chigwenembe
chigwindabwe
chigwindiri
chihara
chihausa
chihebheru
chihera
chihindi
chihindustani
chihobo
chihoboya
chihofisi
chihombe
chihombori
chihomwe
chihoro
chihota
chihumbiri
chihuri
chihwa
chihwesa
chii
chiikuhane
chiilomo
chiindo
chiine
chiingooro
chiinterlingue
chiinuiti
chiitari
chiite
chiitike
chiitiko
chiito
chijaka
chijana
chijapani
chijerumani
chijojya
chijudha
chikabudura
chikadyana
chikadzi
chikafu
chikaka
chikalanga
chikamba
chikambi
chikamu
chikanadha
chikanda
chikande
chikandi
chikanga
chikanganiso
chikanganwahama
chikani
chikanya
chikanza
chikara
chikarakara
chikaranga
chikasa
chikasha
chikasu
chikata
chikatazo
chikavayika
chikepe
chikerema
chikero
chiketa
chikete
chikhimeri
chiko
chikobvu
chikodza
chikodzi
chikodzo
chikohwa
chikoko
chikomba
chikombarume
chikombe
chikombedzi
chikombero
chikombo
chikombora
chikomborero
chikomo
chikonda
chikonde
chikondere
chikondi
chikondo
chikone
chikonga
chikonge
chikongo
chikoni
chikono
chikonono
chikonzero
chikonzi
chikope
chikopo
chikopokopo
chikore
chikorekore
chikoriya
chikoro
chikorwa
chikosha
chikosi
chikosoro
chikota
chikote
chikotera
chikoto
chikotsa
chikovera
chikowa
chikowe
chikowo
chikowore
chikoya
chikozo
chikriri
chikristu
chikuhwa
chikuko
chikuku
chikukumira
chikukura
chikukutu
chikulupi
chikumba
chikumbatidzo
chikumbi
chikumbirike
chikumbiro
chikumbu
chikumi
chikumo
chikuna
chikunda
chikungu
chikungulu
chikunguru
chikuni
chikunja
chikunya
chikupo
chikura
chikurawadyembeuwu
chikuri
chikuru
chikurudhi
chikurunhe
chikurusa
chikuruwo
chikuse
chikusi
chikuta
chikuti
chikutse
chikutu
chikuva
chikuvamagwaro
chikuvanyanga
chikuwa
chikuwo
chikwaka
chikwama
chikwanda
chikwangwani
chikwanha
chikwapuro
chikwari
chikwata
chikwatamabwe
chikwato
chikwava
chikwawa
chikwaya
chikwekwe
chikwera
chikwere
chikwereti
chikwesa
chikweshe
chikweya
chikwingwizha
chikwinya
chila
chilambo
chilambu
chilanga
child
childbirth
childhood
children
chile
chilenda
chili
chilindo
chill
chilli
chilly
chilo
chilolo
chilombo
chilonda
chilonga
chilongwe
chilufya
chilundu
chilunga
chima
chimanda
chimande
chimanga
chimanimani
chimanje
chimanjemanje
chimanya
chimanyika
chimarayaramu
chimbaka
chimbalazi
chimbamba
chimbanda
chimbangu
chimbara
chimbarange
chimbare
chimbaya
chimbeva
chimbi
chimbikiti
chimbiro
chimbishi
chimbo
chimbondo
chimbumba
chimbumu
chimbuzi
chimbwa
chimbwamupengo
chimbwanda
chimbwi
chimedu
chimene
chimenya
chimera
chimhamhiwa
chimhanda
chimhini
chimhungu
chimimino
chimina
chimiriro
chimiro
chimiso
chimo
chimodza
chimodzashemu
chimokoto
chimombe
chimonya
chimonyo
chimoso
chimotsi
chimotso
chimpanzee
chimsoro
chimuchiti
chimuka
chimuko
chimukuyu
chimumumu
chimunyepfu
chimupika
chimurenga
chimuti
chimutsamapfihwa
chimwana
chimwanda
chimwandamwanda
chimwanengara
chimwara
chimwe
chimwechete
chimwecho
chimwemwe
chimwewo
chin
china
chinaija
chinake
chinaku
chinamano
chinamasa
chinamatira
chinamato
chinambiya
chinambya
chiname
chinamhora
chinanazi
chinanga
chinangwa
chindali
chindara
chindau
chindeb
chindebele
chindende
chindevele
chindevere
chindeya
chindi
chindimba
chindindo
chindini
chindondo
chindori
chindoto
chindowa
chindunduma
chine
chinehukama
chinemashoko
chinembiri
chinembo
chinenge
chinengo
chinengundu
chinengwe
chinensis
chinepfu
chinese
chinga
chingadaro
chingafananidzwa
chingaira
chingala
chingamila
chinganga
chingashandiswa
chingava
chingayereswa
chingezi
chingo
chingoma
chingono
chingore
chingoro
chingoto
chingulu
chingundu
chinguni
chinguri
chinguva
chinguwa
chingwa
chingwanda
chingwaru
chinhambwe
chinhenga
chinho
chinhoyi
chinhu
chinja
chinjengwa
chinjinji
chink
chino
chinobata
chinobatanidza
chinobatsira
chinobhadharwa
chinobhiini
chinobikwa
chinobuda
chinoburitsa
chinoburitswa
chinobva
chinocontainer
chinoda
chinodaidzwa
chinodanwa
chinodarika
chinodiwa
chinodudza
chinodudzira
chinodudzirwa
chinodya
chinodyiwa
chinodzidziswa
chinodzivisa
chinodzokorora
chinodzosera
chinoera
chinofamba
chinofanirwa
chinofungidzirwa
chinogadzira
chinogadzirwa
chinogara
chinogona
chinogonawo
chinoiswa
chinoita
chinoitika
chinoitirwa
chinoitwa
chinokanganisa
chinokonzera
chinokonzerwa
chinokoro
chinokosha
chinokotama
chinokumbanidza
chinokura
chinokwana
chinokwanisa
chinokwaniswa
chinokwezva
chinomirira
chinomwe
chinonaya
chinongo
chinono
chinonyanya
chinonyorwa
chinonzi
chinooneka
chinoonekwa
chinoongorora
chinopa
chinopananwa
chinoparadza
chinopararira
chinopatsanurwa
chinopfekwa
chinopinda
chinopisa
chinopiwa
chinopoterera
chinoputika
chinorarama
chinoratidza
chinorema
chinorembedzwa
chinoreva
chinorukwa
chinorwadza
chinosanganisa
chinosanganisira
chinosara
chinosarira
chinoshanda
chinoshandisa
chinoshandiswa
chinoshanduka
chinosimbisa
chinosionekwa
chinosvika
chinotakura
chinotanga
chinotapukira
chinotapuriranwa
chinotaridza
chinotaridzika
chinotarisa
chinotarisirwa
chinotaura
chinotaurwa
chinotenda
chinotendera
chinotengwa
chinotevedza
chinotevedzana
chinotevera
chinoti
chinotoda
chinotomba
chinotonga
chinotonhora
chinotora
chinotorwa
chinotsanangura
chinotsanangurwa
chinotsvaga
chinotungamirwa
chinoumbwa
chinounganidza
chinounza
chinounzwa
chinouraya
chinova
chinovakwa
chinovamba
chinovhara
chinovhiringa
chinowanikwa
chinowanzo
chinowongorora
chinoyerera
chinoza
chinozivikanwa
chinozoiswa
chinthani
chinu
chinubhia
chinwara
chinwiwa
chiny
chinya
chinyahara
chinyai
chinyakare
chinyama
chinyamakobvu
chinyambiru
chinyambo
chinyamuchinga
chinyamunhari
chinyamurawu
chinyange
chinyanhengo
chinyani
chinyanja
chinyanondo
chinyanye
chinyarwanda
chinyaturu
chinyavada
chinyekenyeke
chinyemba
chinyoka
chinyora
chinyoro
chinyorwa
chinyudze
chinyuka
chinzvimbo
chiomba
chioniso
chiororo
chiostironezhiya
chioza
chip
chipaka
chipakati
chipala
chipamhi
chipamukwani
chipamuriwo
chipanda
chipande
chipandemwana
chipando
chipandwa
chipanga
chipangamazano
chipangandimo
chipangano
chipango
chipangula
chipangura
chipangwa
chipapu
chipara
chiparadenda
chipare
chipari
chipasa
chipatara
chipato
chipauro
chipeke
chipembenene
chipembere
chipendo
chipeneti
chipenyu
chipenze
chipepera
chipepero
chipere
chiperengo
chiperusiya
chipeta
chipfambi
chipfeko
chipfukuto
chipfumbu
chipfundo
chipfunhu
chipfupi
chipfuramabwe
chipfuva
chipfuwa
chipfuyo
chiphanga
chipi
chipida
chipika
chipikiri
chipiko
chipili
chipimiso
chipimo
chipinda
chipindi
chipindura
chipinga
chipinge
chipinya
chipipi
chipiri
chipiriso
chipirwe
chipo
chipoka
chipoko
chipomera
chipomere
chipomero
chipondwa
chiponya
chiponzo
chipopoteke
chiporombe
chiposha
chiposhi
chipotera
chipotero
chipoyera
chips
chipundo
chipunga
chipungu
chipunjabhi
chipunu
chipunza
chipupu
chipurura
chipute
chiputukezi
chipwa
chipwaya
chipwere
chira
chiradza
chirahwe
chirakata
chiramba
chirambadare
chirambo
chiramwa
chirandu
chiranga
chirangano
chirango
chirapa
chirara
chirariro
chirasha
chiratido
chiratidziro
chiratidzo
chiratini
chirau
chirauro
chiraviro
chirayiro
chirebvu
chiredzi
chiredzwa
chirefu
chireka
chirema
chiremba
chiremera
chiremwaremwa
chirenda
chirendo
chirengo
chirenje
chirera
chirere
chirevazita
chirevo
chirewa
chirhashiya
chirhoma
chiri
chiridzwa
chirikadzi
chirikiza
chirima
chirimba
chirimbijana
chirimi
chirimo
chirimujiri
chirimuta
chirimwa
chirinda
chirindi
chiringa
chiringara
chiringiro
chiripiro
chiripo
chiriri
chirisa
chiritsa
chiro
chirodza
chirodzero
chirodzo
chiroma
chiromania
chirombe
chirombo
chiromo
chironda
chirondo
chironga
chirongo
chirongwa
chirongwe
chironzi
chironzo
chiroodza
chiropa
chiroro
chiroto
chirove
chirowodza
chirozva
chirugumbana
chiruka
chirukwa
chirumanzu
chirumbi
chirumbu
chirume
chirumhanzu
chirunda
chirundazi
chirunde
chirundo
chirundu
chirunga
chirungo
chirungu
chirungurira
chirwa
chirwere
chirwirangwe
chisa
chisaka
chisamarengu
chisamba
chisambi
chisana
chisanga
chisango
chisano
chisanza
chisao
chisapa
chisara
chisarudzo
chisasa
chisase
chisasiko
chisata
chisati
chisau
chisawa
chisazita
chisel
chisembe
chisemiti
chisena
chisenegambiya
chisenga
chisengo
chisepe
chisepo
chisere
chisero
chisese
chishamiso
chishamwari
chishandiso
chishanu
chishara
chishashavira
chishava
chishawa
chishawasha
chishemu
chishiki
chisholm
chishoma
chishona
chishonga
chishongo
chishongrish
chishumba
chishupa
chishuvo
chishuwo
chisi
chisika
chisikana
chisike
chisikwa
chisimba
chisimbi
chisimbiso
chisimbwa
chisimira
chisina
chisindhi
chisingarimwi
chisingashanduke
chisingawanikwe
chisingayerere
chisipiti
chisipo
chisiri
chisirimunhu
chisita
chisitandadhi
chisivhiri
chislavhi
chiso
chisoka
chisoko
chisoma
chisomari
chisomo
chisonde
chisonga
chisongo
chisoni
chisoro
chisotho
chisoto
chispanishi
chispeini
chistandadhi
chisumamunyati
chisumba
chisumbwa
chisungo
chisunguro
chisutu
chisuvi
chisuwahili
chisveru
chisvipa
chisvo
chisvusvuro
chiswa
chiswahili
chiswahiri
chiswati
chiswili
chita
chitadzo
chitagu
chitai
chitaitai
chitaka
chitakatira
chitali
chitamba
chitambara
chitambi
chitambira
chitambo
chitambuzenene
chitamiri
chitanda
chitandiro
chitando
chitangala
chitanhatu
chitapa
chitara
chitare
chitari
chitarisiko
chitaro
chitarwa
chitasa
chitata
chitate
chitatu
chitau
chitavara
chiteka
chitelugu
chitema
chiteme
chitena
chitenderano
chitendero
chitendo
chitenga
chitengu
chitepo
chitera
chiterere
chiteshi
chitete
chiteve
chiti
chitiga
chitiko
chitima
chitimbe
chitimiko
chitofu
chitoma
chitonda
chitonga
chitonge
chitongo
chitonje
chitope
chitore
chitoro
chitorwa
chitowa
chitsa
chitsaka
chitsama
chitsari
chitsaru
chitsauko
chitsaya
chitsere
chitsi
chitsidzo
chitsiga
chitsika
chitsiko
chitsinde
chitsinzinzi
chitsitsi
chitsitsinho
chitsoko
chitsonga
chitsora
chitsumbu
chitsunge
chitsungo
chitsuwa
chitsva
chitsvene
chitsvitswa
chitsvuku
chitswa
chitswana
chitu
chitubu
chituko
chituku
chitukuta
chitukutuku
chitumba
chitumbo
chitumbu
chitumbuka
chitumbura
chitunami
chitunda
chitundu
chitundumusere
chitungu
chitunguru
chitungwiza
chitunha
chitupa
chitura
chituro
chituru
chituruki
chituso
chituta
chitutu
chituwa
chituwo
chiubonde
chiuma
chiumbiko
chiumbu
chiumbwa
chiundu
chiunga
chiungo
chiunguro
chiuno
chiunwa
chiunziko
chiuru
chiurudhu
chiusiwa
chiuto
chiutsi
chiva
chivabvu
chivabwa
chivaka
chivakamberi
chivakashure
chivakwa
chivamba
chivambe
chivanda
chivanga
chivango
chivangu
chivanhu
chivanze
chivara
chivarange
chivare
chivasa
chivata
chivavatara
chivaviro
chive
chivepo
chiverengero
chiverengo
chiverevere
chivero
chivese
chiveve
chivezwa
chivharo
chivhenda
chivhinyu
chivhiyetinamu
chivhu
chivhunga
chivhuni
chivhuramabwe
chivi
chividunda
chivimbiso
chivindi
chivingwi
chiviri
chivizhe
chivongo
chivunga
chivungu
chiwa
chiwaka
chiwakamberi
chiwamba
chiwana
chiwandamira
chiwandika
chiwandire
chiwanga
chiwanza
chiwara
chiware
chiwashira
chiwawa
chiwaza
chiweda
chiwedzerwa
chiwenga
chiwepu
chiwera
chiweshe
chiweta
chiwi
chiwira
chiwirano
chiwoka
chiwokomuhomwe
chiwombolo
chiworeka
chiworofu
chiwota
chiwumbiko
chiwumbilo
chiwumbwa
chiwundura
chiwunga
chixhosa
chiya
chiyaka
chiyamba
chiyambi
chiyambo
chiyangwa
chiyangwe
chiyavayo
chiyawa
chiyaya
chiyera
chiyero
chiyeuchidzo
chiyisalama
chiyo
chiyoka
chiyorubha
chiza
chizanga
chizangaziko
chizano
chizarira
chizazamburo
chizere
chizezuru
chizhinji
chizhya
chizigula
chizinga
chizingiri
chizivano
chiziviso
chizonda
chizora
chizulu
chizungu
chizungulire
chizungure
chizungurire
chizuru
chizvara
chizvarirwo
chizvarwa
chloride
chlorine
chlorophyll
cho
chobe
chocolate
chodeva
chodzimikirwa
choga
chohuwandu
choi
choice
choir
choke
choked
chokera
chokubata
chokubvisa
chokuchengetedza
chokudhara
chokudya
chokufuka
chokuita
chokukutsirana
chokumadokero
chokunge
chokupedzisira
chokurara
chokutambudzika
chokutanga
chokuti
chokuvaka
chokuwanisa
chokuziva
chokwadi
chokwe
chokwidzwa
choma
chombe
chombo
chomene
chomumwe
chomwana
chomwe
chongo
chonzi
choolwe
choose
chooses
choosing
chop
chopararira
chopi
chopped
chopping
chorus
chose
chosen
choso
chosun
chote
choto
choumambo
choupenyu
chourere
chouviri
chowa
chowadya
chowk
choya
chris
chrispin
christ
christabel
christelle
christian
christianity
christians
christine
christmas
christopher
chroma
chrome
chromosome
chromosomes
chronic
chronicle
chronological
chrysalis
chuabo
chubwi
chulu
chuma
chumba
chumbu
chume
chunga
chura
churama
church
churchill
churn
churu
chuwabo
chw
chɛ
ci
cid
cie
cifumilo
cifungo
cigarette
cigebenga
cikebenga
cila
cilayo
cilemba
cili
cilunda
cilungu
cimbwi
cincture
cindama
cindamika
cindika
cindikana
cindy
cinema
cinematic
cinerea
cineuphoria
cinga
cio
cipeta
cipungu
cira
circa
circle
circles
circuit
circuits
circular
circulate
circulatory
circumcise
circumcised
circumcision
circumference
circumstance
ciri
cis
cisaka
cisanza
cisi
cit
citali
citation
citeseerx
cities
citizen
citizens
citizenship
citongo
citrus
citta
cittaattu
city
civava
civet
civfanatics
civic
civil
civili
civilisation
civilisations
civilization
civilizations
ciwa
cl
claim
claire
clan
clap
clara
clarence
clarendon
clarify
clarity
clark
clasp
class
classes
classical
classification
classified
classify
claude
claudine
claudio
claw
clay
clayey
claypot
clayton
clean
cleaning
cleanliness
cleanness
cleanse
clear
cleared
clearing
clearly
clearness
cleave
cleft
cleistochlamys
clemence
clement
clenched
cleome
clerk
clerodendrum
clever
cleverness
clients
cliff
clifford
clifton
climate
climb
climbing
clin
cling
clinic
clinical
clio
clitoris
clive
clock
clockwise
clod
clods
clos
close
closed
closely
closer
closeup
closing
cloth
clothe
clothes
clothing
cloud
clouds
club
clump
clumsy
cluster
clusters
cm
cms
cn
cnn
cnr
co
coach
coagulate
coagulated
coal
coalition
coals
coarse
coarsely
coast
coastal
coat
coates
coating
cob
cobra
cobs
cobweb
cochrane
cock
cockroach
cocktail
coconut
cocoon
code
coffee
coggygria
coil
coiled
coin
cola
colander
cold
cole
coleman
colette
collaboration
collaborators
collapse
collapsing
collar
colleague
collect
collected
collecting
collection
collections
collective
collectively
collector
colleen
college
collen
collide
collins
collinum
collision
colocasia
colombia
colonial
colonisation
colonize
colony
color
colored
colors
colostrum
colour
coloured
colourful
colours
coltrane
columba
columbina
column
com
comb
combats
combination
combine
combined
combining
combretum
come
comeback
comedy
comeliness
comer
comes
comfort
comfortable
comfortably
comic
comico
comics
coming
comma
command
commanded
commander
commandment
comme
commemorations
commence
commencement
commend
commensurate
comment
commentary
commerce
commercial
commiphora
commission
commit
committed
committee
common
commoner
commonly
commons
commonwealth
commotion
communal
commune
communicate
communication
communion
communis
communism
communist
communities
community
comorensis
compact
companion
companions
companionship
company
comparative
compare
comparison
compartment
compass
compassion
compel
compensate
compensation
compete
competent
competition
compilation
compiles
complain
complainant
complaining
complaint
complement
complementary
complete
completed
completely
completeness
completion
complex
complexion
complexity
complicate
complicated
compliment
component
compose
composed
composer
compositae
composite
composition
compound
compounding
compounds
comprehensive
compress
compulsory
computational
computer
comrade
con
concave
conceal
concealed
concealment
conceited
conceive
conceiving
concentrate
concentrated
concentration
concept
conception
concepts
concern
concerned
concerning
concerns
concert
concerted
concession
concetration
conclude
conclusion
concord
concrete
concubine
condemn
condensation
condensed
condiment
condition
conditions
condom
conduct
conductor
condylocarpon
coney
confer
conference
confess
confessor
confidence
confident
confine
confinement
confirm
confirmed
confiscate
conflict
confluence
conform
confound
confratenity
confraternity
confuse
confused
confusion
congeal
congealed
congeniality
congo
congregate
congregation
congress
congruency
conical
conj
conjugate
conjuring
connect
connected
connection
connie
conquer
conquest
cons
conscience
conscious
consciousness
consent
consequence
consequences
conservation
conserve
consider
considerable
consideration
considered
consistency
console
consolidated
consoling
conspiracy
conspire
constance
constant
constantine
constantly
constellation
constipated
constipation
constituency
constitution
constrain
constraint
constrictor
construct
constructed
construction
constructions
constructive
constructs
consult
consultation
consulted
consume
consumed
consumption
contact
contagious
contain
container
containing
contaminate
contemporary
contempt
contemptuously
contend
content
contentment
contents
contest
context
continent
continual
continually
continue
continuous
continuously
continuum
contour
contract
contracting
contracts
contradict
contradiction
contradistinction
contrary
contribute
contributed
contribution
contributors
contrive
control
controlled
controller
controversial
controversy
convalescent
convent
conventional
converge
convergence
conversation
converse
conversion
convert
converted
converting
convex
convey
conveyed
convict
convince
convinced
conzi
coogler
cooing
cook
cooked
cooking
cool
cooling
coolness
coop
cooperate
cooperation
coordinate
coordinates
copa
copadomundo
copenhagen
copies
copper
copulate
copy
copyright
coqui
coral
corchorus
cord
cordatum
cordia
cordiality
corduroy
core
coriacea
cork
corn
corner
corona
coronavirus
corporation
corps
corpse
corpulence
corpulent
correct
correction
correctly
correctness
corrosion
corrupt
corruption
cosine
cosmas
cosmetic
cosmic
cosmos
cost
costa
costume
cote
cotinus
cottage
cotton
cotyledon
cough
coughing
coughs
could
coulibaly
council
councillor
councillors
councilor
counsel
counsellor
count
countable
countdown
counted
countenance
counter
counterfeit
counterpart
counting
countries
country
countryside
county
coupe
couple
courage
courageous
course
court
courteous
courtesy
courtier
courts
courtyard
cousin
cousins
cov
covalent
covenant
coventry
cover
covered
covering
covers
covid
cow
coward
cowardice
cowardly
cowboy
cower
cowering
cowpox
cows
cp
cpane
cr
crab
crack
cracked
cracking
cracks
cradle
craft
craftiness
craftsman
craftsmen
crafty
cram
cramp
crane
crave
craven
craving
crawl
crawling
crayfish
crazy
cream
create
created
creates
creating
creation
creative
creator
creature
creatures
credit
creep
creeper
creepers
creeping
creme
crest
crested
crew
cricket
cricketer
cries
crime
criminal
crimson
cripple
crippled
crisis
crispa
cristina
critic
critical
criticism
criticize
critics
croatia
croatian
crocodile
crocodiles
crook
crooked
crookedness
crop
cropped
crops
crosby
cross
crossed
crosses
crossing
crossopteryx
crossover
crossroads
crosswise
croton
crouch
crouching
crow
crowd
crowded
crowds
crown
crowned
cruel
cruelty
crumb
crumbs
crush
crushed
crushing
crust
cruz
cry
crying
crystal
crystall
cs
ct
cu
cub
cube
cubic
cubit
cucumbers
cucumis
cucuteni
cuddle
cuisine
cult
cultivate
cultivated
cultivating
cultivation
cultural
culture
cultures
cuneiform
cunning
cunningness
cup
curatellifolia
curcuma
curd
cure
cured
curitiba
curl
curled
curly
curr
currency
current
currently
curse
curtain
curtis
curve
curved
cussonia
custard
custody
custom
customary
customer
customisation
customs
cut
cuthbert
cuts
cutter
cutting
cyber
cyca
cycle
cycles
cycloneuralia
cylindrical
cynthia
cypher
cyprus
cyrillic
czech
czechoslovakia
czechs
cʉ
d
da
daa
daanha
daara
daba
dabengwa
dac
dacia
dactyloctenium
dad
dada
daddy
dade
dadi
dadju
daga
dagar
dagba
dagbani
dagga
dahlgren
dahu
dahwa
dai
daily
daimler
dainty
daisy
daka
dakar
dakara
dakarai
dakataka
dakwa
dakyusirijeu
dal
dala
dalaa
dalbergia
dale
dali
dallas
daly
dam
dama
damage
damba
dambarefu
dambi
dambisa
dambo
dambudziko
dambudzo
dame
dami
damiens
damp
dan
dana
danai
danal
danbi
dance
dancehall
dancer
dancing
danda
dandadzi
dandadzira
dandamera
dandanda
dandanyarwa
dandara
dandare
dandaringo
dandato
dandaudzira
dande
dandee
dandemutande
dandi
dandira
dandiranyika
dandy
dang
danga
dangamvura
dangara
dangare
dangarembga
dangarembizi
dangarembwa
dangbe
danger
dangerous
dangle
dangme
dangwe
danha
danhadanha
danhautande
danhiko
danho
dani
daniel
daniels
daniro
danish
dans
dantho
danwa
dapatsikidzi
dapi
dar
dara
daradada
daramombe
darara
darare
daraunene
dare
darejena
dari
daring
daringo
dariro
darisanwa
darius
dark
darker
darkness
darling
darlington
daro
dart
darter
daru
darwendale
darwin
das
dash
data
database
date
dates
dati
datu
datura
datya
dau
daughter
daughters
daum
dausi
davi
david
davies
davis
davison
davy
dawa
dawkins
dawlat
dawn
dawns
day
daydream
daylight
daylily
days
daytime
dazzling
dc
dd
ddaeng
de
dead
deaf
deafness
deal
dealing
dean
dear
death
deaths
debate
debeing
debility
deborah
debra
debris
debt
debtor
debts
debut
debva
debvama
dec
decade
decay
deceased
deceit
deceitful
deceive
deceiver
deceives
december
deception
deceptive
decide
deciduous
decimal
decision
declaration
declare
decline
decompose
decorate
decorated
decoration
decorative
decrease
decree
decrepit
dede
dedicate
deduct
dedza
dee
deed
deeds
deel
deep
deeper
deeply
deer
deere
defa
defaecate
defamation
defame
default
defeat
defecate
defect
defective
defence
defend
defender
defense
defiance
deficiency
deficient
deficit
define
defined
definite
definitely
definition
definitive
deflate
deformity
defraud
defy
degrade
degree
degrees
dehenya
dehwe
deinbollia
deity
deka
dekamuteka
deke
dekenyera
dekeshe
dekeshera
dekeshu
dekeshudza
dekeshuka
deketa
deketeke
deko
deku
dekune
del
delaware
delay
delayed
delays
dele
delegate
delhi
deliberate
deliberately
deliberation
delicacies
delicacy
delicate
delicately
delicious
delight
delirious
delirium
deliver
delivered
delivery
della
delta
deluxe
dem
dema
demand
demarcation
demba
dembe
dembedza
dembera
dembo
dembure
dementia
demhe
demo
democracy
democratic
demolish
demolished
demon
demonstrate
demonstration
demoralize
den
denda
dende
dendemadza
dendemaro
dendenedzu
dendera
dendere
denderedzigama
denderedzwa
denderende
dendrites
dendroaspis
denenga
denengu
denengura
denford
denga
dengai
denganyika
denge
dengende
dengezeze
dengu
denha
denhe
denhedza
denhere
denial
denied
denigrate
denis
denmark
dennis
denomination
denotes
denoting
dense
density
dent
dented
denunciation
deny
denya
denying
deo
depart
department
departments
departure
depend
dependence
dependent
depends
depo
deposit
depressed
depression
deprive
deprived
dept
depth
depute
deputy
der
dera
dere
dereck
deredza
derembwe
derera
derere
derivation
derivative
derived
derives
derogatory
derrick
des
descend
descendant
descendants
descending
descent
describe
describes
description
desert
deserted
deserter
desertion
deserve
design
designate
designed
designer
designs
desire
desired
desmond
desolate
desolation
despair
despise
despised
despises
despite
despoil
destination
destitute
destroy
destroyed
destroyer
destruction
destructive
desvenenga
det
detach
detachable
detail
detailed
details
detain
dete
detection
detema
detembo
deteriorate
determination
determine
determined
determines
determining
detour
detouring
deuterostomia
devastation
deve
develop
developed
developing
development
deverangwena
deviate
deviation
device
devices
devil
devine
devise
devoid
devoted
devour
dew
dewa
dewasi
dewlap
dexter
dexterity
dh
dhadha
dhaga
dhaka
dhali
dhamu
dhandanda
dhanemaki
dhanieri
dhanyeri
dhanzi
dhara
dharaki
dharma
dhata
dhatabhesi
dhekedhi
dheruta
dheti
dhewa
dhewasi
dhi
dhidhizha
dhigiri
dhigirii
dhijitari
dhinyero
dhirama
dhiravhidhiya
dhiri
dhishi
dhisikogirafi
dhiskogirafi
dhitali
dhizaini
dhl
dhodhi
dhoka
dhomini
dhongi
dhonza
dhorobha
dhu
dhube
dhuku
dhumbe
dhumbudya
dhuterostomiya
dhwe
di
dia
diagnosis
diagonally
dialect
dialects
dialium
dialogue
diamagnet
diamagnetic
diameter
diamond
diamonds
diana
diaphragm
diarrhoea
diary
dibango
dichrostachys
dick
dickson
dict
dictate
dictionary
did
didi
didier
didinya
didn
die
died
diego
dies
difa
differ
difference
different
differentiate
differently
differing
difficult
difficulties
difficulty
diffuse
diffusion
dig
digestive
digging
digi
digital
digitata
dignify
dignitary
dignity
digo
dihwa
dii
dika
dikatika
diki
dikidza
dikita
dikito
dikizela
dikumbi
dilemma
dilemna
dili
diligence
diligently
dilly
dilundo
dilute
diluted
dim
dima
dimba
dimbi
dimbu
dimbura
dimbwi
dime
dimension
dimensions
dimikira
diminish
diminished
dimness
dimorphos
dimu
din
dina
dindi
dindikwa
dindingwe
dindiri
dindiridza
dindiziri
dine
dinga
dingindira
dingo
dinheiro
dinhidza
dini
dinka
dinner
dino
dinoko
dinosaurus
diode
dionysus
dios
diospyros
dioxide
dip
diplomat
diplorhynchus
dipole
dira
direct
directed
direction
directions
directly
director
directors
dirinhiri
dirt
dirty
dis
disability
disagree
disagreement
disappear
disappeared
disappearing
disappoint
disappointed
disappointment
disaster
discharge
disciple
discipline
disciplines
disclose
discography
discolor
disconcerted
discontent
discontinue
discord
discourage
discourse
discover
discovered
discovery
discriminate
discrimination
discuss
discussed
discussion
disdain
disease
diseases
disentangle
disgrace
disgust
disgusted
disgusting
dish
dishes
dishonest
disinclination
disintegrate
disjoint
disk
dislike
dislocate
dislodged
dismantle
dismiss
dismissal
dismissed
dismount
disney
diso
disobedience
disorder
disordered
disorderly
dispatch
disperse
dispersing
dispersion
display
displeased
disposition
dispute
disputed
disregard
disregarded
disrespectful
dissatisfaction
dissertation
dissolve
dissolved
dissolving
dissuade
distance
distances
distancing
distant
distend
distended
disticha
distillation
distinct
distinction
distinctive
distinctly
distinguish
distinguished
distinguishing
distracted
distraction
distress
distressed
distribute
distributed
distribution
district
districts
disturb
disturbance
disturbed
disturber
disunite
ditch
ditema
diti
dititi
dive
diverse
diversify
diversity
divert
divi
divide
divided
dividend
divides
dividing
divine
diviner
divinorum
division
divisions
divisors
divorce
divulge
diya
diye
dizziness
dj
dja
djibouti
djimini
djvu
dlamini
dlanga
dm
dna
do
doa
docile
dock
docked
docs
docshare
doctor
doctrine
docu
document
documentary
documented
documents
doda
dodge
dodging
dodo
dodoma
dodonaea
dodzo
doek
doer
doers
does
doesn
dofo
dog
dogon
dogs
doi
doing
doings
doka
doke
doko
dokwa
dole
dollar
dolley
dolo
dolphin
dom
doma
domain
domasi
domba
dombeya
dombo
dombodzvuku
dombojena
domboshaba
domboshava
dombotombo
dombowera
dombwe
dome
domestic
domesticate
domesticated
domicile
dominance
dominant
dominate
domingo
domingos
dominic
dominican
dominion
dominique
don
donald
donate
donation
donda
dondazuva
dondi
dondo
dondori
done
dong
donga
dongo
dongora
dongorahweva
dongozi
donhodzo
donhwe
doniana
donje
donkey
donor
donsa
donzvo
doo
doom
door
doors
doorsill
doorway
dope
dor
dora
dorcas
dore
doreen
doris
doro
dorothy
dosunmu
dot
dota
doto
double
doubt
dough
douglas
dova
dove
dovi
dovo
dovodzano
dovyalis
dowa
dowe
dowera
down
downfall
downhill
download
downpour
downstream
downtown
downward
downwards
downy
dowry
dq
dr
dracaena
draft
drag
dragged
dragging
dragonfly
drain
drainage
drained
draining
drama
drank
draw
drawing
drawings
drawn
drc
dread
dream
dreams
dregs
drenched
dress
dressed
dresses
dressing
dribbled
dried
drift
driftwood
drill
drink
drinking
drinks
drip
dripping
drive
driver
drives
driving
drizzle
drongo
drool
drooping
drop
dropped
drops
dross
drought
droughts
drove
drown
drug
drugs
drum
drummer
drums
drunk
drunkard
drunkeness
drunkenness
dry
drying
dryness
drysdale
dspace
dt
du
dua
duala
duality
dube
duck
ducks
dudziramutauro
dudzirazivo
dudziro
due
duet
dug
dugout
duhwino
duiker
duka
duke
duku
dukununu
dukutu
dukutuku
dula
dull
dullness
duma
dumb
dumba
dumbi
dumbness
dumbu
dumbura
dumidzo
dumisa
dumisani
dumula
duncan
dunda
dundumadza
dundumadzi
dundundu
dunduru
dune
dung
dunga
dungarwizi
dungo
dungunudza
dungupi
dungwe
dunhu
dunia
dununu
dunzvi
duo
duodecimal
duodenum
duplicate
dur
dura
durability
duramahwi
duramaswi
duramazwi
duration
durban
durham
duri
during
duro
duru
dusk
dust
dusty
dutavanhu
dutch
dutiro
dutsa
dutu
duty
duvema
duvurwi
duwa
duwo
duzu
dvd
dwarf
dwarfishness
dwell
dwellers
dwelling
dwellings
dya
dyambeu
dye
dying
dyke
dynamics
dynamite
dynasty
dyoo
dysfunction
dz
dza
dzaakanyora
dzaakanyorera
dzaakazvinyorera
dzaamai
dzababa
dzacho
dzadza
dzadzo
dzagura
dzahwerengedzwa
dzaibva
dzaiera
dzaigadzirwa
dzaigara
dzainge
dzaipikisa
dzaishandiswa
dzaita
dzaiva
dzaive
dzaka
dzakabata
dzakabatwa
dzakabikwa
dzakabuda
dzakabudirira
dzakabva
dzakachekwa
dzakadai
dzakaderera
dzakadevana
dzakadya
dzakadzika
dzakaenzana
dzakafa
dzakafanana
dzakagadzira
dzakagadzirwa
dzakaganhurana
dzakagara
dzakaguma
dzakaibva
dzakaikomberedza
dzakaita
dzakaitwa
dzakajairika
dzakakangwa
dzakakomberedza
dzakakomberedzwa
dzakakora
dzakakosha
dzakakura
dzakakurudzira
dzakakurumbira
dzakakwirira
dzakamenywa
dzakanaka
dzakanga
dzakanyanya
dzakanyorwa
dzakaoma
dzakapfava
dzakapfuura
dzakapfuyiwa
dzakapfuywa
dzakapinda
dzakaratidza
dzakareba
dzakareruka
dzakariyata
dzakarongeka
dzakarongwa
dzakasarudzwa
dzakashanduka
dzakashandura
dzakasimba
dzakasiyana
dzakasiyanasiyana
dzakatambura
dzakatanga
dzakatarisana
dzakatariswa
dzakatenderedza
dzakatevedzana
dzakati
dzakatsakatika
dzakatsaukana
dzakaumbwa
dzakavakidzana
dzakavakwa
dzakavandika
dzakawanda
dzakawomeswa
dzakazvimirira
dzake
dzako
dzakura
dzakusiyana
dzala
dzama
dzamara
dzamba
dzamushore
dzana
dzaneta
dzanga
dzangara
dzangare
dzangu
dzanhasi
dzanja
dzanza
dzaro
dzasi
dzasimhuri
dzasiya
dzasvika
dzava
dzavana
dzavanoda
dzavanogara
dzavanotapa
dzave
dzavo
dzawanda
dzawo
dzayo
dzazvino
dze
dzeafrica
dzeafro
dzeafurika
dzebhuritani
dzeboka
dzebts
dzechamhembe
dzechefu
dzechichayina
dzechijudha
dzechikadzi
dzechikristu
dzechimurenga
dzechindau
dzechinyakare
dzechirume
dzechirungu
dzechirwere
dzechishona
dzechivanhu
dzechubhu
dzedarisanwa
dzedu
dzedzidzo
dzedzinza
dzeeurope
dzeezhiya
dzefekisheni
dzega
dzehatomu
dzehondo
dzehugarohuviri
dzehupfumi
dzehurapi
dzehushangazhi
dzehusiku
dzek
dzekare
dzeko
dzekuafrica
dzekuafurika
dzekubereka
dzekuchamhembe
dzekuchamhembechemabvazuva
dzekudzivirira
dzekueurope
dzekufamba
dzekugadzira
dzekugara
dzekuita
dzekumabvauva
dzekumabvazuva
dzekumadokero
dzekumaodzanyemba
dzekumaodzanyembaemadokero
dzekumaruwa
dzekunge
dzekunze
dzekupfuudza
dzekurapa
dzekurima
dzekurumbidza
dzekurunyanga
dzekurwisa
dzekutanga
dzekutarisirwa
dzekutengeserana
dzekuti
dzekuuraya
dzekwedu
dzemabasa
dzemabwe
dzemafaro
dzemagetsi
dzemakaramu
dzemakavi
dzemanhanga
dzemanheru
dzemapfunde
dzemarudzi
dzemashanga
dzemativi
dzematongerwo
dzemavara
dzemazuva
dzembe
dzemberi
dzemhando
dzemhuka
dzemhuri
dzemichero
dzemiddle
dzemishariro
dzemishonga
dzemitauro
dzemitsetse
dzemo
dzemombe
dzemoto
dzemu
dzemuafrica
dzemuafurika
dzemubhaibheri
dzemukadzi
dzemukaka
dzemukati
dzemumagharibhi
dzemumuviri
dzemuna
dzemunhu
dzemuromo
dzemurume
dzemusahara
dzemusango
dzemusha
dzemutungamiri
dzemuviri
dzemuzimbabwe
dzemuzongoza
dzemvura
dzenga
dzenguva
dzenhapwa
dzenhare
dzenhoroondo
dzenjanji
dzenyika
dzenzanga
dzenzou
dzenzvimbo
dzepabonde
dzepakati
dzepamaziso
dzepamusha
dzeparamende
dzepasi
dzepasirose
dzepimagonyonhatu
dzerevende
dzeropa
dzerudo
dzerudzi
dzerufu
dzerungano
dzeruvara
dzeruzhinji
dzesainzi
dzesangano
dzesango
dzese
dzesikarudzi
dzesimbi
dzetaranyika
dzete
dzetsanga
dzetsika
dzetsivatsaona
dzevabereki
dzevachiri
dzevakadzi
dzevakuru
dzevamwe
dzevanhu
dzevanyori
dzevarungu
dzevashavi
dzevashona
dzeveruzhinji
dzeyemeni
dzezimbabwe
dzezororo
dzezuva
dzezvematongerwo
dzezvinhu
dzezvirwere
dzi
dzichi
dzichibva
dzichienda
dzichigadzira
dzichiita
dzichinge
dzichinodira
dzichinzi
dzichipiwa
dzichiri
dzichiripo
dzichitambura
dzichitaridzika
dzichitsvaka
dzichizogovaniswa
dzidoko
dzidza
dzidziso
dzidzo
dzihwa
dzihwampengo
dzihwamupengo
dziine
dziise
dziite
dzika
dzikaitwa
dzikamudza
dzikira
dzikiti
dziko
dzikwanise
dzilola
dzimano
dzimba
dzimbadzamabwe
dzimbahwe
dzimbiri
dzimwe
dzimwewo
dzin
dzina
dzinda
dzinde
dzindi
dzine
dzinenge
dzinga
dzingai
dzingava
dzinge
dzingira
dzingire
dzingiri
dzingo
dzingu
dzino
dzinobata
dzinobatana
dzinobatsira
dzinobuda
dzinobuditsa
dzinoburitsa
dzinobva
dzinobviswa
dzinochekana
dzinochengeta
dzinochengeterwa
dzinochengetwa
dzinoda
dzinodaidzwa
dzinodarika
dzinodhura
dzinodira
dzinodiwa
dzinodya
dzinodyiwa
dzinodzika
dzinodziya
dzinoenderana
dzinofamba
dzinofambwa
dzinofanirwa
dzinofura
dzinogadzira
dzinogadzirwa
dzinogamuchira
dzinoganhurana
dzinogara
dzinogarwa
dzinogona
dzinoita
dzinoitika
dzinoitwa
dzinokambaira
dzinokasira
dzinokonzera
dzinokura
dzinokurudzira
dzinokwana
dzinokwanisa
dzinomera
dzinomhumha
dzinonatsa
dzinonwa
dzinonyanya
dzinonyorwa
dzinonzi
dzinonzwa
dzinooneka
dzinoonekwa
dzinopa
dzinopereka
dzinopfuura
dzinopfuyiwa
dzinopihwa
dzinopinda
dzinopisa
dzinopiwa
dzinorarama
dzinorasisa
dzinoratidza
dzinoreba
dzinorema
dzinorimwa
dzinorwiwa
dzinosangana
dzinosanganisa
dzinosanganisira
dzinosara
dzinoshanda
dzinoshandisa
dzinoshandiswa
dzinosimwa
dzinosiyana
dzinosunurwa
dzinosvika
dzinotakura
dzinotanga
dzinotapukira
dzinotarisirwa
dzinotatamuka
dzinotaura
dzinotaurwa
dzinotendera
dzinotenderwa
dzinotevera
dzinoti
dzinotonhora
dzinoumba
dzinova
dzinovabata
dzinoveregwa
dzinoverengeka
dzinoverengwa
dzinovhima
dzinovhuvhuta
dzinowana
dzinowanikwa
dzinowanobikwa
dzinowanzo
dzinowedzera
dzinoyamwisa
dzinoyaruka
dzinoyerera
dzinozivikanwa
dzinoziviswa
dzinozvara
dzinza
dzipi
dzira
dzirege
dziri
dzirikiti
dziriko
dzirimo
dziripo
dziro
dzirutwe
dzisati
dzishande
dzisina
dzisingagamuchirike
dzisingakasike
dzisiri
dzitsi
dzitso
dzitsva
dziva
dzivaguru
dzivarasekwa
dzivaureya
dzive
dziviriro
dziya
dziye
dzizare
dzizere
dzkadai
dzo
dzobatsirwa
dzobva
dzoga
dzokueurope
dzokugara
dzokunze
dzokutanga
dzokuti
dzoma
dzomunhu
dzomuviri
dzong
dzonga
dzongeni
dzongo
dzongwe
dzoro
dzose
dzotanga
dzote
dzoudza
dzovo
dzu
dzulu
dzungu
dzungudza
dzuwa
dzvadzi
dzvatsvatsva
dzvemere
dzvene
dzvimbu
dzvinamurungu
dzvinyu
dzvuku
dzvurira
dɔ
dɔgɔ
dɛ
dɩya
dʊ
dʒa
dʒi
e
ea
each
eafrica
eafrika
eafurika
eager
eagle
eakiso
eala
ealphabet
eamerica
eamerika
ear
eared
earl
earliest
early
earn
earnest
earns
earrings
ears
earth
earthen
earthenware
earthquake
ease
easia
easily
east
eastern
eastwick
easy
eat
eaten
eater
eating
eats
eaves
eba
ebantu
ebasa
ebb
ebhaibheri
ebheni
ebhuritani
ebi
ebola
ebony
ebrahim
ebrown
ebudiriro
ecam
ecc
ecclesiastical
ecdysozoa
ecf
echamhembe
echando
echepiri
echewa
echi
echiafurika
echiarabhu
echibage
echibantu
echichayina
echichinese
echiedza
echifurenji
echigiriki
echihebheru
echijapani
echikafu
echikalanga
echikaranga
echikoriya
echikoro
echikriri
echikristu
echikwatamabwe
echikwereti
echimanjemanje
echinamato
echindau
echindevere
echingezi
echinguni
echinhu
echinodermata
echinyakare
echipiko
echiputukezi
echiratini
echirume
echirungu
echirwere
echishemu
echishona
echisikigo
echitema
echitendero
echitofu
echiuno
echivanhu
echivare
echivhenda
echixhosa
echizezuru
echizulu
echo
echoes
echokwadi
eclipse
eclipsed
eco
ecocash
ecole
ecology
econet
economic
economics
economies
economist
economy
ecosystem
ecuador
eczema
ed
eddy
eden
edgar
edge
edhamu
edhijitari
edible
ediciones
edict
edificio
edinburgh
edirne
edison
edit
edited
edith
edition
editor
edmore
edmund
edna
edo
edrakensberg
eds
edtech
edu
eduardo
educate
educated
education
educational
edulis
edward
edwin
edzai
edzimba
edzimhosva
edzimwe
edzinza
ee
eegi
eel
een
eenglish
eezhiya
effect
effective
effectiveness
effects
efficacy
efficient
effort
efforts
efik
efrance
efuranzi
eg
ega
eganda
egasi
egermany
egg
eggplant
eggs
ego
egomo
egonyonhatu
egonyozhinji
egore
egoridhe
egret
egrey
egungwa
eguta
egypt
egyptian
ehan
ehanzvadzi
ehe
eherero
ehiragana
ehondo
ehove
ehukuru
ehunyanzvi
ehupenyu
ehupfumi
ehuroro
ehurumende
ehushangazhi
ehusiku
ehutachiwana
ehute
ehuwandu
ehwayi
ehydrogen
eid
eight
ein
eindia
einfu
einstein
either
eizwi
ejapan
eka
ekabhoni
ekalanga
ekambani
ekana
ekanji
ekare
ekasi
ekectrolysis
ekembo
ekeng
ekidhisozowa
ekikuyu
ekilu
ekinodherumata
ekirongwe
ekirunda
ekirungi
ekisaka
ekisiki
ekisodho
ekitaka
ekitanda
ekitara
ekitu
ekitutu
ekofi
ekonde
ekondo
ekoriya
ekota
eksodo
eku
ekuafurika
ekubata
ekuberekwa
ekubvumidzwa
ekuchamhembe
ekudzidza
ekudzivirira
ekudzora
ekugadzira
ekughana
ekuita
ekukonzera
ekukote
ekuma
ekumabvazuva
ekumadokero
ekumalawi
ekumaodzanyemba
ekumba
ekunaijeriya
ekunge
ekunyautsa
ekunyika
ekunyora
ekunze
ekuona
ekupa
ekupedzisira
ekupfuudza
ekupiwa
ekurapa
ekuratini
ekuremekedza
ekurima
ekuringa
ekuseni
ekushambadza
ekushanda
ekushandisa
ekusimudzira
ekusouth
ekusudhani
ekusvetuka
ekutanga
ekutapa
ekutarisa
ekuti
ekutiterrestrial
ekutonga
ekuuraya
ekuveza
ekuzimbabwe
ekuzvara
ekuzvarwa
ekwa
ekyoto
el
ela
elaborate
elana
eland
elbow
elder
elderly
elders
eldest
ele
elect
elected
election
electric
electrical
electricity
electrode
electrolysis
electrolyte
electromagnetic
electron
electronegativity
electrons
electrostatic
elegant
eleka
element
elementary
elements
elephant
elephantina
elephantisis
elephantorrhiza
elephants
elevate
elevated
elevation
eleven
eleza
eli
elias
elicit
elie
elijah
elina
elip
elisa
elise
elisha
elitedaily
elizabeth
elizalde
ellen
elliot
elliott
ellipse
elliptical
ellipticum
elope
eloquent
else
elsevier
elsewhere
elsie
eltayeb
elton
elvin
elvis
ema
emabasa
emabhangi
emabhuku
emabwe
emaciated
emaciation
emadhora
emadondazuva
emadzimai
emadzinza
emagariro
emagetsi
emakomo
emakore
emamiriyoni
emamwe
emancipate
emancipation
emand
emande
emaodzanyemba
emaoko
emari
emarudzi
emasculate
emashona
emashonaland
emasvingo
ematabeleland
ematebeleland
ematsutso
ematunhu
emauto
emavara
emawuto
emazana
emazaya
emazita
emazuvano
emazwi
emba
embangule
embarrass
embarrassed
ember
emberi
embers
embise
embizzi
emblem
embrace
embryo
embwa
emcu
emelda
emerge
emerged
emergence
emergency
emerging
emetica
emfuleni
emhando
emhandu
emhanzi
emhepo
emhosva
emhuka
emhuri
emi
emifananidzo
emile
emiliyoni
emily
emimhanzi
emimwe
eminence
emini
emirates
emishonga
emissary
emission
emissions
emit
emitambo
emitauro
emiti
emma
emmanuel
emmerson
emoart
emombe
emotion
emotional
emotionally
emotions
emoto
empale
empara
empaya
emperor
emphasis
emphasise
empire
empirical
employed
employee
employees
employer
employment
empress
emptied
emptiness
empty
emuafrica
emuafurika
emubhaibheri
emuchato
emuchovha
emudumbu
emufarinya
emugarahanga
emukadzi
emukati
emukwikwidzani
emumba
emumwe
emunhoroondo
emunhu
emunyika
emunyu
emusha
emusoro
emutanakh
emutauro
emuti
emutsetse
emuva
emuvara
emuviri
emuzimbabwe
emvura
emvurwi
emwaka
emwedzi
emweya
en
ena
encase
enchant
enchanted
encircle
encirclement
encircling
enclose
enclosure
encompass
encounter
encourage
encouragement
encyclop
encyclopaedia
encyclopedia
encyclopediaofwo
encyclopædia
end
enda
endai
endala
endangered
ende
endearment
endebele
enderana
enderera
endgame
ending
endowed
ends
endurance
endure
ene
eneji
enemies
enemity
enemy
energetic
energetically
energy
enevo
enewo
enfeebled
eng
engage
engaged
engagement
engender
engine
engineer
engineering
engineers
england
engleriana
englerophytum
english
engoma
engu
engulfed
enguva
engwali
engwe
enhamba
enhangande
enharaunda
enhokwe
enhoroondo
enhumbi
eni
enjoy
enjoyment
enlarge
enlighten
enmity
enock
enoki
enormous
enos
enough
enraged
enrol
ensemble
entangle
entangled
ente
enter
entered
entering
enterprise
enterprising
enters
entertain
entertainment
enthology
enthusiasm
entice
enticed
enticement
entire
entirely
entity
entrance
entrepreneur
entrepreneurial
entrust
entry
enu
enumerate
enumeration
envelope
envious
environ
environment
environmental
environmentally
envoy
envy
enwiki
enyama
enyana
enyeredzi
enyika
enyoka
enyu
enz
enza
enzanhara
enzaniso
enzano
enzi
enzira
enzizi
enzou
enzungu
enzvimbo
ep
epakati
epamba
epamusoro
epapi
epasi
epasirose
epene
ephraim
epidemic
epidemiol
epidemiological
epidemiology
epidermis
epilepsy
epilogue
epipactidea
epiphany
episode
episodes
episodhi
epistiri
epo
epoch
eprime
epsilon
epstein
eputugaro
equal
equality
equalize
equalized
equally
equation
equations
equator
equatorial
equi
equilateral
equilibrium
equinox
equip
equipe
equipment
equivalent
er
era
eranjisi
erase
ere
erect
erecting
erection
ereferensi
eretsinorogu
eretz
ergon
erhodesia
eri
eric
erich
eridemba
erigondoka
eriholana
erima
erinopasi
eriocarpa
eriosema
erisi
eritalika
eriteriya
eritiriya
eritonda
eritongo
eritrea
eriya
ernault
ernest
eroma
eropa
erosion
err
errand
error
eru
erudhende
erudzi
erukweza
eruption
eruvara
eruzivo
erwiyo
erwizi
es
esa
esadza
esangano
esau
esavhana
escape
escaped
escort
esculenta
esdras
ese
eseke
eshe
eshialo
eshilemba
eshima
eshiri
eshiro
eshiungo
eshoko
eshona
eshure
esigodini
esimbi
esita
esiteri
eskweya
esp
espan
especially
espeini
esperance
esperanto
esporte
esrom
essay
essence
essential
essentialmedicines
est
establish
established
establishment
estadio
estate
estates
esteem
ester
esther
estimate
estimated
estonia
estranged
estrogen
esumba
esvikiro
esvondo
esvutugadzike
eswa
eswahili
eswatini
et
eta
etala
etarachisi
etarisiro
etc
ete
eterevhizheni
eternal
eternity
ethel
ethics
ethinic
ethiopia
ethnic
ethnicity
ethnologue
etimoloji
eton
etonline
etsi
ett
etuku
etv
etymology
eu
euclea
eugene
eugenia
eum
eun
eungu
eunice
euphorbia
europe
european
europeans
eustine
eutare
eva
evabereki
evade
evadzidzi
evakadzi
evana
evanguni
evanhu
evans
evaporate
evaporated
evaporation
evarume
evarungu
evashandi
evashona
evasingo
evasively
evasori
evatema
evatongi
eve
evelyn
even
evening
evenly
evenness
event
events
ever
evergreen
evermore
every
everybody
everyone
everything
everywhere
evhenda
evhiki
evhu
evidence
evident
evil
evolution
evolved
ewa
ewe
ewebhutoon
ewo
ewondo
ewuta
ex
exact
exactly
exaggerate
exaggerated
exalt
exalted
examine
example
examples
exasperate
excavated
exceeding
exceedingly
excel
excellence
excellent
excelling
excelsa
except
excerpt
excess
excessive
excessively
exchange
exchanged
exchanger
excitement
exciting
excl
exclude
exclusive
excommunicate
excrement
excretion
excuse
execute
execution
executive
exemption
exercise
exert
exertion
exhale
exhausted
exhaustion
exhibit
exhibition
exhibitions
exist
existence
existing
exists
exit
exo
exorcise
expand
expanding
expanse
expansion
expect
expectation
expecting
expedient
expedition
expel
expense
expensive
experience
experienced
experiences
expert
explain
explained
explanation
explicit
exploit
explore
explorer
explosion
explosive
expose
exposed
exposing
exposure
expound
express
expressing
expression
expressionist
expressive
extend
extended
extending
extension
extensive
extensively
extent
exterior
exterminate
extermination
external
extinct
extinguish
extol
extra
extract
extracted
extracting
extraction
extraordinary
extraterresrial
extravagant
extrema
extreme
extremely
extremity
extremum
extricate
exude
eye
eyebrow
eyebrows
eyed
eyelash
eyelashes
eyeruva
eyes
eyez
eyuropu
eyuva
ez
eza
ezekiel
ezekieri
ezerere
ezhi
ezhiya
ezi
ezikila
ezimbabwe
ezira
eziso
ezita
ezodhiyaki
ezra
ezuva
ezuvaragodza
ezve
ezvematongerwo
ezvidzidzo
ezvifundwa
ezvindeya
ezvinhu
ezvinyorwa
ezvipfuyo
ezvirimwa
ezvirongwa
ezvisikwa
ezviuru
ezvuru
f
fa
faar
fabian
fable
fabric
fabricate
fabrication
fabuleuse
fac
facade
face
facebook
faced
facial
facility
facing
fact
faction
facto
factor
factorial
factory
facts
faculty
fade
faded
fading
fadogia
fadzai
fadzayi
fadzi
fae
faeces
faerie
fafitera
fagus
fail
failed
failing
failure
faint
fainting
fair
faira
fairly
faith
faithful
faithfulness
fakazi
fake
fala
falcatus
falcon
fall
fallen
falling
fallow
falls
false
falsely
fam
famba
fame
familiar
families
family
famine
famous
fan
fanana
fananei
fananidza
fananidzai
fananidzi
fanannidzai
fandom
fani
faniro
fanji
fanny
fanoduka
fans
fantasy
fao
far
fara
farai
faramu
farao
fararira
farayi
fare
farewell
farfa
fari
farifa
farinya
farm
farmer
farmers
farming
farmland
farnesina
fart
fasa
fasciatus
fashanu
fashion
fashioned
faso
fassie
fassoglensis
fast
fasten
fastened
fasting
fastness
fat
fata
fatalities
father
fathered
fatherhood
fatherland
fatherless
fathers
fatigue
fatigued
fatima
fatness
fatten
fatty
fault
faurea
faustin
favor
favorite
favour
favourite
fawn
fe
fear
fearful
fearless
fearlessly
fearsome
feast
feat
feather
feathers
feature
featured
features
featuring
febrifuga
febrifugum
february
feces
fecund
fecundity
fed
federal
federation
fee
feeble
feed
feedback
feeder
feeding
feeds
feel
feeling
feelings
feels
feere
feet
feign
fek
felipe
felistus
felix
fell
felled
felling
fellow
fellowship
felt
female
females
fembera
femo
fence
fenced
fendefa
fenenge
fenje
fenzi
fer
feremba
ferendende
ferment
fermentation
fermented
fern
fernando
ferry
fertile
fertiliser
fertility
fertilize
fertilizer
fesha
feso
fest
festival
festivals
fetch
fetiraiza
fetus
feud
fever
feverish
few
fi
fiance
fiber
fibre
fibres
fiction
ficus
fidelis
field
fields
fierce
fierceness
fifa
fifth
fifty
fig
fight
fighters
fighting
fights
figs
figtree
figu
figuratively
figure
fiji
fika
filabusi
file
filed
files
fill
filled
filling
film
filter
filtering
filth
fin
final
finalist
finally
finals
finama
finance
financial
finch
find
finding
fine
finely
finger
fingernail
fingers
finish
finished
finishing
finland
fins
fiona
fipa
firan
fire
firebrand
firehood
fireplace
firewood
firiji
firimbi
firimu
firm
firmly
firmness
firo
first
firstborn
firstly
fisa
fiscus
fish
fisherman
fishes
fishing
fisi
fission
fissure
fist
fit
fitness
fits
fitting
five
fivha
fix
fixed
flabby
flacourtia
flag
flagellaris
flame
flamelily
flank
flap
flash
flashing
flat
flatland
flatness
flats
flatten
flattened
flatter
flavescens
flavour
flavoured
flavoviridis
flaw
flawa
flay
flea
flee
fleece
flesh
fleshy
flexible
flick
flicking
flickor
flickr
flies
flight
flinching
flip
float
floating
flock
flog
flood
flooded
flooding
floods
floor
floors
flora
florence
florida
flour
flourine
flourish
flow
flower
flowering
flowers
flowing
flu
flueggea
fluently
fluffy
fluid
fluorine
flute
flutter
fly
flying
fm
fo
foam
focus
focused
fodya
foetida
foetus
fog
fold
folded
folder
folds
folha
foliage
folk
folklore
follow
followed
follower
followers
following
follows
folly
fomati
fombe
fombwe
fomenting
fomu
fon
fond
fondness
fonetiki
fongoro
fonororoji
fontanelle
fontsize
food
foods
foodstuff
fool
foolhardy
foolish
foolishness
foot
football
footprint
footprints
for
forbes
forbid
forbidden
force
forced
forces
forcible
forcing
ford
fore
forearm
forebear
forecast
forecaster
forecasts
forefinger
forehead
foreign
foreigner
foreigners
foreleg
foreman
foremost
foreskin
forest
foretell
forever
forge
forges
forget
forgetful
forgetfulness
forgive
fork
forked
form
formal
formalized
formation
formed
former
formerly
forming
forms
formula
forsake
fort
forth
fortified
fortress
fortunate
fortune
forum
forums
forward
forwards
fosi
fossil
foster
fote
foti
fought
foul
found
foundation
foundations
founded
founder
founding
fountain
four
fourth
fovovo
fowl
fox
foyo
fr
fra
frac
fracas
fraction
fractional
frafra
fragile
fragment
fragments
fragrance
frame
frameless
framework
franc
france
franchise
francine
francis
francisco
francois
francolin
frank
frankfurt
franz
fraser
fraternite
fraternity
fraud
fred
freddy
frederick
fredrick
free
freedom
freeing
freely
freeman
freestyle
freetown
freeze
freezing
freight
french
frenzy
frequency
frequent
frequented
frequently
fresh
freshi
freshness
fria
friction
friday
friend
friendly
friends
friendship
frienship
fright
frighten
frightened
frightening
fringe
fringes
frivolously
fro
frog
from
front
frontcover
frontier
frost
froth
frown
frozen
fruit
fruitful
fruitless
fruitlessly
fruits
frustration
fruticosus
fry
frying
fsi
ft
ftp
fu
fua
fuba
fudzamombe
fudzi
fue
fuel
fuels
fufu
fugitive
fuka
fukama
fukidzo
fuko
fukula
fula
fulani
fulawa
fuli
fuliiuru
full
fullfil
fullness
fulltext
fully
fulva
fuma
fumba
fumbelo
fumo
fumu
fumwa
fumya
fun
funa
function
functional
fund
funda
fundanga
funde
fundika
fundo
fundoyetsimba
fundu
funeral
funga
fungai
funganhoka
funganhuka
fungayi
fungi
fungidziro
fungira
fungiro
fungisai
fungo
fungonhoka
fungonhuka
fungu
fungua
fungula
fungura
funguragetsi
fungus
fungwa
funu
funya
funye
fur
fura
furamera
furanzi
furemu
furenji
furi
furidzo
furnace
furnishings
furniture
furo
furre
furrow
further
furthest
furu
furusa
furuu
furuwenza
fury
fusion
futhi
futi
futility
futuna
future
fuunde
fuva
fuvana
fuwa
fwe
fy
fɛ
fʊʊrʊ
g
ga
gaaba
gaam
gaama
gaari
gaase
gaassaa
gaba
gabhoni
gabon
gabriel
gadaga
gadhi
gadza
gadzirwa
gaga
gaha
gahadziko
gahadziso
gahanana
gahwi
gain
gaining
gairezi
gait
gaka
gakandye
gakanje
gakashira
gakava
gala
galaxy
galen
galician
galilei
galileo
gall
gallery
gallo
gallop
gallup
galwa
gam
gama
gamanxa
gamanya
gamasimbi
gamba
gambamwedzi
gambe
gambia
gambinga
gambira
gambiza
game
games
gamha
gamma
gamo
gamuchirai
gan
gana
ganda
gandari
gandawa
gandhi
ganga
gangaidzo
gangara
gangavata
ganged
ganya
ganyamatope
gaon
gap
gapa
gapare
gaping
gappah
gapu
gara
garaba
garakara
garakisi
garamwera
gararwa
garcinia
garckeana
garde
garden
gardener
gardens
gare
gari
garikai
garikayi
garlic
garment
garnet
garnish
garo
garwe
gary
gas
gasa
gasela
gases
gasi
gasque
gasura
gasva
gata
gate
gates
gateway
gather
gathered
gatherer
gathering
gatherings
gato
gatooma
gatsi
gauge
gaura
gava
gavakava
gavanga
gavaza
gave
gavhu
gavhuna
gavi
gawa
gaya
gaza
gaze
gba
gbari
gbd
gbe
gbeya
gbeŋ
gbs
gdp
ge
gecko
gede
gedye
gege
gehena
gejo
gekundi
gela
gem
gemhu
gemini
gemstone
gemu
gen
genda
gender
gendre
gene
genealogy
general
generality
generalizing
generally
generate
generation
generations
generic
generosity
generous
genes
genesis
genetic
geneticist
genetics
geneva
genital
genius
genocide
genome
genomes
genomics
genre
gentle
gentleman
gentleness
gently
genuine
genus
geo
geoffrey
geofrey
geographic
geographical
geography
geology
geom
geometric
geometry
george
georgetown
georgia
gerald
gerhard
germ
german
germany
germinate
germs
get
getrude
gets
getsimagineti
getting
geza
gezi
ggkey
ghalaksi
ghana
ghandi
ghawa
ghini
ghislain
gho
ghost
gi
giant
gibbon
gibson
gideon
gidire
gift
gijima
gikuyu
gikyode
gilbert
gilder
gin
gina
ginger
gini
giniya
giraffe
girafu
girama
girazi
gird
girdle
giriki
girima
giringo
girinhi
girisi
girl
girlfriend
girlhood
girls
giryama
gisele
gitare
github
give
givemore
given
giver
gives
giving
giwa
giza
gizzard
gj
gje
gjerde
glad
glade
gladys
glam
glance
glancing
gland
glands
glandular
glass
gleam
glean
gleaning
glen
glendale
glisten
glitter
global
globe
globiflora
gloomy
gloria
glorify
gloriosa
glorious
glory
glosbe
glossy
glottolog
glow
glue
gluttony
glynn
gmt
gn
gnaw
go
goal
goat
goats
goatskin
goba
gobela
gobvu
gocha
god
godfrey
godo
godobori
godwin
godzi
goes
goetzei
goga
gogo
goho
going
gokerero
goko
gokomere
gokora
gokoro
gokwe
gokwom
gol
gola
gold
golden
gole
golo
gom
goma
gomarara
gomba
gombarume
gombe
gombedzanwa
gombera
gombo
gombwe
gome
gomela
gomera
gomez
gomo
gomphocarpus
gomwe
gon
gona
gonashindi
gonda
gonde
gondo
gondongwe
gondzo
gone
gonera
gong
gonga
gongo
gongomela
gongonya
gongwa
gonhi
gonja
gonno
gono
gonya
gonyaina
gonyanhanhatu
gonyanhatu
gonye
gonyeti
gonyo
gonyoina
gonyonhatu
gonyora
gonyoshanu
gonyozhinji
gonzalo
gonzo
good
goodbye
goodness
goods
goodwill
google
goose
gooseberry
gope
gopo
gora
gordon
gore
goredzva
goreraza
gorge
goridhe
gorilla
goro
gorokodzwa
goromokwa
goromonzi
goronga
goronyera
gororo
gorosi
gorosviba
gorowa
gosa
goshi
gospel
gosperi
gossip
got
gota
goteka
gotekwa
gothenburg
gothic
goto
gotora
gotsi
gotwe
gourd
gourds
gov
gova
govaniso
govano
govere
govern
governed
governing
government
governor
governors
govha
govore
gowa
gowero
gowodzanwa
gq
gqeta
gra
grab
grabbing
grace
gracia
gracious
gradation
grade
graded
gradually
graduate
graduation
grafati
graft
grafting
graham
grahamstown
grain
grains
gram
gramineus
grammar
grammatical
grammy
granary
grand
grandchild
grande
grandfather
grandmother
grandpa
grandparent
grandson
granite
grant
granulatus
grape
grapefruit
graph
graphite
grasp
grasping
grass
grasshopper
grasshoppers
grassland
grassy
grateful
grater
gratify
gratis
gratitude
grave
gravel
gravely
graves
gravity
gravy
gray
graze
grazed
grazing
grease
great
greater
greatest
greatly
greatness
greece
greed
greedily
greediness
greedy
greek
green
greendorm
greener
greenhouse
greenish
greenlink
greenness
greens
greenwich
greenwood
greet
greetings
gregori
gregory
grenada
grenadines
greta
grew
grewia
grey
greyness
grid
grief
grieve
griffiths
grill
grin
grind
grinding
grindstone
grini
grip
gripped
gripping
groan
groin
grollemund
groom
gross
ground
groundnut
groundnuts
grounds
group
grouping
groups
grow
growing
growl
grown
grows
growth
grudge
gruel
grumble
grysbok
grysbuck
gsie
gu
gua
guadeloupe
guard
guardian
guarding
guatemala
guava
guazu
guba
gube
gubi
gudo
gudyanga
gudzururu
gue
guess
guest
guests
gufu
gugu
guhwa
guhwi
guiana
guidance
guide
guilds
guileless
guilt
guilty
guine
guinea
guineense
gukumbura
gukurahundi
gukuravhu
gukurudzi
gukurume
gukuta
gula
gulf
gullible
gulp
gulu
gulula
gum
guma
gumba
gumbapamwe
gumbe
gumbeze
gumbi
gumbo
gumbu
gumbugetsi
gumbunhoka
gumbunhuka
gumbura
gumi
gumiguru
gumikati
guminembiri
guminetatu
gumitanhatu
gumo
gumu
gumuka
gumula
gumunyu
gumura
gun
gunda
gundamunda
gunde
gundidza
gundira
gundu
gundukko
gundukumwe
gunduma
gundura
gunganidzo
gungano
gungu
gunguo
gunguwo
gungwa
guni
gunibuswa
gunpowder
gunu
gunundu
gunura
gunyana
gupanga
gupangura
gupea
gupfukama
gupira
gupuko
gupuro
gura
guramagineti
guramakonya
guramakonyo
guramatunhu
gurapakati
gure
guri
gurira
gurma
gurokuro
guru
gurudadi
gurudza
gurukota
gurumwandira
gurundundu
gurunera
gurunyika
gurupidza
gurupira
gurure
gururundu
gurusa
gurusvusvu
gurutsuwa
guruundano
guruuswa
guruutsi
guruva
guruve
guruzeze
gurwe
gusha
gushungo
gusi
gusilay
gusonza
gustaf
gustav
gut
guta
gutaguru
gutarihombe
gute
guthrie
guti
gutonda
gutota
gutsa
gutsaruzhinji
gutse
gutu
gutumbura
gutumukutu
gutuza
guungano
guva
guvava
guve
guvhu
guvi
guwa
guwe
guwende
guy
guyana
guyo
guyu
gwa
gwabalanda
gwada
gwadara
gwaimani
gwala
gwama
gwamba
gwambahuru
gwan
gwana
gwanda
gwande
gwango
gwangwava
gwanqa
gwanza
gwara
gwaradzimba
gwarara
gwararezhou
gwarava
gwarazima
gwaro
gwarodzvene
gwasira
gwata
gwatara
gwati
gwatinyanya
gwavava
gwavha
gwaza
gwaze
gwe
gwebu
gweda
gwedegwe
gwedere
gwee
gwegwe
gwekwekwe
gwekwerere
gwekwesera
gwembe
gwenga
gwenjere
gwenya
gwenzi
gwere
gweredede
gwerekwete
gwerezera
gweru
gweshe
gwesho
gweta
gwete
gwindi
gwindiri
gwinyai
gwinyiro
gwira
gwirana
gwiri
gwirikwiti
gwishiri
gwivi
gyeli
gymnosporia
gynaecology
gynandra
gzu
gɔ
gɔɔta
gɛ
gɪ
gʉ
gʊ
h
ha
haa
haachinje
haadi
haafaniri
haako
haakwanise
haana
haaperi
haarari
haasati
haasi
haasiri
haatarisirwe
haataurwi
haayerere
habenaria
habhadhe
habhakuki
habit
habitat
habitation
habits
habitual
habitually
haca
hacha
hachi
hachifanirwe
hachina
hachisi
hachitswanyi
hachizivikwi
had
hadiyya
hadogenes
hadzi
hadziiti
hadzina
haemorrhage
hafu
haga
hagai
hahuna
hai
haicha
haidyi
haifanirwe
hail
hailstorm
haina
hainyanye
hainyanyoshandi
haipinde
hair
hairiri
hairless
hairs
hairy
haisati
haishandise
haisi
haisva
haite
haiti
haiwa
haka
hake
hakka
hako
hakuchina
hakukurudzirwe
hakuna
hakusi
hakuzi
hala
half
halfheartedly
halima
hall
halo
halt
halves
halwa
ham
hama
hamandishe
hamba
hambana
hambautare
hameno
hamilton
hamiro
hamisi
hamlet
hamlets
hammer
hammering
hammerkop
hamu
hamuchemi
hamwei
han
hana
hand
handa
handara
handbook
handed
handedness
handful
handi
handichada
handidi
handina
handira
handisati
handkerchief
handle
handles
hando
hands
handsome
handwriting
hang
hanga
hangaika
hangaiwa
hanganwa
hanganyarwa
hanging
hangs
hangsang
hangu
hangul
hangwu
hanime
hanja
hankyung
hanoi
hans
hansen
hanu
hanuman
hanya
hanyanisi
hanzi
hanzu
hanzvadzi
hanzvadzikomana
hanzvadzisikana
hap
hapadanwi
hapana
haphazard
happen
happened
happening
happens
happily
happiness
happy
hapwa
har
hara
harahwa
harald
haranga
harare
harass
harbour
harcourt
hard
harden
hardened
hardhearted
hardlife
hardness
hardship
hare
harem
hares
hargeisa
hargrove
hari
haridye
hariko
harina
harirwe
harisati
harishandiswe
harisi
harizi
harm
harmattan
harmful
harmonious
harmonise
harmonize
harmony
harness
haro
harold
harp
harriet
harris
harrison
harry
harsh
harshly
harshness
hartebeest
hartzell
haruna
harurwa
harvest
harvested
harvesting
harwa
has
hasha
haspati
hassan
haste
hastily
hasty
hat
hata
hatched
hatchet
hate
hated
hatidi
hatina
hatizivi
hatomu
hatred
haucheke
haufaniri
haufanirwe
haughty
haugoni
haukozi
haul
hauna
haungatiti
haunted
hausa
hausati
hausi
havabve
havafaniri
havafare
havagone
havana
havashande
havasi
havazi
havazivi
have
havi
having
havo
hawa
hawk
hawo
hay
haya
hayikwanise
hayina
hayo
hazard
haze
hazel
hazvi
hazvibatsire
hazvibviri
hazvichaite
hazvidondani
hazvienzane
hazvienzani
hazvina
hazvinei
hazvineyi
hazvireve
hazvirevi
hazvisati
hazvisi
hazvisiri
hazvizivikanwe
hazvo
hcards
hcl
hdl
hdr
he
head
headache
headed
heading
headlands
headlong
headman
headmaster
headpad
headquarters
heads
headstrong
heal
healed
healer
healing
health
healthcare
healthy
heap
heaped
heaps
hear
heard
hearsay
heart
heartbreak
heartburn
hearted
heartedly
heartedness
hearth
hearthstone
heartily
hearts
heartwarming
heat
heated
heath
heathen
heating
heaven
heavily
heaviness
heavy
hebheru
hebrew
hedge
hedgehog
hee
heed
heel
heels
heerlen
heifer
height
heights
heijmans
heino
heir
hekani
hela
held
helen
helena
helicopter
helium
hell
hellen
helmut
help
helped
helper
helping
helpless
helps
helsinki
helt
helula
hem
hembe
hemi
hemichordata
hemikodhata
hemisphere
hemmatnia
hemorrhagic
hemp
hen
hence
hendrick
heniya
henoku
henri
henry
henyu
hepatitis
her
hera
herald
herb
herbal
herbert
herd
herding
herdsman
here
hereditary
heredity
herero
hereroense
herinnering
heritage
herizegovhina
herman
hermit
hernia
hero
heron
herring
hers
herself
hertz
herzegovina
herzfeld
hesitate
heterotricha
heudelotii
hexadecimal
hexalobus
hey
hh
hhana
hhwaro
hi
hibiscus
hiccups
hid
hidden
hide
hideable
hidebrandtii
hiding
hierachy
hierarchy
high
higher
highest
highland
highly
highness
highway
hilary
hildebrandtii
hill
hillary
hillcrest
hills
hillside
hilly
hilton
him
himba
himeji
himlen
himno
himself
hind
hinder
hindi
hindrance
hindu
hint
hinterland
hinya
hip
hippo
hippopotamus
hips
hiragana
hire
hiro
hirschmann
his
hispidum
hist
histoire
historian
historic
historical
history
historyofvaccines
hit
hita
hitler
hits
hitting
hiv
hive
hiyu
hj
hja
hk
hl
hla
hlamvu
hlati
hlatswayo
hlenga
hlengwe
hlokoma
hloma
hlonza
hlw
hn
ho
hoard
hobby
hobho
hoboka
hobvu
hodza
hoe
hoeing
hoes
hofisi
hofori
hog
hohwa
hoi
hoka
hoko
hokoyo
hola
holarrhena
hold
holden
holder
holding
holds
hole
holes
holiday
holidays
holiness
holland
hollande
hollow
hollowed
hollowness
hollywood
holocaust
holstii
holtzii
holy
homage
homba
hombaina
hombarume
hombe
hombekombe
hombesa
home
homeland
homestead
homesteads
homme
homwe
hon
hona
honda
honde
hondo
hondowe
honduras
honest
honesty
honey
honeycomb
honeysuckle
hong
hongonya
hongu
honne
hono
honokono
honor
honorable
honorary
honour
honourable
honoured
honours
honye
honzeri
hood
hoof
hook
hooked
hoon
hoop
hop
hope
hopes
hopkins
hopper
hora
horamvura
horayi
horeka
horera
horizon
horizons
horizontal
horizontally
hormone
hormuridae
horn
hornbill
horned
horns
horo
horokodzwa
horongo
horora
horror
horse
horseback
horwe
hosea
hosha
hosho
hosi
hoslundia
hospital
hospitality
host
hostile
hostility
hosts
hot
hota
hoteka
hotel
hotera
hotly
hoto
hottentotta
hour
hours
house
household
houses
housing
houssaye
hova
hove
hovha
how
howa
howard
however
howl
howling
hoya
hozhwa
hp
hr
hrs
hrung
hsu
htm
html
htmlhttps
http
https
hu
hua
hubbub
hubumbe
huchapa
huchena
huchenjeri
huchi
huchibva
huchinge
huchinosvika
huchipimwa
huchiri
huchizivikanwa
huchu
hudaviri
hudhakwa
hudiki
hudoko
hudonongodzwa
hudson
huduku
huduma
hudyu
hudzamu
hudzidzinindi
hudzvanyiriri
hufana
hufanzu
hug
hugabe
hugadaga
hugari
hugaro
huge
hugh
huguramagineti
hugwara
huh
huhombe
huhwandu
huhwere
hui
huipi
huis
hujoto
hukadzin
hukama
hukari
hukasha
hukobvu
hukoloni
hukomba
hukoshi
huku
hukukutu
hukuru
hukutu
hukuwashan
hukwidza
hull
huma
humambo
human
humaneja
humanikwa
humanities
humanity
humans
humba
humbangu
humbe
humbimbindoga
humble
humbly
humbowo
humburi
humburumbira
humbwa
humhandara
humhare
humhizha
humhutu
humidity
humiliate
humiliation
humilis
humility
humorist
humour
humoyochena
hump
humphrey
humus
humwe
humwechete
hun
huna
hunaku
hunatswi
hunch
hunda
hundam
hunde
hunderere
hundi
hundred
hundreds
hundu
hune
hunene
hunenge
hung
hunga
hungango
hungarian
hungarians
hungary
hungava
hunge
hunger
hungry
hungwaru
hungwe
hunhu
hunhungo
huni
huno
hunobata
hunoburitswa
hunobva
hunoda
hunodaidzwa
hunodarika
hunodikwana
hunodiwa
hunodudza
hunofanirwa
hunogona
hunoita
hunokonzera
hunokonzerwa
hunokunda
hunokura
hunokwanisa
hunomutsa
hunonhuwa
hunonyanya
hunonzi
hunoonekwa
hunopendera
hunopimwa
hunoramba
hunoratidza
hunoratidzika
hunosanganisira
hunosara
hunoshandiswa
hunoshanduka
hunosimbiswa
hunosiyana
hunosvika
hunotangira
hunotapuriranwa
hunotenderera
hunotevedza
hunoti
hunotsanangurwa
hunouraya
hunouya
hunova
hunovhariridza
hunowanikwa
hunoyerwa
hunozivikanwa
hunozivikanwawo
hunt
hunter
hunters
hunting
hunyambiri
hunyani
hunyanzvi
hunyanzwi
hunyengeri
hunyope
hunyoro
hunza
hunzi
hunzimu
hunzveri
hunzvi
hunzwi
huona
huori
hupamhi
hupango
hupangu
hupenyu
hupfende
hupfu
hupfumbu
hupfumi
hupfupi
hupofu
hupombwe
hura
huranda
hurapi
hurebe
hurefu
hurema
huremu
huri
hurimi
huripedyo
huripo
hurl
huro
hurombo
hurongwa
huronyo
huropi
huroro
huroror
hurovha
huroyi
hurriedly
hurry
hurt
huru
hurudza
hurukuro
hurumemnde
hurumende
hurungubwe
hurungudo
hurungwe
huruva
hurwa
hurwere
husahwira
husanyika
husband
hushambadzi
hushamwari
hushangazhi
hushanu
husharukwa
hushavi
hushe
hushingairi
hushoma
hushumiri
husiku
husimbe
husina
husiyanwa
husk
husks
hussein
hustle
husviba
husvinu
huswa
hut
huta
hutachiona
hutachiwana
hutano
hutapiri
hutapwa
hutatu
hute
hutema
hutete
hutongi
huts
hutsanana
hutsi
hutsinye
hutsva
hutsvene
hutsvuku
hutu
hutungamiri
hutungamiriri
huturu
hutwa
huunduranyaya
huva
huvi
huviri
huvusi
huwandu
huwori
huy
huya
huyanga
huye
huyo
huyu
huzere
huzhinji
huzodzwa
huzu
hw
hwa
hwabvu
hwacho
hwada
hwaderera
hwadzo
hwaenda
hwagumi
hwahwa
hwai
hwaishandiswa
hwaisvika
hwaitongwa
hwaive
hwaiyerwa
hwakadai
hwakadaro
hwakaderera
hwakadzikama
hwakaenzana
hwakafanana
hwakagovaniswa
hwakaipa
hwakaita
hwakaitwa
hwakakosha
hwakakura
hwakakwana
hwakakwira
hwakakwirira
hwakanaka
hwakanangana
hwakanda
hwakanga
hwakanyanya
hwakaoma
hwakapinda
hwakapomhodzwa
hwakaramba
hwakare
hwakareba
hwakashaiswa
hwakasimba
hwakasiyana
hwakatanga
hwakatarwa
hwakati
hwakatichechetere
hwakatsvuka
hwakawanda
hwake
hwako
hwakwira
hwala
hwamanda
hwambo
hwami
hwamikadzi
hwamutapa
hwamwari
hwana
hwanan
hwananyina
hwanda
hwang
hwanga
hwange
hwangu
hwangwadza
hwani
hwanyadza
hwaradada
hwarang
hwarara
hwarasanza
hwaratsvuku
hwaraunda
hwaro
hwasha
hwasvika
hwata
hwatata
hwati
hwatsa
hwava
hwavanoshandisa
hwavo
hwawo
hwayi
hwayo
hwazvo
hwe
hweala
hwebasa
hwebato
hwechaji
hwechinhu
hwechirwere
hwechiyero
hwecorona
hwecovid
hwedu
hwedunhu
hwedza
hwedzinoyamwisa
hweearth
hwega
hwegaza
hwegonyonhatu
hwegps
hwehepatitis
hwehiv
hwehutachiona
hwehuturu
hwekatsi
hwekodzero
hwekudzoreredza
hwekugadzira
hwekuita
hwekukohwa
hwekupfirira
hwekutanga
hwekutaura
hwekutengeserana
hwekuti
hwema
hwemabheya
hwemabhiza
hwemajudha
hwemakore
hwemamirioni
hwemandau
hwemari
hwemasaisai
hwemashoko
hwemativi
hwemazezuru
hwemazuva
hwembwa
hwemhando
hwemhuka
hwemhuri
hwemishonga
hwemombe
hwemuafrica
hwemufarinya
hwemugodhi
hwemukadzi
hwemumhepo
hwemunhu
hwemunyungu
hwemupimo
hwemurume
hwemutapa
hwemuviri
hwemuzendami
hwemvura
hwemweya
hwenda
hwendedzo
hwendefa
hwendenge
hwenguruve
hwenguva
hwenhamba
hwenhangande
hwenhau
hwenhengo
hwenhoroondo
hwenhumbu
hwenyika
hwenyoka
hwenyu
hwenze
hweottoman
hwepakutanga
hwepamusoro
hwepasi
hwepasirose
hwepedyo
hwepfungwa
hwepiri
hwere
hwerengedzo
hwerengo
hwerera
hwerhashiya
hwerinopasi
hweroma
hweropa
hwerozvi
hweru
hwerudzi
hwerusarura
hwesa
hwese
hweshiri
hwesimbi
hwetatu
hweudzvanyiriri
hweurungano
hweutachiona
hweva
hwevachena
hwevadzidzi
hwevagari
hwevakorekore
hwevamanyika
hwevamwe
hwevana
hwevanhu
hwevapfumi
hwevarungu
hwevarwere
hwevashandi
hwevashandisi
hwevashona
hwevatauri
hwevera
hweveruzhinji
hwewa
hwezimbabwe
hwezvinhu
hwezvinyanye
hwezvirwere
hwi
hwidibo
hwindi
hwingwiri
hwira
hwiribidi
hwiringwindi
hwirira
hwiriri
hwiriro
hwishu
hwisiri
hwiti
hwitira
hwiza
hwokuti
hwongo
hwoni
hwose
hwowa
hwuno
hwunobudisa
hwunobva
hwunodarika
hwunosanganisa
hwunosvika
hwunowanikwa
hya
hybe
hyde
hyderabad
hydrochloric
hydrocompounds
hydrogen
hydroxide
hydroxides
hye
hyena
hymn
hyo
hypericum
hypogaea
hypotenuse
hyrax
hyu
hyuk
hyun
hyung
hɪ
i
ia
ian
iau
iba
ibange
ibango
ibasa
ibato
ibazi
ibere
ibgo
ibhasiketi
ibhegi
ibheriya
ibhii
ibibio
ibighit
ibn
iboka
ibonga
ibrahim
ibude
ibumbiro
ibvi
ibwe
ica
ice
iceland
ichaba
ichabata
ichangobva
ichanzi
ichena
ichi
ichibata
ichibatana
ichibuda
ichibva
ichichengetedza
ichidarika
ichiderera
ichienda
ichiendera
ichigadzira
ichigona
ichiita
ichikura
ichikwira
ichinaya
ichinge
ichingezi
ichinodira
ichinyorwa
ichinzi
ichioneka
ichipa
ichipera
ichipfunha
ichipfuura
ichipimwa
ichipinda
ichipoterera
ichireba
ichireva
ichiri
ichisanganisa
ichishanda
ichishandisa
ichishandiswa
ichisi
ichisiya
ichitanga
ichitendera
ichitenderera
ichitevedza
ichitevera
ichiteverwa
ichiti
ichitodza
ichitongwa
ichitungamirwa
ichiunza
ichiuya
ichiva
ichiziririka
ichizonaya
icho
ichochi
ichocho
ichokwadi
icon
id
ida
idaala
idae
idah
idai
idambudziko
idanho
idea
ideal
ideas
idemo
idenga
identified
identifier
identify
identities
identity
ideo
ideophone
idhodhi
idhorobha
idi
idiki
idiom
idiot
idivi
idle
ido
idoko
idol
idombo
idoro
idukusa
idumba
idumidzo
iduna
idundu
idunhu
idzi
idzinde
idzinza
idzo
idzodzi
idzodzo
idzva
if
ifa
ifambe
ifaniro
ife
ifirimu
ifosi
ifupa
igama
igamba
igaroziva
igas
igasi
igasva
igbho
igbo
igen
igere
iglesia
iglesias
ignatius
ignite
ignorance
ignorant
ignore
igo
igomba
igomo
igonda
igonhi
igore
iguana
iguchu
igumi
iguta
igwa
igwana
igwenga
igwenzi
ihama
ihanzvadzi
iheyo
ihidhirokurori
ihondo
ihove
ihuroro
ihuru
ihwa
ihwo
ihwohwo
ii
iii
iine
iite
ijipita
ijira
ijiri
ijonera
ik
ikaita
ikalanga
ikaramu
ikarenda
ikarutsa
ikashandurwa
ikasire
ikatambira
ikatsi
ikauraiwa
ikava
ikeu
ikirunga
ikizu
iko
ikodzero
ikoko
ikoma
ikondo
ikoore
ikozvino
ikumi
ikuru
ikwanise
il
ila
ilanga
ilbo
ilia
iliduku
ilifuku
iligama
ilikhiwa
ilinaka
ilisempu
ilisinde
ilivukuthu
ilizi
ill
illegal
illegitimate
illeonseu
illness
illu
illuminate
illumination
illustrated
ilunda
im
imaeil
image
images
imaginary
imagination
imari
imba
imbai
imbala
imbale
imbaravara
imbarikwa
imbecile
imberbe
imbeu
imbewu
imboma
imbube
imbula
imbumbu
imbune
imbwa
imesa
img
imhambarirwa
imhando
imhedzisiro
imhepo
imhosva
imhuka
imhuri
imi
imibala
imikho
imilibo
iminako
iminathi
imitate
imithi
imiwungo
imizi
imma
immature
immediate
immediately
immense
immerse
immigrant
immoral
immorality
immortality
immune
immunity
immunization
immunology
imo
imombe
imomo
impact
impala
impatience
impatient
impatiently
impede
impediment
impeller
impenetrable
imperative
imperator
imperfect
impetuous
imphambosi
implement
implies
implosive
imply
impofu
importance
important
imports
importunate
importune
importunity
imposition
impossible
impounded
impoverished
impregnate
impress
impression
imprint
imprison
improper
improve
impudent
imvi
imvukusi
imvura
imwe
imwechete
imwecheteyo
imwewo
imweya
imweyo
in
ina
inability
inaccessible
inae
inambili
inappropriate
inauguracion
inaugural
inc
incessantly
inches
incident
incidental
incision
incisors
incite
incl
incline
inclined
include
included
includes
including
inclusion
inclusive
income
incomplete
incompletely
inconsequentially
inconvenience
incorporated
increase
increased
increasingly
increment
inda
indaba
indasitiri
indawo
indd
indeed
independence
independent
index
india
indian
indians
indica
indicate
indicated
indicator
indifferent
indigenous
indigestion
indignation
indigo
indigofera
indima
indisc
individual
individuals
indiya
indo
indolent
indonesia
indonezhiya
induku
indunduma
industrial
industries
industrious
industry
ine
ineffective
inehuwandu
inembo
inemukaka
inenga
inenge
inert
inertia
inertly
ineruvara
ineti
inexperienced
inf
infact
infant
infausta
infect
infected
infection
infections
infectious
inferior
infertile
infibulation
infinity
inflammation
inflorescence
inflorescences
influence
influenced
influential
influenza
info
infobase
inform
information
infra
ing
inga
ingadzi
ingangoita
inganzi
ingashandiswa
ingati
ingava
ingave
inge
ingens
ingenuity
inget
ingi
ingoma
ingore
ingori
ingoyi
ingozi
ingress
inguva
ingwe
inhabit
inhabitant
inhabitants
inhabited
inhaka
inhale
inhamba
inhambane
inhangande
inharaunda
inhengo
inherent
inherit
inheritance
inherited
inheritor
inhospitable
ini
inini
initial
initiate
initiated
initiator
inject
injero
injini
injure
injured
injuries
injurious
injury
ink
inkigayo
inkomo
inkonzo
inkware
inland
inlet
inner
inno
innocent
innocua
innundate
ino
inobangirwa
inobata
inobatanidza
inobatsira
inobatwa
inobereka
inobhadharwa
inobikirwa
inobuda
inobuditsa
inoburitsa
inoburitswa
inobva
inobvinina
inobvira
inobvumidza
inobvumira
inocheka
inochengeta
inochengetedza
inochengeterwa
inochengetwa
inochera
inocherwa
inochinja
inoda
inodaidzwa
inodanwa
inodarika
inodhura
inodiwa
inodonha
inodudza
inodudzirwa
inodudzwa
inodya
inodyidzana
inodyiwa
inodzika
inodzivirira
inodziya
inoenda
inoenderana
inoenderera
inofadza
inofamba
inofambisa
inofambwa
inofanana
inofananidzwa
inofanira
inofanirwa
inofarira
inofarirwa
inofukidza
inofuma
inofungidzirwa
inogadzira
inogadzirwa
inogamuchira
inogamuchirwa
inoganhurana
inogara
inogarwa
inogona
inogonawo
inogova
inoguma
inohodhwa
inoipa
inoisa
inoiswa
inoita
inoitevera
inoitika
inoitwa
inokasira
inokonzera
inokonzeresa
inokonzerwa
inokororwa
inokosha
inokura
inokurudzira
inokurudzirwa
inokuvadza
inokwana
inokwanisa
inokwanisawo
inokwezva
inokwira
inomera
inomhanya
inomira
inomirira
inomiririra
inomisa
inonaka
inonakidza
inonamira
inonaya
inonetsa
inongova
inonongedza
inonopinda
inonwiwa
inonyanya
inonyanyo
inonyorwa
inonyungudika
inonyura
inonzi
inonziwo
inonzwisisana
inoonekwa
inoongorora
inopa
inopakurirwa
inopandukira
inopangidzwa
inoparadza
inopararira
inoparira
inopatsanura
inopatsanurana
inopenya
inopera
inopereka
inopesana
inopfekerwa
inopfekwa
inopfuura
inopfuyiwa
inopihwa
inopima
inopimwa
inopinda
inopindwa
inopinga
inopingura
inopisa
inopiwa
inopoterera
inoramba
inorambonaya
inorapa
inorara
inorarwa
inoraswa
inoratidza
inoratidzika
inoratidzirwa
inoratidzwa
inorder
inoreba
inoregwa
inorema
inoreva
inorevei
inoridzwa
inorimwa
inoripwa
inorondedzerwa
inoronga
inorukwa
inoruma
inorwadza
inorwisa
inorwiwa
inosangana
inosanganidza
inosanganisa
inosanganisira
inosanganiswa
inosara
inosasauka
inosefa
inoshamisa
inoshanda
inoshandisa
inoshandisha
inoshandiswa
inoshandiswawo
inoshandiswe
inoshanduka
inoshandura
inoshandurwa
inoshanyirwa
inoshevedzwa
inosinina
inosiya
inosiyana
inosunda
inosunga
inosungwa
inosunungurwa
inosvika
inotakura
inotambiriswa
inotambirwa
inotanda
inotandauka
inotanga
inotangira
inotangwa
inotapira
inotara
inotaridza
inotaridzika
inotarisana
inotarisirwa
inotaura
inotaurwa
inoteera
inoteerawo
inotendera
inotenderera
inotenderwa
inotengesa
inotengeswa
inotengwa
inotevedza
inotevedzwa
inotevera
inoti
inotinhira
inotiudza
inotodza
inotodzana
inotonga
inotongwa
inotonhora
inotonhorera
inotora
inotorwa
inotova
inotsanangura
inotsanangurwa
inotsigira
inotsvaga
inotubuka
inotungamirwa
inoturikirwa
inoturuka
inouhongwa
inoumba
inoumbwa
inounganidza
inounganidzwa
inounza
inouraya
inouya
inova
inovakwa
inovavarira
inovawo
inoverengwa
inovhuvhuta
inowana
inowanda
inowanika
inowanikwa
inowanikwawo
inowanza
inowanzo
inowanzoita
inowanzoitwa
inowanzonzi
inowanzozivikanwa
inowedzera
inowedzerwa
inoyera
inoyerera
inoyerwa
inoyi
inoyimbwa
inoziririka
inoziva
inozivikanwa
inozivikanwawo
inozivikwa
inozoita
inozoshandiswa
inozova
inozvionera
input
inputs
insanity
insect
insects
insert
insertion
inside
insider
insight
insignia
insika
insipid
insipidum
insiza
insolence
insolent
inspan
inspect
inspiration
inspired
instance
instant
instead
institute
institution
institutions
instruct
instruction
instructions
instructor
instrument
instrumental
instruments
insturment
insufficient
insulation
insulator
insult
insulting
insurance
insured
int
intambo
intanga
intara
intare
inte
intefere
integer
integral
integrated
integrity
intellect
intellectual
intelligence
intelligent
intense
intensify
intensity
intent
intention
intentions
intently
intepret
inter
interact
intercede
intercept
intercepting
intercessor
intercourse
interest
interested
interesting
interface
interfere
intergrity
interim
interior
interj
interjection
interlude
intermediate
internal
internally
international
internationale
internet
internode
interpose
interpret
interpreter
interrupt
interruption
intersect
intersection
interstellar
interval
intervene
interview
intestine
intestines
intimacy
intimate
into
intombela
intoxicate
intoxicated
intoxicating
intoxication
intr
intractable
intro
introduce
introduced
introduction
intutho
inumeri
invaded
invalid
invasion
invent
inventions
inventor
invert
investment
invigorate
invisible
invite
invites
involved
involves
inward
inwards
inyama
inyanga
inyanya
inyanza
inyanzvi
inyaudzosingwi
inyaya
inyenyedzi
inyeredzi
inyika
inyoka
inyoni
inyungu
inzala
inzi
inzira
inzonzi
inzungu
inzvimbo
inzwa
inzwi
inzwisike
io
ion
ionization
ions
ipa
ipapa
ipapo
ipe
ipfumo
ipholi
iphone
ipi
ipl
ipomoea
iport
iprage
ipuratifomu
ipurazi
ipwa
ir
ira
iraki
irambe
iran
irani
iraq
irascibility
ire
irege
ireland
irene
irheshiyo
iri
irigesheni
irikidza
irikidzai
iriko
irikumadokero
irimo
irimu
irimwe
irin
iripadhuze
iripo
iris
iriwo
iriyo
iro
iron
irony
irori
iroro
irowo
irregular
irrigation
irritable
irritate
irritation
iru
irungu
irving
irwizi
irworwo
is
isa
isaac
isabel
isabella
isaiah
isaka
isallowed
isamvu
isangano
isango
isanzu
isati
isau
isaya
isbjerget
isbn
ise
isekwa
ish
ishamwari
ishandiswe
ishe
isheanesu
ishemahwa
ishemanzwa
ishepi
ishiri
ishoko
ishoma
ishtar
ishwa
isi
isibebe
isibumbe
isidiya
isifo
isifuba
isifunda
isiga
isigaga
isihobela
isihobo
isikati
isikhala
isikhawu
isikhoba
isikhonzi
isikhothe
isikhowe
isikhu
isikhukhula
isikhumba
isikokela
isikwata
isimba
isimbi
isiminya
isina
isindebele
isinga
isingadyi
isingaperi
isingapi
isingaratidzike
isingaremekedzwe
isingasviki
isinxele
isinyekenyeke
isiphawulo
isiphungo
isipo
isiraeri
isiri
isisina
isisulu
isivalo
isivulamulomo
isiwawa
isiwisa
isiwumba
isixhosa
isiyako
isizinda
isizulu
isizungu
iskandara
islam
islamic
island
islands
iso
isolate
isolated
isolates
isolation
isomer
isomero
isomers
ison
isonga
isotope
israel
israeli
israelites
iss
issn
issue
issues
ist
istanbul
isu
isvikiro
isvutugadzike
iswa
it
ita
itai
itala
italia
italian
italy
itama
itambo
itari
itarisire
itatu
itayi
itch
ite
iteka
iteko
item
itema
items
ithunga
iti
ito
iton
itongo
itopiya
itr
its
itself
itsika
itsva
itsvo
itsvuku
iu
iucn
iupiter
iv
iva
ivai
ivara
ive
ivhu
ivi
ivo
ivoire
ivory
ivy
iwaya
iwayo
iwe
iwewe
iwi
iwo
iwoyo
iwoyu
ixi
iya
iyabukana
iye
iyeni
iyeye
iyeyu
iyi
iyisirandi
iyo
iyoyi
iyoyo
izere
izeremakomo
izerere
izigaga
izihambi
izikhala
izikhawu
izikhukhula
izimbune
izinake
izinkomo
izita
izithelo
iziwisa
izm
iznik
izolo
izon
izulu
izuva
izvi
izvo
izvozvi
izwi
j
ja
jaaji
jaala
jaani
jaara
jabulani
jack
jackal
jacket
jackie
jackson
jacob
jacqueline
jacques
jada
jae
jaffna
jag
jaguar
jagwa
jah
jaha
jail
jairos
jaja
jaji
jakajiriri
jakanya
jake
jakob
jakobe
jakobho
jakove
jala
jam
jama
jamaica
jamais
jamana
jamba
jambaya
jambwa
james
jameson
jamestown
jamhuri
jammed
jamsai
jan
jana
jane
janeiro
janet
jang
jangwa
janha
jani
january
japan
japanese
japani
jar
jaraga
jarati
jari
jaringo
jasi
jason
jasper
jata
jaure
jauri
java
jaw
jawa
jaya
jaza
jazeera
jazz
jazzi
je
jealous
jealousy
jean
jecha
jechetere
jedye
jee
jeff
jeffrey
jehova
jehovah
jehovha
jejui
jejwi
jekanyika
jeke
jekecha
jekenyedza
jekera
jekese
jekiseni
jeko
jela
jele
jelly
jemenai
jemeni
jemima
jena
jenaguru
jende
jendekufa
jenero
jenevah
jenga
jengadenga
jeni
jenjazi
jenje
jenner
jennifer
jenny
jeong
jer
jera
jerahuni
jerandoga
jere
jeredzwa
jeremiah
jeremie
jerenyenje
jerera
jeri
jericho
jerk
jerked
jeroen
jerome
jerry
jersey
jerumani
jerusalem
jerusarema
jesca
jese
jesse
jessica
jessie
jest
jesu
jesus
jet
jewel
jewelry
jewish
jews
jeya
jeye
jg
jhtm
ji
jibhuti
jida
jiho
jiji
jila
jimin
jimmie
jimmy
jimo
jin
jina
jinda
jinga
jingamvura
jinge
jingu
jinjika
jinya
jipange
jira
jire
jiri
jirima
jiro
jisonhi
jita
jiti
jitumba
jiya
jiyeni
jj
jk
jnr
jo
joachim
joan
joao
job
jobho
jobu
joe
joel
joere
jogo
johane
johani
johannesburg
john
johnson
joice
join
joined
joining
joins
joint
jointed
joints
jojiya
jojya
joke
jokes
joki
joking
jokingly
joko
jokonya
jola
jolie
jom
jombe
jomo
jona
jonas
jonathan
jones
jong
jonga
jongo
jongwe
joo
joon
joram
jordan
jore
jorge
jorodhani
jose
josef
josefa
joseph
josephine
josephs
joshua
joshuwa
josiah
josphat
joule
joules
journal
journalism
journalist
journals
journey
jowa
joy
joyce
joyful
jpeg
jpg
jr
jsessionid
jstor
ju
jua
juan
juba
judah
judea
judge
judged
judgement
judging
judgment
judha
judheya
judicial
judith
judy
jug
juice
jukwa
jul
jula
julbernardia
julen
jules
julia
julian
juliana
juliet
julio
julius
julkonsert
july
juma
jumbe
jumbo
jumjum
jump
jumped
jumping
jun
juncea
junction
june
jung
jungkook
jungle
jungsim
junior
junospacecraft
jupiter
jur
jura
jure
juru
jury
jusi
just
justice
justify
justin
justine
juta
juzi
jvmvis
jwa
jyere
jɔ
jɛ
k
ka
kaa
kaam
kaani
kaaya
kab
kabanda
kabanzu
kabasa
kabheji
kabhinzi
kabhira
kabho
kabhoni
kabhora
kabhuku
kabi
kabika
kabila
kabirika
kabiye
kabondo
kabu
kabungwa
kabwa
kabza
kachasu
kacheche
kachela
kachimbwi
kachinge
kachingwe
kacho
kachuta
kadatya
kadavoor
kadede
kadenge
kadewere
kadhai
kadhani
kadhinari
kadiki
kadikidiki
kadodo
kadoko
kadoma
kadomera
kaduku
kadungo
kadungure
kadyautumbe
kadzi
kadzinga
kae
kaela
kaera
kafeni
kafulani
kafumba
kafunga
kagande
kagoro
kagulu
kagumi
kaguta
kaguvi
kahari
kahle
kahombo
kahomwe
kahonde
kahoro
kahota
kahwai
kai
kaiser
kaisi
kaka
kakabe
kakagadzirwa
kakaita
kakaitwa
kakao
kakawanda
kake
kakomana
kakonda
kakonde
kakondeka
kakondo
kakonza
kakora
kakota
kakufanana
kakunda
kakunde
kakungulu
kakunzwika
kakuru
kakurutu
kakuwe
kakwa
kal
kala
kalabo
kalahari
kalambo
kalamu
kalanga
kalawire
kale
kalebwe
kalemba
kalenga
kali
kalimba
kalipa
kaliwo
kalkoen
kallenbach
kalola
kalombe
kalonga
kalongo
kalula
kalulu
kalumbu
kalunga
kaluwa
kam
kama
kamadokero
kamanga
kamau
kamba
kambaata
kambale
kambani
kambanji
kambarami
kambare
kambe
kambere
kambi
kambodhiya
kamburorunidha
kameruni
kamhuka
kamita
kamjoma
kamotsi
kamoxi
kamtambo
kamu
kamukoko
kamukwede
kamunda
kamure
kamuri
kamuti
kamutiko
kamuzu
kamwana
kamwe
kamwechete
kamwendo
kamwi
kan
kana
kanaa
kanadha
kanari
kanawo
kanda
kande
kandeya
kandi
kandiyero
kandolo
kandombo
kandoro
kanduka
kanduluka
kane
kanenge
kanga
kangaenzane
kangai
kangalala
kangani
kangara
kangari
kangaridza
kangaroo
kangopisa
kanguva
kangwari
kanhu
kani
kanjasi
kanjenje
kanji
kanjira
kano
kanodanwa
kanodyiwa
kanogara
kanokwana
kanonzi
kanoshandawo
kanowanikwa
kanoyangwa
kanti
kanuri
kanwa
kanya
kanyama
kanyanganya
kanyekanye
kanyere
kanyi
kanyina
kanyinji
kanyungu
kanzira
kanzu
kanzuru
kanzvi
kaonde
kapa
kapala
kapande
kapandira
kapangura
kapari
kapembenene
kapenga
kapepa
kapesa
kapeta
kapfupi
kapili
kapindo
kapinga
kapingula
kapingura
kapiri
kapita
kapitapita
kapolo
kapona
kaponga
kapu
kapuka
kapukanana
kapundu
kapungura
kapunha
kapurikoni
kapuruzirwa
kapuya
kar
kara
karabo
karakadzai
karamu
karang
karanga
karatasi
karau
kare
karekare
karemwaremwa
karen
karenda
kareya
kari
kariba
karibhi
karibhiya
karikoga
karimatsenga
karl
karoi
kaross
karotinzi
karotsi
karumbi
karumbidza
karunga
karura
karuvara
karuvira
karuwo
kasahorow
kasambala
kasasi
kaseka
kaseke
kasekera
kasem
kasembe
kasepe
kasera
kasha
kashanu
kashara
kashiri
kashoma
kashonga
kashumba
kasi
kasimbi
kasimo
kasina
kasinde
kasingura
kasoka
kasoko
kasola
kasoloka
kasolola
kasonde
kasongo
kaspiya
kasumba
kasunda
kasunga
kasvava
kata
katahwi
katakana
katala
katali
katambura
katanda
katanga
katanha
katasa
katatu
kate
kateka
kateke
katema
katena
katende
katereke
katerere
katetema
kateya
kathmandu
kati
katimba
kativu
katiyo
katlego
katonda
katondo
katonga
katongo
katongola
katongole
katongora
katota
katsande
katsi
katsiga
katsihuru
katsika
katsimba
katsinde
katsiro
katsiru
katsongo
katsumba
katsumbu
katsuro
katsvairachuru
katswere
katukura
katumbura
katundu
katunga
katungu
katuni
katupa
katurike
katzman
kaukasi
kaukonde
kaumbirwo
kaundo
kava
kavawanda
kaverevere
kaviri
kaviya
kawa
kawaza
kawela
kawila
kawoza
kay
kaya
kayambo
kayera
kayeruza
kayiti
kayombo
kazakhistani
kazakhstan
kazangarare
kazembe
kazhinji
kazi
kaziro
kazita
kazito
kazola
kazonga
kazozo
kazungo
kazungu
kazungula
kaŋ
kbs
ke
kebheki
kechipiri
kechitatu
kede
kedi
keenda
keep
keeper
keeping
keeps
keepsake
kei
keisuke
keita
keith
keke
kekutanga
kele
kelly
kelvin
kem
kembo
kemedzung
kempes
kemwarikadzi
ken
kena
kenda
kende
kenduru
kenne
kennedy
kenneth
kenya
kenyatta
kenye
kenza
kenzi
kepi
kept
kereke
kerewe
kernel
keruro
kesari
keta
ketaaŋ
kete
kettle
ketty
ketuvim
kevin
kew
key
kg
kgomotso
kh
khaemba
khajuraho
khalid
khama
khan
khao
khapa
khartoum
khaya
khea
khem
khemeti
khoi
khombo
khosi
khotsi
khovhidhi
khoza
khu
khuchira
khukhora
khukhuva
khulula
khumalo
khupe
khutu
khuu
khuuaambana
khuuloba
khuung
khuureenga
khw
khwaka
khwesha
khweshe
khwirukha
ki
kiaat
kiakondama
kiala
kiambo
kiandi
kianza
kibale
kibandu
kibanza
kibaya
kibela
kibena
kibese
kibi
kibila
kibuluma
kicheni
kick
kid
kidawida
kidnap
kidnapper
kidney
kidneys
kidole
kids
kienze
kifua
kiga
kigambo
kigelia
kihaya
kihehe
kihungu
kiikizu
kijiji
kikagulu
kikamba
kikanda
kikande
kikese
kikole
kikongo
kikooto
kikumbi
kikundi
kikunya
kikuta
kikuyu
kikwato
kila
kilama
kilandu
kile
kileke
kilele
kilenda
kilendu
kilima
kilimanjaro
kilinda
kill
killed
killer
killing
kills
kilo
kilogram
kilolo
kilometres
kilomita
kilongola
kilongozi
kiloozo
kiluka
kilulu
kilumba
kilumbiro
kilumbu
kilunda
kilunga
kilunje
kilunji
kim
kima
kimaka
kimanda
kimbamba
kimbundu
kimeru
kimwanda
kimwani
kin
kinande
kinankoto
kind
kinda
kindala
kindanda
kindele
kindle
kindly
kindness
kindred
kinds
kinene
kinetic
king
kingdom
kings
kingsley
kingulu
kingundu
kinini
kinorhyncha
kinorinicha
kinshasa
kinship
kintu
kinyarwanda
kinyonga
kinyoro
kinzere
kipambo
kipande
kipare
kira
kirabhu
kiragiro
kiraimeti
kirasi
kirera
kiri
kiribati
kiriri
kirkia
kirkiana
kirkii
kiromita
kirsty
kirume
kirundi
kirundu
kirungi
kisalasala
kisalu
kisambwe
kisangu
kisekele
kishambala
kisoko
kiss
kissed
kissing
kisuba
kisukuma
kiswahili
kita
kitaka
kitala
kitanda
kitchen
kite
kitembo
kitendo
kitereke
kitereko
kiti
kitikiti
kitoko
kitombe
kitongola
kitongole
kitu
kitulu
kitunda
kitundu
kiunga
kiuru
kiwa
kiwanga
kiwani
kiwanja
kiwano
kiwi
kiyi
kiza
kizigua
kizinga
kizingia
kizingo
kizito
kiziwi
kizola
kj
kk
kka
kki
kl
klcda
kleptocracy
klipspringer
kloof
klos
km
knap
knave
knavery
knead
knee
kneel
kneeling
knees
knife
knit
knob
knobkerrie
knock
knocking
knoop
knot
know
knowable
knowing
knowledge
knowledgeable
known
knows
ko
koa
kobanda
kobela
kochera
kochira
kodhata
kodzero
koepp
kofi
koi
koka
kokela
kokera
koko
kokorodzano
kokunika
kokutanga
kokuti
kokwata
kokwe
kol
kola
kolisa
kolo
kolokota
kolokuma
kolomola
kolongo
koloni
kolopa
koma
komana
komba
kombanda
kombayi
kombe
kombela
kombers
kombiyuta
kombo
kombola
kombora
komborerai
kombwe
komichi
komics
komiki
kommer
komo
komola
komori
komputa
komwe
kon
kona
konda
konde
kondeka
kondinendi
kondiwa
kondo
kondoka
kondola
kondoloka
kondono
kondwani
kone
konfuzhi
kong
konga
konge
kongela
kongo
kongola
koni
konjera
konkomba
kono
konobho
konola
konongo
konya
konza
konzi
kook
koora
kopa
kope
kopje
kopo
kora
korabhoresheni
korandje
kordei
kore
korea
koreaherald
korean
korekore
koring
koriya
koriyo
koro
korokoto
koromo
korona
koroni
korten
koruna
kosa
kose
kosi
kosola
kosovo
kosti
kostilayini
kot
kota
kotala
kotanga
kotara
kote
koteji
koteka
kotenga
kotera
kotesa
koti
kotiga
koto
kotoka
kotora
kotsa
kotsi
kotwa
kova
kove
kovera
kowa
koy
koyi
koz
koza
kozoita
kpa
kr
kraal
kratia
kraussiana
kreva
krimi
krishna
kristina
kristo
kristu
krona
krone
kross
kruger
ku
kua
kuadza
kuafrica
kuafrikaans
kuafurika
kuaka
kuala
kuamba
kuambana
kuambira
kuambuka
kuambura
kuamerica
kuamerika
kuanda
kuandama
kuandamila
kuandika
kuanga
kuangola
kuanika
kuanyamarum
kuasia
kuaustralia
kuba
kubaira
kubaiwa
kubaka
kubalanga
kubanda
kubanga
kubangira
kubangura
kubantu
kubanza
kubanzura
kubara
kubare
kubarika
kubaritsa
kubasa
kubata
kubatana
kubatanidza
kubatanidzwa
kubatidza
kubatira
kubatirana
kubatirira
kubatisisa
kubatsira
kubatsirana
kubatsirwa
kubatwa
kubaukira
kubaya
kubayira
kubayiwa
kubazi
kubba
kubbyamuka
kubebenuka
kubefura
kubenin
kubereka
kuberekana
kuberekesa
kuberekwa
kubesera
kubeseraka
kubesu
kubetsera
kubhabhatidza
kubhabhatidzwa
kubhabhura
kubhadhara
kubhadharwa
kubhahari
kubhaibheri
kubhanga
kubhara
kubhebha
kubheja
kubheka
kubhenda
kubhuguja
kubhura
kubhuritani
kubhururuka
kubhuruvara
kubika
kubikira
kubikwa
kubila
kubindikita
kubinduka
kubindura
kubinya
kubira
kubirira
kubisa
kubisha
kubishinga
kubitidza
kubitirwa
kubizha
kubizuka
kubodza
kuboka
kubomaira
kubomba
kubonda
kubondana
kubongomora
kuboora
kubopa
kuborrowdale
kubotswana
kuboya
kuboza
kubozha
kubritain
kubuda
kubudikidza
kubudirira
kubudisa
kubuditsa
kubuditswa
kubuhera
kubukira
kubulawayo
kubulunga
kubumba
kubumbiro
kubumbunuka
kubumhudza
kubundira
kubura
kuburikidza
kuburitsa
kuburitswa
kuburkina
kuburuka
kuburundi
kuburutsa
kubusa
kubuta
kubva
kubvamumaelectrolysis
kubvarura
kubvinina
kubvira
kubvisa
kubvisika
kubviswa
kubvondora
kubvuira
kubvuka
kubvuma
kubvumba
kubvumbi
kubvumira
kubvumirana
kubvundura
kubvunyaidza
kubvunza
kubvunzurudza
kubvurunuka
kubvuta
kubvutwa
kubvuva
kubvuvira
kubvuwa
kubwaira
kubwata
kubwinya
kubwitira
kucameroon
kucanada
kucape
kucentral
kuchacha
kuchad
kuchakatika
kuchama
kuchamhembe
kuchamhembechemabvazuva
kuchamhembechemadokero
kuchangamuka
kuchanjamara
kucharika
kuchata
kuchaya
kuchayina
kuchecheudza
kuchecheudzwa
kuchechuka
kuchedza
kucheka
kuchekanya
kuchekwa
kuchema
kuchembera
kuchemhembe
kuchemishonga
kuchemistry
kuchena
kuchenama
kucheneruka
kuchenesa
kucheneswa
kuchenga
kuchengedza
kuchengeta
kuchengetedza
kuchengetedzeka
kuchengetedzwa
kuchengetera
kuchengetwa
kuchenjedza
kuchenjera
kuchenjerera
kuchenura
kuchenzana
kuchera
kucherechedza
kucherechedzwa
kucheuka
kuchewa
kucheza
kuchiarabhu
kuchiarabu
kuchibantu
kuchibhunu
kuchibuda
kuchibva
kuchicha
kuchichamhembe
kuchidza
kuchidzidzo
kuchigiriki
kuchihebheru
kuchiita
kuchiitika
kuchiitwa
kuchikalanga
kuchikamu
kuchikaranga
kuchikidza
kuchikorekore
kuchikoro
kuchikristu
kuchikunda
kuchila
kuchile
kuchimanyika
kuchimbidzika
kuchimoio
kuchina
kuchindau
kuchindevele
kuchinga
kuchingama
kuchingamidza
kuchinge
kuchingezi
kuchingidzira
kuchingira
kuchingiridza
kuchingona
kuchinguni
kuchingura
kuchinja
kuchinjika
kuchinjirudza
kuchinonoka
kuchinya
kuchinyika
kuchinyorwa
kuchinzi
kuchionekwa
kuchipatara
kuchipinge
kuchiportuguese
kuchiproto
kuchiputukezi
kuchiratini
kuchiredzi
kuchirehwa
kuchireva
kuchiri
kuchiroma
kuchirongwa
kuchiruka
kuchirungu
kuchirwere
kuchisara
kuchishandiswa
kuchishona
kuchiswahiri
kuchitariswa
kuchitaurwa
kuchitendero
kuchitevedzwa
kuchitonga
kuchitungwiza
kuchiva
kuchivanhu
kuchivhiyetinamu
kuchivhu
kuchivirika
kuchiweshe
kuchiyao
kuchizotevera
kuchizulu
kuchizvarwa
kuchona
kuchonjomara
kuchovha
kuchururuka
kucoast
kucongo
kuconstantinople
kucote
kuczechoslovakia
kuda
kudada
kudai
kudaidza
kudaidzwa
kudaka
kudakara
kudakarira
kudakwashe
kudamba
kudambya
kudana
kudanana
kudanaura
kudandama
kudandamuka
kudandamutsa
kudanga
kudanwa
kudare
kudarika
kudarikwa
kudaritsa
kudaro
kudavada
kudea
kudedera
kudeika
kudeka
kudekara
kudeketera
kudekudza
kudeleka
kudelesa
kudeleza
kudemba
kudembama
kudemocratic
kudendemara
kudenengura
kudenga
kudengaira
kudengenyeka
kudengetera
kudengeza
kudengezera
kudenha
kudenhera
kuderedza
kuderedzwa
kuderera
kudeuka
kudhaka
kudhakwa
kudhamu
kudhara
kudharadhara
kudherera
kudhinda
kudhindisa
kudhirika
kudhirowa
kudhla
kudhoma
kudhonza
kudhonzwa
kudhorobha
kudhura
kudhuvhura
kudhuze
kudi
kudidirika
kudidiritsa
kudigo
kudikitira
kudimbira
kudimbudzira
kudimbura
kudimuka
kudimura
kudindirika
kudinga
kudiridza
kudivi
kudiwa
kudobodedza
kudoka
kudokwaira
kudoma
kudombo
kudomwa
kudondeka
kudonga
kudongana
kudongorera
kudonha
kudonhedza
kudonhedzwa
kudonyongoka
kudopotsa
kudoro
kudrc
kudu
kududza
kududzira
kududzirwa
kududzwa
kuduka
kudukuta
kudumbidza
kudumbirwa
kudumula
kudundurudza
kudunga
kudungira
kudungura
kudunhu
kudupika
kudura
kudurura
kudusa
kuduza
kudya
kudyara
kudyidzana
kudyisa
kudyiwa
kudyora
kudyorera
kudza
kudzai
kudzaishe
kudzaka
kudzama
kudzamara
kudzamura
kudzana
kudzanai
kudzanayi
kudzandiwa
kudzayi
kudzedzereka
kudzekenyedza
kudzemberera
kudzengerera
kudzidza
kudzidzira
kudzidzisa
kudzidziswa
kudzidziuka
kudzidzivara
kudzika
kudzikama
kudzikamisa
kudzikatika
kudzikinura
kudzikira
kudzikisa
kudzikisira
kudzikunura
kudzima
kudzimara
kudzimba
kudzimika
kudzimira
kudzimurira
kudzimwe
kudzinda
kudzinga
kudzinganisa
kudzingirira
kudzingisa
kudzingiswa
kudzingwa
kudzinina
kudzinza
kudzira
kudzitira
kudzitirwa
kudziva
kudzivira
kudzivirira
kudzivirirwa
kudzivisa
kudziya
kudziyisa
kudzoka
kudzokera
kudzokorora
kudzonga
kudzongonyera
kudzora
kudzorera
kudzoreredzwa
kudzorwa
kudzosa
kudzosera
kudzoserwa
kudzudzira
kudzuna
kudzunga
kudzungaira
kudzungunyika
kudzunguruka
kudzura
kudzvanya
kudzvanyidzira
kudzvanyirira
kudzvita
kudzvokora
kudzvova
kudzvura
kuedza
kuedzwa
kuegypt
kuela
kuelela
kuelesa
kuelusa
kuempress
kuenda
kuenderana
kuenderera
kuendesa
kuendwa
kuengland
kuenglish
kuenzana
kuenzanisa
kuenzaniswa
kuenze
kuenzera
kuera
kuereka
kuethiopia
kueurope
kueza
kuezhiya
kufa
kufadza
kufamba
kufambidzana
kufambira
kufambisa
kufambiswa
kufambwa
kufana
kufanana
kufananidza
kufananidzwa
kufangura
kufanira
kufanirwa
kufanza
kufara
kufarira
kufarirwa
kufarisa
kufaruka
kufasa
kufashaidza
kufashaira
kufashama
kufema
kufemba
kufembera
kufemera
kufemereka
kufenda
kufenga
kufika
kufinyama
kufira
kufizuka
kufora
kufozora
kufrench
kufudza
kufugidza
kufugura
kufuka
kufukaira
kufukamira
kufukanyira
kufukata
kufukidza
kufukura
kufuma
kufumba
kufumira
kufumuka
kufumura
kufumurudza
kufuna
kufunda
kufundika
kufundikira
kufundisa
kufundura
kufunga
kufunganya
kufungidzira
kufungidzirwa
kufungira
kufungisisa
kufungula
kufunuka
kufunura
kufunya
kufura
kufuratira
kufuridza
kufurira
kufurufusha
kufuruka
kufurusa
kufushira
kufushunura
kufuta
kufuwa
kufuwurudza
kufwa
kufwamba
kugachidzana
kugadza
kugadzika
kugadzikana
kugadzira
kugadziridza
kugadzirira
kugadzirisa
kugadziriswa
kugadzirwa
kugadzwa
kugalactic
kugalba
kugaluka
kugamba
kugamha
kugamuchira
kugamuchirika
kugamuchirwa
kuganha
kuganhurana
kuganya
kuganza
kugara
kugarira
kugarisa
kugarisana
kugariswa
kugaro
kugaroenda
kugarwa
kugashira
kugaya
kugera
kugermany
kugerwa
kugeya
kugeza
kugezwa
kughana
kugikuyu
kugiryama
kugiya
kugler
kugobora
kugocha
kugodza
kugoka
kugokwe
kugomara
kugomba
kugombana
kugombe
kugombedza
kugombedzeka
kugombedzera
kugombera
kugomberwa
kugon
kugona
kugonda
kugondeka
kugonga
kugonya
kugoromonzi
kugota
kugova
kugovana
kugovanisa
kugovera
kugoverwa
kugozha
kugreek
kuguinea
kuguka
kuguma
kugumba
kugumbata
kugumbatira
kugumbuka
kugumbura
kugumira
kugumuka
kugumura
kugunda
kugungwa
kugunzva
kugura
kuguranya
kugurira
kuguruka
kugurunura
kugurwa
kugusa
kuguta
kugutaguru
kugutila
kugutisa
kugutsa
kugutsikana
kugwabvura
kugwamba
kugwara
kugwarwa
kugwata
kugwenda
kugweru
kugwinya
kugwishura
kuhafu
kuhaka
kuhala
kuhama
kuhamba
kuhane
kuhara
kuharare
kuhataira
kuhaya
kuhetsura
kuhighfield
kuhiya
kuhlonipa
kuhobodza
kuhofisi
kuhola
kuhona
kuhondo
kuhope
kuhora
kuhorera
kuhukura
kuhumambo
kuhupfumi
kuhurumende
kuhuwandu
kuhwa
kuhwanda
kuhwange
kuhwapura
kuhwaro
kuhwata
kuhwatama
kuhwatsa
kuhwera
kuhwereketa
kuhwerengedzwa
kuhwina
kuhwira
kuhwiridzira
kuhwirira
kuhwitudza
kuhwunaira
kuibva
kuiita
kuijipita
kuikozvino
kuimba
kuindia
kuine
kuinternational
kuinyora
kuipa
kuiran
kuirika
kuirikidza
kuisa
kuise
kuisirwa
kuisrael
kuiswa
kuita
kuitaly
kuitari
kuitawo
kuitika
kuitira
kuitirwa
kuitisa
kuitopiya
kuitwa
kuizwi
kuja
kujaira
kujairika
kujala
kujapan
kujapani
kujata
kujeka
kujekesa
kujenganisa
kujinga
kujingirisa
kujitika
kujobera
kujuja
kujujuka
kuka
kukadoma
kukadzi
kukaha
kukahadzika
kukaka
kukakama
kukakata
kukakavadzana
kukakavara
kukala
kukalaatira
kukalanga
kukama
kukamba
kukambaira
kukambairira
kukambama
kukambani
kukambira
kukameruni
kukamhina
kukamuka
kukamukana
kukamukira
kukamula
kukamura
kukamurirana
kukana
kukanana
kukanda
kukandira
kukanga
kukangaidza
kukangama
kukanganisa
kukanganiswa
kukanganwa
kukanganyara
kukangarara
kukangaridza
kukangwa
kukanidza
kukanji
kukanya
kukanza
kukaonde
kukara
kukarakadza
kukariba
kukaringa
kukarira
kukarotinzi
kukarudza
kukaruka
kukasa
kukasika
kukasira
kukataza
kukati
kukatsa
kukaura
kukaurisa
kukava
kukaya
kukayanisa
kukaza
kukazira
kukenerana
kukenya
kukereke
kukerura
kuketa
kukidawida
kukila
kukiliya
kukinyarwanda
kukirundu
kukizigua
kukochanidza
kukodoba
kukododzvora
kukodza
kukodzera
kukohwa
kukoka
kukokera
kukokota
kukokovara
kukokwa
kukola
kukolela
kukoma
kukomba
kukombama
kukombera
kukomberedza
kukomberedzwa
kukombereka
kukomberwa
kukombodza
kukombodzwa
kukombora
kukomborera
kukomera
kukona
kukonda
kukondama
kukondamesa
kukondanzeru
kukondeka
kukondodza
kukondonoka
kukondza
kukondzeka
kukonga
kukongonyara
kukonza
kukonzera
kukonzeresa
kukonzerwa
kukonzya
kukopera
kukora
kukoranidza
kukorea
kukoresebwa
kukorewa
kukoriya
kukorobha
kukoromoka
kukorora
kukosa
kukosha
kukosora
kukota
kukotama
kukoteka
kukotoka
kukotonoka
kukotsa
kukotsira
kuku
kukuata
kukucha
kukuchidzira
kukuchukudza
kukudza
kukudziridza
kukudzwa
kukukura
kukukuta
kukukutara
kukula
kukulula
kukulupila
kukuma
kukumana
kukumba
kukumbana
kukumbanidza
kukumbira
kukumbuka
kukumbura
kukumura
kukuna
kukunda
kukundika
kukundikana
kukunduka
kukundwa
kukunga
kukungura
kukunguruka
kukungurutsa
kukupa
kukupira
kukupirwa
kukupuka
kukupura
kukura
kukurira
kukurirwa
kukuru
kukurudzira
kukurukura
kukurumbira
kukurumidza
kukurumuka
kukurunga
kukurura
kukuruunda
kukusha
kukuta
kukutika
kukutisa
kukutsa
kukutsira
kukutsirana
kukutu
kukutura
kukutuza
kukutwa
kukuutira
kukuva
kukuvadza
kukuvadzwa
kukuvala
kukuvara
kukuwa
kukuya
kukuyiwa
kukwachura
kukwana
kukwanirana
kukwanisa
kukwapukana
kukwara
kukwasha
kukwashisa
kukwata
kukwatanura
kukwatika
kukwatura
kukwava
kukwazisa
kukwebededza
kukwebedeka
kukwedaira
kukwegura
kukwekwe
kukwekweretsa
kukwenga
kukwenya
kukwereta
kukweretesa
kukweretwa
kukwesha
kukweva
kukwevera
kukwezva
kukwidibira
kukwidza
kukwidzwa
kukwikwidza
kukwikwidzana
kukwindidza
kukwindimara
kukwinya
kukwira
kukwirira
kukwita
kul
kula
kulaha
kulahanya
kulahika
kulahira
kulahwa
kulala
kulalika
kulamba
kulanga
kulango
kulatin
kuleka
kulela
kulelizwe
kulema
kulemba
kulenga
kulengwa
kulenje
kulesotho
kuleya
kuli
kuliha
kulima
kulimpopo
kulinda
kulingana
kulipa
kulisa
kuliswa
kuloba
kulola
kulombela
kulonda
kulondon
kulonga
kulonganya
kulongola
kulos
kulowa
kulu
kulugungu
kulugwere
kuluka
kulula
kuluma
kulumba
kulumbaizya
kulumbula
kulume
kulunda
kulunga
kulungama
kuluphira
kulurisa
kulya
kum
kuma
kumabasa
kumabhii
kumabhizinisi
kumabhuku
kumabiko
kumabudazuva
kumabvazuva
kumacammera
kumadhorobha
kumadokero
kumadondazuva
kumadziro
kumadziva
kumafuro
kumagetsi
kumagumo
kumahombekombe
kumaindustries
kumajudha
kumakomo
kumakore
kumakumbo
kumakumi
kumakwikwi
kumala
kumalawi
kumali
kumamisha
kumana
kumaneja
kumanga
kumanguka
kumanicaland
kumanika
kumanikidza
kumanikidzwa
kumanya
kumanyika
kumanyila
kumanza
kumaodzanyemba
kumaodzanyembaemabvazuva
kumaodzanyembaemadokero
kumaodzeranyemba
kumapeto
kumapfeka
kumapoka
kumapurisa
kumaputukezi
kumarawi
kumarondera
kumaruwa
kumasangano
kumashoko
kumashona
kumashonaland
kumashure
kumasvingo
kumasvomhu
kumatabeleland
kumatare
kumatebeleland
kumatekinoroji
kumatenga
kumativi
kumatunhu
kumavirazuva
kumavirira
kumawodzanyemba
kumayunivhesiti
kumazere
kumazowe
kumazwi
kumba
kumberi
kumbi
kumbindidza
kumbirai
kumbobvira
kumbomba
kumbombova
kumbomira
kumbondera
kumbugwe
kumbulula
kumbumura
kumburungwagama
kumbwandaira
kumedza
kumema
kumenya
kumera
kumeso
kumhan
kumhando
kumhanya
kumhanyisa
kumhara
kumhatso
kumhemberero
kumhepo
kumhiri
kumhondoro
kumhoresana
kumhotsa
kumhuka
kumhumha
kumhura
kumhuri
kumi
kumiddle
kumidlands
kumigodhi
kumimina
kumiminika
kumimwe
kuminama
kuminda
kuminyuka
kumira
kumirai
kumirira
kumiririra
kumisa
kumisikidza
kumission
kumita
kumitauro
kumitisa
kumomotera
kumonana
kumonera
kumoneredza
kumonereka
kumonerera
kumononora
kumonya
kumonyorora
kumora
kumosi
kumotsa
kumount
kumoyo
kumozambiki
kumozambique
kumubatanidzwa
kumucheto
kumudana
kumudhonzera
kumuenzanisi
kumugodhi
kumuitira
kumuka
kumukadzi
kumukira
kumukundi
kumukuru
kumunda
kumunhu
kumuravanembiri
kumuromo
kumuroora
kumurume
kumusana
kumusangano
kumusha
kumusoro
kumusuro
kumutambo
kumutauro
kumutsa
kumutsidzira
kumuviri
kumuzvuzvurudzira
kumva
kumvurwi
kumwana
kumwanasikana
kumwararidza
kumwararika
kumwaya
kumwaza
kumwe
kumwedzi
kumwene
kumwenzanhoka
kumwenzanhuka
kumweta
kumwewo
kumweya
kun
kuna
kunaijeriya
kunaka
kunakidza
kunakidzwa
kunakira
kunakirwa
kunakisa
kunama
kunamata
kunamatira
kunamatwa
kunamba
kunamibia
kunamira
kunamuka
kunamwari
kunamwedzi
kunana
kunanaira
kunanga
kunangisa
kunanxi
kunanzva
kunara
kunasira
kunational
kunatsa
kunatsiridza
kunatswa
kunaya
kunda
kundai
kundandalika
kundandalitsa
kundandama
kundandarika
kundandisa
kundayi
kunde
kundebele
kundengenyeka
kundi
kundire
kundu
kundurira
kune
kunekaira
kunema
kunemba
kunemera
kunemunhu
kunena
kunene
kunenedzera
kunenera
kunenga
kunenge
kuneta
kunetherlands
kunetsa
kunetsana
kunetseka
kunetsekana
kunevarwere
kunewo
kung
kunga
kungaitwa
kunganidza
kungarikira
kungava
kunge
kungile
kungo
kungoruma
kungoti
kunguni
kungurutsa
kungushula
kungushuzi
kungwara
kungwarira
kungwenda
kungwengwe
kunhadzira
kunhara
kunharaunda
kunhengo
kunhoka
kunhonga
kunhoroondo
kunhu
kunhuhwa
kunhuwa
kunhuwidza
kuni
kuniger
kunigeria
kuno
kunobata
kunobatsira
kunobikwa
kunobuda
kunobudisa
kunobva
kunobvisa
kunoda
kunodaidzwa
kunodanwa
kunodarika
kunodira
kunodya
kunodzidza
kunoenderana
kunoenderera
kunofanana
kunofanirwa
kunogara
kunogona
kunogoverwa
kunoita
kunoitawo
kunoitika
kunoitikawo
kunoitwa
kunokonzera
kunokonzerwa
kunokunda
kunokurudzirwa
kunokwanisa
kunonga
kunongedza
kunongedzera
kunongedzwa
kunonoka
kunonotsa
kunonwa
kunonyanya
kunonzi
kunoona
kunoonekera
kunoonekwa
kunopa
kunopera
kunoperera
kunopesana
kunopimwa
kunopinda
kunopisa
kunoputsa
kunoramba
kunoratidza
kunoratidzwa
kunoreva
kunoroorwa
kunorth
kunorura
kunorwa
kunosakisa
kunosangana
kunosanganisira
kunoshamisa
kunoshanda
kunoshandisa
kunoshandiswa
kunosiyana
kunosvika
kunotanga
kunotaurwa
kunotenga
kunotevedza
kunotevedzwa
kunotevera
kunoti
kunotora
kunotsamira
kunotsvaga
kunouraya
kunouya
kunova
kunovharwa
kunowanika
kunowanikwa
kunowanzo
kunowedzera
kununa
kununganya
kununura
kunwa
kunwara
kunwira
kunwiririra
kunwisa
kunya
kunyado
kunyadzisa
kunyagwe
kunyahwaira
kunyaira
kunyakatika
kunyamura
kunyanga
kunyangarika
kunyangata
kunyange
kunyangira
kunyangwe
kunyangwezvo
kunyanya
kunyanyayidza
kunyara
kunyaradza
kunyarara
kunyatsofema
kunyauka
kunyautsa
kunyaya
kunyedza
kunyeeza
kunyeka
kunyemwerera
kunyenga
kunyengedza
kunyengera
kunyenguka
kunyepa
kunyepedzera
kunyepera
kunyera
kunyerereka
kunyereteka
kunyeya
kunyika
kunyikwa
kunyima
kunyina
kunyinura
kunyisa
kunyon
kunyongana
kunyonganisa
kunyongodeka
kunyongoroka
kunyora
kunyorera
kunyorerana
kunyoresa
kunyorova
kunyorwa
kunyuka
kunyungudika
kunyunguditsa
kunyunguduka
kunyunyuta
kunyura
kunyurura
kunyutsa
kunywa
kunze
kunzekaira
kunzi
kunzvenga
kunzvera
kunzvimbo
kunzwa
kunzwanana
kunzwika
kunzwikwa
kunzwisisa
kunzwisisana
kunzwisisika
kunŋ
kuoma
kuomba
kuombeka
kuombera
kuomerwa
kuomesa
kuona
kuonana
kuoneka
kuonekwa
kuonesana
kuonga
kuongorora
kuongororwa
kuonza
kuora
kuorora
kuostireriya
kuota
kupa
kupadura
kupaka
kupakana
kupakata
kupakati
kupakatira
kupakura
kupala
kupalila
kupamba
kupambadzirwa
kupambana
kupambanitsa
kupambara
kupambazuka
kupambazura
kupambuka
kupamha
kupamhama
kupamhidza
kupamhidzira
kupanda
kupandana
kupandira
kupanduka
kupandukira
kupanga
kupangama
kupangana
kupangidza
kupangira
kupangura
kupapa
kupaparika
kupara
kuparadza
kuparadzana
kuparadzanisa
kuparadzaniswa
kuparadzira
kuparadzirwa
kuparadzwa
kuparamura
kuparara
kupararana
kupararira
kuparidza
kuparira
kuparura
kupasa
kupasura
kupata
kupatarika
kupatsana
kupatsanuka
kupatsanura
kupatsanurana
kupatsanurwa
kupauka
kupavhurira
kupaza
kupedza
kupembedza
kupembenuka
kupembera
kupemberera
kupemha
kupenda
kupendha
kupenengura
kupenga
kupengereka
kupenuka
kupenya
kupepa
kupepera
kupepereka
kupeperuka
kupepeta
kupepuka
kupera
kupereka
kuperekedza
kuperera
kupereterwa
kuperevedza
kuperezeka
kupesa
kupesana
kupesanisa
kupesva
kupesvedzera
kupeta
kupetana
kupetauka
kupetera
kupetwa
kupfachukira
kupfava
kupfavisa
kupfeka
kupfekenura
kupfekera
kupfekwa
kupfeva
kupfidza
kupfidzisa
kupfimba
kupfimbika
kupfipika
kupfira
kupfirira
kupfozoka
kupfudza
kupfugama
kupfuka
kupfuma
kupfumba
kupfumbata
kupfumbira
kupfumisa
kupfungaira
kupfunha
kupfunya
kupfunyira
kupfupika
kupfupisa
kupfupiswa
kupfura
kupfurikidza
kupfuta
kupfutsa
kupfuura
kupfuurira
kupfuwa
kupfuya
kupfuyiwa
kuphala
kuphalira
kuphenduka
kuphoula
kupi
kupidigura
kupihwa
kupika
kupikisa
kupikisana
kupikiswa
kupilinga
kupima
kupimirana
kupimwa
kupinda
kupindana
kupindira
kupindirana
kupindiridza
kupinduka
kupindura
kupindurudza
kupindwa
kupinga
kupingudza
kupingula
kupingura
kupinimidza
kupiningura
kupinza
kupipa
kupira
kupirikira
kupisa
kupiswa
kupita
kupiwa
kupo
kupodza
kupoka
kupokana
kupomba
kupombera
kupombonoka
kupombonora
kupomera
kupomerwa
kupona
kuponda
kupondwa
kuponesa
kuponeswa
kuponiwa
kupopota
kupopotana
kupopotedzana
kupora
kuporesa
kuportuguese
kuposa
kuposana
kuposha
kuposhana
kupota
kupotera
kupoteredza
kupotereka
kupoterera
kupotsa
kupotsera
kupoya
kupuhwa
kupukaira
kupukuta
kupula
kupumha
kupumhura
kupundira
kupundudza
kupunga
kupungudza
kupunguka
kupungura
kupunungura
kupunyaira
kupunyuka
kupunza
kupupira
kupupuma
kupupurutswa
kupura
kupurinda
kupurira
kupurura
kupururudza
kupuruzira
kupusa
kuputa
kuputika
kuputira
kuputsa
kuputudza
kuputwa
kupuvira
kupwa
kupwanya
kupweva
kuqambaya
kura
kuradzika
kuragwa
kuraidza
kuraira
kurairidza
kuramba
kurambana
kurambidza
kurambidzwa
kuramwa
kuranda
kurandura
kurandutsira
kuranga
kurangana
kurangarira
kurangarirwa
kurani
kurapa
kurapanura
kurapiwa
kurapwa
kurara
kurarama
kurarika
kurarira
kurasa
kurasha
kurasika
kurasikirwa
kurasisa
kuratidza
kuratidzika
kuratidzira
kuratidzwa
kuraudza
kuraura
kurava
kuravana
kuravira
kuravura
kurawura
kurayira
kure
kureba
kurebesa
kurebwa
kuredza
kureedstilt
kurefu
kurega
kuregerera
kurehwa
kurei
kurema
kuremara
kurembedza
kuremekedza
kuremekedzwa
kuremera
kurenga
kurepublic
kurera
kurereka
kurerekera
kureruka
kurerutsa
kuresva
kureva
kurevanya
kurevawo
kurevera
kureverera
kurevesa
kureya
kureyana
kurezva
kurhebwa
kurhodes
kurhodesia
kuri
kuria
kuribheriya
kuridza
kuridzwa
kuriga
kuriita
kurikita
kurima
kurimwa
kurinda
kurindira
kuringa
kuringana
kuringanisa
kurinopasi
kuripa
kuripira
kuripo
kuriputoni
kuripwa
kurira
kuririma
kurisa
kurishandisa
kurivara
kurodza
kurohesha
kurohwa
kuronda
kurondana
kurondedzera
kuronga
kurongeka
kurongera
kurongerwa
kurongwa
kuronza
kuronzera
kuroodza
kuroora
kuroorana
kuroorwa
kuropafadza
kurota
kurova
kurovana
kurovedza
kurovedzwa
kurovera
kuroya
kurozva
kurpfalz
kuru
kuruboshwe
kurudyi
kurudzanisa
kurudzi
kurudziro
kuruka
kurukutika
kurukwa
kuruma
kurumbidza
kurumbidzwa
kurumbira
kurume
kurumura
kurumwa
kurunda
kurunga
kurungama
kurungamika
kurungamisa
kurunganya
kurunza
kurunzira
kururama
kururamisa
kururamisira
kururimi
kururudza
kurusape
kurussia
kurutsa
kuruva
kuruvara
kuruvira
kuruwa
kuruzhinji
kurva
kurwa
kurwadza
kurwadzisa
kurwadziwa
kurwanda
kurwara
kurwira
kurwisa
kurwisana
kurwiswa
kurwizi
kurya
kusa
kusaal
kusabereka
kusada
kusadya
kusadzikama
kusaenzana
kusafa
kusagadzikana
kusagara
kusagona
kusagutsikana
kusainzi
kusaita
kusaka
kusakamara
kusakara
kusakaza
kusakisa
kusakura
kusakwana
kusala
kusalala
kusalisbury
kusamba
kusambaza
kusambazika
kusamhura
kusana
kusanangura
kusanaya
kusandudzira
kusandura
kusanga
kusangalala
kusangana
kusanganisa
kusanganisira
kusanganisirwa
kusanganiswa
kusangaya
kusara
kusarudza
kusarudzwa
kusarura
kusarurwa
kusasa
kusasadzira
kusasauka
kusasika
kusasimba
kusasimira
kusatenda
kusatenderwa
kusati
kusatwasuka
kusatya
kusauka
kusaungana
kusava
kusavapo
kusawirirana
kusaziva
kuse
kuseama
kusefa
kuseka
kusekerera
kusekesa
kusekwa
kusema
kusenda
kusendama
kusendeka
kusendekera
kusendenudza
kusenegal
kusenga
kusengudza
kusenguka
kusepa
kusera
kuseredza
kuserera
kuserereka
kusereza
kuseri
kuseruka
kusesa
kusesedza
kusetsa
kuseva
kusevenza
kusevura
kushaika
kushaikwa
kushaiwa
kushama
kushamba
kushambadza
kushambadzira
kushambidza
kushambira
kushamisika
kushamiswa
kushamwaridzana
kushana
kushanda
kushandika
kushandira
kushandirwa
kushandisa
kushandisirwa
kushandiswa
kushandudza
kushanduka
kushandura
kushandurudza
kushandurwa
kushandwa
kushanya
kushanyira
kushara
kushata
kushatirwa
kushaura
kushava
kushaya
kushayika
kushayikwa
kushayiwa
kusheedza
kushevedza
kushevedzera
kushi
kushigida
kushinga
kushingaira
kushingirira
kushinyira
kushisha
kushoko
kushoma
kushomeka
kushona
kushongedza
kushonha
kushonongora
kushora
kushoropodza
kushorwa
kushumira
kushumirwa
kushungurudza
kushungurudzwa
kushupa
kushura
kushure
kushusha
kushushikana
kushuva
kushuvira
kusierra
kusiirwa
kusika
kusikwa
kusima
kusimba
kusimbisa
kusimika
kusimira
kusimudza
kusimudzira
kusimuka
kusimukira
kusina
kusingaperi
kusinina
kusipitika
kusiri
kusiya
kusiyana
kusiyanisa
kusiyaniswa
kusiyiwa
kusodza
kusoka
kusola
kusoma
kusomalia
kusona
kusongola
kusora
kusorana
kusouth
kusouthern
kust
kusudan
kusudhani
kusuduruka
kusuka
kusuma
kusumba
kusunda
kusundira
kusunga
kusungira
kusungunuka
kusungunura
kusungwa
kusunhura
kusununguka
kusunungura
kusunura
kusunzumara
kusura
kusurudza
kusuruka
kusurukirwa
kusurumuka
kusuruvara
kususa
kususukidza
kusvava
kusveta
kusvetuka
kusviba
kusvibiswa
kusvika
kusvikika
kusvikira
kusvikwa
kusvina
kusvinudza
kusvinuka
kusvinura
kusvinyanga
kusvipa
kusvira
kusvirwa
kusvitsa
kusvitswa
kusvoda
kusvomhoka
kusvomhora
kusvotesa
kusvotoka
kusvusvura
kusvuta
kusvuura
kuswa
kuswedera
kuswera
kuswitzerland
kut
kuta
kutaaha
kutaaruuka
kutadza
kutadzira
kutadzisa
kutafuna
kutaha
kutaika
kutaila
kutaka
kutakana
kutakanura
kutakunya
kutakura
kutakurira
kutakurwa
kutala
kutaliha
kutalika
kutama
kutamba
kutambala
kutambalala
kutambanudza
kutambanuka
kutambanura
kutambarara
kutambaza
kutambika
kutambira
kutambisa
kutambudza
kutambudzika
kutambudzwa
kutambura
kutamira
kutamisa
kutamuka
kutana
kutanamara
kutanda
kutandabala
kutandalika
kutandanyara
kutandara
kutandauka
kutandavara
kutandika
kutandira
kutanga
kutanganyika
kutangira
kutangwa
kutanha
kutantalika
kutanya
kutanzania
kutapa
kutapidza
kutapira
kutapudza
kutapukira
kutapukirwa
kutapurira
kutapurirana
kutapurirwa
kutara
kutaramuka
kutarangana
kutaridza
kutaridzika
kutaridzwa
kutarira
kutarirwa
kutarisa
kutarisana
kutarisira
kutarisirwa
kutarisisa
kutariswa
kutarwa
kutatamuka
kutatamura
kutaudzana
kutaura
kutaurira
kutaurirana
kutauro
kutaurwa
kutawa
kutawala
kutaya
kutayika
kuteeka
kuteera
kuteerera
kuteereresa
kuteka
kutekaira
kutekenya
kutekenyedza
kutekeshera
kuteleka
kutema
kutemba
kutembedzana
kutemera
kutemwa
kutenda
kutendeka
kutendela
kutendera
kutenderana
kutenderedza
kutendereka
kutenderera
kutendeuka
kutenga
kutengana
kutengera
kutengesa
kutengeserana
kutengeswa
kutengezana
kutengwa
kutepana
kutepfenyurwa
kutepuka
kuterama
kuteramisa
kutesa
kutesva
kutesvera
kuteta
kutevedza
kutevedzana
kutevedzera
kutevedzerwa
kutevedzwa
kutevera
kuteverana
kuteverwa
kuteya
kuthe
kuti
kutima
kutimba
kutimhaira
kutimidza
kutindika
kutinha
kutiza
kutizira
kutizisa
kutlisa
kutoa
kutodza
kutodzana
kutodzaniswa
kutogo
kutoka
kutokonora
kutola
kutolwa
kutoma
kutomba
kutonda
kutondeka
kutondera
kutonga
kutongana
kutongola
kutongwa
kutonhodza
kutonhora
kutonhorera
kutonhorwa
kutonona
kutonongora
kutoodza
kutora
kutoredzera
kutorwa
kutota
kutotanga
kutotota
kutotsvaga
kutova
kutowa
kutsa
kutsaka
kutsakatika
kutsambuka
kutsamwa
kutsanangudza
kutsanangura
kutsanangurwa
kutsananza
kutsangudza
kutsangura
kutsanya
kutsara
kutsarira
kutsaru
kutsarukana
kutsauka
kutsaukana
kutsaura
kutsauranisa
kutsauraniswa
kutsawura
kutsazana
kutsemura
kutsenga
kutsetsa
kutsetsenura
kutseyama
kutshulu
kutsi
kutsidza
kutsigira
kutsigirwa
kutsika
kutsikinura
kutsikisa
kutsikwa
kutsime
kutsimwaira
kutsindika
kutsindira
kutsindirika
kutsindirwa
kutsinha
kutsinhana
kutsinhanisa
kutsinhira
kutsinza
kutsinzinya
kutsira
kutsiura
kutsiva
kutsivama
kutsivira
kutsoka
kutsokera
kutsora
kutsoropodza
kutsumba
kutsunga
kutsungirira
kutsutsumwa
kutsva
kutsvaga
kutsvagisa
kutsvagurudzwa
kutsvagwa
kutsvaira
kutsvaka
kutsvakwa
kutsvara
kutsvedza
kutsveruka
kutsveta
kutsvetera
kutsveyama
kutsvinda
kutsvitsa
kutsvoda
kutsvuka
kutsvukira
kutsvukuruka
kutswa
kutswanya
kutu
kutubuka
kutufula
kutuhwina
kutuk
kutuka
kutukana
kutukuta
kutula
kutulula
kutuma
kutumba
kutumbuka
kutumbula
kutumbura
kutumidza
kutumidzwa
kutumira
kutunda
kutunga
kutungamira
kutungidza
kutungira
kutungwa
kutunhidzira
kutunilwa
kutura
kuturika
kuturikira
kuturikirwa
kuturikwa
kuturuka
kuturukira
kuturura
kutusa
kutushuka
kutushura
kututa
kututira
kututsa
kututuma
kututunura
kutuvidza
kutuzuka
kutwa
kutwala
kutwara
kutwasuka
kutwila
kutya
kutyaira
kutyisa
kutyisidzira
kutyisidzirwa
kutyoka
kutyora
kuu
kuudza
kuudzadombo
kuudzwa
kuuganda
kuuk
kuuka
kuuluka
kuumambo
kuumba
kuumbanidza
kuumbika
kuumbwa
kuunda
kuundura
kuunga
kuungana
kuunganidza
kuunganidzwa
kuunited
kuuniversity
kuunza
kuunzika
kuuraiwa
kuuraya
kuurayiwa
kuuruguay
kuuruka
kuurungana
kuus
kuusa
kuutongi
kuutsa
kuuya
kuuzuru
kuva
kuvabereki
kuvabvumira
kuvadzidzi
kuvagari
kuvaima
kuvaka
kuvakadzi
kuvakalanga
kuvakirwa
kuvakuru
kuvakwa
kuvala
kuvalozi
kuvamba
kuvambira
kuvamwe
kuvana
kuvandama
kuvandira
kuvandudza
kuvandudzwa
kuvanga
kuvanhu
kuvanza
kuvapa
kuvapo
kuvara
kuvaraidza
kuvarume
kuvarungu
kuvarura
kuvashandi
kuvashona
kuvata
kuvatengi
kuvatsvake
kuvava
kuvavarira
kuvavira
kuvaviwa
kuvawo
kuvaya
kuvazulu
kuve
kuvenga
kuvengana
kuvepo
kuverenga
kuverengeka
kuverengera
kuverengwa
kuverereka
kuvesa
kuveura
kuveza
kuvhaira
kuvhakacha
kuvhara
kuvharidzirwa
kuvhariridzwa
kuvheneka
kuvhika
kuvhima
kuvhina
kuvhiringa
kuvhiringika
kuvhiya
kuvhota
kuvhuna
kuvhunduka
kuvhunura
kuvhura
kuvhurika
kuvhurwa
kuvhuvhuta
kuvictoria
kuviga
kuvigwa
kuvimba
kuvimbika
kuvimbisa
kuvina
kuvinga
kuvira
kuviri
kuvirikira
kuvirima
kuvirisa
kuviruka
kuvuka
kuvula
kuvumbika
kuvunda
kuvusa
kuvutswana
kuvwa
kuwa
kuwacha
kuwadzana
kuwadzura
kuwait
kuwaka
kuwamba
kuwana
kuwanda
kuwandira
kuwandisa
kuwani
kuwanika
kuwanikwa
kuwanisa
kuwanza
kuwanzana
kuwaridza
kuwarika
kuwarira
kuwarura
kuwasha
kuwawa
kuwaza
kuwedzera
kuwedzerwa
kuweerera
kuwerengwa
kuweruza
kuwest
kuwira
kuwirirana
kuwisa
kuwokera
kuwoma
kuwomarara
kuwomba
kuwombeka
kuwombera
kuwombola
kuwomesa
kuwona
kuwonda
kuwondoroka
kuwonekera
kuwonekwa
kuwonesana
kuwonga
kuwongorora
kuwora
kuworora
kuwumba
kuwuna
kuwunda
kuwundura
kuwunga
kuwuruka
kuwurura
kuwurutsa
kuxapa
kuya
kuyamba
kuyambira
kuyambuka
kuyambukira
kuyambutsa
kuyamura
kuyamwa
kuyamwisa
kuyanana
kuyananisa
kuyangarara
kuyanginenga
kuyanika
kuyanura
kuyaruka
kuyedza
kuyedzwa
kuyemedza
kuyemeni
kuyenda
kuyenzana
kuyenzanisa
kuyera
kuyere
kuyereka
kuyerekana
kuyerera
kuyererana
kuyerwa
kuyeuka
kuyeva
kuyimba
kuyunivhesiti
kuyuropu
kuza
kuzadza
kuzadzisa
kuzama
kuzamba
kuzambia
kuzambira
kuzana
kuzanga
kuzangaza
kuzara
kuzarira
kuzarura
kuzasi
kuzazambura
kuzbc
kuzembera
kuzenge
kuzere
kuzeya
kuzeza
kuzhamba
kuzhe
kuzhinji
kuzhinya
kuzika
kuzimbabwe
kuzipa
kuzipirwa
kuzipisa
kuzira
kuziririka
kuzita
kuziva
kuzivikanwa
kuzivira
kuzivisa
kuzivisana
kuziwumbe
kuziya
kuzodza
kuzola
kuzomudzosera
kuzonga
kuzongolola
kuzoona
kuzopedza
kuzopinda
kuzora
kuzorora
kuzorwa
kuzoshanda
kuzoshandiswa
kuzotora
kuzova
kuzungulira
kuzungulusa
kuzungura
kuzunguza
kuzunza
kuzuva
kuzuwa
kuzvambaradza
kuzvambarara
kuzvara
kuzvarira
kuzvarwa
kuzvebura
kuzvibata
kuzvida
kuzvidavirira
kuzvidya
kuzvidza
kuzvidzivirira
kuzvidzora
kuzvidzwa
kuzviisa
kuzviita
kuzvika
kuzvikoro
kuzvimanikidza
kuzvimba
kuzvimbirwa
kuzvina
kuzvinhu
kuzvininipisa
kuzvipamhazve
kuzvipingura
kuzvipira
kuzvirimwa
kuzvirwere
kuzvisarudzira
kuzvitarisira
kuzviti
kuzvitonga
kuzviuraya
kuzvomora
kuzvuva
kva
kw
kwa
kwaaigara
kwaakabva
kwaakaita
kwaakaitwa
kwaamai
kwaari
kwababa
kwabanye
kwachihota
kwacho
kwadzo
kwaenda
kwagutu
kwai
kwaigara
kwaigona
kwainoitwa
kwairi
kwaishandiswa
kwaita
kwaitika
kwaitwa
kwaiva
kwaive
kwaivewo
kwaizvozvo
kwajesu
kwaka
kwakabatana
kwakabuda
kwakabva
kwakabvisa
kwakadai
kwakaderera
kwakadzika
kwakadziva
kwakaenzana
kwakafanana
kwakaguma
kwakaipisisa
kwakaita
kwakaitika
kwakaitwa
kwakakonzera
kwakakonzereswa
kwakakonzerwa
kwakakosha
kwakakura
kwakakurudzira
kwakakwana
kwakamuita
kwakanaka
kwakanakira
kwakananga
kwakanga
kwakange
kwakanyanya
kwakanyanyisa
kwakanzi
kwakaoma
kwakaperera
kwakapesana
kwakapinza
kwakare
kwakarongwa
kwakasarudzwa
kwakashevedzerwa
kwakasimba
kwakasiyana
kwakasununguka
kwakatanga
kwakatevera
kwakati
kwakatozogoneka
kwakauya
kwakava
kwakave
kwakawanda
kwakawanikwa
kwakazara
kwake
kwako
kwakutalika
kwakutama
kwala
kwale
kwama
kwamambo
kwamazuva
kwamba
kwamurehwa
kwamuri
kwamusana
kwamutare
kwamutoko
kwamwari
kwamwedzi
kwan
kwana
kwanaya
kwanda
kwande
kwandiri
kwanditi
kwandza
kwanga
kwangu
kwangwali
kwangwangwa
kwangwazhi
kwanisa
kwanise
kwanyama
kwanza
kwanzi
kwapa
kwapera
kwara
kwaranta
kwarinonzi
kwarinoshandiswa
kwaro
kwarusape
kwaseke
kwasviba
kwasvika
kwata
kwatara
kwati
kwatiri
kwaunoperera
kwauri
kwauya
kwava
kwavakaita
kwavanogara
kwavanotaura
kwavari
kwave
kwavo
kwawa
kwawanikwa
kwawo
kwaya
kwayedza
kwayo
kwazvimba
kwazvino
kwazvo
kwe
kweafrica
kweafrika
kweafurika
kweanorwisa
kweantarctica
kweasia
kwebasa
kwebede
kwebhaibheri
kweboka
kwebonde
kwebu
kwebve
kwechamhembe
kwechari
kweche
kwechibereko
kwechiedza
kwechikonzero
kwechikwatamabwe
kwechimbwamupengo
kwechimwe
kwechindau
kwechinguva
kwechinguvana
kwechinhu
kwechinyakare
kwechirevo
kwechiro
kwechirongwa
kwechiropa
kwechirwere
kwechishona
kwechitatu
kwechitendero
kwechiumbwa
kwechivanhu
kwecovid
kwede
kwedenda
kwedivi
kwedoo
kwedoro
kwedu
kwedumbu
kwedunhu
kwedyitenga
kwedzva
kweeurope
kweezhiya
kwefosi
kwefrance
kwefuranzi
kwega
kweganda
kwegasi
kwegomo
kwegore
kwegoridhe
kwegurumwandira
kweguta
kweguvhu
kwegwaro
kwegwenga
kweharare
kwehondo
kwehubble
kwehujoto
kwehukama
kwehumambo
kwehunhu
kwehunyanzvi
kwehupenyu
kwehupfumi
kwehuremu
kwehuro
kwehusimbe
kwehutachiona
kwehutachiwana
kwehutano
kwehuwandu
kweichi
kweise
kweiyo
kweizvi
kweizvozvo
kwejerusarema
kwejohannesburg
kwekereke
kwekeruro
kwekubatana
kwekudzokororazve
kwekufamba
kwekufambidzana
kwekufanana
kwekugara
kwekugona
kwekukura
kwekunge
kwekunyora
kwekunze
kwekupararira
kwekupedzisira
kwekushaikwa
kwekushanda
kwekushandiswa
kwekusiyana
kwekutamba
kwekutanga
kwekutenda
kwekuti
kwekutonga
kwekutumidza
kwekuva
kwekuve
kwekuwedzera
kwekwe
kwekwema
kwema
kwemaawa
kwemabasa
kwemabhantu
kwemabhizinesi
kwemabwe
kwemadonhwe
kwemadvd
kwemadzimai
kwemafuta
kwemagetsi
kwemahawa
kwemaitiro
kwemakore
kwemakumbo
kwemakungwa
kwemamiriro
kwemamwe
kwemana
kwemaoko
kwemari
kwemarudzi
kwemashandisirwo
kwemashizha
kwemashoko
kwemashonaland
kwemasikati
kwemasimba
kwemask
kwematatimendi
kwemativi
kwematombo
kwemauto
kwemavara
kwemavhiki
kwemawere
kwemazamu
kwemazana
kwemaziso
kwemazita
kwemazuva
kwemazuvano
kwemazuvaose
kwemazwi
kwemba
kwemberengi
kwembeu
kwemboro
kwembutu
kwemesopotamia
kwemhanza
kwemhepo
kwemhomho
kwemhuka
kwemhute
kweminda
kwemishonga
kwemitauro
kwemitemo
kwemitengo
kwemiti
kwemombe
kwemoto
kwemoyo
kwemozambiki
kwemubatanidzwa
kwemuchacha
kwemudhuri
kwemuenzanisi
kwemugwagwa
kwemukadzi
kwemukomana
kwemumwe
kwemunhu
kwemunhukadzi
kwemuromo
kwemurume
kwemusha
kwemushonga
kwemusoro
kwemutare
kwemutauro
kwemutemo
kwemutengo
kwemutsazanisi
kwemutsipa
kwemutumbi
kwemutungamiri
kwemuvandu
kwemuviri
kwemuzimbabwe
kwemvura
kwemwaka
kwemwana
kwemwanasikana
kwemwedzi
kwemweya
kwenda
kwendege
kwendiri
kwenguva
kwenhamba
kwenhambwe
kwenharaunda
kwenhengo
kwenhoroondo
kwenhumbi
kwenjanji
kwenyama
kwenyaya
kwenyeredzi
kwenyika
kwenyu
kwenzanga
kwenzira
kwenziyo
kwenzizi
kwenzvimbo
kwepamusoro
kwepandemic
kwepasi
kwepasirese
kwepasirose
kwepfungwa
kwepoland
kweprime
kwepuresha
kwere
kwerede
kwerendende
kwerere
kwerinopasi
kweroma
kweropa
kweru
kwerudzi
kwerutsigiro
kweruvara
kweruzhinji
kwerwizi
kwesadza
kwesahara
kwesainzi
kwese
kwesere
kweseredza
kweshoko
kweshomwe
kwesimba
kwesimbi
kwesouth
kwespidhi
kwesudhani
kwesva
kwesvondo
kwetafura
kwetanzania
kwete
kwetiri
kwetongola
kwetoni
kwetsika
kweupenyu
kweuremu
kweuropi
kweutachiona
kweutano
kweva
kwevabereki
kwevajudha
kwevakadzi
kwevamwe
kwevana
kwevanguni
kwevanhu
kwevaranda
kwevari
kwevarume
kwevarungu
kwevashandi
kwevashona
kwevatema
kwevatorwa
kwevhiki
kwevhu
kwevietnam
kwezambezi
kwezambia
kwezana
kwezera
kwezhizha
kwezimbabwe
kweziso
kwezita
kweziwumbe
kwezo
kwezuva
kwezvakatipoteredza
kwezvezvipfeko
kwezvidyo
kwezviitiko
kwezvikonzero
kwezvinhu
kwezvinyorwa
kwezviratidzo
kwezvirimwa
kwezvirongwa
kwezvirwere
kwezviuru
kwezvivakwa
kwezvivi
kwezvombo
kwezvose
kwezwi
kwi
kwindi
kwindingwi
kwingwiri
kwinya
kwita
kwl
kwo
kwoita
kwoitawo
kwokupedzisira
kwokuti
kwoleka
kwombeka
kwomuri
kwomwedzi
kwon
kwongela
kwonka
kwonzi
kwose
kwota
kwotevera
kwouya
kwozoti
ky
kyalo
kyoto
kyrgyzstan
kyubhu
kyung
kɔ
kə
kɛm
kɨ
kɨndzu
kɩɖaʋ
kɪ
kʊ
l
la
lab
label
labia
labor
laboratory
labour
labourer
labrador
labs
labyrinth
lack
lacking
lactea
lad
ladder
laden
ladle
lady
laetitia
lagoon
lagos
lagwan
lahla
laid
lair
lakata
lakatango
lake
lakes
lakhe
lala
lam
lama
lamba
lambe
lambert
lambya
lame
lameck
lameness
lament
lamentation
lamenting
lamp
lampstand
lamula
lance
lanceolata
lancet
land
landa
landform
landing
landlord
landolphia
lands
landscape
landslide
landula
lane
lang
langa
langi
langton
language
languagelessons
languages
languish
lanka
lankan
lannea
lantana
lantern
lao
laos
laprensa
lar
large
largeness
larger
laro
larry
larva
larynx
las
lash
last
lasted
lasting
lastsword
late
latent
later
lateral
latifolius
latimer
latin
latitude
latrobe
latvia
lau
laud
laugh
laughing
laughs
laughter
laula
launch
laura
laurent
lauryn
law
lawa
lawful
lawrance
lawrence
laws
lawsuit
lawyer
laxed
lay
layer
layers
laying
lazarus
lazily
laziness
lazio
lazy
lb
lc
lcd
le
lea
lead
leader
leaders
leadership
leading
leads
leaf
leaflet
leafy
league
leah
leak
lean
leander
leaning
leap
learn
learned
learner
learning
least
leather
leave
leaved
leaves
leaving
lebanon
lebogang
lecture
led
ledin
lee
leech
lees
lefa
left
leg
legacy
legal
legend
legendary
legere
legged
legrand
legs
leishmaniasis
leisure
leka
leke
lela
lele
leli
lelo
lelozwi
lemba
lemon
lemoni
lemurs
lend
lenga
lengo
length
lengthen
lengthwise
lenje
lentil
leo
leon
leonard
leone
leonotis
leopard
leopold
leper
lepidolite
lepisanthes
leprosy
lerato
les
lesedi
lesley
leslie
leso
lesotho
less
lessen
lesser
lessing
lesson
lessons
lesua
let
letitia
letter
letters
letu
leucomelas
leva
levande
levant
level
levels
lever
levirate
levitation
levy
lewa
lewis
lexicon
leyoni
leza
lezhin
li
lia
liability
liable
liar
lib
libafu
libala
libanda
libenge
liberal
liberally
liberate
liberation
liberia
libertad
liberty
libra
library
libreville
libya
lice
lichela
lick
lid
lie
liechtenstein
lies
life
lifestyle
lifetime
lift
lifted
lifting
ligatures
light
lighted
lighter
lightest
lightly
lightness
lightning
lights
lightweight
ligi
lihaka
liikhumi
liilolero
lijela
lika
likaka
likango
like
likely
likeness
likes
likewise
liking
likolo
likonde
likumbi
lil
lilanga
lilian
lillian
lilly
lilowa
lilowe
lilundu
lily
lim
lima
limb
limba
limbs
lime
limestone
limit
limited
limits
limo
limp
limpopo
lina
linda
lindilo
lindiwe
line
lineage
liner
lines
linet
linga
lingai
lingala
lingana
linganika
linganiza
linganya
linger
linguistic
linguistics
lingwa
lini
lining
link
linking
links
lino
lintel
lion
lionel
lions
lip
lips
liquid
liquids
liquor
lisa
lisbon
liseberg
lisekwe
lisette
liso
lisoka
lisolo
lisp
list
listen
listening
listless
lists
lit
lita
litapa
litawa
liter
literally
literary
literature
lithium
lithuania
litigation
litongo
little
littleness
litwa
liuto
livable
live
lived
livelingua
liver
lives
livestock
livet
living
livingstone
livre
liwa
lizard
ljubljana
ljus
ll
llc
lle
ller
llion
lloyd
lo
load
loaded
loads
loaf
loafer
loan
lobengula
lobo
lobola
loc
locadia
local
locale
locality
located
location
locative
lock
locke
locust
locusts
lodge
loft
lofty
log
logarithm
logba
logic
logistics
logo
logs
logy
loice
loin
loincloth
loins
loire
loiter
loitering
lokhu
lokua
lola
lolera
lolo
lom
lomba
lomntwana
lomo
lomuntu
lomwe
lonchocarpus
londa
london
lone
loneliness
lonely
lonesome
lonesomeness
long
longa
longe
longepedunculata
longer
longing
longipes
longitude
longo
lonzi
lonzilo
lonzingo
loo
loof
look
looked
looking
lookout
looks
loose
loosely
loosen
looseness
loosening
loosing
loot
lop
lope
lopit
lopper
loquacity
loquat
lord
loricifera
loricula
lorraine
los
lose
losing
loss
lost
lot
loter
lotion
lotpublications
lots
loud
louder
loudest
loudly
louis
louse
louwsburg
lov
love
loved
lovely
lovemore
loveness
lover
loves
loving
low
lowa
lowe
lower
lowest
lowland
lowu
loyalty
loyce
lozi
lp
lpg
lska
ltd
lu
lua
luala
luamba
luambo
luambu
luambua
luanda
luba
lubange
lubhelu
lubilo
lubukusu
lubwisi
luc
luchazi
lucia
luck
lucky
lucy
luema
luftwaffe
luganda
lugbara
luggage
lugha
lugungu
lugwalo
lugwere
luhala
luhlaza
luhya
lui
luis
luisa
luka
lukasa
lukau
luke
lukoa
lukone
lukuaku
lukuma
lukungu
lukuni
lukuta
lukwakwa
lulaka
lulama
lulimi
lulondo
lulu
lum
lumba
lumbana
lumbar
lumberjack
lumbisya
lumbusya
lumonso
lumoxi
lump
lumpur
luna
lunacy
lunar
lunatic
lunch
lunda
lundika
lundu
lundumalika
lunene
lung
lunga
lungs
lungu
lunya
lunyole
lunyolo
lunyoro
luo
luonde
lupane
lupasa
lupeta
lupi
lupili
lupita
lupondo
lurch
lure
luring
lurk
lusaka
lusamba
lusaya
lusembo
lusensa
lusere
lusese
lushinga
lusi
lusimo
lusoga
lusonga
lusongo
lusongola
lust
lustre
lususu
luta
lutali
lutangu
lute
lutete
luther
lutho
luti
lutombo
lutunda
lututu
luungi
luusoongole
luv
luvale
luvhimbi
luvhola
luwala
luwali
luwanga
luwangwa
luwengo
luwi
luwilo
luwo
lux
luxembourg
luzi
luzolo
luzoya
lw
lwa
lwala
lwanda
lwendo
lya
lydia
lye
lying
lyoba
lyon
lyric
lyrics
lyse
lɔ
lə
lənd
lɛ
lɩ
lɪ
lʊ
m
ma
maacids
maagents
maakiso
maali
maalibu
maalkali
maambo
maambonyina
maandiko
maandroid
maapuro
maarabhu
maari
maartist
maasa
maasha
maasi
maat
maatomu
maawa
maawubhamu
maawunzi
mababa
mabables
mabakanyira
mabala
mabanda
mabanga
mabanja
mabanze
mabapa
mabara
mabari
mabarikira
mabasa
mabasi
mabaso
mabatiro
mabatirwo
mabaya
mabayo
mabazi
mabebe
mabefuro
mabele
mabena
mabenge
mabesa
mabesha
mabeza
mabhachi
mabhadzi
mabhahari
mabhanan
mabhanana
mabhande
mabhanga
mabharadhi
mabharani
mabharukani
mabhatani
mabhazi
mabhegi
mabhenefiti
mabhero
mabhi
mabhii
mabhindauko
mabhiriyoni
mabhiza
mabhizimusi
mabhizinesi
mabhizinisi
mabhora
mabhuku
mabhureki
mabia
mabika
mabikirwo
mabiko
mabikwa
mabinda
mabinga
mabiri
mabiribidi
mabirira
mabiyangu
maboka
maboko
maboma
mabongo
mabota
mabubbles
mabugu
mabumbiro
mabungu
mabunha
mabura
maburi
mabuse
mabuta
mabutho
mabutu
mabuwa
mabuyu
mabvazuva
mabvi
mabviko
mabvirazuva
mabviriro
mabviro
mabvumbo
mabvumwa
mabvute
mabvuto
mabvuwa
mabwami
mabwe
mabweadziva
macalester
maccabees
macdonald
macedonia
macgonagle
machacha
machadu
machaka
machando
machanga
machani
machanzi
macharaga
machava
machaya
machayina
macheka
macheke
machela
machena
machende
machera
machere
machero
macheso
machete
machevhu
machinda
machine
machines
machinga
machingauta
machingura
machinjike
machipisa
machira
machiri
machiridza
machirika
machisa
machisi
machiti
macho
machongwe
machote
machumi
macibese
macittaattu
macmillan
macoloured
macompound
macompounds
maconde
mad
madaala
madade
madagascar
madagascariensis
madalitso
madambarefu
madambi
madamombe
madandadziva
madandira
madangure
madanha
madanhamakonyo
madara
madavo
made
madeko
madekurozwa
madekwana
madendere
madenderedzwa
madenge
madengo
madesa
madhagaska
madhagaskara
madhamu
madhanzi
madheira
madhidhizha
madhikausi
madhipatimendi
madhiri
madhizaini
madhongi
madhonza
madhora
madhorobha
madhuku
madhumbe
madiki
madilu
madimba
madimbu
madimikira
madimutsa
madin
madinda
madinge
madingindira
madira
madirano
madiro
madison
madiwa
madiya
madness
mado
madobole
madoka
madokeri
madokero
madoko
madomasi
madombwe
madondazuva
madondo
madonge
madongo
madonhwe
madoo
madora
madororo
madota
madrid
madudziro
madudzirwo
madungu
maduramazwi
maduro
madyangove
madyo
madzadza
madzasirudzi
madzembe
madzi
madzibaba
madzihwa
madzima
madzimai
madzimambo
madzinde
madzinga
madzingaidze
madzingira
madzingo
madzinza
madziro
madzishe
madzitateguru
madzitezvara
madziva
madzivadondo
madzivanzira
madziwa
madziya
madzonga
madzongwe
madzorera
madzoro
madzudzo
madzuka
madzvamuse
maelectromagnetic
maembe
maenza
maenzanhara
maenzymes
maepisodhi
maera
maereka
maererano
maerua
maesa
maezawa
mafa
mafambiro
mafariswa
mafaru
mafashamo
mafemo
mafesini
mafi
mafia
mafika
mafira
mafirimu
mafiso
mafiswa
mafo
mafomu
mafosi
mafu
mafuba
mafume
mafunda
mafunga
mafungiro
mafungo
mafuremu
mafurezi
mafuro
mafuta
mafutamhiri
mafutanhara
mafutarubwe
mafuwa
mafuwe
mafwe
magaa
magadziriro
magadzirirwo
magaka
magala
magalismontanum
magama
magamba
magan
maganga
magara
magariro
magaro
magasa
magasi
magaya
magayisa
magaza
magazine
magazini
magdalene
magege
magellanic
magen
magetsi
magezi
maggiore
maggot
maghalaksi
magic
magician
magistrate
magnate
magnesium
magnet
magnetic
magnitude
magnus
mago
magodo
magoga
magomba
magombedze
magombo
magonga
magongo
magonya
magonyo
magora
magoronga
magorwa
magova
magoveni
magret
magufu
magulu
magumba
magumbe
magumbeze
magumo
magunda
magungwa
magunje
magure
magusi
maguta
magutumukutu
magwa
magwada
magwaro
magwegwe
magwenga
magwenya
magwere
magwerekwete
magweta
magwete
mah
mahabhadhe
mahachi
mahaka
mahakurimwe
mahal
mahala
mahambo
mahanga
mahara
mahasa
mahatomu
mahawa
mahe
mahele
mahere
maheu
mahewu
mahlamvu
mahobi
mahobo
mahofisi
mahoganny
mahogany
mahoka
mahombe
mahombekombe
mahonga
mahorakora
mahoridhe
mahoro
mahosi
mahotera
mahumunya
mahuroro
mahute
mahuwe
mahwada
mahwani
mahwekwe
mahwemusi
mahwere
mahwerera
mahwi
mahwite
mahydrocarbons
mai
maiba
maidei
maids
maidza
maiguru
maikorosikopu
mail
main
maina
mainda
maindidze
maingi
maingire
mainland
mainly
mainstream
maintain
mainza
maira
mairi
maison
maisons
maita
maitikiro
maitiro
maitirwo
maiva
maive
maize
maizvozvo
majaja
majaji
majaka
majang
majani
majekiseni
majestic
majesty
maji
majiji
majola
majome
majonera
majonga
major
majora
majore
majority
majudah
majudha
majuru
majuta
maka
makadii
makadiiwo
makahadziko
makahanana
makahane
makaka
makakatanwa
makala
makalanga
makama
makamba
makambani
makambozvinzva
makamu
makamure
makanaka
makanda
makande
makandinzwanani
makandu
makandwa
makanga
makangara
makani
makano
makanyaire
makanza
makapa
makapinda
makara
makaramu
makaranga
makarau
makare
makarekare
makarenda
makari
makarichi
makaro
makarotsi
makarwe
makasa
makashu
makata
makati
makato
makatuni
makau
makava
makavi
makawa
makawo
makaya
make
makeba
makebe
makei
makeke
maker
makereke
makes
maketo
makhado
makhadziso
makhala
makhanani
makhelwani
makhuva
makhuwa
makilomita
making
makirabhu
makirasi
makiromita
makiwa
makiwani
mako
makoa
makobvu
makofi
makoji
makokera
makoko
makola
makoloni
makolotswani
makomba
makombe
makombiyuta
makombodzwa
makomborero
makombwe
makomo
makomva
makonde
makondekwa
makondero
makondo
makondomu
makone
makonga
makonge
makongo
makoni
makonje
makono
makonya
makonye
makonyo
makonza
makonzo
makonzwa
makoore
makopa
makope
makora
makore
makorekore
makoriya
makoro
makorokoza
makoronesi
makoronike
makosa
makosi
makota
makoto
makotore
makotorodzi
makotsa
makotsi
makova
makove
makovere
makovo
makovore
makowa
makoza
makristo
makristu
makua
makudo
makuhwa
makukumidzi
makukurudzi
makukutu
makumbanidzwa
makumbe
makumbi
makumbiro
makumbo
makumborenga
makumbu
makumi
makumikati
makumimairi
makumimamana
makumimana
makumimanhatu
makumimanomwe
makumimapfumbamwe
makumimasere
makumimashanu
makumimatanhatu
makumimatatu
makumimaviri
makumiviri
makunakuna
makundano
makunde
makundu
makunga
makungwa
makuni
makunike
makunzwa
makura
makuriro
makuru
makurusa
makuseni
makusha
makushe
makuta
makute
makuti
makutu
makuva
makuvaza
makuvire
makuvise
makuwa
makuwatsine
makuya
makuyu
makuza
makwai
makwakwa
makwanha
makwapa
makwara
makwata
makwatano
makwati
makwato
makwenzi
makwikwi
makwiro
makwita
makwito
mal
mala
malaba
malaccense
malachi
malady
malaika
malamba
malanga
malango
malaria
malawi
malawian
malay
malayalam
malaysia
male
malekano
malele
malema
malenda
males
mali
malice
malicious
maliciously
malign
malik
malika
malilo
malimo
malinga
malinke
malinki
malinks
mall
mallon
malmo
malo
malogic
malola
maloleka
malonda
malonga
malongo
malono
malotlopi
malowa
malrondda
malt
malta
malua
maluleke
malulu
malundu
malunga
malungo
maluta
malwa
malwanga
mama
mamagazini
mamaira
mamaki
mamakisi
mamana
mamanga
mamawe
mamba
mambakwedza
mambara
mambava
mambera
mambiri
mambise
mambo
mambokadzi
mambomavhudzi
mambure
mambwe
mamemba
mametals
mamhare
mamhasuru
mamiksitepi
mamina
mamineti
maminimini
maminitsi
mamirimita
mamirioni
mamirire
mamiriro
mamiriyoni
mamita
mamiwa
mammals
mammwe
mamodheru
mamorekuru
mamota
mamoyo
mampanda
mamvanda
mamviri
mamwe
mamwene
mamwewo
mamzwi
man
mana
manage
manageable
managed
management
manager
managing
manake
manamike
manana
mananga
manangazira
manangwa
manase
manda
mandangu
mandarin
mandate
mandatory
mandau
mandaza
mande
mandeb
mandebele
mandela
mandell
mandengu
mandeya
mandimu
mandinema
mandinka
mandipaka
mandiraja
mandisodza
mandivamba
mandla
mando
mandonda
mandu
mandundu
mane
maneja
manejimendi
manene
manenja
manenji
maneno
manenzhe
manera
maneto
maneutron
mang
manga
mangala
mangani
mangava
mangawa
mangayi
mangere
mangisi
mango
mangoes
mangoi
mangoma
mangombo
mangondo
mangota
mangu
mangue
mangundya
manguni
mangwa
mangwana
mangwanani
mangwanda
mangwe
mangwende
manhamba
manhambara
manhanda
manhanga
manhangande
manhenda
manhenga
manheru
manhikatika
manho
manhoko
manhombo
manhombwe
manhood
manhua
manhuchu
manhwa
manibhi
manica
manicaland
manifest
manikidzo
manila
manilkara
maningi
manja
manje
manjena
manjengwa
manjenje
manjeya
manjoro
manka
mankanya
manliness
mann
manna
manner
manners
mannii
mano
manomano
manominesheni
manomwe
manonda
manondanhoka
manondanhuka
manonwe
manotsi
manovhero
mansa
mansion
manta
manual
manubhia
manuel
manuetrons
manufacture
manumeri
manure
manwadhi
manwiwa
many
manya
manyaani
manyaga
manyame
manyanga
manyani
manyanya
manyara
manyaro
manyau
manyavhute
manyawi
manyaya
manyemba
manyemwe
manyene
manyepo
manyeruke
manyika
manyikana
manyina
manyinda
manyinyire
manyira
manyire
manyoka
manyonda
manyonga
manyonge
manyorero
manyorerwo
manyoro
manyowa
manyuchi
manyuma
manyumba
manyumbu
manyumwa
manyunyu
manyura
manyurazuva
manzere
manzi
manzvanyira
manzvovera
manzwi
manzwiro
maodzanyemba
maodzanyembaemabvazuva
maodzanyembaemadokero
maodzeranyemba
maoid
maoko
maondzanyemba
maonero
maonga
maore
maorera
map
mapadza
mapaipi
mapaka
mapako
mapale
mapali
mapalo
mapambanwe
mapanda
mapande
mapanga
mapangana
mapanganwa
mapango
mapani
mapanze
mapanzure
mapapiro
mapapu
mapasa
mapatani
mapato
mapatya
mapawa
mapazi
mapehwe
mapeji
mapemba
mapembe
mapenda
mapendekete
mapendere
mapenzauswa
mapenzi
mapepa
mapepanhau
mapepu
mapere
mapereke
maperembudzi
mapesa
mapeta
mapeto
mapeya
mapeza
mapfeni
mapfihwa
mapfudza
mapfumbamwe
mapfumbu
mapfumo
mapfunde
mapfupa
mapfupi
mapfura
maphone
maphorisa
mapika
mapikicha
mapimhidze
mapingure
mapipi
mapira
mapiramidhi
mapiringa
mapiringanwa
mapiritsi
mapisarema
mapiye
mapoka
mapomho
mapona
mapondera
maponga
mapopoma
maporofita
mapote
mapoto
mapping
mapristi
maprouneifolia
mapudzi
mapunda
mapundu
mapungu
mapungubwe
mapungwana
mapuno
mapuranga
mapurazi
mapurisa
mapuristi
mapurogiramu
mapurojekiti
mapuroteni
mapurotesti
maputo
maputuka
maputuke
maputukezi
mapuvire
mapuwe
mapweza
mar
mara
marabout
maracana
maradio
maradona
maraire
maraki
marama
maramba
marambakuyana
maramu
maramura
maranda
marandure
maranga
marange
marangi
marangwanda
maranjisi
maranzi
marapiro
marara
mararamiro
mararike
marariya
marasha
marasta
marata
maratidzo
maraura
maravanyika
maravi
marble
marc
marcel
march
marco
marcus
mare
marecha
marechera
maredza
mareferensi
marefu
marefurenzi
maregere
marekodhi
marenga
marenge
marengenya
marengo
marengu
marepa
marere
marevo
mareya
marezinesi
margaret
marhijoni
mari
maria
mariam
mariana
marianne
maricho
maridadi
marie
mariga
marigold
marijoni
marijuana
marika
marikano
marikopo
marimba
marime
marimo
marimuka
marimwezuro
marin
marinda
marindo
marine
maringa
maringe
maringwa
marini
marino
mario
mariri
mariro
marisa
marise
maritime
mariya
mark
marked
marker
market
marketing
marking
markings
marks
maro
marobots
marokwe
maromo
maronda
marondera
maronga
marongerwo
maronyo
maroon
marora
maroro
maroveke
marowa
marozva
marrakesh
marriage
marriageable
marriages
married
marrow
marry
marrying
mars
marseillaise
marsh
marshal
marshall
marshy
marta
martha
martial
martin
martinique
martyn
marudhende
marudzi
marufu
maruku
marukutira
marula
marumbi
marume
marunga
marungu
maruni
marunye
marunza
marura
maruru
maruruma
maruta
maruva
maruwa
maruwo
marvel
marvelous
marwa
marwadzo
mary
masa
masaga
masaini
masaisai
masaka
masakwani
masala
masaluka
masamba
masambe
masame
masamvu
masana
masanga
masangano
masanganzira
masango
masanza
masara
masarango
masaraure
masarirambi
masasa
masaturapu
masawi
masawu
masaya
masayendisiti
mascientist
masculine
mase
masedhoniya
maseke
masekela
maseko
masembura
masenda
masendeke
masengwe
masenze
masera
masere
maseru
maseruka
masese
maseti
masevhisi
mash
mashaka
mashakada
mashambanzou
mashandiro
mashandirwo
mashandisiro
mashandisirwo
mashanga
mashange
mashanu
mashanyare
mashara
masharo
mashau
mashauri
mashava
mashavave
mashave
mashavi
mashe
mashed
mashereni
masheu
mashi
mashiach
mashinganei
mashizha
mashoka
mashoko
mashoma
mashona
mashonaland
mashonga
mashonganyika
mashuku
mashumba
mashura
mashy
masiginecha
masika
masikati
masike
masiketi
masiki
masimba
masimo
masimputomu
masinga
masingo
masinza
masipaisi
masirabhi
masirabhuri
masiribho
masiriri
masirizi
masisitimu
masistimu
masiwa
masiya
masiyaharwa
masiyarwa
masiyiwa
mask
maski
masks
maskweya
masocha
masoja
masoka
masomere
masomero
mason
masoneka
masonga
masongo
masonry
masopust
masosi
masoso
masowe
mass
mast
master
mastery
masteti
masticate
masuka
masuku
masukume
masumba
masunda
masundire
masunga
masutso
masvika
masvikiro
masvinga
masvingo
masvomhu
masvosve
maswera
maswiswi
masyllables
mat
mata
matabele
matabeleland
mataga
matagadzikwa
mataire
mataka
matakadza
matako
matala
matali
mataluka
matama
matamba
matambiro
matambudziko
matamisa
matanda
matandara
matanga
matangadzira
matangaidze
matangara
matange
matangira
matangwa
matanhatanha
matanhatu
matanho
matani
matano
matanza
matapa
matapiri
matapure
matara
mataranyika
matarara
matare
matarenda
matari
mataruka
mataruse
matarutse
matata
matateguru
matatu
matatya
matauka
matauriro
mataurirwo
matausi
matavi
matavire
matawa
match
matchaba
matched
matches
mate
mateb
matebeleland
matebwe
matehwe
mateka
matekenyandebvu
matekeshe
mateko
matema
matemabanze
matembo
matemera
matemo
matenda
matende
matendere
matendo
matenga
matenge
matengezeze
matengo
mateo
matepeta
matepo
matere
matereke
material
materialism
materials
materitori
maternal
materu
matete
mateu
mateura
mateus
matevhu
matewe
matewo
mateya
math
mathangu
mathbf
mathebula
mathematics
mathias
mathmahelp
maths
mati
matidze
matika
matikaha
matikiti
matilda
matimba
matindike
matinenga
mating
matinji
matiraki
matiri
mativi
matiza
matizamhuka
mato
matobo
matohwe
matoka
matola
matoma
matombo
matome
matonda
matondo
matonga
matongerwo
matongo
matongora
matoo
matooma
matope
matopos
matora
matore
matoro
matosi
matowa
matransistor
mats
matsanga
matsi
matsika
matsikwa
matsime
matso
matsotsi
matsumba
matsungo
matsutso
matsva
matsveru
matsvuki
matsvuku
matter
matters
matthew
mattress
matuka
matuku
matuma
matumba
matumbe
matumbu
matumburira
matumbwa
matumidzo
matunda
matunduru
matunhire
matunhu
matupa
matura
mature
maturing
maturity
maturo
maturure
maturusi
matuwa
matuzu
matuzvi
matwi
matyaka
maud
maulu
maumambo
maumbachisi
maumbirwo
maunde
maune
maunga
maungambari
maungamhanzi
maunganidzo
maungira
maungu
maungwe
maureen
maurice
mauritania
mauritius
mauro
mauru
mauta
mauto
mautsahuku
mauya
mauza
mavambo
mavanga
mavara
mavari
maveka
maveke
mavenda
mavhawero
mavheji
mavhengere
mavhiki
mavhina
mavhinga
mavhiri
mavhoti
mavhu
mavhudzi
mavhunga
mavhungu
mavi
mavindi
mavindidze
maviri
maviringuro
mavirira
mavis
mavo
mavonde
mavongwe
mavunga
mavuso
mavuwa
mawa
mawachi
mawanda
mawara
maware
mawawa
mawe
mawebhu
mawema
mawere
mawerera
mawero
mawindi
mawoko
mawonde
mawongera
maworesa
maworo
mawoyo
mawunga
mawunge
mawururwi
mawuta
mawuto
mawuyu
max
maxhosa
maximum
maxwell
may
mayaka
mayambo
maybe
mayelana
mayelema
mayera
mayere
mayererano
mayeresa
mayi
mayinda
mayingila
mayo
mayor
mays
mayuniti
mayunivhesiti
mazai
mazakwatira
mazambani
mazambiringa
mazambuko
mazamu
mazana
mazanamairi
mazanamairimakumimairi
mazanamairimakumimatatu
mazanamairinemakumimairi
mazanazana
mazanga
mazango
mazanhi
mazano
mazara
mazarura
mazaya
maze
mazengera
mazengo
mazengwa
mazera
mazerere
mazezuru
mazhanje
mazhinji
mazi
maziba
mazima
mazimbabwe
mazimbe
mazingazinga
mazingo
mazino
maziso
mazita
mazivanhanga
maziwa
maziwisa
mazonde
mazoni
mazowe
mazuka
mazulu
mazungu
mazungula
mazuva
mazuvano
mazuvaose
mazviita
mazvikokota
mazvimbakupa
mazviri
mazvita
mazwi
mb
mba
mbaa
mbaali
mbabvu
mbada
mbadzi
mbaera
mbai
mbala
mbalabala
mbalazi
mbale
mbali
mbama
mbamba
mbambaira
mbambala
mbambara
mbambi
mbambiro
mbambo
mbanda
mbandama
mbandi
mbandu
mbanga
mbangu
mbangula
mbangura
mbangure
mbani
mbanje
mbanji
mbano
mbanza
mbanze
mbara
mbaramatonya
mbarapati
mbaravara
mbare
mbarevare
mbari
mbariki
mbarikwa
mbariro
mbaru
mbasha
mbasi
mbata
mbatata
mbatatisi
mbati
mbato
mbatsanzaye
mbatya
mbava
mbavarira
mbavha
mbawa
mbaya
mbayimbayi
mbayo
mbe
mbedzi
mbeera
mbeki
mbel
mbela
mbele
mbeli
mbemba
mbembe
mbembi
mbenene
mbenge
mbengo
mbeni
mbepera
mbera
mbere
mbereko
mberembere
mberenga
mberenge
mberengi
mberengwa
mberere
mberi
mbesa
mbesanwa
mbeta
mbetete
mbeu
mbeva
mbewe
mbewele
mbewu
mbeyu
mbezo
mbg
mbi
mbichana
mbidzo
mbikira
mbikiti
mbikiza
mbila
mbili
mbilu
mbimba
mbimbi
mbimbindoga
mbindikwa
mbindo
mbinga
mbingi
mbira
mbirapage
mbire
mbiri
mbirimi
mbirimo
mbiringa
mbirira
mbiriri
mbiriso
mbiro
mbiru
mbise
mbishi
mbita
mbiti
mbitu
mbiya
mbizi
mbo
mboa
mbocho
mbodza
mbofana
mboi
mboka
mbokoto
mbolela
mbolota
mboma
mbombedza
mbombera
mbombo
mbonano
mbondiah
mbonga
mbongo
mbongoro
mboni
mboo
mbopo
mboro
mboshi
mbote
mbotso
mbowa
mbowo
mbu
mbudo
mbudu
mbudzana
mbudzi
mbugwe
mbuji
mbukushu
mbula
mbule
mbuli
mbulwa
mbuma
mbumba
mbumbira
mbumburu
mbumbwa
mbumu
mbunda
mbundire
mbundu
mbune
mbunga
mbungano
mbungu
mbuni
mbunje
mbunya
mbura
mburetete
mburo
mburu
mburuma
mburungwa
mburungwagama
mburuzvira
mburwa
mbuso
mbuta
mbuto
mbutu
mbuu
mbuva
mbuwa
mbuwo
mbuya
mbuyangu
mbuye
mbuyu
mbuzi
mbwa
mbwanana
mbwanda
mbwe
mbwele
mbwende
mbwera
mbwizhu
mbɔ
mbɛ
mc
mccarthy
mccosh
mcewen
mcfadden
mcgill
mcgraw
mchana
mchina
mcu
mdaria
mdc
mdr
mdzayo
me
mead
meadow
meadows
meal
mealie
mealies
mean
meaning
meanings
means
meanwhile
measles
measure
measured
measurement
measures
measuring
meat
mechanic
mechikamu
mechivakwa
med
meda
medal
medalists
medals
mede
medhi
medhiteraniya
media
mediate
mediator
medical
medically
medicinal
medicine
medicines
medieval
mediterranean
medium
mediums
medley
medrano
medu
meeda
meek
meekers
meekness
meet
meeting
meets
meg
mega
megan
meghan
megillot
megomo
megore
mehiko
mehondo
mehwabvu
meikles
meiyo
mej
mekhuri
mekubviswa
mekudzingwa
mekuedza
mekufa
mekuisa
mekuita
mekunge
mekunzwa
mekupedza
mekutapukirwa
mekutora
mekuwana
mela
melancholy
melanie
melanoxylon
melanthera
melody
melon
melt
melting
melton
memakore
memateko
memazuva
memba
member
members
membrane
memedhi
memeza
memhemberero
memorial
memories
memory
memuchero
memunhu
memuviri
memwana
memwedzi
men
mend
mendelsohn
menduru
menguva
meningitis
meningococcal
meno
menstruation
mental
mentality
mentally
mention
mentioned
menu
menya
menyani
menzvimbo
mepakati
mepu
mer
merchandise
merchant
mercurius
mercury
mercy
mere
merely
merge
meridhi
meridian
merit
merlin
mermaid
merongo
merriam
merry
mers
mervis
mes
mesa
mesarudzo
mese
mesh
mesiya
meso
mesopotamia
mesopotamian
mespiliformis
mess
message
messenger
mesu
met
meta
metal
metallic
metallurgy
metals
metamorphosis
metaphor
metaphoric
meteor
meteorological
meter
meters
methane
method
methodist
methods
methyl
metre
metres
metropolis
metropolitan
metsa
mevamwe
mexican
mexicanum
mexico
meya
meza
mezvi
mezvo
mfana
mfananidzo
mfbty
mfecane
mfini
mfula
mfumba
mfumo
mfumu
mfunde
mfundisi
mfune
mfungua
mfusa
mfuta
mfuti
mgogo
mgongo
mgoshi
mgunda
mh
mhaka
mhako
mhakure
mhamba
mhambarirwa
mhambu
mhamha
mhamhare
mhana
mhanda
mhandamabwe
mhandara
mhande
mhandi
mhando
mhandu
mhangani
mhango
mhangura
mhangwa
mhanje
mhanya
mhanza
mhanzi
mhapa
mhara
mharadzirwa
mharapara
mhararano
mhare
mhari
mhariwa
mharuparu
mhasa
mhashu
mhasuru
mhaswa
mhata
mhatsi
mhatso
mhazi
mhedzisiro
mhembe
mhembere
mhemberero
mhembero
mhembwe
mhenda
mhende
mhene
mhenenguro
mhenga
mheni
mhenyu
mhepo
mhepobesu
mhepouso
mhere
mhesvamukono
mhesvi
mheswi
mheta
mhetamakumbo
mhete
mheterwa
mheu
mhezi
mhiko
mhimba
mhina
mhindi
mhindo
mhindu
mhinduro
mhinga
mhingo
mhini
mhinjiriko
mhino
mhiri
mhiribidi
mhirikano
mhiriko
mhirimo
mhiripiri
mhiripiti
mhirizhonga
mhishi
mhiti
mhitsa
mhizha
mhl
mhlanga
mhlophe
mhodzi
mhodzigetsi
mhofu
mhola
mhombwe
mhomho
mhonda
mhonde
mhondi
mhondoro
mhoni
mhopo
mhora
mhoro
mhoroi
mhoromoka
mhosho
mhosva
mhotedzero
mhotsa
mhou
mhoze
mhudzi
mhuka
mhukahuru
mhukarume
mhukutu
mhumburu
mhumhi
mhundu
mhunduru
mhundwa
mhunga
mhungu
mhungubwe
mhuno
mhunzamusha
mhupu
mhuri
mhurikadzi
mhuru
mhururu
mhute
mhutwa
mi
mianzwi
mibairo
mibale
mibarirwana
mibato
mibayiro
mibisho
mibvunzo
mic
mice
michael
michegwa
michelin
michelle
michena
michero
michigan
michina
michovha
micrantha
micro
microbiology
micrometer
micronesia
mid
midday
middle
midende
midhiya
midhudhudhu
midi
midlands
midnight
midori
midst
midwife
midzi
midzimu
midziyo
miene
mienzaniso
mifananidzo
mifungo
mig
miganhu
might
mighty
migodhi
migogo
migraine
migrate
migrating
migration
migratory
miguel
miguri
migwagwa
miitiro
mika
mikana
mike
mikeroni
miko
mikombe
mikono
mikova
mikowa
mikrokosmos
miksitepi
mikuru
mikwava
mild
mildly
mile
mileniyamu
miles
milingano
milingo
military
miliyoni
milk
milking
milkweed
milky
mill
mille
millennium
millepede
miller
millet
million
millions
millipede
mills
milombe
milongo
milton
milunga
mimanzi
mimba
mime
mimhanzi
mimosa
mimusops
mimwe
mimwewo
min
mina
mind
minda
mindandaridza
mindedness
mine
mineral
mines
mineti
minga
mingi
mingle
minh
minhenga
mini
miniature
miniehle
minimum
mining
minister
ministers
ministry
minne
minomwe
minor
minora
mint
minus
minuta
minute
minutes
minwe
minzwa
mio
mipanda
mipango
mipata
mipendero
mipfumbamwe
mipimo
mipinguro
miquelon
mira
miracle
mirage
mirai
mirairo
mirawu
mirayiro
mirazvo
mire
mirefu
miri
miriam
mirihi
miriki
mirimo
mirioni
mirira
miriro
miriwo
miriyoni
mirombe
miromo
mirongo
mirri
mirriam
mirror
misambo
misandu
misangano
miscarriage
miscarry
mischief
mischievous
miser
miserable
misery
miseve
misfortune
misfortunes
misha
mishandirapamwe
mishanu
misheck
mishi
mishina
mishoma
mishonga
mishoni
mishumo
mishwaira
misi
misihairahwi
misika
misiyano
mislead
misleading
misodzi
misoro
miss
missile
missing
mission
missy
mist
mistake
mister
misunderstanding
mit
mita
mitambariko
mitambo
mitandira
mitanhatu
mitano
mitaro
mitatu
mitauro
mitauronyina
mitauronyinsa
mitchell
mite
mitembe
mitemo
mitengo
mitero
mitezo
miti
mitoro
mitowo
mitsara
mitsendo
mitsetse
mitski
mitsva
mitswe
mitt
mituaro
mitumbi
mitundi
mitunhu
mitupo
mitutu
mivara
mivhuso
miviri
mix
mixed
mixing
mixtape
mixture
mizera
mizhinji
miziraimu
mizraim
mjengo
mjinga
mk
mkale
mkare
mkate
mkoa
mkoba
mkoi
mkombachoto
mkonda
mkondo
mkongo
mkono
mkonzi
mkonzo
mkotamo
mkozi
mkucha
mkulu
mkumbi
mkunga
mkungire
mkungu
mkupira
mkutano
ml
mlalika
mlamba
mlambo
mlamu
mlandu
mlango
mlauzi
mlenda
mlendo
mlilo
mlingano
mlinganyo
mlingo
mlisa
mliswa
mlombezi
mlomo
mlongo
mlungu
mm
mma
mmen
mmera
mn
mnangagwa
mnet
mngi
mnyama
mnyonge
mo
moa
mob
moba
mobocracy
mobola
mobutu
mock
mockery
mod
mode
model
moderate
moderation
modern
modernism
modernist
modest
modesty
modhi
modibo
modza
moffat
moforojia
mogadishu
moi
moise
moises
moist
moisten
moisture
mojave
mokonzi
mokunaya
mokunge
mol
mold
moldova
mole
molecular
molecule
moleen
molimo
molle
mollis
moloko
molome
molten
mom
mombassae
mombe
mombeshora
momene
moment
momentum
momordica
mon
monaco
monako
monarch
monarchs
monday
monde
mondenegiro
mondia
mondial
mondo
monene
monerapo
money
monga
mongo
mongolia
monica
monique
monitor
monitoring
monkey
monkeys
mono
monoica
monomotapa
monopetalus
monopolizing
monovalent
monoxide
monster
monte
montenegro
montevideo
month
months
monticola
montreal
montsoreau
monument
monuments
monyake
monye
moo
mood
moolli
moon
moonlight
moore
mopane
morad
moral
morality
mordecai
more
moreblessing
moreki
morekuru
morens
moreover
morgan
moringa
morishasi
moritani
moriteniya
mornachy
morning
moro
morocco
morogo
moroko
morphological
morphology
morris
morsel
mort
mortality
mortar
morudhovha
morus
morwa
mosaic
mosby
mose
moses
moshi
mosi
mosque
mosquito
moss
mossambicensis
most
mostly
mota
mote
moth
mother
motherless
mothers
motion
motivation
motive
moto
motokari
motor
motors
motshetshe
motsi
motto
mould
moulding
moult
mound
mounds
mount
mountain
mountainous
mountains
mourn
mournable
mourning
mouse
mouth
mouthful
move
moved
movement
movements
moves
movie
moving
moxi
moyana
moyo
moyochena
moyombuya
mozambiki
mozambique
mp
mpa
mpaka
mpakasa
mpala
mpale
mpali
mpama
mpambani
mpambo
mpambu
mpamvu
mpanda
mpandaji
mpandi
mpando
mpanga
mpango
mpanzi
mpasa
mpata
mpazi
mpela
mpembe
mpembedza
mpembi
mpenga
mpenza
mpepe
mpera
mpete
mpfofu
mpg
mph
mphatso
mphepo
mpho
mpi
mpika
mpiki
mpiku
mpila
mpiluka
mpinda
mpindi
mpinga
mpingani
mpinganjira
mpingo
mpinzani
mpisi
mpito
mpkb
mpole
mpoma
mpombe
mponda
mponderana
mpoto
mpuku
mpum
mpumalanga
mpumba
mpunga
mpyemo
mr
mrima
mrongazuva
mrwetyana
ms
msaka
msali
msambia
msana
msande
msanga
msangu
msasati
mseka
mselu
mshaili
mshani
mshongozi
mshtarii
msika
msipa
msitu
msolo
msomo
msoro
msuku
msweta
mt
mtakutunilwa
mtala
mtali
mtambariko
mtanda
mtandi
mtandira
mtanula
mtapo
mtapuri
mtatu
mtawala
mtawarira
mtca
mtembo
mtemi
mtemo
mtendere
mtendereki
mtenga
mtengano
mtengo
mtengwa
mthubi
mthunzi
mti
mtima
mtindo
mtinga
mtland
mto
mtoa
mtolo
mtongoli
mtongori
mtowi
mtsitsi
mtsori
mtsungi
mtu
mtukudzi
mtumba
mtumbi
mtume
mtundu
mtunga
mtungaji
mtungamiri
mtv
mu
muafrica
muafrika
muafurika
muali
muamba
muambamhenyu
muambi
muamerica
muamerika
muana
muanga
muangola
muareka
muari
muarujeriya
muasia
muaspen
mubaba
mubairo
mubako
mubala
mubande
mubandirwa
mubangi
mubangwe
mubani
mubano
mubanze
mubarikwa
mubarirwana
mubasa
mubata
mubatanidzwa
mubatapasango
mubati
mubato
mubatsiri
mubaya
mubayamhondoro
mubayi
mubayira
mubayiro
mubazi
mube
mubeche
mubeleki
mubenin
mubereki
muberere
mubhabhironi
mubhadharo
mubhaera
mubhahari
mubhaibheri
mubhanana
mubhazi
mubhedha
mubhendi
mubhizinesi
mubhodhi
mubhokisi
mubhuku
mubi
mubig
mubiki
mubindu
mubinyi
mubinyo
mubira
mubiri
mubishi
mubishingo
mubisho
mubodzi
muboka
mubonda
mubondi
mubondo
muboo
muboora
mubota
muboterekwa
mubotswana
mubrazil
mubts
mubukuta
mubulawayo
mubumbiro
mubumbukumbu
muburundi
mubuso
mubuya
mubvamaropa
mubvuka
mubvumba
mubvumbi
mubvumo
mubvunzo
mubvunzurudzo
mubvuvi
mubvuwi
mucameroon
mucape
mucaribbean
mucentral
much
muchacha
muchadenga
muchaka
muchakata
muchamhembe
muchando
muchaneta
muchani
muchanza
mucharikwa
muchato
muchayina
mucheche
muchechetere
muchechi
muchedzi
muchegwa
mucheka
muchekechera
mucheko
muchembere
muchena
muchengeti
mucheni
muchenje
mucheno
muchenya
mucherechedzo
mucheri
mucherikwa
muchero
muchete
mucheto
muchetura
muchiarabhu
muchiarabic
muchibantu
muchibereko
muchichamorro
muchichayina
muchidimbu
muchidza
muchidzi
muchidzidzo
muchiedza
muchifrench
muchifurenji
muchigiriki
muchihara
muchihebheru
muchihwande
muchiitalian
muchiitiko
muchijapani
muchikafu
muchikamu
muchikaranga
muchikare
muchikomba
muchikoriya
muchikoro
muchikwata
muchikwepa
muchila
muchima
muchimandarini
muchimbiri
muchimbo
muchimiro
muchina
muchinangwa
muchinda
muchindau
muchindebele
muchindevere
muchinezi
muchinga
muchingezi
muchinhu
muchinjikwa
muchinyakare
muchinyorwa
muchipatara
muchiputukezi
muchira
muchirahondo
muchirangarira
muchiratini
muchirevo
muchiri
muchirimo
muchiro
muchirongo
muchirongwa
muchirungu
muchishona
muchishongrish
muchisotho
muchisoto
muchispanish
muchistandadhi
muchiswahili
muchiswahiri
muchitendero
muchithai
muchiti
muchitima
muchitofu
muchitonga
muchitsauko
muchitsonga
muchitswana
muchiuno
muchivande
muchivanhu
muchivenda
muchiverenga
muchivhenda
muchixhosa
muchizulu
muchizuru
muchochororo
muchokwadi
muchongwe
muchoto
muchova
muchovha
muchowe
muchuchisi
muchuri
muchururu
mucolombia
mucongo
mucote
mucronata
mucuna
mucus
mud
muda
mudaegu
mudala
mudambi
mudambo
mudandamanga
mudandemutande
mudanga
mudangwa
mudanhi
mudanho
mudara
mudarara
mudare
mudari
mudarikwa
mudariro
mudark
mudau
mudda
muddle
muddy
mudede
mudedema
mudeke
mudekunye
mudeme
mudemocratic
mudenda
mudenderedzwa
mudenga
mudenge
mudengezeze
mudengu
muderede
mudereki
mudereri
mudetembi
mudhafu
mudhamu
mudhara
mudhau
mudhe
mudhebhe
mudhidhizhi
mudhindo
mudhiniwe
mudhorobha
mudhudhudhu
mudhuri
mudhuze
mudida
mudikani
mudiki
mudimo
mudimu
mudingi
mudirira
mudiwa
mudo
mudodo
mudoko
mudokwenyu
mudoma
mudondo
mudonzvo
mudovatova
mudove
mudovodzanwa
mudrc
mududu
muduku
muduma
mudumbi
mudumbu
mudunge
mudungwe
mudunhu
muduni
mudura
muduramazwi
muduri
muduso
mudutu
muduvuri
mudyambira
mudyambudzi
mudyari
mudyi
mudyisi
mudyo
mudza
mudzamba
mudzamisi
mudzanga
mudzani
mudzengerere
mudzepete
mudzi
mudzidzi
mudzidzisi
mudzidzo
mudzikinuri
mudzimai
mudzimba
mudzimu
mudzimwe
mudzindiko
mudzinganyama
mudzingwa
mudzinza
mudzira
mudziva
mudziviriri
mudzivisi
mudzivo
mudziyaishe
mudziyo
mudzonga
mudzongeri
mudzongwa
mudzuri
muearth
mueastern
muel
muendi
muendo
muene
muenexi
muenga
muenge
muenglish
mueni
muenzanisi
muenzaniso
muenzano
muenzi
muep
mueritrea
muethiopia
mueurope
muezhiya
muezi
muface
mufakose
mufambi
mufananidzo
mufanechiya
mufarinya
mufaro
mufekane
mufemo
mufenje
mufi
mufirimu
mufokosiyana
mufote
mufrance
mufudze
mufudzi
mufufu
mufuka
mufuke
mufumba
mufumbi
mufume
mufumo
mufumu
mufunda
mufunde
mufundi
mufundisi
mufundoyetsimba
mufunga
mufungo
mufunya
mufuramvuu
mufuranzi
mufuro
mufushwa
mufuta
mugabe
mugabo
mugabon
mugadziri
mugakatombo
mugambo
muganda
muganhiri
muganhu
muganyi
mugapa
mugapu
mugaragora
mugaragunguwo
mugarakare
mugari
mugarire
mugariro
mugauri
mugaviri
mugawu
mugeri
mugermany
mugero
mughal
mughana
mugimbakirwa
mugirama
mugiredhi
muglendale
mugocha
mugodhi
mugogo
mugoko
mugola
mugomba
mugomberi
mugomo
mugongo
mugoni
mugore
mugoriondo
mugoro
mugota
mugotahozi
mugoti
mugova
mugove
mugovera
mugozhi
mugrahamstown
mugugu
mugumbapamwe
mugumo
mugunda
mugungwa
muguri
muguta
muguti
muguva
muguzabheri
muguzi
mugwagwa
mugwaku
mugwara
mugwari
mugwaro
mugwati
mugwava
mugwazo
mugwemi
mugwenanguruve
mugwenga
mugwenhi
mugwenzi
mugweru
mugweze
mugwira
mugwiringwizha
mugwiti
muhacha
muhafu
muhala
muhambo
muhammad
muhangavha
muhara
muharare
muhari
muharonga
muhati
muhawa
muhawu
muhindo
muhlobo
muhlovo
muhobo
muhobohobo
muhodzongwa
muhofisi
muhohoshwa
muhohozhwa
muhomba
muhombe
muhomwe
muhonde
muhondo
muhongo
muhoni
muhope
muhore
muhori
muhoro
muhoronga
muhovha
muhovhoni
muhubvu
muhudyu
muhukama
muhuku
muhumambo
muhumhizha
muhumi
muhungary
muhungumira
muhunhu
muhunza
muhupe
muhupenyu
muhura
muhuranda
muhuro
muhuropi
muhuru
muhurukuro
muhurukuru
muhurumende
muhurumunde
muhushangazhi
muhutano
muhutapwa
muhute
muhutongi
muhutungamiri
muhuwandu
muhwa
muhwakwa
muhwamba
muhwande
muhwati
muhwayira
muhwendedzo
muhwezva
muhwiringwindi
muhwiti
mui
muijipita
muimba
muimbi
muindasitiri
muindia
muindiya
muindonesia
muine
muingi
muisha
muishe
muisi
muisiraeri
muisrael
muisu
muitari
muitholojisti
muiti
muitiro
muitopiya
muiyi
mujapan
mujapani
mujarakamba
mujati
mujawo
mujecha
mujejeje
mujeki
mujenya
mujeri
mujerumani
mujerusarema
muji
mujinga
mujiri
mujivha
mujobheki
mujohannesburg
mujokoro
mujomba
mujongwe
mujudha
mujulu
mujuru
muka
mukadzi
mukadzinyina
mukaha
mukaka
mukalo
mukama
mukamba
mukamuri
mukana
mukanadha
mukando
mukangira
mukanwa
mukanya
mukanza
mukaranga
mukarati
mukare
mukarenda
mukari
mukarirano
mukaro
mukarobgwa
mukaronda
mukashi
mukashu
mukata
mukatakana
mukatazi
mukati
mukau
mukendi
mukenya
mukeredzi
mukereke
muketa
mukhemeti
mukhwani
mukicheni
mukiri
mukiriketa
mukiwa
muko
mukoa
mukobvu
mukokeri
mukoki
mukoko
mukoli
mukolo
mukoma
mukomana
mukomba
mukombachoto
mukombe
mukombo
mukombwe
mukome
mukomichi
mukonda
mukonde
mukondi
mukondinendi
mukondiwa
mukondo
mukondoloke
mukondombera
mukondorongwe
mukonge
mukongo
mukonikoni
mukono
mukonori
mukonso
mukonya
mukonza
mukonzi
mukonzo
mukoranidzwa
mukore
mukorezana
mukoro
mukoronga
mukorongwe
mukororo
mukosera
mukosho
mukosi
mukoswa
mukota
mukotekwa
mukoti
mukoto
mukotsanjera
mukotsvanidzwa
mukova
mukowa
mukowasimbi
mukoyi
mukristu
muku
mukua
mukuba
mukubereka
mukubika
mukubikwa
mukubvu
mukubvuma
mukucha
mukucherechedza
mukudu
mukudzivirira
mukudzoserwa
mukuedzwa
mukuenderera
mukufamba
mukugadzira
mukugadzirisa
mukugadzirwa
mukuita
mukuku
mukukumbira
mukukunda
mukukura
mukula
mukulu
mukuma
mukumba
mukumbanidzwa
mukumbi
mukumbura
mukume
mukumo
mukuna
mukunda
mukundanzou
mukunde
mukundi
mukundo
mukundu
mukunga
mukunguru
mukunguta
mukunya
mukunyadzi
mukunyora
mukunyorwa
mukuongorora
mukupa
mukupe
mukupera
mukupfuura
mukupi
mukupira
mukupo
mukura
mukurani
mukurerwa
mukuru
mukurumbira
mukurusa
mukuruva
mukusa
mukuseka
mukushaiwa
mukushambadzira
mukushanda
mukushandura
mukushi
mukuta
mukutamba
mukutanga
mukutaura
mukute
mukuto
mukutonga
mukutongwa
mukutsinhana
mukutsirani
mukutsvaga
mukutu
mukuumba
mukuva
mukuwa
mukuwana
mukuwapasi
mukuwasha
mukuwashanyina
mukuwe
mukuwo
mukuyu
mukuze
mukuzvarira
mukuzvingwarira
mukwaira
mukwakwa
mukwani
mukwasha
mukwashi
mukwasi
mukwati
mukwava
mukwazo
mukwe
mukwekwe
mukweli
mukwenda
mukwende
mukwenyi
mukwere
mukwerera
mukwesha
mukweso
mukwidza
mukwiri
mukwita
mulalika
mulambi
mulamu
mulamuzi
mulandu
mulatto
mulaudzi
mulaula
mulawa
mulberry
mule
muleki
mulele
mulema
mulemba
mulembu
mulenga
mulenge
mulifi
mulilo
mulimo
mulindi
mulinganya
mulingo
mulisi
muliterature
muliwa
mulombe
mulonda
mulondon
mulonga
mulongi
mulongo
mulongozi
mulove
multi
multidrug
multimedia
multiple
multiplication
multiply
multitude
multivalent
mulumba
mulumbi
mulumbwana
mulume
mulundu
mulungo
mulungu
mulwalo
mulwandili
muma
mumabasa
mumabhi
mumabhindauko
mumabhuku
mumabvazuva
mumadagascar
mumafirimu
mumafuta
mumagariro
mumagazini
mumaguta
mumahombekombe
mumaindustries
mumakomba
mumakomo
mumakore
mumakwara
mumakwikwi
mumalabs
mumalawi
mumaminitsi
mumamiriro
mumamwe
muman
mumana
mumango
mumanicaland
mumanyika
mumaodzanyemba
mumaoko
mumap
mumapani
mumapapu
mumapepanhau
mumapoka
mumapurazi
mumarondera
mumarudzi
mumaruva
mumaruwa
mumarvel
mumasango
mumashizha
mumashoko
mumashure
mumasisitemu
mumatambudziko
mumatanga
mumatanks
mumatare
mumatombo
mumatondo
mumatongo
mumatoro
mumatunhu
mumavambo
mumavhiki
mumavuso
mumawoko
mumawuto
mumaziso
mumazita
mumazuva
mumazwi
mumba
mumbai
mumbere
mumbeu
mumbi
mumbo
mumbumi
mumburungwagama
mumera
mumeso
mumhando
mumhanyi
mumhanzi
mumhatso
mumhepo
mumhingwe
mumhino
mumhodzi
mumhu
mumhuka
mumhuri
mumifananidzo
mumigwagwa
mumimhanzi
mumimwe
muminda
mumipata
mumiriri
mumisha
mumitambo
mumitauro
mumitauronyina
mumiti
mumongi
mumori
mumorocco
mumoto
mumoyo
mumozambiki
mumozambique
mumpanga
mumpempe
mumps
mumu
mumubatanidzwa
mumufananidzo
mumugwagwa
mumukaka
mumunda
mumunhu
mumupanda
mumupata
mumuromo
mumusha
mumusika
mumusina
mumusoro
mumutambo
mumutandira
mumutandiro
mumutauro
mumuti
mumutuvi
mumuviri
mumuwanano
mumvura
mumvuri
mumwaka
mumwe
mumwecheta
mumwechete
mumwedzi
mumwena
mumwewo
mumweya
mumwiri
mumwoyo
mun
muna
munachivabvu
munagunyana
munaijeriya
munairobi
munaka
munakandafa
munako
munaku
munakukadzi
munakurume
munamati
munamato
munamatwi
munambudzi
munamibia
munamwari
munana
munangatire
munangu
munanxi
munanzi
munashe
munational
munatsi
munazarini
munch
munda
mundanda
mundandaridza
mundangariro
mundari
mundege
mundele
mundere
mundima
mundiro
mundo
mundu
mune
munemo
munemu
munene
munenge
munengwa
muneri
munesu
munew
munga
mungamba
mungando
mungani
mungano
mungarava
mungava
mungazi
mungezi
mungole
mungongoma
mungoshi
mungoza
mungurawu
munguri
munguva
mungwa
mungwariri
mungwaru
munhabvi
munhambo
munhanga
munhangu
munharaunda
munhau
munhaurwa
munhemba
munhenga
munhengo
munhikwi
munhondo
munhoorondo
munhoroondo
munhu
munhuhwi
munhukadzi
munhumbu
munhundurwa
munhunguru
munhuruka
munhurume
munhuwi
munia
municipality
munigeria
munin
muninga
munjanja
munjelele
munjeri
munjodzi
munjoma
muno
munofanhira
munogara
munogona
munondo
munongedzi
munongedzo
munongi
munongo
munova
munovhera
munowanikwa
munoyera
munshya
munsi
munthu
muntu
munu
munungu
mununuri
munwadhi
munwe
muny
munya
munyai
munyairi
munyakwe
munyama
munyanga
munyani
munyanza
munyara
munyaradzi
munyasi
munyati
munyatso
munyavada
munyavi
munyaya
munyayi
munyemba
munyepfu
munyera
munyere
munyeredzi
munyeu
munyevhe
munyeza
munyii
munyika
munyikae
munyimi
munyinyi
munyire
munyiru
munyonga
munyongo
munyonhi
munyori
munyoro
munyu
munyuyoku
munzanga
munzeve
munzi
munzira
munziyo
munzizi
munzuku
munzva
munzvi
munzvimbo
munzviro
munzwa
muo
muoceania
muombe
muomboli
muone
muongo
muongori
muongorori
muongororo
mupaka
mupakwa
mupali
mupamba
mupambari
mupambo
mupambutsi
mupambwa
mupanda
mupande
mupandenyama
mupandi
mupandira
mupandiri
mupandirwa
mupando
mupandu
mupanga
mupangi
mupangidzi
mupango
mupangure
mupanguri
mupangwa
mupara
muparadzi
muparamhosva
muparamoto
muparavara
mupare
muparidzi
mupariwa
mupata
mupatya
mupemba
mupembe
mupemhi
mupendi
mupenyu
mupepeti
mupera
mupfana
mupfumba
mupfumi
mupfunga
mupfungwa
mupfuni
mupfupi
mupfura
mupfure
mupfuri
mupfurudzi
mupfururi
mupfuti
mupi
mupimbi
mupimbiri
mupimo
mupinda
mupindi
mupindu
mupinga
mupingi
mupinguri
mupini
mupinyi
mupira
mupiringani
mupiriyodhi
mupita
mupitse
mupolitiki
mupombe
mupomerwi
mupona
muponesi
muporofita
mupostori
mupotaringa
mupoti
mupoto
mupretoria
muprovince
mupudzi
mupunda
mupunga
mupuri
mupurisa
mupurovhinzi
mupurura
mupurwa
murahwa
murairi
murairidzi
murairo
murakata
murakatira
murama
muramba
murambe
murambi
murambwi
muramu
muramwa
muranda
murandakadzi
murandu
muranga
murangariro
murango
murao
murapa
murape
murapi
murara
murarabungu
muraraungu
murasha
murashi
muratu
murau
muravanegumi
muravanembiri
muravu
murawo
murawu
muraya
murayiro
murazvo
murder
murdered
murderer
muredzi
murefu
murehwa
murekwa
murema
murembi
murenga
murenge
murengwa
mureri
murerwa
mureta
murevereri
mureza
murhepa
[...]
