!
"
#
##0
##1
##10
##11
##12
##13
##14
##15
##16
##17
##18
##19
##2
##20
##21
##22
##23
##24
##25
##26
##27
##28
##29
##3
##30
##31
##32
##33
##34
##35
##36
##37
##38
##39
##4
##40
##41
##42
##43
##44
##45
##46
##47
##48
##49
##5
##50
##51
##52
##53
##54
##55
##56
##57
##58
##59
##6
##60
##61
##62
##63
##64
##65
##66
##67
##68
##69
##7
##70
##71
##72
##73
##74
##75
##76
##77
##78
##79
##8
##80
##81
##82
##83
##84
##85
##86
##87
##88
##89
##9
##90
##91
##92
##93
##94
##95
##96
##97
##98
##99
$
%
&
'
(
)
*
+
,
-
.
/
0
00
000
0000
00001
01
0140
02
03
04
05
06
07
08
09
1
10
100
1000
1001
1002
101
1016
102
103
1038
104
105
106
107
108
1080
109
1093
11
110
111
112
1136
116
117
118
119
12
120
121
124
125
126
127
128
129
13
130
131
134
135
136
138
14
1430
1450
146
14651858
148
149
15
150
1500
16
160
163
17
170
179
18
180
184
1872
1885
1889
1890
1893
1895
1896
1897
1898
1899
19
1900
1901
1902
1903
1904
1907
1908
1910
1911
1914
1916
1917
1918
1919
1920
1922
1923
1924
1926
1927
1928
1929
1930
1931
1932
1935
1938
1939
1940
1941
1942
1943
1944
1945
1946
1947
1948
1949
1950
1951
1952
1953
1954
1955
1956
1957
1958
1959
1960
1961
1962
1963
1964
1965
1966
1967
1968
1969
1970
1971
1972
1973
1974
1975
1976
1977
1978
1979
1980
1981
1982
1983
1984
1985
1986
1987
1988
1989
1990
1991
1992
1993
1994
1995
1996
1997
1998
1999
2
20
200
2000
2001
2002
2003
2004
2005
2006
2007
2008
2009
201
2010
2011
2012
2013
2014
2015
2016
2017
2018
2019
2020
2021
2022
205
21
22
23
230
235
24
240
25
250
257
26
263
27
270
275
28
286
29
3
30
300
301
31
314
319
32
321
323
325
329
33
333
337
339
34
349
35
352
3523
354
356
357
36
360
365
37
38
380
385
39
4
40
400
41
42
43
44
45
46
47
48
480
49
5
50
500
51
52
53
54
540
55
56
57
58
59
6
60
600
61
62
63
64
65
650
66
67
6736
68
69
7
70
700
71
72
73
74
75
750
76
77
78
79
8
80
800
81
82
83
84
85
86
87
88
883
89
9
90
900
91
92
93
94
95
96
97
978
98
9837
99
:
;
<
=
>
?
@
[
\
]
^
_
`
a
aa
aambe
aardvark
aaron
ab
aba
ababa
abagusii
abandon
abandoned
abantu
abasement
abata
abate
abatwa
abba
abc
abdomen
abe
abel
abheru
abhurahama
abide
abigail
ability
able
abnormal
abode
abominable
aboriginal
abortion
abound
about
above
abraham
abrahama
abram
abramson
abreast
abroad
abruptly
absence
absent
absolutely
absorb
absorbed
abstain
abstract
abuda
abude
abundance
abundant
abundantly
abuse
abusive
abva
abyssinica
ac
acacia
academia
academic
academy
acceleration
accept
access
accessed
accident
acclaim
accommodate
accompany
accomplish
accord
according
account
accountant
accumulate
accumulation
accursed
accuse
accused
accustomed
acetylene
acfu
achangobva
achava
ache
achembera
achibata
achibaukira
achibuda
achibva
achida
achidudza
achiedza
achienda
achifamba
achifunga
achigadzira
achigara
achiimba
achiita
achinanga
achinge
achinyora
achinzi
achipa
achipinda
achiratidza
achireva
achiri
achirwara
achishanda
achishandisa
achishandiswa
achishanduka
achisiya
achisvika
achitamba
achitanga
achitarira
achitaura
achitevedza
achiteverwa
achiti
achitorwa
achiva
achiwana
achiziva
acho
acid
acidity
acids
acquaintance
acquire
acquired
acre
across
act
acting
action
actions
active
activities
activity
actor
actress
acts
acute
ad
ada
adam
adama
adapt
add
added
adder
adding
addis
addition
additional
address
ade
adele
adhamu
adhere
adheres
adhering
adj
adjacent
adjective
adjoin
adjudge
adjust
administration
administrative
admirable
admiration
admire
admit
adolescent
adolf
adopt
adopted
adorn
adrian
adult
adulterer
adultery
adulthood
adv
advance
advantage
adversity
advice
advise
adviser
advisors
advisory
advocate
adya
adze
adzo
aenda
aeneas
aeroplane
aesthetic
afa
afar
affair
affairs
affect
affected
affecting
affection
affects
affinity
affliction
afirwa
afraid
afresh
africa
african
africana
afrika
afrikaans
after
afternoon
afunga
afurika
agache
again
against
agara
age
aged
agency
agent
ages
agnes
ago
agree
agreement
agricultural
agriculture
agust
ah
ahead
ahn
ahweva
ai
aid
aida
aids
aifamba
aifanira
aigara
aigona
ailment
aim
aimbova
aimbove
aimlessly
aine
ainge
ainzi
aionekwa
air
airborne
airimwa
airplane
airport
airs
aisha
aishandiswa
aita
aitarisirwa
aitaura
aite
aiti
aiva
aive
aivewo
aiwa
aizivikanwa
ajagbe
ak
aka
akabata
akabatana
akabatanidzwa
akabatsira
akabatwa
akabereka
akaberekerwa
akaberekwa
akabuda
akabudirira
akaburitsa
akabva
akabvuma
akachenjera
akachinja
akachinjika
akadai
akadaro
akadzidza
akadzika
akadzokera
akaenda
akaenderera
akaenzana
akafa
akafamba
akafanana
akafanirwa
akafirwa
akafunda
akafunga
akagadzira
akagadzirwa
akagadzwa
akagamuchira
akagara
akagomberwa
akagwinya
akahwina
akaimba
akaipa
akaisa
akaiswa
akaita
akaitwa
akajeka
akakodzera
akakomberedza
akakosha
akakotsira
akakunda
akakura
akakurira
akakurumbira
akakurumidza
akakwanisa
akakwira
akamira
akamuka
akan
akanaka
akanangana
akanga
akange
akangwara
akanhara
akanominetwa
akanyanya
akanyora
akanyoresa
akanyorwa
akanzi
akanzwa
akaoma
akaona
akaonekwa
akapa
akapara
akapedza
akapfeka
akapfuma
akapihwa
akapinda
akapinza
akapiwa
akapoteredza
akaramba
akarara
akararama
akare
akareba
akaremara
akareruka
akarongeka
akaroora
akaroorwa
akarurama
akasaina
akasara
akasarudza
akasarudzwa
akashanda
akashandawo
akashandisa
akashandurwa
akashaya
akasika
akasikwa
akasimba
akasiya
akasiyana
akasungwa
akasununguka
akasvika
akatakura
akatamba
akatamira
akatanga
akatarisa
akatarisana
akatarwa
akataura
akatenga
akati
akatonga
akatora
akatorwa
akatsanangura
akatsaukana
akatsigira
akatsikisa
akatsvuka
akatumidza
akatumidzwa
akatungamira
akaudza
akaumba
akaumbwa
akauya
akava
akavaka
akavamba
akavapo
akave
akavhara
akavigwa
akavimbiswa
akawana
akawanda
akawandisa
akawanikwa
akawomera
akazara
akazoenda
akazorora
akazova
akazove
akazvara
akazvarirwa
akazvarwa
akazvimirira
ake
akebu
akiso
akitiki
ako
akoose
akuna
akunda
akura
akwanise
akwarisi
al
ala
alain
alarm
alaska
alba
albania
albert
alberto
albino
albizia
album
albums
alcohol
alcoholic
ale
alele
alenga
alex
alexander
alexandria
alfred
algeria
ali
alice
alick
alien
alight
align
alike
alive
alkali
all
allen
alliance
allied
alligator
allocation
allotment
allow
alluvial
ally
almost
aloe
alois
alone
along
alongside
aloof
alpha
alphabet
already
also
altar
alter
altered
alternate
alternating
alternative
although
altitude
altogether
aluka
aluminium
alunga
always
am
ama
amabele
amafuku
amai
amaiguru
amainini
amakhiwa
amalima
amanda
amanzi
amass
amayele
amazulu
amba
ambaleeŋge
ambana
ambassador
ambayi
ambenge
ambhuya
ambi
ambition
ambuka
ambuya
america
american
amerika
amharic
amina
amire
ammonia
among
amos
amount
amp
amputate
amuka
amusement
amwe
amy
an
ana
analysis
anatayc
ancestor
ancestors
ancestral
anchor
ancient
and
anda
anderson
andrew
android
andu
andza
ane
anenge
anesu
anew
anga
angaitwa
angangoita
anganzi
angati
angava
angave
ange
angel
angela
angeles
angeline
angels
anger
anginamnako
angle
angled
anglican
angola
angolensis
angry
angu
anguish
angular
angwa
anhasi
ani
animal
animals
animation
anions
anita
anja
ankle
ann
anna
annals
anne
annie
annihilation
announce
announced
announcement
annoy
annoyance
annoyed
annual
ano
anobata
anobatsira
anobatwa
anobuda
anoburitswa
anobva
anochekana
anochengeta
anocherwa
anoda
anodaidzwa
anodanwa
anodarika
anodaro
anode
anodudza
anodya
anodzidzisa
anoenda
anoenderana
anofadza
anofamba
anofanhira
anofanira
anofanirwa
anofarira
anofungidzirwa
anogadzira
anogadzirwa
anogadzwa
anogara
anogona
anoimba
anoint
anoiswa
anoita
anoitawo
anoitika
anoitwa
anokonzera
anokonzerwa
anokunda
anokura
anokwanisa
anokwezverwa
anolyte
anomanikidzwa
anomirira
anonaya
anonyanya
anonyora
anonyorwa
anonzi
anonziwo
anonzwa
anoona
anooneka
anoonekwa
anopa
anopera
anopfuura
anopihwa
anopinda
anopinga
anopiwa
anoramba
anorara
anoratidza
anoreva
anorimwa
anoronga
anorwara
anosangana
anosanganisa
anosanganisira
anosara
anosarudza
anosarudzwa
anosevenza
anoshanda
anoshandira
anoshandisa
anoshandiswa
anoshanduka
anosika
anosiya
anosiyana
anosvika
anotadza
anotakura
anotamba
anotambira
anotanga
anotangira
anotaridza
anotarisirwa
anotaura
anotaurwa
anoteerwa
anotenda
anotendera
anotenderwa
anotengesa
anotevera
another
anoti
anotodza
anotodzana
anotonga
anotora
anotsanangura
anotsigira
anotungamira
anoturikira
anoumba
anounza
anouya
anova
anovamba
anovambwa
anoverengwa
anowana
anowanikwa
anowanzo
anowanzoonekwa
anowira
anoyerera
anoziva
anozivikanwa
anozivikanwawo
answer
answers
ant
antbear
antelope
anthill
anthony
anti
antibody
antics
antonio
ants
antsirabe
antu
anu
anufe
anus
anvil
anwa
anxiety
anxious
any
anya
anyone
anything
anzi
ap
apa
apart
ape
apedza
apex
apfuura
apiculatum
apihwe
apinda
apo
apostle
apostolic
appeal
appear
appearance
appeared
appears
appl
applaud
applause
apple
application
applied
apply
appoint
appointed
apportion
approach
appropriate
approve
april
aquarius
aquifer
ar
ara
arab
arabia
arabic
aramba
arambe
arbitrate
arc
arch
architect
architects
architectural
architecture
archive
archived
archives
arctic
are
area
areas
arege
arekisondira
argentina
argentine
argue
argument
ari
arid
aries
ariko
aripedyo
aripo
arise
aristocracy
ariye
ark
arm
armpit
arms
army
arnold
aro
arohwa
aroora
around
arrange
arranged
arrangement
arranger
arranges
arrive
arrived
arrogance
arrogant
arrow
arrows
arshpay
art
artery
arthur
article
articles
articulate
artificial
artist
artistic
artists
arts
arubhaniya
arufabheti
arujeriya
arumeniya
arya
as
asa
asangana
asara
asarudzwa
asati
ascend
ascent
ase
ash
ashamed
ashanda
ashande
ashaya
ashe
ashes
asi
asia
asian
asiatica
aside
asina
asingadi
asingasvike
asipo
asiri
asisiri
asiwo
ask
asked
asking
asks
asleep
aslo
aspect
ass
assault
assegai
assemble
assembled
assembly
assert
assessor
assist
assistance
assistant
associate
associated
association
assort
assured
aster
asteroid
asthma
astonishing
astray
astrology
astronomical
astronomy
asvika
asylum
at
ata
atanga
ate
atenga
ati
atlandiki
atlantic
atmosphere
atmospheric
atom
atomic
atoms
atomu
atora
atore
attach
attached
attack
attacked
attacks
attempt
attend
attendant
attention
attentively
attitude
attract
attraction
attractive
atwot
au
audacity
audience
audio
audius
audrey
august
augustine
aunt
austin
australia
australian
austria
author
authoritative
authorities
authority
autumn
auya
av
ava
available
avalanche
avarice
ave
avengers
avenue
average
avhareji
aviv
avo
avoid
avoidance
awa
awake
awana
awanda
awane
awanikwa
award
awards
away
awo
axe
axis
aya
ayanda
ayi
ayo
aza
azerbaijani
azeribhaijani
azote
azuri
azvarwa
azvo
b
ba
baa
baaba
baal
baala
baba
babamudiki
babamukuru
babamunini
babe
baboon
baboons
babungo
baby
baca
bach
bachelor
bacillus
back
backbite
backbiting
backbone
background
backstroke
backwards
bacteria
bacterial
bad
badger
badly
badmouth
badness
badwe
badza
bafanji
bag
baganya
bagel
baggage
bahamas
bail
baila
bailey
bait
bak
baka
bakaka
bakalanga
bakana
bakanya
bakanyira
bakanyire
bakare
bake
baking
bako
bakole
bakonzo
bakupi
bakweri
bala
balance
balanced
balancing
bald
baldness
bale
baleni
bali
balima
ball
baloyi
bamba
bambara
bambo
bamboo
bana
banana
bananas
band
banda
bandage
bandama
bande
bandira
bandundu
bandy
bang
banga
bangala
bangime
bango
bangtan
bangu
bangula
bangwa
banhwa
bani
bank
banket
banks
bantu
banza
banze
baobab
bape
bapiro
bar
bara
barack
baradzarudzi
barain
baranya
barara
bararira
baraza
barbara
barber
bare
bargain
bari
barika
bark
barley
baronga
barotse
barre
barrel
barren
barrier
bars
barter
bartlett
baru
basa
basabasa
base
based
bashe
basi
basic
basin
basis
bask
basket
baskets
basotho
bast
bat
bata
bath
bathe
bato
batonga
batsirai
batswana
battle
batya
bau
bauhinia
bavili
bay
baya
bazi
bbc
bc
bce
bcg
be
beach
beacon
bead
beads
beam
beams
bean
beans
bear
beard
bearing
beast
beat
beaten
beating
beatrice
beautiful
beautify
beauty
bebe
became
because
beche
bechinambya
beckon
becky
become
becomes
becoming
bed
bedding
bedroom
bedstead
bedzi
bee
beehive
been
beer
bees
beestings
beeswax
beetle
befitting
before
befu
beg
began
beget
beggar
begin
beginner
beginning
begins
behave
behavior
behaviour
behead
behind
behold
beijing
being
beings
beit
beitbridge
beka
bel
bela
belarus
belch
bele
beleka
belenga
belgium
beli
belief
beliefs
believe
belinda
bell
bellow
bellows
belly
belong
belonging
belongings
beloved
below
belt
bemba
ben
bend
bendekete
bending
bene
beneath
benedicte
benefactor
benefit
benevolent
benga
bengo
benhura
benin
benjamin
bennett
benson
bent
benzi
bepa
bepe
bepu
bepura
bera
bere
berengo
berere
berg
beria
berlin
bernard
berry
beryllium
besa
beside
besides
best
besu
bet
beta
bete
beth
better
betty
between
beverage
beware
bewilder
bewitch
bewitched
beyond
bh
bhaaru
bhachi
bhahareyini
bhahari
bhaibheri
bhaisikopo
bhakiteriya
bhakitiriya
bhanana
bhande
bhanga
bhara
bhari
bharu
bhasa
bhasera
bhasiketi
bhasikoro
bhatani
bhavha
bhavhu
bhawaraki
bhazi
bhegi
bhendi
bhenini
bhera
bherarusi
bhero
bheseni
bheti
bheya
bhii
bhila
bhinzi
bhiriji
bhiriyoni
bhiza
bhizinesi
bhizinisi
bhobha
bhodhi
bhodhoro
bhokisi
bhomba
bhondi
bhonza
bhoo
bhora
bhoso
bhosvo
bhotswana
bhudhi
bhuku
bhumi
bhuraziri
bhuritani
bhuru
bhurugariya
bhurugwa
bhurukina
bhuruu
bhutsu
bi
bia
bibcode
bibi
bible
bicycle
bid
bidens
bier
bifurcation
big
bigger
biggest
bigness
bii
bikita
bila
bile
bilharzia
bill
billboard
billion
billy
bimbiri
bimha
bin
bind
bindu
bindura
bing
binga
bingandadi
bingu
bio
biography
biological
biology
bipingushi
bira
bird
birdlime
birds
bire
biri
birima
birth
birthday
bishi
bisi
bissa
bissau
bit
bite
biti
biting
bitira
bitongole
bits
bitstream
bitten
bitter
bitterness
biya
biyo
bl
black
blacksmith
bladder
blade
blaise
blame
blanket
blaze
bleach
blemish
bless
blessed
blessing
blessings
blica
blind
blindness
blink
blister
blob
block
blogspot
blood
bloom
blossom
blow
blowing
blown
blows
blu
blue
blunt
bmj
bo
board
boast
boasting
boat
bob
bobangi
bodies
bodo
body
bodzi
bofu
bog
boi
boil
boiled
boiling
boka
bold
boldness
bole
bolivia
bolo
bomb
bomho
bon
bona
bond
bonda
bonde
bondeka
bondera
bondokoto
bondongo
bone
bones
bonga
bongo
bongozozo
boni
boniface
bonnie
bonyongo
bonyora
book
books
boora
booth
bope
bopoto
bor
border
bore
born
borna
borne
boro
boroma
borrow
bosho
bosnia
boss
bota
bote
boterekwa
boterero
both
botha
bother
botso
botswana
bottle
bottom
bought
bound
boundary
bounds
bow
bowels
bowl
bows
box
boy
boyfriend
boys
boyz
bozho
br
bracelet
brachystegia
brag
braid
brain
bran
branch
branches
brand
brass
bravanese
brave
bravery
brazil
brazzaville
breach
bread
breadth
break
breaking
breaks
breast
breasts
breath
breathe
breed
breeds
breeze
brenda
brevity
brewing
brian
bribe
brick
bride
bridegroom
bridge
bridget
brief
briefness
bright
brighten
brightness
brighton
brim
bring
bringing
brings
britain
britannica
british
broad
broadcast
broadcasting
broke
broken
bronze
brook
broom
brother
brotherhood
brothers
brought
brow
brown
browse
bruce
brush
brute
bts
bu
bua
bubble
bucharest
buchilo
buck
bucket
bud
buda
buddha
buddhist
budiriro
buene
buffalo
bug
buhera
buhobe
build
builder
building
buildings
built
buja
buka
bukalanga
bukira
bukusu
bula
bulawayo
bulaya
bulb
bule
bulele
bulgaria
bulge
bulk
bull
bullet
bulrush
bulu
bulunga
bulungu
bumbiro
bumburu
bumburudzi
bumha
bumhi
bumhira
bumosi
bunch
bunched
bundle
bundo
bundu
bundutso
bung
bunga
bungu
bungula
bungwa
bunoge
bununu
bupira
bur
bura
burden
bure
buri
burial
buried
burkina
burma
burn
burned
burning
burnt
burrow
burst
buru
burundi
burura
bury
bus
busa
bush
bushbuck
bushes
bushu
bushwillow
bushy
business
busonga
busy
but
buta
butala
butali
butcher
bute
butha
butt
butter
butterfly
buttocks
button
butu
butukulu
buwa
buwe
buy
buyambi
buyer
buying
buyu
buyurimwe
bveke
bveni
bvira
bvudzi
bvuma
bvunza
bvunzo
bvupa
bvute
bwa
bwalo
bwalya
bwami
bwana
bwanga
bwato
bwenge
bweru
bwerudza
bwila
bwile
by
bypass
bɔ
bə
bɛ
bɪ
bʊ
c
ca
cabbage
caffra
cake
calabash
calamity
calcium
calculate
calculated
caleb
caledonia
calendar
calf
calico
california
call
called
calling
calls
calm
calmness
calvin
cam
cambridge
came
camel
cameroon
camp
campaign
camps
can
canada
canal
cancer
candidate
candle
cane
caning
cannot
canoe
canoes
cap
capable
capacity
cape
capensis
capillary
capital
capleton
capricon
capricorn
captive
capture
car
caravan
carbohydrates
carbon
card
cardinal
care
career
careful
carefully
carefulness
careless
carelessly
carelessness
caress
carissa
carl
carlos
carol
caroline
carpenter
carrere
carried
carrier
carry
carrying
cartridge
carve
carved
carving
case
cases
cassava
cassia
cast
castor
castrate
castrated
casual
cat
cataract
catch
catching
category
caterpillar
caterpillars
catfish
cathedral
cathode
catholic
catholyte
cathrine
cations
cattle
caucasian
caught
caus
causative
cause
caused
causes
causing
cave
cavity
cc
cd
cdc
cdot
ce
cease
cecil
celebration
celebrity
cell
cells
celsius
cemetery
censure
census
centenary
center
centers
centipede
central
centre
centripetal
century
ceo
cephas
ceramic
cereal
ceremony
certain
cervix
cessation
ch
cha
chababa
chabuka
chabva
chabvamuperu
chabvuta
chacho
chad
chademana
chadenga
chadereka
chadhi
chaerera
chafesuka
chaff
chagara
chagonda
chaguduka
chai
chaicho
chaiko
chaikoiko
chain
chainzi
chaipo
chair
chairman
chairo
chaishandiswa
chaisingadyi
chaiswa
chaita
chaitika
chaiva
chaive
chaiwo
chaiye
chaiyo
chaizvo
chaji
chaka
chakabatanidzwa
chakadai
chakafa
chakafanana
chakagadzirwa
chakagara
chakaipa
chakaita
chakaitika
chakaitwa
chakakosha
chakakumbanidza
chakakura
chakakwana
chakali
chakamira
chakanaka
chakanangana
chakanga
chakanyanya
chakanyorwa
chakanyuka
chakanzi
chakaoma
chakapfava
chakapinza
chakareba
chakareruka
chakarukwa
chakarurama
chakasimba
chakasiyana
chakata
chakatanga
chakatekeshera
chakati
chakaumbwa
chakaunganidza
chakauya
chakavakwa
chakavezwa
chakawata
chake
chako
chakonda
chakonza
chakota
chakuwa
chakwanza
chakwita
chala
chalk
challa
challenge
challenges
chalo
chamapiwa
chambati
chambers
chambizo
chambo
chamboko
chambuko
chamhembe
champion
chamunorwa
chamupupuri
chamwari
chan
chance
chanda
chandakadzi
chando
changa
changamire
change
changed
changes
changing
changu
chanhasi
chanja
channel
chansa
chanza
chanzo
chapangura
chapara
chaparira
chapatarongo
chapfunga
chapinda
chapinduka
chapinga
chapotera
chapter
chapungu
chara
character
characteristic
characteristics
charadza
charaka
charama
charamba
charandura
charcoal
chare
charehwa
charge
charged
chari
charity
charles
charlie
charm
charo
chart
chartreuse
charumbira
charunda
charwe
chasakwa
chasauka
chase
chasi
chasvika
chat
chataika
chatema
chatemabanze
chatemagombwe
chatemamhomho
chatemamwari
chatemanjonda
chatemanyanzvi
chatemavabinyi
chati
chatonda
chatora
chatter
chatunga
chaturikirwa
chauke
chaukura
chaunga
chaunoda
chava
chavarika
chave
chavo
chawanda
chawo
chayera
chayina
chayo
chaza
chazvo
che
cheafurika
cheamerika
cheap
cheat
cheating
chebamba
chebasa
cheboka
chechamhembe
cheche
chechetere
chechi
chechikadzi
chechikristu
chechina
chechinhu
chechinyakare
chechinyorwa
chechipiri
chechishona
chechitatu
chechiuno
check
checovid
chedu
chedza
chedzidzo
chedzinza
cheek
cheeks
cheenglish
cheese
cheezhiya
cheffers
chefu
chefundoyetsimba
chega
chegumbo
chegumi
chegutu
chehuchi
chehuwandu
cheka
chekare
chekoriya
cheku
chekuchamhembe
chekuda
chekugadzira
chekuita
chekupedzisira
chekusunungura
chekutanga
chekuti
chela
chema
chemakumi
chemasvomhu
chemazuva
chemba
chembere
chemhando
chemhuka
chemical
chemicals
chemishonga
chemistry
chemunda
chemunhu
chemunhukadzi
chemutauro
chemuti
chemuviri
chemuzimbabwe
chemvura
chen
chena
chenai
chenga
chengetai
chengo
chengu
chenguva
chenhabvu
chenhangande
chenhengo
cheni
chenje
chenjedzo
chenjerai
chenjodzi
chenyika
chenza
chenzvimbo
chepakati
chepamusoro
chepimanyika
chepiri
chera
cherechedzai
cherish
chero
cherry
cheruambanyeredzi
cherudzi
chesango
chese
chesekondari
cheshoko
cheshuga
cheshuramatongo
chess
chest
chetaranyika
chete
chetero
cheteyo
chetsika
chetsoka
chevagari
chevanhu
chevashona
chevasikana
chew
chewa
chewed
chezimbabwe
chezita
chezuva
chezvikamu
chezvinhu
chezvipenyu
chi
chiambaro
chiambi
chiara
chiarabhu
chiazeri
chibage
chibaka
chibanda
chibangwa
chibantu
chibatiro
chibaya
chibayiro
chibendo
chibereko
chibhakera
chibharo
chibhende
chibhengari
chibhunu
chibi
chibisa
chibodzi
chibodzwa
chibure
chibuti
chibvumirano
chibwa
chibwe
chichava
chichayina
chichena
chichewa
chichibva
chichiita
chichinge
chichinzi
chichireva
chichiri
chichiso
chichitevedza
chichiti
chichiva
chick
chicken
chida
chidaka
chidamoyo
chidau
chidawo
chidembo
chidenhi
chideu
chideya
chidhakwa
chidhau
chidhindo
chidhinha
chidiki
chidimbu
chido
chidodo
chidoko
chidongo
chidowe
chiduku
chidya
chidyiwe
chidyo
chidza
chidzero
chidzidzi
chidzidzo
chidzikwe
chidziva
chidzo
chidzonga
chiedza
chief
chiefdom
chiefs
chiefship
chieftainship
chiera
chifamba
chifananidzo
chifani
chifo
chifumuro
chifunda
chifundo
chifungo
chifunyise
chifurenji
chiga
chigaba
chigadzirwa
chigaga
chigagairwa
chigamba
chigango
chiganze
chigaro
chigayo
chigebenga
chigero
chigiriki
chigodora
chigomba
chigonda
chigu
chigubhu
chigumbu
chigumi
chigumira
chigumo
chigunda
chigunwe
chiguro
chigutiro
chigutsa
chiguwa
chigwa
chigwana
chigwedere
chigwenembe
chigwindiri
chihara
chihebheru
chihera
chihindi
chihoboya
chihombe
chihombori
chihomwe
chihoro
chihota
chihuri
chihwa
chii
chiikuhane
chiindo
chiine
chiinuiti
chiitari
chiitiko
chiito
chijaka
chijapani
chijerumani
chikadzi
chikafu
chikaka
chikalanga
chikamba
chikambi
chikamu
chikanda
chikandi
chikanga
chikani
chikanya
chikanza
chikara
chikarakara
chikaranga
chikasha
chikata
chikavayika
chikepe
chikerema
chikero
chikete
chiko
chikobvu
chikodza
chikodzo
chikohwa
chikoko
chikomba
chikombarume
chikombero
chikombo
chikombora
chikomborero
chikomo
chikonda
chikonde
chikondere
chikondi
chikondo
chikonga
chikonge
chikono
chikonzero
chikonzi
chikope
chikore
chikorekore
chikoriya
chikoro
chikorwa
chikosi
chikosoro
chikota
chikote
chikotera
chikoto
chikovera
chikowe
chikowo
chikowore
chikoya
chikozo
chikristu
chikuhwa
chikuku
chikukutu
chikumbi
chikumbirike
chikumbiro
chikumbu
chikumi
chikunda
chikungu
chikungulu
chikunguru
chikuni
chikunja
chikunya
chikupo
chikuru
chikurunhe
chikuruwo
chikusi
chikuta
chikuti
chikutu
chikuva
chikuvamagwaro
chikuwa
chikuwo
chikwaka
chikwama
chikwanda
chikwangwani
chikwanha
chikwapuro
chikwari
chikwata
chikwatamabwe
chikwava
chikwaya
chikwera
chikwere
chikwereti
chikwesa
chikweshe
chikwinya
chila
chilambo
chilambu
child
childbirth
childhood
children
chile
chilenda
chill
chilli
chilo
chilombo
chilonga
chilufya
chima
chimanda
chimanga
chimanimani
chimanje
chimanyika
chimbaka
chimbalazi
chimbamba
chimbanda
chimbara
chimbarange
chimbare
chimbaya
chimbeva
chimbi
chimbikiti
chimbo
chimbondo
chimbumba
chimbumu
chimbuzi
chimbwamupengo
chimedu
chimene
chimenya
chimera
chimhanda
chimhini
chimhungu
chimina
chimiriro
chimiro
chimiso
chimo
chimodzashemu
chimombe
chimonya
chimonyo
chimotsi
chimotso
chimuchiti
chimuka
chimuko
chimukuyu
chimupika
chimurenga
chimuti
chimwana
chimwanda
chimwe
chimwechete
chimwecho
chimwewo
chin
china
chinaija
chinake
chinamano
chinamasa
chinamatira
chinamato
chinamhora
chinanazi
chinanga
chinangwa
chindali
chindara
chindau
chindeb
chindebele
chindende
chindevere
chindeya
chindini
chindondo
chindori
chindowa
chine
chinenge
chinengundu
chinepfu
chinese
chinga
chingala
chinganga
chingava
chingezi
chingo
chingoma
chingono
chingore
chingoro
chingoto
chingundu
chinguni
chinguri
chinguva
chingwa
chingwanda
chinhambwe
chinhenga
chinhoyi
chinhu
chinja
chino
chinobata
chinobatsira
chinobhadharwa
chinobhiini
chinobuda
chinobva
chinoda
chinodanwa
chinodarika
chinodiwa
chinodudza
chinodya
chinodyiwa
chinofamba
chinofanirwa
chinofungidzirwa
chinogadzirwa
chinogara
chinogona
chinoiswa
chinoita
chinoitika
chinoitwa
chinokonzera
chinokonzerwa
chinokoro
chinokumbanidza
chinokura
chinokwana
chinokwanisa
chinokwaniswa
chinomirira
chinongo
chinono
chinonyanya
chinonyorwa
chinonzi
chinooneka
chinoonekwa
chinopa
chinopfekwa
chinopisa
chinopiwa
chinorarama
chinorema
chinoreva
chinosanganisa
chinosanganisira
chinosara
chinosarira
chinoshanda
chinoshandisa
chinoshandiswa
chinoshanduka
chinosvika
chinotakura
chinotanga
chinotapukira
chinotaridza
chinotaridzika
chinotarisa
chinotaura
chinotaurwa
chinotevera
chinoti
chinotomba
chinotora
chinotorwa
chinotsanangura
chinoumbwa
chinounganidza
chinouraya
chinova
chinovhara
chinovhiringa
chinowanikwa
chinowanzo
chinowongorora
chinozivikanwa
chinu
chinwiwa
chiny
chinya
chinyai
chinyakare
chinyama
chinyamakobvu
chinyani
chinyarwanda
chinyora
chinyoro
chinyorwa
chinyuka
chinzvimbo
chiororo
chioza
chip
chipaka
chipakati
chipala
chipamuriwo
chipanda
chipande
chipandemwana
chipandwa
chipanga
chipangano
chipangula
chipangura
chipapu
chipara
chipare
chipari
chipasa
chipatara
chipato
chipauro
chipeke
chipembenene
chipembere
chipendo
chipenyu
chipenze
chipepero
chiperengo
chipeta
chipfeko
chipfumbu
chipfundo
chipfunhu
chipfupi
chipfuva
chipfuyo
chipi
chipida
chipika
chipikiri
chipili
chipimo
chipindi
chipindura
chipinga
chipinge
chipinya
chipiri
chipiriso
chipo
chipoka
chipoko
chipondwa
chiponya
chipopoteke
chiporombe
chipotero
chipoyera
chipundo
chipunga
chipungu
chipunza
chipupu
chipurura
chiputukezi
chipwaya
chira
chiradza
chirahwe
chirakata
chiramba
chirambadare
chirambo
chiramwa
chirandu
chiranga
chirangano
chirango
chirapa
chirara
chirariro
chiratido
chiratidzo
chiratini
chirau
chiraviro
chirebvu
chiredzi
chirefu
chireka
chirema
chiremba
chiremera
chirenda
chirendo
chirengo
chirenje
chirera
chirere
chirevazita
chirevo
chirewa
chirhashiya
chiri
chiridzwa
chirikadzi
chirimba
chirimi
chirimo
chirimujiri
chirimuta
chirimwa
chirinda
chirindi
chiringa
chiringiro
chiripo
chiriri
chiro
chirodza
chirodzero
chirodzo
chirombe
chirombo
chiromo
chironda
chironga
chirongo
chirongwa
chirongwe
chironzi
chironzo
chiroodza
chiropa
chiroro
chiroto
chirowodza
chiruka
chirukwa
chirumbi
chirumbu
chirume
chirunda
chirundazi
chirunde
chirundu
chirunga
chirungo
chirungu
chirungurira
chirwa
chirwere
chirwirangwe
chisa
chisaka
chisamarengu
chisamba
chisambi
chisanga
chisanza
chisao
chisasa
chisase
chisasiko
chisata
chisati
chisawa
chisazita
chisembe
chisemiti
chisepo
chisero
chisese
chishanu
chishara
chishashavira
chishava
chishawasha
chishemu
chishiki
chishona
chishongo
chishongrish
chishumba
chishuvo
chishuwo
chisi
chisika
chisike
chisikwa
chisimba
chisimira
chisina
chisipiti
chisiri
chisirimunhu
chiso
chisoka
chisoko
chisoma
chisomo
chisonde
chisonga
chisongo
chisoni
chisoro
chispeini
chisumamunyati
chisumba
chisungo
chisunguro
chisuvi
chisvo
chisvusvuro
chiswa
chiswahili
chiswahiri
chiswati
chiswili
chita
chitadzo
chitagu
chitaka
chitakatira
chitamba
chitambara
chitambira
chitanda
chitando
chitangala
chitapa
chitara
chitare
chitari
chitasa
chitata
chitatu
chiteka
chitema
chiteme
chitenderano
chitendero
chitendo
chitenga
chitengu
chitepo
chiterere
chitete
chiteve
chiti
chitiko
chitima
chitofu
chitoma
chitonda
chitonga
chitonge
chitongo
chitore
chitoro
chitowa
chitsa
chitsaka
chitsama
chitsaru
chitsaya
chitsere
chitsidzo
chitsiga
chitsika
chitsiko
chitsinde
chitsitsinho
chitsonga
chitsumbu
chitsunge
chitsungo
chitsuwa
chitsva
chitsvuku
chitswa
chitswana
chitubu
chituku
chitukuta
chitukutuku
chitumba
chitumbuka
chitumbura
chitunami
chitunda
chitungwiza
chitunha
chitupa
chitura
chituro
chituru
chituruki
chituso
chituta
chituwa
chituwo
chiumbiko
chiumbu
chiumbwa
chiundu
chiunga
chiungo
chiunguro
chiuno
chiunziko
chiuru
chiusiwa
chiuto
chiutsi
chiva
chivabvu
chivaka
chivakamberi
chivakashure
chivakwa
chivamba
chivambe
chivanda
chivango
chivangu
chivanhu
chivanze
chivara
chivarange
chivare
chivasa
chivavatara
chivaviro
chive
chiverevere
chivero
chivese
chiveve
chivezwa
chivharo
chivhenda
chivhiyetinamu
chivhu
chivhunga
chivhuramabwe
chivi
chivimbiso
chivindi
chiviri
chivizhe
chivongo
chivunga
chiwa
chiwaka
chiwamba
chiwana
chiwandamira
chiwandika
chiwandire
chiwanza
chiwara
chiware
chiwashira
chiwawa
chiweda
chiwenga
chiwera
chiweshe
chiwira
chiwirano
chiwoka
chiworeka
chiwota
chiwumbiko
chiwunga
chixhosa
chiya
chiyaka
chiyamba
chiyambi
chiyambo
chiyangwa
chiyaya
chiyero
chiyo
chizanga
chizere
chizezuru
chizhinji
chizinga
chiziviso
chizonda
chizora
chizulu
chizungu
chizungulire
chizuru
chizvarirwo
chizvarwa
chloride
chlorine
chobe
chodeva
choga
choi
choice
choir
choke
chokera
chokudya
chokuita
chokunge
chokupedzisira
chokutambudzika
chokutanga
chokuti
chokuziva
chokwadi
chokwe
chombe
chombo
chomene
chomumwe
chongo
chonzi
choolwe
choose
chop
chopi
chopped
chorus
chose
chosun
choto
choumambo
choupenyu
chourere
chouviri
choya
chris
christ
christelle
christian
christianity
christine
christmas
christopher
chroma
chrome
chronic
chronicle
chuabo
chuma
chumba
churama
church
churu
chuwabo
ci
cid
cigarette
cipungu
circle
circuit
circular
circumcise
circumcised
circumcision
circumference
circumstance
cit
citali
citation
cite
cities
citizen
citizenship
citrus
city
civic
civil
civili
civilisation
civilization
claim
claire
clan
clap
clara
clarity
class
classes
classical
classification
classify
claude
claw
clay
clayey
clayton
clean
cleanliness
clear
cleared
clearing
clearly
clearness
cleave
cleft
clement
clerk
clever
cleverness
cliff
climate
climb
climbing
clinical
clio
clitoris
clive
clock
clod
close
closed
closely
closing
cloth
clothes
clothing
cloud
clouds
club
clump
cluster
clusters
cm
cnn
co
coal
coalition
coals
coarse
coast
coat
coates
cob
cobs
cobweb
cochrane
cock
cockroach
coconut
cocoon
coffee
coil
coiled
coin
cola
colander
cold
collaboration
collaborators
collapse
collapsing
collar
collect
collected
collecting
collection
collector
colleen
college
collen
collins
colombia
colonial
colony
color
colostrum
colour
coloured
colours
columbina
column
com
combine
combined
combining
combretum
come
comes
comfort
comfortable
comics
coming
command
commander
commandment
commence
commencement
commend
commerce
commercial
commiphora
commission
commit
committee
common
commoner
commonly
commonwealth
commotion
communal
commune
communication
communion
community
companion
company
compare
comparison
compass
compassion
compel
compensation
compete
competent
competition
compilation
complain
complete
completed
completely
completeness
complex
complexion
complexity
complicate
component
compose
composite
compound
compounds
comprehensive
computer
comrade
con
concave
conceal
concealed
concealment
conceited
conceive
concentrate
concentration
concept
concern
concerned
concerning
concerns
concert
concerted
concession
concetration
conclude
conclusion
concord
concrete
concubine
condemn
condition
conditions
conduct
conductor
conference
confess
confidence
confident
confirmed
confiscate
conflict
conform
confuse
confused
confusion
congeal
congealed
congo
congregate
congregation
congress
conj
conjuring
connect
connected
connection
conquer
conscience
consciousness
consent
consequence
consequences
conservation
conserve
consider
consideration
considered
consistency
console
consolidated
conspiracy
constance
constant
constantly
constellation
constituency
constitution
construct
constructed
construction
constructions
constructive
consumption
contact
contain
container
containing
contaminate
contemporary
contempt
content
contents
context
continent
continual
continually
continue
continuous
continuously
continuum
contraception
contract
contracting
contradict
contradiction
contrary
contribution
contributors
contrive
control
controlled
convalescent
converge
conversation
converse
convert
converted
convex
convey
convict
coogler
cook
cooked
cooking
cool
coolness
cooperate
cooperation
coordinates
copa
copper
copulate
copy
copyright
cord
cordatum
core
coriacea
cork
corn
corner
coronavirus
corporation
corps
corpse
corpulence
corpulent
correct
correctness
corrupt
corruption
cosine
cosmas
cost
cote
cottage
cotton
cough
could
coulibaly
council
councillor
counsel
counsellor
count
countdown
counted
countenance
counter
counterpart
counting
countries
country
county
coupe
courage
courageous
course
court
courtyard
cousin
cousins
cov
covalent
covenant
cover
covered
covering
covid
cow
coward
cowardice
cowardly
cows
cp
cr
crab
crack
cracked
cracking
craft
craftiness
crafty
cram
crane
crave
craving
crawl
crawling
crazy
cream
create
created
creation
creative
creator
creature
credit
creep
creeper
creeping
crest
crew
cricket
crime
criminal
crippled
critic
criticism
criticize
critics
crocodile
crocodiles
crook
crooked
crookedness
crop
crops
crosby
cross
crossed
crossing
crossover
crossroads
crosswise
croton
crouch
crouching
crow
crowd
crowded
crown
cruelty
crush
crushed
crushing
crust
cry
crying
crystal
crystall
ct
cu
cub
cubic
cubit
cuddle
cultivate
cultivated
cultivating
cultivation
cultural
culture
cultures
cunning
cup
curatellifolia
cure
cured
curl
curled
current
currently
curse
curtis
curve
curved
cussonia
custom
customary
customer
customs
cut
cuts
cutter
cutting
cyber
cycle
cynthia
cypher
cyrillic
czech
d
da
daa
daba
dad
dada
daddy
dagbani
dahwa
dai
daily
daka
dakarai
dakataka
dakwa
dala
dalbergia
dale
daly
dam
dama
damage
damba
dambarefu
dambi
dambo
dambudziko
dambudzo
damp
dan
dana
danai
danal
dance
dancehall
dancer
dancing
danda
dandadzi
dandadzira
dandamera
dandanda
dandara
dandare
dandato
dande
dandemutande
dandi
dandira
dandiranyika
dang
danga
dangarembga
dangarembizi
dangbe
danger
dangerous
dangwe
danha
danhautande
danho
daniel
dar
dara
daramombe
darare
daraunene
dare
darejena
dari
daring
daringo
darisanwa
dark
darkness
darlington
daro
dart
darwin
das
data
database
date
datura
datya
dau
daughter
daughters
dausi
davi
david
davis
dawa
dawn
day
daylight
days
daytime
dc
de
dead
deaf
deafness
deal
dealing
dean
dear
death
deaths
debate
deborah
debt
debtor
debts
debut
dec
decade
decay
deceased
deceit
deceitful
deceive
december
deception
deceptive
decide
decimal
decision
declaration
declare
decline
decorate
decoration
decrease
decrepit
dede
dedicate
dedza
deed
deeds
deep
deeper
deeply
deere
defame
default
defeat
defect
defence
defend
defense
deficiency
deficient
defined
definite
definition
defraud
defy
degrade
degree
degrees
dehenya
dehwe
deka
deke
dekenyera
dekeshera
deketeke
deko
deku
dekune
del
delay
delays
delhi
deliberately
deliberation
delicate
delicious
delight
deliver
delivered
delivery
delta
dema
demba
dembe
dembedza
dembera
dembo
dembure
demhe
demo
democracy
democratic
demolish
demon
demonstrate
den
denda
dende
dendemaro
dendera
dendere
denderedzwa
denderende
denenga
denengu
denga
denganyika
denge
dengende
dengezeze
dengu
denhe
denhere
denial
denmark
dense
density
dent
dented
deny
denya
deo
depart
department
departure
depend
dependent
depends
deposit
depressed
depression
deprive
dept
depth
depute
deputy
der
dera
dere
derembwe
derera
derere
derived
derives
des
descend
descendant
descendants
descent
describe
description
desert
deserted
deserve
design
designate
designed
designer
designs
desire
desmond
desolate
despair
despise
despite
despoil
destination
destitute
destroy
destroyed
destruction
destructive
desvenenga
det
detach
detail
detailed
details
dete
detema
detembo
deteriorate
determination
determine
determined
deve
develop
developed
development
deviation
device
devices
devise
dew
dewa
dh
dhadha
dhaga
dhaka
dhamu
dhanemaki
dhara
dhatabhesi
dhewa
dhi
dhidhizha
dhigiri
dhigirii
dhinyero
dhiri
dhiskogirafi
dhizaini
dhodhi
dhongi
dhonza
dhorobha
dhuku
dhumbudya
di
dia
diagnosis
dialect
dialects
diamond
diana
diaphragm
dictionary
did
didi
didn
die
died
diego
dies
differ
difference
different
difficult
difficulties
difficulty
dig
digging
digital
dignitary
dignity
digo
dihwa
dii
dika
dikatika
diki
dikidza
dikita
dikizela
dikumbi
dili
diligence
diligently
dilundo
dilute
diluted
dima
dimba
dimbi
dimbu
dimbwi
dimension
dimensions
diminish
dimu
din
dindi
dindingwe
dinga
dingindira
dinka
dino
dios
diospyros
dioxide
dip
diplorhynchus
direct
directed
direction
directions
directly
director
dirt
dirty
dis
disagreement
disappear
disappeared
disappearing
disappointment
disaster
discharge
discipline
disclose
discography
discolor
disconcerted
discord
discourage
discourse
discover
discovered
discriminate
discuss
discussion
disdain
disease
diseases
disgrace
disgust
disgusted
disgusting
dish
dishes
dishonest
disinclination
disintegrate
disk
dislike
dislocate
dismiss
disney
diso
disobedience
disorder
dispatch
disperse
display
displaystyle
disposition
dispute
disputed
disregard
disrespectful
dissolve
dissuade
distance
distancing
distant
disticha
distillation
distinct
distinction
distinctly
distinguish
distinguished
distinguishing
distress
distribute
distribution
district
disturb
disturbance
ditch
dititi
dive
diversity
divi
divide
divided
dividing
divine
division
divorce
divulge
diya
dj
djibouti
djimini
djvu
dlamini
dna
do
doa
dock
docs
doctor
doctrine
document
documents
dodge
dodging
dodo
dodonaea
doer
does
doesn
dog
dogs
doi
doing
doings
doke
doko
dollar
dolo
dom
doma
domain
domasi
dombeya
dombo
dombodzvuku
dombojena
domboshava
dombwe
dome
domestic
domesticate
domicile
dominate
dominic
dominion
dominique
don
donald
donate
dondo
dondori
done
dong
donga
dongo
dongozi
donhodzo
donhwe
donje
donkey
donzvo
doo
door
doorway
dope
dor
dora
dorcas
doreen
doris
doro
dorothy
dota
doto
double
doubt
dough
douglas
dova
dove
dovi
dovo
dovyalis
dowe
dowera
down
downhill
download
downpour
downstream
downward
downwards
downy
dowry
dq
dr
dracaena
drag
dragged
drain
drained
draining
drama
draw
drawing
drawn
drc
dread
dream
dregs
dress
dressed
dried
drift
drill
drink
drinking
drip
drive
driver
drives
driving
drizzle
drooping
drop
drops
drought
drown
drug
drugs
drum
drunk
drunkard
drunkenness
dry
drying
dryness
du
duala
dube
duck
dudzirazivo
dudziro
due
dug
duiker
duka
duke
duku
dukutuku
dula
dull
dullness
duma
dumb
dumba
dumbi
dumbu
dumbura
dumidzo
dumisani
dundundu
dung
dunga
dungo
dungwe
dunhu
dununu
dunzvi
duo
duplicate
dura
duramahwi
duramazwi
duration
duri
during
duru
dusk
dust
dusty
dutavanhu
dutch
dutu
duty
duwo
dwarf
dwarfishness
dwell
dwelling
dya
dye
dying
dynamics
dynasty
dza
dzacho
dzaishandiswa
dzaiva
dzaive
dzaka
dzakabikwa
dzakabudirira
dzakadai
dzakaderera
dzakadevana
dzakadya
dzakaenzana
dzakafanana
dzakagadzirwa
dzakaita
dzakaitwa
dzakakangwa
dzakakomberedza
dzakakosha
dzakakura
dzakakwirira
dzakanaka
dzakanga
dzakanyorwa
dzakaoma
dzakapfava
dzakareba
dzakarongeka
dzakarongwa
dzakasimba
dzakasiyana
dzakatanga
dzakatarisana
dzakatenderedza
dzakati
dzakatsaukana
dzakavakwa
dzakawanda
dzake
dzako
dzala
dzama
dzamara
dzana
dzanga
dzangare
dzangu
dzaro
dzasvika
dzava
dzavana
dzave
dzavo
dzawo
dzayo
dze
dzeafrica
dzeboka
dzebts
dzechefu
dzechikristu
dzechinyakare
dzechishona
dzechivanhu
dzedu
dzega
dzehatomu
dzehondo
dzehushangazhi
dzekare
dzekuchamhembe
dzekudzivirira
dzekueurope
dzekugadzira
dzekumadokero
dzekunze
dzekutanga
dzekutarisirwa
dzekuuraya
dzemabwe
dzemanhanga
dzemarudzi
dzematongerwo
dzembe
dzemhando
dzemhuka
dzemhuri
dzemitauro
dzemitsetse
dzemu
dzemuafrica
dzemukadzi
dzemukati
dzemumuviri
dzemuna
dzemunhu
dzemurume
dzemusango
dzemuviri
dzemvura
dzenga
dzenhapwa
dzenhoroondo
dzenyika
dzenzou
dzepasi
dzepasirose
dzerevende
dzeropa
dzerudzi
dzeruvara
dzesango
dzese
dzesikarudzi
dzesimbi
dzetaranyika
dzete
dzevamwe
dzevanhu
dzevashavi
dzevashona
dzeveruzhinji
dzezimbabwe
dzi
dzichibva
dzichienda
dzichiita
dzichinodira
dzichipiwa
dzichiri
dzidziso
dzidzo
dzihwa
dzihwamupengo
dziine
dzika
dzikira
dzikiti
dziko
dzikwanise
dzimano
dzimba
dzimbiri
dzimwe
dzimwewo
dzina
dzinda
dzinde
dzindi
dzine
dzinenge
dzinga
dzingava
dzinge
dzingira
dzingire
dzingu
dzino
dzinobata
dzinobatsira
dzinobuda
dzinobva
dzinobviswa
dzinoda
dzinodaidzwa
dzinodarika
dzinodya
dzinodyiwa
dzinodziya
dzinofamba
dzinogadzirwa
dzinogara
dzinogona
dzinoita
dzinoitika
dzinoitwa
dzinokambaira
dzinokasira
dzinokura
dzinokwana
dzinokwanisa
dzinonyanya
dzinonyorwa
dzinonzi
dzinoonekwa
dzinopfuura
dzinopfuyiwa
dzinopihwa
dzinopinda
dzinopisa
dzinorarama
dzinoratidza
dzinorimwa
dzinosangana
dzinosanganisa
dzinosanganisira
dzinoshanda
dzinoshandisa
dzinoshandiswa
dzinosiyana
dzinosvika
dzinotakura
dzinotanga
dzinotatamuka
dzinotaura
dzinotaurwa
dzinotevera
dzinoti
dzinotonhora
dzinova
dzinoverengeka
dzinoverengwa
dzinovhima
dzinowana
dzinowanikwa
dzinowanzo
dzinoyamwisa
dzinoyaruka
dzinoyerera
dzinozivikanwa
dzinza
dzira
dziri
dzirimo
dziripo
dzisati
dzisina
dzisiri
dzitsi
dzitsva
dziva
dzivaguru
dzive
dziya
dzoga
dzokuti
dzomuviri
dzonga
dzongeni
dzongo
dzongwe
dzoro
dzose
dzovo
dzungu
dzvatsvatsva
dzvene
dzvimbu
dzvinamurungu
dzvinyu
dzvuku
dzvurira
dɔ
dɛ
dʊ
dʒi
e
each
eafrica
eafurika
eager
eagle
eamerika
ear
eared
earliest
early
earnest
earns
ears
earth
earthen
earthenware
earthquake
ease
easily
east
eastern
easy
eat
eaten
eater
eating
eats
eaves
eba
ebantu
ebasa
ebheni
ebola
ebony
ebudiriro
echando
echibage
echichayina
echiedza
echigiriki
echikaranga
echingezi
echinguni
echinhu
echinyakare
echiratini
echirungu
echirwere
echishona
echitema
echivanhu
echivare
echokwadi
eclipse
eclipsed
eco
econet
economic
economics
economy
ecuador
ed
edgar
edge
edible
edirne
edit
edith
edition
editor
edmore
edo
eds
edu
educate
educated
education
edulis
edward
edwin
ee
eegi
eel
eenglish
eezhiya
effect
effective
effectiveness
effects
efficacy
effort
efforts
efik
eg
ega
egg
eggplant
eggs
ego
egonyonhatu
egungwa
egypt
egyptian
ehe
ehondo
ehupenyu
ehurumende
ehushangazhi
ehute
ehydrogen
eight
ein
either
eka
ekabhoni
ekare
ekilu
ekirunda
ekisodho
ekitaka
ekondo
eksodo
eku
ekubata
ekuberekwa
ekuchamhembe
ekugadzira
ekuma
ekunze
ekupedzisira
ekurima
ekusvetuka
ekutanga
ekutapa
ekuti
ekutonga
ekuzvarwa
ekwa
el
ela
eland
elbow
elder
elderly
elders
ele
elect
election
electric
electricity
electrolysis
electron
elegant
element
elementary
elements
elephant
elephantina
elephantorrhiza
elevate
elevated
elevation
eleven
eleza
elias
elijah
elip
elisha
elitedaily
elizabeth
ellen
elliott
eloquent
else
elsevier
elsewhere
elsie
elton
elvis
ema
emabasa
emabhuku
emabwe
emaciated
emadhora
emagetsi
emakomo
emakore
emamiriyoni
emari
emashonaland
emavara
emba
embers
emblem
embrace
embryo
embwa
emerge
emergency
emerging
emhando
emhandu
emhepo
emhosva
emhuka
emhuri
emily
emimwe
eminence
emirates
emishonga
emissions
emit
emitauro
emiti
emma
emmanuel
emmerson
emombe
emotion
emotional
emoto
emperor
emphasis
empire
employee
employer
employment
empress
emptied
empty
emudumbu
emukati
emunhu
emutauro
emuti
emuva
emuviri
emuzimbabwe
emvura
en
ena
encircle
encirclement
encircling
enclose
enclosure
encompass
encounter
encourage
encouragement
encyclopaedia
encyclopedia
end
enda
ende
ending
ends
endure
eneji
enemy
energetic
energetically
energy
eng
engaged
engagement
engender
engineer
engineering
england
english
enguva
enjoy
enlarge
enlighten
enock
enormous
enos
enough
enrol
entangled
enter
entered
entering
enterprise
enterprising
entertain
entertainment
entice
enticement
entire
entirely
entity
entrance
entrepreneur
entry
enu
enumerate
enumeration
envelope
environment
environmental
envoy
envy
enwiki
enyama
enyeredzi
enyika
enyoka
enyu
enz
enzanhara
enzano
enzi
enzou
enzungu
enzvimbo
ep
epakati
epasi
ephraim
epidemic
epidemiol
epidemiological
epidemiology
epiphany
episode
episodes
episodhi
equal
equality
equation
equatorial
equi
equilibrium
equinox
equipe
equipment
equivalent
er
era
erase
ere
erect
eri
eric
erima
erisi
eriteriya
eritonda
eritrea
eriya
ernest
err
errand
error
erwizi
es
esangano
esau
escape
escort
ese
eshe
eshiri
eshiro
eshoko
esimbi
eskweya
esp
espan
especially
esperanto
esporte
essence
essential
essentialmedicines
est
establish
established
estate
estates
esteem
ester
esther
estonia
esumba
eswatini
et
etc
eternal
eternity
ethics
ethiopia
ethnic
ethnicity
ethnologue
etymology
euclea
eugene
eun
eungu
eunice
euphorbia
europe
european
eva
evadzidzi
evakadzi
evana
evanhu
evans
evaporation
evashona
eve
evelyn
even
evening
event
events
ever
every
everybody
everyone
everything
everywhere
evidence
evident
evil
evolution
ewe
ewondo
ex
exact
exactly
exalt
exalted
examine
example
examples
excavated
excellent
except
excess
excessive
exchange
excitement
exclude
excommunicate
excrement
excuse
execute
executive
exemption
exercise
exert
exertion
exhausted
exhaustion
exhibit
exhibition
exist
existence
existing
exit
expand
expanding
expanse
expansion
expect
expedient
expedition
expel
expensive
experience
expert
explain
explore
expose
exposed
exposing
exposure
express
expression
expressive
extend
extended
extending
extension
extensive
extent
extinct
extinguish
extol
extra
extract
extracted
extracting
extraordinary
extravagant
extrema
extreme
extremely
extremity
extricate
eye
eyebrow
eyed
eyelash
eyelashes
eyes
eyuropu
eza
ezekiel
ezerere
ezhiya
ezimbabwe
ezita
ezra
ezuva
ezvematongerwo
ezvidzidzo
ezvindeya
ezvinhu
ezviuru
ezvuru
f
fa
fable
fabric
fabricate
fabrication
face
facebook
facing
fact
factor
facts
faculty
fade
faded
fadzai
fadzayi
faeces
fail
failed
failing
failure
faint
fair
faira
fairly
faith
faithful
faithfulness
fala
fall
fallen
falling
fallow
falls
false
famba
fame
familiar
families
family
famine
famous
fan
fananei
fananidza
fananidzai
fani
faniro
fantasy
far
fara
farai
faramu
farayi
farewell
farfa
farifa
farm
farmer
farming
farmland
fart
fashion
faso
fassie
fassoglensis
fast
fasten
fat
father
fatherhood
fatigue
fatness
fatten
fatty
fault
favor
favorite
favour
favourite
fe
fear
fearful
fearless
fearsome
feast
feat
feather
feathers
features
february
fed
federation
fee
feeble
feed
feeding
feeds
feel
feeling
feelings
feet
feign
felistus
felix
fell
felling
fellow
fellowship
female
fence
fendefa
fenzi
feremba
ferment
fernando
fertile
fertility
fertilizer
feso
festival
fetch
fetus
fever
few
fi
fiber
fibre
fiction
ficus
fidelis
field
fields
fierce
fifa
fifth
fig
fight
fighters
fighting
figtree
figuratively
figure
fiji
file
files
fill
filled
filling
film
filter
filth
final
finally
finals
finance
financial
find
finding
fine
finger
fingernail
fingers
finish
finished
fipa
firan
fire
firebrand
fireplace
firewood
firimbi
firimu
firm
firmly
firmness
first
firstborn
firstly
fish
fisherman
fishing
fission
fist
fit
fitness
fitting
five
fivha
fix
fixed
flabby
flag
flame
flap
flash
flat
flatness
flats
flatten
flatter
flavour
flavoured
flawa
flay
flee
flesh
fleshy
flexible
flies
flight
flinching
float
flock
flog
flood
flooded
flooding
floods
floor
floors
flora
florence
florida
flour
flourine
flourish
flow
flower
flowers
flowing
flu
fluid
fluorine
flute
flutter
fly
flying
fm
fo
foam
focus
focused
fodya
foetus
fog
fold
folded
folds
folha
foliage
folk
follow
followed
follower
following
follows
folly
fombe
fombwe
fomu
fon
fond
fongoro
fontanelle
food
foods
fool
foolish
foolishness
foot
football
footprint
for
forbes
forbid
forbidden
force
forced
forces
ford
forearm
forebear
forehead
foreign
foreigner
foreman
foremost
forest
foretell
forever
forge
forget
forgetful
forgetfulness
fork
forked
form
formation
formed
former
formerly
forming
forms
formula
forsake
fort
forth
fortress
fortunate
fortune
forward
forwards
fosi
foster
fote
found
foundation
foundations
founder
founding
fountain
four
fourth
fowl
fox
fr
frac
fraction
fractional
frafra
fragment
fragments
frame
framework
franc
france
francis
francisco
francois
frank
fraud
fred
frederick
fredrick
free
freedom
freely
freeman
freestyle
freeze
french
frequency
frequent
frequently
fresh
freshness
friction
friday
friend
friendly
friends
friendship
fright
frighten
frightened
fringes
fro
frog
from
front
frontcover
frost
froth
frozen
fruit
fruitful
fruits
frustration
fruticosus
fry
fsi
ft
fu
fua
fuel
fufu
fugitive
fuko
fula
fulani
fulawa
fuliiuru
full
fullness
fulltext
fully
fuma
fumba
fumbelo
fumu
fumwa
fun
function
fund
funda
fundanga
fundo
fundoyetsimba
funeral
funga
fungai
fungayi
fungi
fungidziro
fungo
fungu
fungula
fungura
fungus
fungwa
funya
fur
furanzi
furidzo
furnace
furo
furrow
further
furthest
furu
furusa
fury
fusion
futhi
futi
futuna
future
fuwa
fwe
fɛ
g
ga
gaam
gaba
gabhoni
gabon
gabriel
gadaga
gadhi
gadzirwa
gahanana
gain
gait
gaka
gakanje
gakava
gala
galaxy
galilei
galileo
gall
gallery
gallop
galwa
gam
gama
gamanxa
gamanya
gamba
gambia
gambiza
game
games
gamha
gamuchirai
gan
gana
ganda
gandari
gandawa
ganga
gangara
ganya
gaon
gap
gapa
gappah
gara
garakara
garden
gardens
gare
gari
garikai
garment
garo
garwe
gary
gas
gases
gasi
gasura
gasva
gata
gate
gates
gateway
gather
gathered
gathering
gato
gatsi
gauge
gava
gavanga
gavaza
gave
gavhu
gavhuna
gavi
gawa
gaya
gaza
gaze
gba
gbari
gbeya
ge
gedye
gege
gejo
gela
gen
genda
gender
gene
genealogy
general
generally
generate
generation
generic
generosity
generous
genes
genesis
genetic
genetics
geneva
genital
genius
genocide
genome
genomics
gentle
gentleman
gentleness
gently
genuine
genus
geo
geographic
geographical
geography
geology
geometry
george
georgia
gerald
german
germany
germinate
get
gets
getting
geza
ghalaksi
ghana
ghini
gho
ghost
gi
giant
gibson
gideon
gidire
gift
gijima
gikyode
gilbert
gini
giraffe
girdle
girima
girinhi
girisi
girl
girlfriend
girls
giryama
gitare
github
give
given
gives
giving
giwa
gizzard
gj
glad
glade
gladys
glance
glancing
glass
gleam
glean
glendale
glisten
glitter
global
globe
globiflora
gloria
glorify
glory
glossy
glow
glue
gmt
gnaw
go
goal
goat
goats
goba
gobvu
god
godfrey
godo
godwin
godzi
goes
goga
gogo
goho
going
gokerero
goko
gokora
gokoro
gokwe
gokwom
gol
gola
gold
golden
gole
golo
goma
gomarara
gomba
gombe
gombera
gombo
gombwe
gome
gomo
gomphocarpus
gomwe
gon
gona
gonda
gonde
gondo
gondongwe
gondzo
gone
gong
gonga
gongo
gongwa
gonhi
gonja
gono
gonya
gonye
gonyo
gonyoina
gonyonhatu
gonyoshanu
gonyozhinji
gonzo
good
goodness
goods
goodwill
google
goose
gooseberry
gora
gordon
gore
gorge
goridhe
goro
gorokodzwa
goromonzi
goronga
gororo
gorosi
gorowa
gospel
gossip
got
gota
goteka
gothic
goto
gotora
gotsi
gotwe
gourd
gov
gova
govano
govere
govern
governed
government
governor
gowa
gowero
grab
grace
gracious
grade
gradually
grain
grains
gram
grammar
grammatical
granary
grand
grandchild
grandfather
grandmother
grandparent
grant
grape
graph
grasp
grass
grasshopper
grassland
grassy
grateful
grater
gratis
gratitude
grave
gravel
gravity
gravy
gray
graze
grazing
grease
great
greater
greatest
greatly
greatness
greed
greedily
greek
green
greenhouse
greenness
greens
greenwich
greet
greetings
gregori
grewia
grey
grief
grieve
grin
grind
grinding
grindstone
grini
grip
ground
groundnut
groundnuts
grounds
group
groups
grow
growing
grown
grows
growth
grudge
gruel
gu
gua
guard
guardian
guava
gube
gudo
gudyanga
guess
guest
guests
gufu
guhwa
guhwi
guidance
guide
guilt
guilty
guine
guinea
gukurahundi
gukuravhu
gukurume
gukuta
gula
gulu
gulula
gum
guma
gumba
gumbapamwe
gumbe
gumbeze
gumbi
gumbo
gumbu
gumbugetsi
gumbura
gumi
gumiguru
guminembiri
gumo
gumu
gumura
gun
gunda
gundidza
gundu
gundukko
gundukumwe
gunganidzo
gungano
gungu
gunguo
gunguwo
gungwa
guni
gunundu
gunyana
gupuko
gura
guramakonyo
guri
gurira
gurma
guru
gurudza
gurukota
gurumwandira
gurunera
gurupira
gurure
gururundu
gurutsuwa
guruuswa
guruutsi
guruva
guruve
gurwe
gusilay
gustaf
guta
gutaguru
gute
guti
gutonda
gutota
gutsa
gutse
gutu
gutuza
guungano
guva
guvhu
guvi
guwe
guy
guyo
gwa
gwada
gwamba
gwan
gwanda
gwango
gwangwava
gwanza
gwara
gwaradzimba
gwararezhou
gwaro
gwasira
gwata
gwatara
gwati
gwavha
gwaze
gwe
gwedegwe
gwedere
gwekwekwe
gwekwerere
gwekwesera
gwembe
gwenga
gwenjere
gwenya
gwenzi
gwere
gweru
gweshe
gwesho
gweta
gwindiri
gwira
gwiri
gwirikwiti
gwishiri
gwivi
gyeli
gymnosporia
gynandra
gzu
gɔ
gɛ
gɪ
gʉ
gʊ
h
ha
haafaniri
haako
haana
haasi
haasiri
habhadhe
habit
habitat
habits
habitual
habitually
hacha
hachi
hachina
hachisi
had
hadiyya
hadzi
hadzina
hafu
haga
hai
hail
hailstorm
haina
hair
hairs
hairy
haisati
haisi
haiti
haiwa
haka
hake
hako
hakuchina
hakuna
hakusi
half
hall
halves
hama
hamba
hambana
hambautare
hameno
hamilton
hamlet
hammer
hammering
han
hana
hand
handa
handara
handbook
handed
handful
handichada
handidi
handina
handira
handisati
handle
handles
hando
hands
handsome
handwriting
hang
hanga
hangaika
hangaiwa
hanganwa
hanging
hangs
hangul
hangwu
hanime
hanja
hankyung
hansen
hanu
hanya
hanyanisi
hanzi
hanzu
hanzvadzi
hanzvadzikomana
hanzvadzisikana
hapana
happen
happened
happening
happens
happiness
happy
hapwa
hara
harahwa
harare
harass
hard
harden
hardened
hardness
hardship
hare
hari
hariko
harina
harisati
harisi
harm
harmful
harmonious
harmonise
harmony
haro
harp
harris
harshness
harvest
harvested
harvesting
has
hasha
hassan
haste
hasty
hat
hata
hate
hatidi
hatomu
hatred
haukozi
hauna
hausa
hausi
havana
havasi
have
having
hawa
hawk
hayina
haze
hazvienzane
hazvina
hazvinei
hazvireve
hazvirevi
hazvisi
hazvizivikanwe
hazvo
he
head
headache
headed
headlands
headlong
headman
headpad
heads
heal
healed
healer
health
healthy
heap
heaps
hear
heard
hearsay
heart
heartburn
hearted
heartedly
hearth
heartily
heat
heated
heaven
heavily
heaviness
heavy
hebrew
hedge
hee
heed
heel
heels
heifer
height
heir
hekani
held
helium
help
helped
helper
helpless
helps
helula
hem
hembe
hemisphere
hemp
hen
hence
heniya
henry
hepatitis
her
hera
herald
herb
herbal
herbert
herd
herding
herdsman
here
hereditary
herero
heritage
herman
hernia
hero
herself
herzegovina
hesitate
hi
hibiscus
hidden
hide
hiding
hierarchy
high
higher
highest
highland
highly
highness
highway
hill
hillary
hills
hilton
him
himself
hind
hinder
hindi
hindu
hint
hinterland
hinya
hip
hippo
hippopotamus
hips
hiragana
his
histoire
historical
history
hit
hitler
hits
hiv
hive
hiyu
hl
hlati
hlokoma
hloma
ho
hoard
hoboka
hobvu
hoe
hoeing
hoes
hofisi
hofori
hohwa
hoka
hoko
hola
hold
holder
holding
holds
hole
holes
holiday
holidays
holiness
holland
hollow
holocaust
holy
homage
hombarume
hombe
hombekombe
hombesa
home
homestead
homwe
hona
honda
honde
hondo
hondowe
honest
honesty
honey
honeycomb
hong
hongonya
hongu
hono
honor
honorary
honour
honourable
hoof
hook
hooked
hop
hope
hopkins
hopper
hora
horayi
horizon
horizontal
horn
hornbill
horned
horns
horokodzwa
horongo
horse
hosha
hospital
hospitality
host
hostile
hot
hota
hotel
hotera
hoto
hour
hours
house
household
houses
hove
how
howa
howard
however
howl
hoya
hozhwa
hr
hrs
hsu
htm
html
http
https
hu
huchapa
huchena
huchenjeri
huchi
huchu
hudaviri
hudiki
hudonongodzwa
huduku
huduma
hudzamu
hudzvanyiriri
hufana
hugabe
hugadaga
hugari
hugaro
huge
hugh
huhombe
hui
huipi
hujoto
hukama
hukari
hukobvu
hukomba
hukoshi
huku
hukukutu
hukuru
hukutu
hukwidza
huma
humambo
human
humanities
humanity
humans
humba
humble
humbly
humbowo
humburi
humhandara
humhizha
humhutu
humility
humwe
hun
hunaku
hunda
hundam
hunde
hundi
hundred
hundu
hune
hunenge
hung
hungary
hungava
hunge
hunger
hungry
hungwaru
hungwe
hunhu
huni
hunobva
hunoda
hunogona
hunoita
hunokonzera
hunokonzerwa
hunokwanisa
hunonzi
hunoonekwa
hunopimwa
hunoratidza
hunosanganisira
hunoshandiswa
hunosvika
hunotevedza
hunoti
hunowanikwa
hunozivikanwa
hunt
hunter
hunters
hunting
hunyani
hunyanzvi
hunyengeri
hunyope
hunyoro
hunza
hunzwi
huona
hupamhi
hupango
hupenyu
hupfu
hupfumi
hupfupi
hupofu
hupombwe
hura
huranda
hurefu
huremu
huri
hurimi
huripedyo
huripo
hurl
huro
hurombo
hurongwa
huronyo
huropi
huroro
huroyi
hurry
hurt
huru
hurukuro
hurumende
hurungwe
huruva
hurwa
hurwere
husahwira
husanyika
husband
hushambadzi
hushamwari
hushangazhi
hushavi
hushe
hushoma
hushumiri
husiku
husimbe
husina
husk
husks
husviba
husvinu
huswa
hut
huta
hutachiona
hutachiwana
hutano
hutapiri
hute
hutema
hutete
hutongi
huts
hutsanana
hutsi
hutsinye
hutsva
hutsvene
hutsvuku
hutu
hutungamiri
hutungamiriri
huturu
hutwa
huvi
huviri
huwandu
huwori
huya
huyanga
huyo
huzhinji
hwa
hwabvu
hwacho
hwada
hwadzo
hwahwa
hwai
hwaive
hwakadai
hwakaenzana
hwakafanana
hwakaita
hwakakosha
hwakakura
hwakakwana
hwakakwira
hwakanaka
hwakanga
hwakanyanya
hwakareba
hwakasiyana
hwakatanga
hwakati
hwakawanda
hwake
hwako
hwakwira
hwamanda
hwambo
hwami
hwamwari
hwana
hwanan
hwananyina
hwang
hwanga
hwange
hwani
hwaradada
hwarara
hwarasanza
hwaro
hwasha
hwasvika
hwata
hwati
hwatsa
hwava
hwavo
hwayi
hwayo
hwe
hwechinhu
hwechirwere
hwechiyero
hwecorona
hwedu
hwedunhu
hwedza
hwehepatitis
hwehiv
hwehutachiona
hwekupfirira
hwekutanga
hwema
hwemakore
hwemamirioni
hwemari
hwemativi
hwemhando
hwemhuka
hwemufarinya
hwemugodhi
hwemunhu
hwemupimo
hwemurume
hwemutapa
hwemuviri
hwemvura
hwenda
hwendedzo
hwendefa
hwenguva
hwenhamba
hwenhangande
hwenhengo
hwenyika
hwenyoka
hwenze
hwepfungwa
hweroma
hweropa
hweru
hwesa
hwese
hweshiri
hwesimbi
hweudzvanyiriri
hweva
hwevagari
hwevanhu
hwevapfumi
hwevarungu
hwevashona
hwevatauri
hwevera
hweveruzhinji
hwewa
hwezimbabwe
hwezvinhu
hwira
hwiringwindi
hwirira
hwishu
hwiti
hwiza
hwokuti
hwongo
hwoni
hwose
hwuno
hwunosvika
hybe
hydrochloric
hydrogen
hydroxides
hye
hyena
hyu
hyuk
hyun
i
ia
ian
ibasa
ibazi
ibhasiketi
ibhii
ibibio
iboka
ibude
ibvi
ibwe
ice
ichanzi
ichena
ichi
ichibata
ichibuda
ichibva
ichidarika
ichiderera
ichienda
ichiita
ichikwira
ichinge
ichinzi
ichipa
ichipera
ichipimwa
ichipinda
ichipoterera
ichireba
ichireva
ichiri
ichishanda
ichishandisa
ichishandiswa
ichisi
ichitevedza
ichitevera
ichiti
ichiva
ichiziririka
icho
ichocho
ichokwadi
id
idah
idanho
idea
ideas
idemo
identifier
identify
identity
ideo
ideophone
idhodhi
idhorobha
idi
idiki
idiot
idivi
idle
idombo
idoro
iduna
idunhu
idzi
idzinde
idzinza
idzo
idzodzo
idzva
if
ife
ifirimu
ifosi
igamba
igas
igbo
igere
ignatius
ignite
ignorance
ignorant
ignored
igo
igonhi
igore
iguta
igwenzi
ii
iii
iine
ijipita
ijira
ik
ikaramu
ikizu
iko
ikoko
ikondo
ikozvino
ikuru
ikwanise
il
ila
ilisinde
ill
illness
illuminate
ilunda
im
image
images
imari
imba
imbala
imbewu
imbwa
imesa
imhando
imhosva
imhuka
imhuri
imi
iminako
imitate
imma
immature
immediate
immediately
immense
immerse
immortality
immunity
immunization
imo
imombe
imomo
impact
impatience
impatient
impediment
imphambosi
implement
implosive
importance
important
imports
impossible
impoverished
impregnate
imprint
improper
improve
impudent
imvi
imvura
imwe
imwechete
imwecheteyo
imwewo
imweyo
in
ina
inability
inaccessible
inc
incessantly
inches
incidence
incident
incision
incite
incl
inclined
include
included
includes
including
income
incompletely
increase
increasingly
inda
indaba
indasitiri
indeed
independence
independent
index
india
indian
indica
indicate
indicator
indigenous
indigestion
indigo
indigofera
individual
individuals
indiya
indo
indolent
indonesia
induku
industrial
industrious
industry
ine
ineffective
inemukaka
inenge
inf
infant
infect
infected
infection
infections
infectious
inferior
infinity
influence
influenced
influential
influenza
info
infobox
inform
information
infra
ing
inga
ingangoita
inganzi
ingava
ingens
ingi
ingoma
inguva
ingwe
inhabit
inhabitant
inhabitants
inhabited
inhamba
inhangande
inhengo
inherit
inheritance
inherited
inhospitable
ini
inini
initial
initiate
injini
injure
injured
injury
inkonzo
inner
innocent
ino
inobata
inobatanidza
inobatsira
inobatwa
inobereka
inobhadharwa
inobuda
inobuditsa
inoburitsa
inobva
inochengeta
inochengetedza
inochengeterwa
inochengetwa
inochera
inocherwa
inochinja
inoda
inodaidzwa
inodanwa
inodarika
inodhura
inodiwa
inodudza
inodudzirwa
inodya
inodyiwa
inodzika
inodzivirira
inodziya
inoenda
inoenderana
inofadza
inofamba
inofambwa
inofanirwa
inofarira
inofukidza
inofungidzirwa
inogadzira
inogadzirwa
inoganhurana
inogara
inogarwa
inogona
inogonawo
inoiswa
inoita
inoitika
inoitwa
inokonzera
inokonzerwa
inokosha
inokura
inokurudzirwa
inokuvadza
inokwana
inokwanisa
inokwira
inomhanya
inomirira
inomiririra
inonaya
inonetsa
inonyanya
inonyanyo
inonyorwa
inonyungudika
inonzi
inoonekwa
inopa
inoparira
inopenya
inopfekwa
inopfuura
inopfuyiwa
inopihwa
inopimwa
inopinda
inopinga
inopingura
inopisa
inopiwa
inopoterera
inoramba
inorapa
inorara
inoratidza
inoratidzwa
inorder
inoreba
inorema
inoreva
inoridzwa
inorimwa
inoripwa
inoronga
inorwisa
inosangana
inosanganisa
inosanganisira
inosanganiswa
inosara
inosasauka
inoshanda
inoshandisa
inoshandiswa
inoshanduka
inosiyana
inosvika
inotakura
inotanga
inotapira
inotara
inotaridza
inotaridzika
inotarisirwa
inotaura
inotaurwa
inoteera
inoteerawo
inotendera
inotenderera
inotengeswa
inotevedza
inotevedzwa
inotevera
inoti
inotodza
inotodzana
inotonga
inotongwa
inotonhora
inotora
inotorwa
inotsanangura
inotsanangurwa
inotsigira
inotungamirwa
inoturikirwa
inoturuka
inoumba
inoumbwa
inouraya
inouya
inova
inoverengwa
inovhuvhuta
inowana
inowanikwa
inowanikwawo
inowanza
inowanzo
inowanzonzi
inowedzera
inoyerera
inozivikanwa
inozivikanwawo
inozivikwa
inozoita
inozoshandiswa
inputs
insanity
insect
insects
insert
inside
insight
insipid
insolence
insolent
inspan
inspect
institute
institution
instruct
instruction
instructions
instrument
insufficient
insult
insurance
int
intara
integrated
integrity
intelligence
intelligent
intense
intensity
intention
intentions
intently
inter
intercept
intercourse
interest
interested
interesting
interface
interfere
intergrity
interior
interj
internal
international
internet
interpret
interpreter
interrupt
intersection
interval
intervene
interview
intestine
intestines
intimate
into
intoxicate
intr
intro
invalid
invent
inventor
invert
invite
involved
inward
inwards
inyama
inyanga
inyanya
inyanzvi
inyaudzosingwi
inyaya
inyenyedzi
inyeredzi
inyika
inyoka
inyoni
inzira
inzonzi
inzvimbo
inzwi
ion
ions
ipa
ipapa
ipapo
ipfumo
ipi
ipl
iprage
ipwa
ir
ira
iran
irani
ireland
irene
irheshiyo
iri
irigesheni
irikidza
irikidzai
iriko
irimo
iripo
iris
iriyo
iro
iron
irori
iroro
irrigation
irritable
irritate
irritation
irungu
irving
irwizi
is
isa
isaac
isabel
isaiah
isaka
isamvu
isangano
isango
isati
isbn
ise
ishe
ishiri
ishoko
ishwa
isi
isifuba
isikhonzi
isikhothe
isikokela
isimbi
isiminya
isina
isindebele
isinga
isiraeri
isiri
isisulu
isizinda
isizulu
iskandara
islam
island
islands
iso
isolate
isolated
israel
issn
issue
issues
isu
iswa
it
ita
itai
itala
italian
italy
itari
itayi
itch
iteko
item
itema
items
iti
ito
iton
itopiya
itr
its
itself
itsika
itsva
itsvo
iv
ivara
ive
ivhu
ivo
ivoire
ivory
ivy
iwaya
iwayo
iwe
iwewe
iwo
iwoyo
iwoyu
ixi
iya
iye
iyeye
iyi
iyo
iyoyi
iyoyo
izere
izerere
izinkomo
izita
izon
izuva
izvi
izvo
izvozvi
izwi
j
ja
jaaji
jabulani
jack
jackal
jacket
jackson
jacob
jacques
jae
jag
jagwa
jah
jaha
jail
jairos
jaja
jaji
jala
jama
jambwa
james
jameson
jamsai
jan
jane
janeiro
janet
jang
jangwa
jani
january
japan
japanese
japani
jar
jaringo
jasi
jason
jasper
jaure
java
jaw
jaya
jaza
jazz
je
jealous
jealousy
jean
jecha
jee
jeff
jeffrey
jehovah
jehovha
jekanyika
jeke
jekese
jekiseni
jeko
jena
jenaguru
jende
jenero
jenjazi
jenner
jeong
jer
jera
jerahuni
jerandoga
jere
jeremiah
jerenyenje
jeri
jerk
jerry
jerumani
jerusarema
jessica
jesu
jesus
jet
jewish
jews
jhtm
ji
jibhuti
jimin
jin
jinda
jinga
jinge
jinya
jipange
jira
jiri
jita
jk
jo
joao
job
joe
joel
jogo
johane
johani
johannesburg
john
johnson
joice
join
joined
joining
joins
joint
joints
jojiya
joke
jokonya
jonas
jonathan
jones
jong
jonga
jongo
jongwe
joo
joon
joram
jordan
jorodhani
jose
joseph
josephine
joshua
josiah
josphat
joules
journal
journalist
journey
joy
joyce
joyful
jpg
jr
jstor
ju
jua
juan
judah
judge
judgement
judgment
judith
jug
juice
jukwa
jul
jula
julbernardia
jules
julia
julius
july
juma
jumbe
jumjum
jump
jumped
jumping
junction
june
jung
jungkook
jungle
junior
jupiter
juru
jury
just
justice
justin
justine
k
ka
kaam
kabanda
kabanzu
kabasa
kabheji
kabhinzi
kabhira
kabho
kabhoni
kabi
kabika
kabila
kabirika
kabiye
kabungwa
kabwa
kachasu
kacheche
kachimbwi
kachingwe
kacho
kachuta
kadede
kadenge
kadhani
kadiki
kadodo
kadoma
kadomera
kaduku
kadungo
kadungure
kadyautumbe
kadzi
kadzinga
kaela
kafeni
kafulani
kafumba
kafunga
kagoro
kagulu
kaguta
kaguvi
kahle
kahombo
kahoro
kahota
kahwai
kaisi
kaka
kakabe
kakaita
kakaitwa
kakao
kakawanda
kakomana
kakonda
kakonde
kakondeka
kakora
kakota
kakunda
kakunde
kakungulu
kakuru
kakwa
kal
kala
kalahari
kalamu
kalanga
kalawire
kale
kalebwe
kalemba
kali
kalimba
kalipa
kallenbach
kalola
kalonga
kalongo
kalulu
kam
kama
kamau
kamba
kambaata
kambale
kambani
kambanji
kambare
kambe
kambere
kameruni
kamhuka
kamjoma
kamoxi
kamukwede
kamuri
kamuti
kamutiko
kamwe
kamwechete
kamwendo
kamwi
kan
kana
kanadha
kanda
kandi
kandombo
kandoro
kanduka
kane
kanenge
kanga
kangai
kangani
kangara
kangwari
kanhu
kani
kanjenje
kanji
kanjira
kanodanwa
kanokwana
kanonzi
kanowanikwa
kanoyangwa
kanti
kanuri
kanwa
kanya
kanyama
kanyere
kanyi
kanyina
kanyinji
kanyungu
kanzira
kanzu
kanzuru
kanzvi
kaonde
kapa
kapala
kapangura
kapari
kapembenene
kapenga
kapepa
kapesa
kapeta
kapindo
kapinga
kapingula
kapiri
kapita
kapitapita
kapolo
kapona
kaponga
kapu
kapuka
kapurikoni
kara
karabo
karamu
karang
karanga
kare
karekare
karen
karenda
kareya
kari
kariba
karl
karoi
kaross
karumbi
karumbidza
karunga
karura
karuvira
karuwo
kasahorow
kasambala
kasasi
kaseka
kaseke
kasekera
kasem
kasembe
kasepe
kasha
kashara
kashoma
kashonga
kashumba
kasi
kasimbi
kasina
kasinde
kasoka
kasoko
kasoloka
kasolola
kaspiya
kasunda
kasunga
kata
katakana
katala
katali
katambura
katanda
katanha
katatu
kate
kateka
katema
katena
katende
katerere
katetema
kateya
kati
katimba
kativu
katonda
katondo
katonga
katongo
katongola
katongole
katongora
katota
katsande
katsi
katsiga
katsika
katsimba
katsinde
katsumba
katswere
katukura
katunga
katungu
katupa
katurike
kaukasi
kaumbirwo
kaviri
kaviya
kawa
kawaza
kawela
kawila
kaya
kayera
kayeruza
kayiti
kazakhistani
kazangarare
kazembe
kazhinji
kazi
kaziro
kazito
kazola
kazonga
kazozo
kazungo
kazungu
kazungula
kaŋ
kbs
ke
kechipiri
keep
keeper
keeping
keeps
keepsake
kekutanga
kelly
kelvin
kembo
kemedzung
ken
kenduru
kennedy
kenneth
kenya
kenza
kenzi
kept
kereke
kernel
keruro
keta
kete
kettle
kevin
key
kg
kh
khama
khan
khapa
khaya
khemeti
khoi
khovhidhi
khoza
khu
khukhuva
khuu
ki
kiala
kiandi
kibale
kibandu
kibanza
kibaya
kibela
kibese
kibila
kibuluma
kick
kid
kidnap
kidney
kids
kienze
kifua
kihaya
kihehe
kiikizu
kijiji
kikagulu
kikamba
kikanda
kikese
kikole
kikongo
kikumbi
kikundi
kikuta
kikuyu
kikwato
kila
kilama
kileke
kilenda
kilendu
kilinda
kill
killed
killer
killing
kills
kilo
kilometres
kilongola
kilongozi
kiluka
kilumba
kilumbiro
kilumbu
kilunga
kilunje
kilunji
kim
kima
kimaka
kimbamba
kimbundu
kimeru
kimwanda
kimwani
kin
kinande
kind
kindala
kindanda
kindele
kindle
kindly
kindness
kindred
kinds
kinene
kinetic
king
kingdom
kings
kingundu
kinini
kinshasa
kinship
kintu
kinyarwanda
kinyonga
kinyoro
kinzere
kipambo
kira
kirabhu
kirasi
kirera
kiri
kirkiana
kirkii
kiromita
kirume
kirundi
kirundu
kirungi
kisalu
kisoko
kiss
kisuba
kiswahili
kita
kitala
kitchen
kite
kitembo
kitereke
kitereko
kiti
kitikiti
kitombe
kitongola
kitongole
kitu
kitulu
kitunda
kiuru
kiwanga
kiwani
kizinga
kizito
kiziwi
kleptocracy
km
knead
knee
kneel
kneeling
knees
knife
knit
knobkerrie
knock
knot
know
knowable
knowing
knowledge
knowledgeable
known
knows
ko
koa
kobanda
kobela
kochira
kodzero
kofi
koi
koka
kokorodzano
kokutanga
kokwe
kola
kolokota
kolokuma
kolongo
koloni
koma
komana
komba
kombe
kombela
kombiyuta
kombo
kombola
kombora
komichi
kommer
komo
komori
komputa
kon
kona
konda
konde
kondinendi
kondiwa
kondo
kondola
kondwani
kong
konga
kongela
kongo
kongola
konjera
konkomba
kono
konongo
konza
konzi
kopa
kopje
kora
korandje
kordei
korea
korean
koriya
koro
koroni
kosa
kose
kosi
kosovo
kota
kotala
kotanga
kotara
koteka
kotenga
kotesa
koti
koto
kotsi
kotwa
kova
kovera
koz
kr
kraal
kratia
kraussiana
kristo
kristu
ku
kua
kuafrica
kuafrikaans
kuafurika
kuaka
kuala
kuamba
kuamerica
kuamerika
kuanda
kuandama
kuandamila
kuandika
kuangola
kuanika
kuasia
kuaustralia
kuba
kubanda
kubanga
kubangura
kubanzura
kubara
kubarika
kubaritsa
kubasa
kubata
kubatana
kubatanidza
kubatanidzwa
kubatidza
kubatira
kubatirana
kubatsira
kubatsirana
kubatwa
kubaukira
kubaya
kubayira
kubazi
kubba
kubenin
kubereka
kuberekwa
kubesu
kubhabhura
kubhadhara
kubhadharwa
kubhanga
kubhara
kubhururuka
kubika
kubikira
kubikwa
kubila
kubindikita
kubindura
kubinya
kubira
kubishinga
kuboka
kubonda
kuboora
kubopa
kubotswana
kubritain
kubuda
kubudikidza
kubudirira
kubudisa
kubuditsa
kubuditswa
kubuhera
kubulawayo
kubulunga
kubumbiro
kubura
kuburikidza
kuburitsa
kuburitswa
kuburkina
kuburuka
kuburundi
kubuta
kubva
kubvarura
kubvinina
kubvira
kubvisa
kubviswa
kubvuma
kubvumba
kubvumbi
kubvumira
kubvumirana
kubvundura
kubvunza
kubvurunuka
kubvuta
kubvutwa
kubvuva
kubvuvira
kubvuwa
kubwaira
kubwinya
kucameroon
kucape
kuchad
kuchakatika
kuchamhembe
kuchamhembechemabvazuva
kuchamhembechemadokero
kuchangamuka
kucharika
kuchaya
kuchayina
kuchecheudza
kuchecheudzwa
kucheka
kuchekwa
kuchema
kuchembera
kuchena
kuchenama
kucheneruka
kuchenesa
kuchenga
kuchengedza
kuchengeta
kuchengetedza
kuchengetedzeka
kuchengetedzwa
kuchengetwa
kuchenjera
kuchenjerera
kuchenzana
kuchera
kucherechedza
kucherechedzwa
kucheuka
kucheza
kuchiarabhu
kuchibuda
kuchicha
kuchidza
kuchigiriki
kuchihebheru
kuchiita
kuchiitwa
kuchikamu
kuchikaranga
kuchikorekore
kuchikoro
kuchikunda
kuchimanyika
kuchimbidzika
kuchina
kuchindau
kuchinga
kuchingama
kuchinge
kuchingezi
kuchingidzira
kuchingira
kuchingura
kuchinja
kuchinjika
kuchinya
kuchinyorwa
kuchinzi
kuchipatara
kuchipinge
kuchiratini
kuchiredzi
kuchirehwa
kuchirungu
kuchirwere
kuchishandiswa
kuchishona
kuchiswahiri
kuchitevedzwa
kuchitonga
kuchitungwiza
kuchiweshe
kuchonjomara
kuchururuka
kucongo
kuda
kudada
kudai
kudaidza
kudaidzwa
kudakarira
kudakwashe
kudamba
kudana
kudanana
kudanwa
kudare
kudarika
kudaro
kudea
kudedera
kudeka
kudeleka
kudelesa
kudeleza
kudemba
kudemocratic
kudendemara
kudenga
kudengezera
kudenha
kuderedza
kuderedzwa
kuderera
kudeuka
kudhakwa
kudhara
kudherera
kudhinda
kudhirika
kudhirowa
kudhoma
kudhonza
kudhura
kudhuze
kudigo
kudikitira
kudimbira
kudimbura
kudimura
kudinga
kudiridza
kudivi
kudiwa
kudoka
kudokwaira
kudoma
kudonga
kudongana
kudonha
kudonhedza
kudu
kududza
kududzira
kududzirwa
kududzwa
kuduka
kudunga
kudungira
kudungura
kudunhu
kudura
kudusa
kuduza
kudya
kudyara
kudyidzana
kudyisa
kudyiwa
kudza
kudzai
kudzaishe
kudzamara
kudzana
kudzanai
kudzayi
kudzedzereka
kudzengerera
kudzidza
kudzidzira
kudzidzisa
kudzidziswa
kudzika
kudzikama
kudzikinura
kudzikira
kudzikisa
kudzikisira
kudzima
kudzimara
kudzimba
kudzimurira
kudzimwe
kudzinda
kudzinga
kudzingisa
kudzingiswa
kudzinina
kudzitira
kudzitirwa
kudzivira
kudzivirira
kudzivirirwa
kudzivisa
kudziya
kudziyisa
kudzoka
kudzokera
kudzokorora
kudzonga
kudzora
kudzorera
kudzosa
kudzuna
kudzungaira
kudzunguruka
kudzura
kudzvanya
kudzvanyirira
kudzvokora
kudzvura
kuedza
kuedzwa
kuegypt
kuela
kuelela
kuelesa
kuenda
kuenderana
kuenderera
kuendesa
kuendwa
kuengland
kuenglish
kuenzana
kuenzanisa
kuera
kuethiopia
kueurope
kuezhiya
kufa
kufadza
kufamba
kufambidzana
kufambira
kufambisa
kufambiswa
kufambwa
kufana
kufanana
kufananidza
kufananidzwa
kufanira
kufanza
kufara
kufarira
kufarirwa
kufasa
kufashaidza
kufema
kufembera
kufenda
kufrench
kufudza
kufugidza
kufuka
kufukidza
kufukura
kufuma
kufumira
kufumuka
kufumura
kufuna
kufunda
kufundisa
kufunga
kufungidzira
kufungira
kufungula
kufunura
kufunya
kufura
kufuratira
kufuridza
kufushira
kufuta
kufuwa
kugadza
kugadzika
kugadzikana
kugadzira
kugadzirira
kugadzirisa
kugadziriswa
kugadzirwa
kugamha
kugamuchira
kugamuchirika
kugamuchirwa
kuganza
kugara
kugarira
kugarisana
kugashira
kugaya
kugera
kugeya
kugeza
kughana
kugikuyu
kugiya
kugocha
kugoka
kugomara
kugomba
kugombe
kugombedza
kugombedzera
kugombera
kugon
kugona
kugoromonzi
kugota
kugova
kugovanisa
kugovera
kugozha
kugreek
kuguka
kuguma
kugumbata
kugumbuka
kugumuka
kugumura
kugunda
kugungwa
kugunzva
kugura
kugusa
kuguta
kugutila
kugutsikana
kugwamba
kugwara
kugwata
kugwinya
kuhafu
kuhamba
kuhane
kuhara
kuharare
kuhetsura
kuhona
kuhondo
kuhope
kuhora
kuhurumende
kuhwa
kuhwanda
kuhwange
kuhwapura
kuhwaro
kuhwata
kuhwina
kuhwira
kuhwirira
kuibva
kuijipita
kuimba
kuindia
kuine
kuipa
kuisa
kuiswa
kuita
kuitari
kuitawo
kuitika
kuitira
kuitirwa
kuitwa
kujairika
kujala
kujapan
kujapani
kujeka
kujekesa
kujinga
kujingirisa
kujuja
kukadoma
kukadzi
kukaka
kukakavara
kukala
kukalanga
kukama
kukamba
kukambaira
kukambani
kukameruni
kukamhina
kukamuka
kukamukira
kukamura
kukamurirana
kukana
kukanda
kukanga
kukangaidza
kukangama
kukanganisa
kukanganiswa
kukanganwa
kukanganyara
kukanza
kukaonde
kukariba
kukaringa
kukasa
kukasira
kukataza
kukati
kukatsa
kukava
kukaya
kukaza
kukazira
kukenerana
kukenya
kukereke
kuketa
kukidawida
kukila
kukinyarwanda
kukirundu
kukizigua
kukodza
kukodzera
kukohwa
kukoka
kukokera
kukokota
kukola
kukolela
kukoma
kukomba
kukombama
kukombera
kukomberedza
kukomberedzwa
kukomberwa
kukombodza
kukombora
kukomborera
kukomera
kukonda
kukondama
kukondamesa
kukondeka
kukondzeka
kukonga
kukonza
kukonzera
kukora
kukoranidza
kukorea
kukorora
kukosa
kukosha
kukosora
kukota
kukotama
kukoteka
kukotoka
kukotsira
kukuata
kukudza
kukukura
kukukuta
kukukutara
kukula
kukuma
kukumbana
kukumbanidza
kukumbira
kukumbura
kukumura
kukuna
kukunda
kukundika
kukundwa
kukunga
kukungura
kukunguruka
kukupa
kukupura
kukura
kukurira
kukuru
kukurudzira
kukurukura
kukurumidza
kukurumuka
kukurunga
kukuta
kukutisa
kukutsa
kukuva
kukuvadza
kukuvadzwa
kukuvara
kukuwa
kukuya
kukwana
kukwanisa
kukwasha
kukwata
kukwatanura
kukwatika
kukwegura
kukwekwe
kukwenga
kukwenya
kukwereta
kukweretesa
kukweva
kukwezva
kukwidzwa
kukwikwidza
kukwikwidzana
kukwira
kukwita
kul
kula
kulanga
kulango
kulatin
kulenga
kulenje
kulesotho
kuleya
kuli
kulima
kulingana
kuliswa
kuloba
kulola
kulonda
kulondon
kulonga
kulongola
kulu
kulugwere
kuluka
kulumba
kulumbaizya
kulunda
kulunga
kulya
kum
kuma
kumabasa
kumabvazuva
kumadokero
kumadondazuva
kumadziva
kumafuro
kumagetsi
kumagumo
kumahombekombe
kumakomo
kumakore
kumalawi
kumali
kumamisha
kumana
kumaneja
kumanga
kumanicaland
kumanika
kumanikidzwa
kumanya
kumanyika
kumaodzanyemba
kumaodzanyembaemabvazuva
kumaodzanyembaemadokero
kumarondera
kumaruwa
kumashoko
kumashonaland
kumashure
kumasvingo
kumasvomhu
kumatare
kumativi
kumatunhu
kumavirira
kumawodzanyemba
kumazwi
kumba
kumberi
kumbi
kumbirai
kumbobvira
kumbombova
kumbondera
kumbugwe
kumbulula
kumedza
kumema
kumenya
kumera
kumeso
kumhanya
kumhara
kumhiri
kumhondoro
kumhoresana
kumhuka
kumhuri
kumi
kumiddle
kumigodhi
kumimina
kumimwe
kuminama
kuminda
kumira
kumirai
kumirira
kumisa
kumisikidza
kumitauro
kumoneredza
kumonereka
kumononora
kumora
kumosi
kumount
kumoyo
kumozambiki
kumozambique
kumucheto
kumuka
kumukadzi
kumukira
kumunda
kumunhu
kumuromo
kumurume
kumusana
kumusangano
kumusha
kumusoro
kumutambo
kumutauro
kumutsa
kumwana
kumwararika
kumwaya
kumwe
kumwedzi
kumwewo
kun
kuna
kunaka
kunama
kunamata
kunamatira
kunamibia
kunamira
kunanga
kunanxi
kunational
kunatsa
kunaya
kunda
kundai
kundandalika
kundandalitsa
kundandisa
kunde
kundebele
kundengenyeka
kundi
kundire
kundu
kune
kunema
kunemba
kunena
kunene
kunenedzera
kunenera
kunenge
kuneta
kunetsa
kunetseka
kunetsekana
kung
kunga
kungaitwa
kungava
kunge
kungoti
kungwara
kunhara
kunharaunda
kunhengo
kunhoka
kunhonga
kunhu
kunhuwa
kuni
kunigeria
kuno
kunobata
kunobatsira
kunobuda
kunobva
kunobvisa
kunoda
kunodanwa
kunodzidza
kunoenderana
kunofanana
kunofanirwa
kunogara
kunogona
kunoita
kunoitawo
kunoitika
kunoitwa
kunokonzera
kunokonzerwa
kunokwanisa
kunonga
kunongedza
kunonoka
kunonyanya
kunonzi
kunoonekwa
kunopa
kunoperera
kunoratidza
kunoreva
kunorth
kunosangana
kunosanganisira
kunoshandiswa
kunosvika
kunotanga
kunotaurwa
kunoti
kunotsvaga
kunouya
kunova
kunowanikwa
kunowedzera
kununa
kununganya
kununura
kunwa
kunwira
kunwisa
kunyadzisa
kunyahwaira
kunyaira
kunyanga
kunyange
kunyangira
kunyangwe
kunyanya
kunyara
kunyaradza
kunyarara
kunyauka
kunyemwerera
kunyenga
kunyengera
kunyenguka
kunyepa
kunyepedzera
kunyepera
kunyeya
kunyika
kunyima
kunyinura
kunyisa
kunyonganisa
kunyongoroka
kunyora
kunyoresa
kunyorova
kunyorwa
kunyuka
kunyungudika
kunyunguditsa
kunyunguduka
kunyunyuta
kunyura
kunze
kunzi
kunzvenga
kunzvimbo
kunzwa
kunzwika
kunzwikwa
kunzwisisa
kunzwisisana
kunzwisisika
kuoma
kuomba
kuombeka
kuombera
kuona
kuonana
kuoneka
kuonekwa
kuonesana
kuongorora
kuongororwa
kuora
kuostireriya
kupa
kupakata
kupakati
kupakura
kupala
kupalila
kupamba
kupambana
kupambuka
kupamhama
kupamhidza
kupanda
kupandana
kupanduka
kupanga
kupangana
kupangura
kupara
kuparadza
kuparadzana
kuparadzaniswa
kuparadzira
kuparadzirwa
kuparadzwa
kuparara
kupararira
kuparidza
kuparira
kuparura
kupata
kupatarika
kupatsanura
kupatsanurana
kupatsanurwa
kupedza
kupembedza
kupembera
kupemberera
kupemha
kupenda
kupendha
kupenengura
kupenga
kupengereka
kupenya
kupepa
kupepera
kupepereka
kupeperuka
kupepeta
kupepuka
kupera
kupereka
kuperekedza
kuperevedza
kupesana
kupeta
kupetauka
kupfava
kupfeka
kupfekenura
kupfekera
kupfekwa
kupfeva
kupfimba
kupfipika
kupfirira
kupfudza
kupfugama
kupfuma
kupfumba
kupfumbata
kupfumbira
kupfunha
kupfunya
kupfupika
kupfupisa
kupfupiswa
kupfura
kupfuta
kupfuura
kupfuya
kupi
kupidigura
kupihwa
kupika
kupikisa
kupilinga
kupima
kupimwa
kupinda
kupindira
kupindirana
kupinduka
kupindura
kupindurudza
kupindwa
kupinga
kupingudza
kupingula
kupingura
kupinimidza
kupinza
kupira
kupisa
kupiwa
kupokana
kupomba
kupombonora
kupomera
kupona
kuponda
kupopota
kupora
kuporesa
kuportuguese
kuposa
kuposana
kupota
kupotera
kupotereka
kupoterera
kupoya
kupukuta
kupumha
kupumhura
kupundira
kupungudza
kupungura
kupunyuka
kupura
kupururudza
kupuruzira
kupusa
kuputa
kuputika
kuputira
kuputsa
kupwa
kupwanya
kura
kuraidza
kuraira
kuramba
kurambana
kurambidza
kuramwa
kurandutsira
kuranga
kurangarira
kurapa
kurapanura
kurapwa
kurara
kurarama
kurarira
kurasa
kurasha
kurasika
kurasikirwa
kuratidza
kuratidzika
kuratidzira
kuratidzwa
kuraura
kurava
kuravira
kurayira
kure
kureba
kurebesa
kurebwa
kuredza
kurega
kurehwa
kurema
kuremara
kuremekedza
kuremera
kurera
kurereka
kureruka
kurerutsa
kureva
kurevawo
kurevera
kureverera
kurevesa
kureya
kuri
kuridza
kuridzwa
kuriga
kurima
kurimwa
kurinda
kurindira
kuringa
kuringana
kuringanisa
kuripa
kuripira
kuripo
kurira
kuririma
kurisa
kurishandisa
kurivara
kurodza
kurohwa
kuronda
kuronga
kurongeka
kurongwa
kuronza
kuroora
kuroorana
kuroorwa
kurota
kurova
kurovedza
kurovera
kuroya
kurozva
kuru
kuruboshwe
kurudyi
kurudzanisa
kurudzi
kuruka
kurukutika
kurukwa
kuruma
kurumbidza
kurume
kurumwa
kurunda
kurunga
kurungama
kurunza
kururama
kururimi
kurutsa
kuruvira
kuruwa
kurva
kurwa
kurwadza
kurwadziwa
kurwanda
kurwara
kurwisa
kurwisana
kurwizi
kurya
kusa
kusaal
kusada
kusagadzikana
kusagara
kusaka
kusakara
kusakura
kusala
kusalala
kusamba
kusambaza
kusanangura
kusanaya
kusangana
kusanganisa
kusanganisira
kusanganiswa
kusangaya
kusara
kusarudza
kusarudzwa
kusasadzira
kusasauka
kusati
kusatya
kusava
kusavapo
kusawirirana
kusaziva
kuseama
kusefa
kuseka
kusema
kusenda
kusendeka
kusenegal
kusenga
kusengudza
kusepa
kusera
kuserera
kuserereka
kuseri
kusesa
kusevenza
kushaikwa
kushaiwa
kushama
kushamba
kushambadza
kushambidza
kushambira
kushamisika
kushamiswa
kushanda
kushandira
kushandirwa
kushandisa
kushandisirwa
kushandiswa
kushanduka
kushandura
kushandurwa
kushandwa
kushanya
kushanyira
kushara
kushata
kushatirwa
kushava
kushaya
kushayika
kushayikwa
kushayiwa
kushevedza
kushevedzera
kushi
kushinga
kushingaira
kushinyira
kushoko
kushoma
kushomeka
kushona
kushongedza
kushonha
kushora
kushoropodza
kushumira
kushungurudza
kushure
kushusha
kushushikana
kushuvira
kusika
kusikwa
kusimba
kusimbisa
kusimira
kusimudza
kusimudzira
kusimuka
kusimukira
kusina
kusingaperi
kusinina
kusiri
kusiya
kusiyana
kusiyanisa
kusiyaniswa
kusodza
kusoma
kusomalia
kusona
kusongola
kusora
kusouth
kusuduruka
kusuka
kusuma
kusumba
kusunda
kusunga
kusungwa
kusununguka
kusunungura
kusunura
kusura
kusuruka
kusurukirwa
kusuruvara
kusvava
kusvetuka
kusviba
kusvika
kusvikira
kusvina
kusvinura
kusvinyanga
kusvipa
kusvira
kusvitsa
kusvitswa
kusvomhora
kusvuura
kuswedera
kuswera
kut
kuta
kutaaha
kutaaruuka
kutadza
kutafuna
kutaha
kutakanura
kutakura
kutakurwa
kutala
kutama
kutamba
kutambanudza
kutambanuka
kutambanura
kutambarara
kutambika
kutambira
kutambudza
kutambudzika
kutambura
kutana
kutanda
kutandara
kutandavara
kutandika
kutandira
kutanga
kutanganyika
kutangira
kutanya
kutanzania
kutapa
kutapira
kutapudza
kutapukira
kutapukirwa
kutapurira
kutapurirana
kutapurirwa
kutara
kutaramuka
kutarangana
kutaridza
kutaridzika
kutaridzwa
kutarira
kutarisa
kutarisana
kutarisira
kutarisirwa
kutarisisa
kutariswa
kutatamuka
kutatamura
kutaudzana
kutaura
kutaurirana
kutaurwa
kutawa
kutawala
kutaya
kuteeka
kuteera
kuteerera
kuteka
kutekaira
kutekeshera
kutema
kutembedzana
kutemwa
kutenda
kutendeka
kutendera
kutendereka
kutenderera
kutendeuka
kutenga
kutengesa
kutengeserana
kutengeswa
kutengwa
kutepuka
kuterama
kutesva
kutesvera
kuteta
kutevedza
kutevedzana
kutevedzera
kutevedzerwa
kutevera
kuteverwa
kuteya
kuti
kutima
kutimba
kutindika
kutiza
kutizira
kutoa
kutodza
kutodzana
kutodzaniswa
kutogo
kutoka
kutola
kutoma
kutomba
kutonda
kutondeka
kutondera
kutonga
kutongola
kutongwa
kutonhodza
kutonhora
kutonhorera
kutonhorwa
kutonongora
kutora
kutorwa
kutota
kutotota
kutova
kutowa
kutsa
kutsaka
kutsambuka
kutsamwa
kutsanangudza
kutsanangura
kutsanangurwa
kutsangudza
kutsanya
kutsaru
kutsauka
kutsaura
kutsawura
kutsemura
kutsenga
kutsetsa
kutsetsenura
kutsi
kutsigira
kutsika
kutsikwa
kutsime
kutsindira
kutsinhana
kutsinhira
kutsivama
kutsivira
kutsoka
kutsora
kutsumba
kutsungirira
kutsutsumwa
kutsva
kutsvaga
kutsvagwa
kutsvaira
kutsvaka
kutsvakwa
kutsvedza
kutsveta
kutsvetera
kutsvinda
kutsvitsa
kutsvuka
kutswa
kutu
kutuhwina
kutuk
kutuka
kutukana
kutukuta
kutula
kutuma
kutumba
kutumbuka
kutumbura
kutumidza
kutumira
kutunda
kutunga
kutungamira
kutungira
kutura
kuturika
kuturikira
kuturikirwa
kuturikwa
kuturuka
kuturura
kututa
kututsa
kututuma
kutwara
kutwasuka
kutya
kutyaira
kutyisa
kutyisidzira
kutyoka
kutyora
kuudza
kuudzadombo
kuudzwa
kuuganda
kuuluka
kuumambo
kuumba
kuumbika
kuumbwa
kuunga
kuungana
kuunganidza
kuunganidzwa
kuunited
kuuniversity
kuunza
kuunzika
kuuraya
kuurayiwa
kuurungana
kuutongi
kuuya
kuuzuru
kuva
kuvaima
kuvaka
kuvakwa
kuvalozi
kuvamba
kuvamwe
kuvana
kuvandudza
kuvandudzwa
kuvanhu
kuvanza
kuvapo
kuvaraidza
kuvarume
kuvarungu
kuvarura
kuvashona
kuvata
kuvava
kuvaviwa
kuve
kuvenga
kuverenga
kuverengeka
kuverengwa
kuverereka
kuvesa
kuveza
kuvhara
kuvhariridzwa
kuvheneka
kuvhika
kuvhima
kuvhina
kuvhiringa
kuvhiringika
kuvhiya
kuvhota
kuvhuna
kuvhura
kuvictoria
kuviga
kuvimba
kuvimbika
kuvimbisa
kuvina
kuvinga
kuvira
kuvirima
kuvirisa
kuvuka
kuwa
kuwacha
kuwait
kuwaka
kuwamba
kuwana
kuwanda
kuwanika
kuwanikwa
kuwanisa
kuwanza
kuwanzana
kuwarira
kuwasha
kuwaza
kuwedzera
kuwedzerwa
kuwerengwa
kuweruza
kuwira
kuwirirana
kuwoma
kuwomarara
kuwomba
kuwombeka
kuwombera
kuwomesa
kuwona
kuwonda
kuwondoroka
kuwonekera
kuwonekwa
kuwonga
kuwongorora
kuwora
kuwumba
kuwuna
kuwunda
kuwuruka
kuwurura
kuwurutsa
kuya
kuyamba
kuyambira
kuyambuka
kuyamwa
kuyamwisa
kuyanana
kuyangarara
kuyanika
kuyaruka
kuyedza
kuyedzwa
kuyenda
kuyera
kuyere
kuyereka
kuyerera
kuyerwa
kuyeuka
kuyunivhesiti
kuyuropu
kuza
kuzadza
kuzadzisa
kuzama
kuzamba
kuzambia
kuzambira
kuzana
kuzara
kuzarura
kuzasi
kuzere
kuzeya
kuzhamba
kuzhinji
kuzhinya
kuzimbabwe
kuzipa
kuzipirwa
kuzira
kuziririka
kuziva
kuzivikanwa
kuzivira
kuzivisa
kuzivisana
kuziwumbe
kuzodza
kuzonga
kuzoona
kuzora
kuzorora
kuzoshanda
kuzoshandiswa
kuzotora
kuzunza
kuzuva
kuzvara
kuzvarwa
kuzvidya
kuzvidza
kuzvidzivirira
kuzviita
kuzvikoro
kuzvimba
kuzvimbirwa
kuzvinhu
kuzvininipisa
kuzvipamhazve
kuzvipira
kuzvitonga
kuzvuva
kwa
kwaakaita
kwaakaitwa
kwaamai
kwaari
kwacho
kwadzo
kwaita
kwaitwa
kwaiva
kwaive
kwajesu
kwaka
kwakabva
kwakaderera
kwakadziva
kwakafanana
kwakaipisisa
kwakaita
kwakaitika
kwakaitwa
kwakakosha
kwakakwana
kwakanaka
kwakananga
kwakanga
kwakange
kwakanyanya
kwakapesana
kwakare
kwakasiyana
kwakatanga
kwakati
kwakawanda
kwake
kwako
kwama
kwamazuva
kwamba
kwamusana
kwamutare
kwamutoko
kwamwari
kwan
kwana
kwanaya
kwandiri
kwangu
kwangwali
kwanisa
kwanyama
kwanza
kwapera
kwaro
kwarusape
kwatara
kwauri
kwava
kwavanotaura
kwavari
kwave
kwavo
kwawo
kwaya
kwayedza
kwayo
kwazvino
kwazvo
kwe
kweafrica
kweafrika
kweafurika
kweasia
kwebasa
kwebede
kwebve
kwechamhembe
kweche
kwechiedza
kwechimwe
kwechinguva
kwechinhu
kwechinyakare
kwechirwere
kwede
kwedenda
kwedu
kwedyitenga
kweeurope
kweezhiya
kweganda
kwegore
kweguta
kweharare
kwehondo
kwehujoto
kwehunyanzvi
kwehupenyu
kwehupfumi
kwehuremu
kwehutachiona
kwehuwandu
kweiyo
kweizvi
kweizvozvo
kwejerusarema
kwekereke
kwekufamba
kwekunge
kwekunze
kwekutanga
kwekuti
kwekwe
kwema
kwemabasa
kwemadonhwe
kwemahawa
kwemakore
kwemakungwa
kwemamiriro
kwemamwe
kwemari
kwemashoko
kwemashonaland
kwemasikati
kwemativi
kwematombo
kwemazana
kwemazita
kwemazuva
kwemazuvaose
kwemazwi
kwembeu
kwemhepo
kwemhuka
kwemishonga
kwemitauro
kwemitemo
kwemitengo
kwemombe
kwemoyo
kwemuenzanisi
kwemukadzi
kwemukomana
kwemunhu
kwemurume
kwemusha
kwemusoro
kwemutauro
kwemutemo
kwemutsazanisi
kwemutsipa
kwemuviri
kwemvura
kwemwaka
kwemwana
kwemwedzi
kwemweya
kwenda
kwenguva
kwenhamba
kwenhambwe
kwenharaunda
kwenhengo
kwenhoroondo
kwenhumbi
kwenyaya
kwenyeredzi
kwenyika
kwenyu
kwenzira
kwenzvimbo
kwepandemic
kwepasi
kweprime
kwere
kwerendende
kwerinopasi
kweropa
kweru
kwerudzi
kweruvara
kwerwizi
kwesadza
kwesahara
kwesainzi
kwese
kwesere
kweshoko
kweshomwe
kwesimba
kwesvondo
kwete
kwetiri
kwetongola
kweutachiona
kweutano
kwevakadzi
kwevana
kwevanhu
kwevarungu
kwevashona
kwevatema
kwevhu
kwezambia
kwezana
kwezimbabwe
kwezita
kwezo
kwezuva
kwezvikonzero
kwezvinhu
kwezvirimwa
kwezvirwere
kwezvivi
kwezwi
kwi
kwindingwi
kwingwiri
kwita
kwl
kwoitawo
kwokuti
kwomwedzi
kwon
kwonzi
kwose
ky
kyung
kɔ
kə
kɪ
kʊ
l
la
label
labia
labor
laboratory
labour
labourer
lack
lacking
lad
ladder
ladle
lady
lagwan
laid
lake
lala
lama
lamba
lambert
lambya
lame
lameck
lameness
lamp
lamula
lance
lanceolata
lancet
land
landa
landing
landlord
lands
lang
langa
langi
language
languages
lanka
lannea
lantern
laos
large
larger
laro
larva
lash
last
lasting
late
later
latimer
latin
latitude
lau
laugh
laughing
laughter
launch
laura
laurent
law
lawa
lawful
lawrance
lawrence
laws
lawsuit
lawyer
lay
layer
lazarus
lazily
laziness
lazy
lcd
le
lead
leader
leadership
leading
leaf
league
leah
leak
lean
leaning
leap
learn
learner
learning
least
leather
leave
leaved
leaves
leaving
led
lee
left
leg
legacy
legal
legend
legged
legs
leishmaniasis
leka
leke
lela
lelo
lemba
lemon
lemoni
lend
lenga
length
lengthen
lenje
leo
leon
leonard
leone
leopard
leprosy
lerato
les
lesotho
less
lessen
lesser
lessing
lesson
lesua
let
letter
letters
level
lever
levitation
levy
lewis
lexicon
leyoni
leza
li
lia
libala
libanda
liberal
liberally
liberate
liberation
liberia
liberty
libra
library
lick
lid
lie
lies
life
lifetime
lift
lifted
lifting
light
lighted
lighter
lightly
lightning
likango
like
likely
likeness
likes
liking
likonde
likumbi
lilac
lilian
lilowe
lily
lim
lima
limb
limbs
lime
limit
limited
limp
limpopo
lina
linda
lindilo
line
lineage
lines
linga
lingala
lingana
linganika
linguistics
link
lion
lip
lips
liquid
liquids
lisa
list
listen
listening
lit
literary
literature
lithium
little
live
lived
livelingua
liver
lives
livestock
living
livingstone
lizard
ll
ller
lloyd
lo
load
loads
loaf
loan
lobengula
lobo
lobola
loc
local
locality
located
location
locative
lock
locust
locusts
log
logba
logic
logy
loice
loin
loincloth
loins
loiter
lokhu
lola
lolo
lom
lomo
lomuntu
lomwe
londa
london
lone
loneliness
lonely
lonesome
long
longa
longe
longepedunculata
longer
longing
longitude
longo
lonzi
look
looked
looking
lookout
looks
loose
loosely
loosen
loosening
loosing
loot
lop
lopit
lord
los
lose
losing
loss
lost
lot
lotpublications
loud
loudly
louis
louse
love
loved
lovemore
loveness
lover
loving
low
lowa
lower
lowest
loyalty
lozi
lp
lpg
ltd
lu
lua
luamba
luambo
luambu
luambua
luba
lubilo
lubukusu
lubwisi
lucia
luck
lucky
lucy
luema
luganda
lugbara
luggage
lugungu
lugwere
luhala
luhya
luka
luke
lukoa
lukuma
lukuta
lukwakwa
lulaka
lulama
lulimi
lulondo
lumba
lumbana
lumbisya
lumonso
lumoxi
lump
lunch
lunda
lundika
lundu
lunene
lung
lunga
lungs
lungu
lunyole
lunyoro
luo
lupasa
lupili
lupondo
lure
luring
lurk
lusaka
lusaya
lusembo
lusensa
lusoga
lust
lustre
lutete
lutunda
luv
luvale
luwala
luwanga
luwangwa
luwengo
luwilo
luzi
lwa
lya
lydia
lying
lyrics
lɛ
lɪ
lʊ
m
ma
maalkali
maambo
maandiko
maarabhu
maari
maartist
maawa
mabala
mabanga
mabanze
mabapa
mabara
mabari
mabasa
mabasi
mabatirwo
mabaya
mabayo
mabebe
mabefuro
mabele
mabenge
mabhanan
mabhande
mabharani
mabhazi
mabhi
mabhii
mabhindauko
mabhiza
mabhizinesi
mabhora
mabhuku
mabika
mabiko
mabinda
mabinga
mabiri
mabiribidi
mabiyangu
maboko
maboma
mabota
mabugu
mabungu
mabura
maburi
mabuse
mabuta
mabutho
mabutu
mabuwa
mabvazuva
mabvi
mabviko
mabvirazuva
mabviro
mabvumbo
mabvute
mabvuto
mabvuwa
mabwe
macedonia
machacha
machadu
machaka
machando
machani
macharaga
machaya
macheka
machela
machena
machende
machere
machero
macheso
machete
machinda
machine
machingauta
machingura
machinjike
machira
machiri
machirika
machisi
machiti
macho
machote
machumi
macompound
maconde
mad
madade
madagascar
madagascariensis
madamombe
madangure
madanha
madara
madavo
made
madeko
madekurozwa
madenderedzwa
madengo
madesa
madhamu
madhanzi
madhorobha
madiki
madilu
madimba
madimikira
madimutsa
madinda
madinge
madingindira
madirano
madiya
madness
mado
madobole
madoka
madokeri
madokero
madomasi
madombwe
madondo
madonge
madongo
madonhwe
madoo
madora
madota
madudziro
madudzirwo
madungu
maduramazwi
madyangove
madzadza
madzembe
madzi
madzibaba
madzihwa
madzima
madzimai
madzimambo
madzinde
madzinga
madzingaidze
madzingira
madzingo
madzinza
madziro
madzishe
madzitateguru
madziva
madziya
madzonga
madzongwe
madzorera
madzoro
madzudzo
madzuka
maelectromagnetic
maenza
maenzanhara
maepisodhi
maera
maereka
maererano
maerua
maesa
mafa
mafambiro
mafashamo
mafi
mafika
mafira
mafirimu
mafiso
mafiswa
mafomu
mafu
mafuba
mafume
mafunda
mafungiro
mafungo
mafuro
mafuta
mafutarubwe
mafuwa
mafuwe
mafwe
magadzirirwo
magaka
magalismontanum
magama
maganga
magariro
magaro
magasa
magasi
magayisa
magazine
magazini
magege
magen
magetsi
magezi
maggot
magic
magnet
magnetic
magnitude
mago
magodo
magoga
magomba
magombo
magonga
magongo
magonya
magonyo
magora
magoronga
magorwa
magufu
magulu
magumbeze
magumo
magunda
magungwa
magunje
magure
maguta
magwa
magwada
magwaro
magwegwe
magwenya
magwere
mahachi
mahara
mahatomu
mahawa
mahere
maheu
mahewu
mahlamvu
mahobi
mahofisi
mahoka
mahombe
mahombekombe
mahonga
mahoro
mahumunya
mahwada
mahwerera
mahwi
mahwite
mahydrocarbons
mai
maidza
maiguru
main
maina
mainda
maingire
mainland
mainly
maintain
mainza
mairi
maita
maitiro
maitirwo
maive
maize
majaja
majaji
majaka
majang
majestic
majesty
maji
majiji
majome
majonga
major
majora
majority
majudah
majudha
majuru
majuta
maka
makaka
makakatanwa
makala
makamba
makambani
makamu
makamure
makanda
makande
makandu
makanga
makangara
makani
makano
makanyaire
makapa
makara
makaramu
makaranga
makarau
makare
makarekare
makari
makarichi
makaro
makarwe
makasa
makato
makatuni
makau
makava
makavi
makawa
makaya
make
makeba
makebe
maker
makereke
makes
maketo
makhanani
makhelwani
makhuva
making
makiromita
mako
makobvu
makofi
makoko
makola
makomba
makombe
makombwe
makomo
makomva
makonde
makondekwa
makone
makonga
makonge
makongo
makoni
makonje
makono
makonya
makonye
makonyo
makonza
makonzo
makonzwa
makopa
makope
makora
makore
makoro
makosa
makosi
makota
makoto
makotore
makotsa
makova
makove
makovo
makowa
makristu
makua
makudo
makuhwa
makumbe
makumbi
makumbiro
makumbo
makumborenga
makumbu
makumi
makumimana
makumimanhatu
makumimanomwe
makumimasere
makumimashanu
makumimatanhatu
makumimatatu
makumiviri
makunakuna
makundano
makunde
makundu
makunga
makungwa
makuni
makura
makuru
makusha
makushe
makutu
makuva
makuvaza
makuvire
makuwa
makuwatsine
makuza
makwai
makwakwa
makwata
makwati
makwenzi
makwikwi
makwiro
makwita
makwito
mal
malachi
malady
malaika
malamba
malanga
malango
malaria
malawi
malay
male
malekano
malele
malema
malenda
males
malformed
mali
malice
malicious
malign
malinga
malinke
mall
malola
maloleka
malonda
malongo
malono
malowa
malt
maluleke
malundu
malunga
malungo
maluta
malwanga
mama
mamagazini
mamaki
mamanga
mamba
mambakwedza
mambara
mambera
mambiri
mambo
mambokadzi
mambure
mambwe
mametals
mamina
mamineti
maminimini
maminitsi
mamirioni
mamirire
mamiriro
mamiriyoni
mamita
mamiwa
mamorekuru
mamoyo
mamvanda
mamwe
mamwewo
man
mana
manage
manageable
management
manager
managing
manamike
mananga
manase
manda
mandarin
mandau
mandaza
mande
mandeb
mandebele
mandengu
mandeya
mandinka
mandipaka
mandivamba
mandonda
mandundu
mane
maneja
manejimendi
manenji
maneno
manera
maneto
mang
manga
mangani
mangava
mangayi
mangisi
mango
mangoes
mangoma
mangombo
mangondo
mangota
mangu
mangwa
mangwana
mangwanani
mangwanda
mangwende
manhanga
manhangande
manhenda
manhenga
manheru
manhoko
manhombo
manhuchu
manhwa
manicaland
manifest
manikidzo
maningi
manja
manje
manjenje
manjoro
mankanya
manner
manners
mano
manomano
manomwe
manonda
manondanhoka
manondanhuka
mansa
manual
manubhia
manuel
manufacture
manure
manwadhi
manwiwa
many
manya
manyame
manyani
manyanya
manyara
manyaro
manyau
manyawi
manyaya
manyemba
manyene
manyepo
manyika
manyikana
manyina
manyinda
manyinyire
manyoka
manyonda
manyonga
manyonge
manyorero
manyoro
manyowa
manyunyu
manyura
manzere
manzi
manzvovera
manzwi
manzwiro
maodzanyemba
maodzeranyemba
maoko
maonero
maonga
maore
maorera
map
mapaka
mapako
mapalo
mapanda
mapande
mapanga
mapangana
mapango
mapani
mapanzure
mapapiro
mapapu
mapasa
mapato
mapatya
mapazi
mapeji
mapemba
mapembe
mapenda
mapendekete
mapendere
mapenzauswa
mapenzi
mapepa
mapepanhau
mapere
maperembudzi
mapeta
mapeto
mapeya
mapeza
mapfeni
mapfihwa
mapfumbamwe
mapfumbu
mapfumo
mapfunde
mapfupa
mapfupi
maphorisa
mapika
mapingure
mapipi
mapira
mapiringa
mapiringanwa
mapiritsi
mapisarema
mapiye
mapoka
mapondera
maponga
mapopoma
mapote
mapoto
mapping
maprouneifolia
mapudzi
mapunda
mapundu
mapungu
mapungubwe
mapuranga
mapurisa
maputo
maputuka
maputuke
maputukezi
mapweza
mara
maradio
maradona
maramba
maramu
maramura
maranda
maranga
marange
marangwanda
maranzi
marapiro
marara
mararamiro
mararike
marariya
marasha
marata
maratidzo
maraura
maravanyika
maravi
march
mare
marechera
marefu
maregere
marenga
marenge
marengenya
marengo
marengu
marere
marevo
mareya
margaret
marhijoni
mari
maria
mariam
mariana
marie
mariga
marijuana
marikopo
marimba
marime
marimo
marindo
marine
maringa
maringe
marino
mariri
mariro
marisa
marise
mark
marked
marker
market
marketing
marking
marks
maro
marobots
maromo
maronda
marondera
maronga
marongerwo
marora
maroro
marowa
marozva
marriage
marriages
married
marrow
marry
marrying
mars
marsh
marshall
marshy
martha
martin
marudzi
marufu
maruku
marukutira
marumbi
marume
marunga
maruni
marunye
marunza
marura
maruru
maruruma
maruta
maruva
maruwa
marvel
marvelous
marwa
marwadzo
mary
masa
masaga
masaini
masaisai
masaka
masala
masaluka
masamba
masambe
masamvu
masana
masanga
masangano
masanganzira
masango
masanza
masara
masarango
masasa
masawi
masaya
maseko
masembura
masenda
masenze
masera
masere
maseruka
masese
mashaka
mashakada
mashandiro
mashandisirwo
mashanga
mashanu
mashanyare
mashara
mashavave
mashavi
mashed
mashizha
mashoko
mashoma
mashona
mashonaland
mashonga
mashonganyika
mashuku
mashumba
mashura
mashy
masiginecha
masika
masikati
masike
masimba
masimputomu
masinga
masinza
masiriri
masiwa
masiya
masiyaharwa
masiyarwa
masiyiwa
mask
masks
masoja
masoka
mason
masonga
masongo
masonry
masoso
mass
master
mastery
masticate
masuku
masukume
masumba
masunda
masundire
masunga
masvika
masvikiro
masvingo
masvomhu
maswera
mat
mata
matabele
matabeleland
mataga
matagadzikwa
mataka
matala
matama
matamba
matambiro
matambudziko
matamisa
matanda
matandara
matanga
matangadzira
matangaidze
matange
matangira
matangwa
matanhatu
matanho
matani
matano
matapiri
matara
mataranyika
matarara
matare
matari
mataruka
mataruse
matarutse
matata
matatu
matauka
matauriro
mataurirwo
matavi
matavire
matawa
match
matches
mate
matehwe
mateka
mateko
matema
matenda
matende
matendere
matendo
matenga
matenge
matengezeze
mateo
matepeta
matepo
matere
matereke
material
materials
materitori
maternal
materu
matete
matevhu
matewe
math
mathangu
mathbf
mathias
matika
matikiti
matimba
matindike
matinenga
matinji
mativi
matiza
mato
matobo
matohwe
matoka
matola
matoma
matombo
matome
matonda
matondo
matonga
matongerwo
matongo
matongora
matope
matore
matoro
matosi
matowa
matransistor
mats
matsanga
matsi
matsika
matsumba
matsutso
matsva
matsvuku
matter
matters
matthew
matuka
matuku
matuma
matumbe
matumbu
matumbwa
matunda
matunhire
matunhu
matupa
mature
maturing
maturity
maturo
maturusi
matuwa
matuzu
matuzvi
matwi
maud
maumbirwo
maunde
maunga
maungwe
maureen
maurice
mauritania
mauro
mauta
mauto
mavambo
mavanga
mavara
maveka
maveke
mavenda
mavhawero
mavhengere
mavhiki
mavhinga
mavhiri
mavhu
mavhudzi
mavhunga
mavhungu
mavi
mavindi
maviri
mavirira
mavis
mavo
mavongwe
mavuso
mavuwa
mawachi
mawanda
mawawa
mawe
mawere
mawerera
mawero
mawoko
mawongera
maworesa
maworo
mawoyo
mawururwi
mawuta
mawuto
mawuyu
maxhosa
maximum
maxwell
may
mayaka
maybe
mayelema
mayera
mayere
mayeresa
mayi
mayingila
mayo
mayor
mazai
mazambani
mazambuko
mazamu
mazana
mazanamairi
mazanamairimakumimatatu
mazanamairinemakumimairi
mazanazana
mazanga
mazano
mazara
mazarura
mazaya
maze
mazengera
mazengo
mazera
mazhanje
mazhinji
mazimbe
mazingo
mazino
maziso
mazita
maziwa
mazowe
mazuka
mazulu
mazungu
mazungula
mazuva
mazuvano
mazuvaose
mazviita
mazvikokota
mazviri
mazvita
mazwi
mb
mba
mbabvu
mbada
mbadzi
mbai
mbala
mbalazi
mbale
mbali
mbama
mbamba
mbambaira
mbambala
mbambara
mbambi
mbambiro
mbambo
mbanda
mbandama
mbandu
mbanga
mbangu
mbangula
mbangura
mbani
mbanje
mbanji
mbano
mbanza
mbanze
mbara
mbaravara
mbare
mbari
mbariki
mbarikwa
mbariro
mbaru
mbata
mbatata
mbatatisi
mbati
mbatya
mbavha
mbawa
mbaya
mbayo
mbe
mbeera
mbeki
mbela
mbele
mbeli
mbemba
mbembe
mbembi
mbenge
mbeni
mbera
mbere
mbereko
mberenga
mberenge
mberengi
mberengwa
mberere
mberi
mbesa
mbeta
mbeu
mbeva
mbewele
mbewu
mbezo
mbi
mbidzo
mbila
mbili
mbimba
mbimbi
mbindikwa
mbingi
mbira
mbirapage
mbire
mbiri
mbirimi
mbirimo
mbirira
mbiriri
mbiriso
mbiro
mbiru
mbise
mbishi
mbita
mbiti
mbiya
mbizi
mbo
mbocho
mbodza
mbokoto
mbolela
mbolota
mboma
mbombedza
mbombo
mbongo
mbongoro
mboni
mbopo
mboro
mboshi
mbote
mbotso
mbowa
mbowo
mbu
mbudo
mbudzana
mbudzi
mbugwe
mbukushu
mbule
mbuli
mbuma
mbumba
mbumbira
mbumu
mbunda
mbundu
mbune
mbungano
mbungu
mbunje
mbura
mburetete
mburu
mburungwa
mburungwagama
mburuzvira
mburwa
mbuta
mbuto
mbutu
mbuva
mbuwa
mbuya
mbuye
mbuzi
mbwa
mbwanana
mbwanda
mbwe
mbwele
mbwende
mbwera
mbwizhu
mbɔ
mbɛ
mc
mcewen
mcgraw
mdc
me
meadow
meal
mealie
mealies
mean
meaning
means
measles
measure
measured
measurement
measures
meat
mechanic
med
meda
medhiteraniya
media
mediate
mediator
medical
medicinal
medicine
medicines
mediterranean
medium
mediums
medu
meek
meekness
meet
meeting
meets
mega
megomo
mehiko
mehondo
mekufa
mekunge
mekupedza
mekuwana
melanoxylon
melody
melon
melt
melting
memakore
memateko
memazuva
memba
member
members
membrane
memeza
memory
memunhu
memuviri
memwedzi
men
mend
menduru
meningitis
meningococcal
meno
mental
mentally
mention
mentioned
menya
menyani
mepu
merchandise
merchant
mercy
mere
merely
meridian
merit
merriam
mes
mesa
mese
mesh
meso
mesopotamia
mess
message
messenger
mesu
met
meta
metal
metallic
metallurgy
metals
metaphor
meteorological
methane
method
methods
metre
metres
metsa
mexico
meya
meza
mezvi
mezvo
mfana
mfini
mfumo
mfumu
mfuta
mfuti
mhaka
mhako
mhambu
mhamha
mhana
mhanda
mhandara
mhande
mhando
mhandu
mhangani
mhango
mhangura
mhangwa
mhanje
mhanya
mhanza
mhanzi
mhara
mhare
mhari
mhashu
mhasuru
mhaswa
mhata
mhedzisiro
mhembe
mhemberero
mhembero
mhembwe
mhenda
mhende
mhene
mhenenguro
mhenga
mheni
mhenyu
mhepo
mhere
mhete
mheu
mhezi
mhiko
mhimba
mhindo
mhindu
mhinduro
mhinga
mhingo
mhini
mhino
mhiri
mhiribidi
mhirikano
mhiriko
mhiripiri
mhiripiti
mhirizhonga
mhiti
mhitsa
mhizha
mhodzi
mhodzigetsi
mhofu
mhola
mhombwe
mhomho
mhonda
mhondi
mhondoro
mhopo
mhora
mhoroi
mhosva
mhou
mhoze
mhuka
mhukahuru
mhukutu
mhumburu
mhumhi
mhundu
mhundwa
mhunga
mhungu
mhungubwe
mhuno
mhuri
mhuru
mhururu
mhute
mi
mibairo
mibale
mibayiro
mibvunzo
mice
michael
michelle
michero
michina
microbiology
micronesia
mid
midday
middle
midhiya
midlands
midst
midwife
midzi
midzimu
midziyo
mienzaniso
mifananidzo
mifungo
mig
miganhu
might
mighty
migodhi
migrate
migratory
migwagwa
miitiro
mikana
mike
mikeroni
miko
mikombe
mikono
mikova
mikuru
mikwava
mile
miles
military
milk
milking
milkweed
milky
mill
millet
million
milongo
milton
milunga
mimba
mime
mimhanzi
mimosa
mimwe
mimwewo
min
mina
mind
minda
mine
mineral
mines
mineti
minga
minh
minhenga
mini
miniehle
minimum
minister
ministers
ministry
minute
minwe
minzwa
mipanda
mipango
mipata
mipimo
mirairo
mirazvo
miriam
miriki
miriwo
miriyoni
mirombe
miromo
mirriam
mirror
misandu
mischievous
miser
misery
misfortune
misha
mishanu
misheck
mishina
mishoma
mishonga
mishoni
mishwaira
misi
misiyano
misleading
misodzi
misoro
miss
missile
missing
mission
mist
mistake
misunderstanding
mit
mita
mitambariko
mitambo
mitanhatu
mitatu
mitauro
mitauronyina
mitchell
mitembe
mitemo
mitero
mitezo
miti
mitoro
mitsara
mitsetse
mitswe
mitt
mitumbi
mitunhu
mitupo
miviri
mix
mixed
mixing
mixture
mizera
mizhinji
miziraimu
mjinga
mk
mkare
mkate
mkoa
mkombachoto
mkondo
mkongo
mkono
mkonzi
mkotamo
mkungire
mlamba
mlambo
mlandu
mlauzi
mlingano
mlingo
mlisa
mliswa
mlombezi
mm
mma
mmen
mn
mnangagwa
mnyonge
mo
moa
mob
moba
mobocracy
mobutu
mock
mockery
mod
mode
model
moderate
modern
modernism
modesty
modhi
modza
moi
moise
moises
moist
moisture
mokonzi
mokunge
mold
mole
molecular
moloko
molome
molten
mom
mombe
moment
monaco
monday
monde
monene
monerapo
money
mongo
monica
monique
monitor
monkey
monovalent
monoxide
monster
month
months
monument
monyake
mood
moon
moonlight
moore
mopane
moral
more
moreblessing
moreover
morgan
moringa
morishasi
moritani
mornachy
morning
moroko
morris
morsel
mortality
mortar
morus
mose
moses
moshi
mosi
mosquito
most
mostly
mota
moth
mother
motion
motive
moto
motokari
motor
motors
motsi
mould
moulding
mound
mount
mountain
mountains
mourn
mourning
mouse
mouth
move
moved
movement
movements
moves
movie
moving
moyana
moyo
moyombuya
mozambiki
mozambique
mp
mpa
mpaka
mpala
mpale
mpambani
mpambo
mpamvu
mpanda
mpando
mpango
mpazi
mpela
mpembe
mpembedza
mpembi
mpenga
mpenza
mpepe
mpfofu
mphatso
mpika
mpiki
mpiku
mpila
mpiluka
mpinda
mpinga
mpinganjira
mpingo
mpisi
mpito
mpole
mpoma
mponda
mpuku
mpumba
mpunga
mpyemo
mr
mrongazuva
mrwetyana
ms
mshaili
mshani
mshongozi
msika
msomo
msweta
mt
mtali
mtambariko
mtandi
mtandira
mtawarira
mtemi
mtemo
mtengo
mtima
mtoa
mtolo
mtongoli
mtongori
mtowi
mtsitsi
mtsungi
mtu
mtukudzi
mtumba
mtundu
mtunga
mtungamiri
mu
muafrica
muafrika
muafurika
muamba
muamerika
muana
muangola
muareka
muari
muasia
mubairo
mubako
mubandirwa
mubangi
mubangwe
mubani
mubano
mubanze
mubasa
mubata
mubatanidzwa
mubatapasango
mubati
mubato
mubatsiri
mubaya
mubayi
mubayira
mubayiro
mubazi
mube
mubenin
mubereki
muberere
mubhadharo
mubhaibheri
mubhanana
mubhazi
mubhedha
mubhizinesi
mubhokisi
mubhuku
mubi
mubiki
mubindu
mubinyi
mubinyo
mubiri
mubishi
mubisho
muboka
mubonda
mubondi
muboora
muboterekwa
mubotswana
mubulawayo
mubumbiro
mubuya
mubvamaropa
mubvumbi
mubvumo
mubvunzo
mubvunzurudzo
mubvuvi
mucameroon
mucape
mucaribbean
mucentral
much
muchacha
muchadenga
muchaka
muchakata
muchamhembe
muchando
muchaneta
muchani
muchanza
mucharikwa
muchato
mucheche
muchechetere
muchechi
muchedzi
muchegwa
mucheka
mucheko
muchena
muchengeti
muchenje
mucheno
mucherechedzo
mucheri
mucherikwa
muchero
muchete
mucheto
muchetura
muchiarabhu
muchiarabic
muchibantu
muchibereko
muchichayina
muchidimbu
muchidza
muchidzi
muchidzidzo
muchifrench
muchigiriki
muchihebheru
muchijapani
muchikafu
muchikamu
muchikaranga
muchikare
muchikoriya
muchikoro
muchikwata
muchimbiri
muchimbo
muchimiro
muchina
muchinda
muchindau
muchinga
muchingezi
muchinyakare
muchinyorwa
muchipatara
muchira
muchirahondo
muchiratini
muchirevo
muchiro
muchirongo
muchirongwa
muchirungu
muchishona
muchishongrish
muchisotho
muchispanish
muchiswahili
muchiswahiri
muchitendero
muchiti
muchitima
muchitsonga
muchitswana
muchiuno
muchivande
muchivanhu
muchivhenda
muchizulu
muchochororo
muchoto
muchovha
muchowe
muchururu
mucongo
mucuna
mucus
mud
muda
mudambo
mudandemutande
mudanga
mudangwa
mudanho
mudara
mudare
mudari
mudarikwa
mudariro
mudark
mudau
muddle
mudede
mudedema
mudeke
mudeme
mudemocratic
mudenda
mudenga
mudenge
muderede
mudereki
mudereri
mudetembi
mudhara
mudhebhe
mudhorobha
mudhudhudhu
mudhuri
mudhuze
mudida
mudikani
mudiki
mudimu
mudingi
mudirira
mudiwa
mudo
mudodo
mudoko
mudoma
mudondo
mudovodzanwa
muduku
mudumbi
mudumbu
mudunge
mudungwe
mudunhu
mudura
muduramazwi
muduri
muduso
muduvuri
mudyambudzi
mudyari
mudza
mudzani
mudzengerere
mudzepete
mudzi
mudzidzi
mudzidzisi
mudzimai
mudzimba
mudzimu
mudzimwe
mudzinganyama
mudzinza
mudziva
mudzivisi
mudzivo
mudziyaishe
mudziyo
mudzonga
muene
muenga
muenge
muenglish
mueni
muenzanisi
muenzaniso
muenzi
muethiopia
mueurope
muezhiya
mufakose
mufambi
mufananidzo
mufarinya
mufaro
mufenje
mufi
mufirimu
mufote
mufudzi
mufuka
mufuke
mufumba
mufumbi
mufume
mufumu
mufunda
mufunde
mufundi
mufundisi
mufunga
mufungo
mufunya
mufuro
mugabe
mugabo
mugadziri
muganda
muganhu
mugapa
mugaragora
mugari
mugariro
mugaviri
mugero
mugocha
mugodhi
mugogo
mugola
mugomba
mugomo
mugore
mugoro
mugota
mugoti
mugova
mugove
mugovera
mugunda
mugungwa
muguri
muguta
muguti
muguzabheri
muguzi
mugwagwa
mugwaku
mugwara
mugwaro
mugwava
mugwazo
mugwemi
mugwenga
mugweru
mugweze
mugwira
muhacha
muharare
muhawa
muhofisi
muhohoshwa
muhomba
muhombe
muhonde
muhondo
muhongo
muhope
muhoro
muhoronga
muhovha
muhudyu
muhupenyu
muhuranda
muhuro
muhurukuru
muhurumende
muhushangazhi
muhutapwa
muhute
muhuwandu
muhwa
muhwati
muhwezva
mui
muijipita
muimba
muimbi
muisha
muisi
muiti
muitiro
mujawo
mujecha
mujeki
mujenya
mujeri
mujinga
mujiri
mujohannesburg
mujomba
mujuru
mukadzi
mukadzinyina
mukaha
mukaka
mukama
mukamba
mukana
mukando
mukangira
mukanwa
mukanya
mukare
mukarenda
mukarobgwa
mukashi
mukata
mukati
mukau
mukendi
mukenya
mukereke
muketa
mukhwani
mukiri
mukiriketa
mukobvu
mukokeri
mukoki
mukoko
mukoli
mukolo
mukoma
mukomana
mukomba
mukombachoto
mukombe
mukombo
mukonda
mukonde
mukondi
mukondiwa
mukondo
mukondombera
mukondorongwe
mukonge
mukongo
mukonikoni
mukono
mukonya
mukonza
mukonzi
mukonzo
mukoranidzwa
mukore
mukorezana
mukoro
mukoronga
mukororo
mukosera
mukosi
mukoswa
mukota
mukoti
mukoto
mukotsanjera
mukova
mukowa
mukowasimbi
mukoyi
mukua
mukuba
mukubvu
mukucha
mukudu
mukuenderera
mukufamba
mukugadzira
mukuita
mukuku
mukuma
mukumba
mukumbi
mukumbura
mukume
mukumo
mukuna
mukunda
mukunde
mukundi
mukundo
mukundu
mukunga
mukunguta
mukunya
mukunyadzi
mukunyora
mukupa
mukupe
mukupera
mukupi
mukupira
mukura
mukuru
mukurumbira
mukurusa
mukuruva
mukusa
mukushambadzira
mukuta
mukutanga
mukutaura
mukute
mukuto
mukutu
mukuwa
mukuwana
mukuwapasi
mukuwasha
mukuwe
mukuyu
mukwakwa
mukwani
mukwasha
mukwashi
mukwasi
mukwati
mukwava
mukwekwe
mukweli
mukwenda
mukwende
mukwere
mukwerera
mukweso
mukwidza
mukwiri
mukwita
mulalika
mulamuzi
mulandu
mulaula
mule
mulele
mulema
mulemba
mulembu
mulenga
mulenge
mulifi
mulimo
mulindi
mulinganya
mulingo
mulombe
mulondon
mulonga
mulongi
mulongo
mulove
multi
multiple
multiplication
multiply
multitude
mulumbi
mulundu
mulungo
mulungu
mulwalo
muma
mumabasa
mumabhuku
mumadagascar
mumafirimu
mumaguta
mumaindustries
mumakomo
mumakore
mumakwikwi
mumalabs
mumalawi
mumamwe
mumaoko
mumap
mumapoka
mumarudzi
mumaruwa
mumasango
mumashoko
mumashure
mumatanga
mumatanks
mumatombo
mumatunhu
mumawoko
mumaziso
mumazita
mumazuva
mumazwi
mumba
mumbere
mumera
mumhando
mumhanzi
mumhepo
mumhu
mumhuri
mumigwagwa
muminda
mumiriri
mumisha
mumitambo
mumitauro
mumiti
mumorocco
mumoyo
mumozambiki
mumozambique
mumpanga
mumubatanidzwa
mumugwagwa
mumunda
mumunhu
mumupanda
mumupata
mumuromo
mumusha
mumusika
mumusoro
mumutambo
mumutandiro
mumutauro
mumuti
mumutuvi
mumuviri
mumvura
mumvuri
mumwaka
mumwe
mumwechete
mumwedzi
mumwena
mumwewo
mumwiri
mun
muna
munaka
munakandafa
munako
munaku
munakurume
munamato
munamibia
munangu
munashe
munational
munda
mundanda
mundandaridza
mundari
mundere
mundima
mundiro
mundu
mune
munemu
munene
munenge
muneri
munew
mungamba
mungani
mungano
mungarava
mungava
mungoshi
mungoza
munguri
munguva
mungwa
mungwaru
munhabvi
munhanga
munhangu
munharaunda
munhau
munhemba
munhenga
munhengo
munhikwi
munhoroondo
munhu
munhuhwi
munhukadzi
munhumbu
munhundurwa
munhurume
munhuwi
municipality
munigeria
munin
munjelele
munjeri
munjodzi
muno
munogara
munondo
munongedzi
munongedzo
munongi
munongo
munova
munovhera
munowanikwa
munoyera
munthu
muntu
munu
munungu
munwe
munya
munyai
munyakwe
munyama
munyani
munyara
munyaradzi
munyasi
munyati
munyavi
munyaya
munyayi
munyera
munyere
munyeu
munyevhe
munyika
munyimi
munyire
munyiru
munyonga
munyonhi
munyori
munyoro
munyu
munzanga
munzeve
munzi
munzira
munziyo
munzizi
munzuku
munzvi
munzvimbo
munzwa
muo
muoceania
muombe
muone
muongo
muongori
muongorori
mupaka
mupakwa
mupamba
mupambo
mupambutsi
mupambwa
mupanda
mupandenyama
mupandi
mupandira
mupandiri
mupandu
mupanga
mupangi
mupango
mupangure
mupanguri
mupangwa
mupara
muparavara
mupare
muparidzi
mupata
mupatya
mupemba
mupembe
mupendi
mupenyu
mupera
mupfumba
mupfumi
mupfunga
mupfungwa
mupfuni
mupfupi
mupfure
mupfuri
mupfururi
mupimbi
mupimbiri
mupimo
mupinda
mupindi
mupindu
mupinga
mupini
mupinyi
mupira
mupiringani
mupita
mupombe
mupona
muponesi
muporofita
mupotaringa
mupoti
mupoto
muprovince
mupunda
mupunga
mupurisa
mupurura
murahwa
murairidzi
murairo
murakata
murakatira
muramba
murambi
muramu
muranda
murandakadzi
murandu
murangariro
murao
murapa
murape
murapi
murara
murarabungu
murashi
muravu
murawu
murayiro
murazvo
murder
murdered
muredzi
murefu
murekwa
murema
murembi
murenga
murenge
murengwa
murerwa
mureta
murevereri
mureza
murhijoni
murhodesia
muri
muridzi
muridzo
murima
murimi
murimo
murindi
muringa
muringai
muringani
muringi
muringo
muripo
muriri
muriro
murisi
muriwo
murizvino
muroma
murombe
murombedzi
murombo
muromo
muronda
murondo
muronga
murongazuva
muronge
murongerwi
murongo
muronzi
muroora
muropa
muroro
murove
murowa
muroyi
mursi
muruambamhenyu
muruambanyeredzi
muruaru
muruko
murumana
murumba
murumbi
murumbwana
murume
murunda
murundi
murundu
murungi
murungo
murungu
muruoko
mururimi
mururu
muruwa
muruwoko
muruzhinji
murwanda
murwendo
murwere
murwi
murwiyo
murwizi
musa
musaala
musaara
musabayana
musainzi
musaka
musakanyi
musaku
musakwa
musalama
musalu
musambo
musambu
musami
musamu
musana
musandarara
musande
musanganiswa
musangano
musango
musangu
musanhi
musanya
musara
musarara
musari
musaridzwa
musarirwa
musarudzo
musasa
muscle
muscles
muscular
museke
musekwa
musena
musenda
musendami
musendo
musenegal
musenerera
musenga
musera
musere
muserimadzwa
museru
musesa
musese
museum
museve
museyamwa
musezi
musha
mushakabvu
mushambadzi
mushana
mushandi
mushandirapamwe
mushandirwi
mushando
mushaninga
mushara
musharo
musharukwa
mushavi
mushe
musheche
mushenjere
mushi
mushininga
mushishi
mushitu
mushoko
mushoma
mushombo
mushona
mushonga
mushore
mushove
mushroom
mushrooms
mushu
mushuna
mushure
mushwa
mushwaira
musi
music
musical
musika
musikana
musikarudzi
musikavanhu
musiki
musimbi
musimbo
musimboti
musina
musitu
musiwa
musiyano
muskool
muskwe
musodza
musodzi
musoja
musoki
musoko
musombe
musombi
musonda
musongo
musongora
musongore
musoni
musonza
musope
musoro
musoso
musoti
musouth
musouthern
musowa
must
muster
mustering
musu
musulphuric
musumba
musumbi
musuna
musunga
musungati
musungo
musungu
musungwa
musunji
musunyi
musunzi
musupi
musuta
musuva
musuwa
musuwo
musvasva
musvo
musvutugadzike
muswa
muswe
muswere
musweswe
musweto
muta
mutaa
mutadzi
mutahwa
mutaira
mutaka
mutakunanzva
mutala
mutale
mutali
mutalo
mutamba
mutambara
mutambarika
mutambariko
mutambe
mutambi
mutambo
mutambu
mutamila
mutamiri
mutana
mutanda
mutandadzi
mutandamhuno
mutandarika
mutande
mutandiko
mutandira
mutandiri
mutandiro
mutanga
mutange
mutangi
mutanhaurwa
mutanho
mutano
mutanzania
mutapa
mutape
mutapi
mutapo
mutara
mutarara
mutare
mutari
mutaro
mutasa
mutata
mutauri
mutauro
mutauronyina
mutavayi
mutawa
mutayira
mute
muteke
mutekedza
muteki
mutema
mutemaringa
mutemba
mutembo
mutembwa
mutemi
mutemo
mutenda
mutendeki
mutendera
mutendesi
mutendu
mutenga
mutengesi
mutengezanwa
mutengi
mutengo
mutenha
muteremuko
muterera
muterere
mutero
mutes
mutesverwa
mutete
mutetema
mutevedzeri
mutevedzi
muteyo
mutezo
muthanga
muthe
muti
mutikane
mutilation
mutima
mutindi
mutindo
mutirikwe
mutiti
mutiza
muto
mutobo
mutobvu
mutodi
mutoko
mutola
mutolo
mutomba
mutombe
mutombi
mutona
mutonde
mutondi
mutondo
mutongi
mutongo
mutongore
mutongori
mutonzi
mutora
mutore
mutori
mutoro
mutorwa
mutota
mutowa
mutowo
mutsa
mutsago
mutsamiro
mutsamvi
mutsaona
mutsara
mutsari
mutsau
mutsauko
mutsawashe
mutsazanisi
mutsemu
mutsena
mutsendo
mutsetse
mutsi
mutsigiri
mutsika
mutsime
mutsinda
mutsindo
mutsinze
mutsipa
mutsira
mutsora
mutsubvu
mutsunga
mutsuwiko
mutsva
mutsvairo
mutsvaka
mutsvanga
mutsvangwa
mutsvene
mutsvuku
mutswa
mutswari
mutu
mutual
mutubuki
mutuda
mutuke
mutukudzi
mutukutu
mutumba
mutumbe
mutumbi
mutumbu
mutumbuka
mutume
mutumwa
mutunami
mutunda
mutundo
mutundu
mutunga
mutungamiri
mutungamiriri
mutunge
mutungi
mutunhu
mutunza
mutupa
mutupo
mututa
mutute
mututu
mutuvi
mutuwa
mutwaro
mutwe
mutwi
mutwira
mutyairi
mutyambizi
muuganda
muundo
muunga
muunganidzwa
muunited
muunzikwa
muupenyu
muura
muus
muuya
muuyi
muuyu
muuzhinji
muvakadzi
muvaki
muvakidzani
muvambi
muvana
muvanhu
muvara
muvarwa
muvengi
muverengi
muvezi
muvhenda
muvhiki
muvhimi
muvhu
muvhuro
muvingi
muviri
muvirimi
muvuki
muvumbi
muvusi
muvuso
muvutswana
muwake
muwale
muwamba
muwanano
muwandi
muwani
muwingi
muwings
muwuyu
muya
muyamba
muyambi
muyambo
muyedzo
muyera
muyerero
muyeruza
muyimbi
muyira
muyouth
muyuropu
muza
muzambia
muzamhindo
muzana
muzanagore
muzanarwo
muzanebanga
muzanenhamo
muzasi
muzaza
muzenda
muzendami
muzera
muzhinga
muzhingi
muzhizha
muzi
muzimbabwe
muzimbabwean
muzinda
muziso
muzita
muzivi
muziwumbe
muzodhiyaki
muzondo
muzongoza
muzorewa
muzukuru
muzungu
muzuva
muzvare
muzvidzidzo
muzviito
muzvikamu
muzvikoro
muzvina
muzvinabamba
muzvinabhizimisi
muzvinabhizinisi
muzvinapembe
muzvinhu
muzvinyorwa
muzvisikwa
mv
mvale
mveko
mvere
mvimba
mvuku
mvula
mvuma
mvumbi
mvumi
mvumo
mvunda
mvungu
mvura
mvurwi
mvuu
mw
mwa
mwaka
mwakutunga
mwala
mwale
mwali
mwaliko
mwambo
mwame
mwami
mwamuka
mwan
mwana
mwanakashi
mwanakomana
mwananyina
mwanasikana
mwanda
mwandani
mwandano
mwandiki
mwando
mwandu
mwango
mwansa
mwanya
mwanza
mwanze
mwari
mwasa
mwata
mwaula
mwayera
mwazha
mwe
mwedzi
mwela
mwema
mwena
mwenda
mwendi
mwendo
mwene
mwenemo
mwenemutapa
mwenezi
mwenga
mwenge
mweni
mwenje
mwenye
mwenyezi
mwenyi
mwenyu
mwenza
mwenzagetsi
mwenzi
mwera
mweri
mwero
mweru
mwete
mweya
mwezi
mwi
mwida
mwimbi
mwini
mwinya
mwiri
mwisi
mwiwa
mwoyo
my
myambo
mycobacterium
myself
mystery
myth
mythology
mzilikazi
mɔ
mə
mɛ
mɪ
mʊ
n
na
naamai
naani
naapi
naari
naartjie
nababa
nabo
nabts
nacho
nadine
nadzo
nafanan
nag
nahweva
nahwo
naija
naijeriya
nail
nairi
naiye
naizvozvo
najobu
naka
naked
nakedness
nako
naleyonto
nam
nama
namai
namambo
namaqua
namba
nambya
name
named
names
namibhiya
namibia
namrongazuva
namwanga
namwari
namwedzi
nana
nancy
naneputoni
nanga
nangazira
nanhasi
nanhingi
nani
naomi
naomie
napark
nape
napo
napose
nara
narm
naro
narrate
narrow
narwizi
nas
nasa
nasachigaro
nasal
nasara
nascar
nasekuru
nashe
natal
natalensis
natalie
natasha
natezvara
nathalie
nathan
nathomas
nation
national
nations
native
natsa
natural
naturally
nature
nausea
nauseate
nauseated
nauseating
navana
navel
naver
navo
nawdm
nawe
nawo
naye
nayo
nazareno
nazvo
nchi
ncov
nd
nda
ndaa
ndaba
ndabaningi
ndabuda
ndabvisa
ndaiti
ndakaona
ndakazvinyora
ndala
ndali
ndama
ndamo
ndandalika
ndandani
ndandarika
ndandi
ndanga
ndangana
ndangariro
ndani
ndanji
ndaona
ndapota
ndara
ndarama
ndaramo
ndarira
ndau
nde
ndeanoti
ndeaya
ndebele
ndebvu
ndeche
ndechekuti
ndechekutsvaga
ndechokuti
ndedzinoti
ndeekuti
ndefu
ndega
ndege
ndeimwe
ndeipi
ndeiyi
ndeke
ndemedzo
ndemeredzi
ndenge
ndengu
ndere
nderekuti
nderimwe
ndeverudzi
ndewe
ndewekuti
ndeye
ndeyekuti
ndezve
ndezvekuti
ndhawu
ndi
ndiani
ndichinyora
ndicho
ndidzo
ndihwo
ndiki
ndiko
ndima
ndimene
ndimi
ndimo
ndimu
ndimwari
ndimwedzi
ndine
ndini
ndinoda
ndinoti
ndinozokuita
ndipo
ndira
ndiri
ndiripo
ndiro
ndirwo
ndivo
ndiwe
ndiwo
ndiyani
ndiye
ndiyo
ndizvo
ndo
ndokubva
ndokutanga
ndokuti
ndokuva
ndombale
ndomene
ndonda
ndondo
ndonga
ndoro
ndosaka
ndoto
ndove
ndovi
ndowa
ndowera
ndu
ndudzi
ndugu
nduku
nduma
ndunda
ndundo
ndundu
ndunga
ndunge
ndungu
nduru
nduyo
ndwari
ndyangu
ndzhaka
ne
neacid
neafrica
neafurika
neaids
neakiso
nealgeria
neangola
near
nearby
nearly
neasia
neat
neaustralia
neavo
nebadza
nebaila
nebanga
nebasa
nebato
nebhahari
nebhakiteriya
nebhazi
nebig
neboka
nebotswana
nebrazil
nebritish
nebuchadnezzar
nebulawayo
neburkina
neburundi
necameroon
necentral
nechando
nechara
nechekuita
nechekumabvazuva
nechekumadokero
nechekumusoro
nechekunze
nechewa
nechibage
nechiedza
nechigero
nechiitiko
nechikafu
nechikamu
nechikonzero
nechikoro
nechikwata
nechimiro
nechimwe
nechina
nechinanga
nechinangwa
nechinhu
nechiratidzo
nechirevo
nechirungu
nechirwere
nechishona
nechisimba
nechiswahiri
nechivakamberi
nechivakashure
nechiyero
nechizulu
nechlorine
nechokwadi
neck
necklace
necongo
nedare
nedehwe
nedemocratic
nedenda
nedigo
nedivi
nedombo
nedonje
nedoro
nedrc
nedumbu
nedunhu
nedzimwe
nedzimwewo
nedzinde
nedzinza
need
needed
needle
needs
needy
neeswatini
neethiopia
neeurope
nefesh
nefodya
nefosi
nefrance
nefwe
neganda
negative
negejo
negermany
neghana
negiryama
neglect
neglected
negligent
negomo
negonde
negonya
negonyo
negonyonhatu
negore
negumi
negungwa
neguta
nehadzi
nehafu
nehama
nehanda
nehanzvadzi
neharare
nehasha
nehondo
nehor
nehugari
nehujoto
nehukama
nehukuru
nehumbowo
nehumhizha
nehungary
nehunhu
nehunhungo
nehunyanzvi
nehupenyu
nehupfumi
nehurefu
nehuremu
nehuroro
nehuroyi
nehurumende
nehuswa
nehutachiona
nehutachiwana
nehutongi
nehuwandu
nehwaro
nehydrogen
nei
neicho
neighbor
neighborhood
neighbour
neighbourhood
neighbours
neimwe
neina
neindia
neindonesia
neiri
neisrael
neitaly
neither
neiyo
nejekiseni
nejira
nekambani
nekati
nekenya
nekimanda
nekodzero
neku
nekubata
nekubatana
nekubatanidzwa
nekubudirira
nekuburitsa
nekuburitswa
nekuchamhembe
nekuchengetedza
nekuda
nekudaro
nekudoka
nekuduka
nekudya
nekudyidzana
nekudzidza
nekudzivirira
nekufa
nekufamba
nekufambiswa
nekugadzira
nekugara
nekugona
nekuita
nekukasira
nekukohwa
nekukura
nekukurumidza
nekumabvazuva
nekumadokero
nekumaodzanyemba
nekumwe
nekunaka
nekunaya
nekune
nekunyora
nekuongorora
nekupa
nekupisa
nekurara
nekurima
nekurova
nekusanganisa
nekushanda
nekushandisa
nekushanduka
nekushona
nekusiyana
nekutamba
nekutanga
nekutara
nekutaura
nekutenda
nekutengeserana
nekuti
nekutongwa
nekutora
nekutya
nekuva
nekuverenga
nekuwana
nekuwanda
nekuwedzera
nelenje
nelesotho
nelingala
nelly
nelson
nelugwere
nema
nemabasa
nemabuwa
nemadonhwe
nemadzimai
nemadzinza
nemadziro
nemafungiro
nemagariro
nemagetsi
nemagonyo
nemaitiro
nemajudha
nemakambani
nemakavi
nemakore
nemakumbo
nemakumi
nemakumimatatu
nemakurukota
nemalawi
nemambure
nemambwe
nemamiriro
nemamwe
nemamwewo
nemana
nemang
nemanomwe
nemaoko
nemaonero
nemapfumbamwe
nemapoka
nemapurazi
nemapurisa
nemari
nemarudzi
nemaruru
nemaruva
nemasangano
nemasere
nemashanu
nemashizha
nemashoko
nematambudziko
nematanhatu
nematatu
nemativi
nematombo
nematunhu
nemauto
nemavara
nemaviri
nemawoko
nemawuto
nemazana
nemaziso
nemazita
nemazulu
nemazuva
nemazvo
nemazwi
nembariro
nembiri
nembo
nembudzi
nembwa
nemhaka
nemhando
nemhepo
nemhino
nemhosva
nemhuka
nemhuno
nemhuri
nemichero
nemidzi
nemidziyo
nemikono
nemimwe
nemimwewo
neminzwa
nemipanda
nemishonga
nemitauro
nemitemo
nemiti
nemiviri
nemombe
nemoto
nemotsi
nemoyo
nemozambique
nemu
nemuchacha
nemudumbu
nemudzimai
nemuganhu
nemugwagwa
nemukadzi
nemukaka
nemukati
nemukoma
nemukono
nemukurumbira
nemumhepo
nemumwe
nemunhu
nemunhukadzi
nemunin
nemunyori
nemunyu
nemuridzi
nemuromo
nemurume
nemusana
nemusha
nemushonga
nemusi
nemusikana
nemusoro
nemutambariko
nemutauro
nemutemo
nemutengo
nemuti
nemutowo
nemutsipa
nemutumbi
nemutungamiri
nemutungamiriri
nemuviri
nemvura
nemwaka
nemwana
nemwanakomana
nemwanasikana
nemwedzi
nemweya
nena
nenamibia
nendege
nene
nenera
nenew
nenga
nengano
nengo
nenguke
nenguruve
nenguva
nenhamba
nenhambwe
nenhanhatu
nenharaunda
nenhatu
nenhau
nenhengo
nenhoo
nenhoroondo
nenhumbi
nenhumbu
nenhunzi
nenhururwa
neni
nenigeria
nenjodzi
nenna
neno
nenomwe
nenorth
nensenga
nenyama
nenyanga
nenyanza
nenyanzvi
nenyasaland
nenyati
nenyaudzosingwi
nenyaya
nenyika
nenyuchi
nenyundo
nenzara
nenzeve
nenzira
nenziyo
nenzizi
nenzou
nenzungu
nenzvimbo
neonatal
neoxygen
nepa
nepakati
nepamusoro
nepamuviri
nepane
nepasi
nepawa
nepfumbamwe
nepfumo
nepfungwa
nepo
nepuresha
neputoni
nerekuti
neria
nerimwe
nerinopasi
nerinoti
neriri
nerokuti
nerombo
neropa
neroyal
nerubatsiro
nerudo
nerudzi
nerudzivo
nerupande
nerupfunde
nerurimi
nerussia
nerutsigiro
neruvara
neruwoko
neruzha
neruzhinji
neruzivo
nerve
nerves
nervous
nerwanda
nerwizi
nesalt
nesamoa
nesangano
neseptember
nesere
neshamhu
neshamwari
neshangu
neshangwe
neshanu
neshinda
neshiri
neshoko
neshona
neshumba
neshungu
nesimba
nesimbi
nesouth
nespidhi
nest
nesu
nesudan
neswahili
net
netaita
netambo
netanhatu
netanzania
netariro
netatu
netherlands
netonga
nets
netsanga
netsaona
netsazaniso
netsika
netsoka
netsvimbo
netsvuku
nettle
netumbuka
network
netyava
neufambe
neuganda
neumbundu
neumwe
neunited
neusa
neuso
neutachiona
neutachiwana
neutron
nevabemba
nevabereki
nevachewa
nevadigo
nevadzidzi
nevadzidzisi
nevadzimu
nevaganda
nevagari
nevagiryama
nevagungu
nevagwere
nevaherero
nevaimbi
nevakadzi
nevakalanga
nevakawanda
nevakuru
nevalenje
nevalozi
nevamambwe
nevamwe
nevamwewo
nevana
nevanakomana
nevangala
nevanhu
nevanhukadzi
nevanhurume
nevanin
nevanyakyusa
nevanyori
nevanyoro
nevara
nevarume
nevarungu
nevarwi
nevashambala
nevashandi
nevashona
nevasikana
nevasipo
nevaswahili
nevataita
nevatema
nevatonga
nevaviri
nevayao
nevazhinji
nevazigula
nevazukuru
nevechidiki
never
nevhu
nevictoria
new
newaya
newe
neworld
news
newsday
newsen
newspaper
newton
next
neyao
neye
nezai
nezambia
nezera
nezimbabwe
neziso
nezita
nezuro
nezuva
nezvacho
nezvadzo
nezvake
nezvaro
nezvawo
nezvayo
nezvazvo
nezve
nezvidzidzo
nezviitiko
nezvikamu
nezvikepe
nezvikonzero
nezvikwata
nezvimwe
nezvimwewo
nezvinangwa
nezvinhu
nezviratidzo
nezviri
nezvirongwa
nezvirwere
nezvishoma
nezviviri
nezvombo
nezvose
nezwi
ng
nga
ngai
ngala
ngalika
ngambi
ngamo
ngandu
nganga
ngani
ngano
nganonyorwa
ngara
ngarara
ngarava
ngariiswe
ngarikuni
ngarluma
ngatiti
ngatitii
ngava
ngavi
ngbaka
nge
ngekuti
ngendaa
ngende
ngengo
ngezi
nghamera
nghamula
ngiemboon
ngirozi
ngo
ngoda
ngode
ngoi
ngokuda
ngokuti
ngoma
ngomani
ngombo
ngomwa
ngondoma
ngongolo
ngongoni
ngoni
ngonidzashe
ngoro
ngorongo
ngote
ngoto
ngozi
ngu
ngua
ngulu
ngundu
nguni
nguno
ngunu
nguo
ngupiro
ngura
nguri
nguru
nguruve
ngutu
nguva
nguvu
nguwani
nguwo
nguzu
ngwarati
ngwari
ngwe
ngwena
ngwere
ngwerewere
ngweti
ngwindi
nh
nha
nhabvu
nhachi
nhafu
nhai
nhaka
nhakaniso
nhakiwa
nhamba
nhambo
nhambwe
nhamo
nhanda
nhandara
nhandare
nhandi
nhando
nhanga
nhangande
nhango
nhanhatu
nhanho
nhano
nhapi
nhapwa
nhara
nharadada
nharangani
nharara
nharaunda
nharawanzi
nhare
nharembozha
nhari
nharira
nharire
nharo
nharu
nhasi
nhatu
nhau
nhaurirano
nhauro
nhaurwa
nhava
nhavani
nhekwe
nhema
nhemba
nhembe
nhemo
nhenda
nhende
nhenga
nhenge
nhengo
nhenha
nhepfenyuro
nherera
nhete
nhetembo
nhetemwa
nheyo
nhika
nhimbe
nhindi
nhiwa
nhiyo
nhoko
nhokwe
nhomba
nhondo
nhongo
nhongonya
nhongwa
nhoo
nhooina
nhoozhinji
nhopi
nhoro
nhoroondo
nhova
nhovo
nhu
nhubu
nhuka
nhukira
nhumba
nhumbi
nhumbu
nhume
nhunde
nhunduru
nhungo
nhungu
nhunguru
nhunzi
nhurikidzwa
nhururwa
nhuta
nhutirwa
ni
nice
nicely
niceness
nicholas
nick
nickel
nickname
nicole
nigel
niger
nigeria
night
nile
nilo
nine
ninga
nini
nitric
nitrogen
niyoni
nja
njala
njalo
njandaya
njani
njanja
njanji
nje
njee
njelele
njem
njenje
njera
njere
nji
njinga
njira
njiri
njiru
njiva
njodzi
njuzu
nkala
nkambakani
nkata
nkatazo
nkateko
nkava
nkembo
nketa
nkhonde
nkhunde
nkolwa
nkomo
nkondo
nkondwa
nkonya
nkore
nkua
nkula
nkulungwani
nl
nlolo
nlongi
nlungu
nna
nne
no
noa
noah
noble
nod
nodding
noise
noisily
noko
nokuda
nokudaro
nokudya
nokufamba
nokuita
nokukasira
nokukwira
nokumwe
nokunge
nokunyora
nokunze
nokuona
nokupa
nokushandisa
nokutama
nokutaura
nokutenda
nokutengesa
nokuti
noma
nomos
nomoyo
nomsa
nomugwagwa
nomukadzi
nomumwe
nomunhu
nomurume
nomwe
nomy
non
nonda
nondo
none
nonga
nonganonga
nongo
noni
nonsense
noon
nor
normal
norman
normani
north
northern
norton
noruweyi
norway
norwegian
nose
nostrils
not
notable
notch
notes
nothing
notice
noun
nov
novel
novelist
november
now
npr
nsansa
nsari
nseke
nsenga
nshe
nshi
nsi
nsima
nsitu
nso
nsomo
nsongi
nsongo
nsuku
nsumbi
nswangani
nta
ntala
ntambo
ntandala
ntanga
ntate
ntcham
nthengo
ntima
ntiyiso
ntlawa
ntokoto
ntondo
ntongo
ntsako
ntsengo
ntsindza
ntsongo
ntumbuluko
nu
nuclear
nucleus
nuer
nuisance
num
numba
number
numbers
nume
numeral
numeri
numerous
nundu
nungo
nungu
nurse
nursing
nurture
nut
nutrient
nutrition
nuts
nwa
nwadhi
nwali
nwiwa
ny
nya
nyaa
nyabando
nyabango
nyabeze
nyabinde
nyabira
nyabwata
nyachoto
nyadenga
nyadongo
nyadzi
nyagura
nyahuye
nyai
nyaira
nyaka
nyakabau
nyakanyanga
nyaku
nyakubereka
nyakujara
nyakurai
nyakutumbura
nyakyusa
nyama
nyamafingu
nyamande
nyamapanda
nyamara
nyamaruru
nyamatsatse
nyamauya
nyamavhuvhu
nyamba
nyambara
nyambare
nyambari
nyambayo
nyambe
nyambi
nyambirai
nyambiro
nyambo
nyambuya
nyameni
nyamhandu
nyampasa
nyamuda
nyamugama
nyamujara
nyamukapa
nyamukondiwa
nyamukuta
nyamundanda
nyamupachitu
nyamupingidza
nyamuragira
nyamuranga
nyamusi
nyamutata
nyamutora
nyamuzihwa
nyamweda
nyamwezi
nyan
nyana
nyanda
nyandoro
nyandowe
nyanduri
nyaneka
nyanga
nyangani
nyangate
nyangombe
nyangoni
nyangulu
nyangwe
nyanhete
nyanhongo
nyani
nyaningwe
nyanisa
nyanisi
nyanja
nyanya
nyanza
nyanzvi
nyapadi
nyapara
nyara
nyaradzo
nyarai
nyaruviro
nyaruwata
nyasha
nyashanu
nyasi
nyasulu
nyatando
nyathi
nyati
nyatsimba
nyatso
nyatwa
nyaudzosingwi
nyava
nyavada
nyawa
nyawo
nyaya
nyayo
nyazika
nye
nyemba
nyengo
nyenya
nyenyedzi
nyere
nyeredzi
nyerere
nyevhe
nyi
nyii
nyika
nyikadzimu
nyikahuru
nyikiwa
nyimo
nyin
nyina
nyinde
nyini
nyinii
nyira
nyo
nyok
nyoka
nyokora
nyon
nyong
nyonga
nyongola
nyongolo
nyonje
nyope
nyora
nyore
nyoro
nyorwa
nyota
nyowani
nyu
nyuchi
nyula
nyuma
nyumba
nyundo
nyundwa
nyungu
nyungwe
nz
nza
nzala
nzamba
nzanga
nzara
nzema
nzembe
nzenda
nzendo
nzenza
nzenze
nzeve
nzila
nzima
nzimbe
nzime
nzinga
nzira
nziyo
nzizi
nzo
nzombe
nzou
nzufu
nzungu
nzunza
nzuwa
nzvanyira
nzvari
nzvimbo
nzvovera
nzwara
nzwisa
nɔ
nɛ
nɪ
nʊ
o
oa
oath
obedient
obert
obey
object
objects
obligation
oblique
obscure
obscurity
observatory
observe
obstetrics
obstinacy
obstinate
obstruct
obstruction
obtain
obtusifolia
obukondo
obulom
obuyambi
obva
obvious
obweru
oc
occasion
occupation
occurrence
occurs
ocean
ocelsius
och
ochna
ociholo
ocikonge
ocitenga
ocivonde
oclc
oct
october
odd
odour
odza
odzi
oe
of
off
offence
offend
offensive
offer
offering
office
officer
official
offspring
often
oga
ogwati
oh
oil
ois
ok
oka
okhureka
okhusunda
okhuyerana
okra
oksijeni
oku
okukora
okupangura
okupedzisira
okusenga
okuti
okutunga
okuvare
okuzvarwa
ol
ola
old
older
olive
oliver
olivia
olu
olunyaneka
olympic
om
oma
omalulu
omaruru
omba
ombe
ombola
ome
omega
omen
omene
omeva
omothi
omu
omukondo
omukova
omukozi
omulenge
omuloli
omulongo
omundu
omunene
omutemi
omuti
omutumba
omutunge
omuyambi
omwami
omwana
omwenyo
omwiiyambi
on
ona
once
onchocerciasis
ondunda
one
onene
oneness
onepage
ones
oneself
onga
ongara
ongo
ongororo
onion
online
only
ono
onto
onya
onyama
onye
onyenzi
onzi
ooze
op
opala
oparesheni
open
opened
opening
openly
opera
operate
operating
operation
operations
operative
opinion
opponent
opportunity
oppose
opposed
opposing
opposite
oppress
oppression
or
ora
oral
orange
orbit
order
orderly
orders
ordinary
ore
orenji
org
organ
organic
organisation
organise
organism
organization
organize
oriental
origin
original
originate
orion
ornament
ornamental
ornaments
oro
oromo
orphan
orthography
oru
orupanda
orutenga
os
oscar
ose
oshindonga
osi
oslo
ostireriya
ostrich
ota
other
others
otherwise
ots
ottawa
otter
ottoman
otyi
otyirongo
ou
oukoto
our
ours
out
outbreak
outcome
outdoors
outer
output
outro
outside
outstanding
outward
over
overcast
overcome
overflow
overflowing
overs
overseas
overstep
overview
ovi
ovina
owaza
owen
owl
own
owned
owner
owners
ox
oxen
oxford
oxidation
oxide
oxides
oxygen
ozone
ozoroa
p
pa
paakanga
paakiso
paala
paanenge
paari
pababa
pabaiwa
pabanze
pabarika
pabasa
pabendekete
pabepa
paboka
pabonde
pabva
pace
pachadzo
pachake
pacharo
pachavo
pachawo
pachayo
pachekwa
pachena
pachibuda
pachigaro
pachihofisi
pachiitiko
pachikamu
pachikero
pachikoro
pachikuva
pachimiro
pachimiso
pachindau
pachinge
pachingezi
pachinhambwe
pachinhu
pachinyorwa
pachinzvimbo
pachiri
pachiro
pachirongwa
pachirungu
pachishandiswa
pachishona
pachishongrish
pachiso
pachisuvi
pachiumbwa
pachivakwa
pachivanhu
pachivanze
pachiyero
pachizinga
pacho
pachokwadi
pachoto
pacific
pack
packed
pad
padanho
padare
paddle
padenga
padera
padhuze
padivi
padombo
padunhu
padyo
padzinde
padzinenge
padzitsi
paganda
page
pages
pagoko
pagomo
pagonyo
pagore
paguyo
paheroes
pahondo
pahujoto
pahukwidza
pahuma
pahumwe
pahuro
pahuwandu
pahuzhinji
pahwaro
paid
paidamoyo
pail
pain
paine
painenge
painge
paint
painting
pair
pairi
paishisi
paiswa
paita
paitika
paive
paizwi
paka
pakaderera
pakadzika
pakaita
pakaitika
pakaitwa
pakakwirira
pakamanika
pakambani
pakaminama
pakanga
pakare
pakarenda
pakarepo
pakata
pakatanga
pakati
pakauya
pakava
pakazhinji
pakazosvika
pake
pakereke
pakistan
pakistani
pako
pakubata
pakubika
pakudarika
pakudoka
pakududza
pakudya
pakudzivirira
pakufa
pakufamba
pakufema
pakuguma
pakuita
pakukura
pakukuya
pakunatswa
pakunyora
pakuona
pakupa
pakupedzisira
pakupera
pakurarama
pakureba
pakurima
pakurwa
pakushanda
pakusimba
pakusimudza
pakutanga
pakutaura
pakutaurwa
pakuti
pakutonga
pakuturikira
pakuva
pakuvaka
pakuve
pakuverenga
pakuverengwa
pakuvira
pakuwanda
pakuyedza
pakuzvara
pakuzvarwa
pala
palace
palama
palatitude
palaver
pale
palestine
palgrave
palm
pama
pamabasa
pamabiko
pamadirano
pamadziro
pamaitiro
pamakore
pamambo
pamamwe
pamapendekete
pamaruva
pamashoko
pamativi
pamavambo
pamawere
pamazita
pamazuva
pamazwi
pamba
pambana
pambariro
pambatya
pamberi
pambo
pambuka
pambura
pamburuka
pamela
pamhando
pamhene
pamhepo
pamhidzai
pamhuka
pamhuno
pamichero
pamigwagwa
pamineti
pamitambo
pamitauro
pamitemo
pamombe
pamoto
pamoyo
pamuchero
pamue
pamuenzanisi
pamuenzaniso
pamufananidzo
pamuganhu
pamugodhi
pamugwagwa
pamukana
pamukwava
pamunhu
pamupanda
pamupata
pamuravanegumi
pamuravanembiri
pamureza
pamuromo
pamurume
pamurwi
pamusana
pamusangano
pamusha
pamushonga
pamusi
pamusoro
pamutambo
pamutariro
pamutemo
pamuti
pamutsazanisi
pamutsendo
pamutsetse
pamutsipa
pamutumbi
pamuviri
pamvura
pamwaka
pamwari
pamwe
pamwechete
pamwedzi
pamwepo
pamwero
pan
pana
panama
panashe
panational
panda
pande
pandemic
pandemics
pandima
pane
panel
panenge
panga
panganai
pangava
pange
pangolin
pangozi
pangu
pangura
panguva
panhamba
panhambo
panhambwe
panhandare
panharaunda
panhau
panhengo
panhimbe
panhu
pani
panjodzi
pano
panobuda
panoburikira
panobva
panoda
panodiwa
panofanirwa
panogadzirwa
panogona
panogumira
panoiswa
panoita
panoitika
panoitwa
panokwira
panonzi
panoonekwa
panoperera
panopimwa
panopinda
panosangana
panoshandiswa
panotanga
panotangira
panotaurwa
panoti
panoungana
panova
panowanikwa
panther
pants
panyama
panyaya
panyika
panyorwa
panze
panzi
panzira
panzvimbo
pap
papa
papaya
papeji
paper
paperiodic
papers
papi
papoyindi
paprime
papurazi
para
parable
parabuthus
paradise
paragwai
parallel
paralysed
paralyzed
parameter
paranga
paranormal
parcel
parch
pardon
pare
parent
parents
parera
pari
parinari
parinenge
parinopasi
parirenyatwa
paris
parish
parizvino
park
parliament
paro
parrot
part
participate
particle
particles
particular
particularly
parties
parting
partition
partly
partner
partners
partnership
partridge
parts
party
parufu
parukova
parumbariro
parutivi
paruvara
paruware
paruzhinji
parwendo
parwizi
pas
pasa
pasara
pascal
pasekondi
pasherufu
pashi
pashoko
pashoma
pashure
pasi
pasichigare
pasifiki
pasika
pasina
pasinde
pasinei
pasirese
pasirose
pass
passage
passed
passes
passing
passion
passive
past
pasta
paste
pastor
pasture
pasvondo
pata
patafura
patambo
patch
paternal
path
pathogen
pathogens
pathology
pathophysiology
paths
patience
patient
patients
patinoisa
patinoti
pato
patriarch
patrice
patricia
patrick
patsika
patson
patsva
pattern
paudha
paul
pauline
paulo
paumwe
pauniversity
pauri
pauso
pauzuru
pava
pavana
pavanenge
pavanhu
pave
pavhu
pavo
paw
pawa
pawebonary
pawo
pay
paya
paye
paying
payment
payo
pays
payunivhesiti
pazana
pazasi
pazera
pazita
pazuva
pazviito
pazvinhu
pazvinyorwa
pazviri
pazvirwere
pazvo
pazwi
pcr
pdf
pe
pea
peace
peacecorps
peaceful
peacefully
peafurika
peak
peanut
peanuts
pearl
peas
pebble
pechinhu
pechiumbwa
pedare
pedenderedzwa
pedo
pedombo
pedro
pedu
pedyo
peel
peeled
peep
peg
peganda
pegomo
pegungwa
peguta
peharare
pehondo
pehutongi
peimwe
peji
pekugara
pekutanga
pele
pemabwe
pemakore
pemakumbo
pemamwe
pemapoka
pemarudzi
pemba
pembe
pemhuri
pemitauro
pemitemo
pemugodhi
pemunhu
pemutemo
pemutsazanisi
pemutumbi
pemvura
pemwedzi
pen
pencil
penda
pendere
pendhi
pendi
penetrate
penga
penguva
penhamba
penhambwe
penhau
penhengo
peni
peninzura
penis
penyika
penyu
penzira
penzura
penzvimbo
people
peoples
pepanhau
pepo
pepper
pepu
per
perceive
perception
perch
pereka
perfect
perfection
perform
performance
performed
performing
perhaps
perimeter
period
periodic
perish
permanent
permanently
permission
perplex
perplexed
perplexity
persecute
persecution
perseverance
persian
persist
persistence
persistent
persistently
person
persona
personal
personality
persons
perspective
perspectives
perspiration
perspire
persuade
pertussis
peru
perwizi
pese
pester
pestle
pesvedzero
pet
peta
peter
petersiana
petro
petrol
petsoka
petsongoro
peturu
pevabereki
pevamwe
pevanhu
pevashona
pevhu
peya
pezana
pezimbabwe
peziso
pezita
pezuva
pezvimwe
pezvinhu
pezvo
pf
pfambi
pfari
pfini
pfuka
pfuko
pfuma
pfumbamwe
pfumbi
pfumbu
pfumo
pfunda
pfundo
pfungo
pfungwa
pfungwe
pfupa
pfupi
pfura
pfuti
pg
phantom
phase
phases
phende
philadelphia
philip
philippines
phillip
philosophy
phinda
phiri
phone
phonology
photo
photosynthesis
phoula
php
phuien
phylum
physical
physically
physician
physics
physiology
physique
pi
pick
picture
pictures
piece
pieces
pierce
pierre
pig
pigeon
pigment
pile
pillage
pillar
pillow
pilosa
pima
pimamuganhu
pimanyika
pimba
pin
pincers
pinch
pinda
pindula
pineapple
pinga
pingula
pink
pioneer
pip
pipe
piri
piriviri
piruka
pisces
pit
pita
pitch
pith
pitisa
pito
pity
pizza
pk
pl
place
placed
placenta
places
plague
plain
plainly
plait
plaited
plan
plane
planet
planets
plank
planned
planning
plans
plant
plantain
plantation
planted
planter
planting
plants
plasma
plaster
plastic
plate
plateau
platform
platinum
play
played
player
players
playing
playwright
plead
pleasant
please
pleased
pleasing
pleasure
pledge
plentiful
plenty
plot
plough
ploughed
ploughing
pluck
plum
plumtree
plunder
plunge
plural
plurality
plus
pluto
plutocracy
plutonium
pmc
pmid
pneumonia
po
pocket
pod
poda
podoko
pods
poem
poet
point
pointed
points
poison
poka
poke
pokunge
pokutanga
pokuti
poland
polandi
pole
poles
police
policy
polis
polish
polite
political
politician
politics
polity
pollen
pollution
polygamy
polygon
polyhedron
polytechnic
pombi
pona
pond
ponde
ponder
pondola
pondozi
pongo
pono
pool
pools
poor
pop
pope
popo
popular
population
porcupine
pore
porridge
port
portal
portia
portion
portugal
portuguese
posa
pose
poshi
posi
position
positive
positively
possess
possessed
possession
possessions
possessor
possible
post
posts
posture
pot
pota
potassium
potato
potatoes
pote
potential
potera
poto
pots
pottery
poultry
pound
pounding
pour
poured
pouring
poverty
powder
powdery
power
powerful
poyindi
poza
pp
pr
practical
practice
practices
praise
praises
pray
prayer
prayzah
pre
preach
precede
precious
precipice
predatory
prefer
prefix
pregnancy
pregnant
prejudiced
premier
prep
preparation
prepare
prepared
presence
present
presented
presenter
preserve
president
press
pressing
pressure
pretend
pretoria
pretty
prevail
prevalence
prevent
preventing
prevention
previous
previously
prey
price
prick
pride
priest
primary
prime
primrose
prince
princess
principal
principle
print
printing
printsec
prior
prisca
priscilla
prison
prisoner
private
privately
privilege
prize
pro
problem
problems
procedure
procedures
proceed
process
proclaim
prod
produce
produced
produces
producing
product
production
productive
products
profession
professional
professor
profile
profit
progeny
program
progress
prohibit
project
projecting
prolific
prominence
prominent
promise
promote
pronoun
pronounce
proof
prop
propagate
proper
properly
properties
property
prophet
proportion
proprietor
propriety
prosper
prostitute
prostitution
prostrate
protea
protect
protected
protection
protective
proto
protract
protruding
proud
proudly
prove
proverb
proverbs
provide
provided
provides
province
provincial
provisions
provoke
prudence
prune
psalm
pseudolachnostylis
psychiatrist
psychology
pt
pu
pub
puberty
pubescens
pubic
public
publication
publications
publicly
publique
publish
publisher
publishers
publishing
pubmed
puddle
puff
puira
pula
pular
pull
pulled
pulling
pulp
pulpy
pump
pumpkin
pumpkins
punda
pundutso
punga
pungens
pungu
pungwe
punish
punishment
punting
pupa
pupil
puppy
puranga
purazi
purchase
pure
puresha
purify
purity
purofesa
purogiramu
purple
purpose
purposes
purse
pursue
pursuit
pus
push
put
puts
putting
putukezi
puzzle
puzzled
puzzlement
puzzling
pwere
pwuto
pya
pyam
pyramid
python
pɛ
pʊ
q
qatar
qual
qualifiers
qualities
quality
quan
quantity
quanzensis
quarrel
quarrels
quarrelsome
quarrelsomeness
quarry
quarter
quarterfinals
quarters
que
queen
quench
question
questions
queue
quick
quickly
quickness
quiet
quietly
quill
quite
quiver
r
ra
raamai
rababa
rabata
rabbit
rabelani
rabies
rabuda
rabva
race
rachel
rachisimira
racho
radiation
radio
radioactive
radius
radoka
raffia
rage
raid
railway
rain
rainbow
rainfall
raining
rains
rainy
rainzi
raise
raised
raishandiswa
raisin
raising
raiswa
raiva
raive
raka
rakabatana
rakabuda
rakabudiswa
rakaburitswa
rakabva
rakadai
rakadzika
rakaenzana
rakafanana
rakafanira
rakagadzirwa
rakaita
rakakomberedza
rakakomberedzwa
rakakora
rakakosha
rakakura
rakakwirira
rakamera
rakamira
rakanaka
rakanangana
rakanga
rakanyanya
rakanyorwa
rakanzi
rakaoma
rakapera
rakapesana
rakapihwa
rakapinza
rakapiwa
rakaramba
rakararama
rakareba
rakarehwa
rakarukwa
rakarurama
rakasarudzwa
rakashama
rakashandiswa
rakasiyana
rakatanga
rakatarwa
rakatevera
rakati
rakatorwa
rakatumidzwa
rakaumba
rakaumbwa
rakauya
rakava
rakavakwa
rakavambwa
rakawanda
rakawanikwa
rake
rako
rakunzi
rakura
ram
ramakore
ramakumimairi
ramambo
ramangwana
ramba
ramsay
ramwari
ran
randa
ranga
ranganai
rangarirai
range
rangi
rangu
rangwanda
ranjisi
rank
ranks
ransom
ranyamatsatse
ranzi
raonekwa
rap
rapera
rapfuura
raphael
rapid
rapidly
rapids
rapiwa
rapper
rapythagoras
rara
rare
raro
rasakara
rashandiswa
rashe
rashly
rasvika
rat
rata
rate
rather
rati
ratidzo
ratimba
ratio
ration
ratiri
ratisai
rativhiya
rattle
rattling
rava
rave
ravine
ravira
raviro
ravo
raw
rawanikwa
rawo
ray
raya
raymond
rayo
rays
raza
razor
rberg
rca
rd
re
rea
reach
reached
reaching
reaction
reactions
read
reading
ready
reafrica
reafurika
reakiso
reakoose
real
reality
really
reap
reapdata
rear
reason
reasons
rebecca
rebellion
rebhaibheri
rebindura
reboka
rebuke
rebulawayo
rec
recall
receive
recent
recently
receptacle
rechakunga
rechamhembe
rechewa
rechi
rechiarabhu
rechibage
rechiedza
rechigiriki
rechigumi
rechiikuhane
rechikadzi
rechikoro
rechimanyika
rechina
rechindau
rechindeya
rechingezi
rechinhoyi
rechinomwe
rechipiri
rechiratini
rechirungu
rechirwere
rechisere
rechishanu
rechishona
rechiswahiri
rechitanhatu
rechitatu
rechivanhu
reckon
reckoning
recline
recluse
recompense
reconcile
record
records
recount
recover
recovering
recovid
recreational
rectify
rectitude
red
redcliff
reddish
redeem
redeemer
redemption
redirect
redirects
redu
reduce
reduced
reduction
redunhu
redzinza
reed
reeds
reel
reenglish
ref
refer
reference
references
refers
reflect
reflection
refodya
refs
refu
refuge
refusal
refuse
refused
refuses
refusing
rega
regai
regard
regarded
regardless
reggae
regiment
regina
region
regional
regomo
regonyonhatu
regore
regret
regular
regularly
regulation
regumi
regungwa
reguta
regweru
reharare
rehondo
rehuku
rehuni
rehupenyu
rehurumende
rehushangazhi
rehutano
rehwayi
reign
reindian
reject
rejoice
rejoicing
reka
rekadoma
rekai
rekare
rekariba
rekiromita
rekodhi
reku
rekuchamhembe
rekudzimurira
rekudzivirira
rekugumisira
rekuhora
rekumadokero
rekumaodzanyemba
rekunyora
rekunze
rekupedzisira
rekupihwa
rekupiwa
rekurapa
rekurima
rekutanga
rekuti
rekuvhima
rekuvhota
rekuzvara
rekuzvarwa
rekuzvidzivirira
rekwekwe
rel
relate
related
relatin
relation
relations
relationship
relative
relatives
relax
relaxed
release
released
releasing
reliable
relief
relieve
religion
religious
relish
reluctance
reluctant
reluctantly
rely
rema
remabhi
remabhii
remadondazuva
remadunhurirwa
remadziya
remagetsi
remagineti
remain
remainder
remaining
remains
remakomo
remakore
remanicaland
remaodzanyemba
remari
remark
remashonaland
remasvingo
rematabeleland
remativi
rematunhu
remawuto
remazana
remazowe
remba
remberi
remdc
remedy
remember
remembrance
remhando
remhepo
remhosva
remhuka
remhuri
remichero
remiddle
remidlands
remitauro
remiti
remix
remnants
remombe
remote
remoto
remove
removed
removing
remubatanidzwa
remucharikwa
remuchero
remuneration
remunhu
remunhukadzi
remuny
remupunga
remurume
remusango
remusere
remusha
remutare
remutauro
remutemo
remuti
remuviri
remuzimbabwe
remvura
remwedzi
renaissance
renazi
rendebele
render
renew
renhamba
renhekairo
reniki
renorth
renown
renowned
renyanga
renyangani
renyanza
renyaya
renyeredzi
renyika
renyuchi
renzou
renzvimbo
repair
repakati
repakutanga
repamusoro
reparamende
repasi
repeat
repeated
repeatedly
repent
repentance
repiri
replacement
reply
report
reports
represent
representative
reproduce
reproduction
reproductive
reprove
reptile
repu
republic
republika
repugnance
reputation
request
require
required
requires
rera
reranjisi
reretso
rerinopasi
reruvara
reruzivo
rerwizi
resabata
resahara
rescue
rese
research
resemblance
resemble
reserve
reserved
reshanduro
reshiri
reshona
reshumba
residence
resident
residue
resimbi
resistance
resistant
reskweya
resolution
resolve
resolving
resource
resources
resouth
respect
respected
respiratory
response
responsibility
responsible
rest
restaurant
resting
restless
restlessness
restrain
result
resulting
retafura
retarded
reticulata
retrace
retribution
retrieved
retropics
retsanga
retshivenda
retso
return
returned
returning
returns
reunion
reusa
reuters
rev
revakokeri
revakomana
revanhu
revashona
reveal
revealed
revealing
revelation
revenge
reverence
reverse
revhiki
review
reviews
revile
revise
revised
revisionnotes
revival
revive
revolt
revolution
revolutionary
revolve
revolves
reward
reworld
rezanu
rezimbabwe
reziso
rezita
rezvedzidzo
rezvematongerwo
rezvinhu
rezviuru
rezvivezwa
rh
rha
rhashiya
rhekeni
rhengi
rheshiyo
rheti
rheza
rhian
rhijoni
rhingi
rhinoceros
rhodes
rhodesia
rhodesian
rhodhezhiya
rhori
rhumu
rhus
ri
ria
rib
ribheriya
ribhiya
ribhura
rica
rice
rich
richaiswa
richange
richard
riches
richi
richibva
richienda
richifamba
richiita
richinge
richinzi
richipera
richipimwa
richireva
richiri
richirova
richishandiswa
richiteverwa
richiti
richitodza
richitodzana
richizivikwa
richness
riddle
ride
ridge
ridges
ridhi
ridicule
rifa
rifle
right
righteous
righteousness
rights
rigid
riine
rikagova
rikurukuru
rim
rima
rimbewu
rimbi
rimet
rimire
rimwe
rimwechete
rimwechetero
rimwero
rina
rinda
rine
rinenge
ring
ringa
ringagona
ringanzi
ringashanda
ringatodzana
ringaturikira
ringava
ringazuva
ringi
ringira
rinhi
riniko
rino
rinobata
rinobatanidza
rinobaya
rinobereka
rinobikwa
rinobuda
rinobva
rinobvira
rinobvunza
rinocherwa
rinoda
rinodanwa
rinodaro
rinodiwa
rinodudza
rinodudzira
rinodudzirwa
rinodudzwa
rinodyiwa
rinoenderana
rinofamba
rinofanana
rinofanirwa
rinogadzirwa
rinogara
rinogona
rinoita
rinoitika
rinoitwa
rinokonzera
rinokosha
rinokura
rinokurudzira
rinokwana
rinokwanisa
rinomera
rinomirira
rinonamira
rinonyanya
rinonyanyo
rinonyorwa
rinonzi
rinoona
rinoonekwa
rinopa
rinopasi
rinopfekwa
rinopikisa
rinopimwa
rinopinda
rinopisa
rinopiwa
rinoratidza
rinorehwa
rinorema
rinoreva
rinorevawo
rinorevei
rinori
rinorigadadza
rinorimwa
rinorukwa
rinosanganisa
rinosanganisira
rinosara
rinoshanda
rinoshandisa
rinoshandisirwa
rinoshandiswa
rinoshandiswawo
rinoshandiswazve
rinoshanduka
rinotakura
rinotambanuka
rinotanga
rinotaridza
rinotarisa
rinotarwa
rinotaura
rinotaurawo
rinotaurwa
rinotauwa
rinotevera
rinoti
rinotodza
rinotodzana
rinotora
rinotorwa
rinotsanangudza
rinotsanangura
rinoturikira
rinoturikirwa
rinova
rinoverengwa
rinovhara
rinowana
rinowanikwa
rinowanzo
rinoyambutsa
rinoyerera
rinozivikanwa
rio
rioga
riozim
rip
riparia
ripe
ripen
ripening
ripi
ripples
riri
ririkubva
ririkushandiswa
riripo
risati
rise
risen
rises
risina
rising
risiri
risk
rita
ritande
rites
riva
rival
rivalry
rivata
rive
river
riverbank
rivers
riverside
riya
rm
ro
road
roads
roam
roar
roast
roasted
robbins
robe
robert
roberto
robin
robo
robson
rock
rocks
rocky
rod
rodent
rodin
rodrick
roga
roger
rogerblench
rogers
rokugona
rokunge
rokunze
rokutanga
rokuti
rokuzvarwa
rokwe
roland
role
roll
rolled
rolling
roman
romania
rombe
rombedza
rombo
rome
ronald
ronda
rondedzero
rondero
rondo
ronga
rongo
ronzi
roo
roof
room
roora
rooranai
rooster
root
roots
ropa
ropafadzo
rope
rosa
rose
rosemary
rosette
rot
rotate
rotation
rotten
rotundifolia
roturikirwa
rough
roughly
round
rounds
routledge
rova
rovambira
row
rows
roy
royal
royalty
rozi
rozvi
ru
rua
ruamba
ruambainzwi
ruambamhenyu
ruambamuta
ruambandanga
ruambangano
ruambanyeredzi
ruambanzanga
ruambu
ruandhle
rub
rubaka
rubanda
rubatsiro
rubaya
rubbed
rubber
rubbing
rubbish
rubella
ruboshwe
rubudiro
ruchava
ruchena
ruchinga
rudarikira
rudaviro
rudder
rude
rudhende
rudido
rudo
rudyi
rudzani
rudzi
rudzindi
rudzivo
rudziyakamwe
rueri
rufangu
rufaro
rufu
rugare
rugube
rugumba
rugunda
rugundiya
rugwaro
ruhana
ruin
ruins
rujeko
rukaka
rukanda
rukande
rukanerujeko
rukanga
rukangarahwe
rukato
rukau
rukawo
rukete
rukodzi
rukondo
rukonge
rukongo
rukono
rukorodzi
rukoto
rukova
rukudzo
rukukwe
rukunda
rukungu
rukuni
rukuru
rukuta
rukuvhute
rukwakwa
rukwangwali
rukwe
rukweguro
rukweza
rul
rule
ruled
ruler
rules
ruling
rumanda
rumano
rumbariro
rumbidzai
rumbidzayi
rumbidzo
rumbika
rumbling
rume
rumour
rumours
rumwe
run
runako
runda
rundaza
runde
rune
runenge
runga
rungano
rungu
rungwanani
runhanhira
runhare
running
runoita
runoitika
runonzi
runoonekwa
runotaurwa
runoti
runotora
runowanikwa
runoyerera
runyararo
runyengedzo
runyerekupe
runyoro
runyorwa
runzere
ruoko
ruomba
rupambano
rupambuko
rupandano
rupandavaro
rupande
rupare
rupasa
rupawo
rupfumbu
rupi
rupinguro
rupiri
rupiya
rupiza
rupo
ruponeso
rupoterera
rura
rural
ruramai
ruremekedzo
rurengo
ruri
rurimi
rurindi
ruru
rusakafanira
rusambo
rusape
rusarura
rusaruraganda
rusere
rusero
rush
rushambwa
rushesha
rushigido
rushinga
rusike
rusina
rusinga
rusitu
russell
russia
russian
rust
rustic
rusununguko
rusvingo
rutakaza
rutambo
rute
rutema
rutendo
rutenga
ruth
rutherford
rutivi
rutondapakati
rutsambo
rutsigiro
rutsinho
rutsito
rutsva
rutsvuku
rutungo
rututsiro
ruund
ruva
ruvanze
ruvara
ruvarashe
ruvari
ruvengo
ruvheneko
ruvimbo
ruwa
ruware
ruwarikano
ruwoko
ruzha
ruzhinji
ruzivo
rwa
rwacho
rwainzi
rwakadondeka
rwakafanira
rwakaita
rwakakondeka
rwakakosha
rwakanyanya
rwakareba
rwakarurama
rwakasiyana
rwakati
rwakavhengana
rwakawanda
rwake
rwako
rwanda
rwangu
rwanza
rwavhi
rwavo
rwayo
rwe
rwebhinzi
rwechewa
rwechiedza
rwechijudah
rwechindau
rwechishona
rwedenga
rwedu
rwegamba
rweganda
rwegiryama
rwegwenzi
rweherero
rwehuroro
rwekikongo
rwekinyarwanda
rwekirundu
rwekutanga
rwekuti
rwelenje
rwelugungu
rwelugwere
rweluwanga
rwemakonde
rwemishonga
rwemuti
rwendo
rwenyika
rwenyoka
rwenyu
rwenyungwe
rweranjisi
rwere
rweruboshwe
rwerudyi
rweshiri
rweswahili
rwetumbuka
rweumbundu
rwevanhu
rweyao
rwezerere
rwezhombe
rwezimbabwe
rwiyo
rwizi
rwodzi
rwose
rwune
rwunonzi
rwunotaurwa
rwunoti
rwuri
ryan
rɔ
rɛ
rɨ
s
sa
saani
saare
saba
sabata
sabhuku
sable
sachigaro
sachikonye
sack
sacred
sacrifice
sad
sadc
sadness
sadunhu
sadza
safari
safe
safety
safiri
saga
sagara
sage
sagging
saghala
sahara
saharan
saheru
sahwira
said
saini
saint
sainzi
saizi
saizvozvi
saizvozvo
saka
sakuronza
sakuwana
sala
salagushle
salala
salary
sale
sales
salisbury
saliva
salt
salted
salty
salute
salvador
salvation
sam
samaita
samambo
samanyanga
samanyika
samare
samatanga
samba
sambamba
sambaza
sambiri
sambo
samburu
same
samo
samoa
sample
samson
samuel
samukuru
samupindi
samusha
samwana
san
sana
sand
sandals
sandarara
sandawe
sando
sandra
sandy
sanga
sangala
sanganisa
sanganiswa
sangano
sangarwe
sange
sangho
sango
sani
sanyati
sanyika
sanza
sao
saokoye
sap
sapphire
sapuwa
sara
sarah
sarcasm
sare
sars
sarudzai
sarudzo
sasa
sasaradzi
sat
satellite
satisfactory
satisfied
satisfy
saturday
saturn
sau
sauce
saudi
sauka
saunders
saunditiraki
savage
savannah
save
saved
savhana
saving
saviour
saw
sawa
sawanda
sawu
say
sayari
sayi
saying
says
sazita
sb
scabbard
scaffold
scale
scales
scandal
scar
scarce
scarcity
scare
scarf
scarlet
scatter
scattered
scattering
scene
scent
scheme
schemes
scholars
school
schools
schwarze
science
sciences
scientific
scientist
scientists
scissors
sclerocarya
scold
scolded
scoop
scope
score
scored
scorer
scoring
scorn
scorpio
scorpion
scotland
scott
scrape
scratch
scream
screen
screw
scribe
script
scrub
sculpture
scum
se
sea
seal
seam
search
searching
season
seasonal
seasons
seat
seated
sebastian
sebhe
seboka
sechibage
sechikafu
sechikamu
sechinhu
sechiratidzo
sechiri
seclusion
second
secondary
secrecy
secret
secretary
secretly
secrets
section
secure
securidaca
security
sediment
sedombo
seduce
see
seed
seedling
seedlings
seeds
seeing
seek
seeking
seem
seen
seera
sees
sefa
sefodya
segurukota
sehacha
sehwaro
sei
seimwe
seisheri
seize
seizvi
seka
sekai
seke
sekele
sekeramai
seketela
sekondi
sekudya
sekunge
sekureva
sekuru
sekutaura
sekuti
sekwa
sekwe
sela
sele
select
selection
self
selfish
sell
seller
selling
semari
semba
sembo
sembuva
semen
semi
semifinal
semifinals
semombe
semudzidzi
semudzidzisi
semuenzaniso
semuimbi
semukadzi
semukuru
semumiriri
semumwe
semunhu
semunyori
semushonga
semutambi
semutauro
semutevedzeri
semutungamiri
semuyenzaniso
semvura
semwana
semwedzi
semweya
sena
send
senda
sendekera
senegal
senegalensis
senegaru
senga
senge
sengende
sengera
sengwe
senhamba
senhengo
senior
seniority
senni
sense
senses
sensitive
sent
sentence
senula
senyika
senzira
senzvimbo
seok
seoul
sep
separate
separated
separately
separates
separating
separation
sepedi
sephora
september
sequence
sera
serbia
sere
seremani
seremoni
sergio
seri
sericea
series
serious
seriously
serudzai
serurimi
seruvara
servant
servants
serve
served
service
services
serving
sesa
sese
sesepu
sesere
sesotho
set
sets
setswana
setting
settle
settled
settlement
sevanhu
seven
sever
several
severe
severity
sevhisi
sew
sewing
sewn
sex
sexual
sexually
seye
sezita
sezvakaita
sezvakanyorwa
sezvazviri
sezvinoita
sezvinoitwa
sezvinotevera
sezviri
sezviya
sezvizvi
sezvo
sezvoitwa
sg
sh
sha
shaba
shabani
shade
shades
shadow
shadreck
shaft
shah
shaka
shake
shaking
shall
shallow
shamba
shambala
shambare
shambo
shame
shamhu
shamiso
shamwari
shana
shanda
shandisa
shandiswa
shanduko
shanduro
shanga
shangani
shangazi
shango
shangu
shanje
shano
shanu
shape
shaped
sharara
share
shared
shares
sharing
sharon
sharp
sharpen
sharuko
shasha
shato
shava
shave
shaved
shaveshave
shavi
shawa
shawl
shaya
she
sheaf
shear
sheath
shed
sheep
sheer
sheet
sheets
shelf
shell
shells
shelter
shelton
shem
shepherd
shepi
shi
shield
shift
shilenge
shilluk
shilongo
shimwali
shin
shinda
shine
shines
shingai
shingazidja
shingirai
shining
shiny
shinzwani
ship
shiri
shirikadzi
shirt
shishi
shizha
sho
shoe
shoes
shoko
shoma
shomane
shomwe
shona
shondo
shonga
shongedza
shongwe
shonhayi
shonhiwa
shoni
shoot
shooting
shoots
shop
shopo
shora
shore
shoroma
short
shortage
shortcut
shorten
shortness
shot
should
shoulder
shoulders
shout
show
shower
showing
shown
shows
shrewd
shrink
shrivel
shrub
shtml
shuga
shuma
shumba
shumirai
shungu
shure
shurugwi
shurushuru
shut
shutu
shy
shyly
shyness
si
sia
sibanda
sibling
siblings
sibve
sick
sickle
sickly
sickness
sidamo
side
sides
sideways
siera
sierra
sieve
sift
sifting
sig
sigh
sight
siginecha
siginicha
sign
signal
signs
sika
sikana
sikarudzi
siketi
sikhala
siki
siku
sikwa
sil
silence
silent
silently
silika
silly
silva
silveira
silver
sima
simango
simba
simbabure
simbarashe
simbi
simbiti
simbo
similar
similarity
simon
simple
simudzo
simultaneously
sin
sina
since
sincere
sinda
sindire
sine
sinensis
sinew
sing
singapore
singer
singing
single
singles
sings
singueana
singular
sink
sinner
sino
sinoo
sinowo
sinu
sinyoro
sip
sipo
sir
siri
sirika
sirivha
siriya
sirizi
sisaala
sisal
sisi
sister
sisters
sistimu
sit
sitandadhi
site
sites
sithole
sitondo
sitting
situation
siwela
six
siya
siyana
size
sized
sk
ska
skeleton
skilful
skill
skilled
skillful
skillfull
skim
skin
skinned
skins
skip
skirt
skit
skool
skopiyo
skull
skweya
sky
slack
slacken
slackness
slag
slander
slang
slap
slaughter
slave
slavery
slaves
sledge
sleep
sleeping
slender
slept
slice
slide
slight
slightly
slim
slime
sling
slip
slippery
slope
sloping
slovenly
slow
slowly
slowness
small
smaller
smallness
smallpox
smart
smartness
smash
smear
smell
smelt
smelting
smilax
smile
smith
smithy
smoke
smoked
smooth
sn
sna
snail
snake
snap
snare
snatch
snow
snuff
snuffbox
so
soak
soaked
soaking
social
society
sociology
socket
sodium
soft
soften
softly
softness
software
soil
soils
soka
soko
sokunge
sokuti
sola
solanum
solar
soldier
soldiers
sole
solemn
solid
solitary
solo
sololoka
solomon
solstice
solution
solve
som
soma
somalia
somaliland
somanje
somariya
some
somebody
somehow
someone
somersault
something
sometimes
somewhere
somuenzaniso
son
song
songa
songela
songesa
songo
songora
songs
soni
soninke
sons
sonyeondan
soo
soon
soop
soot
soothsayer
sora
sore
sorghum
soro
soromoni
sorongo
sorrow
sorry
sort
sorting
soso
sotho
sou
sought
soul
sound
sounding
sounds
soundtrack
soup
sour
source
sourness
south
southeast
southern
sovereign
soviet
sow
sower
sowing
sown
soya
soyuz
sp
space
spacecraft
spacex
spain
spanish
spark
sparks
speak
speaker
speaking
speaks
spear
spears
special
specialist
specially
species
speciesdata
specific
specified
spectator
spectrum
speech
speed
speini
spell
spend
spent
sperm
sphere
spherical
spicata
spice
spider
spidhi
spike
spill
spin
spinach
spine
spinning
spiral
spirit
spirits
spiritual
spirituality
spit
spite
spittle
spiwe
splash
splinter
split
spoil
spoiling
spoils
spoken
spoon
spoor
sport
sports
spot
spotted
spray
spread
spreading
spring
springer
springstone
sprinkle
sprout
spur
spy
sq
sqrt
squabble
squad
square
squat
squatting
squeeze
squeezing
squint
squirrel
squirt
sri
st
sta
stab
stabbing
stability
stable
stack
stadium
staff
stage
stagger
stagnant
stain
stained
stair
stake
stakes
stale
stalk
stalks
stamp
stamped
stamping
stand
standadhi
standard
standing
stands
stanley
star
staring
stars
start
started
starting
startled
starts
stat
state
stated
statement
states
static
station
statistics
stature
status
stay
stays
steady
steak
steal
stealing
stealthily
steam
steel
steep
stella
stem
step
stephanie
stephen
stepped
stepping
steps
sterile
steve
steward
stewart
sth
stick
sticking
sticks
sticky
stiff
stiffen
still
sting
stinger
stingy
stir
stock
stockade
stockholm
stoke
stomach
stone
stones
stony
stool
stoop
stop
stopped
stopper
stopping
storage
store
stored
storey
stories
storing
stork
storm
story
stout
straight
straighten
strain
strained
strainer
straining
stramonium
strands
strange
stranger
strangers
strangle
strap
strategy
stratum
straw
stream
streams
street
strength
stress
stretch
stretched
stretches
stretching
strict
strides
strife
strike
striking
string
strip
stripe
striped
stripes
stripped
strips
strive
stroke
strong
strongly
structural
structure
structures
struggle
strut
strychnos
stuart
stubborn
stuck
student
studies
studio
studios
study
stuff
stump
stupid
stupidity
style
styles
su
sua
sub
subdivision
subdue
subject
subjection
submerge
submission
submit
suborder
subside
subsidy
substance
succeed
success
successful
succession
successor
succour
such
suck
sucked
suckle
sudan
sudden
suddenly
sudhani
suffer
suffering
sufficient
suffix
suga
sugar
suicide
suit
suitable
sukwa
sulky
sulphur
sulphuric
sultan
sultry
sum
sumba
sumbu
summary
summer
summit
summon
sun
sunda
sunday
sundire
sundown
sunflower
sung
sunga
sungula
sungura
sunguti
sunlight
sunrise
sunset
sunshine
super
superficial
superior
superiority
supernatural
supper
supplement
supply
support
supporter
supporting
suppress
supreme
supyire
sure
surface
surfaces
surging
surname
surpass
surprise
surrendered
surround
surrounded
surrounding
surroundings
suruka
survey
survive
survivor
susan
suspended
sustainable
sustenance
suu
suwa
suwo
sverigetopplistan
svetuka
svika
svikiro
svinga
svinu
svitsi
svondo
svosve
svova
svovi
svutugadzike
sw
swa
swagger
swahili
swallow
swallowed
swallowing
swamp
swarm
sway
swaying
swear
sweat
sweden
swedish
sweep
sweet
sweeten
sweetheart
sweetness
swell
swelling
swept
sweta
sweto
swim
swing
swinging
swirl
swiss
switch
switzerland
swo
swollen
sword
sydney
syllable
sylvester
sylvie
symbol
symmetry
sympathy
symptoms
syn
syndrome
syntax
syria
system
systematic
systems
syzygium
sɛ
sɪ
t
ta
taa
taabwa
taata
table
tablet
taboo
taboos
taderera
tadiwa
tadiwanashe
tafadzwa
tafara
tafura
tag
taga
tagdal
tail
tailed
tailor
taita
tajikistan
taka
takanangana
takanisa
takaona
takatarirwa
takatarisa
takatarisana
takawira
take
taken
takes
taking
takudzwa
takunda
takura
takwane
tal
tala
talali
tale
talent
tali
talika
talk
talkative
talker
talking
tall
tallness
talo
tam
tama
tamanda
tamar
tamba
tambalala
tambo
tame
tampulma
tan
tana
tanaka
tanatswa
tanda
tande
tandula
tandzi
tanga
tanganda
tanganyika
tange
tangent
tangle
tangwena
tanhatu
tanhira
tanya
tanyaradzwa
tanzania
taona
tap
tapa
tapiwa
tapiwanashe
tara
tarachisi
taramunyongo
taranyika
target
targeted
tari
tariro
tarisa
tarisai
tarisiro
tarry
tasa
tashinga
task
taste
tasteless
tasting
tasty
tasvika
tata
tate
tateguru
tatekulu
tatenda
tati
tattoo
tatu
tau
taura
taurai
taurus
taurwa
tava
tave
tavonga
tawa
tawanda
tawny
tax
taxonomy
taya
tayc
tayera
taylor
tb
te
tea
teach
teacher
teachers
teaching
teachings
team
tear
tears
tease
teasing
technical
technology
teeth
tegu
tek
teka
teke
tekere
tekinoroji
tel
teleka
telekenesis
telescope
television
tell
teller
telling
tells
tem
tema
tematema
temba
tembani
tembiricha
tembo
temne
temper
temperate
temperature
tempered
template
temple
temples
temporary
tempt
temptation
temwa
ten
tena
tenacity
tend
tenda
tendai
tendayi
tende
tendency
tender
tendon
tendu
tenga
tengende
tens
tense
tent
tenzi
tera
tere
tereka
terence
terevhizheni
teritori
term
terminalia
terminology
termite
termites
terms
terrence
territory
teso
test
testamende
testament
tested
testicle
testify
testimony
testing
testosterone
tete
tetembwa
tetradenia
tevera
tewa
tewama
tewe
texas
text
teza
tezvara
tfrac
th
thailand
than
thandiwe
thank
thanks
thantala
that
thatch
thatched
thaw
the
theatre
theft
their
thelma
them
theme
themselves
then
thena
theo
theology
theoocracy
theory
thepatriot
therapy
there
therefore
thermonuclear
these
thespinoff
theta
they
thi
thick
thicket
thickly
thickness
thief
thierry
thieves
thigh
thin
thing
things
think
thinking
thinness
third
thirst
thirsty
this
thiyeta
thomas
thompson
thorn
thorns
thorny
thoroughly
those
though
thought
thoughts
thousand
thousands
thread
threaten
threatening
three
thresh
threshed
threshing
threshold
throat
throb
throbbing
throne
through
throughout
throw
throwing
thrown
thrust
thulani
thumb
thunder
thus
thuto
ti
tibheti
tichaona
tichati
tichidzivirira
tichienda
tichifananidza
tichiita
tichirerutsa
tichishandisa
tichitarisa
tichitaura
tichitevedza
tichiti
tichitodza
tidy
tie
tied
tiefo
tiger
tight
tightly
tii
tiine
tija
tika
tikar
tikati
tikita
tikwanise
till
tilt
tilted
timba
timbana
timber
time
times
timothy
tin
tina
tinashe
tine
tinei
tinenge
tineyi
tingataura
tingati
tingaturikira
tinker
tinoda
tinofanira
tinogona
tinokwanisa
tinoona
tinotanga
tinotenda
tinoti
tinoziva
tinto
tiny
tionesane
tip
tire
tired
tiredly
tiredness
tiri
tiriki
tisina
titaure
titi
title
titled
tiyi
tizive
tizora
tjikalanga
tkay
to
toa
tobacco
tobago
tocky
today
toddalia
toe
toes
toga
together
togo
toil
toita
toka
token
tokwe
tola
told
tolo
tom
toma
tomas
tomato
tomatoes
tomb
tomba
tombo
tome
tommo
tommy
tomondo
tomorrow
tomuka
tona
tonda
tondani
tonde
tonderai
tondori
tone
tonga
tongai
tongama
tongogara
tongona
tongs
tongue
toni
tonight
tonne
tony
too
took
tool
tools
tooth
top
topic
topics
topography
tops
tora
torch
torment
torn
toro
torrent
tortilis
tortoise
torture
tose
toss
tota
total
totally
totama
totem
toti
touch
touching
tough
tour
tovera
towa
toward
towards
tower
town
township
toŋ
tr
trace
track
tract
tracy
trade
trader
trading
tradition
traditional
traffic
trail
train
trained
training
traits
tramp
trample
trampled
tranquility
trans
transfer
transform
transformer
transistor
transition
translate
translated
translation
transmission
transmit
transparency
transparent
transplant
transport
trap
traps
travail
travel
traveller
travelling
tray
tread
treat
treatise
treatment
tree
treeless
trees
trek
tremble
trembling
trend
trends
trevor
trial
triangle
triangular
tribal
tribe
tribes
tribulation
tributary
trick
trickle
tricks
trickster
trigger
trim
trioxide
trip
trojan
troop
tropic
tropical
tropics
trouble
troubles
troublesome
trousers
true
truly
trump
trumpet
trunk
trust
trusted
trustworthy
truth
try
trymore
ts
tsa
tsaka
tsakani
tsala
tsalwa
tsamba
tsambamba
tsambe
tsambo
tsanangudzo
tsananguro
tsanga
tsano
tsaona
tsapata
tsapfu
tsara
tsaru
tsarukano
tsatsa
tsatsadzi
tsatsi
tsauranisa
tsaza
tsazamakonyo
tsazamativi
tsazaniso
tsazano
tse
tsenza
tsenzi
tsepe
tsetse
tsha
tshaka
tshama
tshanda
tshembo
tshiluba
tshivenda
tshona
tsi
tsika
tsikidzi
tsimba
tsime
tsinda
tsinde
tsindi
tsine
tsinga
tsinhano
tsiru
tsitsi
tsiye
tso
tsodzo
tsoka
tsoko
tsonga
tsongo
tsongoro
tsono
tsorayi
tsoro
tsotsi
tsu
tsuku
tsumba
tsumbo
tsumbu
tsumo
tsunda
tsunga
tsuro
tsuvadi
tsv
tsva
tsvakurudzo
tsvangirai
tsvanzva
tsvene
tsvigiri
tsvikiti
tsvimbo
tsvimborume
tsvina
tsvuku
tswanda
tswere
tu
tua
tubdhaawi
tube
tuber
tuberculosis
tubers
tuck
tudaga
tudiki
tuft
tug
tuka
tuki
tukiso
tuku
tukuta
tula
tuli
tum
tuma
tumapundu
tumba
tumbana
tumbo
tumbu
tumbuka
tumbura
tumbure
tumor
tuna
tunda
tune
tunen
tunga
tungamirai
tungua
tungulu
tunisia
tunya
tupa
tupaki
tupembenene
tupi
tupuka
turban
turi
turkey
turkish
turn
turned
turning
turns
turtle
turuki
turungu
turuzi
tusk
tutu
tuvari
tuwa
tuwuli
tv
twana
twasa
twasu
twemvura
twenty
twi
twice
twigs
twin
twins
twist
twisted
twitter
twiza
two
txt
ty
tyava
tylosema
type
types
typically
tɔ
tɛ
tɩ
tɪ
tʊ
u
ua
uana
uapaca
ubala
ubale
ubare
ubipingulo
ubuntu
ubuzima
ubwami
ucansi
uchenjeri
uchi
uchibva
uchida
uchidzandanga
uchienda
uchiisa
uchiita
uchinge
uchipinda
uchiri
uchishanda
uchishandisa
uchisiya
uchiti
uchivanhu
udder
udi
udorongodzwa
udzira
ufambe
ufumu
ugali
uganda
uggla
ugly
ugondamano
uhoro
uhu
uhwami
uhwu
uine
uite
ujeri
uk
uka
ukama
ukiwa
uko
ukota
ukraine
ukristu
uku
ukudla
ukuhlola
ukukhokha
ukuphinda
ukuru
ukuta
ukuwo
ukwanise
ukwenza
ula
ulanga
ulaya
ulili
ulo
ulongo
ult
ultimas
uma
umambo
umatsi
umba
umbilical
umblical
umbobo
umbowo
umbundu
umduvo
umgidi
umhutu
umi
umkhonzo
umnako
umo
umorali
umsebenzi
umtapi
umtapo
umtshonkwe
umu
umuntu
umuti
umwe
umwelu
umwene
un
una
unable
unake
unammanya
uncertain
uncle
uncoil
uncongenial
unconsciousness
unconventional
uncover
uncovered
uncultivated
und
unda
unde
undenge
under
underfoot
underground
undergrowth
underhand
underneath
understand
understandable
understanding
undertake
undertaking
undo
undone
undress
undu
une
unearth
unenaruvambo
unenge
uneven
unexpectedly
unfasten
unfold
unfortunate
ung
unga
ungaita
ungamhanzi
ungapiwa
ungaruvara
ungava
ungo
ungu
unguja
ungura
unhongi
unhu
uni
unicef
uniform
uninhabited
union
unique
unison
unit
unite
united
units
unity
universal
universe
university
unkasi
unknown
unload
unlock
unmarried
uno
unobata
unobatanidza
unobereka
unobuda
unobva
unocheka
unoda
unodanwa
unodya
unodyiwa
unodzivirira
unoenda
unogara
unogona
unogonawo
unoita
unoitika
unoitwa
unokura
unokurumuka
unokwanisa
unomuchena
unonaya
unonyanya
unonyanyokosha
unonyorwa
unonzi
unoona
unooneka
unoonekwa
unopangidza
unopfuura
unopisa
unopiwa
unoramba
unorapa
unoreba
unorema
unorimwa
unoshanda
unoshandisa
unoshandiswa
unoshanduka
unosvika
unotakura
unotanga
unotapwa
unotaura
unotaurwa
unoteera
unotevedza
unoti
unotinhira
unotora
unova
unovava
unowanikwa
unowanzo
unozivikanwa
unpleasant
unravel
unripe
unruly
unsheath
unsociable
untie
untied
until
untrustworthy
unusual
unwelcome
unwind
unwrap
unyanzvi
unye
unzwe
uol
uone
up
upanga
upangamutowo
upaza
update
updated
upenyu
upfumbu
upfumi
upi
upingululo
upinguzi
uploads
upon
upper
upright
uprightness
uproot
upset
upside
upstream
upwards
ura
uranium
uranus
urawu
urban
urefu
urere
urge
urgent
uri
urimbo
urinate
urine
uripo
uriri
url
urombo
urongwa
uronyo
uropi
uruguay
urungano
ururimi
ururu
urwu
us
usa
usabe
usachiva
usanamata
usapombe
usati
usauraya
usavi
usd
use
used
useful
useless
uses
useza
ushe
ushoma
usiku
usina
using
usiri
uso
usomo
usual
usually
usumba
uswa
ut
uta
utachiona
utachiwana
utali
utande
utandu
utano
utare
ute
utemabanze
utemi
utensil
utensils
uterus
utete
utility
uto
utongi
utshwala
utsi
utter
utterance
utterly
utu
utumbu
utungu
uturu
uvaranomwe
uvi
uwandu
uwo
uwu
uya
uyai
uye
uyewo
uyezve
uyisalama
uyo
uyu
uzere
uzhinji
uzima
uzumba
uzuru
v
va
vaambele
vaarabhu
vababa
vabambara
vabantu
vabarawani
vabatwa
vabemba
vabena
vabereki
vabukusu
vabva
vabwisi
vaccination
vaccine
vaccines
vacheche
vachellia
vachena
vachewa
vachibva
vachida
vachienda
vachigara
vachiita
vachikunda
vachinamata
vachinge
vachinzi
vachiona
vachionekana
vachipa
vachipinda
vachireva
vachiri
vachirwisa
vachishandisa
vachitamba
vachitaura
vachitevedza
vachiti
vachitora
vachitsvaga
vachiuya
vachiziva
vacho
vacuum
vadakama
vadi
vadigo
vadiki
vadoko
vadoma
vaduku
vadye
vadyi
vadzidzi
vadzidzisi
vadzimai
vadzimu
vadzo
vadzokere
vaembu
vaenda
vaende
vaeni
vaenzi
vaera
vafa
vafamba
vafipa
vafudzi
vafundisi
vafwe
vagabond
vaganda
vagara
vagari
vagbeya
vagere
vagikuyu
vagina
vagiryama
vagobvunza
vagogo
vagotonga
vagulu
vaguma
vagungu
vagunu
vagwere
vaha
vahaya
vahehe
vahera
vaherero
vahlengwe
vahosi
vahungwe
vaibva
vaida
vaidana
vaifamba
vaigara
vaigona
vaikizu
vaikoma
vaikwanisa
vaimbi
vain
vaine
vainge
vainuiti
vainzi
vaiona
vaishandisa
vaita
vaite
vaitenda
vaiti
vaitora
vaiva
vaive
vaizivikanwa
vajudha
vakabata
vakabatana
vakabatwa
vakaberekwa
vakaburitsa
vakabva
vakabwa
vakadomwa
vakadzi
vakadzidza
vakaenda
vakafa
vakafamba
vakafunga
vakagadzira
vakagara
vakagulu
vakaimba
vakaita
vakakosha
vakakunda
vakakurumbira
vakalanga
vakamira
vakamirira
vakanaka
vakanga
vakange
vakanyanya
vakanyora
vakaona
vakaonde
vakapa
vakaparadzana
vakapedza
vakapfeka
vakapihwa
vakapinda
vakaramba
vakaranga
vakarasikirwa
vakare
vakaremara
vakaronga
vakaroora
vakaroorana
vakaroorwa
vakarova
vakarurama
vakasangana
vakasara
vakasarudza
vakasarudzwa
vakashanda
vakashandura
vakashaya
vakasika
vakasiya
vakasiyana
vakasvika
vakatama
vakatamira
vakatanga
vakati
vakatonga
vakatora
vakatumidza
vakatungamira
vakaumba
vakaurayiwa
vakauya
vakava
vakavaka
vakavamba
vakave
vakawana
vakawanda
vakazivisa
vakazvara
vakazvarwa
vakazvimiririra
vake
vakikongo
vakikuyu
vakinande
vako
vakoma
vakomana
vakomo
vakongo
vakorekore
vakoti
vakristu
vakuhane
vakunda
vakundi
vakura
vakuru
vakurungai
vakwanise
vakwegura
vakwere
valela
valence
valency
valenje
valentine
valerie
valiant
valingala
valley
valomwe
valour
valozi
valuba
valubwisi
valuchazi
value
values
valuganda
valugungu
valuguru
valugwere
valuhya
valunda
valungu
valuvale
vamaconde
vamakhuwa
vamakonde
vamakua
vamambwe
vamanda
vamanyika
vambe
vambire
vambo
vambugwe
vamiriri
vamoore
vamugabe
vamusa
vamutota
vamwali
vamwani
vamwari
vamwe
vamwechete
vamwela
vamwewo
van
vana
vanakomana
vanambya
vanande
vanasikana
vandau
vandeb
vandebele
vandoola
vane
vanenge
vanessa
vanga
vangada
vangala
vangangosvika
vangani
vangati
vangava
vange
vangezi
vangona
vangu
vangueria
vanguni
vangwo
vanhasi
vanhu
vanhukadzi
vanhurume
vanish
vanity
vano
vanobata
vanobatwa
vanobuda
vanobva
vanobvunza
vanochengeta
vanoda
vanodana
vanodanwa
vanodarika
vanodya
vanoedza
vanoenda
vanofa
vanofamba
vanofanira
vanofanirwa
vanofarira
vanofungidzirwa
vanogara
vanogona
vanogovana
vanoisa
vanoita
vanokoshesa
vanokura
vanokurudzira
vanokwana
vanokwanisa
vanokwanisawo
vanomuti
vanomwe
vanonamata
vanongoti
vanonyanya
vanonyora
vanonzi
vanonzwa
vanoona
vanoonekwa
vanoongorora
vanopa
vanopedza
vanopfeka
vanopfuura
vanopinda
vanopiwa
vanoramba
vanoreva
vanoridza
vanosangana
vanosanganisa
vanosanganisira
vanoshambira
vanoshanda
vanoshandisa
vanosvika
vanotanga
vanotaura
vanotenda
vanotenderwa
vanotengesa
vanotevedza
vanotevera
vanoti
vanotonga
vanotora
vanouya
vanova
vanovaka
vanowana
vanowanikwa
vanowanza
vanowanzo
vanowanzosiya
vanoyera
vanoziva
vanozivikanwa
vanozviti
vansenga
vantu
vanyai
vanyakyusa
vanyarundi
vanyarwanda
vanyole
vanyori
vanyoro
vanyungwe
vanzadi
vaona
vapara
vaparidzi
vapedza
vapenyu
vapichi
vapinde
vapiwe
vapokomo
vapour
var
vara
varaidzo
varama
varamba
varanda
vare
varemba
vareta
vari
variable
varidha
varidzi
variety
varimi
various
varipo
varo
varobert
varoma
varonga
varongo
varozvi
varume
varundi
varungu
varwanda
varwe
varwere
varwi
vasangana
vasangho
vasango
vasanyika
vasara
vasati
vasena
vasenga
vasenzi
vasezi
vashambala
vashandi
vashandisi
vashanu
vasharukwa
vashava
vashavi
vashoma
vashona
vasikana
vasina
vasiri
vasoga
vasotho
vassal
vassalage
vast
vasukuma
vasungwa
vasvika
vaswahili
vaswahiri
vaswati
vataabwa
vataita
vatakwane
vatambi
vatanga
vatange
vatanhatu
vatano
vataraunda
vatatu
vatauri
vatavara
vateereri
vatege
vateke
vatema
vatendi
vatengi
vatete
vateveri
vati
vatiriki
vatonga
vatongi
vatore
vatori
vatorwa
vatsigiri
vatsonga
vatsva
vatsvene
vatumbuka
vatungamiri
vaturuki
vatyairi
vaumbundu
vauya
vava
vavakidzani
vavariro
vave
vavenda
vavengi
vavezi
vavhenda
vavhimi
vaviri
vavo
vawaalii
vawabo
vawanda
vawane
vawanga
vaxhosa
vaya
vayao
vaye
vayo
vazaramo
vazezuru
vazhinji
vazigula
vazive
vazukuru
vazulu
vazungu
vbtr
ve
veafrica
veafurika
vechewa
vechidiki
vechikoro
vechimanyika
vechindau
vechinguni
vechiroma
vechishona
vechitema
vechivanhu
vector
ved
vedu
vedzinza
veer
vega
vegetable
vegetables
vegetation
veherero
vehicle
vehondo
vehutano
vei
vein
veisizulu
vekare
vekikongo
vekinyarwanda
vekizigua
veko
veku
vekuafurika
vekuchamhembe
vekunze
vekutanga
vekuzimbabwe
vela
veld
velingala
velocity
veluganda
velunyoro
vemabhizinisi
vemamwe
vemarudzi
vematongo
vemba
vemhuri
vemo
vemuafrica
vemukadzi
vemunhu
vemusikana
vemuzimbabwe
vemwenga
venda
vende
vene
venhau
venhoroondo
venom
ventureco
venus
venyika
venzvimbo
veoshindonga
vepasi
vera
verb
verbal
verde
verdict
vernacular
vernonia
veronica
verse
version
vertical
verudzi
veruzhinji
very
vese
vesena
veshe
vessel
vessels
veswahili
veumbundu
vevanhu
vex
veyao
vezanu
vezimbabwe
vezulu
vhairasi
vhego
vhemba
vhenda
vheneka
vheneke
vhenekeratsvimborume
vhengere
vherite
vhesi
vhezheni
vhidhiyo
vhiki
vhinga
vhiore
vhiri
vhu
vhudzi
vhwa
vi
via
vibes
vice
vicinity
victims
victor
victoria
victory
video
vienna
vietnam
view
vigor
vigorous
vigorously
vilify
village
villages
vimbai
vincent
vindicate
vine
vint
violence
violent
violently
violet
viral
virgin
virginia
virginity
virgo
virosa
virtue
virus
viruses
visawu
viscosa
visible
vision
visit
visiting
visitor
visitors
visual
vital
vitality
vitex
vivian
vlamertinge
vlei
vn
vo
vobva
vocabulary
voga
voice
voices
voita
vokugermany
vol
volcano
voltage
volume
voluntary
volunteer
vomit
vomiting
vonga
vongai
vose
voti
vow
voyage
vp
vs
vt
vtr
vu
vuarabhu
vuganda
vugiriki
vukaranga
vukongo
vukutu
vulture
vuma
vumba
vunga
vungila
vungo
vungu
vurundi
vuta
vutomi
vutshamo
vutswana
vuxaka
w
wa
waalii
waama
waamai
waani
wababa
wabo
wachikumi
wachikunguru
wachivabvu
wacho
wadhi
wadi
wadya
wadzanai
wadzo
wafa
wage
wages
wagon
wagumiguru
wagunyana
waibva
waidi
wail
wailing
waini
wainzi
waist
waiswa
wait
waiting
waiva
waive
waiya
wakabata
wakabva
wakadai
wakaderera
wakafanana
wakagadzirwa
wakagara
wakaipa
wakaisa
wakaiswa
wakaita
wakaitwa
wakakora
wakakosha
wakakura
wakamira
wakanaka
wakananga
wakanda
wakanga
wakanyanya
wakanyorwa
wakaoma
wakapararira
wakararira
wakare
wakareba
wakarongeka
wakarurama
wakashata
wakasiyana
wakatakura
wakatanga
wakatarisa
wakatemwa
wakati
wakatwasuka
wakauya
wakavharwa
wakawanda
wakazara
wakazorora
wake
wako
wakubvumbi
wakukadzi
wakurume
wale
wali
walk
walked
walker
walking
walks
wall
walls
walter
wamai
wamambo
wamba
wambudzi
wamwari
wana
wanano
wanda
wandei
wander
wanderer
wandering
wandira
wang
wanga
wangu
wani
wanikwa
waning
want
wanted
wanting
wantru
wants
wanyamavhuvhu
wanyanzvi
wanzo
wapareto
wapera
war
wara
ward
warehwa
wari
warlike
warm
warmth
warn
warned
waro
warren
warrior
warthog
was
wash
washe
washed
washing
washington
waste
wasteful
wasvika
wata
watch
watches
watchman
watemi
watemwa
water
waterfall
watermelon
watery
wati
watinofema
watts
waunoda
wausina
wava
wave
waves
wavo
wawakaroora
wawo
wax
way
waya
wayback
wayini
waymond
wayne
wayo
ways
wazvita
we
wea
weafrica
weafrika
weak
weaken
weakly
weakness
wealth
wealthy
weapon
weapons
wear
weariness
wearing
wears
weary
weather
weave
weaving
web
webadza
webantu
webanze
webasa
webato
webazi
webhu
webhusaiti
weboka
webonary
website
webster
webtoon
webtoons
wechamhembe
wechando
wechi
wechibage
wechibantu
wechibereko
wechidiki
wechigumi
wechiguminembiri
wechiguminenna
wechihofisi
wechikadzi
wechikoro
wechikumi
wechimanje
wechimazanamairi
wechimazanamairinemakumimairi
wechina
wechinhu
wechinomwe
wechipfumbamwe
wechipiri
wechirume
wechirungu
wechisere
wechishanu
wechishona
wechisi
wechitanhatu
wechitatu
wechitema
wechitendero
wechiumbwa
wechivanhu
wechizana
wechizananegumi
wechizananemakumimairi
wechizananemakumimanomwe
wechizananemakumimapfumbamwe
wechizananemakumimasere
wechizananemakumimatanhatu
wechizimbabwe
wedding
wedenderedzwa
wedge
wednesday
wedu
wedunhu
wedza
wedzinoyamwisa
wedzinza
weed
weeding
weeds
week
weekly
weela
weep
weevil
wefodya
wega
wegombwe
wegonyoina
wegore
wegudo
wegumi
weharare
wehondo
wehuchi
wehuremu
wehurumende
wehwayi
weigh
weight
weighty
weisrael
wekambani
wekare
wekereke
weku
wekuamerika
wekuchamhembe
wekudzivirira
wekuita
wekunaijeriya
wekunaya
wekunze
wekupedzisira
wekupisa
wekusouth
wekutanga
wekutaura
wekuti
wekuzimbabwe
wekuzvarwa
welfare
well
wellington
wema
wemabhuku
wemagetsi
wemakumimairi
wemakumimanomwe
wemakumimapfumbamwe
wemakumimasere
wemakumimatanhatu
wemakumimatatu
wemambwe
wemandebele
wemari
wemarudzi
wemasero
wemashonaland
wematongero
wematsutso
wemawuto
wemazanamairi
wemazanamairinemakumimairi
wemazuva
wemba
wembeva
wembudzi
wemdc
wemhanzi
wemhomhosi
wemhosva
wemhuka
wemhuri
wemitambo
wemitauro
wemombe
wemoto
wemubisho
wemuchero
wemukadzi
wemukotsvanidzwa
wemumwe
wemunda
wemunhondo
wemunhu
wemurambatsvina
wemurume
wemusango
wemusasa
wemuseve
wemusha
wemushana
wemusiyasitu
wemutambo
wemuti
wemutungamiri
wemutuvi
wemuviri
wemuzimbabwe
wemvura
wemwana
wemwedzi
wemweya
wena
wenational
wenganonyorwa
wenguva
wenhabvu
wenhaka
wenhau
wenhomba
wenhoroondo
wenhumbi
wenobel
went
wenyama
wenyaya
wenyika
wenyu
wenyuchi
wenziyo
wenzvimbo
wepakati
wepamusoro
wepamutemo
wepano
weparamende
wepasi
wepasirose
wepiri
wepo
wer
were
werudhende
werudzi
weruzhinji
werwizi
wesadza
wesangano
wese
weshiri
weshona
wesimbi
west
western
wesvondo
wet
weta
wetaranyika
wetha
wethe
weti
wetsika
weumambo
wevabinyi
wevaimbi
wevakadzi
wevana
wevanhu
wevashona
wevatambi
wevatungamiri
weza
wezanu
wezbc
wezhizha
wezimbabwe
wezita
wezuva
wezvematongerwo
wezvemuduso
wezvinhu
wezvirimwa
what
whatever
wheat
wheel
when
where
whether
which
while
whip
whirl
whirlpool
whirls
whirlwind
whisper
whistle
white
whiten
whiteness
whitewash
who
whole
whom
whooping
whose
why
wi
wicked
wickedness
wide
widely
widen
widow
widower
width
wife
wiki
wikipedia
wikipidhiya
wila
wilbert
wild
wildebeest
wilderness
wildly
wilfred
will
willard
william
williams
wilson
win
wind
winding
window
windows
wine
wing
winged
wings
winner
winnow
winnowing
winter
wipe
wire
wisdom
wise
wish
witch
witchcraft
with
withdraw
wither
within
without
witness
wits
wiya
wizard
wkly
wo
woaka
wobble
woga
wokupedzisira
wokurunga
wokutanga
wokuti
wolof
woman
womb
womba
women
womumwe
won
wonder
wonders
wongororo
wood
wooded
wooden
wool
word
wordpress
words
work
worked
worker
workers
working
workman
works
workshop
world
worldwide
worm
worms
worn
woro
worry
worse
worship
worth
worthless
wose
wota
would
wound
woven
wp
wr
wrap
wrathful
wrestling
wright
wring
wrist
write
writer
writing
writings
written
wrong
wu
wuhan
wuta
www
x
xaka
xhosa
xi
xiang
xii
xikombiso
xilenge
ximenia
xir
xironga
xitsonga
xylophone
y
ya
yaamai
yaari
yababa
yabva
yacho
yacoriolis
yadzo
yafamba
yafambwa
yagalvani
yagara
yah
yaian
yaimbonzi
yaimbova
yainge
yainzi
yaisanganisa
yaishandiswa
yaita
yaitonga
yaitongwa
yaiva
yaive
yaiya
yaka
yakabatana
yakabatanidzwa
yakabuda
yakabudiswa
yakaburitswa
yakabva
yakabviswa
yakachena
yakachengetwa
yakada
yakadai
yakadara
yakadaro
yakaderera
yakadhairekitwa
yakadzama
yakadzika
yakaenzana
yakafanana
yakagadzikana
yakagadzikwa
yakagadzirirwa
yakagadzirwa
yakaganhurana
yakaganhurwa
yakagarwa
yakahwarara
yakahwina
yakaipisisa
yakaiswa
yakaita
yakaitika
yakaitwa
yakajairika
yakajeka
yakakamurwa
yakakomberedza
yakakomberedzwa
yakakombwa
yakakosha
yakakura
yakakwana
yakakwira
yakakwirira
yakamira
yakanaka
yakanakisa
yakananga
yakanangana
yakanga
yakange
yakanongedza
yakanyanya
yakanyorwa
yakanzi
yakaoma
yakapfava
yakapfuura
yakapihwa
yakapiwa
yakapoteredza
yakaramba
yakare
yakareba
yakareruka
yakarongeka
yakarongerwa
yakarongwa
yakarukwa
yakarurama
yakarwiwa
yakasarudzika
yakashandiswa
yakashongedzwa
yakasikwa
yakasimba
yakasimbiswa
yakasiyana
yakasununguka
yakasvika
yakatambanuka
yakatanga
yakatangwa
yakatarisana
yakatariswa
yakatarwa
yakatenderedza
yakati
yakatorwa
yakatsanangurwa
yakatsikiswa
yakatsveyama
yakatumidzwa
yakatwasuka
yakaumbwa
yakaungana
yakauya
yakava
yakavakirwa
yakavakwa
yakavambwa
yakave
yakavhurika
yakavhurwa
yakawana
yakawanda
yakawandisa
yakawanikwa
yakawedzera
yakawedzerwa
yakazara
yakazivisa
yakazvimirira
yakazvimiririra
yake
yakhe
yako
yakobho
yakura
yakwana
yaluka
yam
yamai
yamambo
yamba
yambana
yambani
yambeta
yambiro
yame
yamu
yamwari
yana
yanaya
yanda
yanewton
yang
yanga
yangben
yangu
yanhasi
yao
yaonda
yapera
yapfuura
yapinda
yard
yarehwa
yaro
yarobert
yaruma
yasara
yashe
yasudurukwa
yasvika
yatanga
yataurwa
yatigere
yatinoti
yatiri
yava
yavana
yave
yavo
yawana
yawanda
yawo
yaya
yayo
yazara
yazvino
ye
yeafrica
yeafrika
year
years
yeast
yebanga
yebantu
yebasa
yebhazi
yebhuritani
yeboka
yebonde
yebts
yechando
yechibage
yechibantu
yechichayina
yechidembo
yechiedza
yechiitiko
yechikadzi
yechikoro
yechikristu
yechimurenga
yechinguni
yechinhu
yechinyakare
yechipiri
yechirimo
yechishanu
yechishona
yechitatu
yechivanhu
yechokwadi
yedare
yedaro
yedombo
yedoro
yedu
yedunhu
yedzimwe
yedzinde
yedzitsinyira
yega
yegasi
yegombedzanwa
yegonyo
yegore
yegumi
yegunganidzo
yegungwa
yeguta
yegwenzi
yehatomu
yehondo
yehove
yehuku
yehupenyu
yehuremu
yehurumende
yehushangazhi
yehuswa
yehutongi
yehuwandu
yeisrael
yekare
yekatsi
yeku
yekuba
yekubata
yekubatira
yekubikira
yekuchamhembe
yekuchengetedza
yekuda
yekudya
yekudzivirira
yekufamba
yekugadzira
yekugara
yekuhora
yekuita
yekumabvazuva
yekumadokero
yekumaodzanyemba
yekunaya
yekunwa
yekunyora
yekunyoresa
yekunze
yekupedzisira
yekurarama
yekuroora
yekurwa
yekushanda
yekutanga
yekutapurirwa
yekuti
yekutonga
yekuuraya
yekuva
yekuverenga
yekuvhima
yekuwanza
yekuzeya
yekuzorora
yekuzvara
yekuzvarwa
yekwa
yela
yelatitude
yele
yelema
yell
yellow
yellowish
yelo
yelongitude
yema
yemadzitateguru
yemadziya
yemagetsi
yemajudha
yemakore
yemangwanani
yemari
yemasero
yemashonaland
yemasikati
yematunhu
yemavara
yemazita
yemazuva
yemazwi
yembeva
yembudzi
yemen
yemhando
yemhepo
yemhuka
yemhuri
yemichero
yemimhanzi
yemishonga
yemitambo
yemitauro
yemombe
yemubatanidzwa
yemuchacha
yemuchato
yemukadzi
yemumba
yemumhuno
yemumvura
yemunhu
yemuno
yemurume
yemusango
yemushonga
yemutauro
yemuti
yemutwi
yemuviri
yemuzimbabwe
yemvura
yemwaka
yemwedzi
yenational
yendege
yengoma
yenguva
yenhambwe
yenhangande
yenharaunda
yenhomba
yenyama
yenyaya
yenyika
yenyoka
yenyu
yenyuchi
yenzara
yenzvimbo
yeoh
yeolympic
yepakati
yepamoyo
yepamusoro
yepamutemo
yepanyika
yeparamende
yepasi
yepasirose
yepedyo
yera
yere
yerhodesia
yerhoma
yerinopasi
yerisa
yeroora
yeropa
yeruambanyeredzi
yerudhende
yerudzi
yerudzindi
yerumbariro
yerusununguko
yerutondapakati
yeruvara
yerwizi
yes
yesadza
yesango
yese
yeshe
yeshiri
yeshona
yeshua
yesikarudzi
yesimbi
yesino
yesouth
yesterday
yesu
yet
yetani
yetanzania
yetaranyika
yetsika
yetsoka
yetsuro
yetv
yeuganda
yeukai
yeunited
yevadzidzi
yevagari
yevakadzi
yevana
yevanhu
yevashona
yevhu
yezambia
yezanu
yezaoga
yezerere
yezhizha
yezimbabwe
yeziso
yezuva
yezvematongerwo
yezvinhu
yezvinyorwa
yezwi
yi
yield
yimelo
yinhla
yipunu
yira
yiri
yiyi
yo
yoga
yohane
yohani
yoke
yokuda
yokudzivirira
yokuita
yokunge
yokupedzisira
yokutanga
yokuti
yokutonga
yokuva
yolanda
yolk
yomumwe
yomunhu
yomurume
yomutsazanisi
yomuviri
yonzi
yoo
yoon
york
yoruba
yose
yosefa
yoturikirwa
you
young
younger
your
yours
yourself
youth
youtube
yoweela
yue
yugoslavia
yunifomu
yunivhesi
yunivhesiti
yuranisi
yuropu
yvonne
yɛ
z
za
zai
zaka
zala
zamba
zambezi
zambhiya
zambia
zambuko
zamu
zana
zanagore
zanamwe
zananemakumimairi
zananemakumimana
zananemakumimanomwe
zananemakumimapfumbamwe
zananemakumimasere
zananemakumimashanu
zananemakumimatanhatu
zananemakumimatatu
zande
zandile
zanga
zangala
zangata
zanhi
zani
zano
zanthoxylum
zanu
zanzala
zanzibar
zanzibhari
zapu
zarango
zarma
zasi
zasiyo
zata
zavazava
zawaira
zbc
ze
zeal
zealand
zebra
zeit
zemba
zembe
zenda
zeng
zengenene
zengera
zengeya
zengeza
zengo
zenze
zera
zerere
zero
zeyheri
zeza
zezuru
zhangazha
zhara
zhenje
zhinji
zhizha
zhombe
zhombwe
zhou
zi
zia
ziba
zibagwe
zienza
zigula
zigzag
zihombe
zika
ziki
zima
zimba
zimbabwe
zimbabwean
zimbabweflora
zimbiru
zimboriginal
zimunya
zimurwi
zina
zinc
zinga
zingila
zingira
zingwa
zingwiro
zino
zinyama
zirebwa
zisengwe
ziso
zita
ziuku
zivai
zivanai
zivikanwa
zivuka
zivuku
ziwumbe
ziya
ziyenge
zizi
ziziphus
zn
zo
zone
zongoro
zongororo
zoni
zororo
zowa
zu
zuku
zula
zulgo
zulu
zumbu
zunde
zunga
zungura
zuro
zuva
zuvanezuva
zuwa
zvaanenge
zvaanoda
zvaari
zvabuda
zvachiri
zvacho
zvachose
zvadai
zvadaro
zvairi
zvaita
zvaitika
zvaitwa
zvaive
zvakabatsira
zvakabuda
zvakadai
zvakadaro
zvakadii
zvakadini
zvakadomwa
zvakadzama
zvakaenzana
zvakafanana
zvakafanira
zvakafanirwa
zvakagadzirwa
zvakaipa
zvakaita
zvakaitika
zvakaitwa
zvakajairika
zvakajeka
zvakakodzera
zvakakomba
zvakakonzera
zvakakosha
zvakakura
zvakakwana
zvakanaka
zvakanakira
zvakanakisa
zvakanangana
zvakanga
zvakange
zvakanyanya
zvakanyanyisa
zvakanyorwa
zvakaoma
zvakaonekwa
zvakaperera
zvakapfuuridza
zvakara
zvakare
zvakaringana
zvakarongeka
zvakarungama
zvakarurama
zvakashata
zvakasikwa
zvakasimba
zvakasiyana
zvakataurwa
zvakati
zvakatorwa
zvakatsaukana
zvakawanda
zvakawandisa
zvakawanikwa
zvakazarurwa
zvakaziviswa
zvake
zvako
zvanga
zvangu
zvanyanya
zvaonekwa
zvaramba
zvaro
zvarwa
zvasara
zvataurwa
zvauri
zvavahera
zvavanoda
zvave
zvavo
zvawanda
zvawo
zvayo
zvazvo
zve
zveafrica
zvechadenga
zvechirwere
zvechisimba
zvechivanhu
zvedu
zvedzidzo
zvehunyanzvi
zvekare
zvekudya
zvekunyora
zvekurima
zvekutanga
zvekuti
zvemafirimu
zvematombo
zvematongerwo
zvemazuva
zvemhando
zvemitambo
zvemukati
zvemumhepo
zvemunhu
zvemvura
zvenguva
zvenhoroondo
zvenyika
zvenyu
zvepabonde
zvepamusoro
zvepfungwa
zvescience
zvese
zvesekondari
zveshe
zveshomwe
zvetsika
zvevanhu
zvezimbabwe
zvibereko
zvibhakera
zvibodzi
zvibodzwa
zvichakadaro
zvichena
zvichenda
zvicherwa
zvichibatsira
zvichibva
zvichida
zvichidudza
zvichidzika
zvichienda
zvichienderana
zvichienderera
zvichienzaniswa
zvichigona
zvichiita
zvichiitika
zvichiitwa
zvichikonzera
zvichikonzerwa
zvichikwira
zvichimirira
zvichinge
zvichingodaro
zvichinzi
zvichionekwa
zvichiratidza
zvichireva
zvichisanganisira
zvichitaura
zvichitaurwa
zvichiteerana
zvichitevedza
zvichitevera
zvichitodzana
zvidavado
zvidembo
zvidhinha
zvidiki
zvidimbu
zvido
zvidowo
zvidya
zvidyo
zvidzai
zvidzidzo
zvifananidzo
zvigadzirwa
zvigaro
zvigona
zvigunwe
zviine
zviitiko
zviito
zvikamu
zvikara
zvikepe
zvikoni
zvikonzero
zvikoro
zvikuru
zvikurusei
zvikwata
zvikwereti
zvimiro
zvimwe
zvimwechete
zvimwechetezvo
zvimwewo
zvina
zvinamato
zvinangwa
zvindeya
zvine
zvinenge
zvineruvara
zvinetso
zvingani
zvingava
zvinhi
zvinhu
zvino
zvinobatika
zvinobatsira
zvinobuda
zvinobva
zvinobvira
zvinoda
zvinodarika
zvinodaro
zvinodhaka
zvinodiwa
zvinodudza
zvinodya
zvinodzivirira
zvinoenderana
zvinofadza
zvinofamba
zvinofanirwa
zvinofungidzirwa
zvinofungirwa
zvinogadzirwa
zvinogara
zvinogona
zvinoita
zvinoitika
zvinoitwa
zvinokonzera
zvinokonzeresa
zvinokonzerwa
zvinokura
zvinokurudzirwa
zvinokwanisa
zvinomera
zvinonyanya
zvinonyorwa
zvinonzi
zvinonzwikwa
zvinonzwisisika
zvinoonekwa
zvinopa
zvinopesana
zvinopfuura
zvinopinda
zvinorarama
zvinoratidza
zvinoratidzwa
zvinorehwa
zvinorema
zvinoreva
zvinorevawo
zvinorevei
zvinosanganisa
zvinosanganisira
zvinoshamisa
zvinoshanda
zvinoshandiswa
zvinosiyana
zvinosvika
zvinotanga
zvinotapukira
zvinotaridza
zvinotarisirwa
zvinotaura
zvinotaurwa
zvinotendwa
zvinotengeswa
zvinotevera
zvinoti
zvinotodzana
zvinotora
zvinoumba
zvinova
zvinovava
zvinoverengeka
zvinowanikwa
zvinowanzo
zvinowanzoitika
zvinowedzera
zvinoyera
zvinoyevedza
zvinozivikanwa
zvinwiwa
zvinyanye
zvinyavada
zvinyoro
zvinyoronyoro
zvinyorwa
zvinzvanyira
zvinzvimbo
zvinzvovera
zvipatara
zvipembenene
zvipenyu
zviperengo
zvipfeko
zvipfuwo
zvipfuyo
zvipo
zvipuka
zvirango
zviratidzo
zvirevo
zviri
zviridzwa
zviriko
zvirikumirira
zvirimo
zvirimwa
zviripo
zvirizasiyo
zviro
zvirokwazvo
zvirongwa
zviroto
zvirwere
zvisati
zvishanu
zvishavane
zvishoma
zvishongo
zvisikwa
zvisina
zvisinei
zvisingarevi
zvisingawirirane
zvisipo
zvisiri
zviso
zvisungo
zvita
zvitanhatu
zvitatu
zvitema
zvitendero
zvitoro
zvitsuku
zvitsuwa
zvitsva
zvitsvene
zvitsvuku
zvitsvukutsvuku
zvituswa
zviumbwa
zviuru
zviuya
zvivakamberi
zvivakashure
zvivakwa
zvive
zvivezwa
zvivi
zviviri
zviwanikwa
zviya
zviyero
zviyo
zvizere
zvizhinji
zvizvarwa
zvnoti
zvoita
zvokudya
zvokuita
zvokukwanisa
zvokuti
zvokuva
zvoma
zvombo
zvomuya
zvonzi
zvoreva
zvose
zw
zwa
{
|
}
~

£
§
«
­
°
±
²
´
·
»
×
æ
÷
ŋ
ŋa
ŋga
ŋgo
ŋgu
ɑ
ɓa
ɔ
ə
ɛ
ɡa
ɨ
ɪ
ɱ
ɲ
ɲa
ɲi
ɾ
ɾa
ʊ
ʒ
ʰ
ʲ
ʷ
ʻ
ʼ
ʽ
ʾ
ʿ
ˈ
ˌ
ː
ːˈ
ˤ
̀
́
̂
̃
̄
̆
̇
̈
̊
̌
̍
̓
̛
̣
̥
̦
̧
̩
̪
̭
̯
̱
̸
͂
͡
α
β
δ
ε
η
θ
π
ς
τ
ω
и
ы
я
і
ְ
ִ
ֵ
ֶ
ַ
ָ
ֹ
ּ
ׁ
א
ב
ד
ה
ו
ח
י
ל
מ
ן
נ
ע
פ
ר
ש
ا
ار
الا
ب
ة
ح
د
ر
ز
س
ص
ط
ع
ل
م
ن
ه
و
ي
َ
ُ
ِ
ّ
ْ
ٓ
ٔ
ٕ
ڮ
द
न
ल
ह
ा
ि
ी
े
्
ং
ব
ল
া
்
་
ུ
်
가수
가요
공식
과
기부
년
년간
더
더스타프로필
랩
를
몬스터
방탄
방탄소년단
뷔
소년단
슈가
스타
아이돌
억원
에
와
음악
의
이
인터뷰
일
입학
정국
지민
진
한
힙합
ᵐ
ᵑ
​
‎
–
—
‘
’
“
”
†
•
…
′
″
⁡
ⁿ
↑
→
↔
↷
−
√
∫
⋅
⋯
⏟
②
③
④
⑥
⑦
♀
♈
♉
♊
♋
♌
♍
♎
♏
♐
♑
♒
♓
⺀
⺄
⺆
⺈
⺊
⺌
⺕
⺝
⺸
⺼
⿰
⿱
⿲
⿳
⿴
⿵
⿶
⿷
⿸
⿹
⿺
⿻
、
〢
か
の
゙
ア
ウ
カ
ク
コ
シ
タ
ト
フ
マ
ム
ユ
ン
ー
㇁
㇂
㇄
㇇
㇈
㇉
㇓
㐁
㐄
㐅
㐌
㐫
㐬
㐭
㐮
㐱
㑒
㒵
㒸
㒼
㓁
㓞
㔾
㕛
㕣
㖾
㘝
㚅
㚇
㚔
㚘
㝉
㝡
㝴
㝵
㞋
㞢
㞷
㠩
㠭
㠯
㡀
㡭
㡿
㢲
㢴
㣇
㣺
㥯
㪅
㫄
㫐
㫒
㫺
㬅
㬎
㬥
㬰
㲋
㳄
㷠
㸒
㸚
㸦
㼌
㼲
㽞
㿟
䀠
䂞
䍃
䏍
䒑
䖍
䖒
䖝
䖵
䙴
䚻
䜌
䝿
䡛
䧹
䪞
一
丁
丂
七
丄
丅
丆
万
丈
三
上
下
丌
不
与
丏
丐
丑
专
且
丕
世
丘
丙
业
东
丞
丢
丣
两
严
並
丨
丩
个
丫
丬
中
丮
丰
丱
串
丵
丶
丷
丸
丹
为
主
丽
丿
乀
乂
乃
久
乆
乇
么
义
之
乌
乍
乎
乏
乐
乑
乔
乖
乗
乘
乙
乚
乛
乜
九
乞
也
习
乡
乳
乾
亀
亅
了
亇
予
争
事
二
亍
于
亏
亐
云
互
亓
五
井
亘
亚
亜
亞
亟
亠
亡
亢
交
亥
亦
产
亨
亩
享
京
亭
亮
亯
亰
亲
亳
亶
亷
人
亻
亼
亾
仁
今
介
仌
从
仐
仑
仒
仓
仕
他
付
仝
代
令
以
任
企
伊
伏
伐
休
会
伯
但
位
何
佘
余
作
佥
使
來
侈
侌
侖
侯
侵
便
保
俞
信
修
倉
倍
候
倠
備
僉
僕
儿
兀
允
兂
元
兄
充
兆
兇
先
光
兊
克
兌
免
兑
兒
兓
兔
党
兜
兟
入
全
兩
兪
八
公
六
兮
兰
共
关
兵
其
具
典
兹
兼
冀
冂
冃
冄
内
冈
冉
冊
冋
册
再
冎
冏
冐
冒
冓
冖
冗
冘
军
农
冝
冡
冥
冫
冬
冷
几
凡
凢
凵
凶
凷
凸
凹
出
函
凾
刀
刁
刂
刃
刄
刅
分
切
刍
刑
刕
刖
列
刘
则
初
別
利
别
到
制
刺
則
削
剌
前
剡
剽
劉
力
功
加
劦
助
劫
劳
劵
勃
勇
勉
勒
動
務
勞
勤
勹
勺
勻
勾
勿
匀
匂
包
匆
匈
匊
匋
匍
匕
化
北
匚
匝
匡
匪
匱
匸
匹
区
医
匽
匿
區
十
卂
千
卄
卅
卆
升
午
卉
半
卌
华
卑
卒
卓
单
卖
南
卜
卝
卞
占
卡
卢
卣
卤
卦
卩
卪
卬
卯
印
危
即
却
卵
卷
卸
卻
厂
厃
厄
历
厈
厉
厌
厓
厘
厚
原
厤
厥
厨
厭
厲
厶
厷
厸
去
厼
厽
叀
参
參
叅
又
叉
及
友
双
反
叐
发
叒
叔
叕
取
受
叚
叜
叟
口
古
句
另
叩
只
召
可
台
叱
史
右
叵
号
司
叹
吂
各
吅
合
吉
吊
吋
同
名
后
吏
向
吕
君
吝
吞
否
含
启
吳
吴
吹
吾
呂
呆
呈
告
员
呙
周
命
咅
和
咎
咠
咢
咨
咸
咼
哀
品
哉
員
哥
哲
唐
商
啇
問
啚
啬
啻
善
喜
喬
單
喿
嗇
噩
嚴
囊
囗
囘
囙
囚
四
回
囟
因
団
囧
囬
困
囱
囷
固
国
圂
圅
國
圍
圓
團
土
圡
圣
圥
在
圭
地
圶
圼
坐
坒
坚
坴
垂
垔
垚
埀
埋
埶
執
基
堂
堅
堆
堇
堯
塞
墨
壘
士
壬
壯
声
壳
壴
壹
壺
壽
夂
处
夅
夆
备
夊
夋
夌
复
夏
夒
夕
外
夗
夘
多
夜
夢
大
夨
天
太
夫
夬
夭
央
失
夲
头
夷
夸
夹
夻
夾
奂
奄
奇
奈
奉
奎
奏
奐
契
奓
奔
奚
奞
奠
奢
奥
奭
女
奴
奶
奻
好
如
妄
妙
妟
妥
妻
妾
姑
委
姜
威
娄
婁
婴
嬰
嬴
子
孑
孔
孕
孖
字
存
孚
孛
孝
孟
季
孤
学
孫
孱
學
宀
宁
宂
它
宅
宇
守
安
宋
完
宏
宓
宗
官
定
宛
宜
宝
客
宣
室
宮
宰
害
家
容
宾
宿
寄
寅
密
富
寒
察
寧
審
寫
寬
寮
寸
对
寺
寻
寽
対
寿
封
尃
射
将
將
專
尉
尊
尋
尌
對
小
少
尒
尓
尔
尖
尗
尚
尞
尢
尣
尤
尧
尨
尭
就
尸
尹
尺
尻
尼
尽
尾
尿
局
居
屈
屋
屎
屏
屑
展
屖
屚
属
屠
屡
屬
屮
屯
屰
山
屵
屾
岁
岂
岑
岡
岩
岳
岸
峯
島
崇
崑
崔
崖
崙
崩
嵬
嶲
巂
巛
川
州
巟
巠
巢
巤
工
左
巧
巨
巩
巫
差
己
已
巳
巴
巷
巸
巽
巾
巿
帀
市
布
希
帚
帛
帝
带
師
席
帶
常
干
平
年
幵
并
幷
幸
幺
幻
幼
幽
幾
广
広
庄
床
底
店
庚
府
度
庫
庭
庶
康
庸
廉
廌
廛
廣
廩
廴
延
廷
建
廾
廿
开
弁
弃
弄
弇
弋
式
弓
弔
引
弗
弘
弜
弟
弥
弦
弱
張
強
强
弾
彈
彊
彌
彎
彐
彑
当
彔
录
彖
彗
彡
形
彥
彦
彧
彭
彳
役
彼
往
待
律
徒
得
徙
從
復
微
徵
心
忄
必
忌
忍
志
忝
忠
忩
快
念
忽
忿
思
怠
急
怱
恆
恒
恩
恭
息
悉
患
悤
悲
悶
惠
惡
惢
愁
愈
意
愛
感
慈
慧
慮
憂
憲
應
戀
戈
戉
戊
戋
戌
戍
戎
成
我
戒
戔
或
戚
戠
戢
截
戲
戶
户
戹
戼
戾
房
所
扁
扇
手
扌
才
打
托
执
承
折
拉
拜
拿
掌
推
提
摩
支
攴
攵
收
攸
改
放
政
敄
故
敏
敕
敖
敗
敝
敞
敢
散
敦
敫
敬
数
敷
數
斂
文
斉
斊
斗
斤
斥
斩
斬
斯
新
方
於
施
斿
旁
旋
族
无
旡
既
旣
日
旦
旧
旨
早
旬
旱
旲
时
旾
昆
昇
昌
昍
明
昏
易
昔
昗
昜
星
春
昬
是
昱
昴
昷
時
晃
晋
晏
普
景
晶
智
暑
暴
曇
曩
曰
曲
曳
更
曷
書
曹
曼
曾
替
最
朁
會
月
有
朋
服
朔
朕
朗
望
朝
木
朩
未
末
本
札
朮
术
朱
朵
朶
朿
杀
杏
杜
束
条
来
東
杲
杳
松
析
林
枚
果
枝
枲
枼
某
柔
查
柬
柰
柴
栗
桀
桑
桼
梁
條
梟
梨
棘
棠
棥
森
楚
業
楽
榮
樂
樊
欠
次
欣
欮
欲
欶
欽
款
歆
歇
歛
止
正
此
步
武
歨
歪
歮
歯
歰
歲
歴
歷
歸
歹
歺
死
殳
段
殷
殸
殹
殺
殻
殿
毋
毌
母
每
毒
比
毕
毚
毛
毳
氏
氐
民
气
氣
水
氵
氶
氷
永
氺
氾
求
汉
汝
汞
江
沃
沓
沙
沝
泉
法
泡
波
泣
泥
泰
洛
洪
活
派
流
浦
浪
浮
淡
淮
清
渚
渠
湯
滿
漢
漸
灣
火
灬
灭
灰
灵
灷
炅
炎
炏
炗
炙
炭
為
烈
烏
烝
焉
無
焦
焱
然
煞
熊
熏
燕
營
燮
爪
爫
爭
爯
爰
爱
爲
爵
父
爻
爽
爾
爿
片
牙
牚
牛
牜
牟
牢
牧
牪
牽
犀
犬
犭
犮
狂
狄
狊
独
狺
猋
猒
猪
献
獻
玄
率
玉
王
玟
玨
珎
班
琴
瑟
瑩
瓜
瓦
甘
甚
生
産
用
甫
甬
田
由
甲
申
电
甶
男
甸
甹
画
甾
畀
界
畏
畐
留
畜
畟
畢
畧
畨
番
畫
異
畱
當
畺
畾
疊
疋
疌
疑
疒
疾
癶
癸
癹
登
發
白
百
皀
皃
的
皆
皇
皋
皐
皕
皮
皷
皿
盃
盆
盇
盈
益
盍
盎
监
盒
盖
盛
盡
監
盤
盧
目
直
相
盾
省
眇
眉
看
眔
眞
真
眷
眼
眾
着
睘
睪
睿
瞏
瞢
瞿
矍
矛
矞
矢
矣
知
矦
短
石
破
碎
磊
磨
示
礻
礼
祟
票
祭
禀
禁
禸
禹
禺
离
禽
禾
禿
秀
秃
秉
秋
科
秝
秦
移
稟
穀
穌
穴
究
穹
空
穿
突
窄
窒
立
竒
竜
竝
竟
章
童
竹
笑
笠
筆
等
答
箕
算
箴
節
篤
篭
米
粉
粛
粟
粤
粦
粲
糞
糸
糹
系
約
納
素
索
紫
累
細
絜
絫
絲
維
綿
縣
繇
纍
纟
缶
网
罒
罔
罕
罗
罙
罡
罢
罪
署
罷
羅
羊
羌
羍
美
羔
羕
羗
羞
羡
羣
群
義
羲
羸
羽
翁
翏
習
翕
翟
翠
翼
老
耂
考
者
耆
而
耎
耑
耒
耳
耴
耶
耷
聂
聊
聖
聚
聶
聿
肀
肃
肅
肉
肖
肙
肥
肩
肯
育
肴
胃
背
胡
胥
能
脊
脩
膚
臣
臤
臧
自
臬
臭
臯
臱
至
致
臺
臼
臽
臾
臿
舀
舂
舄
與
興
舉
舌
舍
舛
舜
舞
舟
般
艮
良
色
艸
艹
艾
芒
芔
芬
芮
花
芳
芺
芻
苔
苗
苟
若
苦
英
茶
茸
荅
草
荒
荣
荼
莆
莧
莫
莽
菆
菊
菐
華
萬
落
葉
著
葛
董
葵
蒙
蒦
蒼
蓋
蓬
蓺
蔑
蔡
蕉
蕭
薄
薛
薦
薰
藍
藏
藥
蘭
虍
虎
虐
虒
虔
處
虖
虗
虘
虚
虛
虜
虞
虫
虽
蚤
蚩
蜀
蜜
蟲
蠡
血
行
衍
衛
衣
衤
表
衮
衰
袁
袞
褭
褱
襄
襾
西
覀
要
覃
見
規
覓
覧
親
覽
见
角
解
言
訁
訇
計
訓
話
詹
語
誩
諸
讠
话
谷
豆
豈
豊
豐
豕
豖
豙
象
豦
豩
豪
豸
貇
貝
貞
貟
負
貢
貧
貪
貫
責
貳
貴
買
費
賁
資
賈
賏
賓
賔
賛
賞
賢
賣
質
賴
贊
贝
贡
责
贯
贲
贵
赖
赞
赤
赦
走
越
足
路
蹇
身
躬
車
軍
軎
軟
輦
车
辛
辜
辟
辥
辰
辱
農
辵
辶
边
达
过
近
连
迪
迷
追
退
送
逆
逐
通
速
造
逢
連
逮
進
遀
遂
過
道
達
遣
適
遷
遺
邊
邑
邕
那
邦
邪
郎
部
郭
都
鄉
酉
酋
配
酓
釆
采
里
重
野
量
金
釒
錢
钅
長
镸
长
門
閃
閉
開
閏
閑
閒
間
閔
閵
閻
闌
门
间
闷
阑
阜
阝
防
阿
降
陳
隆
隊
隋
隡
隨
隱
隶
隹
隺
隻
隼
隽
难
雀
雁
集
雈
雋
雍
雐
雔
雙
雚
雜
雝
離
難
雨
雩
雪
雲
零
雷
需
霍
霜
霝
霞
霸
靈
靑
青
非
靡
面
靣
革
韋
韓
韦
韭
韯
韱
音
頁
頃
項
須
頗
頡
頻
顛
页
風
风
飛
飞
食
飠
養
饣
首
香
馬
馮
駦
马
骨
高
髟
鬥
鬯
鬲
鬼
魚
魯
鮮
鱼
鲁
鳥
鳳
鸟
鹵
鹿
麃
麗
麥
麦
麻
黃
黄
黍
黎
黑
黒
黨
黹
黽
黾
鼎
鼓
鼠
鼻
齊
齋
齐
齒
齿
龍
龙
龜
龟
龠
龰
龱
龴
龵
龶
龷
龸
龹
ꞌ
者
艹
︎
﻿
，
？
𐎠
𞤢
𞤣
𞤥
𞤪
𞤫
𞤭
𞤮
𞤲
𞥄
👏
𠀁
𠀃
𠀆
𠀉
𠀎
𠀐
𠁁
𠁣
𠂆
𠂇
𠂈
𠂉
𠂊
𠂋
𠂎
𠂒
𠂔
𠂛
𠂡
𠂢
𠂤
𠂬
𠂭
𠂹
𠃊
𠃋
𠃌
𠃍
𠃎
𠃑
𠃓
𠃔
𠃜
𠄌
𠄎
𠄠
𠄢
𠆢
𠆥
𠇍
𠈌
𠌵
𠓜
𠔉
𠔥
𠔼
𠔽
𠔿
𠕀
𠕁
𠕋
𠘧
𠘨
𠙻
𠙼
𠚏
𠚒
𠚤
𠚪
𠣏
𠤎
𠤕
𠥓
𠦄
𠦑
𠦝
𠧒
𠧗
𠧪
𠩺
𠪚
𠫓
𠫔
𠫤
𠬛
𠬝
𠬞
𠬢
𠬤
𠬶
𠮛
𠮦
𠮷
𠯑
𠱠
𠳮
𠷎
𡈼
𡉀
𡉵
𡌥
𡍮
𡏳
𡕒
𡕩
𡕰
𡖅
𡗗
𡗜
𡘆
𡘤
𡧱
𡨄
𡩧
𡬠
𡭽
𡰣
𡰥
𡰪
𡰯
𡰱
𡷈
𡸁
𡿨
𡿩
𡿪
𡿺
𢀖
𢀛
𢀩
𢁙
𢆉
𢆰
𢆶
𢇁
𢇇
𢉖
𢌬
𢌿
𢏚
𢑑
𢑚
𢖻
𢙣
𢛳
𢦏
𢦒
𢧵
𢼄
𢾕
𣁋
𣄼
𣅀
𣅽
𣍘
𣎳
𣎵
𣏋
𣏼
𣗥
𣥂
𣥖
𣦵
𣦼
𣧄
𣪊
𣪠
𣬉
𣳾
𣶒
𤇾
𤊽
𤐫
𤓰
𤔔
𤕨
𤣩
𤰇
𤰔
𤰞
𤴓
𤴔
𤽄
𥁑
𥁕
𥃦
𥃩
𥃭
𥇡
𥑟
𥘅
𥘈
𥝢
𥫗
𥱡
𦈢
𦉪
𦉬
𦉼
𦍌
𦍒
𦎧
𦐇
𦓔
𦔮
𦘒
𦙃
𦚏
𦣝
𦣞
𦣻
𦥑
𦥔
𦥯
𦨉
𦭝
𦰩
𧆞
𧈧
𧘇
𧰨
𧴪
𧴮
𧵩
𧾷
𨸏
𨾴
𩙿
𩠐
𩫏
𩵋
𪉷
𪜀
𪟽
𪠲
𪩲
𫇦
𫔭
𫜸
𫝀
𫠣
𫠩
𫢉
𫥞
𫩏
𫩠
𫪡
𫲽
𫶧
𬀷
𬐘
𬗌
𬙙
𬛸
𬜯
𬟩
𬯁
𬴘
𬺻
𬼉
𬼖
𭀰
𭁈
𭁨
𭅰
𭑈
𭕄
𭗼
𭤨
𭥫
𭻾
𮅕
𮊿
𮍌
𮍏
𮓗
𮥼
𮧮
廾
𰀁
𰀄
𰀈
𰀉
𰀕
𰀠
𰀡
𰀢
𰀪
𰁜
𰃮
𰆊
𰆘
𰋙
𰕎
𰢴
𰧭
𰯲
00--
02--
13--
14--
15--
16--
17--
18--
19--
20--
61--
73--
978--
a--
aa--
ab--
aba--
abom--
abst--
abu--
ac--
accom--
achi--
achieve--
achim--
achit--
ad--
ade--
af--
agam--
agi--
ah--
ai--
air--
ak--
aka--
akadzi--
akaga--
akakwi--
akan--
akape--
akara--
akari--
akaro--
akaru--
akazo--
akazvi--
aku--
al--
ale--
algo--
all--
am--
ama--
amakh--
amu--
an--
ana--
and--
anda--
ane--
anga--
ani--
ano--
anofa--
anopf--
anoru--
anota--
anote--
anoto--
anov--
ant--
any--
ap--
apo--
appreci--
ar--
ara--
arbit--
ari--
aro--
art--
artif--
aru--
as--
asa--
ash--
asi--
asinga--
ass--
astr--
at--
ata--
atino--
attri--
au--
auxi--
ava--
avano--
aw--
awu--
aza--
azi--
b--
ba--
baba--
back--
bak--
bal--
bar--
bara--
bari--
bas--
bat--
be--
bel--
ben--
ber--
bet--
bh--
bhe--
bheng--
bhizi--
bho--
bhu--
bhura--
bi--
bien--
bii--
bio--
bir--
bl--
blu--
bo--
bos--
br--
bri--
bu--
bud--
bug--
buh--
buru--
but--
bvo--
bvu--
bwa--
bwo--
c--
ca--
cal--
calcu--
calli--
can--
cap--
car--
care--
cat--
ce--
celebr--
celes--
cen--
cere--
ch--
cha--
chaka--
chan--
chat--
che--
cheku--
chema--
chi--
chiad--
chiamba--
chibh--
chibo--
chichi--
chif--
chii--
chika--
chin--
chine--
chino--
chinoga--
chinya--
chip--
chisi--
chita--
chito--
chitu--
chiwu--
cho--
choku--
chromo--
chu--
ci--
cifu--
cin--
circu--
cit--
cla--
clau--
clen--
cli--
clu--
co--
coa--
coll--
com--
come--
comple--
con--
confr--
const--
contr--
contri--
coordin--
cos--
cr--
cri--
cris--
cru--
cu--
cur--
d--
da--
daa--
dag--
dan--
dapa--
dara--
daw--
de--
deb--
dec--
defi--
del--
deriv--
des--
det--
dh--
dhi--
dhu--
di--
dia--
dict--
dif--
dig--
din--
dip--
dis--
do--
dod--
dom--
down--
dr--
dro--
du--
dunga--
dy--
dza--
dzai--
dzaka--
dze--
dzemu--
dzi--
dzichi--
dzino--
dzo--
dzvi--
dɔ--
e--
ear--
echi--
eco--
ed--
edzi--
ee--
eg--
eka--
eki--
eku--
el--
electro--
eli--
ema--
emp--
en--
end--
ene--
eng--
enz--
ep--
equi--
er--
ere--
eri--
eru--
es--
eshi--
est--
estim--
et--
eva--
evapo--
ever--
ex--
exagge--
exceed--
excit--
exclu--
expl--
f--
fa--
faci--
fal--
fan--
fe--
ferti--
fi--
fis--
fla--
fo--
fon--
for--
fore--
fr--
fri--
fu--
fʊ--
g--
ga--
gam--
gan--
gar--
gara--
ge--
geo--
gi--
glo--
glut--
go--
gonya--
got--
gra--
gradu--
gran--
gre--
gro--
gru--
gu--
gumi--
gun--
gura--
guru--
gutu--
guva--
guy--
gwa--
gwe--
gwi--
gyneco--
h--
ha--
haa--
haemor--
hai--
har--
hard--
hat--
hau--
haugh--
haunga--
hava--
he--
head--
hel--
her--
hi--
hide--
hit--
hl--
ho--
hora--
hot--
hov--
hu--
hub--
huchi--
hudh--
humi--
humo--
hun--
huno--
hunos--
hunosi--
hunov--
hur--
hwa--
hwai--
hwaka--
hwe--
hwema--
hwere--
hweva--
hwi--
hwo--
hwuno--
hy--
hydr--
hyp--
hypo--
i--
ib--
ice--
ichi--
id--
if--
ig--
igi--
igo--
igu--
ik--
iko--
il--
ili--
ilik--
im--
ima--
imi--
immuno--
imper--
in--
ina--
inau--
inc--
indu--
ine--
inf--
ing--
inga--
inju--
ino--
inogam--
inora--
inore--
inosha--
inoye--
inozvi--
instu--
insu--
int--
inter--
inu--
ir--
iri--
is--
isa--
isi--
isip--
iso--
it--
ita--
iv--
izi--
izin--
j--
ja--
jaka--
je--
jen--
jer--
jes--
ji--
jo--
ju--
k--
ka--
kab--
kaka--
kal--
kam--
kan--
kano--
kanye--
kapu--
kasi--
katu--
ke--
kh--
kha--
khu--
khukh--
khwe--
ki--
kilo--
kir--
kizi--
ko--
kon--
kr--
ku--
kua--
kub--
kuba--
kube--
kubh--
kubhab--
kubi--
kubo--
kubu--
kubvi--
kubvu--
kuch--
kuche--
kuchi--
kuchu--
kud--
kuda--
kudanda--
kudh--
kudon--
kudu--
kudzi--
kudzo--
kudzu--
kuenz--
kuf--
kufa--
kufe--
kufi--
kufo--
kufu--
kufun--
kuga--
kugan--
kuge--
kugu--
kuh--
kuho--
kuhwere--
kuhwi--
kuhwiri--
kuin--
kuja--
kuje--
kuju--
kuka--
kukam--
kuki--
kuko--
kuku--
kukwa--
kukwan--
kukwe--
kukwi--
kul--
kulu--
kum--
kuma--
kumi--
kumu--
kun--
kuna--
kune--
kuno--
kunya--
kunye--
kunyere--
kunyo--
kup--
kupa--
kupe--
kupen--
kuper--
kupf--
kupfu--
kupi--
kupo--
kupu--
kupundu--
kur--
kura--
kure--
kurege--
kuri--
kuro--
kuronde--
kuronge--
kuroo--
kuroved--
kuru--
kurwi--
kus--
kusa--
kuse--
kush--
kusha--
kusho--
kusi--
kusu--
kusun--
kusuru--
kusvi--
kusvo--
kut--
kuta--
kute--
kutse--
kutsi--
kutsvu--
kutu--
kuu--
kuv--
kuva--
kuvhu--
kuvi--
kuvu--
kuwa--
kuwo--
kuwu--
kuye--
kuz--
kuzi--
kuzo--
kuzu--
kuzva--
kuzvi--
kuzvid--
kuzvo--
kwa--
kwai--
kwaka--
kwan--
kwe--
kwema--
kwi--
kwo--
ky--
l--
la--
le--
leg--
len--
let--
li--
liga--
list--
lit--
lo--
lop--
lu--
lwe--
m--
ma--
maba--
mabh--
mabu--
mabvu--
mad--
made--
madhi--
madhu--
madzi--
mag--
maha--
maho--
mahwe--
mai--
main--
maka--
makh--
mako--
maku--
mal--
man--
mana--
manhi--
many--
map--
mar--
mas--
masa--
mase--
masha--
maso--
mat--
mata--
mats--
mau--
maunga--
mav--
mawu--
may--
maza--
mazi--
mazo--
mba--
mbe--
mbi--
mbo--
mbu--
mc--
me--
med--
melan--
men--
mer--
mfu--
mha--
mhe--
mhi--
mhl--
mho--
mhoro--
mhu--
mi--
micr--
mid--
mig--
mili--
min--
mis--
mit--
mk--
mko--
mku--
mla--
mli--
mm--
mn--
mo--
mon--
morpho--
moyo--
mp--
mpa--
mr--
ms--
mt--
mtu--
mu--
mub--
much--
muchi--
mud--
muda--
mudya--
mudyam--
mudzi--
mudzo--
mue--
mufu--
mug--
muga--
mugara--
muha--
muho--
mui--
muka--
muko--
muku--
mukwa--
mukwe--
mula--
multi--
mulu--
mum--
muma--
mun--
muna--
munhu--
muno--
munye--
munyo--
mupf--
mupfu--
mupu--
mur--
mura--
mure--
muru--
muse--
musha--
muta--
mute--
muti--
muts--
muu--
muv--
muz--
muza--
muze--
mv--
mwa--
mwe--
my--
mza--
mzi--
mzu--
n--
na--
nam--
nama--
namang--
nas--
nasa--
nau--
nd--
nda--
ndaka--
nde--
ndi--
ndino--
ndo--
ndokuzo--
ndu--
ne--
neces--
neche--
neg--
negumi--
nei--
neki--
neku--
nekusi--
nema--
nemi--
nemu--
nepa--
nept--
net--
neuro--
neva--
new--
nez--
nezve--
nezvi--
ng--
nga--
ngai--
ngati--
nge--
ngo--
ngu--
nh--
nha--
nhe--
nhoo--
nhu--
ni--
njo--
nju--
nkh--
nko--
no--
noku--
non--
nor--
not--
nse--
nta--
ntr--
ntu--
nu--
nuc--
ny--
nya--
nyaka--
nyama--
nye--
nyu--
nz--
o--
ob--
obser--
obu--
oc--
occi--
ocipi--
of--
ok--
oka--
okhu--
okhukh--
oku--
ol--
olu--
olwa--
om--
oma--
omu--
omutu--
on--
op--
or--
oru--
os--
ostiro--
ota--
otyi--
ou--
out--
over--
p--
pa--
pachi--
pad--
paka--
paku--
pakub--
pama--
pamu--
pan--
pano--
pap--
par--
para--
parino--
paru--
pas--
pasi--
pau--
pava--
pe--
peg--
pel--
pen--
per--
perme--
peru--
pes--
pet--
pf--
pha--
phe--
phen--
phep--
phi--
pho--
phy--
pi--
pili--
pima--
pl--
play--
po--
pos--
posse--
post--
pot--
pr--
pre--
preci--
preser--
pro--
prose--
provo--
psy--
pu--
pul--
pur--
puro--
q--
qu--
qua--
r--
ra--
rafa--
rai--
rain--
rair--
raka--
ram--
ran--
rap--
rati--
raw--
re--
rea--
react--
rebh--
rec--
rechi--
red--
ref--
reku--
rekwa--
rel--
relent--
rema--
remu--
remune--
repa--
resi--
resp--
resur--
reu--
rev--
rey--
rezve--
rh--
rhe--
rho--
rhy--
ri--
rib--
rich--
richi--
rika--
rim--
rin--
rine--
rino--
riri--
ro--
rod--
ros--
rot--
ru--
ruamba--
rub--
rube--
ruchi--
ruf--
ruko--
run--
runo--
rus--
ruz--
rwa--
rwaka--
rwe--
rwo--
rwu--
rwuno--
rwunot--
s--
sa--
sad--
saka--
sal--
sam--
sand--
sat--
sau--
sca--
sch--
sche--
sco--
scor--
scr--
se--
sea--
seg--
semi--
semu--
sene--
sep--
ser--
sh--
sha--
she--
shel--
shi--
sho--
shu--
si--
sia--
sie--
sika--
simp--
sin--
sip--
sk--
sla--
sn--
so--
som--
son--
sop--
sp--
spe--
sq--
st--
stead--
stu--
su--
sub--
sul--
sun--
supp--
sur--
svi--
sw--
swazi--
swits--
sy--
syn--
t--
ta--
tai--
taka--
tal--
talu--
tam--
tan--
tap--
tara--
tau--
te--
techni--
tem--
ten--
ter--
tetr--
th--
the--
thi--
tho--
thu--
ti--
tichi--
tika--
time--
tin--
tino--
tinos--
tip--
to--
tob--
toe--
tr--
trans--
tre--
tri--
ts--
tsa--
tsana--
tsaza--
tse--
tshe--
tshi--
tshim--
tsi--
tso--
tsu--
tsv--
tu--
tum--
tuma--
tur--
ty--
u--
ua--
ubh--
ubu--
uchi--
uf--
uk--
uka--
uko--
uku--
ukup--
ul--
ulu--
uluhl--
um--
uma--
umb--
umk--
umkha--
umn--
umo--
ump--
ums--
umt--
umu--
umw--
un--
under--
une--
unena--
unga--
uni--
uno--
unoga--
unopote--
unota--
unoto--
unotonh--
unotsana--
up--
ur--
ura--
ure--
uri--
uru--
us--
usa--
ut--
uta--
uto--
uts--
utu--
uvu--
uwa--
uya--
uzi--
uzu--
v--
va--
vab--
vabat--
vachi--
vai--
vaif--
vaim--
vais--
vaka--
vakam--
vakan--
vakata--
vakazo--
van--
vana--
vane--
vano--
vanya--
vapf--
vari--
vata--
ve--
veku--
vene--
ver--
vho--
vhu--
vi--
vo--
vokwa--
vu--
vul--
w--
wa--
wai--
waka--
wakau--
wal--
war--
[...]
