!
"
#
##a
##aa
##ab
##ac
##ad
##ae
##af
##ag
##ah
##ai
##aj
##ak
##al
##am
##an
##ao
##ap
##aq
##ar
##as
##at
##au
##av
##aw
##ax
##ay
##az
##b
##ba
##bb
##bc
##bd
##be
##bf
##bg
##bh
##bi
##bj
##bk
##bl
##bm
##bn
##bo
##bp
##bq
##br
##bs
##bt
##bu
##bv
##bw
##bx
##by
##bz
##c
##ca
##cb
##cc
##cd
##ce
##cf
##cg
##ch
##ci
##cj
##ck
##cl
##cm
##cn
##co
##cp
##cq
##cr
##cs
##ct
##cu
##cv
##cw
##cx
##cy
##cz
##d
##da
##db
##dc
##dd
##de
##df
##dg
##dh
##di
##dj
##dk
##dl
##dm
##dn
##do
##dp
##dq
##dr
##ds
##dt
##du
##dv
##dw
##dx
##dy
##dz
##e
##ea
##eb
##ec
##ed
##ee
##ef
##eg
##eh
##ei
##ej
##ek
##el
##em
##en
##eo
##ep
##eq
##er
##es
##et
##eu
##ev
##ew
##ex
##ey
##ez
##f
##fa
##fb
##fc
##fd
##fe
##ff
##fg
##fh
##fi
##fj
##fk
##fl
##fm
##fn
##fo
##fp
##fq
##fr
##fs
##ft
##fu
##fv
##fw
##fx
##fy
##fz
##g
##ga
##gb
##gc
##gd
##ge
##gf
##gg
##gh
##gi
##gj
##gk
##gl
##gm
##gn
##go
##gp
##gq
##gr
##gs
##gt
##gu
##gv
##gw
##gx
##gy
##gz
##h
##ha
##hb
##hc
##hd
##he
##hf
##hg
##hh
##hi
##hj
##hk
##hl
##hm
##hn
##ho
##hp
##hq
##hr
##hs
##ht
##hu
##hv
##hw
##hx
##hy
##hz
##i
##ia
##ib
##ic
##id
##ie
##if
##ig
##ih
##ii
##ij
##ik
##il
##im
##in
##io
##ip
##iq
##ir
##is
##it
##iu
##iv
##iw
##ix
##iy
##iz
##j
##ja
##jb
##jc
##jd
##je
##jf
##jg
##jh
##ji
##jj
##jk
##jl
##jm
##jn
##jo
##jp
##jq
##jr
##js
##jt
##ju
##jv
##jw
##jx
##jy
##jz
##k
##ka
##kb
##kc
##kd
##ke
##kf
##kg
##kh
##ki
##kj
##kk
##kl
##km
##kn
##ko
##kp
##kq
##kr
##ks
##kt
##ku
##kv
##kw
##kx
##ky
##kz
##l
##la
##lb
##lc
##ld
##le
##lf
##lg
##lh
##li
##lj
##lk
##ll
##lm
##ln
##lo
##lp
##lq
##lr
##ls
##lt
##lu
##lv
##lw
##lx
##ly
##lz
##m
##ma
##mb
##mc
##md
##me
##mf
##mg
##mh
##mi
##mj
##mk
##ml
##mm
##mn
##mo
##mp
##mq
##mr
##ms
##mt
##mu
##mv
##mw
##mx
##my
##mz
##n
##na
##nb
##nc
##nd
##ne
##nf
##ng
##nh
##ni
##nj
##nk
##nl
##nm
##nn
##no
##np
##nq
##nr
##ns
##nt
##nu
##nv
##nw
##nx
##ny
##nz
##o
##oa
##ob
##oc
##od
##oe
##of
##og
##oh
##oi
##oj
##ok
##ol
##om
##on
##oo
##op
##oq
##or
##os
##ot
##ou
##ov
##ow
##ox
##oy
##oz
##p
##pa
##pb
##pc
##pd
##pe
##pf
##pg
##ph
##pi
##pj
##pk
##pl
##pm
##pn
##po
##pp
##pq
##pr
##ps
##pt
##pu
##pv
##pw
##px
##py
##pz
##q
##qa
##qb
##qc
##qd
##qe
##qf
##qg
##qh
##qi
##qj
##qk
##ql
##qm
##qn
##qo
##qp
##qq
##qr
##qs
##qt
##qu
##qv
##qw
##qx
##qy
##qz
##r
##ra
##rb
##rc
##rd
##re
##rf
##rg
##rh
##ri
##rj
##rk
##rl
##rm
##rn
##ro
##rp
##rq
##rr
##rs
##rt
##ru
##rv
##rw
##rx
##ry
##rz
##s
##sa
##sb
##sc
##sd
##se
##sf
##sg
##sh
##si
##sj
##sk
##sl
##sm
##sn
##so
##sp
##sq
##sr
##ss
##st
##su
##sv
##sw
##sx
##sy
##sz
##t
##ta
##tb
##tc
##td
##te
##tf
##tg
##th
##ti
##tj
##tk
##tl
##tm
##tn
##to
##tp
##tq
##tr
##ts
##tt
##tu
##tv
##tw
##tx
##ty
##tz
##u
##ua
##ub
##uc
##ud
##ue
##uf
##ug
##uh
##ui
##uj
##uk
##ul
##um
##un
##uo
##up
##uq
##ur
##us
##ut
##uu
##uv
##uw
##ux
##uy
##uz
##v
##va
##vb
##vc
##vd
##ve
##vf
##vg
##vh
##vi
##vj
##vk
##vl
##vm
##vn
##vo
##vp
##vq
##vr
##vs
##vt
##vu
##vv
##vw
##vx
##vy
##vz
##w
##wa
##wb
##wc
##wd
##we
##wf
##wg
##wh
##wi
##wj
##wk
##wl
##wm
##wn
##wo
##wp
##wq
##wr
##ws
##wt
##wu
##wv
##ww
##wx
##wy
##wz
##x
##xa
##xb
##xc
##xd
##xe
##xf
##xg
##xh
##xi
##xj
##xk
##xl
##xm
##xn
##xo
##xp
##xq
##xr
##xs
##xt
##xu
##xv
##xw
##xx
##xy
##xz
##y
##ya
##yb
##yc
##yd
##ye
##yf
##yg
##yh
##yi
##yj
##yk
##yl
##ym
##yn
##yo
##yp
##yq
##yr
##ys
##yt
##yu
##yv
##yw
##yx
##yy
##yz
##z
##za
##zb
##zc
##zd
##ze
##zf
##zg
##zh
##zi
##zj
##zk
##zl
##zm
##zn
##zo
##zp
##zq
##zr
##zs
##zt
##zu
##zv
##zw
##zx
##zy
##zz
$
%
&
'
(
)
*
+
,
-
.
/
0
00
000
0000
00000228
00001
001
008
01
012
0140
02
025
03
04
05
06
07
08
09
0a
0b
0c
0d
0e
0f
0g
0h
0i
0j
0k
0l
0m
0n
0o
0p
0q
0r
0s
0t
0u
0v
0w
0x
0y
0z
1
10
100
1000
1001
1002
1007
101
1016
1017
102
103
1038
104
105
106
107
108
1080
109
1093
11
110
1100
111
1111
112
113
1136
114
115
116
117
1177
118
119
12
120
1200
121
121101
123
124
125
1250
126
126770
127
128
129
13
130
131
133
134
135
136
1363
137
1371
138
139
14
140
141
142
143
1430
144
1450
146
14651858
148
149
15
150
1500
156
16
160
162
163
165
167
17
170
1700
171
174
1750
177
1787
179
18
180
1800
1815
1820
1828
183
184
1845
1848
1858
1872
188
1885
1887
1889
1890
1893
1894
1895
1896
1897
1898
1899
19
190
1900
1901
1902
1903
1904
1905
1906
1907
1908
1909
1910
1911
1912
1913
1914
1915
1916
1917
1918
1919
1920
1921
1922
1923
1924
1925
1926
1927
1928
1929
1930
1931
1932
1933
1934
1935
1937
1938
1939
1940
1941
1942
1943
1944
1945
1946
1947
1948
1949
1950
1951
1952
1953
1954
1955
1956
1957
1958
1959
1960
1961
1962
1963
1964
1965
1966
1967
1968
1969
1970
1971
1972
1973
1974
1975
1976
1977
1978
1979
1980
1981
1982
1983
1984
1985
1986
1987
1988
1989
1990
1991
1992
1993
1994
1995
1996
1997
1998
1999
1a
1b
1c
1d
1e
1f
1g
1h
1i
1j
1k
1l
1m
1n
1o
1p
1q
1r
1s
1t
1u
1v
1w
1x
1y
1z
2
20
200
2000
2001
2002
2003
2004
2005
2006
2007
2008
2009
201
2010
2011
2012
2013
2014
2015
2016
2017
2018
2019
2020
202012
2021
2022
204
205
206
2077
209
2095
21
22
23
230
2307
23245604
235
236
237
24
240
25
250
2500
254
25530442
257
258
26
263
265
27
270
275
276
28
286
29
298
2a
2b
2c
2d
2e
2f
2g
2h
2i
2j
2k
2l
2m
2n
2o
2p
2q
2r
2s
2t
2u
2v
2w
2x
2y
2z
3
30
300
3000
301
303
305
306
307
308
309
31
312
313
314
315
317
319
32
320
3201
321
322
323
324
325
326
328
329
33
330
332
333
334
336
337
338
339
34
340
347
348
349
35
350
351
352
3523
353
354
356
357
36
360
361
363
365
366
37
373
375
378
38
380
385
39
3a
3b
3c
3d
3e
3f
3g
3h
3i
3j
3k
3l
3m
3n
3o
3p
3q
3r
3s
3t
3u
3v
3w
3x
3y
3z
4
40
400
4000
41
41388230
42
43
431
44
441
445
45
450
46
47
48
480
487
49
4a
4b
4c
4d
4e
4f
4g
4h
4i
4j
4k
4l
4m
4n
4o
4p
4q
4r
4s
4t
4u
4v
4w
4x
4y
4z
5
50
500
51
52
521
527
53
54
540
55
550
56
57
58
59
59884
5a
5b
5c
5d
5e
5f
5g
5h
5i
5j
5k
5l
5m
5n
5o
5p
5q
5r
5s
5t
5u
5v
5w
5x
5y
5z
6
60
600
601
61
61682
61728
62
63
64
65
650
66
67
6736
68
69
6a
6b
6c
6d
6e
6f
6g
6h
6i
6j
6k
6l
6m
6n
6o
6p
6q
6r
6s
6t
6u
6v
6w
6x
6y
6z
7
70
700
71
72
722
73
74
75
750
7500
76
763
77
772
78
79
7a
7b
7c
7d
7e
7f
7g
7h
7i
7j
7k
7l
7m
7n
7o
7p
7q
7r
7s
7t
7u
7v
7w
7x
7y
7z
8
80
800
81
82
83
84
85
86
87
88
883
89
8a
8b
8c
8d
8e
8f
8g
8h
8i
8j
8k
8l
8m
8n
8o
8p
8q
8r
8s
8t
8u
8v
8w
8x
8y
8z
9
90
900
91
92
93
94
95
96
97
978
9780520951570
9781284057560
98
9837
9859
99
9a
9b
9c
9d
9e
9f
9g
9h
9i
9j
9k
9l
9m
9n
9o
9p
9q
9r
9s
9t
9u
9v
9w
9x
9y
9z
:
;
<
=
>
?
@
[
[CLS]
[MASK]
[PAD]
[SEP]
[UNK]
\
]
^
_
`
a
a0
a1
a2
a3
a4
a5
a6
a7
a8
a9
aa
aakaita
aambe
aanda
aaragus
aardvark
aaron
aayi
ab
aba
ababa
abagusii
abale
abalingane
abandon
abandoned
abantu
abasement
abata
abate
abatwa
abba
abbacadabra
abboud
abc
abcd
abcess
abdala
abdomen
abe
abednego
abel
abheru
abhurahama
abi
abide
abigail
abikwa
ability
able
abnormal
abnormally
abode
abominable
abominate
aboriginal
abort
abortion
abound
about
above
aboyans
abraham
abrahama
abram
abrama
abramson
abreast
abroad
abruptly
abscess
absence
absent
absolutely
absorb
absorbed
absorption
abstain
abstinence
abstract
abu
abuda
abude
abuja
abundance
abundant
abundantly
aburitsa
abuse
abusing
abusive
abva
abvisa
abyss
abyssinica
ac
acacia
academia
academic
academy
acanthospermum
acceleration
accept
acceptable
access
accessed
accident
accommodate
accompany
accomplish
accord
according
accordingly
account
accounts
accumulate
accumulation
accursed
accusation
accuse
accused
accustom
accustomed
acetylene
acfu
achada
achaiswa
achange
achangobva
achangopfuura
achava
ache
achembera
acherechedza
achibata
achibaukira
achibuda
achiburitsa
achiburuka
achibva
achibvuma
achida
achidarika
achidudza
achidudzwa
achidya
achidzika
achiedza
achienda
achieve
achifamba
achifunga
achigadzira
achigara
achiimba
achiisa
achiita
achiitwa
achimirira
achimurevera
achinanga
achinge
achinyora
achinzi
achinzwa
achipa
achipanga
achipedza
achipfuura
achipinda
achiramba
achiratidza
achireva
achiri
achiroorwa
achirova
achirwara
achishanda
achishandisa
achishandiswa
achishanduka
achisiya
achisvika
achitadza
achitamba
achitanga
achitarira
achitarisa
achitarisira
achitaura
achitenda
achitengesa
achitevedza
achitevera
achiteverwa
achiti
achitonga
achitora
achitorwa
achitsiva
achiuya
achiva
achive
achiverenga
achiwana
achiwanzopedza
achiziva
achizopa
acho
acid
acidity
acids
acquaintance
acquire
acquired
acre
acrid
acrobatics
across
act
acting
action
actions
active
activism
activist
activities
activity
actor
actress
acts
actually
aculeastrum
acuminata
acute
acytelene
ad
ada
adair
adam
adama
adansonia
adapt
add
added
adder
addicted
adding
addis
addition
additional
additions
address
ade
adele
adhamawa
adhamu
adhere
adheres
adhering
adhoni
adj
adjacent
adjective
adjoin
adjoining
adjudge
adjudgement
adjust
administer
administration
administrative
administrator
admirable
admiration
admire
admit
admonition
adolescence
adolescent
adolescents
adolf
adonai
adopt
adopted
adoption
adorn
adrian
adult
adulterate
adulterer
adultery
adulthood
adults
adv
advance
advanced
advancement
advantage
advantageous
advent
adventures
adversary
adversity
advice
advise
adviser
advisors
advisory
advocate
adya
adza
adze
adzingwa
adzo
adzoka
adzorera
ae
aenda
aende
aeneas
aeroplane
af
afa
afamba
afar
afeni
affair
affairs
affect
affected
affecting
affection
affectionate
affects
affinity
affliction
affluence
afghanistan
afirwa
afraid
afresh
africa
africamuseum
african
africana
africans
africanum
afrika
afrikaans
after
afterbirth
afternoon
afterwards
afunga
afurika
ag
agache
agadzwa
again
against
agara
agare
age
aged
agency
agent
agents
ages
aggression
agitate
agnes
ago
agony
agree
agreed
agreement
agricultural
agriculture
agronomist
agumbuka
agust
ah
ahead
ahmed
ahn
ahwaradadika
ahweva
ahydrogen
ai
aibva
aid
aida
aids
aidzidzisa
aifamba
aifanira
aifarira
aifunga
aigara
aigona
aiitwa
ailment
aim
aima
aimbova
aimbove
aimless
aimlessly
aine
ainge
ainyanya
ainzi
aionekwa
air
airborne
aircraft
aires
airidza
airimwa
airinda
airplane
airport
airs
aisanganisa
aisanganisira
aishanda
aishandira
aishandisa
aishandiswa
aita
aitarisirwa
aitaura
aite
aiti
aitwa
aiva
aive
aivewo
aiwa
aizikirimu
aizivikanwa
aizobatana
aizopihwa
aj
aja
ajagbe
ajinga
ajingu
ak
aka
akabarwa
akabata
akabatana
akabatanidza
akabatanidzwa
akabatsira
akabatwa
akabereka
akaberekerwa
akaberekwa
akabuda
akabudirira
akaburitsa
akaburitswa
akabva
akabviswa
akabvuma
akachenjera
akachinja
akachinjika
akada
akadai
akadarika
akadaro
akadhakwa
akadomwa
akadya
akadyiwa
akadzama
akadzidza
akadzidzisa
akadzidziswa
akadzika
akadzingwa
akadzivana
akadzokera
akaenda
akaenderera
akaenza
akaenzana
akafa
akafamba
akafanana
akafanira
akafanirwa
akafemerwa
akafirwa
akafunda
akafunga
akagadzira
akagadziridzwa
akagadzirirwa
akagadzirwa
akagadzwa
akagamuchira
akagamuchirwa
akagara
akagashira
akagomberwa
akagwinya
akahwina
akaimba
akaipa
akaipfeka
akaisa
akaiswa
akaita
akaitwa
akaivhwa
akajairika
akajeka
akaka
akakodzera
akakokwa
akakomberedza
akakomberwa
akakosha
akakotsira
akakubereka
akakumbira
akakunda
akakundwa
akakura
akakurira
akakurudzira
akakurumbira
akakurumidza
akakwanisa
akakwikwidza
akakwira
akambenge
akamboitawo
akamira
akamuka
akamuti
akan
akana
akanaka
akanakisa
akanakwe
akananga
akanangana
akanga
akange
akangwara
akanhara
akanogara
akanominetwa
akanyanya
akanyogwa
akanyora
akanyorera
akanyoresa
akanyorwa
akanzi
akanzwa
akaoma
akaona
akaonekwa
akaonekwawo
akaongororwa
akapa
akapambwa
akapara
akaparadzanisa
akaparura
akapatsanurwa
akapedza
akapera
akapesana
akapfeka
akapfuma
akapihwa
akapinda
akapindawo
akapindura
akapinza
akapiwa
akapomerwa
akapona
akapoteredza
akapurojusa
akapusa
akaramba
akarambwa
akaranda
akarara
akararama
akarasika
akarasikirwa
akaratidza
akare
akareba
akarekodha
akaremara
akareruka
akarerwa
akaripa
akaronga
akarongeka
akarongwa
akaroora
akaroorana
akaroorwa
akarova
akarumbidzwa
akarurama
akarwara
akarwiwa
akasaina
akasangana
akasara
akasarudza
akasarudzwa
akashaika
akashanda
akashandawo
akashandisa
akashandurwa
akashanyira
akashaya
akashinga
akasiiwa
akasika
akasikwa
akasimba
akasimbisa
akasiya
akasiyana
akasungwa
akasununguka
akasvika
akatadza
akatakura
akatamba
akatamira
akatanga
akatangawo
akataramukana
akatarisa
akatarisana
akatarwa
akataura
akataurawo
akatendeka
akatenderera
akatenga
akatevedzana
akatevera
akati
akatiza
akatizira
akatonga
akatongerwa
akatora
akatorwa
akatsanangura
akatsaukana
akatsigira
akatsika
akatsikisa
akatsvuka
akatumidza
akatumidzwa
akatungamira
akatungamirira
akaudza
akaudzwa
akaumba
akaumbwa
akauraiwa
akauraya
akauya
akava
akavaka
akavakirwa
akavakwa
akavamba
akavanzika
akavapo
akave
akaverenga
akavhara
akavhura
akavigwa
akavimbiswa
akawana
akawanawo
akawanda
akawandisa
akawanikwa
akawira
akawoma
akazara
akazarura
akazivisa
akaziviswa
akazoenda
akazonyora
akazorora
akazoshanda
akazosiya
akazova
akazove
akazvara
akazvarirwa
akazvarwa
akazvimirira
akazvipa
akazviratidza
ake
akebu
akiso
akitiki
ako
akoose
akosua
akrikaans
aku
akuna
akunda
akura
akuruma
akushandiswa
akusizi
akuvara
akwana
akwandza
akwanise
akwarisi
al
ala
aladdin
alama
alan
alarm
alaska
alata
alba
albania
albert
alberto
albida
albino
albizia
album
albums
alcohol
alcoholic
ale
alejandro
alele
alert
alex
alexander
alexandra
alexandre
alexandria
alfred
algae
algeria
algorithm
algorithms
ali
alick
alien
alight
align
alike
alive
alkali
all
allafrica
allegiance
allen
allergy
allex
alliance
allied
alligator
allocation
allotment
allotted
allow
allowing
allows
alloy
allt
allure
alluvial
ally
almond
almost
aloe
aloft
alois
alone
along
alongside
aloof
aloud
alpha
alphabet
already
also
altar
alter
alteration
altered
alternate
alternating
alternative
although
altitude
altogether
alu
aluka
aluminium
always
am
ama
amabamu
amabeka
amabele
amabutho
amadili
amaduku
amafuku
amagama
amagezi
amagobela
amagwegwe
amagwenya
amahobela
amai
amainini
amakaramu
amakhaphanyongo
amakhiwa
amakhokhelo
amakhono
amakhuwa
amakoba
amalima
amalunga
amalwa
amambo
amanaka
amanakabaphathi
amanda
amandla
amanzi
amaphepha
amapiano
amara
amaranthus
amare
amarwi
amashushu
amass
amateka
amavukuthu
amayele
amazi
amazing
amazulu
amazuvano
amba
ambai
ambaleeŋge
ambana
ambassador
ambata
ambayi
ambenge
ambers
ambhuya
ambi
ambila
ambition
ambo
ambuka
ambuya
ambuyawasha
amc
amen
america
american
amerika
amhanya
amharic
amidst
amina
amino
amire
amiss
ammonia
among
amongst
amos
amount
amp
amputate
amsterdam
amufurosi
amuka
amusement
amutsirwe
amwa
amwari
amwe
amy
an
ana
anacho
anaemia
analysis
anatayc
ancestor
ancestors
ancestral
ancestry
anchor
ancient
and
anda
anderson
andika
ando
andorra
andrew
android
andu
andza
ane
anehydrogen
anenge
anesu
anew
anga
angadai
angagona
angaita
angaitwa
angangoita
anganzi
angava
angave
ange
angel
angela
angeles
angeline
angels
anger
anginamnako
angle
angled
angles
anglican
anglo
angola
angolensis
angora
angoti
angotora
angry
angu
anguish
angular
angwa
anhasi
ani
anii
animal
animalia
animals
animation
animosity
anions
anja
ankle
ankosa
ann
anna
annals
anne
annihilate
annihilation
annona
announce
announced
announcement
announces
annoy
annoyance
annoyed
annoys
annual
ano
anoba
anobata
anobatana
anobatanidza
anobatanidzwa
anobatsira
anobatwa
anobhadhara
anobika
anobikwa
anobindikita
anobuda
anoburitswa
anobva
anobvinina
anochamira
anochekana
anochengeta
anochengetwa
anocherwa
anoda
anodaidzwa
anodanwa
anodarika
anodaro
anode
anodiwa
anodudza
anodudzira
anodya
anodyaira
anodyiwa
anodzidza
anodzidzisa
anodzika
anodzinga
anodzverevenda
anoenda
anoenderana
anoenderera
anofadza
anofamba
anofambirana
anofanhira
anofanira
anofanirwa
anofarira
anofunga
anofungidzirwa
anogadzira
anogadzirwa
anogadzwa
anogara
anogarako
anogaramo
anogaro
anogona
anohwerengedzwa
anoimba
anoiswa
anoita
anoitawo
anoitika
anoitirwa
anoitwa
anokanda
anoketa
anokonzera
anokonzerwa
anokosha
anokukurutswa
anokunda
anokura
anokurumuka
anokwana
anokwanisa
anokwanisawo
anokwaniswa
anokwata
anokweva
anokwezverwa
anolyte
anomanikidzwa
anomirira
anomiririra
anonatsa
anonaya
anonongedza
anonyanya
anonyngera
anonyora
anonyorwa
anonzi
anonziwo
anonzwa
anonzwika
anoona
anoonekwa
anoongorora
anopa
anoparadza
anopera
anopfurwa
anopfuura
anopihwa
anopikisa
anopimwa
anopinda
anopindura
anopisa
anopiwa
anopota
anoramba
anorara
anorarama
anoraswa
anoratidza
anoratidzwa
anoreva
anorima
anorimwa
anoronga
anorwara
anorwisa
anosangana
anosanganisa
anosanganisira
anosara
anosarudza
anosarudzwa
anosevenza
anoshanda
anoshandawo
anoshandira
anoshandisa
anoshandiswa
anoshandiswawo
anoshanduka
anosika
anosiya
anosiyana
anosvetuka
anosvika
anotadza
anotakura
anotakurwa
anotamba
anotambanuka
anotambira
anotanga
anotangira
anotapwa
anotaridza
anotaridzika
anotarisira
anotarisirwa
anotaura
anotaurwa
anoteera
anoteerwa
anotenda
anotendera
anotenderwa
anotendwa
anotengesa
anotevedzana
anotevera
anoteverwa
another
anoti
anotiza
anotodza
anotodzana
anotonga
anotora
anotorwa
anotsanangura
anotsemurwa
anotsigira
anotsiva
anotumwa
anotungamira
anoturikira
anotya
anoumba
anounganidza
anounza
anouya
anova
anovaka
anovamba
anovambwa
anovava
anove
anoverengwa
anoveza
anovhara
anovhima
anoviga
anowana
anowanikwa
anowanikwawo
anowanza
anowanzo
anowanzoonekwa
anowira
anowonekwa
anoyemera
anoyerera
anoyevedza
anoziva
anozivikanwa
anozivikanwawo
anozovamba
anozvarwa
anozviti
ans
answer
answers
ant
antarctica
antbear
antelope
anthill
anthony
anthropology
anti
antibiotics
antibodies
antibody
antics
antonio
antonto
ants
antsirabe
antu
antunesiana
anu
anufe
anula
anus
anvil
anwa
anwe
anxiety
anxious
any
anya
anymore
anyone
anyore
anyorwa
anything
anyway
anywhere
anza
anzenza
anzi
anzwe
ao
aoi
aona
ap
apa
aparadze
apart
ape
apedza
apetalus
apex
apfave
apfuura
apiculatum
apihwe
apinda
apinde
apiwa
apiwe
apo
apostatize
apostle
apostles
apostolic
apparent
appeal
appear
appearance
appeared
appearing
appears
appetite
appl
applaud
applauder
applause
apple
application
applied
applies
apply
appoint
appointed
appointment
apportion
appreciation
approach
appropriate
approval
approve
approved
apr
april
apron
apwanyiwa
aq
aquarius
aquifer
ar
ara
arab
arabhia
arabia
arabic
arachis
arairwa
aram
aramba
arambe
aran
arara
ararame
arbiter
arbitrate
arbitrated
arbitrating
arbitrator
arc
arch
archaea
archbishop
architect
archive
archived
archives
arctic
arcturus
ard
are
area
areas
arege
arekisondira
argentina
argentine
argentines
argon
argue
arguement
arguing
argument
ari
arid
aries
ariko
arimo
aripazasi
aripo
arise
aristocracy
arithimetic
ariwo
ariye
ark
arm
armand
armenia
armpit
armpits
arms
army
arnold
aro
arohwa
aromatic
aronzerwa
aroora
around
arowana
arrange
arranged
arrangement
arranges
arrest
arrive
arrived
arrogance
arrogant
arrow
arrows
arsenic
art
artery
artfulness
arthur
article
articles
articulate
artifacts
artificial
artist
artistic
artists
arts
arubhamu
arubhaniya
arufabheti
arujeria
arukoni
aruseni
arwisa
arɨ
as
asa
asangana
asara
asarudzwa
asaruka
asati
ascend
ascent
ase
ash
ashamed
ashanda
ashande
ashandisa
ashaya
ashe
ashem
ashes
ashi
ashley
asi
asia
asian
asiatic
aside
asidhi
asika
asina
asingadi
asingadiwe
asingadyi
asingakwanise
asinganyare
asinganzwike
asingasvike
asingatendere
asingawanikwe
asipo
asiri
asisina
asisiri
asiwo
ask
asked
asking
asks
asleep
asmara
aspect
aspx
ass
assam
assault
assegai
assemblage
assemble
assembled
assembling
assembly
assent
assert
assertion
assessor
assiduous
assigned
assist
assistance
assistant
associate
associated
association
assort
assured
assyria
aster
asteraceae
asteroid
asteroids
asthma
astonishing
astonishment
astray
astro
astrology
astronomical
astronomy
asu
asunder
asvika
asvitsa
at
ata
atakura
atanga
atange
ataurwa
ataxacantha
ate
atenga
athletics
ati
atirandiki
atlandiki
atlantic
atmosphere
atmospheric
atom
atomic
atoms
atomu
atora
atore
atorwa
atsa
att
attach
attached
attachments
attack
attacked
attacks
attempt
attend
attendant
attended
attention
attentive
attentively
attire
attitude
attract
attracted
attracting
attraction
attractive
attractiveness
attracts
attributes
atumwa
atwot
atya
atyiri
au
auburn
audacity
audience
audio
audius
audrey
audzwa
aug
auger
august
augustine
augustus
aunt
austin
australia
australian
austria
austrian
author
authoritative
authorities
authority
auto
automatic
automobile
autumn
auxiliary
auya
auye
av
ava
available
avalanche
avanoita
avapostori
avarice
ave
avenge
avengers
avenue
average
averenge
avhareji
aviv
avo
avoid
avoidance
avoids
aw
awa
awai
await
awaiting
awake
awaken
awana
awanda
awane
awanikwa
award
awards
away
awkward
awl
awo
ax
axe
axes
axis
ay
aya
ayanda
aye
ayi
ayiwa
ayo
az
aza
azanza
azerbaijan
azerbaijani
azeribhaijani
azive
azivikanwe
azote
azoteri
azuri
azvarwa
azvo
aɪ
b
b0
b1
b2
b3
b4
b5
b6
b7
b8
b9
ba
baa
baaba
baal
baala
baali
baan
baara
baare
baaru
baba
babamudiki
babamukuru
babamunini
babe
babel
baboon
baboons
babungo
babusi
baby
babylon
baca
bach
bachelor
bacillus
back
backbite
backbiting
backbone
backs
backstroke
backward
backwards
backyards
bacteria
bacterial
bad
bada
badger
badly
badmouth
badness
badwe
badza
badzi
bafanji
bafu
bag
baggage
bahamas
bahari
bahrain
bai
bail
baila
bailey
bait
baka
bakaka
bakalanga
bakanyira
bakare
bakasa
bake
baker
baking
bako
bakoko
bakole
bakonzo
bakupi
bakwena
bakweri
bal
bala
balala
balance
balanced
balancing
bald
baldness
bale
bali
balima
ball
ballad
balls
balongwe
baloyi
bam
bamba
bambara
bambe
bambo
bamboo
bamboozle
bami
bamnakile
bamunyumba
ban
bana
banana
bananas
band
banda
bandadzi
bandage
bandama
bandamba
bande
bandiko
bandu
bandundu
bandy
bang
banga
bangala
banganhundu
bangime
bangira
bango
bangtan
bangu
bangula
bangwa
banhwa
bani
bank
banket
banks
bantu
banya
banza
banze
baobab
bape
bapedi
bapiro
bapu
bar
bara
barack
baradza
baradzarudzi
barama
barara
bararira
baraureya
baravara
barawa
barawani
baraza
barbados
barbara
barbarian
barbel
barber
barbuda
bare
bargain
bari
barika
barikira
barivafa
bark
barley
barn
barnes
baro
baronga
barotse
barre
barrel
barrels
barren
barrett
barrier
barron
bars
bart
barter
bartlett
barton
baru
barwa
bas
basa
basabasa
basal
base
based
bashe
bashful
basi
basic
basin
basis
bask
basket
basketball
baskets
baskin
basotho
bass
bassa
bast
bastard
bat
bata
batata
batch
bateleur
bath
bathe
bathing
bato
baton
batonga
batsira
batsirai
batswana
battery
battle
batya
bau
bauhinia
bavili
bawraq
bay
baya
bazezuru
bazi
bazu
baŋ
bb
bbc
bc
bce
bcg
bd
be
bea
beach
beacon
bead
beads
beak
beam
beams
bean
beans
bear
beard
bearing
bears
beast
beat
beaten
beating
beatrice
beats
beautiful
beautify
beauty
beba
bebe
became
because
beche
bechinambya
beckon
become
becomes
becoming
bed
bedding
bedroom
bedstead
bedzi
bee
beehive
beele
been
beer
bees
beestings
beeswax
beetle
before
beforehand
befu
befura
beg
began
beget
beggar
begin
beginner
beginning
begins
behalf
behave
behaves
behavior
behaviour
behead
behind
behold
being
beings
beit
beitbridge
beja
beka
bel
bela
belarus
belch
bele
beleka
belekela
belgium
belgrade
beli
belief
beliefs
believe
believer
belinda
belittle
bell
bellow
bellows
belly
belong
belonged
belonging
belongings
belongs
belontos
beloved
below
belt
bemba
bembera
ben
bena
benard
bench
bend
bendekete
bending
bene
beneath
benefactor
benefit
benefits
benevolence
benevolent
benga
bengali
benhura
benin
benjamin
bennett
bensa
benson
bent
benzi
bepa
bepanhau
bepe
bepete
bepu
bepura
bequaertiodendron
ber
bera
berber
bere
bereaved
bereka
berere
berg
bergman
beri
berlin
bernard
berry
bertha
beryllium
besa
besanwa
beside
besides
besiege
best
besu
bet
beta
bete
beth
beti
betray
betroth
betrothed
betsva
better
betty
between
beverage
beware
bewilder
bewildered
bewitch
bewitched
beyond
beza
bf
bg
bh
bhaa
bhaaru
bhabhironi
bhachi
bhahari
bhaibheri
bhaisikopo
bhakiteriya
bhakitiriya
bhamu
bhanan
bhanana
bhande
bhanga
bhangu
bhara
bhari
bharu
bhasa
bhasera
bhasiketi
bhasikoro
bhatani
bhatiri
bhavha
bhavhu
bhawaraki
bhazi
bhebhe
bhegi
bhendi
bhengari
bhenji
bhera
bhero
bheseni
bheti
bheya
bhii
bhila
bhinzi
bhiriji
bhiriyoni
bhiro
bhiza
bhizinesi
bhizinisi
bhobha
bhodhi
bhodhoro
bhokisi
bhomba
bhondi
bhoo
bhora
bhoso
bhosvo
bhoti
bhotswana
bhucha
bhudhi
bhuku
bhumhi
bhumi
bhunu
bhurasho
bhurauni
bhuraziri
bhuritani
bhuru
bhurugwa
bhurumu
bhururuka
bhuruu
bhusumane
bhuti
bhutsu
bi
bia
bibcode
bibi
bibiri
bible
biblio
bicycle
bid
biden
bidens
biennale
bier
bifurcation
big
bigger
biggest
bigness
bii
biinga
bikita
bila
bile
bilharzia
bill
billboard
billed
billion
billionaire
billions
billow
billy
bimbiri
bimha
bin
bina
binary
bind
binding
bindirira
bindu
binduko
bindura
bing
binga
bingandadi
bingu
bini
bio
biography
biological
biologist
biology
bipingushi
bira
bird
birdlime
birds
bire
biri
biribidi
birima
birrea
birth
birthday
bishapisha
bishi
bishop
bisi
bissa
bissau
bit
bite
biti
biting
bitongole
bits
bitstream
bitten
bitter
bitterness
biya
biyo
biŋ
bj
bk
bl
black
blackness
blacksmith
bladder
blade
bladed
blame
blanket
blankets
blaze
bleach
bleeding
blemish
bless
blessed
blessing
blessings
bleus
blind
blindfaith
blindness
blink
blinking
blister
bloated
block
blogspot
blood
bloodshot
bloodwood
bloom
blossom
blow
blowing
blown
blows
blu
blue
bluff
blumea
blunder
blunt
blunted
bm
bmj
bn
bo
boa
boar
board
boast
boasting
boat
boaz
bob
boba
bobangi
bobo
bodies
bodo
body
bodzi
bodzo
bofu
bog
boi
boil
boiled
boiling
boils
boka
bokora
bol
bold
boldness
bole
bolivia
bolo
bolt
bom
boma
bomar
bomb
bomba
bombs
bomera
bomho
bon
bona
bond
bonda
bonde
bondo
bondokoto
bondongo
bone
bones
bonga
bongo
bongozozo
boni
boniface
bonnie
bonongwe
bonyongo
bonyora
book
books
boom
boophone
boora
boore
booth
bope
bopoma
bopoto
bor
borax
border
borders
bore
bored
born
borna
borne
boro
boroma
boron
borrow
boscia
bosho
bosna
bosnia
boss
boston
bot
bota
botch
bote
boterekwa
boterero
both
botha
bother
bothered
botso
botswana
bottle
bottom
bough
bought
boulder
bound
boundary
bounds
bow
bowed
bowels
bowl
bowling
bows
box
boxing
boy
boya
boyfriend
boys
boyz
bozho
bp
bq
br
bracelet
bracelets
brachypetala
brachystegia
brackish
brag
braid
braided
brain
brains
bran
branch
branches
branching
brand
brandhoek
brass
bravanese
brave
bravery
brawl
brazil
brazilian
brazilians
brazzaville
breach
bread
breadth
break
breakable
breaking
breaks
breast
breasts
breath
breathe
breathing
breech
breed
breeding
breeds
breeze
brenda
bresil
brevity
brew
brewed
brewer
breweries
brewing
brian
briar
bribe
brick
bricks
bride
bridegroom
bridge
bridget
brief
briefness
bright
brighten
brightness
brighton
brim
brine
bring
bringing
brings
brink
britain
britannica
british
brittle
brittleness
broad
broadcast
broadcasting
broaden
broadway
broke
broken
bronze
brook
broom
brother
brotherhood
brothers
brought
brow
brown
brownii
browse
bruce
bruise
brush
brutal
brutality
brute
bs
bt
bts
bu
bua
bubble
bubi
bubles
bubye
buchilo
buck
bucket
bud
buda
budambi
budandibudewo
buddha
buddy
bude
budiriro
buditsa
buenos
buffalo
bufu
bug
bugu
buhera
buhwola
build
builder
building
buildings
built
buja
buka
bukalanga
bukira
buku
bukulu
bukusu
bukuta
bula
bulawayo
bulaya
bulb
bulbous
bule
bulele
bulgaria
bulge
bulili
bulk
bulky
bull
bullet
bulletin
bulletproof
bully
buloongo
bulrush
bulu
bulunga
bumba
bumbiro
bumburu
bumburudzi
bumbwa
bumha
bumhi
bumhira
bumi
bunch
bunched
bundle
bundo
bundu
bundutso
bune
bung
bunga
bungu
bunguzeze
bunoge
bunonga
bununu
bupilo
bupira
bur
bura
burden
bure
burger
burgundy
buri
burial
buried
burimhuri
buritsa
burkina
burma
burn
burned
burning
burnt
burrow
burrowing
bursa
bursts
buru
burumbwa
burundi
burunga
bururu
buruvuru
bury
bus
busa
bush
bushbuck
bushes
bushu
bushwillow
bushy
busi
busia
busied
business
businessman
busonga
busy
but
buta
butaala
butaka
butala
butale
butali
butcher
bute
butha
buthana
buti
butoka
butsu
butt
butter
butterfly
buttock
buttocks
button
butu
buu
buureengu
buusi
buwa
buwe
buxifolia
buy
buyambi
buyer
buying
buyu
buyurimwe
buzi
buzumo
buzz
buŋ
buŋga
bv
bveke
bveni
bvira
bvokocho
bvudzi
bvuma
bvumavaranda
bvumba
bvumo
bvungapfunga
bvunye
bvunza
bvunzo
bvupa
bvura
bvute
bvuururo
bvuvo
bw
bwa
bwai
bwalo
bwalya
bwami
bwana
bwanga
bwato
bwe
bwenge
bwere
bweru
bwerudza
bwile
bwino
bwirazuva
bwola
bx
by
bz
bɑ
bɑr
bɔ
bə
bɛ
bɩnkɛ
bɪ
bʊ
c
c0
c1
c2
c3
c4
c5
c6
c7
c8
c9
ca
cabaret
cabbage
cache
cactus
cad
caesar
caffra
cage
caiman
cairo
cake
cala
calabash
calamity
calaz
calcium
calculate
calculated
calculation
caleb
caledonia
calendar
calf
calico
california
call
called
calligraphy
calling
calls
calm
calmette
calmness
calvin
cam
cambodia
cambridge
came
camel
camellia
cameroon
cammera
camp
campaign
camps
can
canaan
canada
canadian
canal
cancer
candidate
candle
cane
canidae
canine
caning
canini
canis
canisius
cannon
cannot
canoe
canoes
canopus
canvas
cap
capability
capable
capacity
capassa
cape
capense
capensis
capillary
capital
capitol
capleton
capparis
capricon
capricorn
caprivi
caps
captain
captive
captives
captivity
capture
captured
car
caravan
carbide
carbohydrates
carbon
card
cardinal
care
career
carefree
careful
carefully
carefulness
careless
carelessly
carelessness
caress
caretaker
cargo
carl
carlos
carmel
carnivore
carnivorous
carol
caroline
carpenter
carpentry
carpet
carrere
carried
carrier
carries
carry
carrying
cart
cartridge
carve
carved
carving
case
cases
cash
cashel
casi
cassava
cassia
cast
caste
castle
castor
castrate
castrated
casual
cat
cataract
catch
catching
category
caterpillar
caterpillars
catfish
cathedral
cathode
catholic
catholyte
cathrine
cations
cattle
caucasian
caught
caus
causative
cause
caused
causes
causing
cautious
cave
cavendish
caves
cavity
cb
cc
cd
cdc
cdot
cdots
ce
cease
cecil
cecilia
celebration
celebrations
celebrity
celeste
celestino
cell
cells
cellular
celsius
celtis
cement
cemetery
censure
census
centenary
center
centers
centipede
central
centre
centripetal
century
ceo
cephas
ceramic
cereal
ceremonies
ceremony
certain
certainty
cervical
cervix
cessation
cf
cg
ch
cha
chaana
chababa
chabarika
chabata
chabikwa
chabuka
chabva
chabvamuperu
chabvonga
chabvuta
chachekwa
chacho
chad
chadereka
chadyiwa
chadzera
chadzvurwa
chaenda
chafamba
chafesuka
chaff
chafukwa
chagara
chagonda
chaguduka
chagurira
chagutira
chahuvhe
chai
chaibva
chaicho
chaidzidzisa
chaiko
chain
chainzi
chaipa
chaipo
chair
chaira
chairman
chairo
chaishandiswa
chaisingadyi
chaiswa
chaita
chaitika
chaiva
chaive
chaivo
chaiwo
chaiye
chaiyo
chaizvo
chaji
chaka
chakabatana
chakabatanidzwa
chakaburitswa
chakabva
chakadai
chakadaro
chakadirwa
chakadzika
chakaenzana
chakafa
chakafanana
chakagadzirwa
chakagara
chakahwina
chakaipa
chakaipisisa
chakaita
chakaitika
chakaitwa
chakajeka
chakakamurwa
chakakosha
chakakumbanidza
chakakura
chakakurumbira
chakakwana
chakakwirira
chakali
chakamira
chakanaka
chakanakira
chakanangana
chakandama
chakandwa
chakanga
chakanyanya
chakanyorwa
chakanyuka
chakanzi
chakaoma
chakapamhama
chakapararira
chakapetwa
chakapfava
chakapihwa
chakapinza
chakare
chakareba
chakarembedzwa
chakarembera
chakareruka
chakari
chakarukwa
chakarurama
chakasara
chakashata
chakasiiwa
chakasikwa
chakasimba
chakasiyana
chakasungwa
chakasununguka
chakata
chakatakura
chakatandarika
chakatanga
chakatarisana
chakatekeshera
chakati
chakaumbana
chakaumbwa
chakaunganidza
chakaurungana
chakauya
chakavakwa
chakavezwa
chakavharika
chakavigwa
chakawanikwa
chakawumbwa
chake
chakeredza
chako
chakona
chakonda
chakota
chakwa
chakwanza
chakwita
chala
chali
chalk
challa
challenge
challenges
challenging
chalo
chama
chamai
chamapiwa
chambenge
chamber
chambers
chambizo
chambo
chamboko
chambuko
chameleon
chamhembe
chaminuka
chaminungwe
chamo
champion
championship
chamu
chamudzungururu
chamuhwande
chamumbwa
chamunorwa
chamupupuri
chamwari
chan
chana
chance
chancellor
chanda
chandakadzi
chandengenda
chando
chandza
chandzo
chanetsa
chang
changa
changamire
change
changed
changes
changing
changmin
changu
chanhasi
chani
chanja
chanjandara
channel
chant
chanza
chanzi
chanzo
chapangura
chapara
chapararira
chaparira
chapatarongo
chapepa
chapera
chaperuka
chapfunga
chapinda
chapinduka
chapinga
chapingidza
chapotera
chapter
chapungu
chapupu
chapwanya
chara
character
characteristic
characteristics
charadza
charaka
charama
charamba
charara
charasika
charcoal
charehwa
charge
charged
chari
charity
charlene
charles
charlie
charm
charmaine
charms
charo
charova
charovedzera
chart
chartered
chartreuse
charumbira
charungura
charwara
charwe
chasakwa
chasambazika
chase
chasi
chasm
chasten
chastise
chasvika
chat
chataika
chatema
chatemabanze
chatemagombwe
chatemamhomho
chatemamwari
chatemanjonda
chatemanyanzvi
chatemavabinyi
chati
chatikita
chatinodya
chatonda
chatora
chatter
chatukuta
chatunga
chaturikirwa
chaukura
chaunga
chaunoda
chauri
chava
chavanoda
chavarika
chave
chavo
chavovo
chavuma
chawanda
chawapiwa
chawo
chayera
chayina
chayo
chaza
chazvo
che
cheafrika
cheafurika
cheamerika
cheap
cheat
cheating
chebamba
chebasa
chebhuku
cheboka
chechamhembe
chechayina
cheche
chechetere
chechi
chechibani
chechikadzi
chechikristu
chechina
chechinhu
chechinyakare
chechinyorwa
chechipiri
chechirungu
chechirwere
chechishanu
chechishona
chechitatu
chechiuno
check
checovid
chedahunha
chedenderedzwa
chedenga
chedu
chedumbu
chedunhu
chedza
chedzidzo
chedzinza
cheek
cheeks
cheenglish
cheese
cheezhiya
cheffers
chefu
chefundoyetsimba
chega
chegomo
chegonyonhatu
chegumbo
chegumi
chegutu
chehondo
chehuchi
chehunyanzvi
chehupenyu
chehuremu
chehurumende
chehuwandu
cheislam
cheka
chekare
chekiwani
chekoriya
cheku
chekuamerica
chekuchamhembe
chekuchengetedza
chekuchera
chekuda
chekudya
chekudzidzisa
chekufanza
chekugadzira
chekugona
chekugwamba
chekuita
chekumisa
chekupa
chekupedzisira
chekuroorana
chekusunungura
chekutanga
chekuti
chekutsvaga
chekuuraya
chela
chema
chemagombenyina
chemajudah
chemakumi
chemanheru
chemari
chemasvomhu
chematombo
chemazuva
chemazuvano
chemba
chembere
chemera
chemhandara
chemhando
chemhanzi
chemhembe
chemhuka
chemical
chemically
chemicals
chemina
chemishonga
chemist
chemistry
chemitauro
chemombe
chemotherapy
chemudurikidzanwa
chemukadzi
chemukaka
chemukati
chemunda
chemunew
chemunhu
chemunhukadzi
chemuravanegumi
chemurume
chemusoro
chemutauro
chemutevedzeri
chemuti
chemuviri
chemuzimbabwe
chemvura
chemwaka
chemwana
chemweya
chen
chena
chenai
chenda
chenga
chengarava
chengetai
chengetayi
chengo
chengu
chenguva
chenhabvu
chenhambwe
chenhangande
chenhengo
chenhomba
cheni
chenje
chenjedzo
chenjerai
chenjodzi
chennai
chenye
chenyika
chenyu
chenza
chenzungu
chenzvimbo
chepakati
chepamusoro
chepasirose
chepfu
chepfungwa
chepimanyika
chepiri
chepo
cheprimary
chepuraimari
chera
chere
cherechedzai
cherish
chero
cheroman
cherry
cheruambamhenyu
cheruambanyeredzi
cherudzi
cheruwoko
chesainzi
chesango
chescience
chese
chesekondari
cheshiri
cheshuga
cheshuramatongo
chesimbi
chess
chest
chester
chetarachisi
chetaranyika
chetatu
chetb
chete
chetero
cheteyo
chetsika
chetsoka
chevagari
chevakwasvi
chevanhu
chevarimi
chevashandi
chevashona
chevatengi
chevron
chew
chewa
chewed
chewing
cheya
chezana
chezasi
chezimbabwe
chezita
chezulu
chezuva
chezvikamu
chezvinhu
chezvinotevera
chezvipenyu
chezvirwere
chezvitsuwa
chezwi
chi
chiadzwa
chiakoose
chiamba
chiambamhenyu
chiambandanga
chiambanzanga
chiambi
chiandana
chianza
chiara
chiarabhu
chiaramu
chiazeri
chibage
chibaka
chibale
chibanda
chibange
chibantu
chibanze
chibaradenda
chibarinye
chibatiro
chibatiso
chibato
chibaya
chibayiro
chibendo
chibere
chibereko
chibeto
chibhakera
chibhama
chibhantu
chibharo
chibhebhe
chibhende
chibhengari
chibhokisi
chibi
chibinge
chibisa
chibodzi
chibodzwa
chibooreso
chibuku
chibune
chibuti
chibuza
chibvumirano
chibwe
chicago
chichangotanga
chichava
chichayina
chichena
chicherwa
chichetu
chichewa
chichi
chichibuda
chichibva
chichifamba
chichiita
chichinge
chichinzi
chichiparura
chichireva
chichiri
chichishandisa
chichishandiswa
chichiso
chichitevedza
chichiva
chick
chicken
chickenpox
chida
chidaka
chidamba
chidamoyo
chidau
chidawanyika
chidawo
chidembo
chidenhi
chidester
chideu
chidewu
chideya
chidhakwa
chidhau
chidhindo
chidhinha
chidhongi
chidiki
chidimbu
chido
chidoda
chidodo
chidoko
chidokohori
chidokwa
chidongo
chiduku
chidya
chidyausiku
chidyiwe
chidyo
chidza
chidzero
chidzidzi
chidzidzo
chidzikwe
chidziro
chidzitiro
chidziva
chidziviro
chidzo
chidzoke
chidzonga
chidzudzani
chiedza
chief
chiefdom
chiefs
chiefship
chieftain
chieftainship
chiendambuya
chiera
chifamba
chifananidzo
chifani
chiffon
chifo
chifufuro
chifukidziro
chifumo
chifunda
chifundo
chifungo
chifurenji
chifuro
chifurufurudhe
chifwamba
chiga
chigaazira
chigaba
chigadzamapfihwa
chigadzirwa
chigagairwa
chigamba
chiganda
chigango
chiganze
chigaro
chigava
chigayo
chigebenga
chigero
chigeveng
chigevenga
chigiriki
chigodora
chigomba
chigombe
chigombo
chigonda
chigondiso
chigoya
chigu
chigubhu
chigumbu
chigumbura
chigumi
chigumira
chigumo
chigunda
chigunwe
chigura
chiguro
chigutiro
chigutsa
chiguvare
chiguwa
chigwa
chigwada
chigwana
chigwedere
chigwenembe
chigwindiri
chihara
chihebheru
chihera
chihobo
chihoboya
chihombe
chihombori
chihomwe
chihota
chihumbiri
chihuri
chihwa
chihwesa
chii
chiikuhane
chiilomo
chiine
chiinuiti
chiitari
chiite
chiitike
chiitiko
chiito
chijaka
chijana
chijapani
chijemeni
chijudha
chikabudura
chikadyana
chikadzi
chikafu
chikaka
chikalanga
chikamba
chikambi
chikamu
chikandi
chikanga
chikanganiso
chikanganwahama
chikanya
chikanza
chikara
chikarakara
chikaranga
chikasa
chikasha
chikata
chikavayika
chikepe
chikerema
chikero
chiketa
chikete
chiko
chikobvu
chikodza
chikodzi
chikodzo
chikohwa
chikoko
chikomba
chikombarume
chikombe
chikombedzi
chikombo
chikombora
chikomborero
chikomo
chikonda
chikonde
chikondere
chikondi
chikondo
chikone
chikonga
chikonge
chikongo
chikoni
chikono
chikonono
chikonzero
chikonzi
chikope
chikopo
chikopokopo
chikore
chikorekore
chikoriya
chikoro
chikorwa
chikosha
chikosi
chikosoro
chikota
chikote
chikotera
chikoto
chikotsa
chikovera
chikowa
chikowe
chikowo
chikowore
chikoya
chikozo
chikristu
chikuhwa
chikuko
chikuku
chikukumira
chikukura
chikukutu
chikulupi
chikumbatidzo
chikumbi
chikumbiro
chikumbu
chikumi
chikumo
chikuna
chikunda
chikungu
chikunguru
chikuni
chikunja
chikunya
chikupo
chikura
chikuri
chikuru
chikurunhe
chikuruwo
chikuse
chikusi
chikuta
chikuti
chikutse
chikutu
chikuva
chikuvamagwaro
chikuvanyanga
chikuwo
chikwaka
chikwama
chikwanda
chikwangwani
chikwanha
chikwapuro
chikwari
chikwata
chikwatamabwe
chikwato
chikwava
chikwawa
chikwaya
chikwekwe
chikwera
chikwere
chikwereti
chikwesa
chikweshe
chikweya
chikwingwizha
chikwinya
chila
chilambo
chilanga
child
childbirth
childhood
children
chile
chili
chill
chilli
chilly
chilo
chilolo
chilombo
chilonda
chilonga
chilongwe
chilufya
chilundu
chima
chimanda
chimande
chimanga
chimanimani
chimanje
chimanjemanje
chimanya
chimanyika
chimbalazi
chimbamba
chimbangu
chimbara
chimbarange
chimbare
chimbeva
chimbikiti
chimbiro
chimbishi
chimbo
chimbumu
chimbuzi
chimbwa
chimbwamupengo
chimbwanda
chimbwi
chimedu
chimene
chimenya
chimera
chimhamhiwa
chimhanda
chimhini
chimimino
chimiriro
chimiro
chimiso
chimo
chimodza
chimokoto
chimombe
chimonyo
chimotsi
chimotso
chimpanzee
chimsoro
chimuchiti
chimuka
chimuko
chimukuyu
chimumumu
chimunyepfu
chimupika
chimurenga
chimuti
chimwana
chimwanda
chimwandamwanda
chimwanengara
chimwara
chimwe
chimwechete
chimwecho
chimwewo
chin
china
chinake
chinaku
chinamano
chinamasa
chinamatira
chinamato
chiname
chinamhora
chinanazi
chinanga
chinangwa
chindali
chindara
chindau
chindebele
chindende
chindevele
chindevere
chindeya
chindimba
chindindo
chindini
chindondo
chindori
chindoto
chindunduma
chine
chinembiri
chinembo
chinenge
chinengo
chinepfu
chinese
chinga
chingadaro
chingafananidzwa
chingaira
chingala
chinganga
chingashandiswa
chingava
chingezi
chingo
chingono
chingore
chingoto
chingulu
chinguri
chinguva
chinguwa
chingwa
chingwaru
chinhambwe
chinho
chinhoyi
chinhu
chinja
chinjinji
chink
chino
chinobata
chinobatanidza
chinobatsira
chinobhadharwa
chinobhiini
chinobikwa
chinobuda
chinoburitsa
chinobva
chinocontainer
chinoda
chinodanwa
chinodarika
chinodiwa
chinodudza
chinodudzira
chinodudzirwa
chinodya
chinodyiwa
chinodzidziswa
chinodzivisa
chinodzokorora
chinodzosera
chinofamba
chinofanirwa
chinofungidzirwa
chinogadzirwa
chinogara
chinogona
chinogonawo
chinoiswa
chinoita
chinoitika
chinoitirwa
chinoitwa
chinokonzera
chinokonzerwa
chinokoro
chinokosha
chinokotama
chinokumbanidza
chinokura
chinokwana
chinokwanisa
chinokwaniswa
chinomirira
chinonaya
chinongo
chinono
chinonyanya
chinonyorwa
chinonzi
chinooneka
chinoonekwa
chinoongorora
chinopa
chinopananwa
chinoparadza
chinopararira
chinopfekwa
chinopinda
chinopisa
chinopiwa
chinopoterera
chinoputika
chinorarama
chinoratidza
chinorema
chinorembedzwa
chinoreva
chinorukwa
chinosanganisa
chinosanganisira
chinosara
chinosarira
chinoshanda
chinoshandisa
chinoshandiswa
chinoshanduka
chinosimbisa
chinosionekwa
chinosvika
chinotakura
chinotanga
chinotapukira
chinotapuriranwa
chinotaridza
chinotaridzika
chinotarisa
chinotarisirwa
chinotaura
chinotaurwa
chinotendera
chinotengwa
chinotevedza
chinotevedzana
chinotevera
chinoti
chinotoda
chinotonga
chinotonhora
chinotora
chinotorwa
chinotsanangura
chinotungamirwa
chinoumbwa
chinounganidza
chinounza
chinounzwa
chinouraya
chinova
chinovakwa
chinovamba
chinovhara
chinovhiringa
chinowanikwa
chinowanzo
chinowongorora
chinoyerera
chinoza
chinozivikanwa
chinu
chinubhia
chinwara
chinwiwa
chiny
chinya
chinyahara
chinyai
chinyakare
chinyama
chinyambiru
chinyambo
chinyamunhari
chinyamurawu
chinyange
chinyanhengo
chinyani
chinyanondo
chinyanye
chinyarwanda
chinyekenyeke
chinyemba
chinyoka
chinyora
chinyoro
chinyorwa
chinyudze
chinyuka
chinzvimbo
chiomba
chioza
chip
chipaka
chipakati
chipala
chipamhi
chipamukwani
chipamuriwo
chipanda
chipande
chipandemwana
chipando
chipandwa
chipanga
chipangamazano
chipangandimo
chipangano
chipango
chipangura
chipangwa
chipara
chiparadenda
chipare
chipari
chipasa
chipatara
chipato
chipauro
chipeke
chipembenene
chipembere
chipendo
chipeneti
chipenyu
chipenze
chipepera
chipepero
chipere
chiperengo
chipeta
chipfambi
chipfeko
chipfumbu
chipfundo
chipfunhu
chipfupi
chipfuva
chipfuyo
chiphanga
chipi
chipida
chipika
chipikiri
chipiko
chipimiso
chipimo
chipindi
chipindura
chipinga
chipinge
chipinya
chipipi
chipiri
chipiriso
chipo
chipoka
chipoko
chiponya
chiponzo
chiporombe
chiposha
chiposhi
chipotera
chipotero
chipoyera
chips
chipundo
chipungu
chipunu
chipupu
chipute
chiputukezi
chipwa
chira
chiradza
chirahwe
chiramba
chirambadare
chirambo
chiramwa
chirandu
chirangano
chirango
chirapa
chirara
chirariro
chirasha
chiratido
chiratidziro
chiratidzo
chiratini
chirau
chirauro
chiraviro
chiraya
chirayiro
chirebvu
chiredzi
chiredzwa
chirefu
chireka
chirema
chiremba
chiremera
chiremwaremwa
chirenda
chirendo
chirengo
chirere
chirevazita
chirevo
chirewa
chiri
chiridzwa
chirikadzi
chirikiza
chirima
chirimba
chirimi
chirimo
chirimuta
chirimwa
chirindi
chiringa
chiringara
chiringiro
chiripiro
chiripo
chiriri
chirisa
chiritsa
chiro
chirodza
chirodzero
chirodzo
chiroma
chirombo
chiromo
chironda
chirondo
chironga
chirongo
chirongwa
chirongwe
chironzo
chiroodza
chiropa
chiroro
chiroto
chirove
chirowodza
chirozva
chirugumbana
chiruka
chirukwa
chirumanzu
chirumbu
chirume
chirumhanzu
chirunda
chirundu
chirunga
chirungo
chirungu
chirungurira
chirwa
chirwere
chirwirangwe
chisa
chisaka
chisamarengu
chisamba
chisambi
chisana
chisanga
chisano
chisapa
chisara
chisarudzo
chisasa
chisase
chisati
chisau
chisawa
chisazita
chisel
chisembe
chisemiti
chisena
chisenga
chisengo
chisepe
chisepo
chisero
chisese
chishamiso
chishandiso
chishanu
chishara
chishashavira
chishava
chishawa
chishawasha
chishemu
chishoma
chishona
chishongo
chishongrish
chishupa
chishuvo
chishuwo
chisi
chisika
chisikana
chisike
chisikwa
chisimba
chisimbi
chisimbiso
chisimbwa
chisimira
chisina
chisingashanduke
chisingayerere
chisipiti
chisipo
chisiri
chisirimunhu
chisita
chisivhiri
chiso
chisoka
chisoko
chisoma
chisomari
chisomo
chisonga
chisongo
chisoni
chisoro
chisotho
chistandadhi
chisumamunyati
chisumbwa
chisungo
chisunguro
chisutu
chisuvi
chisuwahili
chisveru
chisvipa
chisvo
chisvusvuro
chiswa
chiswahili
chiswahiri
chiswati
chiswili
chita
chitadzo
chitagu
chitai
chitaitai
chitaka
chitakatira
chitamakota
chitambara
chitambi
chitambira
chitambo
chitambuzenene
chitanda
chitandiro
chitando
chitangala
chitapa
chitara
chitare
chitari
chitarisiko
chitata
chitate
chitatu
chitau
chiteka
chitema
chiteme
chitena
chitenderano
chitendero
chitendo
chitenga
chitengu
chitepo
chitera
chiteshi
chitete
chiteve
chiti
chitiga
chitiko
chitima
chitimiko
chitofu
chitoma
chitonga
chitonge
chitongo
chitope
chitore
chitoro
chitorwa
chitowa
chitsa
chitsaka
chitsama
chitsari
chitsaru
chitsauko
chitsaya
chitsere
chitsi
chitsidzo
chitsiga
chitsika
chitsiko
chitsinde
chitsinzinzi
chitsitsi
chitsitsinho
chitsoko
chitsonga
chitsora
chitsumbu
chitsunge
chitsungo
chitsuwa
chitsva
chitsvitswa
chitsvuku
chitswa
chitswana
chitu
chitubu
chituko
chitukutuku
chitumba
chitumbo
chitumbu
chitumbuka
chitumbura
chitundu
chitungu
chitunguru
chitungwiza
chitunha
chitupa
chitura
chituro
chituru
chituruki
chituso
chituta
chitutu
chituwa
chituwo
chiumbiko
chiumbu
chiumbwa
chiundu
chiunga
chiungo
chiuno
chiunwa
chiunziko
chiuru
chiusiwa
chiuto
chiutsi
chiva
chivabvu
chivabwa
chivaka
chivakamberi
chivakashure
chivakwa
chivamba
chivambe
chivangu
chivanhu
chivanze
chivara
chivarange
chivare
chivasa
chivata
chivavatara
chive
chivenda
chivepo
chiverevere
chivero
chivese
chiveve
chivezwa
chivharo
chivhenda
chivhinyu
chivhiyetinamu
chivhu
chivhunga
chivhuni
chivhuramabwe
chivi
chivimbiso
chivindi
chivingwi
chiviri
chivizhe
chivunga
chivungu
chiwa
chiwaka
chiwamba
chiwana
chiwandamira
chiwandika
chiwandire
chiwanga
chiwanza
chiwara
chiware
chiwashira
chiwawa
chiwaza
chiweda
chiwenga
chiwepu
chiwera
chiweshe
chiweta
chiwi
chiwira
chiwirano
chiwoka
chiwokomuhomwe
chiwombolo
chiworeka
chiwota
chiwumbiko
chiwumbilo
chiwumbwa
chiwunga
chiwungwe
chixhosa
chiya
chiyaka
chiyamba
chiyambi
chiyambo
chiyangwa
chiyangwe
chiyao
chiyavayo
chiyawa
chiyaya
chiyera
chiyero
chiyeuchidzo
chiyoka
chiza
chizanga
chizangaziko
chizano
chizazamburo
chizere
chizezuru
chizhinji
chizigula
chizinga
chizingiri
chizivano
chiziviso
chizora
chizulu
chizungu
chizuru
chizvarirwo
chizvarwa
chloride
chlorine
chobe
chodeva
chodzimikirwa
choga
chohuwandu
choi
choice
choir
choke
choked
chokera
chokubata
chokubvisa
chokuchengetedza
chokudya
chokuita
chokukutsirana
chokunge
chokupedzisira
chokutambudzika
chokutanga
chokuti
chokuvaka
chokuwanisa
chokuziva
chokwadi
chokwe
chokwidzwa
choma
chombe
chombo
chomene
chomumwe
chomwana
chomwe
chongo
chonzi
choose
chooses
choosing
chop
chopi
chopped
chopping
chorus
chose
chosen
choson
chosun
chote
choto
choumambo
choupenyu
chouviri
chowadya
choya
chris
chrispin
christ
christabel
christelle
christian
christianity
christine
christmas
christopher
chroma
chrome
chromosome
chromosomes
chronic
chronicle
chronological
chubwi
chulu
chuma
chumba
chumbu
chunga
chura
churama
church
churchill
churu
chuwabo
chɛ
ci
cid
cie
cigarette
cigebenga
cikebenga
cila
cilayo
cilemba
cili
cilungu
cimbwi
cina
cincture
cindika
cindy
cinema
cinerea
cinga
cipeta
cir
cira
circle
circles
circuit
circuits
circular
circulate
circulatory
circumcise
circumcised
circumcision
circumference
circumstance
ciri
cis
cisaka
cisanza
cisi
cit
citali
citation
cite
citeseerx
citi
cities
citizen
citizens
citizenship
citongo
citrus
cittaattu
city
civava
civet
civil
civili
civilisation
civilization
ciwa
cj
ck
cl
claim
claire
clan
clap
clara
clarity
clasp
class
classes
classification
classify
claude
claw
clay
clayey
claypot
clayton
clean
cleaning
cleanliness
cleanness
cleanse
clear
cleared
clearing
clearly
clearness
cleave
cleft
cleistochlamys
clemence
clement
clenched
cleome
clerk
clerodendrum
clever
cleverness
click
cliff
clifford
clifton
climate
climb
climbing
cling
clinic
clinical
clio
clitoris
clive
clock
clockwise
clod
clods
close
closed
closely
closer
closing
cloth
clothe
clothes
clothing
cloud
clouds
club
clump
clumsy
cluster
clusters
cm
cms
cn
cnn
cnr
co
coagulate
coagulated
coal
coalition
coals
coarse
coarsely
coast
coastal
coat
coates
coating
cob
cobra
cobs
cobweb
cochrane
cock
cockroach
coconut
cocoon
coffee
coil
coiled
coin
cola
colander
cold
collaboration
collaborators
collapse
collapsing
collar
collect
collected
collecting
collection
collective
collector
colleen
college
collen
collide
collins
collinum
collision
colombia
colonial
colonize
colony
color
colors
colostrum
colour
coloured
colours
columbia
columbina
column
com
comb
combination
combine
combined
combining
combretum
come
comeback
comes
comfort
comfortable
comfortably
comico
comics
coming
comma
command
commanded
commander
commandment
comme
commemorations
commence
commencement
commend
commensurate
commentary
commerce
commercial
commiphora
commission
commit
committed
committee
common
commoner
commonly
commonwealth
commotion
communal
commune
communicate
communication
communion
communis
communism
communist
community
compact
companion
companions
companionship
company
comparative
compare
comparison
compartment
compass
compassion
compel
compensate
compensation
compete
competent
competition
compilation
compiles
complain
complainant
complaining
complaint
complete
completed
completely
completeness
complex
complexion
complicate
complicated
compliment
component
compose
composer
compositae
composite
compound
compounding
compounds
comprehensive
compress
compulsory
computer
comrade
con
concave
conceal
concealed
concealment
conceited
conceive
conceiving
concentrate
concentration
concept
conception
concern
concerned
concerning
concerns
concert
concerted
concession
concetration
conclude
conclusion
concord
concrete
concubine
condemn
condensation
condensed
condiment
condition
conditions
condom
conduct
conductor
condylocarpon
conference
confess
confidence
confident
confine
confinement
confirmed
confiscate
conflict
confluence
conform
confound
confratenity
confraternity
confuse
confused
confusion
congeal
congealed
congo
congregate
congregation
congress
congruency
conical
conj
conjugate
conjuring
connect
connected
connection
conquer
conscience
consciousness
consent
consequence
consequences
conservation
conserve
consider
considerable
consideration
considered
consistency
console
consoling
consonants
conspiracy
conspire
constance
constant
constantine
constantly
constellation
constipated
constipation
constituency
constitution
constrain
constraint
constrictor
construct
constructed
construction
constructions
constructive
constructs
consult
consultation
consumed
consumption
contact
contagious
contain
container
containing
contemporary
contempt
contemptuously
content
contents
contest
context
continent
continual
continually
continue
continuous
continuously
continuum
contour
contraception
contract
contracting
contradict
contradiction
contradistinction
contrary
contribute
contribution
contributors
contrive
control
controlled
controller
controversial
controversy
convalescent
convenient
convent
conventional
converge
convergence
conversation
converse
convert
converted
converting
convex
convey
conveyed
convict
convince
convinced
conzi
cooing
cook
cooked
cooking
cool
cooling
coolness
coop
cooperate
cooperation
coordinate
coordinates
copa
copadomundo
copenhagen
copies
copper
copulate
copy
copyright
cord
cordatum
cordiality
core
coriacea
cork
corn
corner
coronavirus
corporation
corps
corpse
corpulence
correct
correctness
corrosion
corrupt
corruption
cosine
cosmas
cosmetic
cosmos
cost
costa
costs
costume
cote
cottage
cotton
cough
coughing
could
council
councillor
councillors
councilor
counsel
counsellor
count
countable
countdown
counted
countenance
counter
counterfeit
counterpart
counting
countries
country
county
coupe
couple
courage
courageous
course
court
courtesy
courtier
courts
courtyard
cousin
cousins
cov
covalent
covenant
cover
covered
covering
covers
covid
cow
coward
cowardice
cowardly
cower
cowering
cowpox
cows
cp
cq
cr
crab
crack
cracked
cracking
cracks
cradle
craft
craftiness
craftsman
crafty
cram
cramp
crane
crave
craven
craving
crawl
crawling
crayfish
crazy
cream
create
created
creates
creation
creative
creator
creature
creatures
credit
creep
creeper
creeping
creole
crest
crested
crew
cricket
cries
crime
criminal
cripple
crippled
crisis
crispa
critic
critical
criticism
criticize
critics
croatia
croatian
crocodile
crocodiles
crook
crooked
crookedness
crop
crops
crosby
cross
crossed
crossing
crossover
crossroads
crosswise
croton
crouch
crouching
crow
crowd
crowded
crown
cruel
cruelty
crumb
crumbs
crush
crushed
crust
cry
crying
crystal
crystall
cs
ct
cu
cub
cubic
cubit
cucumis
cuddle
cuisine
cultivate
cultivated
cultivating
cultivation
cultural
culture
cultures
cunning
cunningness
cup
curatellifolia
curd
cure
cured
curitiba
curl
curled
curly
curr
currency
current
curse
curve
curved
cussonia
custard
custom
customary
customer
customs
cut
cuthbert
cuts
cutter
cutting
cv
cw
cx
cy
cyber
cycle
cycles
cylindrical
cynthia
cypher
cyril
cz
czech
czechoslovakia
czechs
cʉ
d
d0
d1
d2
d3
d4
d5
d6
d7
d8
d9
da
daa
daama
daana
daanha
daara
daba
dad
dada
daddy
dade
dadi
daga
dagbani
dagga
dahu
dahwa
dai
daily
dainty
daka
dakar
dakara
dakarai
dakataka
dakwa
dal
dala
dalaa
dalbergia
dale
dali
daly
dam
dama
damage
damba
dambarefu
dambi
dambisa
dambo
dambudziko
dambudzo
damp
dan
dana
danai
danal
danbi
dance
dancehall
dancer
dancing
danda
dandadzi
dandadzira
dandamera
dandanda
dandanyarwa
dandara
dandare
dandaringo
dandato
dandaudzira
dande
dandemutande
dandi
dandira
dandiranyika
dandy
dang
danga
dangamvura
dangara
dangarembga
dangarembwa
dangbe
danger
dangerous
dangle
dangme
dangwe
danha
danhadanha
danhautande
danhiko
danho
daniel
dapatsikidzi
dapi
dar
dara
daradada
daramombe
darare
daraunene
dare
darejena
dari
daring
daringo
darisanwa
dark
darkness
darling
darlington
daro
dart
daru
darwendale
darwin
das
dash
data
database
date
dates
dati
datu
datura
datya
dau
daughter
daughters
davi
david
davies
davis
dawa
dawlat
dawn
day
daylight
days
daytime
daŋ
db
dc
dd
de
dead
deaf
deafness
deal
dealing
dean
dear
death
deaths
debate
debility
deborah
debra
debris
debt
debtor
debts
debut
debva
debvama
dec
decade
decay
deceased
deceit
deceitful
deceive
deceiver
deceives
december
deception
deceptive
decide
deciduous
decimal
decision
declaration
declare
decline
decompose
decorate
decoration
decrease
decree
decrepit
dede
dedicate
deduct
dedza
dee
deed
deeds
deep
deeper
deeply
deer
defa
defaecate
defamation
defame
default
defeat
defecate
defect
defective
defence
defend
defense
defiance
deficiency
deficient
define
defined
definite
definitely
definition
definitive
deflate
deformity
defraud
defy
degrade
degree
degrees
dehenya
dehwe
deka
dekamuteka
deke
dekenyera
dekeshe
dekeshera
dekeshu
dekeshudza
dekeshuka
deketa
deko
deku
dekune
del
delay
delayed
delays
dele
delegate
delhi
deliberately
deliberation
delicacies
delicacy
delicate
delicately
delicious
delight
delirious
delirium
deliver
delivered
delivery
delta
deluxe
dem
dema
demand
demarcation
demba
dembedza
dementia
demhe
demo
democracy
democratic
demolish
demon
demonstrate
demonstration
demoralize
den
denda
dende
dendemadza
dendemaro
dendenedzu
dendera
dendere
denderedzigama
denderedzwa
denderende
dendrites
denenga
denengu
denengura
denford
denga
dengai
denganyika
denge
dengende
dengezeze
dengu
denha
denhe
denhedza
denhere
denial
denigrate
denis
denmark
dennis
denotes
denoting
dense
density
dent
dented
deny
denya
deo
depart
department
departure
depend
dependence
dependent
depends
depo
deposit
depressed
depression
deprive
deprived
dept
depth
depute
deputy
der
dera
dere
deredza
derembwe
derere
derivation
derivative
derived
derrick
des
descend
descendant
descendants
descending
descent
describe
describes
description
desert
deserted
deserter
desertion
deserve
design
designate
designer
designs
desire
desired
desk
desmond
desolate
desolation
despair
despise
despised
despoil
destination
destitute
destroy
destroyed
destroyer
destruction
destructive
desvenenga
det
detach
detachable
detail
detailed
details
detain
dete
detembo
deteriorate
determination
determine
determined
determines
determining
detour
detouring
deva
devastation
deve
develop
developed
development
deviate
deviation
device
devices
devil
devise
devoted
devour
dew
dewa
dewlap
dexterity
df
dg
dh
dhadha
dhaga
dhaka
dhamu
dhandanda
dhanieri
dhanzi
dhara
dhata
dhatabhesi
dhehwa
dhewa
dhi
dhidhizha
dhigiri
dhigirii
dhijitari
dhinyero
dhiravhidhiya
dhiri
dhiskogirafi
dhizaini
dhl
dhodhi
dhongi
dhonza
dhorobha
dhu
dhuku
dhumbe
dhumbudya
di
dia
diagnosis
diagonally
dialect
dialects
diamagnetic
diamond
diamonds
diana
diaphragm
diarrhoea
diary
dibango
dichrostachys
dictate
dictionary
did
didi
didinya
didn
die
died
diego
dies
difa
differ
difference
different
differently
difficult
difficulties
difficulty
diffusion
dig
digestive
digging
digi
digital
digitata
dignitary
dignity
digo
dihwa
dii
dika
dikatika
diki
dikidza
dikita
dikito
dilemma
dilemna
dili
diligence
diligently
dilly
dilute
diluted
dim
dima
dimba
dimbi
dimbu
dimbura
dimbwi
dime
dimension
dimensions
diminish
diminished
dimness
dimorphos
dimu
din
dindi
dindikwa
dindingwe
dindiri
dindiridza
dindiziri
dinga
dingindira
dingo
dinheiro
dinhidza
dinka
dino
dinoko
diode
dios
diospyros
dioxide
dip
diplomat
diplorhynchus
dira
direct
directed
direction
directions
directly
director
dirinhiri
dirt
dirty
dis
disability
disagree
disagreement
disappear
disappeared
disappearing
disappoint
disappointed
disappointment
disaster
discharge
discipline
disclose
discography
discolor
disconcerted
discord
discourage
discourse
discover
discovered
discovery
discriminate
discrimination
discuss
discussion
disdain
disease
diseases
disgrace
disgust
disgusted
disgusting
dish
dishes
dishonest
disinclination
disintegrate
disjoint
disk
dislike
dislocate
dislodged
dismantle
dismiss
dismissal
dismissed
dismount
diso
disobedience
disorder
disordered
disorderly
disorders
dispatch
disperse
dispersing
dispersion
display
displayauthors
displaystyle
displeased
disposition
dispute
disputed
disregard
disregarded
disrespectful
dissatisfaction
dissolve
dissolving
dissuade
distance
distances
distancing
distant
distend
distended
disticha
distillation
distinct
distinction
distinctive
distinctly
distinguish
distinguished
distinguishing
distracted
distraction
distress
distressed
distribute
distributed
distribution
district
districts
disturb
disturbance
disturber
disunite
ditch
ditema
diti
dititi
dive
diversify
diversity
divert
divi
divide
divided
dividend
divides
dividing
divine
diviner
divinorum
division
divorce
divulge
diya
diye
dizziness
dizzy
dj
djibouti
djimini
djvu
dk
dl
dlamini
dlanga
dm
dn
dna
do
doa
dock
docked
docs
docshare
doctor
doctrine
document
documentary
documented
documents
doda
dodge
dodging
dodo
dodoma
dodonaea
doek
doer
does
doesn
dofo
dog
dogs
doi
doing
doings
doka
doke
doko
dokwa
dole
dollar
dolo
dolphin
dom
doma
domain
domasi
domba
dombeya
dombo
dombodzvuku
dombojena
domboshava
dombotombo
dombowera
dombwe
dome
domestic
domesticate
domesticated
domicile
dominance
dominant
dominate
domingo
domingos
dominic
dominican
dominion
dominique
don
donald
donate
donation
dond
donda
dondi
dondo
dondori
done
dong
donga
dongo
dongora
dongorahweva
dongozi
donhodzo
donhwe
donje
donkey
donor
donsa
donzvo
doo
door
doors
doorsill
doorway
dope
dor
dora
dorcas
dore
doreen
doris
doro
dorothy
dosunmu
dot
dota
doto
double
doubt
dough
douglas
dova
dove
dovi
dovo
dovodzano
dovyalis
dowe
dowera
down
downfall
downhill
download
downpour
downstream
downward
downwards
downy
dowry
dp
dq
dr
dracaena
draft
drag
dragged
dragging
dragonfly
drain
drainage
drained
draining
drama
drank
draw
drawing
drawn
drc
dread
dream
dregs
drenched
dress
dressed
dressing
dried
drift
driftwood
drill
drink
drinking
drinks
drip
dripping
drive
driver
drives
driving
drizzle
drongo
drool
drooping
drop
dropped
drops
drought
droughts
drove
drown
drug
drugs
drum
drunk
drunkard
drunkeness
drunkenness
dry
drying
dryness
drysdale
ds
dt
du
dua
duala
duality
dube
duck
dudu
dudzirazivo
dudziro
due
duet
dug
dugout
duhwino
duiker
duka
duke
duku
dukununu
dukutu
dukutuku
dula
dull
dullness
dum
duma
dumb
dumba
dumbi
dumbness
dumbu
dumbura
dumidzo
dumisa
dumisani
dumula
duncan
dunda
dundundu
dunduru
dung
dungarwizi
dungo
dungunudza
dungupi
dungwe
dunhu
dunia
dununu
dunzvi
duo
duodenum
duplicate
dur
dura
duramahwi
duramazwi
duration
durban
duri
during
duro
duru
dusk
dust
dusty
dutavanhu
dutch
dutiro
dutsa
dutu
duty
duvemala
duvurwi
duwo
duzu
dv
dw
dwarf
dwarfishness
dwell
dwellers
dwelling
dx
dy
dya
dye
dying
dyke
dynamics
dynamite
dynasty
dysfunction
dz
dza
dzaamai
dzababa
dzacho
dzadza
dzadzo
dzahwerengedzwa
dzaibva
dzaiera
dzainge
dzaishandiswa
dzaita
dzaiva
dzaive
dzaka
dzakabata
dzakabatwa
dzakabikwa
dzakabudirira
dzakabva
dzakadai
dzakaderera
dzakadevana
dzakadya
dzakadzama
dzakadzika
dzakaenzana
dzakafa
dzakafanana
dzakagadzirwa
dzakaganhurana
dzakagara
dzakaguma
dzakaita
dzakaitwa
dzakakangwa
dzakakomberedza
dzakakomberedzwa
dzakakora
dzakakosha
dzakakura
dzakakurumbira
dzakakwirira
dzakanaka
dzakanga
dzakanyanya
dzakanyorwa
dzakaoma
dzakapfava
dzakapfuura
dzakapfuyiwa
dzakareba
dzakareruka
dzakariyata
dzakarongeka
dzakarongwa
dzakasarudzwa
dzakasimba
dzakasiyana
dzakasiyanasiyana
dzakatanga
dzakatarisana
dzakatenderedza
dzakatevedzana
dzakati
dzakatsakatika
dzakatsaukana
dzakavakidzana
dzakavakwa
dzakavandika
dzakawanda
dzakawomeswa
dzake
dzako
dzala
dzama
dzamara
dzamba
dzamushore
dzana
dzaneta
dzanga
dzangara
dzangare
dzangu
dzanza
dzaro
dzasukwa
dzasvika
dzava
dzavana
dzave
dzavo
dzawanda
dzawo
dzayo
dzazvino
dze
dzeafrica
dzeafro
dzeafurika
dzeboka
dzebts
dzechefu
dzechichayina
dzechijudha
dzechikadzi
dzechikristu
dzechimurenga
dzechindebele
dzechinyakare
dzechirume
dzechirungu
dzechirwere
dzechishona
dzechivanhu
dzedarisanwa
dzedu
dzedzidzo
dzedzinza
dzeeurope
dzega
dzehatomu
dzehondo
dzehugarohuviri
dzehupfumi
dzehurapi
dzehushangazhi
dzehusiku
dzekare
dzeko
dzekuafrica
dzekubereka
dzekuchamhembe
dzekudzivirira
dzekueurope
dzekufamba
dzekugadzira
dzekuita
dzekumabvazuva
dzekumadokero
dzekumaruwa
dzekunge
dzekunze
dzekupfuudza
dzekurapa
dzekurima
dzekurumbidza
dzekutanga
dzekutarisirwa
dzekuti
dzekuuraya
dzekwedu
dzemabwe
dzemafaro
dzemakavi
dzemakore
dzemanhanga
dzemanheru
dzemarudzi
dzemashanga
dzemativi
dzematongerwo
dzemazuva
dzembe
dzembeu
dzemhando
dzemhuka
dzemhuri
dzemichero
dzemishonga
dzemitauro
dzemitsetse
dzemombe
dzemoto
dzemu
dzemuafrica
dzemukadzi
dzemukaka
dzemukati
dzemuliberia
dzemumuviri
dzemuna
dzemunhu
dzemuromo
dzemurume
dzemusango
dzemusha
dzemutungamiri
dzemuviri
dzemuzimbabwe
dzemvura
dzenga
dzenguva
dzenhapwa
dzenhare
dzenhoroondo
dzenjanji
dzenyika
dzenzanga
dzenzou
dzenzvimbo
dzepabonde
dzepamaziso
dzepamusha
dzepasi
dzepasirose
dzerevende
dzeropa
dzerudo
dzerudzi
dzerungano
dzeruvara
dzeruzhinji
dzesainzi
dzesangano
dzesango
dzese
dzesikarudzi
dzesimbi
dzetaranyika
dzete
dzetsanga
dzetsika
dzetsivatsaona
dzevabereki
dzevachiri
dzevakadzi
dzevakuru
dzevamwe
dzevanhu
dzevarungu
dzevashavi
dzevashona
dzeveruzhinji
dzezimbabwe
dzezuva
dzezvematongerwo
dzezvinhu
dzezvirwere
dzi
dzichibva
dzichienda
dzichifura
dzichigadzira
dzichiita
dzichinge
dzichinodira
dzichipiwa
dzichiri
dzichitsvaka
dzichizogovaniswa
dzidza
dzidziso
dzidzo
dzihwa
dzihwampengo
dzihwamupengo
dziine
dziise
dziite
dzika
dzikamudza
dzikiti
dziko
dzikwanise
dzimano
dzimba
dzimbahwe
dzimbiri
dzimwe
dzimwewo
dzin
dzinda
dzinde
dzindi
dzindza
dzine
dzinenge
dzingai
dzingava
dzinge
dzingira
dzingire
dzingiri
dzingo
dzingu
dzino
dzinobata
dzinobatana
dzinobatsira
dzinobuda
dzinobuditsa
dzinoburitsa
dzinobva
dzinobviswa
dzinochekana
dzinochengeta
dzinochengeterwa
dzinochengetwa
dzinoda
dzinodaidzwa
dzinodarika
dzinodira
dzinodiwa
dzinodya
dzinodyiwa
dzinodzika
dzinodziya
dzinofamba
dzinofura
dzinogadzira
dzinogadzirwa
dzinogamuchira
dzinoganhurana
dzinogara
dzinogarwa
dzinogona
dzinoita
dzinoitika
dzinoitwa
dzinokambaira
dzinokasira
dzinokonzera
dzinokura
dzinokurudzira
dzinokwana
dzinokwanisa
dzinomera
dzinomhumha
dzinonatsa
dzinonwa
dzinonyanya
dzinonyorwa
dzinonzi
dzinoonekwa
dzinopa
dzinopereka
dzinopfuura
dzinopfuyiwa
dzinopihwa
dzinopinda
dzinopisa
dzinopiwa
dzinorarama
dzinoratidza
dzinoreba
dzinorema
dzinorimwa
dzinosangana
dzinosanganisa
dzinosanganisira
dzinosara
dzinoshanda
dzinoshandisa
dzinoshandiswa
dzinosimwa
dzinosiyana
dzinosunurwa
dzinosvika
dzinotakura
dzinotanga
dzinotapukira
dzinotarisirwa
dzinotatamuka
dzinotaura
dzinotaurwa
dzinotendera
dzinotenderwa
dzinotevera
dzinoti
dzinotonhora
dzinoumba
dzinova
dzinoveregwa
dzinoverengeka
dzinoverengwa
dzinovhima
dzinovhuvhuta
dzinowana
dzinowanikwa
dzinowanzo
dzinowedzera
dzinoyamwisa
dzinoyaruka
dzinoyerera
dzinozivikanwa
dzinozvara
dzinza
dzipi
dzira
dzirege
dziri
dzirikiti
dziriko
dzirimo
dziripo
dziro
dzisati
dzishande
dzisina
dzisingagamuchirike
dzisiri
dzitsi
dzitso
dzitsva
dziva
dzivarasekwa
dzivaureya
dzive
dziya
dzizere
dzkadai
dzo
dzobva
dzoga
dzokugara
dzokunze
dzokuti
dzoma
dzomuviri
dzonga
dzoro
dzose
dzote
dzu
dzungu
dzungudza
dzuwa
dzvadzi
dzvatsvatsva
dzvemere
dzvene
dzvimbu
dzvinamurungu
dzvinyu
dzvuku
dzvurira
dɔ
dɔgɔ
də
dɛ
dɩya
dʊ
dʒi
e
e0
e1
e2
e3
e4
e5
e6
e7
e8
e9
ea
each
eafrica
eafurika
eager
eagle
eakiso
ealphabet
eamerica
eamerika
ear
eared
earliest
early
earn
earnest
earns
ears
earth
earthen
earthenware
earthquake
ease
easily
east
eastern
easy
eat
eaten
eater
eating
eats
eaves
eb
eba
ebantu
ebasa
ebb
ebheni
ebi
ebola
ebony
ebscohost
ebudiriro
ec
echamhembe
echando
echi
echiarabhu
echibage
echibantu
echichayina
echichinese
echiedza
echigiriki
echijapani
echikaranga
echikoriya
echikoro
echikristu
echingezi
echinguni
echinhu
echinyakare
echipiko
echiputukezi
echiratini
echirungu
echirwere
echishona
echitema
echitofu
echivanhu
echivare
echivhenda
echo
echokwadi
eclipse
eclipsed
eco
ecocash
ecole
ecology
econet
economic
economics
economist
economy
ecosystem
ecuador
eczema
ed
eddy
edgar
edge
edible
edict
edinburgh
edirne
edison
edit
edited
edith
edition
editor
edmore
edmund
edo
eds
edu
educate
educated
education
edulis
edward
edwin
edzai
edzimwe
edzinza
ee
eel
een
eenglish
eezhiya
ef
effect
effective
effectiveness
effects
efficacy
efficient
effort
efforts
efik
efu
eg
ega
eganda
egermany
egg
eggplant
eggs
egomo
egonyonhatu
egore
egret
egrey
egungwa
egypt
egyptian
eh
ehan
ehe
ehondo
ehunyanzvi
ehupenyu
ehupfumi
ehuroro
ehurumende
ehushangazhi
ehusiku
ehutachiwana
ehute
ehwayi
ehydrogen
ei
eid
eight
ein
eindia
either
ej
ek
eka
ekabhoni
ekambani
ekare
ekasi
ekectrolysis
ekilu
ekirongwe
ekisaka
ekisodho
ekitaka
ekitanda
ekitara
ekonde
ekoriya
ekota
eksodo
eku
ekubata
ekuberekwa
ekuchamhembe
ekudzidza
ekudzivirira
ekugadzira
ekuita
ekuma
ekumabvazuva
ekumaodzanyemba
ekumba
ekunge
ekunyautsa
ekunyora
ekunze
ekuona
ekupedzisira
ekurapa
ekurima
ekuseni
ekushambadza
ekushandisa
ekusvetuka
ekutanga
ekutapa
ekuti
ekutonga
ekuveza
ekuzvara
ekuzvarwa
ekwa
ekyoto
el
ela
elana
eland
elbow
elder
elderly
elders
eldest
ele
elect
elected
election
electric
electrical
electricity
electrolysis
electromagnetic
electron
electrons
electrostatic
elegant
eleka
element
elemental
elementary
elements
elephant
elephantiasis
elephantina
elephantisis
elephantorrhiza
elephants
elevate
elevated
elevation
eleven
eleza
elias
elicit
elie
elijah
elina
elip
elise
elisha
elitedaily
elizabeth
elizalde
ellen
elliot
elliott
ellipse
elliptical
elomo
elope
eloquent
else
elsevier
elsewhere
elton
elvin
em
ema
emabasa
emabhuku
emabwe
emaciated
emaciation
emadhora
emadzimai
emadzinza
emagetsi
emakomo
emakore
emamiriyoni
emamwe
emancipate
emancipation
emande
emaodzanyemba
emaoko
emari
emarudzi
emasculate
emashonaland
emasvingo
ematebeleland
ematunhu
emavara
emazaya
emazuvano
emazwi
emba
embarrass
embarrassed
ember
emberi
embers
emblem
embrace
embryo
embwa
emerge
emergency
emerging
emfuleni
emhando
emhandu
emhepo
emhosva
emhuka
emhuri
emifananidzo
emiliyoni
emilulu
emily
emimwe
eminence
emini
emirates
emishonga
emission
emissions
emit
emitambo
emitauro
emiti
emma
emmanuel
emmerson
emombe
emotion
emotional
emotionally
emotions
emoto
empale
emperor
emphasis
emphasise
empire
employed
employee
employees
employer
employment
empress
emptied
empty
emuafrica
emuchato
emuchovha
emudumbu
emufarinya
emukati
emukwikwidzani
emumba
emumwe
emunhu
emunyika
emusha
emusoro
emutauro
emuti
emuva
emuviri
emuzimbabwe
emvura
emvurwi
emwedzi
emweya
en
ena
enchanted
encircle
encirclement
encircling
enclose
enclosure
encompass
encounter
encourage
encouragement
encyclop
encyclopaedia
encyclopedia
encyclopediaofwo
encyclopædia
end
enda
endala
ende
endearment
endgame
ending
endowed
ends
endurance
endure
eneji
enemy
energetic
energetically
energy
enfeebled
eng
engage
engaged
engagement
engender
engine
engineer
engineering
england
englerophytum
english
engoma
engu
engulfed
enguva
enhamba
enhokwe
enhoroondo
enhumbi
enjoy
enlarge
enlighten
enmity
enormous
enos
enough
enraged
enrol
ensemble
entangle
entangled
enter
entered
entering
enterprise
enterprising
entertain
entertainment
enthusiasm
entice
enticed
enticement
entire
entirely
entity
entrance
entrepreneur
entrepreneurial
entrust
entry
enu
enuf
enumerate
enumeration
envelope
envious
environ
environment
environmental
envoy
envy
enwiki
enyama
enyana
enyeredzi
enyika
enyoka
enyu
enz
enza
enzanhara
enzaniso
enzano
enzi
enzizi
enzungu
enzvimbo
eo
ep
epakati
epamusoro
epapi
epasi
epasirose
epene
ephraim
epidemic
epidemiol
epidemiological
epidemiology
epidermis
epilepsy
epiphany
episode
episodes
episodhi
epistiri
epo
epoch
eprime
epsilon
epstein
eq
equal
equality
equalize
equally
equation
equations
equator
equatorial
equi
equilateral
equilibrium
equinox
equipe
equipment
equivalent
er
era
eranjisi
erase
ere
erect
erecting
erection
eretsinorogu
ergon
erhodesia
eric
erigondoka
erima
erinopasi
eriosema
erisi
eritalika
eritiriya
eritongo
eritrea
eriya
ernest
eropa
err
errand
error
erudzi
erukweza
eruption
eruvara
erwizi
es
esa
esangano
esau
escape
escaped
escort
ese
eshe
eshialo
eshilemba
eshima
eshiri
eshiro
eshiungo
eshoko
eshona
eshure
esigodini
esimbi
esiteri
eskweya
esp
espanol
especially
esperanto
esporte
esrom
essence
essential
essentialmedicines
est
establish
established
establishment
estate
estates
esteem
esther
estimate
estimated
estonia
estrogen
esvondo
esvutugadzike
eswa
eswahili
eswatini
et
eta
etala
etarachisi
etc
ete
eternal
eternity
ethics
ethinic
ethiopia
ethnic
ethnicity
ethnologue
eton
etsi
ett
etuku
etymology
etymonline
eu
euclea
eugene
eum
eun
eungu
euphorbia
europe
european
europeans
eutare
ev
eva
evabereki
evade
evadzidzi
evakadzi
evana
evanhu
evanhukadzi
evans
evaporate
evaporation
evarume
evarungu
evashandi
evashona
evasively
evasori
evatema
evd
eve
evelyn
even
evening
evenly
event
events
ever
evergreen
every
everybody
everyone
everything
everywhere
evhiki
evhu
evidence
evident
evil
evolution
ew
ewa
ewe
ewo
ewondo
ex
exact
exactly
exaggerate
exaggerated
exalt
exalted
examine
example
exasperate
excavated
exceeding
excel
excellent
excelling
excelsa
except
excess
excessive
excessively
exchange
exchanged
exchanger
excitement
exciting
excl
exclude
exclusive
excommunicate
excrement
excretion
excuse
execute
execution
executive
exemption
exercise
exert
exertion
exhausted
exhaustion
exhibit
exhibition
exist
existence
existing
exists
exit
exo
exorcise
expand
expanding
expanse
expansion
expect
expectation
expedition
expel
expensive
experience
experienced
expert
explain
explanation
explicit
exploit
explore
explosion
explosive
expose
exposed
exposing
exposure
expound
express
expression
expressive
extend
extended
extending
extension
extensive
extensively
extent
exterior
exterminate
extermination
external
extinct
extinguish
extol
extra
extract
extracted
extracting
extraction
extraordinary
extravagant
extrema
extreme
extremely
extremity
extremum
extricate
ey
eye
eyebrow
eyebrows
eyed
eyelash
eyelashes
eyes
eyez
eyuva
ez
eza
ezekiel
ezerere
ezhi
ezhiya
ezimbabwe
eziso
ezita
ezodhiyaki
ezra
ezuva
ezve
ezvematongerwo
ezvidzidzo
ezvindeya
ezvinhu
ezvinyorwa
ezvipfuyo
ezvirimwa
ezvirongwa
ezvisikwa
ezviuru
ezvuru
f
f0
f1
f2
f3
f4
f5
f6
f7
f8
f9
fa
faar
fabian
fable
fabric
fabricate
fabrication
fabuleuse
face
facebook
faced
facial
facility
facing
fact
faction
factor
factorial
factors
factory
facts
faculty
fade
faded
fading
fadzai
fadzayi
fadzi
faeces
fafitera
fail
failed
failing
failure
faint
fair
faira
fairly
faith
faithful
faithfulness
fakazi
fala
falcatus
falcon
fall
fallen
falling
fallow
falls
false
falsely
fam
famba
fame
familiar
families
family
famine
famous
fan
fanana
fananidza
fananidzai
fang
fani
faniro
fanoduka
fantasy
fao
far
fara
farai
faramu
fararira
farayi
fare
farewell
farfa
farifa
farinya
farm
farmer
farmers
farming
farmland
fart
fasa
fashanu
fashion
faso
fassie
fassoglensis
fast
fasten
fastened
fasting
fat
fata
fatalities
father
fatherhood
fatherless
fathers
fatigue
fatigued
fatness
fatten
fatty
fault
fausto
favor
favorite
favour
favourite
fawn
fb
fc
fd
fe
fear
fearful
fearless
fearlessly
fearsome
feast
feat
feather
feathers
features
february
feces
fecund
fed
federal
federation
fee
feeble
feed
feeding
feeds
feel
feeling
feelings
feels
feere
feet
feign
felipe
felix
fell
felled
felling
fellow
fellowship
felt
female
females
fembera
femo
fence
fenced
fendefa
fenenge
fenje
fenzi
feremba
ferendende
ferment
fermentation
fermented
fern
fernando
ferry
fertile
fertiliser
fertility
fertilizer
fesha
feso
fest
festival
festivals
fetch
fetiraiza
fetus
feud
fever
feverish
few
ff
fg
fgm
fh
fi
fiance
fiber
fibre
fibres
fiction
ficus
fidelis
field
fields
fierce
fierceness
fifa
fifth
fig
fight
fighters
fighting
fights
figs
figtree
figu
figuratively
figure
fiji
fika
file
filed
files
fill
filled
filling
film
films
filter
filtering
filth
fimbir
fin
final
finally
finals
finama
finance
financial
finch
find
finding
fine
finely
finger
fingernail
fingers
finish
finished
finishing
finland
fipa
firan
fire
firebrand
firehood
fireplace
firewood
firimbi
firimu
firm
firmly
firmness
first
firstborn
firstly
fiscus
fish
fisherman
fishing
fisi
fission
fissure
fist
fit
fitness
fits
fitting
five
fivha
fix
fixed
fj
fk
fl
flabby
flag
flagellaris
flame
flap
flash
flashing
flashpoint
flat
flatland
flats
flatten
flattened
flatter
flavour
flavoured
flaw
flawa
flay
flee
flesh
fleshy
flexible
flick
flicking
flies
flight
flinching
float
floating
flock
flog
flood
flooded
flooding
floods
floor
floors
flora
florence
florida
flour
flourine
flourish
flow
flower
flowering
flowers
flowing
flu
flueggea
fluently
fluffy
fluid
fluorine
flute
flutter
fly
flying
fm
fn
fo
foam
focus
fodya
foetus
fog
fold
folded
folder
folds
folha
foliage
folk
folklore
follow
followed
follower
following
folly
fomati
fombe
fombwe
fomenting
fomu
fon
fond
fongoro
fontanelle
food
foods
foodstuff
fool
foolish
foolishness
foot
football
footprint
for
forbes
forbid
forbidden
force
forced
forces
forcible
forcing
ford
fore
forearm
forebear
forecast
forecaster
forecasts
forefinger
forehead
foreign
foreigner
foreigners
foreleg
foreman
foremost
foreskin
forest
foretell
forever
forge
forges
forget
forgetful
forgetfulness
forgive
fork
forked
form
formation
formed
former
formerly
forming
forms
formula
foro
forsake
fort
forth
fortress
fortunate
fortune
forum
forward
forwards
fosi
fossil
foster
foti
fought
foul
found
foundation
foundations
founder
founding
fountain
four
fourth
fovovo
fowl
fowls
fox
foyo
fp
fq
fr
frac
fracas
fraction
fractional
frafra
fragile
fragment
fragments
fragrance
frame
framework
fran
france
francis
francisco
francois
frank
fraternity
fraud
fred
freddy
frederick
fredrick
free
freedom
freeing
freely
freeman
freestyle
freeze
freezing
freight
french
frenzy
frequency
frequent
frequented
frequently
fresh
freshi
freshness
friction
friday
friend
friendly
friends
friendship
frienship
fright
frighten
frightened
frightening
fringe
fringes
fro
frog
from
front
frontcover
frost
froth
frown
frozen
fruit
fruitful
fruitless
fruits
frustration
fruticosus
fry
frying
fs
fsi
ft
fu
fua
fuba
fudzamombe
fudzi
fue
fuel
fufu
fugitive
fuka
fukama
fuko
fukula
fula
fulani
fulawa
fuli
full
fullfil
fullness
fulltext
fully
fulu
fuma
fumba
fumbelo
fumo
fumu
fun
funa
function
fund
funda
fundanga
funde
fundika
fundo
fundoyetsimba
fundu
funeral
funga
fungai
funganhoka
funganhuka
fungayi
fungi
fungidziro
fungiro
fungisai
fungo
fungonhoka
fungonhuka
fungu
fungua
fungula
fungura
funguragetsi
fungus
fungwa
funnel
funya
fur
fura
furamera
furanzi
furidzo
furnace
furo
furre
furrow
further
furthest
furu
furusa
furuu
furuwenza
fury
fusion
futhi
futi
futuna
future
fuunde
fuwa
fuŋ
fv
fw
fwe
fx
fy
fz
fɛ
fʊʊrʊ
g
g0
g1
g2
g3
g4
g5
g6
g7
g8
g9
ga
gaaba
gaam
gaama
gaari
gaase
gab
gaba
gabon
gabriel
gadaga
gadhi
gadza
gadzirwa
gaga
gaha
gahadziko
gahadziso
gahanana
gahd
gahwi
gain
gaining
gairezi
gait
gaka
gakandye
gakanje
gakashira
gakava
gala
gali
galilei
galileo
gall
gallery
gallo
gallop
gallup
galwa
gam
gama
gamanxa
gamanya
gamba
gambe
gambia
gambinga
gambiya
gambiza
game
games
gamha
gamma
gamu
gamuchirai
gan
gana
ganda
gandari
gandawa
gande
gandhi
gang
ganga
gangaidzo
gangara
gangavata
ganged
ganya
gaon
gap
gapa
gapare
gaping
gappah
gaps
gapu
gara
garaba
garakara
garakisi
garamwera
gararwa
garden
gardens
gare
gari
garikai
garikayi
garkeana
garment
garnet
garo
garwe
gary
gas
gasela
gases
gasi
gasura
gasva
gata
gate
gates
gateway
gather
gathered
gatherer
gathering
gatherings
gato
gatooma
gatsi
gauge
gava
gavakava
gavanga
gavaza
gave
gavhu
gavhuna
gavi
gawa
gaya
gaza
gaze
gazette
gb
gbari
gbd
gbeya
gbeŋ
gbs
gc
gd
ge
gede
gedye
gege
gejo
gela
gele
gemstone
gen
genda
gender
gene
genealogy
general
generality
generalizing
generally
generate
generation
generations
generic
generosity
generous
genes
genesis
genetic
geneticist
genetics
geneva
genital
genius
genocide
genome
genomes
genomics
gentle
gentleman
gentleness
gently
genuine
genus
geo
geofrey
geographic
geographical
geography
geology
geom
geometry
george
georgia
gerald
gerard
gerhard
germ
german
germany
germinate
germs
get
gets
getting
geza
gezi
gf
gg
gh
ghana
ghandi
gho
ghongwa
ghost
ghova
gi
giant
gibbon
gibson
gideon
gidire
gift
gijima
gikuyu
gikyode
gilbert
ginger
giraffe
girama
girazi
gird
girdle
girima
giringo
girinhi
girinilendi
girisi
girl
girlhood
girls
giryama
gitare
give
given
giver
gives
giving
giwa
gizzard
gj
gk
gl
glade
gladys
glam
glance
glancing
gland
glands
glandular
glass
gleam
glean
gleaning
glen
glendale
glisten
glitter
global
globe
globiflora
gloomy
gloria
glorify
glory
glossy
glottolog
glow
glue
gluttony
glynn
gm
gmt
gn
gnaw
go
goa
goal
goat
goats
goatskin
goba
gobela
gobvu
gocha
god
godal
godfrey
godo
godobori
godwin
godzi
goes
goetzei
gofo
goga
gogo
goho
going
gokerero
goko
gokora
gokoro
gokwe
gokwom
gol
gola
gold
golden
gole
golo
goma
gomarara
gomba
gombarume
gombe
gombedzanwa
gombera
gombo
gombwe
gome
gomela
gomera
gomo
gomphocarpus
gomwe
gon
gona
gonan
gonashindi
gonda
gonde
gondo
gondongwe
gone
gonera
gong
gonga
gongo
gongonya
gongwa
gonhi
goni
gonja
gonno
gono
gonya
gonyaina
gonyanhanhatu
gonyanhatu
gonye
gonyeti
gonyo
gonyoina
gonyonhatu
gonyoshanu
gonyozhinji
gonzalo
gonzo
good
goodbye
goodness
goods
goodwill
google
goose
gooseberry
gope
gopo
gor
gora
gordon
gore
goreraza
gorge
goridhe
gorilla
goro
gorokodzwa
goromonzi
goronga
goronyera
gororo
gorosi
gorosviba
gorowa
gosa
goshi
gospel
gossip
got
gota
goteka
gotekwa
gothenburg
goto
gotora
gotsi
gotwe
gourd
gourds
gov
gova
govaniso
govano
govere
govern
governed
government
governor
governors
govha
govore
gowa
gowodzanwa
gp
gq
gr
grab
grabbing
grace
gracious
grade
gradually
graduate
graduation
grafati
graft
grafting
graham
grahamstown
grain
grains
gram
grammar
grammatical
grammy
granary
grand
grandchild
grandfather
grandmother
grandpa
grandparent
grandson
granite
grant
granulatus
grape
grapefruit
graph
graphite
grasp
grasping
grass
grasshopper
grasshoppers
grassland
grassy
grateful
grater
gratitude
grave
gravel
gravely
gravity
gravy
gray
graze
grazed
grazing
grease
great
greater
greatest
greatly
greatness
greece
greed
greedily
greediness
greek
green
greenhouse
greenness
greens
greenwich
greenwood
greet
greetings
gregori
grenada
grenadines
grewia
grey
greyness
grid
grief
grieve
grill
grimes
grin
grind
grinding
grindstone
grini
grip
gripped
gripping
groin
groom
ground
groundnut
groundnuts
grounds
group
grouping
groups
grow
growing
growl
grown
grows
growth
grudge
gruel
grumble
grysbok
gs
gt
gu
guangzhou
guard
guardian
guarding
guava
guba
gube
gubi
gudo
gudyanga
gudzururu
guerin
guess
guest
guests
gufu
gugu
guhwa
guiana
guidance
guide
guilt
guilty
guinea
gukumbura
gukurahundi
gukuravhu
gukurudzi
gukuta
gula
gulf
gullible
gulp
gulu
gulula
gum
guma
gumba
gumbapamwe
gumbe
gumbeze
gumbi
gumbo
gumbu
gumbugetsi
gumbunhoka
gumbunhuka
gumbura
gumi
gumiguru
gumo
gumu
gumuka
gumula
gumunyu
gumura
gun
gunda
gundamunda
gunde
gundidza
gundira
gundu
gunduma
gundura
gunganidzo
gungano
gungu
gunguo
gunguwo
gungwa
guni
gunpowder
gunu
gunundu
gunura
gunyana
gupanga
gupangura
gupea
gupfukama
gupira
gupuko
gupuro
gura
guramakonya
guramakonyo
guramatunhu
gurapakati
gure
guri
gurira
gurma
gurokuro
guru
gurudadi
gurudza
gurukota
gurumwandira
gurundundu
gurunera
gurupidza
gurupira
gurure
gurusa
gurusvusvu
gurutsuwa
guruuswa
guruutsi
guruva
guruve
guruzeze
gurwe
gusha
gushungo
gusi
gusilay
gustaf
gut
guta
gutaguru
gute
guthrie
guti
gutota
gutsa
gutsaruzhinji
gutse
gutu
gutumbura
gutumukutu
gutuza
guungano
guva
guvava
guve
guvhu
guvi
guwa
guwe
guwende
guwo
guy
guyana
guyo
guys
guyu
gv
gw
gwa
gwabalanda
gwada
gwadara
gwaimani
gwala
gwamba
gwan
gwana
gwanda
gwande
gwango
gwangwava
gwanza
gwara
gwaradzimba
gwarara
gwararezhou
gwarazima
gwaro
gwasira
gwata
gwatara
gwati
gwatinyanya
gwavava
gwavha
gwaza
gwaze
gwe
gwedegwe
gwedere
gwee
gwegwe
gwekwekwe
gwekwerere
gwekwesera
gwembe
gwenga
gwenjere
gwenya
gwenzi
gwere
gweredede
gwerekwete
gweru
gweshe
gwesho
gweta
gwete
gwindi
gwindiri
gwinyai
gwinyiro
gwira
gwirana
gwiri
gwirikwiti
gwishiri
gwivi
gx
gy
gyeli
gymnosporia
gynaecology
gynandra
gynecological
gynecology
gz
gzu
gɔ
gɔɔta
gɛ
gɪ
gʉ
gʊ
h
h0
h1
h2
h3
h4
h5
h6
h7
h8
h9
ha
haachinje
haafaniri
haako
haakwanise
haana
haanda
haaperi
haarari
haasati
haasi
haasiri
haayerere
habhadhe
habit
habitat
habits
habitual
habitually
hacha
hachi
hachifanirwe
hachina
hachisi
hachitswanyi
had
hadiyya
hadogenes
hadzi
hadziiti
hadzina
haemorrhage
hafu
haga
hahuna
hai
haidyi
haifanirwe
hail
hailstorm
haina
hainyanye
haipinde
hair
hairless
hairs
hairy
haisati
haishandise
haisi
haisva
haiti
haiwa
haka
hake
hakka
hako
hakuchina
hakuna
hakusi
half
halfheartedly
hall
halt
halves
halwa
ham
hama
hamba
hambautare
hameno
hamilton
hamiro
hamisi
hamlet
hammer
hammering
hammerkop
hamuchemi
hamwei
han
hana
hand
handa
handara
handbook
handed
handedness
handful
handi
handichada
handidi
handina
handira
handisati
handkerchief
handle
handles
hando
hands
handsome
handwriting
hang
hanga
hangaika
hangaiwa
hanganwa
hanganyarwa
hanging
hangs
hangu
hangul
hangwu
hanime
hanja
hankyung
hannah
hans
hansen
hanu
hanya
hanyanisi
hanzi
hanzu
hanzvadzi
hapa
hapadanwi
hapana
hapasati
haphazard
happen
happened
happening
happens
happiness
happy
hapwa
har
hara
harahwa
haranga
harare
harass
harbour
harcourt
hard
harden
hardened
hardhearted
hardness
hardship
hare
harem
hares
hari
haridye
hariko
harina
harirwe
harisati
harishandiswe
harisi
harizi
harm
harmattan
harmful
harmonious
harmonize
harmony
harness
haro
harold
harp
harris
harrison
harsh
harshly
harshness
hartebeest
haruna
harurwa
harvest
harvested
harvesting
harwa
has
hasha
haste
hastily
hasty
hat
hata
hatched
hatchet
hate
hated
hatidi
hatina
hatomu
hatred
haucheke
haughty
haugoni
haukozi
haul
hauna
haungatiti
hausa
hausati
hausi
havafaniri
havafare
havana
havasi
have
havi
having
hawa
hawk
haya
hayes
hayikwanise
hayina
hazard
haze
hazvibatsire
hazvibviri
hazvidondani
hazvienzane
hazvienzani
hazvina
hazvinei
hazvineyi
hazvireve
hazvirevi
hazvisati
hazvisi
hazvisiri
hazvizivikanwe
hazvo
haß
hb
hc
hcl
hd
he
head
headache
headed
headlands
headlong
headman
headpad
headquarters
heads
headstrong
heal
healed
healer
healing
health
healthcare
healthy
heap
heaped
heaps
hear
heard
hearsay
heart
heartburn
hearted
heartedly
heartedness
hearth
hearthstone
heartily
heat
heated
heath
heathen
heating
heaven
heavily
heaviness
heavy
hebrew
hedge
hedgehog
hee
heed
heel
heels
heifer
height
heights
heino
heir
hekanhi
hekani
held
helen
helium
hell
helmut
help
helped
helper
helping
helpless
helps
helsinki
hem
hembe
hemi
hemisphere
hemorrhagic
hemp
hen
hence
heniya
henri
henry
hepatitis
her
hera
herald
herb
herbal
herbert
herd
herding
herdsman
here
hereafter
hereditary
heredity
herero
heritage
herman
hermit
hernia
hero
hers
herself
hertz
herzegovina
herzfeld
hesitate
heterotricha
hf
hg
hh
hi
hibiscus
hiccups
hid
hidden
hide
hideable
hidebrandtii
hiding
hierachy
hierarchy
high
higher
highest
highland
highly
highness
highway
hilary
hildebrandtii
hill
hillary
hills
hillside
hilly
hilton
him
himself
hind
hinder
hindi
hindrance
hindu
hint
hinterland
hinya
hip
hippo
hippopotamus
hips
hiragana
hire
hiro
his
hispidum
histoire
historian
historical
history
hit
hita
hitler
hits
hitting
hiv
hive
hiyu
hj
hk
hl
hlati
hlatswayo
hlenga
hlengwe
hlokoma
hloma
hlonza
hm
hn
ho
hoard
hobho
hobvu
hodza
hoe
hoeing
hoes
hofisi
hofori
hog
hohwa
hoi
hoka
hoko
hola
holarrhena
hold
holder
holding
holds
hole
holes
holiday
holidays
holiness
holland
hollow
hollowed
hollowness
holocaust
holy
homba
hombarume
hombe
hombekombe
hombesa
home
homestead
homesteads
homme
homwe
hon
hona
honda
honde
hondo
hondowe
honest
honesty
honey
honeycomb
honeysuckle
hong
honga
hongonya
hongu
hono
honokono
honor
honorable
honorary
honour
honourable
honours
honye
hoof
hook
hooked
hoop
hop
hope
hopes
hopkins
hopper
hora
horamvura
horeka
horizon
horizons
horizontal
horizontally
hormone
horn
hornbill
horned
horns
horokodzwa
horora
horror
horse
horseback
horwe
hosea
hosha
hosho
hosi
hospital
hospitality
host
hostile
hostility
hosts
hot
hota
hoteka
hotel
hotera
hotly
hoto
hour
hours
house
household
houses
houssaye
hova
hove
hovha
how
howa
howard
however
howl
hoya
hozhwa
hp
hq
hr
hrs
hs
ht
htm
html
http
https
hu
hub
hubbub
hubumbe
huchapa
huchena
huchenjeri
huchi
huchibva
huchinge
huchinosvika
huchipimwa
huchizivikanwa
huchu
hudaviri
hudhakwa
hudiki
hudonongodzwa
hudson
huduku
huduma
hudzamu
hudzvanyiriri
hufana
hufanzu
hug
hugabe
hugadaga
hugari
hugaro
huge
hugh
hugwara
huhombe
huhwandu
hui
huipi
hujoto
hukadzin
hukama
hukari
hukobvu
hukomba
hukoshi
huku
hukukutu
hukuru
hukutu
hukuwashan
hukwidza
hull
hum
huma
humambo
human
humanities
humanity
humans
humba
humbangu
humbe
humble
humbly
humbowo
humburi
humburumbira
humbwa
humhandara
humhare
humhizha
humhutu
humidity
humiliate
humiliation
humility
humour
humus
humwe
hun
huna
hunaku
hunatswi
hunch
hunda
hunde
hundi
hundred
hundreds
hundu
hune
hunene
hunenge
hung
hunga
hungango
hungarian
hungary
hungava
hunge
hunger
hungry
hungwaru
hungwe
hunhu
hunhungo
huni
hunobva
hunoda
hunodaidzwa
hunodarika
hunodikwana
hunodiwa
hunodudza
hunofanirwa
hunogona
hunoita
hunokonzera
hunokonzerwa
hunokunda
hunokura
hunokwanisa
hunonhuwa
hunonyanya
hunonzi
hunoonekwa
hunopendera
hunopimwa
hunoramba
hunoratidza
hunosanganisira
hunosara
hunoshandiswa
hunoshanduka
hunosimbiswa
hunosiyana
hunosvika
hunotangira
hunotenderera
hunotevedza
hunoti
hunotsanangurwa
hunouya
hunova
hunovhariridza
hunowanikwa
hunoyerwa
hunozivikanwa
hunozivikanwawo
hunt
hunter
hunters
hunting
hunyambiri
hunyani
hunyanzvi
hunyanzwi
hunyengeri
hunyope
hunyoro
hunza
hunzi
hunzveri
hunzvi
hunzwi
huona
hupamhi
hupango
hupangu
hupenyu
hupfende
hupfu
hupfumbu
hupfumi
hupfupi
hupofu
hupombwe
hura
huranda
hurapi
hurebe
hurefu
huremu
huri
hurimi
huripedyo
huripo
hurl
huro
hurombo
hurongwa
huronyo
huropi
huroro
hurovha
huroyi
hurriedly
hurry
hurt
huru
hurudza
hurukuro
hurumemnde
hurumende
hurungubwe
hurungudo
hurungwe
huruva
hurwa
hurwere
husahwira
husanyika
husband
hushambadzi
hushamwari
hushangazhi
hushanu
husharukwa
hushavi
hushe
hushingairi
hushoma
hushumiri
husiku
husimbe
husina
husiyanwa
husk
husks
hussein
hustle
husviba
husvinu
huswa
hut
hutachiona
hutachiwana
hutano
hutapiri
hutapwa
hutatu
hute
hutema
hutete
hutongi
huts
hutsanana
hutsi
hutsinye
hutsva
hutsvene
hutsvuku
hutu
hutungamiri
hutungamiriri
huturu
huva
huvi
huviri
huwandu
huwori
huya
huyanga
huye
huyo
huyu
huzhinji
hv
hw
hwa
hwabvu
hwacho
hwada
hwaderera
hwadzo
hwaenda
hwagumi
hwahwa
hwai
hwaisvika
hwaive
hwakadai
hwakadaro
hwakaderera
hwakadzikama
hwakaenzana
hwakafanana
hwakagovaniswa
hwakaita
hwakaitwa
hwakakosha
hwakakura
hwakakwana
hwakakwira
hwakakwirira
hwakanaka
hwakanangana
hwakanga
hwakanyanya
hwakaoma
hwakareba
hwakasimba
hwakasiyana
hwakatanga
hwakati
hwakatichechetere
hwakawanda
hwake
hwako
hwakwira
hwamanda
hwambo
hwami
hwamutapa
hwamwari
hwana
hwanan
hwananyina
hwanda
hwang
hwanga
hwange
hwangu
hwangwadza
hwani
hwanyadza
hwaradada
hwarang
hwarara
hwarasanza
hwaratsvuku
hwaro
hwasha
hwasvika
hwata
hwatata
hwati
hwatsa
hwava
hwavo
hwawo
hwayi
hwayo
hwazvo
hwe
hwebasa
hwechaji
hwechinhu
hwechirwere
hwechiyero
hwecorona
hwedu
hwedunhu
hwedza
hweearth
hwega
hwegaza
hwegonyonhatu
hwegps
hwehepatitis
hwehiv
hwehutachiona
hwekugadzira
hwekukohwa
hwekupfirira
hwekutanga
hwekuti
hwema
hwemakore
hwemali
hwemamirioni
hwemapungubwe
hwemari
hwemasaisai
hwemashoko
hwemativi
hwemazuva
hwembwa
hwemhando
hwemhuka
hwemhuri
hwemishonga
hwemombe
hwemufarinya
hwemugodhi
hwemukadzi
hwemumhepo
hwemunhu
hwemunyungu
hwemupimo
hwemurume
hwemutapa
hwemuviri
hwemuzendami
hwemvura
hwemweya
hwendedzo
hwendefa
hwendenge
hwenguva
hwenhamba
hwenhangande
hwenhau
hwenhengo
hwenhumbu
hwenyika
hwenyoka
hwenyu
hwenze
hwepamusoro
hwepasi
hwepasirose
hwepedyo
hwepfungwa
hwepiri
hwere
hwerengedzo
hwerera
hwerhashiya
hwerinopasi
hweroma
hweropa
hwerozvi
hweru
hwerudzi
hwesa
hwese
hweshiri
hwesimbi
hwetatu
hweudzvanyiriri
hweurungano
hweutachiona
hweva
hwevachena
hwevagari
hwevanhu
hwevapfumi
hwevarungu
hwevarwere
hwevashona
hwevatauri
hwevera
hweveruzhinji
hwewa
hwezimbabwe
hwezuru
hwezvinhu
hwezvinyanye
hwi
hwidibo
hwindi
hwingwiri
hwira
hwiribidi
hwiringwindi
hwirira
hwiriri
hwiriro
hwishu
hwiti
hwitira
hwiza
hwokuti
hwoni
hwose
hwowa
hwuno
hwunodarika
hwunosvika
hx
hy
hybe
hydrochloric
hydrocompounds
hydrogen
hydroxide
hydroxides
hye
hyena
hymn
hypogaea
hypotenuse
hyrax
hyu
hyuk
hyun
hyung
hz
hɪ
i
i0
i1
i2
i3
i4
i5
i6
i7
i8
i9
ia
ian
iau
ib
iba
ibange
ibango
ibasa
ibato
ibazi
ibere
ibgo
ibhasiketi
ibhegi
ibhii
ibibio
iboka
ibonga
ibude
ibumbiro
ibvi
ibwe
ic
ice
iceland
ichanzi
ichi
ichibata
ichibatana
ichibuda
ichibva
ichidarika
ichiderera
ichienda
ichigadzira
ichiita
ichikura
ichikwira
ichinge
ichinodira
ichinzi
ichipa
ichipera
ichipfunha
ichipimwa
ichipinda
ichipoterera
ichireba
ichireva
ichiri
ichishanda
ichishandisa
ichishandiswa
ichisiya
ichitenderera
ichitevedza
ichitevera
ichiti
ichitongwa
ichiuya
ichiva
ichiziririka
ichizonaya
icho
ichocho
ichokwadi
id
ida
idah
idai
idambudziko
idanho
idea
ideas
idemo
identifier
identify
identity
ideo
ideophone
idhodhi
idhorobha
idi
idiki
idiom
idiot
idivi
idle
idol
idombo
idoro
idukusa
iduna
idunhu
idzi
idzinde
idzinza
idzo
idzodzi
idzodzo
idzva
ie
ielement
if
ifaniro
ife
ifosi
ifupa
ig
igad
igama
igamba
igaroziva
igas
igasi
igasva
igbo
igen
igere
ignatius
ignite
ignorance
ignorant
ignore
ignored
igo
igomba
igomo
igonda
igonhi
igore
iguchu
igumi
iguta
igwa
igwenga
igwenzi
ih
ihama
ihanzvadzi
ihondo
ihove
ihuru
ihwa
ihwohwo
ii
iii
iine
iite
ij
ijipita
ijira
ijiri
ik
ikaita
ikalanga
ikaramu
ikarutsa
ikasire
ikatsi
ikava
ikizu
iko
ikodzero
ikoko
ikoma
ikondo
ikoore
ikozvino
ikumi
ikuru
ikwanise
il
ila
ilbo
ili
iliduku
ilifuku
iligama
ilikhiwa
ililunga
ilinaka
ilisempu
ilisinde
ilivukuthu
ilizi
ill
illegal
illegitimate
illness
im
image
images
imaginary
imagination
imali
imari
imba
imbai
imbala
imbale
imbaravara
imbarikwa
imbecile
imbewu
imboma
imbula
imbumbu
imbune
imbwa
imesa
imhambarirwa
imhando
imhepo
imhosva
imhuka
imhuri
imi
imikho
imilibo
iminako
imitate
imithi
imiwungo
imizi
imma
immature
immediate
immediately
immense
immerse
immigrant
immoral
immorality
immortality
immune
immunity
immunization
immunology
imo
imombe
imomo
impact
impala
impatience
impatient
impatiently
impediment
impeller
impenetrable
imperfect
impetuous
imphambosi
implement
implies
implosive
imply
impofu
importance
important
imports
importunate
importune
importunity
imposition
impossible
impounded
impoverished
impregnate
imprint
imprison
improper
improve
impudent
imvi
imvukusi
imvura
imwe
imwechete
imwecheteyo
imwewo
imweyo
in
ina
inability
inaccessible
inach
inambili
inappropriate
inaugural
inc
incessantly
inches
incidence
incident
incidental
incision
incite
incl
incline
inclined
include
included
includes
including
inclusion
income
incomplete
incompletely
inconsequentially
inconvenience
increase
inda
indaba
indasitiri
indawo
indeed
independence
independent
index
india
indian
indians
indica
indicate
indicator
indifferent
indigenous
indigestion
indignation
indigo
indigofera
indima
individual
individuals
indiya
indo
indolent
indonesia
induced
induku
indunduma
industrial
industries
industrious
industry
ine
ineffective
inembo
inenga
inenge
inertia
inertly
ineti
inexperienced
inf
infact
infant
infausta
infect
infected
infection
infections
infectious
infective
inferior
infertile
infibulation
infinity
inflammation
inflorescence
inflorescences
influence
influenced
influential
influenza
info
infobase
infobox
inform
information
infra
ing
inga
ingadzi
ingangoita
inganzi
ingati
ingava
ingave
inge
ingens
ingenuity
inget
ingi
ingoma
ingore
ingori
ingozi
ingress
inguva
ingwe
inhabit
inhabitant
inhabitants
inhabited
inhaka
inhale
inhamba
inhangande
inharaunda
inhengo
inherit
inheritance
inherited
inheritor
inhospitable
ini
inini
initial
initiate
initiated
initiator
inject
injero
injini
injure
injured
injurious
injury
ink
inkomo
inland
innocent
innundate
ino
inobangirwa
inobata
inobatanidza
inobatsira
inobatwa
inobereka
inobhadharwa
inobikirwa
inobuda
inobuditsa
inoburitsa
inobva
inobvinina
inobvira
inobvumidza
inocheka
inochengeta
inochengetedza
inochengeterwa
inochengetwa
inochera
inocherwa
inochinja
inoda
inodaidzwa
inodanwa
inodarika
inodhura
inodiwa
inodonha
inodudza
inodudzirwa
inodudzwa
inodya
inodyidzana
inodyiwa
inodzika
inodzivirira
inodziya
inoenda
inoenderana
inoenderera
inofadza
inofamba
inofambwa
inofanana
inofanira
inofanirwa
inofarira
inofuma
inogadzira
inogadzirwa
inogamuchirwa
inoganhurana
inogara
inogarwa
inogona
inogonawo
inoguma
inoipa
inoisa
inoiswa
inoita
inoitika
inoitwa
inokasira
inokonzera
inokonzeresa
inokonzerwa
inokosha
inokura
inokurudzira
inokurudzirwa
inokuvadza
inokwana
inokwanisa
inokwanisawo
inokwezva
inokwira
inomera
inomhanya
inomira
inomirira
inomiririra
inonaka
inonakidza
inonamira
inonaya
inonetsa
inongova
inonongedza
inonopinda
inonwiwa
inonyanya
inonyanyo
inonyorwa
inonyungudika
inonyura
inonzi
inoonekwa
inoongorora
inopa
inopakurirwa
inopandukira
inopangidzwa
inoparadza
inopararira
inoparira
inopatsanura
inopatsanurana
inopenya
inopera
inopereka
inopesana
inopfekerwa
inopfekwa
inopfuura
inopfuyiwa
inopihwa
inopima
inopimwa
inopinda
inopindwa
inopinga
inopingura
inopisa
inopiwa
inopoterera
inoramba
inorambonaya
inorapa
inorara
inorarwa
inoraswa
inoratidza
inoratidzika
inoratidzirwa
inoratidzwa
inorder
inoreba
inoregwa
inorema
inoreva
inorevei
inoridzwa
inorimwa
inoripwa
inorondedzerwa
inoronga
inorukwa
inoruma
inorwadza
inorwisa
inosangana
inosanganidza
inosanganisa
inosanganisira
inosanganiswa
inosara
inosasauka
inosefa
inoshamisa
inoshanda
inoshandisa
inoshandisha
inoshandiswa
inoshandiswawo
inoshandiswe
inoshanduka
inoshandura
inoshandurwa
inoshanyirwa
inoshevedzwa
inosinina
inosiya
inosiyana
inosunda
inosunga
inosungwa
inosunungurwa
inosvika
inotakura
inotambiriswa
inotambirwa
inotanda
inotandauka
inotanga
inotangira
inotapira
inotara
inotaridza
inotaridzika
inotarisana
inotarisirwa
inotaura
inotaurwa
inoteera
inoteerawo
inotendera
inotenderera
inotenderwa
inotengeswa
inotengwa
inotevedza
inotevedzwa
inotevera
inoti
inotiudza
inotodza
inotodzana
inotonga
inotongwa
inotonhora
inotonhorera
inotora
inotorwa
inotova
inotsanangura
inotsanangurwa
inotsigira
inotsvaga
inotubuka
inotumidzwa
inotungamirwa
inoturikirwa
inoturuka
inoumba
inoumbwa
inounganidza
inounza
inouraya
inouya
inova
inovakwa
inoverengwa
inovhuvhuta
inowana
inowanika
inowanikwa
inowanikwawo
inowanza
inowanzo
inowanzoitwa
inowanzonzi
inowedzera
inowedzerwa
inoyera
inoyerera
inoyerwa
inoyi
inoziririka
inoziva
inozivikanwa
inozivikanwawo
inozivikwa
inozoita
inozoshandiswa
inozvionera
input
inputs
insanity
insect
insects
insert
insertion
inside
insider
insight
insignia
insika
insipid
insipidum
insiza
insolence
insolent
inspan
inspect
instance
instant
institute
institution
instruct
instruction
instructions
instructor
instrument
instruments
insturment
insufficient
insulation
insulator
insult
insulting
insurance
insured
int
intambo
intanga
intara
intare
inte
intefere
integer
integral
integrated
integrity
intellect
intellectual
intelligence
intelligent
intense
intensity
intent
intention
intentions
intently
intepret
inter
intercept
intercepting
intercessor
intercourse
interest
interested
interesting
interface
interfere
intergrity
interim
interior
interj
interjection
intermediate
internal
international
internet
interpose
interpret
interpreter
interrupt
interruption
intersect
intersection
interval
intervene
interventions
interview
intestine
intestines
intimate
into
intombela
intoxicate
intoxicated
intoxicating
intoxication
intr
intro
introduce
introduced
introduction
intutho
inumeri
invalid
invent
inventor
invert
investment
invigorate
invisible
invite
invites
involved
inward
inwards
inyama
inyanga
inyanya
inyanzvi
inyaudzosingwi
inyaya
inyenyedzi
inyeredzi
inyika
inyoka
inyoni
inyungu
inzi
inzira
inzonzi
inzvimbo
inzwi
io
ion
ions
iowa
ip
ipa
ipapa
ipapo
ipe
ipfumo
ipi
ipl
ipomoea
iport
iprage
ipuratifomu
ipwa
iq
ir
ira
irambe
iran
irani
iraq
irascibility
irege
ireland
irene
irheshiyo
iri
irigesheni
irikidza
irikidzai
iriko
irimo
iripadhuze
iripo
iris
iriwo
iriyo
iro
iron
irony
irori
iroro
irregular
irrigation
irritable
irritate
irritation
iru
irungu
irving
irwizi
irworwo
is
isa
isaac
isabel
isaiah
isaka
isallowed
isamvu
isangano
isango
isati
isau
isbn
ise
isekwa
ish
ishamwari
ishandiswe
ishe
ishepi
ishiri
ishoko
ishoma
ishwa
isi
isibebe
isibumbe
isidiya
isifo
isifuba
isifunda
isiga
isigaga
isihobela
isihobo
isikhala
isikhawu
isikhoba
isikhonzi
isikhothe
isikhu
isikhukhula
isikhumba
isikokela
isimba
isimbi
isiminya
isina
isindebele
isinga
isingadyi
isingapi
isingaremekedzwe
isingasviki
isinyekenyeke
isiphawulo
isipo
isiraeri
isiri
isisina
isisulu
isivalo
isiwawa
isiwisa
isiwumba
isixhosa
isiyako
isizinda
isizulu
isizungu
iskandara
islam
island
islands
iso
isolate
isolated
isolates
isolation
isomer
isomero
ison
isonga
isotope
israel
israeli
iss
issn
issue
issues
ist
isu
iswa
it
ita
itai
itala
italia
italian
italy
itama
itambo
itari
itayi
itch
iteka
iteko
item
items
ithunga
iti
ito
iton
itongo
itopiya
itore
itr
its
itself
itsika
itsva
itsvo
iu
iv
iva
ivara
ive
ivhu
ivo
ivoire
ivory
ivy
iw
iwaya
iwayo
iwe
iwewe
iwi
iwo
iwoyo
iwoyu
ix
ixi
iy
iya
iyabukana
iye
iyeni
iyeye
iyeyu
iyi
iyo
iyoyi
iyoyo
iz
izere
izibanda
izigaga
izihambi
izikhala
izikhawu
izikhukhula
izimbune
izinake
izinkomo
izita
izithelo
iziwisa
izon
izulu
izuva
izvi
izvo
izvozvi
izwi
j
j0
j1
j2
j3
j4
j5
j6
j7
j8
j9
ja
jaaji
jaala
jaani
jaara
jabulani
jack
jackal
jacket
jackson
jacob
jacques
jada
jae
jaffna
jag
jagwa
jah
jaha
jail
jaja
jaji
jakanya
jakob
jakobe
jakobho
jala
jam
jama
jamaica
jamana
jamba
jambaya
jambwa
james
jameson
jamhuri
jammed
jamsai
jamtland
jamwanda
jan
jana
jane
janeiro
janet
jang
jangwa
janha
jani
january
japan
japanese
japani
jar
jaraga
jari
jasi
jason
jasper
jata
jaure
jauri
java
jaw
jawa
jaya
jaza
jazeera
jazz
jb
jc
jd
je
jealous
jealousy
jean
jecha
jechetere
jedye
jee
jeff
jeffrey
jehova
jehovah
jehovha
jekanyika
jeke
jekecha
jekenyedza
jekera
jekesai
jekese
jekiseni
jeko
jele
jelly
jemenai
jemeni
jena
jenaguru
jende
jendekufa
jenero
jenga
jengadenga
jeni
jenjazi
jenner
jennifer
jeong
jer
jera
jerahuni
jerandoga
jere
jeredzwa
jeremiah
jerenyenje
jerera
jeri
jerk
jerked
jerome
jerry
jersey
jerumani
jerusalem
jerusarema
jese
jesse
jessica
jest
jesu
jesus
jet
jewelry
jewish
jews
jeya
jeye
jf
jg
jh
jhtm
ji
jida
jiji
jila
jim
jimin
jimmie
jimmy
jimo
jin
jina
jinda
jinga
jingu
jinjika
jinya
jira
jiri
jirima
jiro
jisonhi
jita
jitumba
jiya
jiyeni
jj
jk
jl
jm
jn
jo
joao
job
joback
joe
joel
jogo
johane
johani
johannesburg
john
johns
johnson
joice
join
joined
joining
joins
joint
jointed
joints
joke
jokes
joki
joking
jokingly
joko
jokonya
jola
jombe
jonas
jonathan
jones
jong
jonga
jongwe
joo
joon
joram
jordan
jore
jorodhani
jose
joseph
josephine
joshua
josiah
josphat
joule
joules
journal
journalism
journalist
journals
journey
jowa
joy
joyce
joyful
jp
jpg
jq
jr
js
jsessionid
jstor
jt
ju
jua
juan
judah
judea
judge
judged
judgement
judging
judgment
judha
judheya
judith
judy
jug
juice
jukwa
jul
jula
julbernardia
jules
julia
julian
julius
july
juma
jumjum
jump
jumped
jumping
jun
juncea
junction
june
jung
jungkook
jungle
jungsim
junior
jupiter
jur
jura
jure
juru
jury
jusi
just
justice
justin
justine
juta
jv
jw
jx
jy
jyere
jz
jɔ
jɛ
k
k0
k1
k2
k3
k4
k5
k6
k7
k8
k9
ka
kaa
kaam
kaani
kaaya
kabanda
kabanzu
kabasa
kabheji
kabhinzi
kabhira
kabhoni
kabhora
kabhuku
kabi
kabika
kabila
kabiye
kabwa
kabza
kachasu
kacheche
kachimbwi
kachinge
kachingwe
kacho
kachuta
kadatya
kadede
kadenge
kadhai
kadhani
kadiki
kadikidiki
kadodo
kadoko
kadoma
kadomera
kaduku
kadungo
kadungure
kadyautumbe
kadzi
kaela
kaera
kafeni
kafulani
kafumba
kafunga
kagande
kagoro
kagulu
kagumi
kaguta
kaguvi
kahari
kahle
kahomwe
kahwai
kai
kairo
kaisi
kak
kaka
kakagadzirwa
kakaita
kakaitwa
kakao
kakawanda
kakomana
kakonde
kakora
kakufanana
kakunde
kakuru
kakurutu
kakuwe
kakwa
kal
kala
kalabo
kalahari
kalamu
kalanga
kale
kalebwe
kalemba
kalenga
kali
kalkoen
kallenbach
kalombe
kalonga
kalongo
kalula
kalulu
kaluwa
kam
kama
kamadokero
kamau
kamb
kamba
kambale
kambani
kambanji
kambarami
kambare
kambe
kambere
kambi
kamhuka
kamita
kamotsi
kamoxi
kamu
kamukwede
kamunda
kamuri
kamuti
kamuzu
kamwana
kamwe
kamwechete
kamwendo
kamwi
kan
kana
kanaa
kanadha
kanda
kande
kandeya
kandi
kandiyero
kandolo
kandombo
kandoro
kane
kanenge
kanga
kangaenzane
kangai
kangani
kangara
kangaridza
kangaroo
kangopisa
kanhu
kani
kanjasi
kanji
kano
kanodanwa
kanodyiwa
kanogara
kanokwana
kanonzi
kanoshandawo
kanowanikwa
kanti
kanuri
kanwa
kanya
kanyama
kanyekanye
kanyere
kanyi
kanyina
kanyungu
kanzira
kanzu
kanzuru
kanzvi
kaonde
kapa
kapala
kapandira
kapangura
kapari
kapembenene
kapesa
kapeta
kapfupi
kapindo
kapinga
kapingula
kapingura
kapiri
kapita
kapitapita
kapolo
kapp
kapu
kapuka
kapukanana
kapundu
kapunha
kapurikoni
kapuruzirwa
kapuya
kar
kara
karabo
karakadzai
karamu
karang
karanga
karau
kare
karekare
karemwaremwa
karen
karenda
kareya
kari
kariba
karikoga
karimatsenga
karl
karleken
karoi
kaross
karumbi
karunga
karuvara
karuwo
kasa
kasambala
kasasi
kaseka
kaseke
kasem
kasembe
kasha
kashanu
kashara
kashiri
kashoma
kasi
kasimbi
kasimo
kasina
kasingura
kasoko
kasola
kasonde
kasunda
kasvava
kata
katahwi
katakana
katala
katali
katalog
katambura
katana
katanga
katanha
katasa
katatu
kate
kateka
katema
katena
katende
kateya
kathmandu
kati
kativu
katiyo
katonda
katondo
katonga
katongo
katongola
katongole
katongora
katrina
katsande
katsi
katsiga
katsihuru
katsika
katsiro
katsiru
katsumbu
katsuro
katsvairachuru
katswere
katukura
katumbura
katundu
katunga
katungu
katuni
katupa
katurike
kaukonde
kaumbirwo
kaundo
kava
kaverevere
kaviri
kaviya
kawa
kawaza
kawela
kawila
kawoza
kaya
kayera
kayeruza
kayiti
kazakhstan
kazangarare
kazembe
kazhinji
kazi
kaziro
kazito
kazola
kazungo
kazungu
kazungula
kaŋ
kaŋga
kb
kbs
kc
kd
ke
kebheki
kechipiri
kechitatu
kede
keep
keeper
keeping
keeps
keepsake
keisuke
keita
kekutanga
kelly
kelvin
kembo
kemedzung
ken
kena
kenda
kende
kenduru
kenne
kennedy
kenneth
kenya
kenyatta
kenye
kenza
kenzi
kept
kereke
kernel
keruro
kesari
keta
ketaaŋ
kete
kettle
ketty
kevin
key
kf
kg
kh
khaemba
khama
khapa
khaya
khea
khoi
khombo
khosi
khotsi
khovhidhi
khoza
khu
khuchira
khukhora
khukhuva
khulula
khumalo
khutu
khuu
khuumenya
khuung
khwaka
khwesha
khweshe
khwirukha
ki
kiaat
kiambo
kianza
kibanza
kibaya
kibi
kicheni
kick
kid
kidnap
kidnapper
kidney
kidneys
kidole
kids
kiga
kigambo
kigelia
kihaya
kiikizu
kijiji
kikamba
kikongo
kikooto
kikunya
kikuta
kikuyu
kikwato
kila
kilandu
kilele
kilengu
kilima
kilimanjaro
kill
killed
killer
killing
kills
kilo
kilogram
kilolo
kilometres
kilongola
kilongozi
kiloozo
kim
kima
kimanda
kimbundu
kimeru
kimwanda
kimwani
kin
kinande
kind
kinda
kindle
kindly
kindness
kindred
kinds
kinene
kinetic
king
kingdom
kings
kingsley
kinini
kinshasa
kinship
kintu
kinyarwanda
kipande
kipare
kir
kira
kirabhu
kiragiro
kirasi
kiri
kiribati
kirkia
kirkiana
kirkii
kiromita
kirundi
kirundu
kisalu
kishambala
kiss
kissed
kissing
kisuba
kisukuma
kiswahili
kita
kitabu
kitanda
kitchen
kite
kitendo
kiti
kitikiti
kitoko
kitongole
kitu
kituba
kitundu
kiunga
kiwa
kiwanga
kiwani
kiwanja
kiyi
kiza
kizigua
kizinga
kizingia
kizingo
kizito
kj
kk
kkoz
kl
klcda
kleptocracy
klipspringer
kloof
kluwer
km
kn
knead
knee
kneel
kneeling
knees
knife
knit
knobkerrie
knock
knocking
knoop
knot
know
knowable
knowing
knowledge
knowledgeable
known
knows
ko
koa
kobanda
kobela
kochira
kodzero
kofi
kohore
koi
kok
koka
kokela
kokera
koko
kokorodzano
kokutanga
kokwata
kokwe
kol
kola
kolokuma
koloni
kolopa
kom
koma
komana
komba
kombanda
kombayi
kombe
kombela
kombers
kombiyuta
kombo
kombola
kombora
komborerai
kombwe
komichi
komics
komiki
kommer
komo
komola
komputa
komwe
kon
kona
konda
konde
kondinendi
kondiwa
kondo
kondoloka
kondono
kone
kong
konga
konge
kongela
kongo
kongola
koni
konkomba
kono
konobho
konola
konongo
konya
konza
konzi
koora
kopa
kope
kopje
kopo
kora
korandje
korberg
kordei
kore
korea
koreaherald
korean
korekore
koring
koriya
koriyo
koro
korokoto
koromo
korona
koroni
koruna
kosa
kose
kosi
kosola
kosovo
kosti
kot
kota
kotanga
kotara
koteji
koteka
kotera
kotesa
koti
koto
kotoka
kotora
kotsa
kotsi
kotwa
kova
kove
kovera
kowa
koy
koyi
koz
koza
kozoita
koŋ
kp
kq
kr
kraal
kratia
kraussiana
kreva
krimi
kristina
kristo
kristu
krona
krone
kross
ks
kt
ku
kua
kuadza
kuafrica
kuafrikaans
kuafurika
kuaka
kuala
kuamba
kuambana
kuambira
kuambuka
kuambura
kuamerica
kuamerican
kuamerika
kuanda
kuandama
kuandamila
kuandika
kuanga
kuangola
kuanika
kuasia
kuaustralia
kuba
kubaira
kubaiwa
kubaka
kubakalanga
kubalanga
kubanda
kubanga
kubangira
kubangura
kubanza
kubanzura
kubara
kubare
kubarika
kubaritsa
kubasa
kubata
kubatana
kubatanidza
kubatanidzwa
kubatidza
kubatira
kubatirana
kubatirira
kubatsira
kubatsirana
kubatwa
kubaukira
kubaya
kubayira
kubayiwa
kubazi
kubba
kubbyamuka
kubebenuka
kubefura
kubenin
kubereka
kuberekesa
kuberekwa
kubesera
kubeseraka
kubesu
kubetsera
kubhabhatidza
kubhabhatidzwa
kubhabhura
kubhadhara
kubhadharwa
kubhaibheri
kubhanga
kubhara
kubhebha
kubheja
kubheka
kubhenda
kubhuguja
kubhura
kubhururuka
kubhuruvara
kubika
kubikira
kubikwa
kubindikita
kubinduka
kubindura
kubinya
kubira
kubirira
kubisa
kubisha
kubishinga
kubitidza
kubitirwa
kubizha
kubizuka
kubodza
kuboka
kubomaira
kubomba
kubondana
kubongomora
kuboora
kubopa
kuborrowdale
kubotswana
kuboya
kuboza
kubozha
kubritain
kubroadway
kubuda
kubudikidza
kubudirira
kubudisa
kubuditsa
kubuditswa
kubuhera
kubukira
kubulawayo
kubulunga
kubumba
kubumbiro
kubumbunuka
kubumhudza
kubundira
kubura
kuburikidza
kuburitsa
kuburitswa
kuburkina
kuburuka
kuburundi
kuburutsa
kubusa
kubuta
kubva
kubvamumaelectrolysis
kubvarura
kubvinina
kubvira
kubvisa
kubvisika
kubviswa
kubvondora
kubvuira
kubvuka
kubvuma
kubvumba
kubvumbi
kubvumira
kubvumirana
kubvundura
kubvunyaidza
kubvunza
kubvurunuka
kubvuta
kubvutwa
kubvuva
kubvuvira
kubvuwa
kubwaira
kubwinya
kubwitira
kucameroon
kucanada
kucape
kucentral
kuchacha
kuchad
kuchakatika
kuchama
kuchamhembe
kuchamhembechemabvazuva
kuchangamuka
kuchata
kuchaya
kuchayina
kuchecheudza
kuchecheudzwa
kuchedza
kucheka
kuchekanya
kuchekwa
kuchema
kuchembera
kuchemishonga
kuchemistry
kuchena
kuchenama
kucheneruka
kuchenesa
kucheneswa
kuchenga
kuchengedza
kuchengeta
kuchengetedza
kuchengetedzeka
kuchengetedzwa
kuchengetera
kuchengetwa
kuchenjedza
kuchenjera
kuchenjerera
kuchenzana
kuchera
kuchere
kucherechedza
kucherechedzwa
kucheuka
kuchewa
kucheza
kuchiarabhu
kuchibuda
kuchibva
kuchicha
kuchichewa
kuchidza
kuchidzidzo
kuchigiriki
kuchihebheru
kuchiita
kuchiitika
kuchiitwa
kuchikamu
kuchikaranga
kuchikidza
kuchikorekore
kuchikoro
kuchikunda
kuchile
kuchimanyika
kuchimbidzika
kuchimoio
kuchina
kuchindau
kuchinga
kuchingama
kuchingamidza
kuchinge
kuchingezi
kuchingidzira
kuchingira
kuchingiridza
kuchingura
kuchinja
kuchinjika
kuchinya
kuchinyika
kuchinyorwa
kuchinzi
kuchionekwa
kuchipatara
kuchipinge
kuchiportuguese
kuchiproto
kuchiputukezi
kuchiratini
kuchiredzi
kuchirehwa
kuchireva
kuchiri
kuchirongwa
kuchiruka
kuchirungu
kuchirwere
kuchisara
kuchishandiswa
kuchishona
kuchiswahiri
kuchitariswa
kuchitaurwa
kuchitendero
kuchitevedzwa
kuchitonga
kuchitungwiza
kuchiva
kuchivirika
kuchiweshe
kuchiyao
kuchizotevera
kuchona
kuchonjomara
kuchovha
kuchururuka
kucongo
kuda
kudada
kudai
kudaidza
kudaidzwa
kudakarira
kudakwashe
kudamba
kudambya
kudana
kudanana
kudandama
kudandamuka
kudandamutsa
kudanga
kudanwa
kudare
kudarika
kudarikwa
kudaritsa
kudaro
kudavada
kudea
kudedera
kudeika
kudeka
kudekara
kudekudza
kudeleka
kudelesa
kudemocratic
kudendemara
kudenengura
kudenga
kudengaira
kudengenyeka
kudengetera
kudengeza
kudengezera
kudenha
kudenhera
kuderedza
kuderedzwa
kuderera
kudeuka
kudhaka
kudhakwa
kudhamu
kudhara
kudherera
kudhinda
kudhirika
kudhirowa
kudhoma
kudhonza
kudhonzwa
kudhorobha
kudhura
kudhuze
kudi
kudidirika
kudidiritsa
kudigo
kudikitira
kudimbira
kudimbudzira
kudimbura
kudimuka
kudimura
kudindirika
kudinga
kudiridza
kudivi
kudiwa
kudobodedza
kudoka
kudokwaira
kudoma
kudombo
kudominican
kudomwa
kudondeka
kudonga
kudongana
kudonha
kudonhedza
kudonhedzwa
kudonyongoka
kudopotsa
kudoro
kudrc
kudu
kududza
kududzira
kududzirwa
kududzwa
kuduka
kudukuta
kudumbidza
kudumula
kudundurudza
kudunga
kudungira
kudungura
kudunhu
kudupika
kudura
kudurura
kudusa
kuduza
kudya
kudyara
kudyidzana
kudyisa
kudyiwa
kudyora
kudyorera
kudza
kudzai
kudzaishe
kudzaka
kudzama
kudzamara
kudzamura
kudzana
kudzanai
kudzandiwa
kudzayi
kudzedzereka
kudzekenyedza
kudzemberera
kudzengerera
kudzidza
kudzidzira
kudzidzisa
kudzidziswa
kudzidziuka
kudzidzivara
kudzika
kudzikama
kudzikatika
kudzikinura
kudzikira
kudzikisa
kudzikisira
kudzikunura
kudzima
kudzimara
kudzimba
kudzimika
kudzimira
kudzimurira
kudzimwe
kudzinda
kudzinga
kudzinganisa
kudzingisa
kudzingwa
kudzinina
kudzinza
kudzira
kudzitira
kudzitirwa
kudziva
kudzivira
kudzivirira
kudzivirirwa
kudzivisa
kudziya
kudziyisa
kudzoka
kudzokera
kudzokorora
kudzonga
kudzongonyera
kudzora
kudzorera
kudzorwa
kudzosa
kudzosera
kudzudzira
kudzuna
kudzungaira
kudzungunyika
kudzunguruka
kudzura
kudzvanya
kudzvanyidzira
kudzvanyirira
kudzvita
kudzvokora
kudzvova
kudzvura
kuedza
kuedzwa
kuegypt
kuela
kuelesa
kuelusa
kuempress
kuenda
kuenderana
kuenderera
kuendesa
kuendwa
kuengland
kuenglish
kuenzana
kuenzanisa
kuenzaniswa
kuenzera
kuera
kuethiopia
kueurope
kueza
kuezhiya
kufa
kufadza
kufamba
kufambidzana
kufambira
kufambisa
kufambiswa
kufambwa
kufana
kufanana
kufananidza
kufananidzwa
kufangura
kufanira
kufanirwa
kufanza
kufara
kufarira
kufarirwa
kufarisa
kufasa
kufashaidza
kufashaira
kufashama
kufema
kufemba
kufembera
kufemera
kufemereka
kufenda
kufenga
kufika
kufinyama
kufira
kufizuka
kufora
kufozora
kufrench
kufudza
kufugidza
kufugura
kufuka
kufukaira
kufukamira
kufukanyira
kufukata
kufukidza
kufukura
kufuma
kufumira
kufumuka
kufumura
kufumurudza
kufuna
kufunda
kufundika
kufundikira
kufundisa
kufundura
kufunga
kufunganya
kufungidzira
kufungira
kufungula
kufunuka
kufunura
kufunya
kufura
kufuratira
kufuridza
kufurira
kufuruka
kufurusa
kufushira
kufushunura
kufuta
kufuwa
kufuwurudza
kufwa
kufwamba
kugachidzana
kugadza
kugadzika
kugadzikana
kugadzira
kugadziridza
kugadzirira
kugadzirisa
kugadziriswa
kugadzirwa
kugadzwa
kugamha
kugamuchira
kugamuchirika
kugamuchirwa
kuganhurana
kuganya
kuganza
kugara
kugarira
kugarisa
kugarisana
kugariswa
kugaro
kugaroenda
kugarwa
kugashira
kugaya
kugera
kugermany
kugerwa
kugeya
kugeza
kugezwa
kughana
kugikuyu
kugiryama
kugiya
kugocha
kugodza
kugoka
kugokwe
kugomara
kugomba
kugombana
kugombe
kugombedza
kugombedzeka
kugombedzera
kugombera
kugomberwa
kugon
kugona
kugonda
kugondeka
kugonga
kugoromonzi
kugota
kugova
kugovanisa
kugovera
kugozha
kugreek
kugrinnell
kuguinea
kuguka
kuguma
kugumba
kugumbata
kugumbatira
kugumbuka
kugumbunhoka
kugumbunhuka
kugumbura
kugumira
kugumuka
kugumura
kugunda
kugungwa
kugunzva
kugura
kuguranya
kugurira
kuguruka
kugurwa
kugusa
kuguta
kugutila
kugutisa
kugutsa
kugutsikana
kugwabvura
kugwamba
kugwara
kugwenda
kugweru
kugwinya
kugwishura
kuhafu
kuhajj
kuhaka
kuhala
kuhama
kuhamba
kuhane
kuhara
kuharare
kuhataira
kuhetsura
kuhighfield
kuhiya
kuhobodza
kuhola
kuhona
kuhondo
kuhope
kuhora
kuhorera
kuhukura
kuhumambo
kuhurumende
kuhuwandu
kuhwa
kuhwanda
kuhwange
kuhwapura
kuhwaro
kuhwata
kuhwatama
kuhwatsa
kuhwera
kuhwereketa
kuhwerengedzwa
kuhwina
kuhwira
kuhwiridzira
kuhwirira
kuhwitudza
kuhwunaira
kuibva
kuiita
kuijipita
kuimba
kuindia
kuine
kuinternational
kuipa
kuirika
kuirikidza
kuisa
kuise
kuisrael
kuiswa
kuita
kuitari
kuitawo
kuitika
kuitira
kuitirwa
kuitisa
kuitwa
kuizwi
kuja
kujaira
kujairika
kujala
kujapan
kujapani
kujata
kujeka
kujekesa
kujinga
kujingirisa
kujitika
kujobera
kujuja
kujujuka
kukadoma
kukadzi
kukaha
kukahadzika
kukaka
kukakama
kukakata
kukakavara
kukalaatira
kukalanga
kukama
kukamba
kukambaira
kukambairira
kukambani
kukameruni
kukamhina
kukamuka
kukamukira
kukamura
kukana
kukanda
kukanga
kukangaidza
kukangama
kukanganisa
kukanganiswa
kukanganwa
kukanganyara
kukangarara
kukangaridza
kukangwa
kukanidza
kukanya
kukaonde
kukariba
kukaringa
kukarira
kukarudza
kukasa
kukasira
kukataza
kukati
kukatsa
kukaura
kukava
kukaya
kukayanisa
kukaza
kukazira
kukenerana
kukenya
kukereke
kukerura
kuketa
kukidawida
kukila
kukiliya
kukinyarwanda
kukirundu
kukizigua
kukochanidza
kukodoba
kukododzvora
kukodza
kukodzera
kukohwa
kukoka
kukokera
kukokota
kukokovara
kukokwa
kukola
kukolela
kukoma
kukomba
kukombama
kukombera
kukomberedza
kukomberedzwa
kukomberera
kukomberwa
kukombodza
kukombodzwa
kukombora
kukomborera
kukomera
kukona
kukonda
kukondanzeru
kukondeka
kukondodza
kukondonoka
kukongonyara
kukonza
kukonzera
kukonzeresa
kukonzerwa
kukopera
kukora
kukoranidza
kukorea
kukoresebwa
kukorewa
kukoriya
kukorobha
kukoromoka
kukorora
kukosa
kukosha
kukosora
kukota
kukotama
kukoteka
kukotoka
kukotonoka
kukotsa
kukotsira
kuku
kukuchidzira
kukudza
kukudzwa
kukukura
kukukuta
kukukutara
kukula
kukulula
kukulupila
kukuma
kukumana
kukumba
kukumbana
kukumbanidza
kukumbira
kukumbuka
kukumbura
kukumura
kukuna
kukunda
kukundika
kukundikana
kukunduka
kukundwa
kukunga
kukungura
kukunguruka
kukungurutsa
kukupa
kukupira
kukupirwa
kukupuka
kukupura
kukura
kukurira
kukurirwa
kukuru
kukurudzira
kukurukura
kukurumbira
kukurumidza
kukurumuka
kukurunga
kukuruunda
kukusha
kukuta
kukutika
kukutisa
kukutsa
kukutsira
kukutsirana
kukutu
kukutura
kukutuza
kukutwa
kukuutira
kukuva
kukuvadza
kukuvadzwa
kukuvala
kukuvara
kukuwa
kukuya
kukuyiwa
kukwachura
kukwana
kukwanirana
kukwanisa
kukwapukana
kukwara
kukwasha
kukwashisa
kukwata
kukwatanura
kukwatika
kukwatura
kukwava
kukwazulu
kukwebededza
kukwebedeka
kukwedaira
kukwegura
kukwekwe
kukwekweretsa
kukwenga
kukwenya
kukwereta
kukweretesa
kukwesha
kukweva
kukwezva
kukwidibira
kukwidza
kukwidzwa
kukwikwidza
kukwikwidzana
kukwindidza
kukwindimara
kukwira
kukwirira
kukwita
kul
kula
kulaha
kulahanya
kulahika
kulahira
kulahwa
kulala
kulalika
kulamba
kulanga
kulango
kulatin
kuleka
kulela
kulelizwe
kulema
kulemba
kulenga
kulengwa
kulenje
kulesotho
kuleya
kuli
kuliberia
kuliha
kulima
kulinda
kulingana
kulipa
kulisa
kuloba
kulola
kulombela
kulonda
kulondon
kulonga
kulonganya
kulongola
kulos
kulu
kulugungu
kulugwere
kuluka
kulula
kuluma
kulumba
kulumbaizya
kulume
kulunda
kulunga
kulungama
kuluphira
kulya
kum
kuma
kumabasa
kumabhizinisi
kumabhuku
kumabiko
kumabudazuva
kumabvazuva
kumacammera
kumadhorobha
kumadokero
kumadondazuva
kumadziro
kumadziva
kumafuro
kumagetsi
kumagumo
kumahombekombe
kumaindustries
kumajudha
kumakomo
kumakore
kumakumbo
kumakumi
kumakwikwi
kumala
kumalawi
kumali
kumamisha
kumana
kumaneja
kumanga
kumanguka
kumanicaland
kumanika
kumanikidza
kumanikidzwa
kumanya
kumanyika
kumanyila
kumanza
kumaodzanyemba
kumaodzanyembaemadokero
kumapeto
kumapurisa
kumar
kumarondera
kumaruwa
kumasangano
kumashoko
kumashona
kumashonaland
kumashure
kumasvingo
kumasvomhu
kumatabeleland
kumatare
kumatebeleland
kumatenga
kumativi
kumatunhu
kumavirazuva
kumavirira
kumawodzanyemba
kumayunivhesiti
kumazowe
kumazwi
kumba
kumbe
kumberi
kumbi
kumbirai
kumbobvira
kumbomba
kumbombova
kumbomira
kumbondera
kumbugwe
kumbumura
kumbwandaira
kumedza
kumema
kumenya
kumera
kumeso
kumhan
kumhanya
kumhara
kumhatso
kumhepo
kumhiri
kumhondoro
kumhoresana
kumhotsa
kumhuka
kumhumha
kumhuri
kumi
kumiddle
kumidlands
kumigodhi
kumimina
kumiminika
kumimwe
kuminama
kuminda
kuminyuka
kumira
kumirai
kumirira
kumiririra
kumisa
kumisikidza
kumission
kumita
kumitauro
kumitisa
kumomotera
kumonana
kumonera
kumoneredza
kumonereka
kumonerera
kumononora
kumonyorora
kumora
kumotsa
kumount
kumoyo
kumozambiki
kumozambique
kumucheto
kumuenzanisi
kumugodhi
kumuitira
kumuka
kumukadzi
kumukira
kumukuru
kumunda
kumunhu
kumuravanembiri
kumuromo
kumuroora
kumurume
kumusana
kumusangano
kumusha
kumusoro
kumutambo
kumutauro
kumutsa
kumva
kumvurwi
kumwana
kumwararidza
kumwararika
kumwaya
kumwaza
kumwe
kumwedzi
kumwene
kumweta
kumwewo
kun
kuna
kunaka
kunakidza
kunakidzwa
kunakira
kunakirwa
kunama
kunamata
kunamatira
kunamba
kunamibia
kunamira
kunamuka
kunamwari
kunana
kunanaira
kunanga
kunangisa
kunanxi
kunanzva
kunasira
kunational
kunatsa
kunatsiridza
kunatswa
kunaya
kunda
kundai
kundandalika
kundandalitsa
kundandama
kundandarika
kundandisa
kundayi
kunde
kundebele
kundengenyeka
kundi
kundu
kundurira
kune
kunekaira
kunema
kunemba
kunemera
kunena
kunenedzera
kunenera
kunenga
kunenge
kuneta
kunetsa
kunetsana
kunetseka
kunetsekana
kunevarwere
kunew
kunewo
kung
kunga
kungaitwa
kunganidza
kungarikira
kungava
kunge
kungoona
kungoruma
kungoti
kungwara
kungwarira
kungwenda
kungwengwe
kunhadzira
kunhara
kunharaunda
kunhengo
kunhoka
kunhonga
kunhoroondo
kunhu
kunhuhwa
kunhuwa
kunhuwidza
kuni
kuniger
kunigeria
kuno
kunobata
kunobatsira
kunobikwa
kunobuda
kunobudisa
kunobva
kunobvisa
kunoda
kunodaidzwa
kunodanwa
kunodarika
kunodira
kunodya
kunodzidza
kunoenderana
kunofanana
kunofanirwa
kunogara
kunogona
kunoita
kunoitawo
kunoitika
kunoitikawo
kunoitwa
kunokonzera
kunokonzerwa
kunokurudzirwa
kunokwanisa
kunonga
kunongedza
kunongedzwa
kunonoka
kunonotsa
kunonwa
kunonyanya
kunonzi
kunoona
kunoonekwa
kunopa
kunopera
kunoperera
kunopimwa
kunopinda
kunopisa
kunoputsa
kunoramba
kunoratidza
kunoratidzwa
kunoreva
kunorth
kunorura
kunorwa
kunosakisa
kunosangana
kunosanganisira
kunoshanda
kunoshandisa
kunoshandiswa
kunosiyana
kunosvika
kunotanga
kunotaurwa
kunotevedza
kunotevedzwa
kunotevera
kunoti
kunotora
kunotsamira
kunotsvaga
kunouraya
kunouya
kunova
kunovharwa
kunowanikwa
kunowanzo
kunowedzera
kununa
kununganya
kununura
kunwa
kunwara
kunwira
kunwiririra
kunwisa
kunya
kunyado
kunyadzisa
kunyahwaira
kunyaira
kunyakatika
kunyamura
kunyanga
kunyangarika
kunyangata
kunyange
kunyangira
kunyangwe
kunyanya
kunyanyayidza
kunyara
kunyaradza
kunyarara
kunyatsofema
kunyauka
kunyautsa
kunyaya
kunyedza
kunyeeza
kunyeka
kunyemwerera
kunyenga
kunyengedza
kunyengera
kunyenguka
kunyepa
kunyepedzera
kunyepera
kunyera
kunyereteka
kunyeya
kunyika
kunyikwa
kunyima
kunyinura
kunyisa
kunyon
kunyongana
kunyonganisa
kunyongodeka
kunyongoroka
kunyora
kunyorera
kunyoresa
kunyorova
kunyorwa
kunyuka
kunyungudika
kunyunguditsa
kunyunguduka
kunyunyuta
kunyura
kunyurura
kunywa
kunze
kunzekaira
kunzi
kunzvenga
kunzvera
kunzvimbo
kunzwa
kunzwanana
kunzwika
kunzwikwa
kunzwisisa
kunzwisisana
kunzwisisika
kunŋ
kuoma
kuomba
kuombeka
kuombera
kuomerwa
kuomesa
kuona
kuonana
kuoneka
kuonekwa
kuonesana
kuonga
kuongorora
kuongororwa
kuonza
kuora
kuorora
kuostireriya
kuota
kupa
kupadura
kupaka
kupakana
kupakata
kupakati
kupakatira
kupakura
kupala
kupalila
kupamba
kupambana
kupambara
kupambazuka
kupambazura
kupambuka
kupamha
kupamhama
kupamhidza
kupamhidzira
kupanda
kupandana
kupandira
kupanduka
kupandukira
kupanga
kupangama
kupangana
kupangidza
kupangira
kupangura
kupapa
kupaparika
kupara
kuparadza
kuparadzana
kuparadzanisa
kuparadzaniswa
kuparadzira
kuparadzirwa
kuparadzwa
kuparamura
kuparara
kupararana
kupararira
kuparidza
kuparira
kuparura
kupasa
kupasura
kupata
kupatarika
kupatsana
kupatsanuka
kupatsanura
kupatsanurana
kupatsanurwa
kupavhurira
kupaza
kupedza
kupembedza
kupembera
kupemberera
kupemha
kupenda
kupendha
kupenengura
kupenga
kupengereka
kupenya
kupepa
kupepera
kupepereka
kupeperuka
kupepeta
kupepuka
kupera
kupereka
kuperekedza
kuperera
kuperevedza
kuperezeka
kupesa
kupesana
kupesanisa
kupesva
kupesvedzera
kupeta
kupetana
kupetauka
kupetera
kupfachukira
kupfava
kupfavisa
kupfeka
kupfekenura
kupfekera
kupfekwa
kupfeva
kupfidza
kupfimba
kupfimbika
kupfira
kupfirira
kupfozoka
kupfudza
kupfugama
kupfuma
kupfumba
kupfumbata
kupfumbira
kupfumisa
kupfungaira
kupfunha
kupfunya
kupfunyira
kupfupika
kupfupisa
kupfupiswa
kupfura
kupfurikidza
kupfuta
kupfutsa
kupfuura
kupfuurira
kupfuwa
kupfuya
kupfuyiwa
kuphala
kuphalira
kuphenduka
kuphoula
kupi
kupidigura
kupihwa
kupika
kupikisa
kupikisana
kupikiswa
kupima
kupimirana
kupimwa
kupinda
kupindana
kupindira
kupindirana
kupindiridza
kupinduka
kupindura
kupindurudza
kupindwa
kupinga
kupingudza
kupingula
kupingura
kupinimidza
kupiningura
kupinza
kupira
kupirikira
kupisa
kupiswa
kupita
kupiwa
kupodza
kupoka
kupokana
kupomba
kupombera
kupombonoka
kupombonora
kupomera
kupomerwa
kupona
kuponda
kupondwa
kuponesa
kuponeswa
kupopota
kupopotana
kupopotedzana
kupora
kuporesa
kuportuguese
kuposa
kuposana
kuposha
kuposhana
kupota
kupotera
kupoteredza
kupotereka
kupoterera
kupotsa
kupotsera
kupukaira
kupukuta
kupula
kupumha
kupumhura
kupundira
kupundudza
kupunga
kupungudza
kupunguka
kupungura
kupunungura
kupunyaira
kupunyuka
kupunza
kupupira
kupupuma
kupupurutswa
kupura
kupurinda
kupurira
kupururudza
kupuruzira
kupusa
kuputa
kuputika
kuputira
kuputsa
kuputudza
kuputwa
kupuvira
kupwa
kupwanya
kupweva
kupwira
kur
kura
kuradzika
kuragwa
kuraidza
kuraira
kurairidza
kuramba
kurambana
kurambidza
kuramwa
kuranda
kurandura
kurandutsira
kuranga
kurangana
kurangarira
kurapa
kurapanura
kurapiwa
kurapwa
kurara
kurarama
kurarika
kurarira
kurasa
kurasha
kurasika
kurasikirwa
kurasisa
kuratidza
kuratidzika
kuratidzira
kuratidzwa
kuraura
kurava
kuravana
kuravira
kuravura
kurawura
kurayira
kure
kureba
kurebesa
kurebwa
kuredza
kurefu
kurega
kuregerera
kurehwa
kurei
kurema
kuremara
kurembedza
kuremekedza
kuremekedzwa
kuremera
kurenga
kurepublic
kurera
kurereka
kureruka
kurerutsa
kuresva
kureva
kurevanya
kurevawo
kurevera
kureverera
kurevesa
kureya
kureyana
kurezva
kurhebwa
kurhodes
kurhodesia
kuri
kuridza
kuridzwa
kuriga
kuriita
kurikita
kurima
kurimwa
kurinda
kurindira
kuringa
kuringana
kuringanisa
kuripa
kuripira
kuripo
kuriputoni
kuripwa
kurira
kuririma
kurisa
kurishandisa
kurivara
kurodza
kurohwa
kuronda
kurondedzera
kuronga
kurongeka
kurongerwa
kurongwa
kuronza
kuronzera
kuroodza
kuroora
kuroorana
kuroorwa
kuropafadza
kurota
kurova
kurovana
kurovedza
kurovedzwa
kurovera
kuroya
kurozva
kurpfalz
kuru
kuruboshwe
kurudyi
kurudzanisa
kurudzi
kurudziro
kuruka
kurukutika
kurukwa
kuruma
kurumbidza
kurumbidzwa
kurume
kurumura
kurumwa
kurunda
kurunga
kurungama
kurungamika
kurungamisa
kurunganya
kurunzira
kururama
kururimi
kururudza
kurusape
kurussia
kurutsa
kuruwa
kuruzhinji
kurva
kurwa
kurwadza
kurwadzisa
kurwadziwa
kurwanda
kurwara
kurwisa
kurwisana
kurwiswa
kurwizi
kurya
kusa
kusaal
kusabereka
kusada
kusadya
kusadzikama
kusafa
kusagadzikana
kusagara
kusagona
kusagutsikana
kusaita
kusaka
kusakamara
kusakara
kusakaza
kusakisa
kusakura
kusakwana
kusala
kusalala
kusalisbury
kusamba
kusambaza
kusambazika
kusamhura
kusana
kusanangura
kusanaya
kusandudzira
kusanga
kusangana
kusanganisa
kusanganisira
kusanganiswa
kusangaya
kusara
kusarudza
kusarudzwa
kusarura
kusasa
kusasadzira
kusasauka
kusasika
kusasimira
kusatenda
kusatenderwa
kusati
kusatwasuka
kusatya
kusava
kusavapo
kusawirirana
kusaziva
kuscience
kuse
kuseama
kusefa
kuseka
kusekerera
kusekesa
kusema
kusenda
kusendama
kusendeka
kusendekera
kusendenudza
kusenegal
kusenga
kusengudza
kusenguka
kusepa
kusera
kuseredza
kuserera
kuserereka
kuseri
kusesa
kusesedza
kusetsa
kuseva
kusevenza
kusevura
kushaika
kushaikwa
kushaiwa
kushama
kushamba
kushambadza
kushambadzira
kushambidza
kushambira
kushamisika
kushamiswa
kushamwaridzana
kushana
kushanda
kushandika
kushandira
kushandirwa
kushandisa
kushandisirwa
kushandiswa
kushandudza
kushanduka
kushandura
kushandurwa
kushandwa
kushanya
kushanyira
kushara
kushata
kushatirwa
kushava
kushaya
kushayika
kushayikwa
kushayiwa
kusheedza
kushevedza
kushevedzera
kushigida
kushinga
kushingaira
kushingirira
kushinyira
kushisha
kushoko
kushoma
kushomeka
kushona
kushongedza
kushonha
kushora
kushoropodza
kushorwa
kushumira
kushumirwa
kushungurudza
kushungurudzwa
kushupa
kushura
kushure
kushusha
kushushikana
kushuva
kushuvira
kusierra
kusika
kusikwa
kusima
kusimba
kusimbisa
kusimika
kusimira
kusimudza
kusimudzira
kusimuka
kusimukira
kusina
kusingaperi
kusinina
kusipitika
kusiri
kusiya
kusiyana
kusiyanisa
kusiyaniswa
kusiyiwa
kusodza
kusoka
kusola
kusoma
kusomalia
kusona
kusongola
kusora
kusorana
kusouth
kusouthern
kust
kusudan
kusuduruka
kusuka
kusuma
kusumba
kusunda
kusundira
kusunga
kusungwa
kusunhura
kusununguka
kusunungura
kusunura
kusunzumara
kusura
kusurudza
kusuruka
kusurukirwa
kusuruvara
kususa
kususukidza
kusvava
kusveta
kusvetuka
kusviba
kusvibiswa
kusvika
kusvikika
kusvikira
kusvikwa
kusvina
kusvinudza
kusvinuka
kusvinura
kusvinyanga
kusvipa
kusvira
kusvirwa
kusvitsa
kusvitswa
kusvomhoka
kusvomhora
kusvotoka
kusvusvura
kusvuta
kusvuura
kuswa
kuswedera
kuswera
kut
kuta
kutaaha
kutaaruuka
kutadza
kutadzira
kutadzisa
kutafuna
kutaha
kutaika
kutaila
kutaka
kutakana
kutakanura
kutakunya
kutakura
kutakurira
kutakurwa
kutala
kutalika
kutama
kutamba
kutambala
kutambanudza
kutambanuka
kutambanura
kutambarara
kutambaza
kutambika
kutambira
kutambisa
kutambudza
kutambudzika
kutambudzwa
kutambura
kutamisa
kutamuka
kutana
kutanamara
kutanda
kutandabala
kutandalika
kutandanyara
kutandara
kutandauka
kutandavara
kutandika
kutandira
kutanga
kutanganyika
kutangira
kutangwa
kutanha
kutantalika
kutanya
kutanzania
kutapa
kutapidza
kutapira
kutapudza
kutapukira
kutapukirwa
kutapurira
kutapurirana
kutapurirwa
kutara
kutaramuka
kutaramukana
kutarangana
kutaridza
kutaridzika
kutaridzwa
kutarira
kutarirwa
kutarisa
kutarisana
kutarisira
kutarisirwa
kutarisisa
kutariswa
kutarwa
kutasva
kutatamuka
kutatamura
kutaudzana
kutaura
kutaurira
kutaurirana
kutauro
kutaurwa
kutawa
kutawala
kutaya
kutayika
kuteeka
kuteera
kuteerera
kuteereresa
kuteka
kutekaira
kutekenya
kutekenyedza
kutekeshera
kuteleka
kutema
kutemba
kutembedzana
kutemera
kutemwa
kutenda
kutendeka
kutendela
kutendera
kutenderana
kutenderedza
kutendereka
kutenderera
kutendeuka
kutenga
kutengana
kutengera
kutengesa
kutengeserana
kutengeswa
kutengwa
kutepana
kutepuka
kuterama
kuteramisa
kutesa
kutesva
kutesvera
kuteta
kutevedza
kutevedzana
kutevedzera
kutevedzerwa
kutevedzwa
kutevera
kuteverwa
kuteya
kuthe
kuti
kutima
kutimba
kutimhaira
kutindika
kutinha
kutiza
kutizira
kutizisa
kutodza
kutodzana
kutodzaniswa
kutogo
kutoka
kutokonora
kutola
kutomba
kutonda
kutondeka
kutonga
kutongana
kutongola
kutongwa
kutonhodza
kutonhora
kutonhorera
kutonhorwa
kutonona
kutonongora
kutora
kutoredzera
kutorwa
kutota
kutotanga
kutotota
kutova
kutowa
kutsa
kutsambuka
kutsamwa
kutsanangudza
kutsanangura
kutsanangurwa
kutsangudza
kutsanya
kutsara
kutsarira
kutsaru
kutsarukana
kutsauka
kutsaukana
kutsaura
kutsawura
kutsazana
kutsemura
kutsenga
kutsetsa
kutsetsenura
kutseyama
kutsi
kutsidza
kutsigira
kutsigirwa
kutsika
kutsikinura
kutsikisa
kutsikwa
kutsime
kutsimwaira
kutsindika
kutsindira
kutsindirika
kutsindirwa
kutsinhana
kutsinhanisa
kutsinhira
kutsinza
kutsiura
kutsiva
kutsivama
kutsivira
kutsoka
kutsokera
kutsoropodza
kutsumba
kutsunga
kutsungirira
kutsutsumwa
kutsva
kutsvaga
kutsvagwa
kutsvaira
kutsvaka
kutsvakwa
kutsvara
kutsvedza
kutsveta
kutsvetera
kutsveyama
kutsvinda
kutsvitsa
kutsvuka
kutsvukira
kutsvukuruka
kutswa
kutswanya
kutu
kutubuka
kutuhwina
kutuk
kutuka
kutukana
kutukuta
kutula
kutulula
kutuma
kutumba
kutumbuka
kutumbula
kutumbura
kutumidza
kutumira
kutunda
kutunga
kutungamira
kutungidza
kutungira
kutungwa
kutunhidzira
kutunilwa
kutura
kuturika
kuturikira
kuturikirwa
kuturikwa
kuturuka
kuturura
kutusa
kutushuka
kutushura
kututa
kututsa
kututuma
kutuzuka
kutwa
kutwara
kutwasuka
kutwila
kutya
kutyaira
kutyisa
kutyisidzira
kutyoka
kutyora
kuu
kuudza
kuudzadombo
kuudzwa
kuuganda
kuuka
kuuluka
kuumambo
kuumba
kuumbanidza
kuumbika
kuumbwa
kuunda
kuunga
kuungana
kuunganidza
kuunganidzwa
kuunited
kuuniversity
kuunza
kuunzika
kuuraiwa
kuuraya
kuurayiwa
kuuruka
kuurungana
kuus
kuusha
kuutongi
kuutsa
kuuya
kuuzuru
kuva
kuvabereki
kuvagari
kuvaima
kuvaka
kuvakadzi
kuvakirwa
kuvakuru
kuvakwa
kuvala
kuvalozi
kuvamba
kuvambira
kuvamwe
kuvana
kuvandama
kuvandudza
kuvandudzwa
kuvanga
kuvanhu
kuvanza
kuvapa
kuvapo
kuvara
kuvaraidza
kuvarume
kuvarungu
kuvarura
kuvashona
kuvata
kuvatengi
kuvava
kuvavarira
kuvavira
kuvaviwa
kuvawo
kuvaya
kuve
kuvenga
kuvengana
kuvepo
kuverenga
kuverengeka
kuverengera
kuverengwa
kuverereka
kuvesa
kuveura
kuveza
kuvhaira
kuvhakacha
kuvhara
kuvharidzirwa
kuvhariridzwa
kuvheneka
kuvhika
kuvhima
kuvhina
kuvhiringa
kuvhiringika
kuvhiya
kuvhota
kuvhuna
kuvhunduka
kuvhura
kuvhurwa
kuvhuvhuta
kuvictoria
kuviga
kuvimba
kuvimbika
kuvimbisa
kuvina
kuvinga
kuvira
kuviri
kuvirikira
kuvirima
kuvirisa
kuviruka
kuvuka
kuvula
kuvumbika
kuvunda
kuvusa
kuvwa
kuwa
kuwacha
kuwadzana
kuwadzura
kuwait
kuwaka
kuwamba
kuwana
kuwanda
kuwandira
kuwani
kuwanika
kuwanikwa
kuwanisa
kuwanza
kuwanzana
kuwaridza
kuwarika
kuwarira
kuwarura
kuwasha
kuwawa
kuwaza
kuwedzera
kuwedzerwa
kuweerera
kuwerengwa
kuweruza
kuwest
kuwira
kuwirirana
kuwisa
kuwokera
kuwoma
kuwomarara
kuwomba
kuwombeka
kuwombera
kuwombola
kuwomesa
kuwona
kuwonda
kuwondoroka
kuwonekera
kuwonekwa
kuwonesana
kuwonga
kuwongorora
kuwoolly
kuwora
kuworora
kuwumba
kuwuna
kuwunda
kuwundura
kuwunga
kuwuruka
kuwurura
kuwurutsa
kuya
kuyamba
kuyambira
kuyambuka
kuyambukira
kuyambutsa
kuyamura
kuyamwa
kuyamwisa
kuyanana
kuyananisa
kuyangarara
kuyanginenga
kuyanika
kuyanura
kuyaruka
kuyedza
kuyedzwa
kuyemedza
kuyenda
kuyenzana
kuyera
kuyere
kuyereka
kuyerekana
kuyerera
kuyererana
kuyerwa
kuyeuka
kuyeva
kuyimba
kuyunivhesiti
kuyuropu
kuza
kuzadza
kuzadzisa
kuzama
kuzamba
kuzambia
kuzambira
kuzana
kuzanga
kuzangaza
kuzara
kuzarura
kuzasi
kuzazambura
kuzbc
kuzembera
kuzere
kuzeya
kuzeza
kuzhamba
kuzhinji
kuzhinya
kuzika
kuzimbabwe
kuzipa
kuzipirwa
kuzipisa
kuzira
kuziririka
kuzita
kuziva
kuzivikanwa
kuzivira
kuzivisa
kuzivisana
kuziwumbe
kuziya
kuzodza
kuzola
kuzoona
kuzopinda
kuzora
kuzorora
kuzorwa
kuzoshanda
kuzoshandiswa
kuzotora
kuzova
kuzungulira
kuzungulusa
kuzungura
kuzunguza
kuzunza
kuzuva
kuzvambaradza
kuzvambarara
kuzvara
kuzvarwa
kuzvebura
kuzvibata
kuzvida
kuzvidya
kuzvidza
kuzvidzivirira
kuzvidzwa
kuzviita
kuzvika
kuzvikoro
kuzvimba
kuzvimbirwa
kuzvina
kuzvinhu
kuzvininipisa
kuzvipamhazve
kuzvipingura
kuzvipira
kuzvirwere
kuzvisarudzira
kuzvitarisira
kuzvitonga
kuzviuraya
kuzvomora
kuzvuva
kv
kw
kwa
kwaaigara
kwaakaita
kwaakaitwa
kwaamai
kwaari
kwababa
kwabanye
kwachihota
kwacho
kwadziva
kwadzo
kwaenda
kwagutu
kwai
kwaigara
kwaigona
kwainoitwa
kwairi
kwaita
kwaitwa
kwaiva
kwaive
kwaizvozvo
kwajesu
kwaka
kwakabatana
kwakabuda
kwakabva
kwakadai
kwakaderera
kwakadzika
kwakadziva
kwakafanana
kwakaguma
kwakaipisisa
kwakaita
kwakaitika
kwakaitwa
kwakakonzereswa
kwakakonzerwa
kwakakosha
kwakakura
kwakakurudzira
kwakakwana
kwakamuita
kwakanaka
kwakanakira
kwakananga
kwakanga
kwakange
kwakanyanya
kwakanyanyisa
kwakaperera
kwakapesana
kwakapinza
kwakare
kwakasimba
kwakasiyana
kwakasununguka
kwakatanga
kwakati
kwakauya
kwakava
kwakawanda
kwakazara
kwake
kwako
kwakutalika
kwakutama
kwala
kwama
kwamambo
kwamazuva
kwamba
kwamurehwa
kwamusana
kwamutare
kwamutoko
kwamwari
kwamwedzi
kwan
kwana
kwanaya
kwanda
kwande
kwandiri
kwandza
kwanga
kwangu
kwangwangwa
kwangwazhi
kwanisa
kwanza
kwanzi
kwapa
kwapera
kwara
kwaranta
kwaro
kwarusape
kwaseke
kwasviba
kwasvika
kwata
kwatara
kwaunoperera
kwauri
kwauya
kwava
kwavakaita
kwavanotaura
kwavari
kwave
kwavo
kwawa
kwawanikwa
kwawo
kwayedza
kwayo
kwazvimba
kwazvino
kwazvo
kwaŋ
kwe
kweafrica
kweafrika
kweafurika
kweantarctica
kweasia
kwebasa
kwebede
kwebhaibheri
kwebhotswana
kweboka
kwebu
kwebve
kwechamhembe
kwechari
kweche
kwechibereko
kwechiedza
kwechikwatamabwe
kwechimbwamupengo
kwechimwe
kwechindau
kwechinguva
kwechinguvana
kwechinhu
kwechinyakare
kwechirevo
kwechiro
kwechirongwa
kwechiropa
kwechirwere
kwechitendero
kwechiumbwa
kwede
kwedenda
kwedivi
kwedoo
kwedoro
kwedu
kwedumbu
kwedunhu
kwedyitenga
kwedzva
kweeurope
kweezhiya
kwefosi
kwefrance
kwega
kweganda
kwegore
kwegurumwandira
kweguta
kweguvhu
kwegwaro
kwegwenga
kweharare
kwehondo
kwehujoto
kwehukama
kwehumambo
kwehunhu
kwehunyanzvi
kwehupenyu
kwehupfumi
kwehuremu
kwehuro
kwehutachiona
kwehutano
kwehuwandu
kweise
kweiyo
kweizvi
kweizvozvo
kwejerusarema
kwekereke
kwekufamba
kwekugara
kwekugona
kwekunge
kwekunyora
kwekunze
kwekusiyana
kwekutamba
kwekutanga
kwekuti
kwekutumidza
kwekuve
kwekwe
kwekwema
kwema
kwemaawa
kwemabasa
kwemabwe
kwemadonhwe
kwemadzimai
kwemafuta
kwemagetsi
kwemahawa
kwemaitiro
kwemakore
kwemakumbo
kwemakungwa
kwemamiriro
kwemamwe
kwemari
kwemashandisirwo
kwemashizha
kwemashoko
kwemashonaland
kwemasikati
kwemask
kwemativi
kwematombo
kwemauto
kwemavhiki
kwemawere
kwemazamu
kwemazana
kwemaziso
kwemazita
kwemazuva
kwemazuvano
kwemazuvaose
kwemazwi
kwemba
kwemberengi
kwembeu
kwemboro
kwemhanza
kwemhepo
kwemhomho
kwemhuka
kwemhute
kwemikana
kwemishonga
kwemitauro
kwemitemo
kwemitengo
kwemiti
kwemombe
kwemoto
kwemoyo
kwemuchacha
kwemudhuri
kwemuenzanisi
kwemugwagwa
kwemukadzi
kwemukomana
kwemumwe
kwemunhu
kwemunhukadzi
kwemuromo
kwemurume
kwemusha
kwemushonga
kwemusoro
kwemutare
kwemutauro
kwemutemo
kwemutengo
kwemutsazanisi
kwemutsipa
kwemutumbi
kwemutungamiri
kwemuvandu
kwemuviri
kwemuzimbabwe
kwemvura
kwemwaka
kwemwana
kwemwedzi
kwemweya
kwenda
kwendege
kwendiri
kwenguva
kwenhamba
kwenhambwe
kwenharaunda
kwenhengo
kwenhoroondo
kwenhumbi
kwenyama
kwenyaya
kwenyika
kwenyu
kwenzanga
kwenzira
kwenziyo
kwenzvimbo
kwepamusoro
kwepandemic
kwepasi
kwepasirose
kweprime
kwepuresha
kwere
kwerede
kwerendende
kwerere
kwerinopasi
kweroma
kweropa
kweru
kwerudzi
kweruvara
kwerwizi
kwesa
kwesadza
kwesahara
kwesainzi
kwese
kwesere
kweseredza
kweshoko
kweshomwe
kwesimba
kwesimbi
kwespidhi
kwesva
kwesvondo
kwetafura
kwetanzania
kwete
kwetiri
kwetongola
kweunited
kweupenyu
kweuremu
kweuropi
kweutachiona
kweutano
kweva
kwevabereki
kwevakadzi
kwevamwe
kwevana
kwevanhu
kwevaranda
kwevari
kwevarume
kwevarungu
kwevashandi
kwevashona
kwevatema
kwevhu
kwezambia
kwezana
kwezera
kwezhizha
kwezimbabwe
kweziso
kwezita
kwezuva
kwezvakatipoteredza
kwezvidyo
kwezviitiko
kwezvikonzero
kwezvinhu
kwezviratidzo
kwezvirimwa
kwezvirongwa
kwezvirwere
kwezvivakwa
kwezvivi
kwezvombo
kwezwi
kwindi
kwindingwi
kwingwiri
kwinya
kwita
kwiŋ
kwoita
kwoitawo
kwokupedzisira
kwokuti
kwoleka
kwomuri
kwomwedzi
kwon
kwongela
kwonka
kwonzi
kwose
kwota
kwotevera
kwouya
kwozoti
kx
ky
kyalo
kyrgyzstan
kyung
kz
kɑ
kɔ
kə
kɨ
kɨndzu
kɩɖaʋ
kɪ
kʊ
l
l0
l1
l2
l3
l4
l5
l6
l7
l8
l9
la
lab
laba
label
labia
labor
laboratory
labour
labourer
labrador
labyrinth
lack
lacking
lad
ladder
ladle
lady
laetitia
lagwan
lahla
laid
lair
lake
lakes
lakhe
lal
lala
lam
lama
lamba
lambert
lambya
lame
lameck
lameness
lamenting
lamp
lampstand
lamula
lan
lance
lanceolata
lancet
land
landa
landing
landlord
lands
landscape
landslide
landula
lane
lang
langa
langi
language
languagelessons
languages
lanka
lannea
lantana
lantern
laos
large
largeness
larger
laro
larva
larynx
las
lash
last
lasted
lasting
late
latent
later
lateral
latifolius
latimer
latin
latitude
latrobe
latvia
lau
laud
laugh
laughing
laughs
laughter
launch
laura
laurent
law
lawa
lawful
lawrance
lawrence
laws
lawsuit
lawu
lawyer
lay
layal
layer
layers
lazarus
lazily
laziness
lazy
lb
lc
lcd
ld
le
lea
lead
leader
leaders
leadership
leading
leads
leaf
league
leah
leak
lean
leander
leaning
leap
learn
learned
learner
learning
least
leather
leave
leaved
leaves
leaving
lebanon
led
ledin
lee
leech
left
leg
legacy
legal
legend
legere
legged
legs
leishmaniasis
leisure
leka
lela
lele
lelo
lelozwi
lemba
lemon
lemoni
lend
lenga
length
lengthen
lengthwise
lenje
leo
leon
leonard
leone
leonotis
leopard
leopold
leper
lepidolite
leprosy
lerato
les
lesley
leslie
leso
lesotho
less
lessen
lesser
lessing
lesson
lessons
let
letter
letters
letu
level
lever
levirate
levitation
levy
lew
lewa
lewis
lexico
lexicon
leza
lf
lg
lh
li
liar
lib
libafu
libala
libenge
liberal
liberally
liberate
liberation
liberia
liberty
libra
library
libya
lice
lichela
lick
lid
lie
liechtenstein
lies
life
lifestyle
lifetime
lift
lifted
lifting
light
lighted
lighter
lightest
lightly
lightness
lightning
lights
lihaka
liikhumi
lika
likaka
like
likely
likeness
likes
likewise
liking
likolo
likonde
likumbi
lilac
lilowa
lilowe
lily
lim
lima
limb
limba
limbs
lime
limit
limited
limits
limp
limpopo
lina
linda
line
lineage
lines
linga
lingala
lingana
linganika
linganiza
linganya
linger
linguistics
lingwa
lini
lining
link
linking
lino
lintel
lion
lionel
lions
lip
lippincott
lips
liquid
liquids
liquor
lisa
lisekwe
liso
lisoka
lisolo
lisp
list
listen
listening
lit
lita
litapa
litawa
liter
literary
literature
lithium
lithuania
litigation
litongo
little
littleness
litwa
liuto
live
lived
livelingua
liver
lives
livestock
livet
living
livingstone
livre
lizard
lj
ljus
lk
ll
llc
llion
lloyd
lm
ln
lo
load
loaded
loads
loaf
loan
lobengula
lobo
lobola
loc
locadia
local
locality
located
location
locative
lock
lockdown
locke
locust
locusts
log
logarithm
logba
logic
logo
logy
loin
loincloth
loins
loiter
loitering
lokhu
lola
lolera
lolo
lom
lomba
lomntwana
lomuntu
lomwe
lonchocarpus
londa
london
lone
loneliness
lonely
lonesome
lonesomeness
long
longa
longe
longepedunculata
longer
longing
longipes
longitude
longo
look
looked
looking
looks
loose
loosely
loosen
looseness
loosening
loosing
loot
lop
lopit
lopper
loquat
lord
lorraine
los
lose
losing
loss
lost
lot
lotion
lotpublications
lots
loud
loudest
loudly
louis
louse
love
loved
lovemore
lover
loves
loving
low
lowa
lower
lowest
lowland
loyalty
lozano
lozi
lp
lpg
lq
lr
ls
lt
ltd
lu
lua
luala
luambo
luambua
luanda
luba
lubange
lubilo
lubukusu
lubwisi
luchazi
lucia
luck
lucky
lucy
luganda
lugbara
luggage
lugungu
lugwalo
lugwere
luhya
luis
luisa
luka
lukasa
lukau
luke
lukoa
lukone
lukuni
lukuta
lulama
lulimi
lulu
lum
lumba
lumbana
lumbar
lumberjack
lumbisya
lump
lunacy
lunar
lunatic
lunch
lunda
lundika
lundu
lung
lunga
lungs
lungu
lunya
lunyole
lunyolo
lunyoro
luo
lupane
lupeta
lupi
lupili
lupita
lurch
lure
luring
lusaka
lusaya
lusensa
lusese
lushinga
lusi
lusimo
lusoga
lusonga
lusongo
lusongola
lust
lustre
lususu
luta
lutali
lutangu
lute
luther
lutho
luti
lutombo
lututu
luusoongole
luv
luvale
luwala
luwali
luwanga
luwilo
luwo
luxembourg
luzoya
lv
lw
lwa
lwala
lwanda
lwendo
lx
ly
lya
lydia
lye
lying
lyon
lyrics
lz
lɑ
lɔ
lə
lənd
lɛ
lɪ
lʊ
m
m0
m1
m2
m3
m4
m5
m6
m7
m8
m9
ma
maacids
maagents
maak
maakiso
maali
maalibu
maalkali
maambo
maambonyina
maandiko
maandroid
maarabhu
maari
maartist
maasa
maasi
maat
maatomu
maawa
maawunzi
mabaa
mababa
mabables
mabanda
mabanja
mabanze
mabapa
mabara
mabari
mabarikira
mabasa
mabasi
mabatiro
mabatirwo
mabaya
mabayo
mabefuro
mabele
mabena
mabenge
mabesa
mabesha
mabeza
mabhachi
mabhanan
mabhanana
mabhande
mabhanga
mabharani
mabhazi
mabhi
mabhii
mabhindauko
mabhiza
mabhizinesi
mabhizinisi
mabhora
mabhuku
mabhureki
mabia
mabika
mabiko
mabikwa
mabinga
mabiribidi
mabirira
mabiyangu
maboko
maboma
mabongo
mabota
mabubbles
mabugu
mabunha
mabura
maburi
mabuse
mabuta
mabutho
mabutu
mabuwa
mabvazuva
mabvi
mabviko
mabviriro
mabviro
mabvumbo
mabvumwa
mabvute
mabvuto
mabwe
macedonia
machacha
machadu
machaka
machando
machani
machanzi
macharaga
machaya
machayina
macheka
macheke
machela
machena
machende
machera
machere
machero
macheso
machete
machevhu
machinda
machine
machinga
machingauta
machingura
machinjike
machipisa
machira
machiri
machiridza
machirika
machisa
machisi
machiti
macho
machongwe
machote
machumi
macibese
macittaattu
macmillan
macoloured
macompound
macompounds
maconde
mad
madade
madagascar
madagascariensis
madambarefu
madambi
madamombe
madandira
madangure
madanha
madanhamakonyo
madara
madavo
made
madeko
madekurozwa
madendere
madenderedzwa
madenge
madengo
madesa
madhagaskara
madhamu
madhanzi
madhiri
madhongi
madhonza
madhorobha
madhuku
madiki
madimba
madimbu
madimikira
madimutsa
madinda
madingindira
madira
madirano
madiro
madiwa
madiya
madness
mado
madoka
madokero
madomasi
madombwe
madondazuva
madondo
madonge
madongo
madonhwe
madoo
madora
madororo
madota
madrid
madudziro
madudzirwo
madungu
maduramazwi
maduro
madyangove
madyo
madzadza
madzembe
madzi
madzibaba
madzihwa
madzima
madzimai
madzimambo
madzinde
madzinga
madzingaidze
madzingira
madzingo
madzinza
madziro
madzishe
madzitateguru
madzitezvara
madziva
madzivadondo
madzivanzira
madziwa
madziya
madzonga
madzorera
madzoro
madzudzo
madzvamuse
mae
maelectromagnetic
maenza
maenzanhara
maenzymes
maepisodhi
maera
maererano
maerua
maesa
maezawa
mafa
mafambiro
mafariswa
mafashamo
mafashoni
mafemo
mafengu
mafi
mafika
mafirimu
mafiso
mafo
mafomu
mafosi
mafume
mafunda
mafunga
mafungiro
mafungo
mafuro
mafuta
mafutamhiri
mafutanhara
mafutarubwe
mafuwa
mafuwe
mafwe
magaa
magadzirirwo
magaka
magala
magalismontanum
magama
magamba
maganga
magara
magariro
magaro
magasa
magasi
magaya
magazine
magazini
magege
magemhu
magen
magetsi
magezi
maggot
magic
magistrate
magnate
magnesium
magnet
magnetic
magnitude
magnus
mago
magodo
magoga
magomba
magombedze
magombo
magonga
magongo
magonya
magonyo
magora
magoronga
magorwa
magova
magreek
magufu
magulu
magumba
magumbe
magumbeze
magumo
magungwa
magunje
magure
magusi
maguta
magutumukutu
magwa
magwada
magwaro
magwegwe
magwenya
magwere
magwerekwete
magweta
magwete
mah
mahachi
mahaka
mahakurimwe
mahala
mahara
mahatomu
mahawa
mahele
mahere
maheu
mahewu
mahlamvu
mahobi
mahobo
mahofisi
mahogany
mahoka
mahombe
mahombekombe
mahonga
mahorakora
mahosi
mahotera
mahumunya
mahuwe
mahwada
mahwekwe
mahwemusi
mahwere
mahwi
mahwite
mahydrocarbons
mai
maiba
maidei
maids
maidza
maiguru
maikorosikopu
mail
main
mainda
maindidze
maingire
mainland
mainly
maintain
mainza
maira
mairi
maita
maitikiro
maitiro
maitirwo
maiva
maive
maize
majaja
majaji
majaka
majang
majani
majekiseni
majestic
majesty
maji
majola
majome
majonga
major
majora
majore
majority
majudah
majudha
majuru
majuta
maka
makadii
makadiiwo
makahadziko
makahanana
makaka
makakatanwa
makala
makama
makamba
makambani
makambozvinzva
makamu
makamure
makanaka
makanda
makande
makandwa
makanga
makangara
makani
makano
makanyaire
makanza
makapa
makapinda
makara
makaramu
makaranga
makarau
makare
makarekare
makarenda
makari
makarichi
makaro
makarotsi
makarwe
makasa
makashu
makata
makati
makato
makatuni
makava
makavi
makawa
makaya
make
makeba
makebe
makei
makeke
maker
makereke
makes
maketo
makhado
makhadziso
makhala
makhanani
makhoikhoi
makhuva
makhuwa
makilomita
making
makirasi
makiromita
makiwa
mako
makoa
makobvu
makofi
makokera
makoko
makomba
makombe
makombiyuta
makombodzwa
makomborero
makombwe
makomo
makomva
makonde
makondero
makondomu
makone
makonga
makonge
makongo
makoni
makonje
makono
makonya
makonye
makonyo
makonzo
makonzwa
makoore
makopa
makope
makore
makoro
makorokoza
makosa
makosi
makota
makoto
makotore
makotorodzi
makotsa
makotsi
makova
makove
makovore
makowa
makoza
makristu
makua
makudo
makuhwa
makukumidzi
makukurudzi
makukutu
makumbanidzwa
makumbe
makumbi
makumbiro
makumbo
makumi
makumimana
makumimanhatu
makumimanomwe
makumimashanu
makumimatanhatu
makumimaviri
makumiviri
makunakuna
makundano
makunde
makunga
makungwa
makuni
makunike
makura
makuru
makurusa
makuseni
makusha
makushe
makuti
makutu
makuva
makuvaza
makuvire
makuvise
makuwa
makuwatsine
makuyu
makuza
makwai
makwakwa
makwanha
makwapa
makwata
makwatano
makwati
makwato
makwenzi
makwikwi
makwiro
makwita
makwito
mal
malaba
malachi
malady
malaika
malamba
malanga
malango
malaria
malawi
malawian
malay
malaysia
male
malele
malema
malenda
males
malformed
mali
malice
malicious
maliciously
malign
malinga
malinke
malinks
mall
malo
malogic
malola
malonda
malongo
malowa
malrondda
malt
malta
maluleke
malundu
malunga
malwa
mama
mamagazini
mamaira
mamaki
mamanga
mamawe
mamba
mambakwedza
mambara
mambera
mambiri
mambo
mambokadzi
mambure
mambwe
mametals
mamhare
mamina
mamineti
maminimini
maminitsi
mamirimita
mamirioni
mamirire
mamiriro
mamiriyoni
mamita
mammals
mammoth
mamorekuru
mamota
mamoyo
mampanda
mamuslim
mamvanda
mamviri
mamwe
mamwene
mamwewo
man
mana
manage
manageable
management
manager
managing
manamike
manana
mananga
manangazira
manangwa
manase
manda
mandangu
mandarin
mandatory
mandau
mandaza
mande
mandebele
mandell
mandengu
mandeya
mandimu
mandinema
mandinka
mandipaka
mandiraja
mandisodza
mandivamba
mando
mandudzi
mandundu
mane
maneja
manejimendi
manenja
manenji
maneno
manera
maneto
maneutron
mang
manga
mangala
mangani
mangava
mangawa
mangayi
mangere
mangisi
mango
mangoes
mangombo
mangondo
mangota
mangu
mangundya
manguni
mangwa
mangwana
mangwanani
mangwe
mangwende
manhamba
manhambara
manhanda
manhanga
manhangande
manhenda
manhenga
manheru
manhikatika
manho
manhombo
manhombwe
manhood
manhua
manhuchu
manhwa
manibhi
manica
manicaland
manifest
manikidzo
manila
maningi
manja
manje
manjena
manjengwa
manjeya
manjoro
mankanya
manliness
manner
manners
mano
manomano
manomwe
manonda
manondanhoka
manondanhuka
mansa
manual
manubhia
manuel
manuetrons
manufacture
manure
manwadhi
manwiwa
many
manya
manyaani
manyame
manyanga
manyani
manyanya
manyara
manyaro
manyau
manyawi
manyemba
manyemwe
manyene
manyepo
manyeruke
manyika
manyikana
manyina
manyira
manyire
manyoka
manyonda
manyonga
manyonge
manyorero
manyorerwo
manyoro
manyowa
manyuma
manyumba
manyumbu
manyumwa
manyunyu
manyura
manzere
manzi
manzvovera
manzwi
manzwiro
maodzanyemba
maoko
maondzanyemba
maonero
maonga
maore
maorera
map
mapadza
mapaka
mapako
mapale
mapali
mapalo
mapambanwe
mapanda
mapande
mapanga
mapangana
mapanganwa
mapango
mapani
mapanze
mapanzure
mapapiro
mapapu
mapara
mapato
mapatya
mapawa
mapazi
mapehwe
mapeji
mapemba
mapenda
mapendekete
mapendere
mapenzi
mapepa
mapepanhau
mapepu
mapere
mapereke
maperembudzi
mapesa
mapeta
mapeto
mapeya
mapeza
mapfeni
mapfihwa
mapfudza
mapfumbamwe
mapfumbu
mapfumo
mapfunde
mapfupa
mapfupi
maphone
maphorisa
mapika
mapimhidze
mapingure
mapipi
mapira
mapiritsi
mapisarema
mapiye
mapoka
mapona
mapondera
maponga
mapopoma
maportuguese
mapote
mapoto
mapping
maprouneifolia
mapudzi
mapundu
mapungu
mapungubwe
mapungwana
mapuno
mapuranga
mapurazi
mapurisa
mapurogiramu
maputo
maputuka
maputuke
maputukezi
mapuvire
mapuwe
mapweza
mar
mara
marabout
maradio
maradona
maraire
maramba
marambakuyana
maramura
maranda
marandure
maranga
marange
marangi
marangwanda
maranjisi
maranzi
marapiro
marara
mararamiro
mararike
marariya
marasha
marasta
marata
maraura
maravanyika
marawi
marble
marburg
march
mare
marecha
marechera
maredza
marefu
maregere
marekodhi
marenga
marenge
marengenya
marengu
marepa
marere
marevo
mareya
marezinesi
margaret
marhijoni
mari
maria
mariana
maricho
maridadi
marie
mariga
marijuana
marika
marikano
marikopo
marimba
marimo
marimuka
marimwezuro
marin
marinda
marindo
marine
maringa
maringe
maringwa
marini
marino
mario
mariri
mariro
marisa
marise
mark
marked
marker
market
marketing
marking
markings
marks
maro
marobots
maromo
maronda
marondera
marongerwo
maroon
maroro
maroveke
marowa
marriage
marriageable
marriages
married
marrow
marry
marrying
mars
marsh
marshall
marshy
marta
martha
martin
marudzi
marufu
marukutira
marula
marumbi
marume
marunga
maruni
marunye
maruru
maruva
maruwa
maruwo
marvel
marvelous
marwa
marwadzo
mary
masa
masaga
masaini
masaisai
masaka
masakwani
masala
masamba
masame
masamvu
masana
masanga
masangano
masanganzira
masango
masara
masaraure
masarirambi
masasa
masawi
masaya
masayendisiti
mascientist
masculine
masekela
maseko
masenda
masendeke
masengwe
masere
maseru
maseruka
masese
masevhisi
mash
mashaka
mashakada
mashambanzou
mashandiro
mashandirwo
mashandisirwo
mashanga
mashange
mashanu
mashanyare
masharo
mashauri
mashava
mashavave
mashavi
mashe
mashed
mashereni
mashi
mashizha
mashoko
mashoma
mashona
mashonaland
mashonga
mashonganyika
mashuku
mashura
mashy
masiginecha
masika
masikati
masike
masiketi
masimba
masimo
masimputomu
masinga
masinza
masiriri
masisitimu
masiya
masiyaharwa
masiyarwa
masiyiwa
mask
masks
masocha
masoja
masoka
masomere
masomero
mason
masonga
masongo
masonry
masosi
masowe
mass
mast
master
mastery
masteti
masticate
masuka
masuku
masukume
masumba
masunda
masundire
masunga
masutso
masvika
masvikiro
masvinga
masvingo
masvomhu
masvosve
maswera
maswiswi
masyllables
mat
mata
matabele
matabeleland
mataga
mataire
mataka
matakadza
matako
matala
mataluka
matama
matamba
matambiro
matambudziko
matamisa
matanda
matanga
matangaidze
matange
matangira
matangwa
matanhatanha
matanhatu
matanho
matani
matano
matapa
matapiri
matapure
mataranyika
matare
matarenda
matari
mataruka
mataruse
matarutse
matata
matateguru
matatu
matatya
matauriro
mataurirwo
matavi
matavire
matawa
match
matchaba
matched
matches
mate
matebele
matebeleland
matebwe
matehwe
mateka
matekenyandebvu
matekeshe
mateko
matema
matemera
matemo
matenda
matende
matendere
matendo
matenga
matenge
mateo
matepeta
matepo
matere
matereke
material
materialism
materials
materitori
maternal
materu
matete
mateu
mateura
matevhu
matewe
matewo
math
mathbf
mathematical
mathematics
mathias
maths
mati
matika
matikiti
matilda
matimba
matindike
matinenga
mating
matinji
mativi
matiza
matizamhuka
mato
matobo
matohwe
matoka
matombo
matonda
matondo
matonga
matongerwo
matongo
matongora
matope
matopos
matops
matora
matore
matoro
matowa
matransistor
mats
matsanga
matsi
matsikwa
matso
matsotsi
matsungo
matsutso
matsva
matsveru
matsvuku
matter
matters
matthew
matuka
matuku
matuma
matumba
matumbe
matumbu
matumburira
matumbwa
matumidzo
matunda
matunduru
matunhire
matunhu
matupa
matura
mature
maturing
maturity
maturo
maturure
maturusi
matuwa
matuzu
matuzvi
matwi
matyaka
maud
maulu
maumbirwo
maunde
maune
maunga
maungambari
maungamhanzi
maungira
maungu
maungwe
maureen
maurice
mauritania
mauritius
mauro
mauta
mauto
mautsahuku
mauya
mavambo
mavanga
mavara
mavaramwana
mavari
mavenda
mavetera
mavhawero
mavhengere
mavhiki
mavhina
mavhinga
mavhiri
mavhu
mavhudzi
mavhungu
mavi
mavindidze
maviri
mavis
mavo
mavonde
mavongwe
mavunga
mavuso
mavuwa
mawa
mawachi
mawanda
mawara
maware
mawawa
mawe
mawebhu
mawema
mawere
mawerera
mawindi
mawoko
mawongera
mawunga
mawunge
mawungwe
mawururwi
mawuta
mawuto
mawuyu
maxhosa
maximum
maxwell
may
mayaka
maybe
mayelana
mayera
mayere
mayererano
mayeresa
mayi
mayinda
mayo
mayor
mayunivhesiti
mazai
mazakwatira
mazambiringa
mazambuko
mazamu
mazana
mazanazana
mazanga
mazango
mazanhi
mazano
mazarura
mazaya
maze
mazengo
mazera
mazezuru
mazhanje
mazhinji
mazi
maziba
mazima
mazimbabwe
mazimbe
mazingazinga
mazingo
mazino
maziso
mazita
mazivanhanga
maziwa
maziwisa
mazonde
mazowe
mazuka
mazulu
mazungu
mazungula
mazuru
mazuva
mazuvano
mazuvaose
mazviita
mazvikokota
mazvimbakupa
mazviri
mazvita
mazwi
mb
mba
mbaa
mbaali
mbabvu
mbada
mbadzi
mbai
mbala
mbalabala
mbalazi
mbale
mbali
mbama
mbamba
mbambaira
mbambara
mbambiro
mbambo
mbanda
mbandama
mbandi
mbandu
mbanga
mbangu
mbangura
mbangure
mbani
mbanje
mbano
mbanza
mbara
mbarapati
mbaravara
mbare
mbarevare
mbari
mbarikwa
mbariro
mbasha
mbasi
mbata
mbatata
mbatatisi
mbati
mbato
mbatsanzaye
mbatya
mbava
mbavarira
mbavha
mbawa
mbayimbayi
mbayo
mbedzi
mbeki
mbel
mbela
mbele
mbeli
mbemba
mbembe
mbembesi
mbembi
mbenene
mbenge
mbengo
mbeni
mbepera
mbera
mbere
mbereko
mberembere
mberenga
mberengi
mberengwa
mberere
mberi
mbesa
mbesanwa
mbeta
mbetete
mbeu
mbeva
mbewe
mbewele
mbewu
mbeyu
mbezo
mbi
mbiba
mbichana
mbidzo
mbikira
mbikiti
mbila
mbili
mbilu
mbimba
mbimbi
mbindikwa
mbindo
mbingi
mbira
mbirapage
mbire
mbiri
mbirimi
mbirimo
mbiringa
mbirira
mbiriri
mbiriso
mbiro
mbiru
mbise
mbishi
mbita
mbiti
mbitu
mbiya
mbizi
mbo
mboa
mbodza
mbofana
mboi
mboka
mbokoto
mbolota
mboma
mbombedza
mbombera
mbombo
mbondiah
mbonga
mbongo
mbongoro
mboni
mboo
mboro
mboshi
mbote
mbotso
mbowa
mbowo
mbu
mbua
mbudo
mbudu
mbudzana
mbudzi
mbuji
mbula
mbule
mbuli
mbulwa
mbuma
mbumba
mbumbira
mbumu
mbunda
mbundire
mbune
mbungano
mbuni
mbunya
mbura
mbure
mburetete
mburo
mburuma
mburungwa
mburungwagama
mburuzvira
mbuso
mbuta
mbuto
mbutu
mbuu
mbuva
mbuwa
mbuwo
mbuya
mbuyangu
mbuye
mbuyu
mbuzi
mbwa
mbwanana
mbwanda
mbwe
mbwende
mbwera
mbwizhu
mbɔ
mbɛ
mc
mccosh
mcewen
mcfadden
mcgraw
mchina
md
mdc
mdr
mdzayo
me
mead
meadow
meal
mealie
mealies
mean
meaning
meanings
means
measles
measure
measured
measurement
measures
measuring
meat
mechanic
mechikamu
mechivakwa
med
meda
medal
mede
medhi
medhiteraniya
media
mediate
mediator
medical
medically
medicinal
medicine
medicines
mediterranean
medium
mediums
medu
meeda
meek
meekness
meet
meeting
meets
meg
mega
meghan
megomo
megore
mehondo
mehwabvu
meikles
meiyo
mekubatwa
mekufa
mekuita
mekunge
mekunzwa
mekupedza
mekutapukirwa
mekutora
mekuwana
melancholy
melanie
melanophloeos
melanoxylon
melanthera
melody
melon
melt
melting
melton
memakore
memateko
memazuva
memba
member
members
membrane
memedhi
memeza
memory
memuchero
memunhu
memuviri
memwedzi
men
mend
menduru
menguva
meningitis
meningococcal
meno
menstruation
mental
mentally
mention
mentioned
menu
menya
menyani
menzvimbo
mepu
mer
mera
merchandise
merchant
mercurius
mercury
mercy
mere
merely
merge
meridian
merit
merkel
merlin
mermaid
merriam
mes
mesa
mese
mesh
meso
mesopotamia
mess
message
messenger
met
meta
metal
metallic
metallurgy
metals
metaphor
meteorological
meter
meters
methane
method
methods
metre
metres
metropolitan
metsa
mevamwe
mexico
meya
meza
mezvi
mezvo
mf
mfana
mfecane
mfini
mfula
mfumu
mfunde
mfungua
mfuta
mfuti
mg
mgogo
mgongo
mgoshi
mh
mhaka
mhako
mhakure
mhamba
mhambarirwa
mhambu
mhamha
mhamhare
mhana
mhanda
mhandamabwe
mhandara
mhande
mhandi
mhando
mhandu
mhangani
mhango
mhangura
mhangwa
mhanje
mhanya
mhanza
mhanzi
mhapa
mhara
mharadzirwa
mharapara
mhararano
mhare
mhari
mharuparu
mhasa
mhashu
mhasuru
mhaswa
mhata
mhatso
mhazi
mhedzisiro
mhembe
mhembere
mhemberero
mhembero
mhembwe
mhende
mhene
mhenenguro
mhenga
mheni
mhenyu
mhepo
mhepobesu
mhepouso
mhere
mhesvamukono
mhesvi
mheta
mhetamakumbo
mhete
mheterwa
mheu
mhezi
mhiko
mhina
mhindo
mhindu
mhinduro
mhinga
mhingo
mhini
mhinjiriko
mhino
mhiri
mhiribidi
mhirikano
mhiriko
mhirimo
mhiripiri
mhiripiti
mhirizhonga
mhishi
mhiti
mhitsa
mhizha
mhlanga
mhodzi
mhodzigetsi
mhofu
mhola
mhombwe
mhomho
mhonde
mhondi
mhondoro
mhoni
mhopo
mhora
mhoro
mhoroi
mhoromoka
mhosho
mhosva
mhotsa
mhou
mhoze
mhudzi
mhuka
mhukahuru
mhukarume
mhukutu
mhumburu
mhumhi
mhundu
mhunduru
mhundwa
mhunga
mhungu
mhungubwe
mhuno
mhunzamusha
mhupu
mhuri
mhurikadzi
mhuru
mhururu
mhute
mhutwa
mi
mibairo
mibale
mibarirwana
mibato
mibayiro
mibisho
mibvunzo
mic
mice
michael
michelle
michena
michero
michigan
michina
michonne
michovha
microbiology
micrometer
micronesia
mid
midday
middle
midende
midhiya
midhudhudhu
midlands
midnight
midst
midwife
midzi
midzimu
midziyo
mienzaniso
mifananidzo
mifungo
mig
miganhu
might
mighty
migodhi
migogo
migraine
migrate
migration
migratory
miguri
migwagwa
mika
mikana
mike
mikeroni
miko
mikombe
mikono
mikova
mikowa
miksitepi
mikuru
mikwava
mild
miles
milingano
milingo
military
miliyoni
milk
milking
milkweed
milky
mill
mille
miller
millet
million
millipede
milton
mimanzi
mimba
mime
mimhanzi
mimosa
mimwe
mimwewo
min
mina
mind
minda
mindandaridza
mindedness
mine
mineral
mines
mineti
minga
mingi
mingle
minh
minhenga
mini
miniehle
minimum
mining
minister
ministers
ministry
minne
minnesota
minomwe
minor
minora
mint
minuta
minute
minutes
minwe
minzwa
mipanda
mipango
mipata
mipendero
mipfumbamwe
mipimo
mipinguro
miquelon
mirage
mirairo
mirawu
mirayiro
mirazvo
mirefu
miri
miriam
miriki
mirimo
mirira
miriwo
miriyoni
mirombe
miromo
mirongo
mirriam
mirrikh
mirror
misambo
misandu
misangano
miscarriage
mischief
mischievous
miser
miserable
misery
miseve
misfortune
misfortunes
misha
mishanu
misheck
mishi
mishina
mishoma
mishonga
mishoni
mishumo
mishwaira
misi
misihairahwi
misiyano
mislead
misleading
misodzi
misoro
miss
missile
missing
mission
mist
mistake
mister
misunderstanding
mit
mita
mitambariko
mitambo
mitanhatu
mitano
mitatu
mitauro
mitauronyina
mitchell
mite
mitemo
mitero
mitezo
miti
mitoro
mitowo
mitsara
mitsendo
mitsetse
mitsva
mitswe
mitt
mitumbi
mitunhu
mitupo
mitutu
mivhuso
miviri
mix
mixed
mixing
mixture
mizera
mizhinji
mj
mjengo
mjinga
mk
mkale
mkate
mkoa
mkoba
mkoi
mkondo
mkongo
mkono
mkonzi
mkonzo
mkozi
mkucha
mkulu
mkumbi
mkunga
mkupira
mkutano
ml
mlamba
mlambo
mlamu
mlandu
mlango
mlauzi
mlendo
mlilo
mlingano
mlinganyo
mlingo
mliswa
mlombezi
mlomo
mm
mmen
mn
mnangagwa
mnyama
mnyonge
mo
moa
mob
moba
mobocracy
mobola
mobutu
mock
mockery
mod
mode
model
moderate
modern
modhi
modza
moforojia
moi
moise
moises
moist
moisten
moisture
mojave
mokonzi
mokunge
mold
moldova
mole
molecular
molecule
molimo
moloko
molten
mom
mombassae
mombe
mombeshora
momene
moment
momentum
mona
monaco
monday
monde
mondia
mondial
mondo
monene
monerapo
money
mongo
monique
monitor
monitoring
monkey
mono
monoksaidhi
monomotapa
monovalent
monoxide
monster
montenegro
month
months
monticola
montreal
monument
monye
moo
mood
moon
moonlight
moore
mopane
moral
mordecai
more
moreblessing
moreki
moreover
morgan
moringa
morning
moro
morocco
morogo
morphology
morris
morsel
mort
mortality
mortar
morus
morwa
mosby
mose
moses
moshi
mosi
mosquito
most
mostly
mota
mote
moth
mother
motherless
mothers
motion
motivation
moto
motokari
motor
motshetshe
motsi
mould
moulding
moult
mound
mounds
mount
mountain
mountains
mourn
mournable
mourning
mouse
mouth
mouthful
move
moved
movement
movements
moves
movie
moving
moyo
moyochena
mozambiki
mozambique
mp
mpa
mpaka
mpakasa
mpala
mpale
mpali
mpambo
mpambu
mpanda
mpandaji
mpandi
mpando
mpango
mpanzi
mpata
mpazi
mpela
mpembe
mpembi
mpenga
mpepe
mpera
mpete
mpfofu
mpg
mphatso
mphepo
mpho
mpika
mpiku
mpila
mpiluka
mpinda
mpindi
mpinga
mpingo
mpisi
mpito
mpoma
mpombe
mponda
mpum
mpunga
mpyemo
mq
mr
mrima
mrongazuva
mrwetyana
ms
msaka
msali
msana
msanga
msangu
msika
msipa
msweta
mt
mtakutunilwa
mtala
mtali
mtambariko
mtanda
mtandi
mtandira
mtapo
mtawala
mtawarira
mtembo
mtemi
mtemo
mtendere
mtenga
mtengano
mtengo
mtengwa
mthunzi
mti
mtima
mtindo
mtinga
mtoa
mtongoli
mtongori
mtowi
mtsungi
mtu
mtukudzi
mtumba
mtundu
mtunga
mtungaji
mtungamiri
mtv
mu
muafrica
muafrika
muafurika
mualgeria
muamerica
muamerika
muana
muangola
muareka
muari
muasia
mubaba
mubairo
mubako
mubala
mubande
mubandirwa
mubangi
mubani
mubano
mubanze
mubarikwa
mubarirwana
mubasa
mubata
mubatanidzwa
mubati
mubato
mubatsiri
mubaya
mubayamhondoro
mubayi
mubayira
mubayiro
mubazi
mube
mubeche
mubeleki
mubenin
mubereki
muberere
mubhadharo
mubhaera
mubhaibheri
mubhanana
mubhazi
mubhedha
mubhizinesi
mubhodhi
mubhokisi
mubhotswana
mubhuku
mubi
mubiki
mubindu
mubinyi
mubinyo
mubira
mubishi
mubishingo
mubisho
mubodzi
muboka
mubonda
mubondo
muboo
muboora
mubota
muboterekwa
mubotswana
mubts
mubukuta
mubulawayo
mubumbiro
mubumbukumbu
mubuso
mubvamaropa
mubvuka
mubvumba
mubvumbi
mubvumo
mubvunzo
mubvunzurudzo
mubvuvi
mubvuwi
mucameroon
mucanada
mucape
mucaribbean
mucentral
much
muchacha
muchadenga
muchakata
muchamhembe
muchando
muchaneta
muchanza
mucharikwa
muchato
muchayina
mucheche
muchechetere
muchechi
muchedzi
muchegwa
mucheka
muchekechera
mucheko
muchembere
muchena
muchengeti
mucheni
muchenje
mucheno
mucherechedzo
mucheri
mucherikwa
muchero
muchete
mucheto
muchetura
muchiarabhu
muchiarabic
muchibantu
muchibereko
muchicago
muchichayina
muchichiri
muchiczech
muchidimbu
muchidza
muchidzi
muchidzidzo
muchiedza
muchifrench
muchifurenji
muchigerman
muchigiriki
muchihara
muchihebheru
muchiitalian
muchiitiko
muchijapani
muchikafu
muchikamu
muchikaranga
muchikomba
muchikoriya
muchikoro
muchikwata
muchikwepa
muchila
muchima
muchimbiri
muchimbo
muchimiro
muchina
muchinangwa
muchinda
muchindau
muchindebele
muchinga
muchingezi
muchinhu
muchinjikwa
muchinyakare
muchinyorwa
muchipatara
muchipersian
muchira
muchirahondo
muchiratini
muchirevo
muchiro
muchirongo
muchirongwa
muchirungu
muchishona
muchishongrish
muchisotho
muchispanish
muchiswahili
muchiswahiri
muchitendero
muchiti
muchitima
muchitofu
muchitsauko
muchitsonga
muchitswana
muchiuno
muchivande
muchivanhu
muchivenda
muchiverenga
muchivhenda
muchixhosa
muchizulu
muchizuru
muchochororo
muchongwe
muchoto
muchovha
muchowe
muchuchisi
muchuri
muchururu
mucongo
mucuna
mucus
mud
muda
mudala
mudambi
mudambo
mudandamanga
mudandemutande
mudanga
mudangwa
mudanhi
mudanho
mudarara
mudare
mudari
mudarikwa
mudariro
mudark
mudau
mudda
muddle
muddy
mudede
mudeke
mudekunye
mudeme
mudemocratic
mudenda
mudenderedzwa
mudenga
mudenge
mudengezeze
mudengu
muderede
mudetembi
mudhafu
mudhamu
mudhara
mudhe
mudhebhe
mudhindo
mudhiniwe
mudhipatimendi
mudhorobha
mudhudhudhu
mudhuri
mudhuze
mudida
mudikani
mudiki
mudima
mudimo
mudimu
mudingi
mudiwa
mudiwadiwa
mudo
mudodo
mudoko
mudokwenyu
mudoma
mudondo
mudonzvo
mudove
mudovodzanwa
mududu
muduku
muduma
mudumbi
mudumbu
mudunge
mudungwe
mudunhu
muduni
mudura
muduramazwi
muduri
muduso
mudutu
muduvuri
mudya
mudyakuwe
mudyakwose
mudyambira
mudyambudzi
mudyari
mudyatsonzo
mudyi
mudyo
mudza
mudzamba
mudzamisi
mudzanga
mudzani
mudzengerere
mudzepete
mudzi
mudzidzi
mudzidzisi
mudzidzo
mudzikinuri
mudzimai
mudzimba
mudzimu
mudzimwe
mudzindiko
mudzinganyama
mudzingwa
mudzinza
mudzira
mudziva
mudziviriri
mudzivisi
mudzivo
mudziyaishe
mudziyo
mudzonga
mudzongeri
mudzongwa
mudzuri
muearth
muene
muenexi
muenglish
mueni
muenzanisi
muenzaniso
muenzano
muenzi
mueritrea
muethiopia
mueurope
muezhiya
muezi
muface
mufakose
mufambi
mufananidzo
mufanechiya
mufarinya
mufaro
mufemo
mufenje
mufi
mufirimu
mufokosiyana
mufote
mufrance
mufudze
mufudzi
mufuka
mufuke
mufumba
mufume
mufumo
mufumu
mufunda
mufunde
mufundi
mufundisi
mufungo
mufunya
mufushwa
mufuta
mugabe
mugadziri
mugakatombo
mugambo
muganda
muganhiri
muganhu
muganyi
mugaragora
mugarakare
mugari
mugarire
mugariro
mugauri
mugaviri
mugawu
mugeri
mugermany
mugero
mugiredhi
muglendale
mugodhi
mugogo
mugola
mugomba
mugomberi
mugomo
mugongo
mugoni
mugore
mugoriondo
mugoro
mugota
mugoti
mugova
mugove
mugovera
mugozhi
mugrahamstown
mugrinnell
mugugu
mugumbapamwe
mugumo
mugunda
mugungwa
muguri
muguru
mugurura
muguruzuzu
muguta
muguzabheri
mugwagwa
mugwaku
mugwamura
mugwara
mugwaro
mugwati
mugwava
mugwavha
mugwazo
mugwenanguruve
mugwenga
mugwenhi
mugwenzi
mugweru
mugweze
mugwira
mugwiringwizha
mugwiti
muhacha
muhala
muhambo
muhangavha
muhara
muharare
muhari
muharonga
muhatura
muhawa
muhawu
muhindo
muhobo
muhobohobo
muhodzongwa
muhofisi
muhohoshwa
muhohozhwa
muhomba
muhombe
muhomwe
muhonde
muhondo
muhongo
muhoni
muhope
muhore
muhori
muhoro
muhoronga
muhovha
muhovhoni
muhubvu
muhudyu
muhukama
muhuku
muhumambo
muhumhizha
muhumi
muhungumira
muhunhu
muhunza
muhupe
muhupenyu
muhura
muhuranda
muhuro
muhuropi
muhuru
muhurukuro
muhurukuru
muhurumende
muhurumunde
muhushangazhi
muhutapwa
muhute
muhuwandu
muhwa
muhwakwa
muhwamba
muhwande
muhwayira
muhwendedzo
muhwezva
muhwiringwindi
muhwiti
muijipita
muimba
muimbi
muin
muindasitiri
muindiya
muine
muisha
muisi
muisrael
muisu
muiti
muitiro
mujapan
mujapani
mujati
mujawo
mujecha
mujejeje
mujeki
mujenya
mujeri
mujerumani
mujerusarema
muji
mujinga
mujivha
mujohannesburg
mujokoro
mujomba
mujuru
mukadzi
mukadzinyina
mukaha
mukaka
mukaki
mukalo
mukama
mukamba
mukamuri
mukana
mukando
mukanwa
mukanya
mukanza
mukaranga
mukare
mukarenda
mukari
mukarirano
mukaro
mukarobgwa
mukaronda
mukashi
mukashu
mukata
mukatakana
mukati
mukau
mukenya
mukeredzi
mukereke
muketa
mukhwani
mukicheni
mukiri
mukiriketa
mukiwa
muko
mukoa
mukobvu
mukokeri
mukoki
mukoko
mukoli
mukolo
mukoma
mukomana
mukomba
mukombachoto
mukombe
mukombo
mukome
mukomichi
mukonda
mukonde
mukondi
mukondiwa
mukondo
mukondoloke
mukondombera
mukondorongwe
mukonge
mukongo
mukonikoni
mukono
mukonori
mukonya
mukonza
mukonzi
mukonzo
mukoranidzwa
mukore
mukorezana
mukoro
mukoronga
mukororo
mukosera
mukosho
mukosi
mukoswa
mukota
mukotekwa
mukoti
mukoto
mukotsanjera
mukotsvanidzwa
mukova
mukowa
mukowasimbi
mukoyi
mukristu
mukua
mukuba
mukubika
mukubikwa
mukubvu
mukucha
mukucherechedza
mukudu
mukudzivirira
mukuedzwa
mukuenderera
mukufamba
mukugadzira
mukugadzirisa
mukuita
mukuku
mukukunda
mukukura
mukula
mukulu
mukuma
mukumba
mukumbanidzwa
mukumbi
mukumbura
mukume
mukuna
mukunda
mukundanzou
mukundi
mukundo
mukundu
mukunga
mukunguru
mukunguta
mukunya
mukunyadzi
mukunyora
mukunyorwa
mukuongorora
mukupa
mukupe
mukupedza
mukupera
mukupi
mukupira
mukupo
mukura
mukurerwa
mukuru
mukurumbira
mukurusa
mukuruva
mukurwisa
mukusa
mukuseka
mukushaiwa
mukushambadzira
mukushanda
mukushandura
mukushi
mukuta
mukutamba
mukutanga
mukutaura
mukute
mukuto
mukutsinhana
mukutsirani
mukutu
mukuumba
mukuwa
mukuwana
mukuwapasi
mukuwasha
mukuwashanyina
mukuwe
mukuwo
mukuyu
mukuzvingwarira
mukwaira
mukwakwa
mukwani
mukwasha
mukwashi
mukwasi
mukwati
mukwava
mukwazo
mukwekwe
mukweli
mukwenda
mukwende
mukwenyi
mukwere
mukwerera
mukwesha
mukweso
mukwidza
mukwiri
mulambi
mulamu
mulandu
mulatto
mulawa
mulberry
mule
muleki
mulema
mulenga
muliberia
mulilo
mulimo
mulinganya
mulingo
mulisi
muller
mulombe
mulonda
mulondon
mulonga
mulongi
mulongo
mulongozi
mulove
multi
multimedia
multiple
multiplication
multiply
multitude
mulumba
mulumbi
mulumbwana
mulume
mulundu
mulungu
mulwalo
muma
mumabasa
mumabhi
mumabhindauko
mumabhuku
mumabvazuva
mumadagascar
mumafirimu
mumafuta
mumagariro
mumagazini
mumaguta
mumahombekombe
mumaindustries
mumakomba
mumakomo
mumakore
mumakwenzi
mumakwikwi
mumalabs
mumalawi
mumamiriro
mumamwe
mumana
mumango
mumanicaland
mumaoko
mumap
mumapani
mumapapu
mumapepanhau
mumapoka
mumapurazi
mumarondera
mumarudzi
mumaruva
mumaruwa
mumasango
mumashizha
mumashoko
mumashure
mumatambudziko
mumatanga
mumatanks
mumatare
mumatombo
mumatondo
mumatoro
mumatunhu
mumavhiki
mumawoko
mumawuto
mumaziso
mumazita
mumazuva
mumazwi
mumba
mumbere
mumbumi
mumburungwagama
mumera
mumeso
mumhando
mumhanyi
mumhanzi
mumhatso
mumhepo
mumhingwe
mumhino
mumhodzi
mumhu
mumhuka
mumhuri
mumifananidzo
mumigwagwa
mumimhanzi
mumimwe
muminda
mumiriri
mumisha
mumitambo
mumitauro
mumiti
mumori
mumorocco
mumoto
mumoyo
mumozambiki
mumozambique
mumpanga
mumps
mumubatanidzwa
mumufananidzo
mumugwagwa
mumukaka
mumunda
mumunhu
mumupanda
mumupata
mumuromo
mumusha
mumusika
mumusoro
mumutambo
mumutandiro
mumutauro
mumuti
mumutuvi
mumuviri
mumvura
mumvuri
mumwaka
mumwe
mumwechete
mumwedzi
mumwena
mumwewo
mumweya
mumwiri
mumwoyo
mun
muna
munagunyana
munaka
munakandafa
munako
munaku
munakurume
munamati
munamato
munambudzi
munamibia
munanga
munangatire
munanxi
munanzi
munashe
munational
munatsi
munazarini
munch
munda
mundanda
mundandaridza
mundari
mundege
mundere
mundima
mundiro
mundo
mundu
mune
munemo
munene
munenge
munengwa
muneri
munew
munga
mungamba
mungando
mungani
mungano
mungarava
mungava
mungezi
mungole
mungongoma
mungoshi
mungoza
mungurawu
munguri
munguva
mungwariri
mungwaru
munhabvi
munhambo
munhanga
munhangu
munharaunda
munhau
munhemba
munhenga
munhengo
munhikwi
munho
munhondo
munhoroondo
munhu
munhukadzi
munhumbu
munhundurwa
munhuruka
munhurume
munhuwi
municipality
munigeria
munin
muninga
munjanja
munjeri
munjodzi
munjoma
muno
munogara
munondo
munongedzi
munongedzo
munongi
munongo
munova
munovhera
munowanikwa
munoyera
munoziva
munsi
munthu
muntu
munu
munungu
mununuri
munwe
muny
munya
munyai
munyairi
munyakwe
munyama
munyamhanji
munyanga
munyani
munyanza
munyara
munyaradzi
munyasi
munyati
munyatso
munyavi
munyaya
munyayi
munyemba
munyepfu
munyera
munyere
munyeu
munyevhe
munyeza
munyii
munyika
munyikae
munyimi
munyire
munyonga
munyonhi
munyori
munyoro
munyu
munzanga
munzendo
munzeve
munzi
munzira
munziyo
munzizi
munzuku
munzva
munzvi
munzvimbo
munzviro
munzwa
munzwisise
muo
muoceania
muombe
muomboli
muone
muongo
muongori
muongorori
muora
mupaka
mupakwa
mupali
mupambari
mupambo
mupambutsi
mupambwa
mupanda
mupandenyama
mupandi
mupandira
mupandiri
mupandirwa
mupando
mupangi
mupangidzi
mupango
mupangure
mupanguri
mupangwa
mupara
muparadzi
muparamhosva
muparamoto
muparavara
mupare
muparidzi
mupariwa
mupata
mupatya
mupemba
mupembe
mupemhi
mupendi
mupenyu
mupepeti
mupera
mupfana
mupfumba
mupfumi
mupfunga
mupfungwa
mupfupi
mupfura
mupfure
mupfuri
mupfuti
mupi
mupimbi
mupimbiri
mupimo
mupinda
mupindi
mupindu
mupinga
mupingi
mupinguri
mupini
mupinyi
mupira
mupiringani
mupita
mupitse
mupombe
mupomerwi
mupona
muponesi
muporofita
mupotaringa
mupoti
mupoto
mupretoria
muprovince
mupudzi
mupunga
mupuri
mupurisa
mupurwa
murahwa
muraibhurari
murairi
murairidzi
murairo
murakatira
murama
muramba
murambi
murambwi
muramu
muramwa
muranda
murandakadzi
murandu
muranga
murangariro
murango
murao
murapa
murape
murapi
murara
murarabungu
murashi
muratu
murau
muravu
murawu
murayiro
murazvo
murder
murdered
murderer
muredzi
murefu
murehwa
murekwa
murema
murembi
murenga
murenge
murengwa
mureri
murerwa
mureta
murevereri
mureza
murhepa
murhijoni
murhodesia
muri
muridzi
muridzo
murima
murimi
murimo
murinda
murindi
muringa
muringai
muringano
muringi
muringo
muripo
muriri
muriro
murisi
muriwo
murmur
muroma
murombe
murombedzi
murombo
muromo
muronda
murondo
muronga
murongazuva
muronge
murongi
murongo
muronzi
muroora
muropa
muroro
murovahanga
murove
murowa
muroyi
murray
muruambamhenyu
muruambanyeredzi
murubaya
murudhende
murudzi
muruko
murukova
murumana
murumba
murumbwana
murume
murunda
murundi
murunganyama
murungi
murungu
murunyararo
muruoko
mururimi
muruti
murutsoka
muruvara
muruwa
muruwi
muruwoko
muruzhinji
murwendo
murwere
murwi
murwiri
murwiti
murwiyo
murwizi
musa
musaala
musaara
musaba
musabayana
musafuri
musaga
musaint
musainzi
musaka
musakanyi
musakanzwa
musaku
musakwa
musambara
musambasi
musambo
musami
musamu
musana
musandarara
musande
musandu
musanganiswa
musangano
musango
musangu
musanhi
musanya
musapa
musara
musarara
musari
musaridzwa
musariri
musarirwa
musarudzo
musasa
musasavari
muscle
muscles
muscular
musee
museke
musekiwa
musekwa
musemwa
musena
musenda
musendami
musendo
musenegal
musenerera
musenga
museoul
musera
musere
muserimadzwa
museru
musesa
museum
museve
museveni
museya
museyamwa
museza
musezi
mush
musha
mushakabvu
mushakavanhu
mushamarari
mushamba
mushambadzi
mushambiri
mushana
mushandi
mushandirapamwe
mushandirwi
mushando
mushaninga
mushara
musharo
musharukwa
mushavi
mushayi
mushe
musheche
musheme
mushenjere
mushere
mushi
mushingairi
mushininga
mushishi
mushoko
mushoma
mushona
mushonga
mushore
mushove
mushowe
mushroom
mushrooms
mushu
mushumiri
mushumo
mushuna
mushure
mushutu
mushwaira
musi
music
musical
musika
musikana
musikanzwa
musikarudzi
musikavanhu
musikazvese
musiki
musimbi
musimbo
musimboti
musina
musinowo
musiwa
musiwo
musiyano
musk
muskool
muskwe
musodza
musodzi
musoja
musoki
musoko
musole
musombi
musonda
musongora
musongore
musoni
musonza
musope
musopero
musora
musoro
musosoti
musouth
musouthern
musowa
muspringstone
must
muster
mustering
musu
musulphuric
musumba
musumbi
musunamiswa
musunda
musunga
musungo
musungwa
musunji
musuo
mususu
musuva
musuwo
musvasva
musvinu
musvo
musvutugadzike
muswa
muswe
muswere
musweswe
muta
mutaa
mutadzi
mutahwa
mutaira
mutaka
mutakunanzva
mutakura
mutala
mutale
mutali
mutalo
mutamba
mutambara
mutambarakede
mutambariko
mutambi
mutambikwa
mutambo
mutambu
mutamiri
mutana
mutanda
mutandadzi
mutandamhuno
mutandanyoka
mutandare
mutandarika
mutandariko
mutande
mutandiko
mutandira
mutandiri
mutandiro
mutanga
mutange
mutanhaurwa
mutano
mutanzania
mutapa
mutapatsikidzi
mutape
mutapi
mutara
mutarara
mutare
mutari
mutariri
mutariro
mutaro
mutasa
mutasvi
mutata
mutauri
mutauriri
mutauro
mutauronyina
mutavayi
mutaviri
mutawa
mutawarira
mutayira
mute
muteka
muteke
mutekedza
muteki
mutema
mutemaringa
mutematsaka
mutemba
mutemberere
mutembo
mutembwa
mutemeri
mutemi
mutemo
mutenda
mutendeka
mutendeki
mutendera
mutendi
mutenga
mutengesi
mutengezanwa
mutengi
mutengo
mutengwa
mutenha
mutepo
muteremuko
mutero
mutes
mutesverwa
muteswa
mutete
mutevedzeri
mutevedzi
muteveri
muteyi
muteyo
mutezo
muthe
muti
mutilation
mutima
mutimiko
mutindo
mutinhimira
mutirikwe
mutiro
mutiti
mutitinini
mutivi
mutiza
mutizhe
muto
mutobvu
mutodi
mutohwe
mutoko
mutola
mutomba
mutondi
mutondo
mutondochuru
mutonga
mutongi
mutongo
mutongole
mutongoli
mutongore
mutongori
mutongoro
mutonono
mutora
mutore
mutori
mutoro
mutorwa
mutota
mutowa
mutowo
mutsa
mutsago
mutsakwani
mutsamiro
mutsamvi
mutsandanyama
mutsangidze
mutsaona
mutsara
mutsatsa
mutsau
mutsauko
mutsawashe
mutsazanisi
mutsemu
mutsena
mutsendo
mutsere
mutsetse
mutseyekwa
mutshidzi
mutshimbili
mutsho
mutsi
mutsigiri
mutsika
mutsikanzou
mutsime
mutsinda
mutsindo
mutsinga
mutsinyo
mutsinze
mutsipa
mutsoro
mutsubvu
mutsunga
mutsuwiko
mutsva
mutsvairo
mutsvaka
mutsvanga
mutsvangwa
mutsvene
mutsvina
mutsvuku
mutswa
mutswairo
mutswi
mutswiri
mutu
mutual
mutually
mutubuki
mutuda
mutuke
mutukudzi
mutukuta
mutukutu
mutumba
mutumbe
mutumbi
mutumbu
mutumbuka
mutume
mutumwa
mutunami
mutunda
mutundo
mutundu
mutunga
mutungamiri
mutungamiriri
mutunge
mutungi
mutunhu
mutupa
mutupo
mututa
mututu
mutuvi
mutuwa
mutuzva
mutwaro
mutwe
mutwi
mutwira
mutyairi
mutyora
muuganda
muumambo
muumbi
muundo
muunga
muunganidzwa
muunited
muunzikwa
muupenyu
muura
muus
muusa
muusavi
muushi
muuswa
muutsi
muuya
muuyi
muuyu
muuzhinji
muva
muvakadzi
muvaki
muvakidzani
muvambi
muvana
muvandu
muvangwa
muvanhu
muvara
muvarume
muvaya
muvengi
muverengi
muvezi
muvha
muvhenda
muvhiki
muvhimi
muvhoti
muvhu
muvhuro
muvhuso
muvi
muvingi
muviri
muvirimi
muvuki
muvumbi
muvusi
muvuso
muwake
muwale
muwanano
muwandi
muwane
muwani
muware
muwaya
muwings
muwuyu
muya
muyamba
muyambe
muyambi
muyambo
muyedzo
muyera
muyerero
muyeruza
muyi
muyimbi
muyira
muyouth
muyunivhesiti
muyuropu
muza
muzai
muzambia
muzambiringa
muzamhindo
muzana
muzanagore
muzanarwo
muzanebanga
muzanenhamo
muzanu
muzarabani
muzasi
muzaya
muzaza
muzeki
muzembe
muzembi
muzenda
muzendami
muzenza
muzera
muzhanje
muzhazhi
muzhinga
muzhingi
muzhinji
muzhizha
muzhombe
muzhumwi
muzi
muzima
muzimbabwe
muzimbabwean
muzinda
muzinga
muzira
muziro
muziso
muzita
muzivi
muziwumbe
muzodhiyaki
muzondo
muzongoza
muzorewa
muzu
muzukuru
muzungu
muzura
muzuva
muzvare
muzvere
muzvezve
muzvidzidzo
muzviitiko
muzviito
muzvikamu
muzvikoro
muzvina
muzvinabamba
muzvinabhizimisi
muzvinabhizinisi
muzvinafundo
muzvinapembe
muzvinhu
muzvinyorwa
muzvinzvimbo
muzvipatara
muzvirongwa
muzvisikwa
mv
mvale
mvana
mveko
mvenge
mveni
mvere
mvili
mvinya
mvula
mvuma
mvumi
mvumo
mvungu
mvura
mvurwi
mvuta
mvuto
mvututu
mvuu
mw
mwa
mwaana
mwaisowa
mwaka
mwako
mwala
mwale
mwali
mwaliko
mwalimu
mwambi
mwambo
mwame
mwami
mwamuka
mwamuna
mwan
mwana
mwanaaaka
mwanakalaba
mwanakashi
mwanakomana
mwanalume
mwananyina
mwanasikana
mwanda
mwandiki
mwando
mwanga
mwanja
mwanji
mwanya
mwanza
mwanze
mwape
mwari
mwaridi
mwasa
mwata
mwave
mwayera
mwazha
mwe
mwedzi
mwela
mwen
mwena
mwenda
mwendamberi
mwendi
mwendo
mwene
mweneco
mwenemutapa
mwenezi
mwenga
mwenge
mweni
mwenje
mwenye
mwenyezi
mwenyi
mwenza
mweri
mwero
mweru
mweya
mwezha
mwezi
mwi
mwida
mwila
mwimbi
mwine
mwini
mwinya
mwiri
mwiwa
mwonzora
mwoyo
mx
my
myambo
mycobacterium
myself
mystery
myth
mythology
mz
mzansi
mzembe
mzilikazi
mzima
mzinda
mzingile
mzunguluko
mzuri
mɔ
mə
mɛ
mɪ
mʊ
n
n0
n1
n2
n3
n4
n5
n6
n7
n8
n9
na
naa
naacp
naadolf
naalick
naamai
naambuya
naani
naapi
naara
naari
naartjie
naase
nababa
nabernard
nabo
nabts
nacecil
nachipo
nachisi
nacho
nachoni
nadine
nadr
nadzo
naelvis
nafanan
nag
nageorge
naghavi
nagurira
nah
nahweva
nahwo
naian
naija
nail
nails
naisaac
naiye
naizvozvo
naj
najin
najo
najoseph
najungkook
naka
nakai
nakambe
naked
nakedness
nako
nala
naleyonto
naliesl
nalupita
nam
nama
namadzibaba
namai
namambo
namangwana
namangwanani
namaqua
namasa
namata
namate
namathela
namazita
namazuva
namazwi
namba
nambya
namcewen
name
named
names
namibhiya
namibia
namike
naming
namorgan
namrongazuva
namuhla
namukoma
namupandira
namwanga
namwari
namwedzi
nana
nanasi
nancy
nand
nande
nane
naneputoni
nanga
nangazira
nanhasi
nanhingi
nani
nankosazana
nanyamatsatse
naomi
nap
napark
napascale
napasi
nape
napedyo
napeter
napo
napose
nar
nara
narebecca
narm
naro
narobert
narrate
narrow
naruwade
narwizi
narwo
nas
nasa
nasabhuku
nasachigaro
nasal
nasara
nascar
nasekuru
nashe
nasty
nasuga
natal
natalensis
natalie
natasha
natezvara
nathalie
nathan
nathomas
nation
national
nationality
nations
native
natsa
natt
natural
naturally
nature
natured
naume
naumwe
nausea
nauseate
nauseated
nauseating
navakadzi
navamwe
navana
navel
naver
navo
nawdm
nawe
nawo
naye
nayo
nazareno
nazi
nazvino
nazvo
nb
nc
ncbi
nchi
nchito
ncov
nd
nda
ndaa
ndabaningi
ndabezitha
ndabuda
ndabvisa
ndaita
ndaiti
ndakabarwa
ndakadidirika
ndakamuchezera
ndakaona
ndakati
ndakaziva
ndakazvinyora
ndala
ndalama
ndali
ndam
ndamo
ndandalika
ndandarika
ndandi
ndanga
ndangana
ndangariro
ndangu
ndani
ndaona
ndaone
ndapota
ndara
ndarama
ndaramo
ndarira
ndau
ndaudzo
ndava
ndaza
nde
ndeanoti
ndeaya
ndebele
ndebvu
ndeche
ndechekuti
ndechekutsvaga
ndechimwe
ndechipi
ndechokuti
ndedzinoti
ndee
ndeekuti
ndefu
ndega
ndege
ndeimwe
ndeipi
ndeiyi
ndeke
ndekwekuti
ndema
ndemedzo
ndemeredzi
ndemumwe
ndenge
ndengu
ndere
nderekuti
nderimwe
nderinoti
nderipi
ndeuyo
ndeverudzi
ndewako
ndewe
ndewekuti
ndeye
ndeyekuti
ndeyemombe
ndezve
ndezvekuti
ndezvinoti
ndi
ndiani
ndibaba
ndichamurova
ndichikama
ndichinyora
ndicho
ndidzo
ndihwo
ndikazhamba
ndiki
ndikisa
ndiko
ndikugamhe
ndima
ndimambo
ndimene
ndimi
ndimiwo
ndimo
ndimu
ndimutora
ndimwari
ndimwedzi
ndine
ndini
ndino
ndinoda
ndinoenda
ndinofunga
ndinogona
ndinonzi
ndinoti
ndinozokuita
ndipo
ndira
ndiri
ndiripo
ndiro
ndirwo
ndishe
ndisina
ndivo
ndiwe
ndiwo
ndiyani
ndiye
ndiyo
ndizvo
ndizvozve
ndlovu
ndo
ndokubva
ndokufuma
ndokukunda
ndokunge
ndokutanga
ndokuti
ndokuva
ndombola
ndomene
ndonda
ndondo
ndonga
ndongo
ndongwe
ndoro
ndosaka
ndoto
ndove
ndovi
ndowera
ndu
ndudzi
ndudzo
nduku
ndulu
nduma
ndume
ndunda
ndundu
ndunduma
ndunga
ndungu
nduramo
nduru
ndururani
nduyo
ndzala
ndzovu
ndɛ
ne
neacid
neafghanistan
neafrica
neafurika
neaids
neakiso
nealgeria
neamerica
neamerican
neamerika
neangola
neantarctica
near
nearby
nearly
nearness
neasia
neat
neatness
neau
neaustralia
neaustria
neavo
nebadza
nebaila
nebamba
nebanga
nebantu
nebasa
nebato
nebelgium
nebhahari
nebhakiteriya
nebhazi
nebhiza
nebig
nebindura
neblack
neboka
neboterekwa
nebotswana
nebrazil
nebritain
nebritish
nebts
nebuchadnezzar
nebudiriro
nebulawayo
nebumbiro
neburkina
neburma
neburundi
necameroon
necanada
necentral
necessary
nechamhembe
nechando
nechanza
nechara
neche
nechekare
nechekuchamhembe
nechekuita
nechekumabvazuva
nechekumadokero
nechekumaodzanyemba
nechekumusoro
nechekunze
nechekutanga
nechekuzasi
nechembere
nechena
nechepakati
nechepamusoro
nechepasi
nechero
nechewa
nechiarabhu
nechibage
nechibereko
nechibhakera
nechidenhi
nechidimbu
nechido
nechiedza
nechigadzikiro
nechigaro
nechigero
nechiitiko
nechikafu
nechikalanga
nechikamu
nechikara
nechikaranga
nechikomba
nechikonzero
nechikoro
nechikwata
nechimanyika
nechimiro
nechimiso
nechimuti
nechimwe
nechimwewo
nechina
nechinanga
nechinangwa
nechinhu
nechiratidzo
nechirevazita
nechirevo
nechiro
nechirongwa
nechirungu
nechirwere
nechishawasha
nechishona
nechisimba
nechisumamunyati
nechiswahiri
nechitima
nechiumbwa
nechivakamberi
nechivakashure
nechivhuno
nechixhosa
nechiyero
nechizulu
nechizvarwa
nechlorine
nechokudya
nechokwadi
nechombo
neck
necklace
necolombia
necongo
necote
necroatia
neczechia
nedambudziko
nedanda
nedare
nedehwe
nedemocratic
nedenda
nedenderedzwa
nedhaka
nedigo
nedivi
nedombo
nedonje
nedoro
nedovi
nedrama
nedrc
nedumbu
nedunhu
nedzavamwe
nedzidzo
nedzimwe
nedzimwewo
nedzinde
nedzinza
nee
need
needed
neediness
needle
needs
needy
neegypt
neempress
neengland
neenglish
neeswatini
neethiopia
neeurope
neezhiya
nefederated
nefodya
nefosi
nefrance
nefwe
neganda
negasi
negate
negative
negejo
negermany
neghana
negiryama
neglect
neglected
negligence
negligent
negodo
negomo
negonde
negonga
negonya
negonyo
negonyonhatu
negore
negotsi
negreece
negro
neguatemala
negudo
negumbeze
negumbo
negumi
negunganidzo
negungwa
negurutsuwa
neguruve
neguta
nehadzi
nehafu
nehama
nehanda
nehanya
nehanzvadzi
neharare
nehasha
nehemiya
nehepatitis
nehiv
nehondo
nehonzeri
nehope
nehor
nehoreka
nehova
nehudyu
nehudzamu
nehugari
nehujoto
nehukama
nehukoshi
nehukuru
nehumbowo
nehumhizha
nehungary
nehunhu
nehunhungo
nehunyanzvi
nehupenyu
nehupfu
nehupfumi
nehurapi
nehurefu
nehuremu
nehurongwa
nehuronyo
nehuroro
nehuroyi
nehurricane
nehurumende
nehurwere
nehushangazhi
nehuswa
nehutachiona
nehutachiwana
nehutongi
nehutsinye
nehuwandu
nehwaro
nehwasha
nehwendefa
nehydrogen
nei
neicho
neighbor
neighborhoods
neighbour
neighbourhood
neighbours
neil
neimwe
neina
neindia
neindonesia
neipi
neiran
neiraq
neiri
neirish
neisrael
neitaly
neither
neiyo
nejambwa
nejapan
nejekiseni
nejira
nekambani
nekanji
nekariba
nekati
nekenya
nekikongo
nekimanda
nekiribati
nekiroko
nekirundu
nekodzero
neku
nekubata
nekubatana
nekubatanidzwa
nekubudirira
nekuburitsa
nekuburitswa
nekubvisa
nekuchamhembe
nekuchengeta
nekuchengetedza
nekuchera
nekuda
nekudaro
nekuderera
nekudoka
nekududzira
nekuduka
nekudya
nekudyidzana
nekudzana
nekudzidza
nekudzivirira
nekudziwanisa
nekuenzanisa
nekufa
nekufamba
nekufambisa
nekufambiswa
nekufunga
nekugadzira
nekugamuchira
nekugara
nekugona
nekuimbawo
nekuisa
nekuita
nekukasira
nekukohwa
nekukura
nekukurudzira
nekukurumidza
nekukwikwidza
nekukwira
nekumabvazuva
nekumadokero
nekumakomo
nekumaodzanyemba
nekumashure
nekumbondera
nekumhanya
nekumusoro
nekumwe
nekunaka
nekunaya
nekune
nekunyora
nekunze
nekunzwisisa
nekuona
nekuonekwa
nekuongorora
nekupa
nekupararira
nekupenda
nekupera
nekupfuya
nekupi
nekupimwa
nekupisa
nekupiswa
nekuputika
nekurara
nekurarama
nekure
nekurima
nekurova
nekuruboshwe
nekusanganisa
nekushanda
nekushandira
nekushandisa
nekushandiswa
nekushanduka
nekushaya
nekushona
nekusikarudzi
nekusimudzira
nekusiyana
nekusvitsa
nekutamba
nekutandara
nekutanga
nekutara
nekutarisa
nekutaura
nekutaurirana
nekutenda
nekutengeserana
nekuti
nekutongwa
nekutora
nekutya
nekuumbwa
nekuunza
nekuurayiwa
nekuva
nekuvapa
nekuvapo
nekuverenga
nekuveza
nekuwana
nekuwanda
nekuwedzera
nekuzasi
nekuziva
nekuzivikanwa
nekuzvara
nekuzvarwa
nekwakabva
nelake
nelatin
nelenje
nelesotho
nelingala
nelly
nelson
nelugungu
nelugwere
nelunda
nema
nemabasa
nemabhii
nemabuwa
nemachena
nemadonhwe
nemadzimai
nemadzinza
nemadziro
nemadzishe
nemadzitateguru
nemadziva
nemafirimu
nemafungiro
nemafuta
nemagariro
nemagetsi
nemagonyo
nemaitiro
nemajudha
nemakambani
nemakavi
nemakomo
nemakonde
nemakore
nemakristu
nemakumbo
nemakumi
nemakurukota
nemalawi
nemali
nemambure
nemambwe
nemamiriro
nemamiriyoni
nemamwe
nemamwewo
nemana
nemandebele
nemang
nemangwe
nemanomwe
nemanyorero
nemanzwiro
nemaoko
nemaonero
nemapango
nemapazi
nemapfumbamwe
nemapfumo
nemapfupa
nemapoka
nemapuranga
nemapurazi
nemapurisa
nemarara
nemari
nemaronda
nemarudzi
nemaruru
nemaruva
nemasangano
nemasanzu
nemasere
nemashanu
nemashizha
nemashoko
nemashona
nemasvingo
nematabeleland
nematambudziko
nematanda
nematanhatu
nematatu
nematauriro
nematema
nemativi
nematombo
nematongerwo
nematunhu
nemauritania
nemauto
nemavara
nemaviri
nemawoko
nemawuto
nemaxhosa
nemazana
nemazano
nemaziso
nemazita
nemazulu
nemazuva
nemazvo
nemazwi
nembada
nembariro
nemberi
nembeu
nembeva
nembiri
nembizi
nembo
nemboro
nembudzi
nembwa
nemccarter
nemexico
nemhaka
nemhandara
nemhande
nemhando
nemhara
nemhedzisiro
nemhemberero
nemhepo
nemhino
nemhosva
nemhuka
nemhunga
nemhuno
nemhuri
nemhute
nemichero
nemichina
nemidlands
nemidzi
nemidzimu
nemidziyo
nemifananidzo
nemikana
nemikono
nemimwe
nemimwewo
neminzwa
nemipanda
nemiriwo
nemisha
nemishonga
nemitambo
nemitauro
nemitemo
nemiti
nemitsetse
nemiviri
nemombe
nemontenegro
nemoto
nemotokari
nemoyo
nemozambiki
nemozambique
nempumalanga
nemu
nemuchacha
nemuchegwa
nemudumbu
nemudzidzisi
nemudzimai
nemuenzanisi
nemufaro
nemuganhu
nemugoti
nemugwagwa
nemukadzi
nemukaka
nemukanwa
nemukati
nemukoma
nemukomana
nemukondombera
nemukono
nemukuru
nemukurumbira
nemumhanzi
nemumhepo
nemumvura
nemumwe
nemunhu
nemunhukadzi
nemunhurume
nemunin
nemunyika
nemunyori
nemunyu
nemunzi
nemupanda
nemurazvo
nemurhepa
nemuridzi
nemuromo
nemuronga
nemurume
nemusana
nemusha
nemushonga
nemusi
nemusikana
nemuskwe
nemusoro
nemutambariko
nemutambo
nemutauro
nemutemo
nemutengo
nemuteremuko
nemuti
nemuto
nemutowo
nemutsa
nemutsetse
nemutsi
nemutsindo
nemutsipa
nemutumbi
nemutungamiri
nemutungamiriri
nemutupo
nemuvhu
nemuviri
nemuyimbi
nemuzendami
nemuzinda
nemvura
nemwaka
nemwana
nemwanakomana
nemwanasikana
nemwedzi
nemwero
nemweya
nen
nena
nenamibia
nendamo
nendangariro
nendarira
nendebele
nendege
nendima
nendimi
nendiro
nene
nenera
nenew
nenga
nengano
nenge
nengeka
nengochani
nengoma
nenguke
nenguruve
nenguva
nengwa
nenhamba
nenhambo
nenhambwe
nenhandare
nenhanhatu
nenharaunda
nenhatu
nenhau
nenhengo
nenhepfenyuro
nenhoo
nenhoroondo
nenhraunda
nenhumbi
nenhumbu
nenhunzi
nenhururwa
neni
nenigeria
nenjere
nenjodzi
neno
nenomwe
nenorth
nenorway
nensenga
nenumeri
nenyama
nenyanga
nenyanza
nenyanzvi
nenyasaland
nenyati
nenyaudzosingwi
nenyaya
nenyemba
nenyere
nenyeredzi
nenyika
nenyoka
nenyuchi
nenyundo
nenzara
nenzeve
nenzira
nenziyo
nenzizi
nenzou
nenzufu
nenzungu
nenzvimbo
neo
neoman
neon
neonatal
neoxygen
nepa
nepaburi
nepakati
nepakuwanda
nepal
nepamusana
nepamusoro
nepamuviri
nepane
nepapua
neparaguay
nepashoma
nepasi
nepawa
nepedyo
nepeji
nepenzura
nepepanhau
nepetifolia
nepfuma
nepfumbamwe
nepfumo
nepfungwa
nepfuti
nephilippines
nepimanyika
nepo
nepuresha
neputoni
neranjisi
nerekuti
nerepublic
nerheti
neria
nerima
nerimwe
nerinopasi
nerinoti
neriri
nerokuti
nerombo
neronga
neropa
neroyal
nerubatsiro
nerudo
nerudzi
nerudzivo
nerufu
nerukova
nerupande
nerupfunde
nerupiri
neruremekedzo
nerurimi
nerussia
nerussian
nerutsigiro
neruvara
neruwoko
neruzha
neruzhinji
neruzivo
nerve
nerves
nervous
nerwanda
nerwendo
nerwizi
nerwodzi
nesaint
nesalt
nesamoa
nesangano
nesaudi
nescience
nesekondari
neseptember
neserbia
nesere
neshamba
neshamhu
neshamwari
neshangu
neshangwe
neshanje
neshanu
neshinda
neshiri
neshoko
neshona
neshuga
neshumba
neshungu
neshure
neshuro
nesikati
nesimba
nesimbi
nesioma
nesora
nesouth
nespain
nespidhi
nest
nesu
nesudan
neswahili
nesweden
nesyria
net
netaita
netaiwan
netambo
netanzania
netariro
neterevhizheni
nethailand
nethe
netherlands
netonga
netropic
nets
netsanga
netsaona
netsazaniso
netsika
netsinga
netsoka
netsvimbo
netsvina
netsvuku
nettle
netumbuka
netunisia
neturkey
network
netyava
neuganda
neumbundu
neumhutu
neumwe
neunited
neupenyu
neurology
neurosurgery
neuruguay
neus
neusa
neuso
neut
neutachiona
neutachiwana
neutron
neuwo
neuyo
nevabati
nevabemba
nevabereki
nevabukusu
nevabwisi
nevachena
nevacheri
nevachewa
nevadigo
nevadzidzi
nevadzidzisi
nevadzimu
nevaganda
nevagari
nevagiryama
nevagungu
nevagwere
nevaherero
nevaimbi
nevakadzi
nevakalanga
nevakaranga
nevakawanda
nevakoma
nevakomana
nevakongo
nevakuru
nevalenje
nevalozi
nevalugungu
nevamambwe
nevamwe
nevamwewo
nevana
nevanakomana
nevanasikana
nevangala
nevanguni
nevanhu
nevanhukadzi
nevanhurume
nevanin
nevanji
nevanuatu
nevanyakyusa
nevanyori
nevanyoro
nevanyungwe
nevapambi
nevapanduki
nevara
nevaranda
nevarapi
nevari
nevarimi
nevaroma
nevarume
nevarundi
nevarungu
nevarwere
nevarwi
nevashambala
nevashandi
nevashanyi
nevashona
nevasikana
nevasipo
nevaswahili
nevataita
nevatambi
nevatauri
nevatema
nevatengi
nevateveri
nevatonga
nevatongi
nevatsonga
nevatsoropodzi
nevavakidzani
nevavengi
nevavezi
nevaviri
nevawabo
nevawanga
nevaya
nevayao
nevazhinji
nevazigula
nevazukuru
nevazungu
nevechidiki
nevenezuela
never
nevers
nevese
nevhu
nevhudzi
nevictoria
nevietnam
new
newaya
newcomer
newe
newest
newly
newness
neworld
news
newsday
newsen
newspaper
newton
newtonia
newzimbabwe
next
neyale
neyao
neye
neyuropu
nezai
nezambia
nezapu
nezera
nezerere
nezigula
nezimbabwe
neziso
nezita
neziyambira
nezulu
nezuro
nezuva
nezvacho
nezvadzo
nezvake
nezvaro
nezvawo
nezvayo
nezvazvo
nezve
nezvehondo
nezvematongerwo
nezvemhuri
nezverufu
nezvetsika
nezvidhinha
nezvido
nezvidzidzo
nezvigayo
nezvigunwe
nezviitiko
nezviito
nezvikamu
nezvikara
nezvikepe
nezvikonzero
nezvikoro
nezvikwata
nezvimiti
nezvimwe
nezvimwewo
nezvinangwa
nezvinetso
nezvinhu
nezvinodiwa
nezvinorehwa
nezvinyorwa
nezvipembenene
nezvipo
nezvirango
nezviratidzo
nezviri
nezvirimwa
nezviripo
nezvirongwa
nezvirwere
nezvishanu
nezvishoma
nezvisikwa
nezvitsuwa
nezviuru
nezviviri
nezviyero
nezvizvarwa
nezvombo
nezvose
nezwi
nf
ng
nga
ngabe
ngai
ngaikomborerwe
ngala
ngalawa
ngalika
ngalwe
ngambi
ngamo
ngana
ngandu
nganga
ngani
ngano
nganonyorwa
nganya
ngara
ngarara
ngarava
ngari
ngariiswe
ngarikuni
ngarluma
ngarwe
ngata
ngate
ngatitarisei
ngatiti
ngatitii
ngava
ngavi
ngazi
ngba
ngbaka
ngcuka
nge
ngeiro
ngendaa
ngesure
ngezi
ngezina
nghala
nghamera
ngiemboon
nginengwa
nginga
ngirozi
ngo
ngobe
ngochani
ngoda
ngoi
ngokukasira
ngokuti
ngoma
ngoman
ngomani
ngombe
ngombeyarara
ngombo
ngome
ngomuriro
ngomwa
ngondoma
ngongoni
ngoni
ngonidzashe
ngono
ngonye
ngoro
ngota
ngote
ngoto
ngoyi
ngozi
ngua
ngulu
ngulube
nguma
ngumi
ngundu
nguni
nguno
ngunzi
nguo
ngupiro
ngura
ngururu
nguruve
nguva
nguvu
nguwani
nguwo
nguzu
ngwan
ngwarai
ngwarati
ngwarira
ngwe
ngwena
ngwenya
ngwere
ngwerewere
ngwindi
ngwɛl
ngɔ
nh
nha
nhabvu
nhachi
nhafu
nhai
nhaka
nhakaniso
nhakiwa
nhala
nhamba
nhambetambe
nhambo
nhambwe
nhamo
nhanda
nhandara
nhandare
nhandi
nhando
nhanga
nhangande
nhango
nhanhatu
nhanho
nhano
nhanzva
nhapi
nhapitapi
nhapwa
nhara
nharadada
nharangani
nharara
nharaunda
nharawanzi
nhare
nharemado
nharembozha
nhari
nharira
nharire
nharo
nharu
nhasi
nhatu
nhau
nhaurirano
nhaurwa
nhava
nhavani
nhekairo
nhekwe
nhema
nhemachena
nhemba
nhembe
nheme
nhemo
nhenda
nhende
nhenga
nhenge
nhengo
nhengodzivo
nhengopfunha
nhengu
nhepfenyuro
nherera
nhesa
nhete
nhetembo
nhetemwa
nhevedzano
nhevedzwa
nheyo
nhika
nhimbe
nhimuramwaka
nhindi
nhinhi
nhire
nhiriri
nhiwatiwa
nhiyo
nhoko
nhokwe
nhomba
nhondo
nhongo
nhongonya
nhongwa
nhonho
nhoo
nhooina
nhoorondo
nhooshanu
nhoozhinji
nhopi
nhoro
nhoroondo
nhoto
nhova
nhovo
nhubu
nhuka
nhukira
nhumba
nhumbana
nhumbi
nhumbu
nhume
nhunde
nhundu
nhunduru
nhungamiri
nhungo
nhungu
nhunguru
nhunzi
nhunzvi
nhuri
nhurikidzwa
nhururwa
nhuta
nhutirwa
ni
nicaragua
nice
nicely
niceness
nicholas
nicht
nick
nickel
nickname
nicole
nielsen
nigel
niger
nigeria
niggardly
night
nih
nikkole
nile
nilo
nina
nine
ninga
ningo
nini
nipple
nise
nito
nitrate
nitric
nitrogen
nitrojeni
niue
niyoni
nj
nja
njala
njalo
njandaya
njani
njanja
njanji
nje
njee
njelele
njem
njemo
njenje
njera
njere
njeya
nji
njila
njinga
njiri
njiva
njodzi
njoka
njonda
njovu
njowa
njube
njuchi
njuma
njuzu
nk
nkala
nkata
nkhata
nkhonde
nkhumba
nkhunde
nkokwe
nkom
nkomerero
nkomo
nkondo
nkono
nkonya
nkore
nkua
nkulumane
nl
nlm
nm
nme
nn
nna
nne
no
noa
noah
nobel
nobert
noble
nobody
nod
nodding
node
noise
noisily
noisy
noko
noku
nokucherechedza
nokuda
nokudaro
nokudya
nokufamba
nokugara
nokuita
nokukasira
nokukura
nokukwira
nokumwe
nokunge
nokunyora
nokunze
nokuona
nokupa
nokuparadza
nokupinda
nokurima
nokushandisa
nokusingaperi
nokusiyana
nokutama
nokutaura
nokutenda
nokutengesa
nokuti
nokutya
nokuva
nokuwanda
nokuwaniswa
nokuzipa
nolan
nom
noma
nomad
nombo
nomia
nominal
nominate
nomination
nomona
nomos
nomoyo
nomsa
nomuchinanga
nomugwagwa
nomukadzi
nomukaka
nomukoma
nomumwe
nomunhu
nomunin
nomurume
nomutowo
nomuviri
nomwana
nomwe
nomwena
nomwene
nomwero
nomweya
nomy
non
nonda
nondo
none
nonga
nongo
noni
nonplussed
nonsense
noodle
noon
noose
nor
norah
norkin
normal
normally
norman
normani
north
northern
northernndebele
norton
norukova
norusarura
norway
norwegian
nose
noso
nostril
nostrils
not
notable
notch
note
notebook
notes
nothando
nothing
notice
notices
notoriety
noun
nouwandu
nov
novel
novelist
november
novhero
now
np
npr
nq
nr
ns
nsambo
nseke
nsenga
nsepo
nshe
nshi
nsi
nsima
nsimbi
nsito
nsitu
nso
nsongo
nswa
nt
nta
ntala
ntambo
ntandala
ntandiko
ntanga
ntate
ntaŋ
ntcham
ntekwe
ntembo
ntenda
nth
nthawe
ntima
ntini
ntondo
ntratu
ntuli
ntum
ntumba
ntundu
nu
nubhia
nuc
nuclear
nuclei
nucleons
nucleus
nuer
nuisance
num
numba
number
numbers
numbness
numeral
numeri
numero
numerous
nundu
nungo
nungu
nurse
nursing
nurture
nuru
nussbaum
nust
nut
nutrient
nutrition
nuts
nv
nw
nwa
nwadhi
nwali
nwi
nwiwa
nx
ny
nya
nyaa
nyaaba
nyabadza
nyabando
nyabango
nyabepu
nyabeze
nyabinde
nyabira
nyabwata
nyadenga
nyadongo
nyadzi
nyagumbo
nyagura
nyaguwe
nyahuye
nyai
nyaira
nyaka
nyakabau
nyakanyaka
nyakanyanga
nyakato
nyakoko
nyakotyo
nyaku
nyakubereka
nyakudirwa
nyakujara
nyakupara
nyakurai
nyakurerwa
nyakuta
nyakutumbura
nyakwesan
nyakyusa
nyam
nyama
nyamadzawo
nyamafingu
nyamande
nyamanhindi
nyamapanda
nyamara
nyamaropa
nyamaruru
nyamasase
nyamashi
nyamatsatse
nyamatsatsi
nyamauya
nyamavhuvhu
nyamba
nyambara
nyambare
nyambari
nyambayo
nyambe
nyambi
nyambirai
nyambiro
nyambo
nyambuya
nyameni
nyamhunga
nyampasa
nyamuda
nyamugama
nyamujara
nyamukapa
nyamukondiwa
nyamukuta
nyamukuwa
nyamupachitu
nyamupingidza
nyamuragira
nyamuranga
nyamusi
nyamuswa
nyamutata
nyamutora
nyamutswa
nyamuzihwa
nyamweda
nyamwera
nyamwezi
nyan
nyana
nyanda
nyandoro
nyandowe
nyanduri
nyaneka
nyanga
nyangala
nyangara
nyangata
nyangate
nyangombe
nyangoni
nyangwe
nyanhete
nyanhongo
nyani
nyanja
nyanya
nyanza
nyanzvi
nyapadi
nyapara
nyara
nyaradzo
nyarai
nyariri
nyarukunda
nyarutanda
nyaruviro
nyaruwata
nyasa
nyasae
nyasaland
nyasha
nyashadzashe
nyashanu
nyasulu
nyatando
nyathi
nyati
nyatsimba
nyatso
nyatwa
nyaudzosingwi
nyava
nyavada
nyawodza
nyaya
nyayatsva
nyazema
nyazika
nye
nyede
nyel
nyemba
nyenga
nyengeterai
nyengo
nyengua
nyenya
nyenye
nyenyedzi
nyenza
nyenze
nyepura
nyere
nyeredzi
nyerere
nyevhe
nyewe
nyi
nyiha
nyii
nyika
nyikadzimu
nyimo
nyin
nyina
nyini
nyinii
nyinyi
nyir
nyira
nylon
nyo
nyok
nyoka
nyoko
nyon
nyong
nyonga
nyongo
nyongolo
nyoni
nyonje
nyope
nyora
nyore
nyorenyore
nyoro
nyorwa
nyota
nyowani
nyu
nyuchi
nyufaundilendi
nyula
nyuma
nyumba
nyumbu
nyundo
nyundwa
nyungu
nyungurudzi
nyungwe
nyurusi
nywele
nz
nza
nzala
nzanga
nzara
nzema
nzembe
nzenda
nzendo
nzenza
nzeru
nzeve
nzila
nzima
nzimbe
nzimbo
nzime
nzinga
nzira
nziyo
nzizi
nzombe
nzori
nzou
nzua
nzufu
nzumba
nzungu
nzunza
nzuwa
nzvanyira
nzvari
nzvimbo
nzvovera
nzwara
nzwisa
nɔ
nɖɨ
nə
nɛ
nɪ
nʊ
o
o0
o1
o2
o3
o4
o5
o6
o7
o8
o9
oa
oath
ob
obe
obedience
obedient
obert
obey
object
objects
obligation
obligations
oblique
obovata
obscure
obscured
obscurity
observances
observations
observatory
observe
obstacle
obstetrics
obstinacy
obstinate
obstruct
obstruction
obtain
obtained
obtaining
obtusifolia
obukhongo
obukondo
obulom
obuteke
obuyambi
obva
obvious
oc
occasion
occipital
occiput
occupation
occupational
occupy
occurrence
occurs
ocean
ocelsius
och
ochna
ocikonge
ocikongelo
ocipinduko
ocisongo
oclc
oct
october
od
oda
odd
odds
odour
odza
odzani
odzi
oe
of
off
offence
offend
offended
offensive
offer
offering
office
officer
official
officials
officiel
offspring
ofisi
often
ofure
og
oga
oganiki
ogirafi
ogulayo
oh
ohm
ohugwalaala
oi
oil
oily
oimaliwa
oita
oj
ok
oka
okhubereka
okhufunika
okhufunula
okhukhatsa
okhukhola
okhukotola
okhuleema
okhureka
okhusoma
okhusunda
okhutsoma
okhutsomola
okhuyerana
okhwanzukha
okhwiri
okisijeni
oko
okoye
okra
oksijeni
oku
okubanza
okuberekwa
okukara
okukora
okukotora
okunonga
okupangura
okupedzisira
okuposa
okusenga
okutanga
okuti
okutukana
okutunga
okuvare
okuzvarwa
okʉkonza
ol
ola
old
older
olive
oliver
olivia
ology
olu
olubuto
oluchera
oluchinga
olukuku
olulimi
olunyala
olwandle
olympic
om
oma
omakara
omakonge
omakunde
omalulu
omaongero
omaruru
omba
ombala
ombara
ombe
ombiira
ombo
ombola
ombwa
ome
omega
omen
omene
omens
omeva
omo
omu
omubiri
omuini
omukama
omukira
omukiro
omukondi
omukondo
omukova
omukoye
omukozi
omulenge
omulimo
omulinga
omuliro
omuloli
omulongo
omululu
omulumbi
omundu
omunene
omuntu
omuriro
omurise
omurungu
omuseka
omutemi
omuti
omutima
omutumba
omutundu
omutunge
omutungi
omuute
omuyambi
omwami
omwana
omwene
omwera
omwiiyambi
omwoyo
on
ona
onaka
once
onchocerciasis
ondyira
one
onekwa
onene
oneness
onepage
ones
oneself
onga
ongara
ongeza
ongiholayo
ongo
ongombe
ongombo
ongororo
onion
onismor
online
only
ono
onset
ontario
onto
onya
onyama
onye
onyeni
onyenzi
onzi
oo
ooze
op
opala
oparesheni
open
opened
opening
openly
opens
opera
operate
operating
operation
operations
operative
operator
opinion
opium
opponent
opportunity
oppose
opposed
opposing
opposite
oppress
oppressed
oppression
oq
or
ora
oral
oran
orange
orator
orbit
orbital
orbiting
orchard
order
orderly
orders
ordinary
ore
orenji
org
organ
organic
organisation
organise
organised
organism
organisms
organization
organize
organs
orient
oriental
origin
original
originally
originate
orion
orleans
ormocarpum
ornament
ornamental
ornaments
oro
orphan
orthodox
orthography
oru
oruganda
orupanda
orutenga
os
oscar
ose
osemba
oshindonga
oshiwambo
osi
oslo
osmosis
osongo
oss
ostentatious
ostireriya
ostironezhiya
ostrich
ot
ota
otanga
otari
otera
other
others
otherwise
oti
oto
ots
ottawa
otter
ottoman
otyi
otyikombo
otyikuvare
otyipara
otyirongo
ou
oukoto
our
ours
out
outbreak
outcast
outcome
outcrop
outdoors
outer
outline
output
outputs
outro
outside
outspan
outstanding
outward
ouvara
ov
ovandu
over
overcast
overcome
overflow
overflowing
overhanging
overly
overs
overseas
overshadow
overstep
overtake
overthrow
overthrown
overturn
overview
overwork
ovhataimu
ovi
ovina
ow
owaka
owaza
owen
owl
own
owned
owner
owners
owns
ox
oxen
oxford
oxidation
oxide
oxides
oxygen
oy
oz
ozone
p
p0
p1
p2
p3
p4
p5
p6
p7
p8
p9
pa
paadi
paaiva
paaka
paakafa
paakanga
paakange
paakapedza
paakatanga
paakiso
paala
paanenge
paanokwanisa
paanorumwa
paari
paavhareji
pababa
pabaiwa
pabanze
pabarika
pabasa
pabendekete
pabepa
pabesu
pabhazi
pabillboard
paboka
pabonde
pabroadway
pabu
pabumbiro
pabva
pace
pachadzo
pachake
pachako
pachangu
pachapotera
pacharaka
pacharo
pachavo
pachawo
pachayo
pachekwa
pachena
pachibuda
pachigaro
pachiitiko
pachikamu
pachikero
pachikoro
pachikuva
pachimiro
pachimiso
pachimuti
pachindau
pachine
pachinge
pachingezi
pachingwa
pachinhambwe
pachinhanho
pachinhu
pachinyakare
pachinyorwa
pachinzvimbo
pachipari
pachipfeko
pachiratidziro
pachiri
pachiro
pachirongwa
pachirungu
pachiruvi
pachirwere
pachishandiswa
pachishona
pachiso
pachisuvi
pachitanda
pachitarisiko
pachitaurwa
pachiteshi
pachitsauko
pachitsuwa
pachitsvakwa
pachiumbwa
pachiva
pachivakwa
pachivanhu
pachivanze
pachiyero
pachizinga
pacho
pachokwadi
pachoto
pachuru
pacific
pack
packed
packers
pacomputer
pact
pad
padanda
padanho
padara
padare
paddle
padendemaro
padenderedzwa
padenga
padera
padhamu
padhuze
padivi
padlock
padoko
padombo
padumbu
padunhu
paduvurwi
padyo
padzinde
padzinenge
padzitsi
padzo
pafambwa
paganda
page
pages
paglobal
pago
pagoko
pagokora
pagomo
pagonga
pagonyo
pagore
pagrinnell
pagungwa
paguyo
pagwaro
pagwati
paharare
paheroes
pahoko
pahondo
pahudzamu
pahujoto
pahukuru
pahukwidza
pahuma
pahumwe
pahunde
pahunoshanduka
pahupenyu
pahuremu
pahuro
pahurwere
pahushamwari
pahuviri
pahuwandu
pahuzhinji
pahwaro
paid
pail
paila
pain
paine
painenge
paino
pains
paint
painting
paipi
pair
pairi
paishisi
paiswa
paita
paitika
paiva
paive
paizwi
pajohn
pajoki
paka
pakabuda
pakabva
pakadai
pakaderera
pakadzika
pakafa
pakahwanda
pakaita
pakaitika
pakaitwa
pakakwirira
pakamanika
pakambani
pakambasi
pakaminama
pakanaka
pakanga
pakare
pakarenda
pakarepo
pakata
pakatanga
pakati
pakatsetswa
pakatwasuka
pakauya
pakava
pakavakirwa
pakawondongwa
pakazhinji
pakazopera
pakazosvika
pakazvimba
pake
pakereke
paki
pakistan
pako
paku
pakubata
pakubika
pakubleacher
pakubuda
pakubvirisa
pakuchemerera
pakuchengeta
pakucherechedza
pakuda
pakudarika
pakudoka
pakududza
pakudya
pakudzidza
pakudzivirira
pakufa
pakufamba
pakufema
pakugadzira
pakugaya
pakuguma
pakuita
pakukohwa
pakukunda
pakukura
pakukuya
pakumbondera
pakumhanya
pakumira
pakunatswa
pakunge
pakunyora
pakunyorwa
pakuona
pakuongororwa
pakupa
pakupedzisira
pakupera
pakupima
pakupisa
pakupiwa
pakurarama
pakureba
pakureva
pakurima
pakuripa
pakuroora
pakurwa
pakurwisa
pakushanda
pakushandiswa
pakusikwa
pakusimba
pakusimudza
pakutama
pakutamba
pakutanga
pakutaura
pakutaurwa
pakutenga
pakutengeserana
pakuti
pakutonga
pakutsanangura
pakuturikira
pakuumba
pakuumbwa
pakuva
pakuvaka
pakuvamba
pakuve
[...]
