!
"
#
##0
##1
##10
##11
##12
##13
##14
##15
##16
##17
##18
##19
##2
##20
##21
##22
##23
##24
##25
##26
##27
##28
##29
##3
##30
##31
##32
##33
##34
##35
##36
##37
##38
##39
##4
##40
##41
##42
##43
##44
##45
##46
##47
##48
##49
##5
##50
##51
##52
##53
##54
##55
##56
##57
##58
##59
##6
##60
##61
##62
##63
##64
##65
##66
##67
##68
##69
##7
##70
##71
##72
##73
##74
##75
##76
##77
##78
##79
##8
##80
##81
##82
##83
##84
##85
##86
##87
##88
##89
##9
##90
##91
##92
##93
##94
##95
##96
##97
##98
##99
$
%
&
'
(
)
*
+
,
-
.
/
0
00
000
0000
000000
0001
0002
001
002
003
004
005
006
007
008
009
01
010
011
012
013
014
015
016
017
01745329252
018
019
02
021
024
025
03
031
04
05
06
064
07
0707
08
080904
09
1
10
100
1000
10000
101
102
103
104
105
106
107
108
109
11
110
1100
111
112
113
114
115
116
117
118
119
12
120
1200
12000
121
122
123
1234
124
125
126
127
128
129
13
130
1300
13000
131
132
1320
133
134
135
1357
136
137
138
1380
1384
1385
1386
1387
1388
1389
139
1390
1392
1393
1394
1395
14
140
1400
14000
141
142
143
144
145
146
147
148
149
15
150
1500
151
152
153
154
155
156
157
158
159
16
160
1600
161
1612
162
163
164
1640
165
1650
166
167
168
169
17
170
1700
171
172
173
174
175
176
177
1772
178
1787
1789
179
1790
1795
1797
18
180
1800
1801
1805
1806
1807
1808
1809
181
1810
1812
1813
1814
1815
1818
1819
182
1820
1821
1822
1826
1828
1829
183
1830
1831
1832
1834
1835
1836
1837
1838
1839
184
1840
1841
1842
1843
1844
1845
1846
1847
1848
1849
185
1850
1851
1852
1853
1854
1855
1856
1857
1858
1859
186
1860
1861
1862
1863
1864
1865
1866
1867
1868
1869
187
1870
1871
1872
1873
1874
1875
1876
1877
1878
1879
188
1880
1881
1882
1883
1884
1885
1886
1887
1888
1889
189
1890
1891
1892
1893
1894
1895
1896
1897
1898
1899
19
190
1900
1901
1902
1903
1904
1905
1906
1907
1908
1909
191
1910
1911
1912
1913
1914
1915
1916
1917
1918
1919
192
1920
1921
1922
1923
1924
1925
1926
1927
1928
1929
193
1930
1931
1932
1933
1934
1935
1936
1937
1938
1939
194
1940
1941
1942
1943
1944
1945
1946
1947
1948
1949
195
1950
1951
1952
1953
1954
1955
1956
1957
1958
1959
196
1960
1961
1962
1963
1964
1965
1966
1967
1968
1969
197
1970
1971
1972
1973
1974
1975
1976
1977
1978
1979
198
1980
1981
1982
1983
1984
1985
1986
1987
1988
1989
199
1990
1991
1992
1993
1994
1995
1996
1997
1998
1999
2
20
200
2000
2001
2002
2003
2004
2005
2006
2007
2008
2009
201
2010
2011
2012
2013
2014
2015
2016
2017
2018
2019
202
2020
2021
2022
203
2039519
204
205
206
207
208
209
21
210
2100
211
212
213
214
215
216
217
218
219
22
220
2200
221
222
223
224
225
226
227
228
229
23
230
2300
231
232
233
234
235
236
237
238
239
24
240
2400
241
242
243
244
245
246
247
248
249
25
250
2500
251
252
253
254
255
256
257
258
259
26
260
2600
261
262
263
264
265
266
267
268
269
27
270
271
272
273
274
275
276
277
278
279
28
280
2800
281
282
283
284
285
286
287
288
289
29
290
291
292
293
294
295
296
297
298
299
3
30
300
3000
301
302
303
304
305
306
307
308
309
31
310
311
312
313
314
315
316
3166
317
318
319
32
320
3200
321
322
323
324
325
326
327
328
329
33
330
331
332
333
334
335
336
337
338
339
34
340
341
342
343
344
345
346
347
348
349
35
350
351
352
353
354
355
356
357
358
359
36
360
3600
361
362
363
364
365
366
367
368
369
37
370
371
372
373
374
375
376
377
378
379
38
380
381
382
383
384
385
386
387
3872
388
389
39
390
391
392
393
394
395
396
397
398
399
4
40
400
4000
401
402
403
404
405
406
407
408
409
41
410
411
412
413
414
415
416
417
418
419
42
420
421
422
423
424
425
426
427
4272
428
429
43
430
431
432
433
434
435
436
437
438
439
44
440
441
442
443
444
445
446
447
448
449
45
450
451
452
453
454
455
456
457
458
459
4592
46
460
461
462
464
465
466
467
468
469
47
470
472
473
475
476
477
478
48
480
482
483
484
485
486
49
490
492
495
496
499
5
50
500
5000
502
503
504
509
51
510
512
516
517
518
52
520
521
525
526
527
53
530
533
534
536
538
539
54
540
548
55
550
555
559
56
560
57
577
58
580
581
582
583
584
585
589
59
590
6
60
600
604
61
610
611
612
618
619
62
621
625
628
63
630
632
639
64
65
650
66
67
68
680
69
7
70
700
71
7174
72
720
73
74
75
750
76
77
78
79
8
80
800
81
82
828
83
84
85
86
87
88
89
9
90
900
91
92
93
94
95
950
96
97
975
978
98
99
9952
999
:
;
<
=
>
?
@
\
^
_
`
a
aa
aaa
aachen
aaron
ab
abbas
abbey
abbott
abbr
abc
abd
abdel
abdul
abdulaziz
abdullah
abe
abel
aberdeen
abies
able
ablon
abolfazlyashar
about
above
abovestyle
abraham
abruzzo
abs
absolute
abu
ac
academic
academy
accept
accepted
accepts
access
accessdate
accessed
according
account
accounts
accurate
ace
acetate
achievement
acid
acre
acres
across
act
acting
action
active
activist
activists
activities
actor
actors
actress
actresses
actual
actually
ad
ada
adam
adamo
adams
adapt
add
adda
addcalendar
addclass
added
adding
addition
additional
additions
address
adds
addtypesascolor
adel
adelaide
adil
adj
adjust
adler
adm
admin
administration
administrative
administrator
administrators
admiral
adnan
adolf
adolfo
adolph
adolphe
adonis
adrian
adriano
adult
adulyadej
advance
advanced
ae
aerial
af
afc
afd
affairs
affect
affricate
afghan
afghanistan
africa
african
aftenposten
after
ag
again
against
age
aged
agency
agent
aggregate
agnes
ago
agostino
agriculture
aguilar
agusti
ah
ahan
ahmad
ahmed
ahmet
ai
aid
ain
air
aircraft
aires
airport
ait
aix
ajuntament
ak
aka
akira
al
ala
alabama
alain
alam
alan
alaska
alba
albacete
albania
albanian
albany
albert
alberta
alberto
albrecht
album
alca
alcala
aldo
aldrich
alec
alegre
alejandro
aleksandr
aleksandro
aleppo
alert
alessandro
alex
alexander
alexandra
alexandre
alexandria
alexis
alf
alfonso
alfred
alfredo
algeria
alguazas
ali
aliabad
alias
aliases
alicante
alice
align
alison
all
allah
allan
allen
alliance
allison
allow
allowed
allows
alma
almeida
almeri
almost
along
alp
alpha
alphabet
alphonse
already
als
also
alt
alta
altar
alte
alter
alternate
alternative
altes
although
altlink
altnames
alto
altstadt
altvar
alumni
alveolar
alves
always
am
aman
amanda
amar
amazon
ambassador
amber
ambox
ambrose
ame
america
american
americans
ami
amin
amine
amino
amir
ammonium
amon
among
amos
amount
amsterdam
amtsgericht
amy
an
ana
analysis
anchor
ancient
and
anders
andersen
anderson
andersson
andrade
andre
andrea
andreas
andrew
andrews
andy
anemone
ang
angel
angela
angeles
angelo
angle
anglo
angola
angus
angustifolia
ani
animal
anita
ankara
anker
ann
anna
anne
annette
annie
anniversary
announced
annual
another
ans
ansicht
answer
ant
antagonists
anthem
anthony
anthozoa
anti
antigua
anto
antoine
anton
antonio
anuarul
any
anything
ao
aosta
ap
apache
api
appear
appearance
appearances
appeared
appears
append
appendchild
apple
applicable
applied
applies
apply
appropriate
approved
approximant
approximate
apr
april
aq
aquarium
ar
ara
arab
arabia
arabian
arabic
aramaic
arc
arch
archaeological
archbishop
archdiocese
archdruid
archeologico
archer
archibald
archie
architect
architecture
archive
archived
archives
archontology
arco
arcs
arctic
arda
are
area
areas
aren
arena
arg
argentina
argentine
args
argscfg
argsi
argsk
argument
arguments
ari
ariel
arizona
arjanizary
arkansas
arlington
arm
armagh
armand
armando
armed
armenia
armenian
arms
armstrong
army
arne
arnold
around
arp
arpac
array
arrow
arroyo
ars
arslanteginghazi
art
arte
arthur
article
articles
artist
artists
arts
artur
arturo
arvid
arxivləs
as
asa
asadabad
ash
ashley
ashton
asia
asian
asio
ask
asp
aspx
assembly
assigned
assist
assistant
associated
association
assume
assunta
ast
aston
astronomer
asuncio
at
athens
athlete
athletic
athletics
atkinson
atlanta
atlantic
atlas
attack
attempt
attendance
attention
attorney
attr
attribute
attribution
au
aubrey
auckland
audio
aue
auf
aug
august
augusta
auguste
augusto
augustus
aurora
aus
austin
australia
australian
austria
austrian
author
authority
authors
auto
autocollapse
autoconfirmed
automated
automatic
automatically
automobile
autonomous
autumn
aux
av
available
avenue
average
avery
aviation
avoid
award
awarded
awards
away
axel
ay
aydın
aylı
ayn
ayuntamiento
az
azad
azb
aze
azerbaijan
azerbaijani
azerbaycan
aziz
azərbaycan
b
ba
baba
baby
back
background
bacon
bad
badajoz
baden
badge
bafta
bag
baghdad
bahadur
bahnhof
bahram
bai
bailey
baird
baja
baker
baku
bakı
bal
bala
baldwin
ball
baltimore
ban
band
banda
bandera
bangladesh
bank
banks
banner
baptist
baptiste
bar
barack
barb
barbara
barbus
barcelona
barclay
bark
barker
barnes
baron
baroness
baronet
barr
barra
barrett
barros
barry
bartlett
barton
bas
base
baseball
based
basic
basil
basilica
basin
basketball
bass
bates
bath
battalion
battista
battle
battles
bautista
bavaria
baxter
bay
bb
bbc
bc
bce
bd
be
beach
bear
bears
beaumont
beaver
bec
became
because
beck
become
becomes
bedford
bee
been
before
begin
beginning
begins
behaviour
behind
bei
beijing
being
beirut
bel
belarus
belfast
belgian
belgium
bell
below
belowstyle
ben
bend
benedetto
benedict
benes
bengal
beni
benin
benito
benjamin
bennett
benny
benson
benton
benz
ber
berberis
berg
bergen
berkeley
berlin
bern
bernard
bernardo
bernhard
berry
bert
bertrand
best
beta
beth
better
betty
betula
between
beverly
bey
beydili
beyond
bf
bg
bhr
bhumibol
bhutan
bi
biała
bible
big
bihar
bild
bill
billion
billy
bin
bing
bingham
binomial
bio
biografisk
biographical
biographies
biography
biology
bir
birch
bird
birds
birinchi
birmingham
birth
births
bis
bishop
bit
bjarne
bjo
bjs
bjørn
bl
black
blackburn
blacklist
blackwell
blair
blake
blanco
blank
blansko
blick
block
blocked
blocks
blogfa
blood
blue
blues
bluff
blurb
bm
bn
bo
boa
board
boat
bob
bobby
body
bodyclass
bodystyle
bolagh
bold
boleslav
bolivia
bologna
bolton
bombing
bon
bonaparte
bond
bonnie
book
books
boolean
booth
bor
border
borders
borgo
boris
born
borough
bosco
bosnia
boston
bot
botanical
botanist
both
bots
botswana
bottom
boulenger
bow
bowen
box
boxer
boxes
boy
boyd
boyer
boyle
boys
boz
br
bra
braces
bracket
brackets
brad
bradford
bradley
brady
bram
branch
brand
brandenburg
brandon
brandt
braun
braunschweig
brazil
brazilian
break
breaking
brenda
brendan
brennan
brent
brett
brian
bridge
bridges
brief
brien
brigade
brighton
bristol
britain
britannica
british
brno
bro
broad
broadcaster
broadcasting
broadway
brod
broken
bromide
bronze
brook
brooke
brooklyn
brooks
brother
brothers
browa
brown
browne
browning
browser
browsers
bru
bruce
brunnen
bruno
brunswick
bryan
bryant
brzez
bs
bt
btu
bu
bubo
buchanan
buck
buckley
bud
buddy
bude
budy
buenos
buffalo
bug
build
builder
building
buildings
built
bulgaria
bulgarian
bull
bundesarchiv
bureau
burg
burgos
burials
burke
burkina
burnett
burns
burton
bury
bus
bush
business
businessman
businesspeople
bust
but
buteo
butler
button
buttonoptionwidget
buttons
bw
by
byrd
byrne
byron
byte
byzantine
c
ca
cabinet
cache
cadore
caduti
caiano
cairo
cal
calabria
calciatori
calcio
calcium
caleb
calendar
calidris
california
call
callback
callbacks
calle
called
calling
calls
calvin
cambodia
cambridge
camden
camel
camera
cameron
cameroon
camille
camino
camp
campagna
campaign
campania
campanile
campbell
campeonato
campo
campos
campus
camus
can
canada
canadas
canadian
canal
canaria
canavese
cancer
candidate
candidates
canis
cannes
cannon
cannot
canonical
canterbury
canton
canyon
cap
cape
capital
capitals
cappella
captain
caption
capture
captured
car
card
cardamines
cardinal
cards
care
career
carey
caribbean
carl
carleton
carlisle
carlo
carlos
carmen
carmona
carol
carolina
caroline
carpenter
carr
carrie
carroll
carson
carte
carter
cartoonist
cary
casa
casablanca
case
cases
casey
caspian
cassidy
cast
castel
castell
castello
castiglione
castile
castilla
castillo
castle
castro
casualties
cat
catalogueoflife
catalonia
catalunya
catedral
categori
categoria
categories
categorization
category
caterina
cathedral
catherine
catholic
catholics
cats
cattedrale
caucasus
cause
causes
cave
cb
cc
cd
cdp
ce
ceb
cecil
cedar
cell
cells
celt
celtic
cemetery
census
center
centered
central
centrale
centre
centro
centuries
century
ceremony
ceres
cerreto
cerro
certain
cervo
cesena
cf
cfg
ch
cha
chad
chain
chairman
chak
challenge
chamber
chamberlain
chambers
champion
champions
championship
chan
chancellor
chandler
chang
change
changed
changes
changing
channel
chapel
chaplin
chapman
chapter
char
character
characters
charles
charlie
charlotta
charlotte
chart
chartvis
chase
che
check
checkbox
checked
checking
checks
checktype
chekhov
chelsea
chemical
chemist
chemistry
chen
cheng
cherry
chess
chester
chi
chia
chiang
chicago
chief
chiesa
chieti
child
children
chile
chin
china
chinese
ching
chioggia
chloride
chloro
chn
cho
choice
choose
chosen
chr
chris
christ
christensen
christian
christians
christie
christina
christine
christmas
christopher
chronicle
chu
chuck
chun
chung
church
churchill
ci
cia
cie
cilt
cin
cinema
cinerea
cio
circa
circle
cistus
citation
citations
cite
cited
cities
citing
citizen
citrus
citta
cittadella
city
ciudad
civico
civil
civilwar
ck
ckb
cke
clade
cladestring
claim
claims
claire
clara
clare
clarence
clark
clarke
class
classes
classical
classification
classname
claude
claudio
clay
clayton
cle
clean
cleanup
clear
clement
clergyman
cleveland
click
cliff
clifford
clifton
climate
clinton
clive
clock
close
closed
closeup
closing
club
clubs
clyde
cm
cn
co
coa
coach
coalition
coast
coastal
coat
cobb
coburg
code
codes
coffee
cohen
coin
coins
col
cold
cole
coleman
colin
collapse
collapsed
collapsible
colle
collection
collections
college
colleges
collins
colombia
colon
colonel
colonial
colonies
colony
color
colorado
colors
colour
colours
cols
colspan
columbia
columbus
column
columns
com
combatant
combination
combined
come
comedian
comedians
comedy
comic
comma
command
commander
commas
comment
comments
commerce
commercial
commission
commissioner
committee
commodore
common
commons
commonwealth
communication
communications
communis
communist
communities
community
compact
companies
company
compass
competition
competitions
complete
completed
complex
composer
composite
composition
computer
comte
comunale
comune
con
concacaf
concat
concert
condition
conduct
conductor
cones
conf
confederation
conference
config
configuration
confirmed
conflict
conflicts
congo
congress
congressional
congressman
conjunction
connecticut
connell
connolly
connor
conquest
conrad
consensus
conservation
conservative
consider
considered
consistent
constance
constantine
constantinople
constituency
construction
contact
contain
container
containing
contains
contemporary
content
contents
contest
context
continent
continental
continue
contribution
contributions
contributor
contributors
control
convention
convento
conversion
convert
converted
converts
convicted
conway
cook
cooper
coor
coord
coordinate
coordinates
copa
copper
copy
copyright
corbett
core
cork
cornelius
cornell
corner
cornwall
corporate
corporation
corps
correct
corresponding
corso
corun
corylus
cos
costa
cotton
coturnix
could
council
councillors
count
counter
countess
countries
country
county
coupe
course
court
courtier
cover
cox
cr
craig
crane
crawford
create
created
createelement
createtextnode
creating
creation
creative
creator
credit
creek
creole
crest
cricket
cricketer
crime
criminal
crimson
crisis
cristina
cristo
criteria
critic
critical
croatia
croatian
croc
croce
cromwell
crop
cropped
crosby
cross
crossing
crown
croydon
crusade
cruz
crystal
cs
css
csstext
ct
ctor
ctx
cu
cuadros
cuba
cubic
cuenca
cuft
cultural
culture
cummings
cunningham
cup
cupressus
cur
current
currently
currenttitle
curry
curtis
custom
cut
cv
cvt
cy
cyclist
cyprus
cyril
cyrus
cze
czech
d
da
dab
dag
dahl
dai
daily
daisuke
dakota
dal
dale
dall
dallas
dallorto
dalton
daly
dam
dame
dan
dana
dance
dancer
dancers
daniel
daniele
daniels
danish
danny
dante
dar
daraq
darius
dark
darren
das
dash
data
database
dataset
datatype
datavalue
date
dated
datei
dates
datestr
daughter
dave
davenport
david
daviddaguerro
davidson
davies
davis
dawn
dawson
day
days
db
dc
dd
ddocname
de
dead
deal
dean
death
deaths
debbie
deborah
debug
debuglog
dec
decade
december
decimal
decimals
decision
declaration
decyear
dee
deep
deer
def
default
defaults
defence
defense
define
defined
definition
definitions
deg
degli
degree
degrees
dei
deir
dek
del
delaware
delete
deleted
deletion
delhi
delivery
dell
della
delle
delta
dem
demo
democracy
democratic
democrats
demographics
demography
den
denis
denkmal
denmark
dennis
denominator
density
dental
denver
department
depend
dependencies
depending
deprecated
depth
deputy
der
derby
derek
des
desc
descent
described
description
descriptions
desde
desert
design
designation
designed
designer
desired
desktop
desmond
despite
destroyed
detail
detailed
details
detect
detected
determine
detroit
dettaglio
deu
deutsch
deutsche
deutschland
development
devi
devon
df
di
dia
diagram
dialect
dialog
diamond
diana
diane
dick
dickinson
dickson
dictionary
did
die
died
diego
dies
diet
dieter
diez
diff
difference
different
digit
digital
digits
dihydro
dil
dili
dilleri
dillon
dimethyl
din
dio
diocese
dione
diplomat
dir
direct
directed
direction
directly
director
directors
dirilib
disabled
disambiguation
discuss
discussion
discussions
disease
disp
display
displayed
displays
disputed
distance
distribution
district
districts
div
diversity
divisio
division
divisions
dixon
diz
dizaj
dj
dl
dm
dmitry
dms
dmy
dna
do
doc
doctor
document
documentary
documentation
documents
dodge
does
doesn
dog
dogon
doherty
doi
dolceacqua
dolna
dolni
dom
domain
domaz
dome
domenico
domingo
dominic
dominican
dominique
don
donald
donau
done
dong
donna
donnell
donovan
door
doris
dorothy
dos
dot
douard
double
doug
douglas
douglass
dover
down
downtown
doyle
dpc
dr
draft
dragon
drake
drama
dramatist
draw
drawing
drawn
dream
dresden
drew
driver
drug
drummond
dry
dsc
dscf
dsh
dst
dt
du
dub
dublin
duc
duchess
dudley
due
duero
duffy
duke
dunam
dunams
duncan
dundee
dunn
duomo
duplicate
duration
durham
during
dutch
duz
dv
dwight
dwo
dyk
dylan
dynasty
dz
dztwo
dəniz
e
ea
each
eagle
eagles
earl
early
earth
easier
easily
east
easter
eastern
easy
eaton
ebi
ebrahimi
ebro
ec
economic
economics
economist
ecuador
ed
eddie
edebiyatogretmeni
eden
edgar
edge
edinburgh
edit
edited
edith
editing
edition
editnotice
editnotices
editor
editors
edits
edittools
edmond
edmund
eds
edu
eduard
eduardo
education
educational
educator
edvard
edward
edwards
edwin
ee
effect
eg
egan
egil
eglise
egypt
egyptian
ei
eight
einar
eingang
einwohnerentwicklung
eisenhower
eisteddfod
either
ejective
ek
el
elaine
elbe
elder
eleanor
elected
election
elections
electric
electrical
electronic
element
elements
elena
elephant
elevation
eli
elias
eliminated
elisabeth
eliza
elizabeth
ellen
elliot
elliott
ellis
elm
else
elseif
em
emanuel
embargo
emblem
emerson
emigrants
emil
emilia
emilio
emily
emir
emirates
emirs
emma
emmanuel
emmy
emperor
empire
empress
empty
en
enabled
encode
encyclopaedia
encyclopedia
encyclopædia
end
ended
ends
endyear
energy
eng
engine
engineer
engineering
england
english
engraving
enna
enough
enrique
ensign
ensiklopediyası
ensure
enter
entered
entertainment
entire
entities
entity
entityid
entrance
entrepreneur
entries
entry
enumerated
env
environment
environmental
eo
ephcont
episode
episodes
equal
equals
equivalent
er
era
eric
erich
ericsson
erik
erin
eris
erling
ermita
ernest
ernesto
ernie
ernst
erov
err
error
errors
erskine
erwin
es
escape
escudo
esgle
esino
eska
eske
espan
essay
essays
essen
essex
est
esta
established
establishment
establishments
estacio
estadio
estate
estates
este
esteban
esteghlal
esther
estimaciones
estimate
estonia
et
etal
etc
ethiopia
ethnic
ethnologue
ethyl
eu
euge
eugen
eugene
euro
europa
europe
european
ev
eva
evan
evangelische
evans
eve
evelyn
even
evening
event
events
ever
everett
every
everyone
everything
evt
ew
ex
example
examples
except
exception
excerpt
exchange
executed
executive
exist
existing
exists
expand
expanded
expandtemplate
expansion
expatriate
expected
experience
expiry
explanation
explicitly
explorer
exponent
export
express
ext
extended
extension
extensiontag
exterior
external
extinct
extra
extract
extracted
extraordinary
eye
ez
f
fa
facade
facciata
face
fachada
fachwerk
fact
factbook
factor
factory
facts
faculty
fahad
fail
failed
fails
failure
fair
fairview
faisal
faith
falco
fall
fallback
falls
false
fam
fame
family
fan
far
farm
farmer
farms
farnese
faroe
farrell
fars
fashion
faso
father
fb
fc
fd
fe
feature
featured
features
feb
febr
february
federal
federation
federico
feedback
feet
felice
felipe
felix
female
feminist
fen
ferdinand
ferguson
ferna
fernando
ferrara
ferreira
ferry
festival
fetch
few
ff
fff
ffffff
fg
fi
fianna
fiat
fiction
field
fields
fifa
fifth
fighter
fighting
figure
figures
file
filename
files
filipino
fill
film
films
filter
fin
final
finals
finance
financial
find
fine
finished
finland
finn
finnish
fire
first
fischer
fish
fisher
fitzgerald
five
fix
fixed
fk
fl
flag
flagge
flags
flat
fleming
fletcher
flex
flickr
flight
flo
float
floor
flora
florence
flores
florida
flower
flowering
flowers
floyd
fluoride
flying
flynn
fm
fmt
fn
fo
focus
foley
foliage
folk
folklore
follow
followed
following
follows
font
fontaine
fontana
fontsize
foo
food
foot
football
footballer
footballers
footer
footnote
footnotes
for
forbes
force
forces
ford
foreign
forest
fork
form
format
formatdate
formatnum
formats
formatted
formatting
former
forms
forrest
fort
fortress
forum
forward
foster
fot
foto
fotothek
found
foundation
founded
founder
founders
fountain
four
fourth
fowler
fox
fr
fra
frac
fraction
fragment
frame
frameless
franc
france
frances
francesco
francis
francisco
franco
frank
frankfurt
franklin
frans
franz
fraser
fraxinus
fre
fred
freddie
frederic
frederick
frederik
fredrik
free
freedom
freeform
freeman
french
fricative
friday
friedberg
friedhof
friedrich
friendly
fritz
friuli
fro
frog
from
front
frontera
frost
fruit
fruits
fry
ft
fu
fuente
fuentes
fulham
full
fullargs
fuller
fulltext
fullurl
fully
fulton
func
function
functionality
functions
fundacio
fuochi
fur
further
future
fw
g
ga
gaa
gabriel
gadget
gael
gaelic
gage
gal
galaxy
gale
galeata
galicia
galium
gallagher
gallery
galway
game
games
gandhi
gap
garci
garcia
garda
garden
gardens
gardner
gare
gareth
garfield
garibaldi
garland
garner
garrett
garrison
garry
gary
gas
gaston
gate
gates
gattinara
gavin
gay
gaza
gazetteer
gb
gd
gdp
ge
gedenkstein
gedenktafel
gen
gene
general
generally
generate
generated
generates
generation
generic
genista
genova
genre
genus
geo
geoff
geoffrey
geograph
geographic
geography
geologist
georg
george
georges
georgia
georgian
ger
gerald
gerard
gerhard
german
germanic
germany
gerry
get
getafe
getargs
getcatforid
getcontentlanguage
getcurrentframe
getcurrenttitle
getelementbyid
getparent
getpref
gets
ghana
gharbi
gi
giacomo
giant
gibbs
gibraltar
gibson
gif
gil
gilbert
gill
gilles
gillespie
gimignano
gina
giorgio
giovanni
girl
girls
gitashenasi
giuseppe
give
given
gives
gje
gks
gl
gladiolus
gladstone
glasgow
glass
glen
glenn
global
globals
globe
gloria
glover
gm
gmatch
gmina
gnd
gniezno
go
goa
goal
goalkeeper
goals
goalscorers
god
godavari
godfrey
goes
going
gol
gold
golden
golf
golfer
gomes
gonc
gonza
good
goodwin
google
gordon
gore
gostyn
got
gould
gov
governance
government
governor
governorate
governors
govoffice
gr
gra
grace
graf
graham
gram
grammy
gran
granada
grand
grande
grant
grave
graves
gray
gre
great
greater
greco
greece
greek
green
greene
greenland
greenwich
greenwood
greg
gregg
gregorian
gregory
grey
griffin
griffith
griffiths
gro
grodzisk
gross
ground
group
groups
groupstyle
grove
gru
gsub
gt
gu
guadalajara
guam
guard
guest
guez
guide
guidelines
guild
guillaume
guillermo
guinea
guitarist
guitarists
gujarat
gulf
gun
gunnar
gur
guru
gustaf
gustav
gustave
gustavo
gutenberg
guthrie
guy
gymnasium
h
ha
haakon
habitus
hackney
had
hadi
hafen
hagen
hal
hale
half
halifax
hall
hama
hamad
hamburg
hamid
hamilton
hammond
hampshire
hampton
han
hancock
hand
handbook
handle
handler
hands
handy
hanna
hannah
hannover
hanover
hans
hansen
hant
haplogroup
happy
haqqında
hara
harald
harbor
harbour
hard
harding
hardy
harmony
harold
harper
harris
harrison
harry
hart
harvard
harvey
has
hasan
hash
hashim
hassan
hassiae
hastings
hat
hatnote
haus
have
havel
haven
having
havli
hawaii
hawkins
hay
hayden
hayes
hazel
hb
hd
he
head
header
headers
heading
headings
headquarters
heads
health
heart
heath
heather
hebrew
hectares
hector
height
heights
heinrich
heinz
held
helen
helena
helge
hell
helle
hello
helmut
help
helper
helsinki
henderson
hendrik
henri
henrik
henrique
henry
her
herbert
here
heritage
herman
hermann
herna
herne
hero
herrera
herself
hesse
hessen
hex
hh
hi
hidden
hide
higgins
high
higher
highest
highland
highway
hiking
hill
hills
himachal
hip
hirohito
his
historian
historic
historical
history
hit
hitler
hiv
hjalmar
hk
hl
hle
hler
hlist
hm
hmong
hms
ho
hockey
hodoni
hof
hoffman
hoffmann
hogan
hokkaido
hold
holden
holder
holding
holdings
holds
holiday
holland
holly
hollywood
holm
holmes
holstein
holt
holy
home
homs
hon
honda
honduras
hong
honor
hood
hook
hooks
hoover
hop
hope
hopkins
hor
hora
horace
horizontal
horizonte
horn
horni
horse
horsepower
horst
hospital
hossein
host
hosted
hosts
hot
hotcat
hotel
hour
hours
house
houses
housing
houston
how
howard
howe
howell
however
hp
hq
hr
hradec
hradis
href
hsb
hsu
htc
hth
htm
html
http
https
hu
huang
hubert
hudson
hue
hugh
hughes
hugo
hui
hull
human
humphrey
hun
hung
hungarian
hungary
hunt
hunter
hurler
hurley
hussain
hussein
huta
hutchinson
hvem
hy
hyde
hydroxy
hymn
hyogo
hyphen
hz
i
ia
ian
iana
ib
ibn
ibrahim
ic
ice
iceland
icon
icons
id
ida
idaho
idc
idcplg
idcservice
ideas
identifier
identifiers
identity
idol
ids
idx
ie
ies
ietf
if
iglesia
ignore
ignored
igor
ii
iii
il
ile
ilg
illinois
illustration
illustrator
ilə
im
image
images
imagesize
imdb
img
immediately
imov
imperial
implements
important
improve
in
ina
inc
inch
include
included
includes
including
incorrect
increment
ind
indec
indent
independence
independent
index
indexof
india
indian
indiana
indic
indicate
indicator
individual
indo
indonesia
industrial
industrialist
industries
industry
ine
info
infobox
infoboxes
information
ingresso
ingrid
inhabitants
inherit
init
initial
initials
inline
inn
innen
innenstadt
inner
input
ins
insert
inserted
inside
insignia
instance
instead
institute
instructions
int
integer
intelligence
intended
inter
interested
interface
interior
internal
international
internet
interno
interview
interwiki
into
intra
intro
introduced
introduction
introjs
invalid
invasion
inventor
invert
inverted
invisible
invocation
invoke
involved
iowa
ip
ipa
ipairs
ipv
ir
ira
iran
iranian
iranica
iraq
iraqi
ireann
ireland
irene
iris
irish
irn
iron
irvine
irving
irwin
is
isa
isaac
isabella
isbn
isfahan
isla
islam
islamic
island
islands
isle
ismail
ismn
isn
isnotempty
iso
isola
isoname
israel
israeli
issn
issue
issues
istanbul
it
ita
italia
italian
italiana
italic
italics
italy
item
itemid
items
ito
itogi
its
itself
iucn
iv
ivan
ivar
ivlendi
ivory
ix
iz
izquierda
j
ja
jabal
jaber
jack
jackie
jackson
jacob
jacobs
jacobsen
jacqueline
jacques
jae
jaime
jake
jakob
jalal
jalandhar
jam
jamaica
james
jamie
jan
jane
janet
jano
january
japan
japanese
japonica
jar
jared
jason
java
javascript
javier
jay
jazz
je
jean
jeanne
jeff
jefferson
jeffrey
jena
jenkins
jennifer
jennings
jenny
jens
jensen
jeremiah
jeremy
jerome
jerry
jersey
jerusalem
jesse
jessica
jesu
jesuit
jesus
jewish
jews
jezd
ji
jic
jihlava
jild
jill
jim
jimmy
jin
jindr
jo
joa
joachim
joan
joanna
joaqui
joe
joel
joey
johan
johann
johannes
johansen
john
johnny
johns
johnson
johnston
join
joins
joint
jon
jonas
jonathan
jones
jong
jordan
jorge
jose
josef
joseph
josh
joshua
josiah
journal
journalist
jov
jovice
joy
joyce
jp
jpeg
jpg
jpn
jquery
jr
js
json
ju
juan
jubb
judge
judith
judy
jules
julia
julian
julie
julio
julius
july
jun
junction
june
jung
junior
juniperus
jurist
just
justice
justin
juvenile
jørgen
k
ka
kabir
kafr
kai
kaiser
kalan
kaliningrad
kamerun
kan
kand
kandi
kane
kang
kangaroo
kanji
kansas
kapelle
kapurthala
kara
karen
kari
karim
karin
karl
karnataka
karte
kate
kategori
kategorie
kath
katherine
kathleen
katholische
kathryn
kathy
katie
kato
kay
kaynag
kaz
kazakhstan
kb
ke
kec
keep
keeper
keith
keller
kelly
kemal
ken
kendall
kenji
kennedy
kenneth
kenny
kensington
kent
kentucky
kenya
kept
kerala
kerman
kermanshah
kerr
kerry
kevin
key
keys
kg
kgz
khaled
khalid
khalifa
khan
khirbat
khorasan
khurd
ki
kick
kilkenny
killed
kilogram
kilometers
kim
kind
kindai
king
kingdom
kings
kingston
kirby
kirche
kirk
kit
kj
kjell
kk
kl
klaus
klein
kloster
km
kn
kne
knight
know
knowledge
known
knox
knudsen
knut
ko
kobayashi
koblenz
koch
koli
kolonia
kon
kong
konrad
konversationsleksikon
kor
korea
korean
korog
kos
kosovo
kota
kov
kovice
koz
kr
kra
krai
kriegerdenkmal
krishna
kristian
kristin
kro
kru
krzyz
ku
kubik
kumar
kuo
kurdish
kurdistan
kurt
kuwait
kuyavian
kv
kw
ky
kyle
kyoto
kz
l
la
label
labelled
labels
labor
labour
labrador
lady
lafayette
lafur
laga
lage
lago
lagos
laguna
laird
lake
lakes
lama
lambert
lancaster
lance
land
landing
landowner
landscape
lane
lang
langcode
lange
language
languages
lanka
laos
lapide
lar
lara
large
larger
largest
lario
larry
lars
larsen
las
last
lat
latakia
late
later
lateral
latest
latestreleased
latin
latitude
latn
latter
latvia
laura
laureates
laurel
lauren
laurence
laurent
laurie
lavandula
law
lawrence
laws
lawson
lawyer
lay
layout
lazio
lb
lc
lccn
ld
le
lea
lead
leader
leaders
leadership
leading
leaf
league
leagues
leandro
learn
least
leave
leaves
lebanon
lecce
lee
leeds
left
leg
legacy
legal
legend
legislative
legnano
leif
leigh
leipzig
leksikon
len
length
lenin
lent
leo
leon
leonard
leonardo
leone
leopard
leopold
les
leslie
less
lesser
lester
let
letter
letters
levante
level
levels
levi
lewis
lexington
leyman
lez
lg
lgbt
lhota
li
lia
liam
liberal
liberation
liberty
library
libraryutil
libya
lice
license
lie
lieutenant
life
liga
light
lighthouse
ligue
ligure
like
likely
lim
lima
limerick
limit
limited
lin
linaria
lincoln
linda
lindsay
line
linear
lines
linguist
link
linkcurrent
linked
linkfunctions
links
lio
lion
lionel
lions
lisa
list
listed
lister
listofseas
lists
liststyle
literary
literature
lithuania
little
liu
live
liverpool
living
livorno
lix
liz
lk
lka
ll
ller
lloyd
ln
lo
load
loaddata
loaded
lobby
loc
local
localitzacio
localized
located
location
locations
locator
lock
locke
lodge
lodhi
log
logan
logged
logo
logotipo
lois
lombardy
lon
london
long
longer
longitude
look
looking
looks
lookup
loop
lopes
lopez
lord
lorenzo
lorestan
lorraine
los
loss
lost
lot
lou
louis
louise
louisiana
louvre
love
low
lowe
lower
lowercase
lowry
ls
lt
ltd
ltu
lu
lua
lublin
lubusz
luc
luca
lucas
lucca
lucia
luciano
lucien
lucius
lucy
ludvig
ludwig
luftbild
lui
luigi
luis
luiz
luke
lum
luna
lund
luscinia
luther
luxembourg
luz
lv
lvaro
lynch
lyndon
lynn
lynx
lyon
lyons
lı
m
ma
mac
macau
macdonald
macedonia
macerata
machine
mack
mackay
mackenzie
macmillan
macropus
mad
madagascar
made
madeleine
madison
madonna
madrid
mae
mag
magazine
magdalena
maggie
maggiore
magic
magnolia
magnus
maharashtra
mahmoud
mahmud
mai
mail
main
maine
mainsnak
maint
maintenance
mainz
major
majority
make
makes
makeurllink
makewikilink
making
maktoum
mal
mala
malagasy
malawi
malay
malaysia
malaysian
malcolm
maldives
male
mali
mall
mallorca
malta
man
management
manager
managers
manchester
mandal
manhattan
manitoba
mann
mannheim
manning
manor
mansfield
manual
manually
manuel
manuscript
many
mao
maori
map
mapa
mappa
maps
mar
mara
marburg
marc
marcel
marcelo
march
marche
marco
marcos
marcus
mare
margaret
margherita
margin
marguerite
marguments
mari
maria
mariana
mariano
marie
marienberg
marienkirche
marilyn
marina
marine
marines
marino
mario
marion
mariusz
marjorie
mark
marked
marker
market
marks
marksize
markt
marktplatz
markup
maroon
marques
marquess
marquis
mars
marsh
marshal
marshall
mart
martha
marti
martial
martin
martinez
martino
martins
marvin
mary
maryland
mas
mashhad
mask
mason
masovian
mass
massachusetts
massacre
massey
master
masurian
match
matches
matching
matera
material
math
mathematician
mathematics
mathias
matreeks
matt
matter
matthew
matthews
matthias
maureen
maurice
mauritius
mauro
max
maximilian
maximum
maxwell
may
maya
mayo
mayor
mazowiecki
mała
małe
mały
mb
mbox
mc
mccarthy
mcdonald
mcmillan
md
mdy
me
meadows
mean
meaning
means
mecklenburg
mecon
medal
media
mediawiki
medical
medicea
medicine
medieval
medina
mediterranean
meet
meeting
meets
megan
mehdi
mehmet
mei
meiji
mel
melanie
melbourne
melissa
melo
member
members
memorial
men
menu
mer
mercedes
mercer
merchant
mercury
meredith
merge
merian
mes
mesa
message
messages
messina
met
meta
metadata
metatable
method
methodist
methods
methoxy
methyl
metre
metric
metro
metropolitan
mex
mexican
mexico
meyer
mez
mg
mhnt
mi
mia
miami
miao
mica
michael
michel
michele
michelle
michigan
mick
mickey
microformat
microformats
microsoft
mid
middle
middleton
mie
might
miguel
mike
mikhail
miksosel
mil
milan
milano
mile
miles
military
mill
millennium
miller
milli
million
mills
milton
min
minas
mind
mine
ming
mini
minister
ministers
ministry
minnesota
minor
minus
minute
minutes
mir
miranda
miriam
mirror
mirza
mis
miss
missing
mission
missionary
mississippi
missouri
mit
mitchell
mitolojisi
mixed
mixtec
mj
mjbmr
mk
ml
mlada
mm
mn
mo
mobile
mod
mode
model
models
modena
modern
modified
modify
modugno
module
modules
moe
moghanshahr
mohamed
mohammad
mohammed
mohd
mol
moldova
mole
mon
monaco
monarch
monarchs
monarchy
monasterio
monastery
money
monferrato
mongol
mongolia
mongolian
monica
mono
monroe
montana
monte
montenegro
monterey
montgomery
month
monthly
months
montreal
monument
monumento
monza
moody
moon
moore
mora
moran
more
morebits
moreno
morgan
mori
morning
morocco
morre
morris
morrison
morten
morton
mos
moscow
moses
moshe
mosque
moss
most
mother
motion
motor
motors
mount
mountain
mountains
move
moved
movement
movie
moyne
moz
mp
mps
mr
mrs
ms
msg
mt
mu
mubarak
much
mug
muhammad
multi
multilingual
multiple
multiplier
mun
munich
municipal
municipalities
municipality
municipio
munro
mura
murcia
murder
murdered
murphy
murray
musa
muse
museo
museum
music
musical
musicbrainz
musician
musicians
muslim
muslims
must
mustafa
mw
my
myanmar
myers
n
na
nach
nacional
nad
naft
naga
nagar
nahuatl
nahyan
nakamura
nam
name
named
names
namespace
namespaces
namibia
nan
nancy
naomi
napoleon
nara
narrow
nasa
nasal
nash
nasser
nat
natal
natalie
nathan
nathaniel
nation
national
nationalist
nationality
nations
native
natural
naturalist
nature
naturns
nava
naval
navbar
navbox
navboxes
navigation
navigational
navigator
navy
nazionale
nb
nc
nchez
nd
ndates
nde
nden
ndez
ndl
nds
ne
neal
near
nebraska
necessary
neckar
ned
need
needed
needs
negative
neil
neill
nelson
neo
nepal
nes
nest
nested
net
netherlands
network
neu
neue
neues
neustadt
nevada
neve
never
neville
new
newcastle
newfoundland
newline
newman
newport
news
newsletter
newspaper
newton
next
nez
ng
nga
ngel
ngilizce
nh
ni
nia
nica
nice
nicholas
nichols
nicholson
nick
nickname
nicola
nicolai
nicolas
nicole
nieder
niels
nielsen
nig
nigel
niger
nigeria
night
nigra
nik
nikola
nikolai
nil
nile
nils
nilsen
nin
nina
nio
nior
nixon
nizami
nl
nm
nn
nnnnnn
no
noah
nobel
nobelprize
noble
nobleman
nocat
node
nodes
noeditsection
noel
noflip
noimage
nokia
nolan
noli
nomination
non
none
nor
nord
norfolk
normal
normalized
normally
norman
norsk
norske
norte
north
northeast
northern
northwest
northwestern
norton
norway
norwegian
not
notable
notation
note
notes
nothing
notice
notices
notify
notoc
notre
nou
nov
nova
novara
novelist
november
novembre
novy
now
nowa
nowe
nowiki
nowrap
nowy
noyabr
np
nr
ns
nsson
nster
nt
nther
nu
nuclear
nuestra
nuevaweb
nuevo
null
num
number
numbered
numberol
numbers
numeral
numeric
nums
numsep
nur
nuts
nv
nw
ny
nya
nyc
nz
nəs
o
oak
oaks
ob
obama
obj
object
objects
oblast
oc
occupation
occur
ocean
ocinsoutput
oct
october
odd
oder
of
off
offensive
office
officer
officers
offices
official
officinalis
offs
offset
often
og
ogg
ogv
oh
ohio
oil
ois
ok
oklahoma
ol
ola
olaf
olav
old
ole
oles
oliveira
oliver
olivia
olivier
olomouc
olsen
olya
olympic
olympics
oman
omar
ombox
omit
omitted
on
once
one
ones
online
only
ontario
oo
op
opac
open
opened
opening
opera
operation
operations
opole
opp
opposition
opt
option
optional
options
or
ora
orange
oratorio
orchis
order
ordered
ordinal
oregon
org
organisation
organization
organizations
orig
origargs
origin
original
originally
orlando
orle
orleans
orlici
oro
orto
orvieto
os
osaka
osborne
oscar
oskar
oslo
osman
ostanhai
ostanhaye
ostro
other
others
otherwise
otis
otrs
ottawa
otto
ottoman
ou
oued
ouled
our
out
outer
outline
output
outside
outstanding
ov
ove
over
overall
overflow
overlay
override
overrides
overview
ovice
owen
own
owner
oxford
oxide
oxo
oz
p
pa
pablo
pacific
padding
paddy
paderborn
padlock
pag
page
pagename
pageobj
pages
pagetext
pagetype
pahlavi
painter
painters
painting
pair
pairs
pak
pakistan
palace
palacio
palais
palatal
palazzo
palermo
palestine
palestinian
pallanza
palm
palma
palmas
palmer
pam
pamela
pan
panama
pano
panora
panorama
panoramica
panoramio
panthera
paolo
papaver
paper
papers
papua
par
para
parade
paradise
paraguay
param
parameter
parameters
params
parc
parco
parent
parentargs
parentheses
parentnode
parentonly
pargs
paris
parish
park
parker
parks
parliament
parm
parma
parms
parque
parrocchiale
parroquial
parse
parser
parsons
part
partial
participate
particular
particularly
parties
partner
parts
party
pas
pascal
pass
passed
passes
past
pat
paterson
path
patriarch
patricia
patrick
patrol
pattern
patterns
patterson
patton
paul
paula
pauline
paulo
pavel
pavia
pavilion
payne
paz
pc
pcall
pd
pdf
pe
peace
pearl
pearson
peder
pedersen
pedro
peer
peggy
pelhr
pen
penalty
peninsula
penn
pennsylvania
people
peoples
per
percent
percentage
percy
pereira
perepis
performance
performed
period
periodical
perkins
perry
persepolis
persia
persian
person
personal
personality
peru
perugia
pescara
pete
peter
peters
petersburg
petersen
peterson
petri
pez
pfarrkirche
pframe
pg
ph
phase
phenyl
phil
philadelphia
philanthropist
philip
philipp
philippe
philippine
philippines
phillip
phillips
philosopher
philosophers
philosophy
phoenix
phosphate
photo
photograph
photographer
photos
php
phrase
physical
physician
physicist
physics
pi
pia
piacenza
pianist
piazza
picea
picture
pictures
piece
piedicavallo
piedmont
pier
pierce
pierre
pietro
pieve
pilot
pin
pine
pines
ping
pink
pino
pinto
pinus
pioneer
pipe
pir
pires
pisa
pistoia
pittsburgh
pk
pl
place
placed
placeholder
places
plain
plains
plan
planned
plant
plantilla
plants
plaque
plate
platform
platz
play
playa
played
player
players
playhouse
playing
plays
playwright
plaza
plc
pleasant
please
plosive
plural
plus
plymouth
plzen
pm
pmc
pn
png
po
pod
podkarpackie
podlaskie
poet
poets
poggio
point
points
pol
poland
pole
police
policies
policy
polish
political
politician
politicians
politics
polk
polo
poly
polygon
pomeranian
pond
pont
ponte
pontevedra
pop
pope
popular
populated
population
populations
populism
populus
por
porsche
port
porta
portal
portale
portals
porter
portland
porto
portrait
portraits
portugal
portuguese
pos
position
positional
positions
positive
possible
possibly
possum
post
postal
postcondition
poster
postscript
pot
potassium
potentilla
potsdam
potter
poul
pound
powell
power
powers
powiat
pp
pr
pra
pradesh
prague
prairie
prasad
prato
pratt
pre
prec
precision
precondition
pref
prefecture
preferences
preferred
prefix
prefixed
prefixedtext
prefixes
prelate
preload
premier
premiers
prep
preprocess
preprocesssinglearg
present
presentation
presented
presenter
presidency
president
presidential
presidents
press
pressure
preston
preunit
prev
prevent
preview
previous
previously
pri
price
pride
priest
primarily
primary
prime
prince
princess
princeton
principal
print
prior
prison
private
prize
prizes
pro
probable
probably
problem
problems
process
processed
processing
prod
produce
produced
producer
producers
produces
production
professional
professor
profile
program
progress
progressive
project
projects
promising
promoted
pronunciation
prop
proper
properly
properties
property
propertyid
proposal
proposals
proposed
props
proste
protect
protected
protection
protectionobj
protest
proto
proton
prototype
provide
provided
provides
province
provinces
provincia
provincial
provisional
prussia
ps
psoe
pspv
psychology
pt
pu
public
publication
publications
published
publisher
publishers
publishing
puebla
pueblo
puente
puerta
puerto
puglia
pump
punctuation
punjab
purge
purple
purpose
purposes
push
pushpin
put
putin
px
pxtumb
python
q
qajar
qaleh
qarah
qaraqurd
qareh
qatar
qayah
qaynaq
qeshlaq
qid
qu
qualification
qualified
qualifier
qualifiers
qualify
qualifying
quality
quarter
quarterly
que
quebec
quechua
queen
queens
queensland
quentin
quercus
query
question
questions
queue
quick
quickform
quinn
quote
quotes
r
ra
raboe
race
rachel
racing
radiation
radio
radius
rae
raf
rafael
rafsanjan
ragnar
rahim
rahman
rai
rail
railway
rain
rainbow
raj
raja
rajasthan
rakovni
rally
ralph
ram
rama
rami
ramo
ramon
ramos
ramsay
ramsey
ran
ranch
rand
randall
randolph
random
randy
ranga
range
ranges
rank
ranked
ranking
rankings
ranks
ranunculus
rao
rapallo
rapor
rapper
rappers
rard
rare
ras
rashid
rasm
rasmussen
rate
rathaus
rather
ratio
rationale
rau
ravenna
raw
ray
raymond
rayon
rc
rd
rdoba
re
reach
read
reader
readers
reading
ready
reagan
real
reale
rear
reason
reasons
rebecca
rebel
rebellion
recco
received
recensamantromania
recent
recentchanges
recently
recipient
recipients
recognized
recommended
record
recorded
records
rect
red
reddy
redirect
redirects
redundant
reed
rees
ref
refer
referee
referees
reference
references
reg
regent
regex
regexp
reggio
regiment
regina
reginald
region
regional
regions
registered
regular
reid
reidar
reilly
related
relations
relative
release
released
relevant
relief
religion
religions
religious
remaining
remains
rembrandt
remember
remove
removed
removes
ren
renato
renault
render
rendered
rendering
renders
rene
rep
repeat
replace
replaced
replacement
replacements
replaces
report
reporter
reports
representative
representatives
republic
republican
request
requested
requests
require
required
requires
res
research
reserve
reset
resistance
resolution
resource
resources
respecte
respectively
respublikası
rest
restaurant
result
results
resume
ret
retrieved
retroflex
return
returned
returns
retval
rev
reverse
review
revisionselectionmethod
revolution
revolutionary
rex
rey
reyes
reynolds
rez
reza
rfa
rfc
rft
rfxobject
rg
rgb
rgen
rhein
rhine
rhode
rhodes
rhododendron
rhys
ri
ria
rian
ribeiro
ribera
ric
rica
ricardo
rice
rich
richard
richards
richardson
richmond
rick
rico
ridge
rie
rieti
rigaud
right
rightarrow
rights
rijn
riley
ring
rio
riomaggiore
rise
rising
rita
ritchie
ritter
riva
river
rivera
rivers
riverside
riyyatı
rk
rkc
rkiye
rkiyə
rm
rmir
rn
rna
rne
ro
road
rob
robbie
robert
roberto
roberts
robertson
robin
robinson
rocca
rocco
rocha
roche
rochester
rock
rocky
rod
rodney
rodri
rodrigo
rodrigues
rodriguez
roe
roger
rogers
roland
role
rolf
rollback
rom
roma
romagna
roman
romana
romani
romania
romanian
romano
rome
ron
ronald
ronnie
room
roosevelt
roosta
root
roque
rosa
rosario
rose
rosemary
roseto
ross
rossetti
rossi
roth
rotterdam
round
rounded
rounds
route
routledge
row
rowargs
rowland
rows
rowspan
roy
royal
rp
rr
rs
rsssf
rt
rth
rtl
rtt
rttemberg
ru
ruby
rudolf
rudy
rue
rufus
rugby
ruins
ruiz
rujm
rule
ruler
rules
run
runners
running
rupert
rural
rus
rush
russell
russia
russian
russland
russo
ruth
rutherford
ry
ryan
rychnov
ryo
rz
s
sa
saad
saale
sabah
sachsen
sacramento
saeed
safavid
safe
safety
sagra
sahib
sai
said
saint
saints
saitama
sala
salam
salazar
saleh
salem
salerno
salim
salinas
salisbury
salix
sally
salman
salmon
salmonsens
salt
salvador
salvatore
sam
samantha
same
sami
samir
samoa
samsung
samuel
san
sanctuary
sand
sandbox
sanders
sandra
sandy
sang
sankt
sans
sant
santa
santi
santiago
santo
santos
santuario
sao
sar
sara
sarah
sarajevo
sardinia
sari
sarı
saskatchewan
satellite
sato
saud
saudi
saunders
savage
save
saxe
saxony
say
sayı
sb
sbs
sc
scale
scales
scar
scene
scheme
schloss
schmidt
schneider
scho
scholar
scholarly
scholars
school
schools
schu
schule
schultz
schwa
schwerin
sci
science
sciences
scientific
scientist
scientists
sco
scope
score
scored
scotia
scotland
scott
scottish
screen
screenshot
screenwriter
script
scripts
sculptor
sd
sdf
se
sea
seal
sean
seanad
search
searchengvar
searches
season
seasons
seat
seats
seattle
sebastia
sebastian
sec
second
secondary
seconds
secret
secretary
sect
section
sections
security
sedan
see
seeds
seen
segarra
segura
sek
select
selected
selection
self
semi
sen
senate
senator
senegal
sent
sep
separate
separated
separator
separators
sepc
sept
september
sequence
serbia
sergei
sergio
serial
serie
series
serra
servant
server
service
services
session
sessions
sestri
set
setattribute
seth
setlink
setmetatable
sets
setting
settings
settlement
settlements
setyear
seven
several
sevilla
seychelles
seymour
sg
sh
shadow
shah
shahr
shane
shanghai
shankbone
shannon
share
shared
sharifabad
sharma
sharon
sharp
sharqi
shaw
shaykh
she
sheet
sheffield
sheikh
sheila
shek
shelley
shepherd
sheridan
sherman
shi
shia
shield
shields
shift
shin
ship
ships
shiraz
shire
shirley
sho
shop
shopping
shore
shores
short
shortcut
shortcuts
shot
should
show
showing
shown
shows
shrine
shu
si
sia
sicilia
sicily
sid
side
sidebar
sidi
sidney
siege
siegel
siegen
sierra
sign
signa
signature
significant
signing
signs
sigurd
silesian
silva
silver
similar
simmons
simon
simple
simply
simpson
sin
sinalunga
since
sinclair
sing
singapore
singer
singers
singh
single
singular
sinn
sir
sirmione
sister
sisters
site
sitelink
sites
situation
six
sixth
size
sk
ska
skater
ski
skidmore
skie
skin
skip
sko
sky
skyline
sl
slam
slavic
sld
slovakia
sm
small
smaller
smart
smet
smith
smyth
snak
snaktype
snippets
snow
so
soares
sobre
soccer
social
socialist
society
sodium
sofia
sofla
software
sokoło
sol
solar
soldier
soldiers
solid
solomon
some
someone
somerset
something
sometimes
son
song
songs
songwriter
songwriters
sonny
sons
sony
soon
sophia
sophie
soria
sort
sortable
sorted
sorting
sortkey
sortkeyvalue
soul
sound
source
sources
sourehcinema
sousa
south
southeast
southeastern
southern
southwest
southwestern
souza
soviet
sp
spa
space
spaces
spacing
spain
span
spanish
speaker
speakers
speaking
speaks
spec
special
species
specific
specified
specifies
specify
specifying
specimen
speech
speed
speedy
spell
spelling
spencer
spezia
spider
split
sport
sporting
sports
sportspeople
spring
springfield
springs
sq
squad
square
sr
src
sri
ss
st
sta
stable
stack
stade
stadio
stadion
stadium
stadt
stadtkirche
stadtmauer
stadtwappen
staff
stafford
stage
stalin
stamp
stan
stanbul
stand
standard
standards
standing
stanford
stanley
stanton
star
stara
stare
starr
stars
start
started
starting
startyear
stary
state
statelem
statement
statements
states
statesman
station
statistica
statistical
statistics
statistik
stats
statue
status
statuselement
stay
stazione
ste
steel
steele
stefan
stefano
stein
stella
stemma
step
stephanie
stephen
stephens
sterling
stern
steve
steven
stevens
stevenson
stewart
sti
stifadə
stiftskirche
stili
still
stirling
sto
stock
stockholm
stone
stop
storage
store
storia
storm
story
str
strakonice
strand
strange
strategy
straße
street
streets
strength
strickland
strike
string
strings
strip
stripmarker
stroke
strong
structure
stuart
stub
student
students
studies
studio
studios
study
sturm
stuttgart
style
styles
styling
su
sub
subcategories
subdiv
subdivision
subdivisions
subgroup
subject
subjectspace
submission
submit
subpage
subpages
subscription
subsp
substitute
substituted
substring
subtag
subtags
success
successful
such
sud
sudan
sue
suffix
suggested
suggestions
suicide
sul
sulfate
sullivan
sulmona
sultan
sultanpur
sum
summary
summer
summit
sumner
sun
sunday
sung
sunset
super
supplied
support
supported
supporting
supports
suppress
suppressed
supreme
sur
sure
surgeon
surname
surrey
survey
sus
susan
sussex
sutherland
sutton
suzanne
suzuki
sv
svein
sven
sverre
svg
svitavy
sw
swan
sweden
swedish
sweet
swimmer
swiss
switch
switzerland
sy
sydney
syed
sylvia
sym
symbol
symbols
synagoge
synonyms
syntax
syria
syrian
sysop
system
systems
səh
t
ta
tab
table
tables
tabriz
tabs
taft
tag
tags
tai
tail
taipei
taiwan
takahashi
takashi
take
taken
takes
taking
takuya
tal
talbot
talk
talkpage
tall
tamil
tan
tanaka
tang
tango
tank
tanks
tanzania
taoiseach
taormina
tappeh
tara
taranto
tarask
target
targs
tarihi
tarihinde
tarixi
tarixində
taro
tarvisio
task
tasks
tasmania
tasmanian
tatar
tate
taxa
taxobox
taxon
taxonomy
taylor
tazeh
tbl
tc
td
te
tea
teacher
teachta
team
teams
teatro
tech
technical
technology
ted
tehran
tel
television
tell
temmuz
temp
temperature
template
templatedata
templatepar
templates
templatestyles
temple
ten
tenerife
teng
tennessee
tennis
ter
terence
teresa
term
terme
terminal
terminus
terms
terrace
territorial
territories
territory
terry
tert
teruel
tesla
test
testcase
testcases
testing
tests
texas
text
th
tha
thai
thailand
thames
than
thank
thanks
that
the
theater
theatre
their
them
themselves
then
theodor
theodore
theologian
theory
there
therefore
theresa
thermal
these
thesis
they
thing
things
think
third
this
thispage
thomas
thompson
thomson
thor
thornton
those
though
thought
thousand
thp
three
through
thumb
thumbnail
thus
ti
tibetan
tice
tico
tie
tienne
tif
tiff
tiger
tigers
tilia
till
tim
time
timeline
times
timestamp
timezone
timothy
tin
tina
tinctoria
title
titleobj
titles
titlestyle
tk
tl
tmp
tn
tnt
to
tobago
tobias
toc
today
todd
todo
together
toggle
togo
token
tokrzyskie
tokyo
toledo
tom
toma
tomb
tomba
tome
tommy
ton
tonga
tonne
tonumber
tony
too
took
tool
toolbar
toolbox
tools
tooltip
top
topic
topics
topographic
tor
tora
tore
toro
toronto
torque
torre
torres
tory
toshkent
tostring
total
tour
tourism
tournament
towards
tower
towers
town
towns
townsend
township
tr
tra
track
tracking
tractor
tracy
trade
traditional
trail
trailer
trailing
train
tram
trani
trans
transcluded
transclusion
translate
translated
translation
translations
translator
translit
transliteration
transparent
transport
transportation
travel
travis
tre
treaty
tree
trees
trent
treviso
trevor
trial
trieste
trim
trimarg
trinidad
trinity
trk
trkgs
troops
trophy
troy
truck
true
truman
trump
trustees
try
trygve
trzcianka
ts
tt
tte
ttir
tu
tucker
tuik
tumb
tun
tunis
tunisia
tunnel
tunqa
tur
turkey
turkic
turkish
turkmenistan
turks
turm
turn
turner
tv
tw
twain
twice
twin
twinkle
twinkleconfig
two
tx
txt
ty
tyler
type
typeof
types
typically
tyrol
tyrone
tz
tərcu
u
ua
uae
uc
ucc
ucode
ud
ude
udine
uefa
ug
uganda
uherske
ui
uk
ukij
ukraine
ukrainian
ul
ule
ulrich
ulster
ulx
um
umberto
umm
un
una
uncredited
und
undated
undefined
under
understanding
underwood
uni
unicode
unida
union
unionist
unique
unit
unitcode
united
units
universal
universita
universities
university
unknown
unless
unnamed
unranked
unset
until
up
update
updated
updates
upload
upon
upper
upright
uprising
ur
urban
uri
url
urls
urlutil
uruguay
us
usa
usage
use
used
useful
usename
user
username
users
uses
using
usnews
uss
ussr
ustring
usually
utah
utc
util
utilities
uttar
utype
uzbekistan
v
va
vacant
vaccinium
vajiralongkorn
val
vale
valencia
valentine
valera
valfortore
valid
validate
valinfo
valladolid
valle
valley
value
valuefunc
values
van
vanc
vance
vancouver
vandalism
vanellus
vanessa
var
vargas
variable
variables
variant
variants
variety
various
varzesh
vatican
vaughan
vc
ve
vecchio
vector
vega
vegas
vehicle
velar
veneto
venue
venues
vera
verbania
verbascum
vercelli
verde
vermont
vernon
version
versions
vertical
very
ves
vi
via
viaf
viburnum
vic
vice
vicente
viceroy
vicia
victim
victor
victoria
victory
video
vie
viejo
vienna
vientos
vietnam
view
views
vigo
vii
viii
viktor
vila
vilhelm
villa
villafranca
village
villages
villanueva
villar
ville
vin
vince
vincent
viola
virgen
virgin
virginia
virginiana
virtual
viscount
visible
visit
vista
visual
visualeditor
vito
vitoria
vittorio
vivian
vka
vladimir
vlət
vo
vocalist
voice
voiced
voiceless
voices
voivodeship
vol
volleyball
volterra
volume
volunteer
volunteers
volvo
vom
von
vor
vorlage
vote
votes
voting
vowel
vr
vs
vu
vue
vulgaris
vy
vys
və
w
wa
wade
wadi
wagner
wales
walk
walker
wall
wallace
walsh
walt
walter
walters
walton
wan
wang
want
wanted
wappen
war
warburg
ward
warmian
warn
warner
warning
warnings
warren
warriors
wars
warsaw
warwick
was
washington
wasserturm
watanabe
watch
watchlist
water
watkins
watson
watt
way
wayback
wayne
ways
wcm
we
weapons
weather
weaver
web
webb
weber
webm
website
websites
webster
week
weekly
weeks
wei
weight
weimar
weingarten
wek
welcome
well
welles
wellington
wells
welsh
wen
wendy
went
wentworth
were
werner
wesley
west
western
westminster
weston
westwood
wgnamespacenumber
wgpagename
wgscript
what
whatever
wheeler
when
where
whether
which
whig
while
white
whitelist
whitespace
whitman
whitney
who
whole
whose
why
wi
wide
width
wie
wielka
wielki
wielkie
wielkopolski
wies
wiesbaden
wife
wiki
wikibase
wikidata
wikilink
wikimania
wikimedia
wikipedia
wikiproject
wikis
wikisource
wikitext
wild
wildlife
wiley
wilhelm
wilkinson
will
willard
willem
william
williams
williamson
willie
willis
willow
willy
wilson
win
winchester
wind
window
windsor
wing
winner
winners
winning
winston
winter
wisconsin
wish
wishlist
with
within
without
wittenberg
wka
wko
wl
wlink
wmf
wo
wojewo
wola
wolf
wolfgang
woman
women
won
wong
wood
woodland
woods
woodward
word
words
work
working
works
world
worth
would
wounded
wp
wrap
wrapped
wrapper
wrappers
wrestler
wright
write
writer
writers
writing
written
wrong
ws
wu
www
wyoming
x
xalq
xavier
xi
xii
xiii
xinjiang
xiv
xix
xml
xperia
xu
xv
xvi
xvii
xviii
xx
y
ya
yahya
yale
yamaguchi
yang
yao
yas
yayınları
ye
year
yearbc
years
yellow
yemen
yen
yeni
yerevan
yes
yesno
yet
yi
yil
yl
ym
ymd
yn
yo
yong
york
yorkshire
yoshida
you
young
younger
your
youth
youtube
yu
yuan
yue
yugoslavia
yun
yuri
yusuf
yuxarı
yyyy
z
za
zachary
zagreb
zahir
zambia
zamora
zapotec
zar
zaragoza
zavou
zayed
zdro
ze
zealand
zedong
zero
zh
zhang
zhou
zhuang
zimbabwe
ziraksima
zli
zlu
zme
znojmo
zo
zone
zones
zoo
zoom
zs
zu
zum
zur
zyyy
{
|
}
~

¡
¢
£
§
ª
«
¬
­
®
°
±
²
³
´
µ
¶
·
º
»
½
×
ß
æ
ð
÷
ø
ı
ım
ın
ından
ł
łe
ło
ŋ
œ
ǁ
ǃ
ɑ
ɒ
ɔ
ə
əfsanə
ɛ
ɡ
ɣ
ɨ
ɪ
ɯ
ɵ
ɹ
ʃ
ʉ
ʊ
ʝ
ʤ
ʰ
ʲ
ʷ
ʻ
ʼ
ʿ
ˀ
ˈ
ː
˔
˕
˖
˗
̀
́
̂
̃
̄
̆
̇
̈
̉
̊
̋
̌
̏
̑
̓
̔
̛
̝
̞
̟
̠
̣
̥
̦
̧
̨
̪
̫
̱
̲
̸
̺
͂
ͅ
͍
͡
α
β
δ
ε
η
θ
ι
λ
μ
ν
ο
ρ
ς
τ
υ
χ
ω
а
азербаи
б
в
вид
вокзал
г
года
город
города
д
дом
е
египте
ж
з
здание
и
из
история
к
л
ленина
м
музеи
н
на
о
область
п
памятник
площадь
по
р
раи
россии
с
ск
собор
советская
т
у
ул
улица
ф
х
храм
церковь
ч
ш
шаблон
ъ
э
энциклопедия
ю
я
і
՜
յ
օ
ְ
ִ
ַ
ָ
ֹ
ּ
א
ה
ו
י
מ
،
؛
؟
ء
ا
ااع
اانین
اب
اباد
ابدی
ابراهیم
ابراهیمی
ابردین
ابرلین
ابزار
ابن
ابهر
ابو
ابوالحسن
ابوالقاسم
ابومسلم
ابی
ات
اتالانتا
اتانول
اتحاد
اتدی
اتدیی
اتر
اتری
اتریندا
اتفاق
اتفاقی
اتلتیک
اتلتیکو
اتمیش
اتن
اتنیک
اتو
اتوم
اتک
اتی
اتیل
اتیلن
اتیمولوژی
اتین
اتیوپی
اثبات
اثر
اثرده
اثرلر
اثرلره
اثرلري
اثرلری
اثرلرین
اثرلریندن
اثرلرینده
اثرلرینی
اثری
اثرین
اثرینده
اثرینی
اثناسیندا
اجتماعی
اجدادی
احاطه
احتیاج
احتیاجی
احتیاط
احتیمال
احتیمالی
احتیوا
احسان
احمد
احمدا
احمدی
احوال
اختر
اخلاق
اخلاقی
اد
اداره
ادب
ادبي
ادبيات
ادبياتي
ادبی
ادبیات
ادبیاتی
ادبیاتیندا
ادبیاتینین
ادریس
ادعا
ادقار
ادموند
ادن
ادوارد
ادواردز
ادواردو
ادوین
ادی
ادیب
ادیتور
ادیر
ادیسون
ادینبروق
ادینبورق
ار
اراضی
اراضیده
اراضیسی
اراضیسینده
اراضیلر
اراضیلرده
اراضیلری
اراضیلرین
ارامونت
اراک
اربانا
ارتش
ارجاع
اردبيل
اردبیل
اردبیلی
اردیبهشت
ارسطو
ارسلان
ارل
ارمنی
ارمنیستان
ارنست
اره
اروقوي
ارومیه
اروگوي
اروین
ارک
اری
اریتره
اریمه
ارین
اریک
اریکسون
از
اس
اساس
اساسا
اساسدا
اساسلاری
اساسلانان
اساسلی
اساسن
اساسي
اساسيندا
اساسی
اساسین
اساسیندا
اساسینی
اسامی
است
استات
استاد
استار
استان
استانبول
استاوروپول
استرا
استرلینق
استفاده
استفان
استقلال
استنفورد
استنلی
استوارت
استون
استونی
استوک
استي
استیتس
استیل
استیو
استیون
اسحاق
اسد
اسدا
اسدالله
اسدی
اسراي
اسفند
اسلام
اسلامی
اسلحه
اسماعیل
اسماعیلیه
اسمیت
اسناد
اسپانیول
اسپرینق
اسپرینقز
اسپرینقفیلد
اسپلیت
اسپنسر
اسپور
اسپورتینق
اسکات
اسکار
اسکندر
اسکی
اسکیت
اسکیناسین
اسید
اسیر
اسیرلری
اش
اشاره
اشتات
اشتاین
اشتوتقارت
اشرف
اشعار
اشلی
اشنایدر
اشوی
اشکانی
اصغر
اصل
اصلا
اصلی
اصلینده
اصول
اصیل
اطراف
اطرافی
اطرافین
اطرافینا
اطرافیندا
اطرافینداکی
اطلاعات
اطلس
اعانه
اعتبارا
اعتراض
اعتیبار
اعتیبارا
اعتیبارلی
اعتیراض
اعتیقاد
اعدام
اعصاب
اعلام
اعلان
اعمال
اف
افراسیاب
افزودن
افسانه
افسردگی
افشار
افشارلار
افشین
افغان
افغانی
افغانیستان
افغانیستاندا
افغانیستانین
افلاطون
افندی
اقبال
اقتصادی
اقلایس
ال
الا
الاتحاد
الاتفاق
الاشکرت
الامارات
الان
الاهلی
البته
البورز
البوکرکی
الترک
التعاون
الجزایر
الجزاییر
الجزاییرده
الجزاییرلی
الجزیره
الخالق
الخلق
الدن
الده
الدوله
الدین
السد
السلطنه
الشارجه
الشباب
الظفره
العابدین
العاده
العین
الف
الفجیره
الفیحاء
القادسیه
الله
اللی
المر
المقدس
المللی
الملک
المنت
المپیاکوس
الن
النجارقی
النصر
النهرین
اله
الهاي
الهلال
الوارگرمسیري
الوحده
الوصل
الوند
الوي
الویس
الي
الک
الکتروشیمی
الکترومغناطیس
الکترون
الکترونیک
الکتريک
الکتریک
الکتیریک
الکس
الکساندر
الکساندرا
الکساندریا
الکول
الگو
الگوی
الی
الیاس
الیزابت
الیس
الیسون
الیفبا
الیفباسی
الیفباسیندا
الیفبالاری
الیله
الین
الیندن
الینده
الینه
الیوت
الیور
الییي
ام
اما
امار
امام
امامزاده
امان
امانوي
امبر
امر
امرسون
امره
امری
امستردام
امنیت
امهرست
اموری
امير
امک
امکداش
امکداشلیق
امی
امید
امیر
امیرلیگی
امیری
امیل
امیلی
امیلیا
امین
ان
انا
انبار
انتشارات
انتقال
انتلرز
انجام
انجمن
اند
اندرسون
اندرلشت
اندرو
اندروز
اندروید
اندونزی
اندونزیده
اندونزینین
اندی
اندیشه
اندیمشک
انرژی
انرژیسی
انزل
انزلی
انسان
انستیتوسو
انستیتوسودا
انصاری
انقلاب
انقلابی
انور
انگلیس
انگلیسجه
انگلیسی
انگوران
انی
انیمیشن
انینزولاق
اها
اهالي
اهاليسي
اهاليسی
اهالی
اهالیسی
اهالیسیندن
اهالیسینین
اهالینین
اهر
اهل
اهلی
اهمنی
اهمی
اهمیت
اهمیتلی
اهمیته
اهمیتی
اهواز
او
اوا
اوانز
اوبا
اوباما
اوبلاست
اوبلاستی
اوبلاستیندا
اوبلاستینده
اوبیری
اوبیي
اوت
اوتار
اوتاراکند
اوتاق
اوتریش
اوتریشده
اوتریشلی
اوتریشین
اوتو
اوتوز
اوتوماتیک
اوتوموبیل
اوتومومبیل
اوجا
اوجار
اوجارود
اوجاغی
اوجاق
اوجالیغی
اوجان
اوخ
اوخشار
اوخو
اوخوجو
اوخودو
اوخودوغو
اوخول
اوخولو
اوخوماغا
اوخوماق
اوخویان
اوخویوب
اود
اودا
اودلو
اودور
اودون
اودیا
اودیسا
اودینزه
اور
اورا
اورادا
اورادان
اورارتو
اورال
اورانوس
اورانین
اورانیوم
اورت
اورتا
اورتاسی
اورتاسیندا
اورتاشرق
اورتاق
اورتالاریندا
اورتايا
اورتایا
اورتون
اورخون
اوردا
اوردو
اوردوبادي
اوردوسو
اوردوسونا
اوردوسوندا
اوردوسونو
اوردوسونون
اوردون
اوردوندا
اوردونون
اوردي
اوردیبهشت
اورشلیم
اورقان
اورقانی
اورقانیزم
اورقانیک
اورقن
اورلي
اورمو
اورمونون
اورموی
اورمیه
اورنبورق
اورنج
اوره
اوروج
اوروقوي
اوروپا
اوروپاایتتیفاقی
اوروپادا
اوروپالی
اوروپانین
اوروپایا
اورک
اوری
اوز
اوزاق
اوزان
اوزانان
اوزای
اوزره
اوزرین
اوزرینده
اوزرینه
اوزه
اوزو
اوزوم
اوزون
اوزوندن
اوزونده
اوزونلوغو
اوزونلوق
اوزونه
اوزونو
اوزي
اوساکا
اوست
اوستا
اوستاد
اوستادی
اوستان
اوستاندا
اوستانداری
اوستانلار
اوستانلاری
اوستانلاریندان
اوستاني
اوستانين
اوستانی
اوستانین
اوستانیندا
اوستانینده
اوستانینین
اوسترالیا
اوسترالیادا
اوسترالیالی
اوسترالیانین
اوسته
اوستو
اوستورالیا
اوستون
اوستونده
اوستونلوک
اوستونه
اوستی
اوسمی
اوسکار
اوسکارا
اوشاغی
اوشاق
اوشاقلار
اوشاقلاری
اوشاقلیق
اوشنو
اوشنویه
اوصول
اوصولو
اوغروندا
اوغلان
اوغلو
اوغلونون
اوغلی
اوغور
اوغورلو
اوغوز
اوغول
اوف
اوقاندا
اوقیانوس
اوقیانوسو
اوقیانوسیه
اول
اولا
اولابیلر
اولاجاق
اولاجاقدیر
اولاد
اولار
اولاراق
اولاردی
اولارکن
اولاری
اولارین
اولان
اولاندا
اولاندان
اولانلار
اولای
اولجه
اولد
اولدو
اولدوز
اولدوزلار
اولدوزلاری
اولدوزو
اولدوغو
اولدوغونا
اولدوغوندان
اولدوغونو
اولدوق
اولدوقجا
اولدوقدا
اولدوقلاری
اولدولار
اولدی
اولسا
اولسان
اولسون
اولما
اولمادان
اولمادی
اولمادیغی
اولمادیغینی
اولماز
اولماسا
اولماسی
اولماسین
اولماسینا
اولماسینی
اولماغا
اولماغی
اولماق
اولماقلا
اولمالی
اولمالیدیر
اولماماسی
اولمایاراق
اولمایان
اولماییب
اولمور
اولموش
اولموشدو
اولموشدور
اولموشلار
اولمپیک
اولو
اولوب
اولوبدور
اولوبلار
اولور
اولوردو
اولوردولار
اولورسا
اولورلار
اولوس
اولوسلارا
اولوغ
اولوم
اولوملری
اولوموتس
اولون
اولونا
اولونان
اولوندو
اولوندوغو
اولونماسی
اولونماسینا
اولونموش
اولونموشدو
اولونموشدور
اولونوب
اولونور
اولونوردو
اولچوسوده
اولکه
اولی
اولیمپییا
اولین
اولینده
اولیور
اولیویرا
اوماها
اومبریا
اومید
اون
اونا
اونتاریو
اونجه
اونجو
اوندا
اوندان
اونسی
اونلار
اونلارا
اونلاردا
اونلاردان
اونلارلا
اونلارين
اونلاری
اونلارین
اونملی
اونو
اونون
اونونجو
اونونلا
اونيوي
اونگوت
اونی
اونیوي
اوهایو
اوو
اوول
اوولکی
اوون
اوي
اويغون
اوپرا
اوپوله
اوپي
اوچ
اوچاق
اوچوش
اوچون
اوچونجو
اوک
اوکتبر
اوکتوبر
اوکراین
اوکراینلی
اوکراینین
اوکسید
اوکسیژن
اوکلاهما
اوکلاهوما
اوکلند
اویدو
اویغور
اویغون
اویل
اوینادی
اوینامیش
اوینامیشدیر
اوینانیلان
اوینایان
اویناییر
اویه
اویون
اویونا
اویونجو
اویونجوسودور
اویوندا
اویونلار
اویونلاری
اویونلارین
اویونلاریندا
اویونلاریندان
اویونلارینین
اویونو
اویونون
اویونچو
اویونچوسو
اویونچوسودور
اویونچولار
اویونچولاری
اویونچونون
اي
ايالتي
ايتالیالی
ايجتيماعي
ايجرود
ايداره
ايدي
ايران
ايرانين
ايره
ايسته
ايستيفاده
ايسراي
ايسراییل
ايسلام
ايسه
ايش
ايشتيراک
ايشله
ايفاده
ايل
ايلد
ايلدن
ايلده
ايللرده
ايله
ايلين
ايلک
اينانجلارينا
اينجي
اينجی
ايندي
اينسان
ايچينده
ايکي
ايکينجي
اپیتلی
اچ
اژه
اک
اکبر
اکتبر
اکثر
اکثرا
اکثریتی
اکران
اکس
اکوادور
اکولوژی
اکونومیک
اکينچي
اکین
اکینچی
اکینچیلر
اکینچیلیک
اکینچیلیکله
اگر
اۆدم
اۆر
اۆرتیم
اۆرک
اۆز
اۆزره
اۆزرینده
اۆزرینه
اۆزه
اۆزو
اۆست
اۆسته
اۆستون
اۆستونده
اۆستونلوک
اۆستونه
اۆلکه
اۆچ
اۆچون
اۆچونجو
اۆچۆن
اۆیه
اۇجالیقی
اۇجالیقیدا
اۇدلاغی
اۇدلاغین
اۇدلاق
اۇدلاقدا
اۇزاق
اۇزانیر
اۇزای
اۇزون
اۇزونلوغو
اۇستانلاری
اۇستانی
اۇستانیندا
اۇشاق
اۇشاقلاری
اۇلدوزلاری
اۇلوسلارا
اۇکتوبر
اۇیغون
ای
ایاق
ایالت
ایالتلر
ایالتلری
ایالتلرین
ایالتلرینده
ایالتلرینین
ایالتی
ایالتین
ایالتیندا
ایالتینده
ایالتینین
ایان
ایب
ایباراکی
ایبتیدایی
ایبراهیم
ایبن
ایت
ایتالیا
ایتالیاجا
ایتالیادا
ایتالیالی
ایتالیانین
ایتتیفاقی
ایتتیفاقین
ایتکی
ایتی
ایتیردی
ایتیرمه
ایتیرمیش
ایتیفاقی
ایجاد
ایجازه
ایجتماعی
ایجتیماع
ایجتیماعی
ایجرا
ایجرود
ایجماع
ایحاطه
ایختیراع
ایخراج
اید
ایداره
ایداری
ایدمان
ایدمانچی
ایدمانچیلار
ایدمانی
ایده
ایدي
ایدی
ایدیعا
ایدیل
ایدیلر
ایذه
ایر
ایراده
ایران
ایرانا
ایراندا
ایراندان
ایرانلی
ایرانلیلار
ایرانی
ایرانین
ایراکلی
ایردی
ایرشاد
ایرل
ایرلند
ایرلندلی
ایرلنده
ایرلی
ایره
ایروان
ایرکوتسک
ایری
ایز
ایزله
ایزمیر
ایساک
ایسبن
ایست
ایستادیوم
ایستادیومدا
ایستادیومدور
ایستادیوملار
ایستادیوملاریندا
ایستادیومو
ایستاری
ایستالین
ایستانبول
ایستانبولا
ایستانبولدا
ایستاندارد
ایستحصال
ایستحصالی
ایستر
ایسترسه
ایستفاده
ایستفن
ایستقلال
ایستمی
ایسته
ایستون
ایستونی
ایستوکهولم
ایستي
ایستک
ایستکلری
ایستگی
ایستی
ایستیثنا
ایستیر
ایستیفاده
ایستیقامت
ایستیقامتین
ایستیقامتینده
ایستیقلال
ایستیلی
ایستیناد
ایستینادلار
ایستیو
ایستییر
ایسراي
ایسراییل
ایسلام
ایسلامدان
ایسلامی
ایسلامین
ایسلاو
ایسلند
ایسلنده
ایسلواکی
ایسلوواکی
ایسلوونی
ایسماعیل
ایسماعیللی
ایسمیت
ایسه
ایسپارتا
ایسپارتاک
ایسپانجا
ایسپانیا
ایسپانیاجا
ایسپانیادا
ایسپانیاداکی
ایسپانیالی
ایسپانیانین
ایسپرینق
ایسپرینقز
ایسپي
ایسکات
ایسکاتلند
ایسکاتلندلی
ایسکاتلندنین
ایسکاتلنده
ایسکلت
ایسکندر
ایسکندریه
ایسکوت
ایش
ایشاره
ایشبارا
ایشتیراک
ایشتیراکی
ایشدن
ایشده
ایشغال
ایشغالی
ایشغالیندان
ایشل
ایشلتمه
ایشلتمک
ایشلدن
ایشلدنلر
ایشلدنلره
ایشلدنلری
ایشلدنلرین
ایشلدنین
ایشلر
ایشلرده
ایشلره
ایشلری
ایشلرین
ایشلریندن
ایشلرینده
ایشلرینه
ایشلرینی
ایشلنمه
ایشلنن
ایشلنیر
ایشله
ایشلییر
ایشه
ایشچی
ایشی
ایشیغی
ایشیغین
ایشیق
ایشین
ایشینه
ایشینی
ایصفاهان
ایصفهان
ایصلاحات
ایضاح
ایضاحلی
ایطلاعات
ایفا
ایفاده
ایفاچی
ایفتیخارلاری
ایفرازات
ایقبال
ایقتصادچی
ایقتصادیاتی
ایقتیصاد
ایقتیصادچی
ایقتیصادچیلار
ایقتیصادی
ایقتیصادیات
ایقتیصادیسی
ایقل
ایقلیم
ایقلیمی
ایقور
ایل
ایلا
ایلام
ایلان
ایلاهه
ایلاهی
ایلاهیاتچیلار
ایلتیهابی
ایلد
ایلدن
ایلده
ایلدی
ایلدیریم
ایللر
ایللردن
ایللرده
ایللره
ایللری
ایللرین
ایللرینده
ایللرینه
ایللیک
ایلنجه
ایله
ایلهام
ایلين
ایلچه
ایلک
ایلکین
ایلگی
ایلگیلی
ایلی
ایلیده
ایلین
ایلیندن
ایلینده
ایلیننۆفوس
ایلینه
ایلینوی
ایلینین
ایم
ایمارات
ایماراتدا
ایمام
ایمامی
ایمان
ایمتیاز
ایمتیناع
ایمضا
ایمضالادی
ایمضالانان
ایمضالاندی
ایمضالانمیشدیر
ایمنی
ایمپراتور
ایمپراتورلوغو
ایمپراتورلوغونون
ایمپراتورو
ایمپي
ایمپیراتو
ایمپیراتور
ایمپیراتورلاری
ایمپیراتورلوغو
ایمپیراتورلوغونون
ایمپیراتورلوق
ایمپیراتورلوقلار
ایمپیراتورو
ایمکان
ایمکانی
ایمی
ایمیش
ایمیشو
ایمیل
ایمیپراتورلوغو
این
اینام
اینانج
اینانجلاری
اینانجی
اینتر
اینتراخت
اینترناسیونال
اینترنت
اینتي
اینجه
اینجی
ایندهوون
ایندی
ایندیا
ایندیانا
ایندیاناپولیس
ایندیلیکده
ایندیه
ایندیکی
ایندییه
اینسان
اینسانا
اینسانلار
اینسانلارا
اینسانلاری
اینسانلارین
اینسانی
اینسانین
اینستیتوتونون
اینسرتا
اینشا
اینضیباطی
اینفي
اینقیلاب
اینقیلابچی
اینقیلابچیلار
اینقیلابی
اینقیلابین
اینقیلابیندان
اینه
اینک
اینکیشاف
اینکیشافی
اینکیشافینا
اینکیشافیندا
اینکیشافینی
اینگلیس
اینگلیسجه
اینگلیسیجه
اینگیلیس
اینگیلیسجه
اینگیلیسده
اینگیلیسلی
اینگیلیسی
اینگیلیسیجه
اینگیلیسین
اینی
ایو
ایواتا
ایوان
ایپسویچ
ایپک
ایچ
ایچره
ایچری
ایچریسینده
ایچه
ایچون
ایچکی
ایچی
ایچین
ایچینده
ایچینه
ایک
ایکس
ایکن
ایکی
ایکیسی
ایکیطرفلی
ایکینجی
ایگید
ایگیرمی
ایگیرمینجی
ایی
اییی
ب
با
باب
بابا
باباسی
بابل
بابک
بابی
بابیل
بات
باتلر
باتون
باتی
باجی
باجیسی
باخ
باخاراق
باخان
باخانی
باخماق
باخماياراق
باخمایاراق
باخمیدان
باخیر
باخیش
باخیشی
باخیم
باخیمدان
باخیمین
باخیمیندان
باخین
باد
باداخس
بادام
بادان
بادن
باده
بادی
بار
باراندوز
باراندوزچای
باراک
باربارا
بارتون
بارسلون
بارسلونا
بارسلونادا
بارماق
بارنز
باره
باروق
بارون
باری
باریش
باز
بازار
بازارا
بازاری
بازل
بازی
باس
باستان
باستانی
باسقی
باسقین
باسک
باسین
باش
باشا
باشاری
باشاریر
باشاریلاری
باشاریلی
باشد
باشدا
باشدان
باشقا
باشقالاری
باشقانی
باشقورت
باشقیردیستان
باشقیردیستاندا
باشلادی
باشلادیغی
باشلادیلار
باشلاماق
باشلامیش
باشلامیشدی
باشلامیشدیر
باشلانان
باشلاندی
باشلانغیج
باشلانغیجی
باشلانماسی
باشلانمیش
باشلانیب
باشلانیر
باشلایاراق
باشلایان
باشلاییب
باشلاییر
باشلی
باشلیجا
باشلیغی
باشلیق
باشماق
باشچی
باشچیسی
باشچیلار
باشچیلاری
باشچیلیغی
باشچیلیق
باشکان
باشکانی
باشکند
باشکندلری
باشکندی
باشگاه
باشی
باشین
باشینا
باشیندا
باغ
باغا
باغلار
باغلاری
باغلاماق
باغلانتی
باغلانتیسی
باغلانتیلار
باغلاندی
باغلانمیش
باغلایان
باغلي
باغلی
باغلیدیر
باغچه
باغی
باغیرساق
باغیروف
باغیمسیز
باغیمسیزلیغینی
باغیمسیزلیق
باقر
بال
بالا
بالابان
بالاجا
بالاکن
بالتیمور
بالتیک
بالدوین
باله
بالي
بالکان
بالیغی
بالیق
بان
باند
بانک
بانکچیلار
بانکی
بانی
بانیسی
باهار
باهالی
باهیا
باوي
باي
باک
باکتری
باکو
باکي
باکيدا
باکی
باکیدا
بای
بایات
بایاتی
باید
بایر
بایراغی
بایراق
بایرام
بایرامی
بایرن
بایزید
بایگانی
بت
بتا
بتل
بتی
بتیس
بحث
بحري
بخارست
بختیاری
بخش
بخشی
بد
بدر
بدفورد
بدن
بدنلری
بدنی
بدنین
بدو
بدون
بدیعی
بر
برا
برابر
برابردیر
برادفورد
برادوست
براندنبورق
برانکس
براهام
براون
برای
برایان
برایتون
برت
برج
برد
بردلی
برده
بررسی
برزیل
برزیلده
برزیللی
برزیلین
برق
برقرار
برلین
برمن
برمینقم
برن
برنارد
برنامه
برنت
برنتفورد
برنلی
برنو
برهان
برو
بروتزو
برود
بروس
بروسیا
بروم
برومویچ
برومید
برونو
بروک
بروکس
بروکسل
بروکلین
بري
برپا
برچسب
برک
برکلی
بری
بریاجی
بریان
بریانسک
بریتانیا
بریتانیادا
بریتانیاداکی
بریتانیالی
بریتانیانین
بریتانییا
بریتیش
بریج
بریستول
بریقم
برین
بزرق
بزرگ
بزه
بزينه
بزک
بس
بستان
بسته
بسله
بش
بشیکتاش
بصره
بعد
بعضا
بعضي
بعضی
بعضیلری
بغداد
بغدادی
بل
بلا
بلاروس
بلاغ
بلاک
بلدیه
بلدییه
بلقراد
بللی
بله
بلو
بلوز
بلوط
بلومفیلد
بلومینقتون
بلوچیستان
بلوک
بلي
بلژیک
بلژیکده
بلژیکلی
بلک
بلکبرن
بلکه
بلکپول
بلگه
بلی
بم
بمبي
بن
بنا
بناب
بنت
بنتون
بنجامین
بند
بندانگشتی
بندر
بندرعباس
بندرماهشهر
بندی
بنزر
بنزه
بنزوي
بنزیل
بنفیکا
بنقال
بنقلادش
بنقلادشده
بنه
بنو
بنی
بنین
به
بهار
بهانه
بهبهان
بهرام
بهرنگی
بهره
بهروز
بهزاد
بهمن
بو
بوب
بوبی
بوت
بوتافوقو
بوتان
بوتسوانا
بوتلر
بوتو
بوتون
بوتونلوکله
بوتیل
بوجاق
بوجپوری
بوخارا
بود
بودا
بوداق
بوداپست
بودجه
بودور
بودین
بور
بورا
بورادا
بورادان
بورانی
بورانین
بورایا
بورج
بورجو
بوردا
بوردو
بورس
بورسا
بورق
بورقس
بورلی
بورن
بورنموث
بورنو
بورو
بوروسیا
بوروشکیل
بورون
بوروندی
بورک
بورکینافاسو
بوریاتیا
بوریاتیادا
بوریس
بوز
بوستان
بوستون
بوسنی
بوش
بوشلوغوندا
بوشهر
بوغاز
بوغازی
بوغدا
بوغرا
بوغوم
بوفالو
بول
بولاغی
بولاق
بولبول
بولتون
بولدر
بولشایا
بولشوی
بولشویک
بولشي
بولغار
بولغاریستان
بولغاریستانین
بولقار
بولود
بولوم
بولومو
بولومون
بولومی
بولونوش
بولونیا
بولگه
بولینق
بولیوی
بومی
بون
بونا
بوناپارت
بوندان
بونلار
بونلارا
بونلاردان
بونلاردیر
بونلاری
بونلارین
بونه
بونو
بونون
بونونلا
بوهم
بوي
بوک
بوکان
بوکس
بوکسور
بوگون
بوگونکو
بوی
بوید
بویراحمد
بویز
بویزی
بویو
بویون
بویونجا
بویوک
بي
بير
بيري
بيرينجي
بيز
بيزيم
بيلر
بيلمه
بيگ
بک
بکر
بۆتو
بۆتون
بۆتۆن
بۇ
بۇرادا
بۇز
بۇغوم
بۇنا
بۇندان
بۇنلار
بۇنلاردان
بۇنو
بۇنون
بۇنونلا
بی
بیات
بیان
بیاننامه
بیت
بیتمیش
بیتکی
بیتکیلر
بیتگی
بیتیردیکدن
بیتیرمیش
بیتیریب
بیجار
بیده
بیر
بیرباشا
بیربیرینه
بیرد
بیردن
بیرده
بیرلش
بیرلشدی
بیرلشدیرمه
بیرلشدیرن
بیرلشمه
بیرلشمیش
بیرلشه
بیرلشیک
بیرلیک
بیرلیکده
بیرلیگی
بیرلیگینه
بیرلیگینین
بیرلییینین
بیرمنقام
بیرمینگام
بیرنجی
بیره
بیرون
بیرگه
بیری
بیریدیر
بیریسی
بیریملری
بیریمی
بیرین
بیرینجی
بیریندن
بیرینده
بیرینه
بیرینی
بیرینین
بیز
بیزانس
بیزده
بیزه
بیزی
بیزیم
بیزینسمن
بیس
بیسمارک
بیق
بیل
بیلا
بیلاواسیطه
بیلباي
بیلدی
بیلدیردی
بیلدیرمیش
بیلدیری
بیلدیریب
بیلدیریر
بیلر
بیلردی
بیلرسیز
بیلرسینیز
بیلرلر
بیلریک
بیلشیک
بیلقاراد
بیلمز
بیلمه
بیلمک
بیلمیر
بیلمیردی
بیلمیرم
بیلمیش
بیلن
بیله
بیلگه
بیلگی
بیلگیسی
بیلگیلر
بیلگیلری
بیلگین
بیلی
بیلیب
بیلیر
بیلیردی
بیلیرلر
بیلیرم
بیلیشیم
بیلیم
بیلیمجی
بیلیمی
بیلینن
بیلینیر
بیلیک
بیلیکلیک
بیمه
بین
بینا
بیناسی
بینالار
بینانین
بینلخالق
بیهار
بیو
بیوتیک
بیوشیمی
بیوفارماسی
بیوقرافی
بیولوژی
بیولوژیست
بیوک
بیچ
بیچیم
بیکر
بیگ
بیگلی
بیگوو
بیگی
بیگین
بیین
ة
ت
تا
تابع
تابعه
تابلوسو
تابور
تابي
تات
تاتار
تاتارجا
تاتارلار
تاتارلاری
تاتاریستان
تاتنهام
تاتورک
تاثیر
تاثیری
تاج
تاجه
تاجیر
تاجیک
تاجیکیستان
تاخت
تاختا
تاخیل
تاخیم
تاخیملاری
تاخیمی
تاخیمیسینین
تاخیمین
تاخیمیندا
تاد
تار
تاراقونا
تاردو
تاريخ
تاريخي
تاریخ
تاریخدن
تاریخده
تاریخلی
تاریخه
تاریخچه
تاریخچی
تاریخچیلر
تاریخی
تاریخین
تاریخیندا
تاریخینده
تاریخینه
تاریخینی
تازا
تازه
تاسی
تاسیس
تاسینین
تاشکند
تاغی
تال
تالار
تالان
تالیش
تام
تاماشا
تاماشاچی
تامام
تامامیله
تامان
تامسون
تامپسون
تامی
تامیل
تامین
تان
تانری
تانریسی
تانریلاری
تانریچاسی
تانزانیا
تانی
تانیدی
تانیش
تانیلمیش
تانیلیر
تانیماق
تانینان
تانینمیش
تانینمیشدیر
تانینیر
تاون
تاي
تاپا
تاپان
تاپدی
تاپشیریقلاری
تاپماق
تاپمیش
تاپمیشدیر
تاپیب
تاپیر
تاپیلار
تاپیلان
تاپیلدی
تاپیلمیش
تاکاشی
تاکویا
تای
تایلر
تایلند
تایلندلی
تایلنده
تایلور
تایم
تایوان
تایواندا
تایید
تب
تبدیل
تبريز
تبریز
تبریزدن
تبریزده
تبریزلی
تبریزه
تبریزی
تبریزین
تبعه
تبلیغ
تبلیغات
تثبیت
تجروبه
تجروبی
تجهیز
تحریر
تحصيل
تحصیل
تحصیلات
تحصیلی
تحصیلین
تحصیلینی
تحقیر
تحقیق
تحلیل
تخت
تخته
تختی
تخصصی
تخمین
تخمینا
تخمینی
تد
تدبیرلر
تدریجا
تدریس
تدقیق
تدقیقات
تدقیقاتچی
تدن
تده
تدي
تديگي
تدی
تدیردی
تدیرمه
تدیرمک
تدیرمیش
تدیرمیشدیر
تدیرن
تدیره
تدیریر
تدیریلیر
تدیلر
تدیم
تدیک
تدیکجه
تدیکدن
تدیکلری
تدیگی
تدیگینی
تدیی
تذکره
تر
ترابزون
تراختور
ترامپ
تراکتورسازی
تربیت
تربیه
تربیچ
ترت
ترتر
ترتیب
ترجمه
ترجومه
ترزا
ترس
ترق
ترموشیمی
ترنتون
ترنر
تره
ترو
تروبللاریلردن
تروبللاریلردیر
ترور
تروي
تروی
ترک
ترکان
ترکی
ترکیب
ترکیبی
ترکیبین
ترکیبینده
ترکیبینه
تری
تریس
تریسی
ترین
ترینیتی
ترینیداد
تریومتیل
تریک
تز
تزار
تزه
تست
تسلا
تسلانین
تسلیم
تسه
تسوونتری
تسین
تش
تشان
تشویق
تشکور
تشکیل
تشکیلات
تشکیلاتلار
تشکیلاتی
تشکیلاتین
تشکیلاتینا
تشکیلاتینین
تصادف
تصادوف
تصادوفی
تصحیح
تصدیق
تصروفاتی
تصمیم
تصو
تصویب
تصویر
تصویری
تضییق
تضییقی
تطبیق
تطبیقی
تعریف
تعطیل
تعقیب
تعلیم
تعلیمی
تعمین
تعیین
تغییر
تغییرمسیر
تقارون
تقدیم
تقریبا
تقسیمات
تقلید
تقویم
تقویمی
تقویمینده
تقی
تل
تلانتا
تلانتیک
تلانقانا
تلر
تلری
تلطیف
تلف
تلفون
تلفونو
تله
تلوقو
تلویزیون
تلی
تم
تماس
تماق
تمام
تماما
تمثیل
تمز
تمل
تممیش
تمنی
تمه
تموسفر
تموسفری
تميش
تميشدير
تمپل
تمک
تمکدن
تمکده
تمکله
تمگه
تمگی
تمیر
تمیز
تمیزله
تمیش
تمیشدی
تمیشدیر
تمیشدیلر
تمیشلر
تمیه
تن
تنام
تنسی
تنظیم
تنفوس
تنقيد
تنقید
تنقیدچی
تنقیدی
تنه
تنها
تنگ
تنیس
تنیک
ته
تهدید
تهران
تهرانا
تهراندا
تهرانلیلار
تهرانین
تهلوکه
تهي
تو
توان
توانید
توت
توتاراق
توتان
توتدو
توتدوغو
توتماق
توتموش
توتوب
توتور
توتوردو
توتولان
توتولدو
توتولماسی
توتولموش
توتولور
توتون
توجه
توحید
تود
توده
تور
تورا
توران
توربه
توردو
تورك
توركجه
تورمه
تورن
توره
تورو
توروب
تورور
تورولمه
تورولوبدور
تورونتو
تورپاغا
تورپاغی
تورپاغین
تورپاق
تورپاقلاری
تورک
تورکجه
تورکلر
تورکلری
تورکلرین
تورکلریندن
تورکمان
تورکمن
تورکمنیستان
تورکو
تورکوستان
تورکولوق
تورکچه
تورکچولوک
تورکی
تورکیستان
تورکیه
توریسم
تورینقن
تورینو
توز
توسط
توسعه
توسکانی
توصیه
توضیح
توفیق
توققوشماسی
توقو
تول
تولدو
تولستوی
تولو
تولوز
تولید
تولیدو
تولیدی
تولین
توم
توماس
تومی
تون
تونج
تونس
تونقا
تونو
تونون
تونونون
تونی
تونیس
تونیسلی
تووا
توووز
توي
توپ
توپا
توپراق
توپلاییب
توپلوسو
توپلوم
توپلومسال
توپو
توپوقرافیک
توپونیم
توچیقی
توک
توکیو
توی
توین
توینکل
تویوتا
تویوق
تي
تين
تپه
تچی
تک
تکاب
تکامول
تکان
تکثیر
تکجه
تکدرخت
تکرار
تکزاس
تکلیف
تکلیفی
تکمیل
تکنو
تکنولوژی
تکنیک
تکنیکی
تکه
تکی
تکیسی
تکین
تگزاس
تۆتون
تۆر
تۆره
تۆرک
تۆرکجه
تۆرکلر
تۆرکلری
تۆرکلرین
تۆرکیستان
تۆرکیه
تۇتور
تۇتولوب
تۇتومونا
تۇز
تی
تیتانیوم
تیجارت
تیجارتی
تیجاری
تیجی
تیر
تیراختور
تیردی
تیره
تیری
تیریر
تیشدی
تیشیر
تیفلیس
تیفلیسده
تیل
تیلور
تیم
تیملر
تیملری
تیملرین
تیموتی
تیمور
تیمورون
تیموری
تیموریلر
تیمی
تیمین
تین
تینا
تینده
تینه
تینی
تینین
تیو
تیپ
تیپه
تیپی
تیپینه
تیک
تیکان
تیکمه
تیکیلمه
تیکیلمیش
تیکیلیب
تیکینتی
تیگین
تییا
ث
ثابت
ثابیت
ثار
ثانی
ثانیه
ثانییه
ثبت
ثبوت
ثروت
ثمانلی
ثوبوت
ثیر
ثیرلی
ثیری
ج
جا
جاببارلي
جابر
جارکند
جاز
جاستین
جاسوسلار
جاش
جاشوا
جالاندهار
جام
جاماح
جامال
جاماییکا
جامع
جامعه
جامو
جامی
جامیعه
جان
جاناتان
جانز
جانستون
جانسون
جانلاندیریب
جانلی
جانکشن
جانی
جانین
جاواب
جاواد
جاوان
جاوانشیر
جای
جایزه
جایگزین
جاییزه
جبار
جبراییل
جبل
جبهه
جده
جدول
جدولده
جدولی
جدی
جدید
جر
جراح
جراحی
جرالد
جرج
جردن
جرزی
جرمی
جرمیسی
جرگه
جری
جریان
جریانی
جزا
جزیره
جسارت
جسور
جسی
جسیکا
جعبه
جعفر
جعفرزاده
جعفری
جغرافی
جغرافیا
جغرافیای
جغرافیایی
جف
جفرسون
جفری
جلال
جلب
جلد
جلیل
جم
جماعت
جمال
جمشید
جمشیدی
جمع
جمعه
جمعی
جمعیت
جمعیتی
جمعیتین
جمعیتینه
جمله
جمهوری
جمهوریتی
جمیعتی
جن
جناب
جنازه
جنت
جنرال
جنسیت
جنوا
جنوب
جنوبا
جنوبوندا
جنوبى
جنوبی
جنگ
جنیفر
جه
جهاد
جهان
جهانگیر
جهانی
جهت
جهتدن
جهد
جو
جوا
جواب
جواد
جوان
جوت
جود
جودی
جور
جورج
جورجیا
جوره
جوزف
جوزپه
جوغرافی
جوغرافیا
جوغرافیاسی
جوغرافیایی
جول
جولای
جولفا
جولی
جولیا
جولیان
جومعه
جومله
جومهور
جومهورباشقانی
جومهورتینین
جومهورو
جومهوری
جومهوریت
جومهوریتلر
جومهوریتچیلر
جومهوریتی
جومهوریتین
جومهوریتینده
جومهوریتینین
جومهوریسی
جون
جونز
جونق
جونی
جونیور
جووانی
جوي
جوی
جویس
جي
جک
جکده
جکدیر
جکسون
جکلر
جکی
جگی
جگینی
جۆ
جۆر
جۆمله
جۆمهوریتی
جۆمهۇریتی
جۇ
جۇلای
جی
جیب
جیبوتی
جیددی
جیدی
جیسم
جیسمین
جیسون
جیسیم
جیل
جیلد
جیلدده
جیلدلیک
جیم
جیمز
جیمس
جیمی
جین
جینایت
جینایتکارلیق
جینایی
جینس
جینسی
جینسیت
جیهاز
جیوه
جیووانی
جیک
جییر
ح
حاج
حاجي
حاجی
حادثه
حاديثه
حادیثه
حاشیه
حاصیل
حاضردا
حاضیر
حاضیردا
حاضیرلانان
حاضیرلانماسی
حاضیرلانمیش
حاضیرلانیر
حافظ
حافیظه
حاق
حاقدا
حاقلاری
حاقيندا
حاقی
حاقین
حاقیندا
حال
حالا
حالت
حالتده
حالتینده
حالدا
حاللاردا
حالی
حالین
حالینا
حالیندا
حامد
حاکم
حاکمی
حاکمیت
حاکمیته
حاکمیتی
حاکیم
حاکیملر
حاکیملری
حاکیمی
حاکیمیت
حاکیمیته
حاکیمیتی
حبت
حبس
حبیب
حبیبی
حت
حتا
حتشم
حتی
حج
حجم
حجمی
حد
حدود
حدیث
حذف
حذفی
حرب
حربی
حرف
حرفه
حرفی
حرفیدیر
حرکات
حرکاتی
حرکت
حرکتلر
حرکتلری
حرکته
حرکتی
حرکتین
حزب
حزبی
حزبینین
حس
حساب
حسابی
حسابینا
حسام
حسب
حسن
حسنی
حسين
حسین
حسینعلی
حسینقولو
حسینی
حسینین
حشراتلار
حصر
حضرت
حضور
حق
حقوق
حقوقی
حقیقت
حقیقتی
حقیقی
حل
حلال
حلب
حله
حلی
حمایه
حمد
حمزه
حمله
حمید
حمیدیه
حو
حورمتله
حوزه
حوسي
حوقوق
حوقوقو
حوقوقی
حومه
حوکومت
حوکومتی
حي
حيات
حياتي
حيصه
حکایه
حکم
حکمت
حکومت
حکومتی
حکومتین
حکیم
حۆقوقو
حیات
حیاتا
حیاتی
حیاتین
حیاتینا
حیاتیندا
حیاتینی
حیاتینین
حیدر
حیدری
حیزب
حیزبی
حیس
حیسه
حیص
حیصار
حیصه
حیله
حیمایت
حیمایه
حیکایه
خ
خاتون
خادیم
خادیمی
خار
خاراق
خاراکتي
خارجی
خارزم
خارپوستان
خاری
خاریج
خاریجه
خاریجی
خاریجینده
خاص
خاصه
خاطره
خاطیره
خاقان
خاقانلاری
خاقانلیغی
خاقانی
خاقانین
خال
خالخال
خالد
خالق
خالقا
خالقدان
خالقلار
خالقلاری
خالقلارین
خالقين
خالقی
خالقین
خالقینا
خالقینین
خالچا
خالی
خام
خان
خانا
خاناسی
خاندان
خاندانی
خانلا
خانلار
خانلاری
خانلیغی
خانلیغین
خانلیغینا
خانلیغیندا
خانلیغینی
خانلیق
خانلیقدا
خانلیقلاری
خانه
خانيم
خانی
خانیم
خانیملار
خانیمی
خانین
خاویر
خاچماز
خبر
خبرلر
خبرلری
خبرگزاری
خبری
ختار
ختاریش
ختاچی
خدابنده
خدور
خدیجه
خر
خرداد
خرمدره
خرمشهر
خریستیان
خریطه
خزر
خزرلر
خزرلرین
خزینه
خسا
خسان
خستلیین
خسته
خسرو
خشام
خصوصا
خصوصی
خصوصیت
خصوصیتلری
خصوصیله
خط
خطاب
خطی
خلاص
خلاصه
خلافتی
خلانیلیبدیر
خلج
خلف
خلق
خلو
خليل
خلیج
خلیفان
خلیفه
خلیل
خمسه
خمینی
خو
خواجه
خوان
خواننده
خواهیش
خوجا
خوجالی
خوجاوند
خود
خودا
خودافرین
خور
خوراسان
خورخه
خورد
خورداد
خورشیدی
خوزستان
خوزه
خوزیستان
خوش
خوشبخت
خوصوصا
خوصوصی
خوصوصیت
خوصوصیتی
خوصوصیله
خولاصه
خوندزاده
خوندوف
خونه
خوی
خویوب
خویون
خي
خۆصوصی
خۆصوصیت
خی
خیابانی
خیانت
خیاو
خیدمت
خیدمتی
خیر
خیردا
خیرلر
خیرونا
خیلاص
خیلافت
خیلافتی
خیلافتینین
خیملاری
خینی
خیوه
د
دا
داخلی
داخيل
داخی
داخیل
داخیلدیر
داخیلی
داخیلین
داخیلینده
داد
دادا
داده
دادیر
دار
دارا
دارالکتب
دارتموث
دارد
داروین
داریو
داریوش
داستان
داستانی
داستانین
داسی
داسینا
داسیندا
داش
داشته
داشلار
داشلاری
داشناک
داشکسیه
داشی
داشین
داشییان
داشیییر
داشیییردی
داغ
داغلار
داغلاری
داغلارین
داغلاریندان
داغلیق
داغی
داغیستان
داغیلدی
داغین
داقلاس
دال
دالا
دالار
دالاری
دالاس
دالاییجیلار
دالتون
دالغا
دالی
دام
داما
دامار
دامارلارلا
دامارینین
داماش
دامز
داملار
داملاری
داملارین
دامی
دامین
دان
دانا
دانشنامه
دانشگاه
دانمارک
دانمارکدا
دانمارکلی
دانيشيرلار
دانکن
دانی
دانیال
دانیشان
دانیشماغی
دانیشماق
دانیشیر
دانیشیرلار
دانیشیغی
دانیشیق
دانیشیقلار
دانیشیلان
دانیشیلیر
دانیل
دانین
داها
داهی
داو
داوا
داوار
داوارچیلیغلا
داوام
داواملی
داور
داورانیش
داوری
داوسون
داوود
داوید
داویس
داي
داک
داکته
داکتور
داکتورو
داکوتا
داکی
دای
دایاق
دایان
دایاناراق
دایانان
دایانیر
دایر
دایره
دایم
دایمی
دایی
داییر
دب
دبلیو
دبی
دجک
ددا
دده
ددی
ددیر
ددیم
ددینجی
در
درام
دراماتورق
دراماتیک
درباره
دربند
دربندده
دربنده
دربندی
دربی
درج
درجه
درحال
درخواست
درد
دردی
درس
درسدن
درسلری
درسلیک
درسی
درلر
درمان
درن
دره
درو
درویش
دري
درک
درکن
درگاه
درگی
درگیسی
درگیسینده
درگیلر
دری
دریا
دریان
دریسی
دریسیتیکان
درین
دریندن
دریک
دزفول
دسامبر
دسامبرین
دست
دستانی
دسته
دستور
دستک
دستکله
دستگاه
دشت
دعوت
دفتر
دفتری
دفعه
دفن
دفه
دقت
دقیق
دقیقه
دكتر
دل
دلا
دلار
دلاری
دلارین
دلارینی
دلان
دلانان
دلاندی
دلاندیریرلار
دلاندیریلان
دلاندیریلیر
دلانیب
دلانیر
دلانیردی
دلاور
دلاویر
دلتا
دلي
دلی
دلیل
دلیم
دلیملیق
دلیکلردن
دلیکلره
دلیی
دم
دمشق
دمه
دموکرات
دموکراتلاری
دموکراتیک
دموکراسی
دموین
دمک
دمیر
دمیراللار
دمیرچی
دن
دنباله
دنده
دنس
دنلر
دنه
دنور
دنویل
دنی
دنیز
دنیزلرده
دنیزلرین
دنیزه
دنیزی
دنیزین
دنیزینده
دنیزینه
دنیزینین
دنیس
دنیل
ده
دهدز
دهستان
دهلی
دهی
دهیستانی
دو
دواء
دواءنین
دوام
دوبلور
دوبلین
دوحه
دودانگه
دور
دوران
دورتموند
دورد
دوردونجو
دورلار
دورلر
دوره
دورور
دوروم
دورومو
دوز
دوزلتمک
دوزلمیش
دوزن
دوزه
دوزگون
دوس
دوست
دوستلوق
دوستو
دوسلدورف
دوشدو
دوشرگه
دوشمن
دوشمه
دوشموش
دوشن
دوشه
دوشوب
دوشور
دوشونجه
دوعا
دوغال
دوغان
دوغرو
دوغما
دوغو
دوغودان
دوغوسوندا
دوغولان
دوغولدوغو
دوغولموش
دوغولوب
دوغوم
دوغوملاری
دوغوملو
دوغوملولار
دوق
دوققوز
دوققوزونجو
دوقلاس
دول
دولار
دولانان
دولایی
دولت
دولتی
دولف
دوللر
دولماسی
دولنی
دولو
دولونه
دولونو
دولی
دوم
دوموز
دون
دونا
دونالد
دونتسک
دونيا
دونیا
دونیادا
دونیادان
دونیاسی
دونیاسیندا
دونیاسینی
دونیانی
دونیانین
دونیایا
دونیایه
دونیوی
دوه
دوور
دوولت
دوي
دوک
دوکتور
دوکتورلاری
دوکتورلر
دوکتورو
دویل
دویو
دي
ديا
ديب
دير
ديردي
ديرلر
ديل
ديلمه
ديلن
ديله
ديلي
ديلير
ديلين
ديلينده
ديني
دينی
ديگر
دپرسان
دپورتیوو
دژ
دک
دکتر
دکی
دۆز
دۆزولموش
دۆشدو
دۆشونجه
دۆشۆنجه
دۆنیا
دۆنیادا
دۆنیاسین
دۆنیانین
دۆنیایا
دۆیمه
دۇروم
دۇزلمیش
دۇغرو
دی
دیا
دیاری
دیارین
دیارینده
دیاز
دیالي
دیامتری
دیانا
دیب
دیبلر
دیبینده
دیتابیس
دیترویت
دیتون
دیجی
دیجیتال
دیدیر
دیر
دیران
دیردی
دیردیلر
دیرسه
دیرلار
دیرلر
دیرلی
دیرم
دیرما
دیرماق
دیرمک
دیرنیش
دیره
دیری
دیریلان
دیریک
دیستریکت
دیش
دیشلی
دیشی
دیغیه
دیف
دیفاع
دیفید
دیق
دیقت
دیققت
دیقو
دیل
دیلا
دیلار
دیلده
دیلدی
دیلدیر
دیلدیگی
دیلر
دیللر
دیللرده
دیللره
دیللری
دیللرین
دیللریندن
دیللرینده
دیللرینه
دیللرینی
دیللرینین
دیللی
دیلمه
دیلمکده
دیلمیش
دیلمیشدی
دیلمیشدیر
دیلن
دیله
دیلچی
دیلچیلیک
دیلی
دیلیب
دیلیدی
دیلیدیر
دیلیر
دیلیردی
دیلیمیزین
دیلین
دیلیندن
دیلینده
دیلینه
دیلینی
دیلینین
دیم
دین
دینا
دینامو
دینامیک
دینج
دینجی
دیندا
دیندان
دینلرینه
دینله
دینه
دینی
دینیدی
دینین
دینینه
دیه
دیو
دیوارلاری
دیواری
دیوان
دیوانی
دیومتیل
دیوید
دیویس
دیي
دیپلومات
دیپلوماتلار
دیپلوماتیک
دیپورتیوو
دیک
دیکتاتورلوق
دیکده
دیکسون
دیکلری
دیکنلیلر
دیگر
دیگری
دیگی
دیگینه
دیگینی
دییر
دییش
دییشدیر
دییشدیرمه
دییشدیرمک
دییشدیره
دییشمه
دییشن
دییشیب
دییشیر
دییشیک
دییل
دییلا
ذ
ذب
ذخیره
ذر
ذربايجان
ذربايجاندا
ذربایجان
ذربایجانا
ذربایجاندا
ذربایجاندان
ذربایجانلی
ذربایجانلیلار
ذربایجانی
ذربایجانین
ذرشهر
ذرنشر
ذره
ذری
ذوب
ذکر
ذین
ر
را
راب
رابرت
رابرتس
رابی
رابیطه
رابین
رابینسون
راتقرز
راجاستان
راجر
راجرز
راجستان
راحات
راحت
راد
رادا
رادان
رادیو
رادیکال
راز
رازی
راس
راست
راسل
راسيندا
راسی
راسین
راسینا
راسیندا
راسیندان
راسینداکی
راسینق
راش
راشد
راشدیران
راشدیرما
راشدیرمالار
راشدیرمالاری
راضی
رافاي
راق
رال
رالاریندا
رالف
رالی
رالیق
رام
رامون
رامی
ران
راندبی
رانی
راه
راورز
راي
راچستر
راک
راکت
رای
رایا
رایان
رایت
رایس
رایموند
راین
راینلاند
رایو
رایون
رایونلاری
رایونو
رایونون
رایونوندا
رایونونون
رب
ربیع
رت
رتا
رتاق
رتال
رتان
رتایا
رتدی
رتماسی
رته
رتور
رتولموش
رتویو
رتویونون
رتي
رتيق
رتی
رتیجیلار
رتیر
رتیردی
رتیرماق
رتیق
رج
رجب
رحمان
رحمت
رحیم
رخا
رخاسیندا
رخانقلسک
رخي
رد
ردا
ردالیلار
ردالیلارتیپی
ردالیلارتیپینه
ردالیلارین
رداکتورو
ردن
رده
ردو
ردوسو
ردوسونو
ردوسونون
ردونجو
ردي
ردی
ردیجیل
ردیر
ردیلر
ردین
ردینجا
ردیندان
ردینق
ردیگی
ردیی
رر
رز
رزرو
رزم
رزن
رزو
رس
رساله
رسام
رستم
رسم
رسما
رسمی
رسنال
رسه
رسول
رسیته
رسیتي
رسیز
رسین
رش
رشت
رشته
رشد
رشید
رشیدی
رشین
رشیو
رضا
رضایی
رضوی
رعایت
رفزی
رفسنجان
رفعت
رق
رقابت
رقاص
رقانلار
رقص
رقصی
رقم
رقملرینه
رقود
رقیب
رل
رلر
رلردن
رلرده
رلره
رلری
رلرین
رلریندن
رلرینده
رلرینه
رلرینی
رلشمه
رلشمیش
رلشن
رلشه
رلشيب
رلشیب
رلشیبدیر
رلشیر
رلشیردی
رله
رلو
رلي
رلی
رلیشیب
رلین
رلینقتون
رلیک
رم
رما
رماسی
رمال
رمالی
رمان
رمت
رمتله
رمتلی
رمزی
رمسترانق
رمضان
رمضانی
رمنی
رمنیستان
رمنیستانین
رمنیلر
رمه
رمو
رموش
رموشدور
رمي
رمک
رمی
رمیر
رمیزی
رمیش
رمیشدی
رمیشدیر
رمین
رن
رنا
رنجرز
رنه
رنولد
رني
رنک
رنکلر
رنگ
رنگلی
رنگی
ره
رهبر
رهبرلری
رهبرلیک
رهبرلیگی
رهبری
رو
روا
رواد
روادی
روان
روایت
روب
روبات
روبرت
روبرتس
روبرتو
روبن
روبی
روبین
روبینزون
روت
روتبه
روجر
روح
روحانی
روحو
روحون
روحی
رود
رودا
رودبار
رودریقز
رودریقو
رودولف
رور
روز
روزنامه
روس
روساریو
روستای
روستم
روستوف
روسجا
روسل
روسلار
روسلارین
روسو
روسونون
روسی
روسیه
روش
روشدیه
روشن
روشو
روشور
روضه
رول
رولموش
رولموشدور
رولن
روله
رولو
رولور
رولونا
رولونو
روم
روما
رومان
رومانتیک
رومانلارینا
رومانچی
رومانچیلار
رومانی
رومانیا
رومانیانین
رومانین
رومن
رومي
رومی
رون
رونالد
رونتو
رونتولر
روندوگو
رونمه
رونموشدور
رونن
رونور
رونون
رونی
روورز
روژ
روک
روی
رویال
رویدادلار
رویدادلاری
رویس
ري
رير
رينه
رپا
رپاغا
رپاق
رپاقلاری
رپر
رپه
رپو
رپوسو
رچه
رچک
رژانتین
رژانتیندا
رژانتینلی
رژیمی
رک
رکانزاس
رکملی
رکن
رکه
رکک
رگي
رگی
رگیک
رۇح
رۇحلاری
رۇحو
ری
ریا
ریاض
ریاضی
ریاضیات
ریاضیاتچی
ریال
ریان
ریب
ریتابانلاری
ریتم
ریج
ریجی
رید
ریدج
ریر
ریردی
ریرلر
ریز
ریزه
ریزونا
ریس
ریساله
ریش
ریشته
ریشلی
ریل
ریلدی
ریلر
ریلمه
ریلمیش
ریلمیشدیر
ریلن
ریله
ریلیب
ریلیر
ریلیردی
ریموند
رین
رینا
ریندن
رینده
رینه
رینو
رینی
ریه
ریو
ریور
ریچ
ریچارد
ریچاردز
ریچموند
ریچی
ریک
ریکاردو
ریکو
ریکی
ز
زا
زاد
زادلیغا
زادلیغی
زادلیق
زاده
زادگان
زادی
زار
زارع
زاقاتالا
زاقافقازیا
زاقرب
زال
زالتسبورق
زالیر
زامان
زامانا
زاماندا
زامانلا
زامانلار
زامانلاردا
زامانلاردان
زامانی
زامانین
زامانیندا
زامبیا
زاویه
زاکسن
زب
زبان
زبک
زبکیستان
زبکیستانین
زجوک
زحمت
زد
زدن
زده
زدیر
زر
زربايجان
زربایجان
زرداب
زردابي
زردابی
زرینه
زسکا
زل
زلر
زلری
زلرین
زلریندن
زلرینه
زلرینی
زلزله
زللیک
زللیکله
زله
زلو
زلوک
زلوکده
زلوکلر
زلوگو
زلوگون
زلۆک
زلۆکلر
زلۆیۆ
زلین
زلیکله
زمالک
زمان
زمانه
زمانی
زمین
زمینی
زن
زنجان
زنجانرود
زند
زندگی
زنگان
زنگه
زنگی
زنگیلان
زنگین
زنیت
زه
زهتابی
زهرا
زو
زور
زورنا
زوریخ
زوم
زون
زونا
زونادا
زوندن
زونده
زونه
زونو
زونوز
زونون
زي
زگه
زگورلوک
زی
زیارت
زیان
زید
زیدي
زیر
زیره
زیروه
زیست
زیمبابوه
زین
س
سا
ساب
ساتيريک
ساتیریک
ساتیش
ساتین
ساحل
ساحللرینی
ساحلی
ساحه
ساحیل
ساحیلی
ساحیلینده
ساخا
ساختار
ساخسی
ساخلاماق
ساخلانیلیر
ساخلایان
ساخلاییر
سادات
ساده
سارا
ساراب
ساراقوسا
سارای
سارایلاری
سارایی
سارایینا
ساراییندا
ساردینیا
ساری
ساز
سازاوو
سازمان
سازی
سازیش
سازیشی
ساسانی
ساسانیلر
ساسانیلرین
ساعات
ساعاتلی
ساعاتی
ساعت
ساغ
ساغلام
ساغلیق
سافت
سال
سالا
سالار
سالام
سالان
سالت
سالدی
سالم
سالماس
سالماق
سالنامه
سالونو
سالی
سالیان
سالیب
سالیر
سالینمیش
سام
سامارا
سامان
سامانی
سامبر
سامسونگ
ساموي
سامی
سان
سانت
سانتا
سانتو
سانتوس
سانتی
سانتیاقو
ساندرلند
سانچز
سانکی
سانی
ساهر
ساوادسیزدیرلار
ساوادلی
ساواش
ساواشا
ساواشدا
ساواشلار
ساواشلاری
ساواشلاریندا
ساواشی
ساواشین
ساواشینا
ساواشیندا
ساواشیندان
ساواشینین
ساوالان
ساوانا
ساوت
ساوه
ساوي
ساي
سايي
ساييسي
ساکا
ساکالار
ساکالاردان
ساکالاری
ساکالارین
ساکرامنتو
ساکیت
ساکین
ساکینلری
سای
سایا
سایار
سایاگلیر
سایت
سایتاما
سایتلار
سایتی
سایتیندا
سایدا
سایر
سایلی
سایماق
سایمون
سایه
سایپا
سایکوتیک
سایکولوژی
سایی
ساییسی
ساییلار
ساییلان
ساییلیر
ساییلیردی
ساییلیرلار
ساییمی
ساییمینا
سایین
سایینا
ساییندا
سباستین
سبب
سببدن
سببلری
سببله
سببی
سببیندن
سبز
ست
ستارا
ستارخان
ستاره
ستالین
ستان
ستردی
ستردیگی
سترمه
سترمک
سترمیش
سترمیشدیر
سترن
ستره
سترونومی
ستریب
ستریجی
ستریر
ستریردی
ستریش
ستریلمه
ستریلن
ستریلیر
سته
ستو
ستون
ستي
ستی
ستین
سجاد
سجاس
سحر
سدار
سدیس
سر
سرا
سراب
سراجوبولومو
سراجوی
سراسکند
سربازلار
سربست
سرت
سرحد
سرحدلری
سرخ
سردابه
سردار
سرداری
سردشت
سرشماری
سرطان
سرعین
سرقي
سرمایه
سرو
سرکرده
سرگی
سری
سریال
سریع
سرین
سزار
سس
سسری
سسلر
سسلری
سسله
سسلی
سسه
سسی
سسین
سطح
سطحی
سطحین
سطحینده
سطحینه
سطیر
سعادت
سعد
سعدی
سعود
سعودی
سعی
سعید
سفر
سفری
سفلی
سفیرلری
سفیری
سل
سلاح
سلام
سلاملار
سلان
سلتیک
سلجوق
سلجوقلو
سلطان
سلطانيه
سلطانی
سلطنت
سلما
سلماس
سلمان
سلول
سلوم
سلیزیا
سلیم
سلیمان
سم
سما
سمبولو
سمرقند
سمرقندده
سمپدوریا
سن
سنا
سناتور
سناتورلار
سناریست
سناریو
سنت
سنتا
سنتر
سنترال
سند
سندلر
سندی
سنقال
سنقاپور
سنقاپوردا
سنقر
سنندج
سنه
سنی
سنین
سه
سهامی
سهند
سهو
سو
سواد
سوال
سواللار
سوان
سوانزی
سوت
سوتا
سوتون
سوخو
سود
سودا
سودان
سودیوم
سور
سورا
سوردلوفسک
سورعت
سورعتله
سورمه
سورن
سوره
سورو
سورولر
سورگون
سوری
سوریه
سوز
سوزا
سوزان
سوزوکی
سوسان
سوسن
سوسیال
سوسیالیست
سوسیداد
سوسیولوژی
سوفره
سول
سولا
سولاردا
سولاله
سولدوز
سولطان
سولطانلاری
سولطانلیغی
سولطانپور
سولطانی
سولفات
سولفور
سولفید
سولو
سولي
سولیوان
سوم
سومالی
سومر
سومي
سون
سونا
سوندا
سونرا
سونرادان
سونراسی
سونرالار
سونراکی
سونسوز
سونق
سونلاریندا
سوننو
سونو
سونونا
سونونجو
سونوندا
سونی
سووار
سوواری
سووت
سووي
سوي
سوپر
سوی
سویا
سویه
سویو
سویوق
سویون
سوییه
سى
سي
سياسي
سيرا
سيز
سيندن
سينده
سينه
سيني
سينين
سپاسی
سپتامبر
سپتامبرین
سک
سکسن
سکو
سککیز
سککیزینجی
سکی
سگاه
سۆت
سۆرعت
سۆرعتله
سۆرعتی
سۆرن
سۆره
سۆروننلر
سۆلاله
سۆلي
سۇ
سۇدا
سۇلطان
سۇلطانی
سۇلطانیه
سۇیون
سی
سیا
سیاتل
سیاحت
سیادا
سیاره
سیاست
سیاستلری
سیاستچی
سیاستچیلر
سیاستچیلری
سیاستی
سیاستین
سیاستینه
سیاستینی
سیاسی
سیالی
سیامک
سیانید
سیانیدلر
سیانین
سیاه
سیاهی
سیاهیسی
سیایا
سیبری
سیبیر
سیتی
سیخ
سیخلیغی
سید
سیدمحمود
سیدنی
سیده
سیدولی
سیدی
سیدیر
سیدیک
سیر
سیرا
سیرادا
سیراسی
سیراسینا
سیراسیندا
سیرالانماسی
سیراکیوس
سیز
سیزدن
سیزلیک
سیزه
سیزی
سیزین
سیس
سیستان
سیستم
سیستملری
سیستمه
سیستمی
سیستمین
سیستمینده
سیستمینه
سیستمینی
سیستمینین
سیستي
سیسیانوو
سیسیل
سیف
سیل
سیلا
سیلاح
سیلاحلی
سیلزی
سیلسیان
سیلسیله
سیلم
سیلمه
سیلمک
سیله
سیلوا
سیلوانه
سیلور
سیلی
سیلینمه
سیم
سیمبیان
سیمنان
سیمون
سیمونز
سیمپسون
سیمگه
سیمیتقو
سین
سینا
سیناق
سینت
سینتز
سیندا
سیندان
سیندن
سینده
سینسیناتی
سینسینتی
سینق
سینما
سینماچیلار
سینه
سینين
سینی
سینیر
سینیرلاری
سینیز
سینین
سیه
سیواس
سیپاهان
سیپونکولیدا
سیک
سییا
سییاسی
سییاهه
سییاهیسی
ش
شا
شابران
شابلو
شابلون
شابلونلار
شابلونلاری
شابلونو
شابلونون
شاختار
شاخه
شاد
شادی
شارل
شارلوت
شارون
شارکی
شارکیچی
شارکیچیلار
شاعر
شاعير
شاعیر
شاعیرلر
شاعیرلری
شاعیرلریندن
شاعیری
شاعیرین
شاغا
شاغاداکی
شاغی
شاغیدا
شاغیداکی
شافعی
شال
شالکه
شام
شاماخی
شامان
شامانیزم
شامل
شاملو
شامپیون
شامیل
شان
شانقهای
شانون
شاه
شاها
شاهزاده
شاهسي
شاهلار
شاهلاری
شاهلیغی
شاهلیق
شاهنامه
شاهی
شاهین
شاو
شاپور
شاید
شایق
شبستر
شبکه
شجره
شخص
شخصا
شخصلر
شخصلرین
شخصه
شخصی
شخصیت
شخصیتلری
شخصیتی
شخصین
شد
شده
شدی
شر
شراب
شرایط
شراییط
شرح
شرحی
شرط
شرطی
شرف
شرفینه
شرق
شرقدن
شرقده
شرقه
شرقی
شرقین
شرقینده
شرمن
شرکت
شریعت
شریف
شعبان
شعبه
شعر
شعرلر
شعرلری
شعرلریندن
شعرلرینده
شعرلرینی
شعری
شعیر
شعیرلر
شفیلد
شلاله
شلدون
شلسویق
شلوق
شلی
شما
شماره
شمال
شمالی
شمس
شمسی
شمه
شمپین
شمکیر
شن
شناس
شناسی
شنبه
شه
شهاب
شهر
شهردار
شهرداری
شهردن
شهرده
شهردیر
شهرستان
شهرك
شهرلر
شهرلردن
شهرلرده
شهرلری
شهرلرین
شهرلریندن
شهرلرینده
شهرلرینه
شهرلرینی
شهرلرینین
شهره
شهرها
شهري
شهرين
شهرک
شهری
شهریار
شهریدیر
شهریستان
شهریستانی
شهرین
شهریندن
شهرینده
شهرینه
شهرینی
شهرینین
شهریور
شهی
شهید
شهیدلر
شهیر
شو
شوبهه
شود
شور
شورا
شوراسی
شوراسینین
شورای
شورلت
شوروی
شورویلی
شوروینین
شوشا
شوشادا
شوشتر
شوشه
شوط
شوعاری
شومال
شومالی
شون
شوناس
شوند
شونلاری
شونو
شي
شيق
شک
شکار
شکر
شکل
شکلی
شکلین
شکلینده
شکيلده
شکی
شکیل
شکیلده
شکیللر
شکیللری
شکیللی
شکیلچی
شکیلی
شی
شیب
شیبدیر
شیبی
شیتلی
شیخ
شید
شیدلی
شیر
شیراز
شیرازی
شیره
شیروان
شیروانشاه
شیروانی
شیرکت
شیرکتدیر
شیرکتلری
شیرکتی
شیرکتین
شیری
شیرین
شیزوي
شیطان
شیعه
شیعهدیرلر
شیفاهی
شیق
شیقلار
شیلا
شیلی
شیلیده
شیمال
شیمالی
شیمی
شیمیایی
شیمیزو
شین
شینا
شینجی
شیوه
شیک
شیکاقو
شیکایت
شیگه
ص
صابر
صابیرا
صاحب
صاحبی
صاحیب
صاحیبی
صادق
صادقی
صادیق
صاف
صالح
صاي
صبا
صباح
صباحی
صبای
صحابه
صحرا
صحنه
صحيفه
صحیفه
صدا
صدام
صدر
صدری
صدیق
صر
صرب
صربیستان
صربیستانلی
صرف
صص
صفحه
صفوی
صفویلر
صفویلرین
صفویه
صفی
صلاح
صلاحیت
صلیب
صلیبی
صمد
صنایع
صنعت
صنعتکار
صنعتکارلیق
صنعتی
صنم
صو
صورت
صورتده
صورتی
صوفی
صوفیه
صولح
صومای
صونعی
صۆلح
صینفه
صینیف
ض
ضبط
ضد
ضرب
ضربه
ضربی
ضرر
ضررلی
ضروری
ضعیف
ضعیفله
ضیا
ضیالی
ضید
ط
طارم
طالب
طالع
طاهر
طایفا
طایفاسی
طایفالاری
طایفه
طب
طبقه
طبیب
طبیعت
طبیعتی
طبیعتین
طبیعی
طراح
طرح
طرزی
طرف
طرفدارلاری
طرفداری
طرفدن
طرفده
طرفسیز
طرفه
طرفيندن
طرفی
طرفین
طرفیندن
طرفینده
طرفینه
طریقت
طلب
طلبه
طنز
طهماسیب
طور
طی
طیاره
طیب
طیبی
ظ
ظریف
ظفر
ع
عابباس
عابده
عابیده
عادت
عادتا
عادل
عادی
عارف
عاریف
عاشورا
عاشیق
عاع
عالم
عالمی
عالمین
عالی
عالیم
عالیملر
عالیملری
عالیمی
عام
عاي
عاييله
عاید
عایله
عایید
عاییددیر
عاییله
عبارت
عباس
عباسقولو
عباسی
عباسیلر
عبد
عبدالحمید
عبدالرحمان
عبدالرحمن
عبدالرحیم
عبدالعزیز
عبدالله
عبرانیجه
عبه
عثمان
عثمانلی
عثمانی
عجب
عجبشي
عجم
عجمان
عدالت
عدد
عدددیر
عراق
عراقدا
عراقلی
عراقین
عرب
عربجه
عربلر
عربی
عربیستان
عربیستاندا
عرضه
عرضین
عرضینده
عرفه
عریضه
عزیز
عزیزبیگوف
عسکر
عسگر
عسگرلری
عسگری
عشق
عصر
عصردن
عصرده
عصرلر
عصرلرده
عصره
عصرین
عصیان
عضله
عضو
عضولری
عضوو
عظیم
عقل
عقیده
علاءالدین
علاقه
علامت
علامتلری
علامتی
علاوه
علرین
علم
علملر
علملری
علملرین
علمي
علمی
علمین
علوم
علوی
علي
علی
علیا
علیرضا
علیشیر
علیه
علیهینه
علیي
عماد
عمر
عمل
عمله
عملی
عملیات
عملیاتی
عمومی
عمی
عمیسی
عنعنه
عنوان
عهد
عهده
عو
عوثمان
عوثمانلی
عوصیان
عوصیانی
عوض
عوضو
عوضولری
عوضوو
عوضینه
عومان
عومر
عوموم
عوموما
عومومو
عومومی
عومومیت
عومومیتله
عونوانی
عونوانیندا
عي
عکس
عکسی
عکسینه
عکسینی
عۆصیان
عۆصیانی
عۆمومی
عیبارت
عیبارتدیر
عیر
عیراق
عیسی
عین
عینی
غ
غا
غاج
غاجی
غاجین
غارت
غازی
غاسی
غالیب
غالیبلری
غجابه
غداش
غدام
غرافی
غرافیایی
غرب
غربدن
غربده
غربه
غربی
غربینده
غرو
غری
غریب
غریلاری
غزل
غزنوی
غزه
غستافا
غلار
غلارگولر
غلام
غلامحسین
غلامرضا
غلبه
غلو
غلودور
غلۇ
غم
غنا
غنی
غو
غوربتچیلر
غوز
غوم
غوملار
غي
غی
غیر
غیرلیق
غیری
غیز
غیزانیه
غیزلا
ـ
ـــــ
ـه
ف
فا
فابیو
فاتیح
فاجیعه
فارس
فارست
فارسجا
فارسجایا
فارسلار
فارسلارین
فارسی
فارسیجا
فارسیسم
فارماکولوژی
فاستر
فاسکولوسوماتیدا
فاشیست
فاصیله
فاضل
فاطما
فاطمه
فاطمی
فال
فالتس
فالز
فالس
فان
فانتزی
فانک
فاکت
فاکس
فاکولته
فایدالانماق
فایدالی
فایز
فایزی
فایق
فایل
فایلی
فاینورد
فت
فتح
فتحعلی
فتحی
فجر
فخرالدین
فخری
فدراتیو
فدراسیونو
فدرال
فدرالیست
فر
فرات
فرانتس
فرانس
فرانسجه
فرانسه
فرانسهلی
فرانسوا
فرانسیز
فرانسیس
فرانسیسکو
فرانچسکو
فرانک
فرانکفورت
فرانکلین
فرانکو
فرج
فرد
فردریک
فردوسی
فردی
فردیناند
فرض
فرضیه
فرق
فرقله
فرقلی
فرقی
فرمان
فرمانداری
فرمانی
فرناندز
فرناندو
فرهاد
فرهنگ
فرهنگی
فروردین
فري
فری
فرید
فریدریش
فریدون
فریرا
فریزر
فریقا
فریقادا
فریقالی
فریقانین
فریمن
فرین
فریولی
فصل
فصلی
فصلینده
فضا
فضایی
فضل
فضولی
فطرت
فع
فعال
فعاللار
فعالی
فعالیت
فعالیته
فعالیتی
فعالیتینه
فعالیتینی
فعل
فعلی
فقط
فقه
فقیه
فلامینقو
فلسفه
فلسفي
فلسفی
فلمینق
فلورانس
فلورید
فلوریدا
فلومیننزه
فلوي
فلینت
فلیکس
فن
فنلاند
فنلاندلی
فنول
فنی
فنیل
فه
فهد
فهرست
فهله
فو
فوت
فوتبال
فوتبالیست
فوتبول
فوتبولچیلاری
فوتسال
فوتوشیمی
فور
فورت
فورد
فورست
فورمادا
فورماسی
فورمال
فورمالاری
فوروارد
فورپومرن
فوری
فوریه
فوس
فوسفات
فوسفور
فوضولی
فوق
فولاد
فولام
فولر
فولک
فولکلور
فولکور
فون
فونکسیاسی
فونیکس
فوي
فوکوي
في
فۇتبالیست
فۇتبول
فۇتبولو
فۇتبولچو
فی
فیتزجرالد
فیتنه
فیرقه
فیروز
فیزیولوژی
فیزیک
فیزیکچی
فیزیکی
فیستیغیمسی
فیشر
فیصل
فیض
فیفا
فیق
فیل
فیلادلفیا
فیلد
فیلسوف
فیلسوفلار
فیلم
فیلمده
فیلملر
فیلملری
فیلمه
فیلمی
فیلمین
فیلمینده
فیلوسوف
فیلیسطین
فیلیسطینده
فیلیپ
فیلیپس
فیلیپه
فیلیپین
فیلیپینلی
فین
فینال
فیورلار
فیورنتینا
فیوضات
فیکر
فیکری
فیکرینجه
فیکرینه
فیکیر
فیکیرلر
فیکیرلری
ق
قا
قاب
قابارتی
قاباریق
قاباغا
قاباغی
قاباغیندا
قاباغینی
قاباق
قاباقجا
قاباقجیل
قاباقکی
قابریل
قابلار
قابیغی
قابیق
قابیلیتینه
قات
قاتی
قاتیلان
قاتیلدی
قاجار
قاجارلار
قاجارین
قاخ
قاداغان
قادين
قادین
قادینلار
قادینلارا
قادینلارین
قار
قارا
قاراباغ
قاراباغا
قاراباغدا
قاراباغین
قاراجییر
قاراجییرده
قاراداغ
قاراعین
قاراقویون
قارالاما
قارالامالاری
قارانلیق
قاراچای
قارت
قارتال
قارداش
قارداشلار
قارداشلاری
قارداشی
قاردن
قاردنر
قارسیا
قارشي
قارشی
قارشیسیندا
قارشیسینی
قارص
قارماق
قاره
قاری
قاریشدیغینا
قاریشیق
قارین
قاز
قازاخ
قازاخیستان
قازاق
قازان
قازانا
قازاناراق
قازانان
قازانانلار
قازاندی
قازانماق
قازانمیش
قازانمیشدیر
قازانیب
قازانیر
قازی
قاسم
قاسپل
قاسیم
قاشقای
قاضی
قاطار
قافقاز
قافقازا
قافقازدا
قافقازین
قال
قالا
قالاتاسرای
قالاسی
قالالاری
قالان
قالانی
قالانین
قالاکسی
قالب
قالخان
قالدی
قالدیغی
قالری
قالماق
قالمیش
قالمیشدی
قالمیشدیر
قالی
قالیب
قالیر
قالیلي
قالین
قام
قاما
قامچیلی
قان
قاندی
قانلی
قانون
قانونا
قانونلار
قانونلاری
قانونو
قانونی
قانی
قانین
قاهیره
قاي
قايناق
قاپی
قاپیسی
قاپیچی
قاچاق
قاچدی
قاچقین
قاچیب
قاچیر
قای
قایا
قایدا
قایداسی
قایدالار
قایدالاری
قایسه
قایغی
قایناغی
قایناق
قایناقلار
قایناقلاردا
قایناقلاری
قایی
قاییتدی
قاییدیب
قاییدیر
قاییرما
قبری
قبله
قبه
قبول
قبولو
قبیله
قتل
قتله
قجرات
قجراتی
قدر
قدس
قدم
قده
قديم
قدیر
قدیم
قدیملیینه
قدیمی
قرا
قرار
قرارا
قرارداد
قراری
قرارینا
قراس
قراف
قرافیک
قران
قرانادا
قرانت
قراند
قراهام
قرب
قرت
قرق
قرقوری
قرم
قرمیو
قرن
قرند
قره
قروبودور
قروه
قروو
قروپ
قروپا
قروپلار
قروپلاری
قروپو
قروپون
قروپونا
قروپوندا
قروپونون
قري
قری
قریس
قریفین
قریقوری
قرین
قرینوود
قرینویل
قرینویچ
قزوین
قزوینی
قزي
قشلاق
قصبه
قصد
قصه
قصیده
قطب
قطر
قطعنامه
قطعی
قطه
قع
قفقاز
ققوز
ققوزونجو
قلازقو
قلاسقو
قلب
قلدوین
قلسمه
قلعه
قلم
قلمه
قلن
قلوبال
قلوریا
قلی
قم
قمر
قمری
قمینا
قناتوستومودیلرین
قهرمان
قهرمانلار
قهرمانلیق
قهرمانی
قهوه
قو
قوا
قوبا
قوبادا
قوبادلی
قوبالی
قوبایا
قوبي
قوت
قوتوسو
قوتینقن
قوجا
قوداواری
قودرت
قودس
قورا
قورال
قوران
قوربان
قورتولوش
قورخو
قورد
قوردو
قوردوغو
قوردولار
قوردون
قورعه
قورغوشون
قورقود
قورماق
قورموش
قورنه
قورو
قوروجو
قوروجوسو
قورولان
قورولتای
قورولتایی
قورولدو
قورولماسی
قورولموش
قورولموشدور
قورولوب
قورولوش
قورولوشو
قورولوشونو
قوروم
قوروماق
قورومو
قوروه
قوروپو
قورویوب
قوری
قوز
قوزای
قوزي
قوسار
قوست
قوستا
قوستاو
قوش
قوشا
قوشاچای
قوشلار
قوشما
قوشولدو
قوشولوب
قوشون
قوشونلاری
قوشونو
قوطب
قول
قولاق
قولر
قولرلری
قولف
قوللار
قوللوق
قولو
قولی
قولییي
قوم
قومز
قومی
قوناق
قونشو
قوه
قوهوم
قوو
قووه
قوووه
قوي
قوچ
قوی
قویان
قویدو
قویروق
قویماق
قویموش
قویوب
قویور
قویولدو
قویولموش
قویولموشدور
قویولور
قویون
قي
قيشلاغي
قيشلاق
قۆووه
قۇرتاریر
قۇرد
قۇردو
قۇرو
قۇرولان
قۇرولدو
قۇرولموش
قۇرولوب
قۇرولوش
قۇرولوشا
قۇرولوشو
قۇرومو
قۇرومودیر
قۇزي
قۇیولموش
قی
قیام
قیبریس
قید
قیر
قیراغیندا
قیرخ
قیرغیز
قیرغیزیستان
قیرغین
قیرمیز
قیرمیزی
قیریم
قیریمی
قیز
قیزلار
قیزی
قیزیل
قیزیلباش
قیسا
قیساجا
قیساسی
قیسما
قیسمن
قیسمی
قیش
قیشلاغی
قیشلاق
قیشلاقی
قیطعه
قیل
قیلاب
قیلبرت
قیلینج
قیمت
قیمتی
قینه
قیپچاق
قێزیل
ك
كل
كندلری
كندي
كندين
كندی
كندین
كه
كو
كوت
كوميته
كي
ل
لا
لاب
لاباما
لابم
لات
لاتزیا
لاتزیو
لاتین
لاتینجا
لاتینجه
لاتیوم
لاجاق
لاجان
لار
لارا
لاراق
لاردا
لاردان
لاردیر
لارلا
لارنس
لارکن
لاری
لارین
لارینا
لاریندا
لاریندان
لارینی
لارینین
لازم
لازیم
لازیمدیر
لاس
لاسکا
لافایت
لال
لاله
لام
لان
لانا
لاناراق
لانان
لانق
لانلار
لانی
لانیر
لاهیجان
لاو
لاورنس
لاي
لاپ
لاچین
لاک
لاکرونیا
لاکين
لاکین
لای
لایق
لاین
لایپزیق
لایی
لاییحه
لاییق
لب
لبان
لبانی
لبر
لبرت
لبرتو
لبنان
لبوم
لبومو
لبیون
لت
لتا
لتای
لتلر
لتلری
لتمیش
لتون
لتيندا
لتی
لتین
لتینا
لتینجی
لتیندا
لتیندادیر
لجه
لدار
لداشی
لدن
لده
لدهید
لدو
لدوردو
لدورولدو
لدورولمه
لدورولموش
لدورولموشدور
لدوغو
لدوغون
لدوغونا
لدوغونو
لدوق
لدوقجا
لدوقلاری
لدوقلارینی
لدولار
لدۇ
لدۇغۇ
لدی
لدیغی
لدیلار
لر
لرجه
لردن
لرده
لردیر
لرله
لره
لري
لرين
لريندن
لرينده
لرينه
لری
لریله
لرین
لریندن
لرینده
لرینن
لرینه
لرینی
لرینین
لریک
لزاندر
لس
لسا
لستر
لسلی
لسون
لشدیرمک
لشمه
لشن
لطفا
لطیف
لغات
لغة
لغت
لغو
لف
لفا
لفرد
لقاکو
لقب
لقبی
لل
للا
للار
للاری
للارینی
للاه
للاهوي
للر
للری
للرین
للرینده
للو
للي
للی
لم
لما
لمادیغی
لماز
لماسا
لماسی
لماسینا
لماسینی
لماغا
لماغی
لماق
لماقلا
لمالی
لمان
لمانا
لمانجا
لماندا
لمانداکی
لمانلی
لمانی
لمانین
لمایان
لمریا
لمه
لمو
لموش
لموشدو
لموشدور
لموشلار
لمک
لمۇش
لمۇشدۇر
لمی
لمیش
لمیشدی
لمیشدیر
لن
لند
لندن
لندی
لنمه
لنمیش
لنه
لنکران
لنکستر
لنیر
لنین
لنینقراد
له
لهجه
لهوتا
لهیستان
لهیستانجا
لهیستاندا
لهیستانلی
لو
لوا
لوانته
لوب
لوبدور
لوبلین
لوبنان
لوبوسکی
لوتر
لوجانلار
لودهی
لودور
لودویق
لور
لورا
لورسا
لورلار
لورن
لورنزو
لورکوزن
لوری
لوریستان
لوز
لوزان
لوس
لوطفا
لوغت
لوغتی
لوغو
لوغونا
لوق
لوقان
لولار
لوم
لومباردیا
لومدن
لومده
لوملر
لوملری
لومه
لومو
لومون
لوموندن
لومونده
لومونه
لومونو
لومونون
لومیا
لومینیوم
لون
لونا
لونان
لوندا
لوندو
لونماسی
لونمه
لونموش
لونموشدور
لونه
لونو
لونوب
لونور
لونوردو
لونوش
لونوشو
لونون
لوهانسک
لوول
لوي
لوپز
لوک
لوکا
لوکاس
لوکزامبورق
لوکوموتیو
لوی
لوید
لویس
لوین
لویی
لوییس
لي
ليک
لپ
لپتکین
لچاق
لچمک
لچو
لچوده
لچوسو
لچولو
لچومو
لچی
لک
لکالوي
لکس
لکساندر
لکسینقتون
لکن
لکه
لکی
لگه
لۆم
لۇر
لۇنۇر
لی
لیب
لیبرال
لیبرتس
لیبرتی
لیبي
لیبی
لیبیده
لیتل
لیتوانی
لیتون
لیتیوم
لیجا
لیدرلر
لیدری
لیدز
لیدن
لیدي
لیدی
لیدیا
لیدیر
لیر
لیردی
لیریک
لیزا
لیس
لیسا
لیسانس
لیسبون
لیست
لیستی
لیستینده
لیسون
لیش
لیغا
لیغی
لیغین
لیغینا
لیغیندا
لیغینی
لیف
لیفی
لیق
لیقا
لیقلا
لیقوریا
لیل
لیلا
لیلار
لیلاردا
لیلارین
لیلر
لیله
لیلی
لیم
لیما
لیمان
لیمانی
لین
لینان
لیندا
لیندن
لینده
لیندی
لینماسی
لینمیش
لینمیشدیر
لینه
لینچ
لینک
لینکلر
لینکلن
لینکولن
لینیب
لینیر
لینین
لیه
لیو
لیورپول
لیون
لیویس
لیي
لیژ
لیک
لیکانته
لیکدن
لیکده
لیکس
لیکلر
لیکلری
لیکلرین
لیکله
لیگ
لیگه
لیگی
لیگین
لیگیندن
لیگینده
لیگینه
لیگینی
لیگینین
لییه
لییی
م
ما
مات
ماتریال
ماتي
ماتیاس
ماتیو
ماتیک
ماجاریستان
ماجاریستانلی
ماجی
ماحال
ماحالی
ماد
مادا
ماداقاسکار
مادای
مادده
مادرید
ماده
مادی
مادیا
مار
ماراغا
ماراق
ماراقلی
مارال
مارت
مارتا
مارتن
مارتی
مارتین
مارتینز
مارس
مارسل
مارسلو
مارسی
مارسین
مارش
مارشال
مارشی
مارقارت
مارقریت
مارلار
مارلاری
مارلارینا
ماروین
مارک
مارکس
مارکه
مارکو
مارکوس
ماری
ماریا
ماریو
ماریون
مازندران
مازو
مازون
ماساللی
ماساچوست
ماسوری
ماسون
ماسوویان
ماسی
ماشین
ماشینی
ماق
ماقومایي
مال
مالاقا
مالاوی
مالایا
مالایالم
مالدارلیق
مالزی
مالزیده
مالک
مالی
مالیه
مالیک
مالیکدیر
مالیکدیرلر
مالییه
مان
مانات
مانتیسلو
ماند
ماندا
ماندال
مانع
مانعه
ماننا
مانوي
مانکن
مانی
مانیپور
ماه
ماهنشان
ماهنی
ماونت
ماوه
ماوی
ماي
ماچ
ماژول
ماکاي
ماکس
ماکسیموم
ماکسیمیلیان
ماکی
مای
مایا
مایتهیلی
مایر
مایع
مایل
ماین
ماینس
مایور
مایک
مایکروسافت
مایکل
مایین
مبارک
مبارکین
مبولاکرال
مت
متابولیسمی
متال
متالوژی
متان
متحده
متر
متره
مترو
متروسو
متروسونون
مترولارین
متن
متنی
متنین
متوکسی
متیر
متیل
متیلن
متیو
مثال
مثل
مثلا
مثنوی
مجاریستانلی
مجازی
مجبور
مجبوری
مجبوریتینده
مجتبی
مجلس
مجله
مجلیس
مجلیسی
مجلیسین
مجلیسینده
مجمع
مجموعه
مجنون
مجید
محاربه
محاصره
محاوره
محبت
محدود
محرم
محروم
محس
محسن
محصول
محصولدار
محصوللاری
محصولو
محض
محل
محلله
محله
محلی
محم
محمد
محمدتقی
محمدحسن
محمدحسین
محمدرضا
محمدزاده
محمدعلی
محمدقولوزاده
محمدی
محمدیار
محمدین
محمود
محو
محکمه
محکوم
مختار
مخصوص
مدار
مدت
مدرسه
مدره
مدل
مدنی
مدنیت
مدنیتی
مدنیتین
مدنیتینده
مده
مدیا
مدیاویکی
مدیسن
مدیسون
مدینه
مذهب
مذهبلری
مذهبی
مذهبینه
مر
مراتی
مراجعت
مراد
مراسیم
مراسیمی
مراغا
مراغه
مراکش
مراکشلی
مربع
مربوط
مربی
مرتبه
مرتضی
مرجان
مرحله
مرحمت
مرحوم
مرداد
مردم
مركزي
مركزی
مرند
مره
مرو
مرونون
مرکز
مرکزلری
مرکزي
مرکزی
مرکزین
مرکزینده
مرکزینه
مرگور
مری
مریخ
مریخین
مریضلیک
مریلند
مریم
مریکا
مریکادا
مریکالی
مریکالیلار
مریکانا
مریکانین
مریکایا
مز
مزار
مزارلیقی
مزاری
مزدیسنا
مزرعه
مزون
مس
مسا
مساحت
مساحتی
مسافه
مساله
مستردام
مستقل
مسجد
مسجید
مسجیدی
مسجیدین
مسعود
مسلم
مسلمان
مسله
مسي
مسکن
مسکو
مسکون
مسیح
مسیحی
مسیحیت
مسیحیتین
مشخص
مشروطه
مشروطیت
مشغول
مشق
مشقچی
مشه
مشهد
مشهدی
مشهور
مشهوردور
مصر
مصطفی
مصلحت
مصنوعی
مضمون
مضمونو
مطبخ
مطبخی
مطبعه
مطبوع
مطبوعات
مطبوعاتدا
مطبوعاتی
معادل
معاریف
معاریفچی
معبدی
معدن
معده
معرفی
معروض
معروف
معلم
معلوم
معلومات
معلوماتا
معلوماتلار
معلوماتلاری
معلوماتی
معلوماتینا
معلومدور
معمار
معمارلیق
معماری
معمولا
معنا
معنادا
معناسی
معناسیندا
معناسینی
معنوی
معنی
معیار
معیشت
معین
مغان
مغلوب
مغناطیس
مغول
مفتامین
مقالات
مقاله
مقام
مقامی
مقاومت
مقبره
مقدس
مقدمه
مقدونیه
مقصد
مقصدله
مقصدی
مقصدیله
مل
ملا
ملبورن
ملت
ملن
ملوان
ملودرام
ملون
ملک
ملکه
ملی
ملیک
مم
مما
ممفیس
مملوک
مملکت
مممدوو
ممه
من
منابع
مناسبتلری
منبع
منبعلرده
منبعی
منجه
منجوان
مندن
منده
منسوب
منشا
منشالی
منصور
منطقه
منطیق
منطیقی
منظره
منظوم
منظومه
منفی
منه
منهتن
منيم
منچستر
منگور
منی
منیزیوم
منیم
منیمسه
مه
مهاباد
مهاراشترا
مهدی
مهر
مهران
مهرداد
مهرست
مهم
مو
موافیق
موالیجه
موباحیثه
موباريزه
موباریزه
موبایل
موبایلین
موت
موتور
موتورز
موثبت
موجادیله
موجود
موحاريبه
موحاریبه
موحاصیره
موحافیظه
موحاکیمه
موحیط
موخالیف
موخالیفت
موختار
موخترعلر
موختليف
موختلیف
مود
موداخیله
مودافع
مودافیعه
مودت
مودرن
مودل
مودللر
مودي
مودیری
موذاکیره
مور
موراجیعت
موران
موراوی
موراویا
مورای
مورب
موربع
مورتون
مورد
مورداد
موردلره
مورفی
مورقان
مورلاری
مورمانسک
مورو
مورک
موری
موریتانی
موریس
موریسون
موز
موزامبیک
موزش
موزه
موزي
موزیسین
موزیک
موس
موسا
موسابیقه
موساوات
موستانق
موستقیل
موستقیللیک
موستقیللیینی
موستقیم
موستملکه
موسلمان
موسلمانلار
موسلمانلارین
موسوی
موسيقي
موسکو
موسکودا
موسی
موسیسه
موسیقچی
موسیقی
موسیقیسین
موسیقیچی
موسیقیچیلر
موش
موشاهیده
موشاییعت
موشتری
موشکول
موصول
موضوع
موطلق
موعاصیر
موعالیجه
موعاوینی
موعل
موعلیم
موعلیملر
موعلیمی
موعی
موعین
موغام
موغامی
موغان
موغن
موغنی
موغول
موغولیستان
موفقیت
موقاویله
موقاییسه
موقتی
موقد
موقدس
موقع
موقعیتینده
موقي
مول
مولانا
مولاییم
مولر
موللا
مولکول
مولکی
مولیزه
مومکون
مومکوندور
مون
موناسیب
موناسیبت
موناسیبتلری
موناسیبتی
موناقیشه
موناکو
مونت
مونتانا
مونترا
مونتقومری
مونته
مونرو
مونشنقلادباخ
مونیخ
مونیوم
مونیکا
موهندیس
موهندیسلر
موهوم
مووافیق
مووضوسو
مووضوع
موکافات
موکافاتی
موکرات
موکراتیک
مي
ميرزه
ميل
مين
مپي
مک
مکان
مکانیک
مکتب
مکتبده
مکتبه
مکتبي
مکتبی
مکتبین
مکتبینده
مکتبینه
مکتوب
مکتوبدا
مکدیر
مکریان
مکزیک
مکزیکده
مکزیکلی
مکزیکو
مکس
مکعب
مکلنبورق
مکه
مکچی
مکی
مگر
مگه
مگی
مۆالیجه
مۆباحیثه
مۆبادیله
مۆباریزه
مۆت
مۆحاریبه
مۆحاصیره
مۆحافیظه
مۆحیط
مۆختلیف
مۆختلیفلیینه
مۆد
مۆدافیعه
مۆدافیه
مۆدت
مۆستقیل
مۆسلمان
مۆسلماندیرلار
مۆشاهیده
مۆعاصیر
مۆقاویله
مۆلکودور
مۆمکون
مۆناقیشه
مۆهندیس
مۇحاریبه
مۇغان
می
میامی
میان
میانا
میاندوا
میانمار
میانه
میثال
میثم
میخاي
مید
میدال
میدالی
میدان
میدانا
میدانی
میدانین
میدلزبورو
میدیا
میدیانین
میر
میراث
میرزا
میرزه
میز
میزوری
میزی
میزین
میس
میسون
میسیسیپی
میش
میشدی
میشدیر
میشل
میشلر
میشم
میشیقان
میصر
میصرده
میصرلی
میصره
میصرین
میصیر
میف
میفو
میفولوژی
میفولوژیسی
میقداردا
میقداری
میقل
میل
میلاد
میلادان
میلاددان
میلادی
میلان
میلت
میلتلر
میلتلرا
میلتون
میلتچی
میلر
میلز
میلس
میلفورد
میللت
میللتلر
میللی
میلواکی
میلی
میلیارد
میلیتلرینه
میلیون
میلیونا
مین
مینا
میناره
مینجی
میندن
مینسوتا
مینلرله
مینه
مینو
میني
مینی
مینیاپولیس
مینیرو
میوه
میچل
میک
میکا
میکرو
میکی
ن
نا
ناتاشا
ناتان
ناتانیل
ناتو
ناتینقهام
ناحیه
ناخجیوان
ناخچیوان
ناخیش
ناد
نادان
نادر
نادرشاه
نادو
نادولو
نادولودا
نادیر
نار
ناراحات
ناراضی
نازلی
نازی
نازیک
ناسا
ناسی
ناسیونال
ناصر
ناصرالدین
ناصری
ناظر
ناظری
ناظیر
ناظیری
ناغارا
ناغیل
ناقار
ناقانو
ناقویا
ناليتيک
نالیتیک
نالیز
نام
ناماز
نامه
نامیزد
نان
نانت
نانسی
نانین
ناي
ناپلي
ناپولی
ناکسویل
نایاسا
نایت
نایل
نباتی
نبراسکا
نبضلی
نبی
نت
نتال
نتمن
نتمنلرینه
نتمنی
نتن
نته
نتوان
نتون
نتونی
نتونیو
نتي
نتيجه
نتگي
نتی
نتیجه
نتیوخوس
نتیک
نثر
نجاق
نجران
نجف
نجلس
نجلو
نجه
نجو
نجي
نجی
نجیب
ند
ندا
ندارد
ندان
ندر
ندرا
ندردی
ندردیگی
ندرزون
ندرسون
ندرمه
ندرمک
ندره
ندري
ندری
ندریب
ندریر
ندریلدی
ندریلمه
ندریلن
ندریلیر
ندریو
ندلاشما
ندلاشماسی
ندن
ندنی
نده
ندو
ندي
ندی
ندیر
نر
نرا
نرادان
نرالار
نراکی
نری
نریمان
نزه
نس
نساجی
نسخه
نسرت
نسلی
نسلیندن
نسنه
نسوز
نسیل
نسیمی
نسین
نسیکلوپي
نشان
نشر
نشره
نشری
نشریاتی
نشریه
نشو
نشویل
نصر
نصرالدین
نظارت
نظارتی
نظام
نظامی
نظر
نظردن
نظرده
نظره
نظرکهریزی
نظری
نظریمه
نظریه
نظم
نظمی
نعلین
نعمان
نعمت
نغمه
نفت
نفتچالا
نفر
نفردن
نفردیر
نفرلیک
نفره
نفری
نفریمیش
نفرین
نفس
نفوس
نق
نقاش
نقد
نقده
نقرو
نقش
نقشه
نقض
نقطه
نقل
نقلیات
نقو
نقولا
نل
نلار
نلارا
نلاردا
نلاردان
نلاری
نلارین
نلاشما
نلاشماسی
نلام
نلامی
نلامینا
نلامیندا
نلاین
نلاییش
نلاییشی
نلر
نلسون
نم
نمایش
نماینده
نمده
نملی
نمه
نمونه
نمک
نمی
نمین
نمینده
نن
ننه
نه
نها
نهالت
نهایت
نهنگ
نو
نوا
نوادا
نوامبر
نوایی
نوبل
نوبي
نوت
نوتردام
نوتلار
نوجوم
نوح
نوخوشلوق
نور
نورت
نورتون
نورث
نوردراین
نورمال
نورمن
نورنبرق
نورو
نوروز
نوروزی
نوروژ
نوروژده
نوروژلی
نوروژین
نوری
نوریس
نوریچ
نوس
نوسخه
نوش
نوشته
نوشهر
نوع
نوفوس
نوفوسو
نوقای
نوقطه
نول
نولار
نوللو
نوماینده
نوماییش
نومره
نومونه
نون
نونا
نونجو
نوندا
نونده
نونلا
نوه
نوو
نووا
نووامبر
نووایا
نووروز
نووع
نووقورود
نووه
نووی
نوي
نوچ
نوکیا
نوی
نویس
نویسنده
نوین
ني
نيش
نين
نپال
نپتون
نچه
نژاد
نک
نکا
نکارا
نکارادا
نگ
نگي
نۆسخه
نۆفوس
نۆفوسا
نۆفوسلارینا
نۆفوسو
نۆوه
نۇ
نۇفوس
نۇن
نی
نیا
نیاز
نیاسین
نیب
نیت
نیترات
نیتروژن
نیترید
نیجر
نیجریه
نیدرزاکسن
نیدن
نیر
نیردی
نیروی
نیز
نیزه
نیزی
نیس
نیسان
نیسبت
نیسبتا
نیسبتی
نیسبی
نیست
نیش
نیشان
نیشانی
نیشلنمه
نیشله
نیظام
نیظامی
نیظامیلر
نیقاتا
نیل
نیلمه
نیلن
نیله
نیلیر
نیما
نیمه
نین
نینا
نینگ
نیه
نیو
نیوا
نیوتون
نیوجرسی
نیوز
نیوزیلند
نیوزیلنده
نیومن
نیومکزیکو
نیوهمپشایر
نیوپورت
نیوکاسل
نیویورک
نیویورکدا
نیویورکلو
نیویوک
نیژنی
نیک
نیکاراقوي
نیکسون
نیکل
نیکلاس
نیکول
نیکولا
نیکولاس
نیکولای
نیکی
نییه
ه
ها
هابي
هات
هاتسپور
هادرزفیلد
هادسون
هادی
هارا
هاربور
هارت
هارتفورد
هارد
هاردی
هاروارد
هارولد
هارون
هاروی
هاریانا
هاشم
هاشمی
هافبک
هافمن
هال
هالی
هالید
هامبورق
هامی
هامیسی
هامیلتون
هامینیزا
هان
هانتر
هانتسویل
هانس
هانسي
هانسی
هانسیسا
هانوفر
هانی
هاو
هاوا
هاواجیلیق
هاوادا
هاوارد
هاواسی
هاوانین
هاواي
هاوایی
هاوزن
هاوس
هاي
هاپ
هاپر
هاپکینز
های
هایتس
هایدوک
هاینریش
هایی
هجری
هجوم
هخامنشلر
هد
هدایت
هدف
هدفی
هده
هدیه
هر
هرات
هرادتس
هربرت
هرت
هرتابرلین
هردن
هرزقووین
هرمان
هره
هرودوت
هری
هریس
هریسون
هسن
هشترخان
هضم
هـ
هفته
هقزافلوي
هل
هلاک
هلایجان
هلن
هلنا
هله
هم
همان
هماهنگ
همت
همدان
همده
همراز
همراه
همزه
همن
همه
همولیمفا
همين
همپتون
همچنین
همچینین
همیشه
همیلتون
همین
هن
هندرسون
هندسه
هندوراس
هنر
هنری
هنه
هنگ
هو
هوا
هوارد
هوت
هوجوم
هوجوما
هوجومو
هوجومچو
هوجي
هورا
هوراندبولومو
هورموزقان
هورموزگان
هورن
هورنی
هوستون
هوفنهایم
هوقو
هولشتاین
هولمز
هولند
هولندلی
هولوتوریلر
هوم
هومبولت
هون
هونر
هونق
هونولولو
هوو
هووارد
هوپ
هوکایدو
هوی
هویت
هویزه
هي
هپاتیت
هچ
هۆجوم
هۆجوما
هۆجومچو
هۆجۇم
هۆنر
هی
هیت
هیتلر
هیجا
هیجری
هیدرو
هیدروژن
هیدروکسی
هیدروکسید
هیدرویدلر
هیدرید
هیروشیما
هیز
هیل
هیلز
هیلس
هیلی
هیماچال
هیند
هیندو
هیندوستان
هیندوستانا
هیندوستاندا
هیندوستانلی
هیندوستانین
هیندی
هیندیجه
هیندیستان
هیو
هیوستون
هیوقو
هیون
هیوندای
هیي
هیپ
هیچ
و
وا
وابسته
وات
واترلو
واتسون
واتفورد
واتیکان
واجیب
واحد
واحید
واحیدی
واحیدینده
واخت
واختدا
واختلار
واختلاردا
واختی
واختیندا
واد
وادی
وار
وارايميش
وارایمیش
وارتون
وارد
واردی
واردیر
وارسا
وارلی
وارلیغی
وارلیغین
وارلیغینی
وارلیق
وارميش
وارمی
وارمیش
وارن
وارنر
واری
واریث
واریدی
واریمیش
واز
واسطه
واسيطه
واسیطه
واسیلی
واشنقتون
واشینقتن
واشینقتون
واطلاعات
واقع
واقعه
واقنر
وال
والا
والاس
والت
والتر
والش
والنسیا
واله
والي
والکر
والی
والیبال
والیدي
وامبر
وان
واندالیزم
واندررز
واکر
واگردانی
وای
وایادولید
وایت
واین
وایومینق
وب
وبتی
وبر
وبستر
وبه
وجود
وجوددور
وحدت
وحشی
وحه
وحی
وحید
ود
ودا
ودارچی
ودال
وده
ودور
ور
ورا
ورانی
ورخنی
ورخنیایا
ورد
وردر
وردن
ورده
وردی
ورزیقان
ورشو
ورق
ورلرده
ورمانت
ورمونت
ورن
ورنر
ورنون
وره
ورو
ورون
ورونا
ورونده
ورونه
ورونو
ورونون
وروپا
وروپادا
وروپانین
وروپایا
وري
ورۆ
ورۆنده
وری
وریا
ورید
وریر
وریسی
وریل
وریلدی
وریلمه
وریلمیش
وریلمیشدیر
وریلیب
وریلیر
وریلین
وریه
وز
وزت
وزه
وزیر
وزیری
وزینه
وس
وست
وسترن
وستفالن
وستهام
وستین
وسدا
وسط
وسلین
وسیله
وشار
وشه
وشیمی
وضعیت
وضعیتده
وضعیته
وضعیتی
وضعیتین
وضعیتینه
وضه
وضو
وضوسو
وضوع
وطن
وطنداش
وطنداشلیق
وطنه
وطنی
وظيفه
وظیفه
وع
وعده
وعو
وف
وفا
وفات
وفاتی
وفاتیندان
وق
وقاس
وقت
وقع
وقفی
وقوست
وقي
ول
ولا
ولاخ
ولادی
ولادیمیر
ولت
ولتلر
ولتلری
ولتلرین
ولته
ولتی
ولتین
ولتینده
ولتینه
ولتینی
ولتینین
ولر
ولری
ولز
ولزده
ولزلی
ولقوقراد
ولندی
وله
ولو
ولورهمپتون
ولوژی
ولی
ولید
ولینقتون
وم
ون
ونارد
وناردو
ونتزیا
ونتو
وندی
ونزدی
ونزوي
وه
وهر
وو
ووتسکی
وود
وودز
ووران
وورانلار
وورتمبرق
وورث
ووروب
ووستر
وولا
وولف
وولفسبورق
وولقوقراد
وولوقدا
وون
وي
ويكي
ويكيپديا
ويکي
وپ
وپولد
وک
وکا
وکسی
وکیل
وکیللر
وکیلی
وگی
وۇرماییب
وۇروب
وۇروشون
وی
ویا
ویاري
ویت
ویتامین
ویتسي
ویتنام
ویتوریا
وید
ویدي
ویر
ویرایش
ویرجینیا
ویردی
ویرمه
ویرمک
ویرن
ویره
ویروس
ویزوال
ویس
ویستا
ویسنته
ویسوچینا
ویسکانسین
ویقان
ویل
ویلا
ویلارد
ویلایت
ویلایتی
ویلایتین
ویلایتینده
ویلج
ویلر
ویلسون
ویلمینقتون
ویلهلم
ویلي
ویلکیج
ویلکیه
ویلی
ویلیام
ویلیامز
ویلیج
ویلیس
ویم
وین
وینده
ویندوز
وینستون
وینسنت
وینه
وینچستر
وینی
ویه
ویو
ویي
ویچ
ویژوال
ویک
ویکتور
ویکتوریا
ویکی
ویکیده
ویکینین
ویکیپدیا
ویکیپي
وییه
ى
ي
يا
ياخشي
ياخشی
ياخين
ياراتماق
ياراديجيليغي
يازيردي
يازيچي
يازی
ياشايان
ياشايير
يت
يد
يدانا
يدر
ير
يري
يری
يعني
يل
يله
ين
يني
يه
يو
يوخ
يوخاري
يوخدور
يول
يولو
يون
يوک
يي
يير
ييل
يی
يیل
ً
ٌ
ٍ
َ
ُ
ِ
ّ
ْ
ٓ
ٔ
ٕ
ٚ
ٛ
١
٢
٣
٤
٥
٦
٨
٪
٫
٬
ٰ
پ
پا
پابلو
پات
پاتریک
پاتي
پاخیر
پادار
پادشاه
پادشاهی
پادیشاه
پادیشاهی
پارا
پاراقوي
پارامتر
پاران
پاراناي
پاراگوي
پارتی
پارتیاسی
پارتیزان
پارتیسی
پارتییاسی
پاردوبیتسه
پاردی
پاردیغی
پارس
پارساا
پارلاق
پارلامي
پارلمان
پارلمانی
پارما
پارماق
پارمیش
پارچا
پارچاسی
پارچالار
پارک
پارکر
پارکی
پاریب
پاریجی
پاریر
پاریس
پاریسده
پاریسن
پاریسه
پاریلان
پاریلیر
پاس
پاسو
پاسی
پاشا
پاشانین
پال
پالاس
پالتار
پالم
پالمر
پالمیراس
پالنسیا
پام
پامبیق
پان
پاناما
پانویس
پاول
پاي
پاپ
پاپاق
پاک
پاکیستان
پاکیستاندا
پاکیستانلی
پاکیستانین
پای
پایان
پایتاختی
پایتخت
پایتختی
پاین
پایه
پایی
پاییز
پت
پتامبر
پتر
پترزبورق
پترسون
پترولیوم
پداقوژی
پدرو
پدروی
پديا
پدیا
پدیادا
پدیاسی
پدیاسینین
پدیانین
پدیایا
پدیده
پر
پرادش
پراق
پراقا
پراویدنس
پرت
پرتغال
پرده
پردو
پرز
پرزیدنت
پرزیدنتی
پرست
پرستون
پرسپولیس
پرم
پرمیر
پرو
پروبلم
پروبلي
پروتي
پروس
پروسس
پروسسی
پروسه
پروسي
پروفایلی
پروفسور
پروفي
پروقرام
پروقرامی
پرونده
پروژه
پرویز
پري
پری
پریرا
پریسلی
پریش
پریشی
پریل
پرینستون
پرینسیپ
پس
پست
پسیكولوژی
پشتلو
پل
پلاستیک
پلام
پلان
پلاني
پلانی
پلزن
پله
پلي
پلی
پلیس
پلیموث
پلیه
پناه
پنجاب
پنجابی
پنجره
پنسیلوانیا
پنی
په
پهلوی
پو
پوبلیسیست
پوتاسیوم
پود
پودلاسکی
پودوچری
پودکارپاتسکیه
پور
پورت
پورتاقال
پورتالي
پورتالی
پورتر
پورتسموث
پورتلند
پورتو
پورتوقال
پورتوقالدا
پورتوقاللی
پورن
پورنو
پوست
پوشکین
پول
پولاد
پولدشت
پولو
پولکوونیک
پولی
پولیا
پولیس
پولیمر
پومرانی
پومورسکی
پون
پوي
پوپ
پوینت
پي
پژوهشي
پژوهشی
پک
پکن
پی
پیادا
پیاس
پیام
پیان
پیت
پیتر
پیترو
پیتسبرق
پیتسبورق
پیتسبورگ
پیج
پیر
پیرانشهر
پیرس
پیری
پیزود
پیس
پیسله
پیش
پیشه
پیشیک
پیغمبر
پیلله
پیمان
پیمونت
پین
پیوند
پیونیک
پیوه
پیي
پیک
پیکسل
پیکچرز
چ
چات
چاتان
چاتدی
چاتماق
چاتمیش
چاتمیشدیر
چاتیب
چاتیر
چاد
چار
چارلتون
چارلز
چارلستون
چارلی
چاره
چاری
چاغ
چاغاتای
چاغدا
چاغداش
چاغلاردا
چاغی
چاغیریر
چاغیندا
چال
چالدیران
چالشیان
چالغی
چالیشان
چالیشدی
چالیشدیغی
چالیشقان
چالیشما
چالیشماسی
چالیشماغا
چالیشماق
چالیشمالار
چالیشمالاری
چالیشمیش
چالیشمیشدیر
چالیشیب
چالیشیر
چالیشیردی
چالیشیرلار
چالیشین
چان
چاناق
چانق
چاهارگاه
چاي
چاپ
چاپی
چاک
چاکرا
چای
چایلار
چایلاری
چایپاسار
چایی
چایین
چایینا
چاییندان
چایینین
چتین
چتینلیک
چدو
چدی
چدیب
چر
چرشنبه
چرلی
چرچیل
چرچیوه
چری
چستر
چشم
چشمه
چغامیش
چلبی
چلسی
چلیابینسک
چم
چماق
چمن
چمندیر
چمه
چمک
چمیش
چمیشده
چمیشدی
چمیشدیر
چمیشی
چن
چند
چنه
چنگیز
چه
چهار
چو
چوب
چوبان
چوخ
چوخدور
چوخلاری
چوخلو
چوخلوجا
چوخلی
چوخو
چوخونلوغو
چور
چورزق
چورولمه
چوسان
چولار
چولاری
چون
چونکو
چونکی
چوواش
چوکوتکا
چي
چپ
چپل
چچن
چک
چکدی
چکلی
چکمه
چکمک
چکن
چکه
چکی
چکیب
چکیر
چکیردک
چکیشمه
چکیلدی
چکیلمه
چکیلمیش
چکیلن
چکیلیب
چکیلیر
چی
چیب
چیبا
چیجی
چیخا
چیخار
چیخاراق
چیخاردی
چیخارماق
چیخاریلماسی
چیخاریلیر
چیخان
چیخدی
چیخماسی
چیخماق
چیخمیش
چیخمیشدیر
چیخیب
چیخیر
چیخیش
چیخیشی
چید
چیدلر
چیر
چیردی
چیردیلر
چیردیگی
چیرلر
چیرمه
چیرمک
چیرمیش
چیرمیشدیر
چیرن
چیره
چیریب
چیریر
چیریلدی
چیریلمه
چیریلمیش
چیریلمیشدیر
چیریلن
چیریله
چیریلیر
چیس
چیسی
چیفتلیک
چیق
چیقلادی
چیل
چیلار
چیلاری
چیلان
چیلدی
چیلر
چیلره
چیلری
چیلرین
چیلله
چیلمه
چیلمیش
چیلمیشدیر
چیلن
چیله
چیلیب
چیلیر
چیلیشی
چیلیک
چیم
چیمی
چین
چینجه
چینده
چینلی
چینه
چینکو
چینی
چینین
چیچک
ژ
ژان
ژانرلاریندا
ژانویه
ژانیرو
ژاپون
ژاپوندا
ژاپونلو
ژاپونلی
ژاپونون
ژاپونین
ژاک
ژاکس
ژدار
ژرمن
ژرژ
ژن
ژنتیک
ژنرال
ژنراللار
ژنو
ژو
ژوا
ژورنال
ژورنالی
ژورنالیست
ژورنالیستلر
ژوزف
ژوزه
ژول
ژولای
ژوي
ژي
ژۇي
ژی
ژیسسور
ژیسینده
ک
کا
کابول
کاترین
کاتلین
کاتو
کاتولیک
کاتي
کاتیب
کاتیبی
کادمی
کادمیک
کادي
کار
کارا
کاراجا
کاراي
کاراکتر
کاراکتي
کاربر
کاربران
کاربری
کارت
کارتر
کارتلی
کارتی
کاردیف
کارسون
کارل
کارلار
کارلایل
کارلو
کارلوس
کارلووی
کارن
کارناتاکا
کارنقی
کارول
کارولین
کارولینا
کاری
کازان
کاس
کاستاریکا
کاسترو
کاستل
کاسپي
کاسپی
کاسیب
کاشیفلر
کاشیما
کاظم
کاظیم
کاغیذ
کافي
کافی
کالابریا
کالان
کالج
کالجی
کالجیندا
کالجیینده
کالي
کالی
کالیاری
کالیفورنیا
کالیفورنیادا
کالین
کالینز
کالینینقراد
کام
کامبوج
کامران
کامرون
کامل
کامي
کامپانیا
کامپبل
کامیل
کان
کانادا
کانادادا
کانادالی
کانادانین
کاناقاوا
کانال
کاناللار
کانالی
کانت
کانتری
کانتون
کانتونون
کانتونونون
کانتی
کانتیکت
کانزاس
کانون
کانوی
کانی
کاونتری
کاي
کاپ
کاپورتالا
کاپی
کاپیتان
کای
کاید
کایه
کبي
کت
کتاب
کتابخانه
کتابی
کتسینقزلشافت
کتوبر
کتور
کتورو
کتون
کتی
کتیبه
کتیو
کد
کدن
کر
کراتي
کراس
کراسنودار
کراسنویارسک
کراسنی
کرال
کرالا
کراللیغی
کرالووه
کرالی
کراکوف
کرایق
کربلا
کربون
کربونات
کربوکسیلیک
کرج
کرد
کردن
کرده
کرم
کره
کرو
کروز
کروس
کروواسی
کري
کرک
کرکوک
کری
کریس
کریستال
کریستوف
کریستوفر
کریستی
کریستیان
کریستین
کریق
کریم
کریمه
کریمی
کریمین
کریک
کس
کسب
کسروی
کسفورد
کسمک
کسن
کسکین
کسی
کسیجی
کسیلمه
کسین
کش
کشف
کشفی
کشمیر
کشور
کشکول
کل
کلارک
کلاسیک
کلام
کلاوس
کلاید
کلباء
کلبجر
کلر
کلری
کلسیوم
کلله
کلمبوس
کلمبیا
کلمه
کلن
کله
کلو
کلوب
کلوبلاری
کلوبو
کلوبونا
کلوبوندا
کلوبونون
کلود
کلي
کلی
کلیتون
کلیر
کلیسا
کلیساسی
کلیفورد
کلیمه
کلینتون
کلیولند
کلیپلری
کم
کمال
کمبریج
کمدار
کمداری
کمدن
کمری
کمه
کمو
کمپ
کمک
کمکی
کمیته
کن
کنار
کنارا
کناردا
کناریندا
کنت
کنتاکی
کنتیکت
کند
کندده
کنددیر
کندلر
کندلرده
کندلری
کندلرین
کندلریندن
کندلرینده
کندلی
کنده
کندوان
کندی
کندین
کندینده
کندینه
کندینین
کنراد
کنعان
کنلی
کنند
کنی
کنیا
کنیاز
کنید
کنیکی
که
کو
کوا
کوانت
کوب
کوبا
کوبالت
کوبالی
کوبه
کوت
کوتاه
کوتله
کوتلوی
کوتیکولیار
کوثر
کودو
کور
کوراوغلو
کورت
کورتیس
کورد
کوردجه
کوردلر
کوردلرین
کوردمیر
کوردوستان
کورنر
کورنل
کوره
کوروش
کوروشون
کوروم
کوروواسی
کوری
کورینتیانس
کوستا
کوسموس
کوسمیک
کوفته
کوفه
کول
کولتور
کولتورل
کوللي
کولمبوس
کولمبیا
کولمن
کولن
کوله
کولو
کولوب
کولوبلاری
کولوبو
کولوبودور
کولوبونا
کولوبوندا
کولوبونون
کولور
کولورادو
کولورید
کولومب
کولومبیا
کولونقا
کولک
کولین
کولینز
کومان
کوماندانی
کومت
کومته
کومتی
کومتین
کومتینه
کومدی
کومدین
کومدینلر
کومور
کومون
کومونه
کومونیست
کومي
کومک
کومی
کومیته
کون
کوندن
کونستانتین
کونسي
کونفدراسیلار
کونفدراسیونلار
کونفدراسیونو
کونفرانس
کونفرانسی
کونق
کونقره
کونقلومرات
کونقو
کونو
کونکاکاف
کوه
کوهن
کوهگیلویه
کوهی
کووي
کوي
کوپر
کوپنهاق
کوپی
کوچه
کوک
کوی
کویافسکو
کویت
کوین
کویینز
کي
کيمي
کيچيک
کپسول
کچه
کۆتله
کۆره
کۆل
کی
کیت
کیتا
کیتاب
کیتابخانا
کیتابخاناسی
کیتابخاناسیندا
کیتابدا
کیتابلار
کیتابلاری
کیتابه
کیتابی
کیتابیدیر
کیتابین
کیتابیندا
کیتابینی
کیرلیلیغی
کیرمان
کیرمانشاه
کیرپیلری
کیرپیکلی
کیریل
کیس
کیسه
کیسواریلر
کیسی
کیشی
کیشیلر
کیف
کیفایت
کیفیت
کیل
کیلر
کیلسه
کیلو
کیلومتر
کیلومتردیر
کیلومتیر
کیلومي
کیلی
کیلیسا
کیلیساسی
کیم
کیمسه
کیملیک
کیمی
کیمیا
کیمیانین
کیمیاچی
کیمین
کیمیوی
کین
کینق
کینقستون
کینو
کینگ
کینی
کیو
کیوتو
کیي
کیپ
کیچیک
کیک
گ
گاز
گانه
گاه
گتیردی
گتیردیگی
گتیرمه
گتیرمک
گتیرمیش
گتیرن
گتیره
گتیریب
گتیریر
گتیریلدی
گده
گر
گرده
گره
گروس
گروه
گرچک
گرک
گرگان
گرگین
گریگوری
گزملي
گزملی
گزمه
گزه
گزگن
گزگنین
گل
گلدی
گلدیلر
گلدیک
گلدیکدن
گلدیگی
گلر
گلسه
گلمه
گلمک
گلمیش
گلمیشدیر
گلن
گلندن
گله
گلکسی
گلیب
گلیر
گلیردی
گلیرلر
گلیشمه
گلین
گلینیر
گمی
گمیریجی
گمیسی
گن
گنج
گنجعلی
گنجلر
گنجلیک
گنجه
گنجوی
گه
گو
گوج
گوجلری
گوجلو
گوجو
گور
گورا
گورانبوی
گورجو
گورجوستان
گورجیستان
گورمه
گوره
گورک
گوز
گوزل
گوست
گوستریر
گوشه
گول
گولش
گولله
گوله
گولو
گولوستان
گومان
گوموش
گون
گوناه
گوندن
گونده
گوندوز
گونش
گونشلی
گونلر
گونلرده
گونلری
گونلوک
گونه
گونو
گونوموزده
گونوموزه
گونون
گونونده
گوني
گونی
گوی
گویا
گي
گۆج
گۆجلری
گۆجلو
گۆجو
گۆل
گۆن
گۆنده
گۆنش
گۆنشلی
گۆنو
گۆنوموز
گۆني
گۆنۆ
گۆنی
گی
گیاه
گیاهان
گیتاشناسی
گیرده
گیردی
گیرمه
گیرن
گیره
گیریب
گیریش
گیزلی
گیل
گیلان
گینه
ۆ
ۇ
ی
یا
یابقو
یات
یاخشی
یاخلاشیق
یاخود
یاخچی
یاخین
یاخیندان
یاخینلیغین
یاخینلیغیندا
یاد
یادا
یادکرد
یار
یارا
یارات
یاراتدی
یاراتدیغی
یاراتماغا
یاراتماق
یاراتمیش
یاراتمیشدیر
یارادا
یارادان
یارادیب
یارادیجی
یارادیجیلیغی
یارادیر
یارادیلان
یارادیلدی
یارادیلماسی
یارادیلمیش
یارادیلمیشدیر
یارادیلیب
یارالاندی
یارالی
یاران
یارانان
یارانانلار
یاراندی
یارانما
یارانماسی
یارانماسینا
یارانمیش
یارانمیشدیر
یارانیب
یارانیر
یاراي
یاردیم
یاردیملی
یاردیمچی
یاردیمی
یارپاغی
یارپاق
یاری
یاریسی
یاریسیندا
یاریش
یاریشی
یاریقلاری
یاریلانما
یاریم
یاریمکوره
یاز
یازا
یازار
یازاراق
یازاری
یازاق
یازان
یازدی
یازدیغی
یازدیغینا
یازدیقلاری
یازما
یازماغا
یازماق
یازمیش
یازمیشدیر
یازی
یازیب
یازیر
یازیردی
یازیسی
یازیلاجاق
یازیلار
یازیلاری
یازیلاریندا
یازیلان
یازیلمیش
یازیلمیشدیر
یازیلی
یازیلیب
یازیلیر
یازیلیشی
یازیلیم
یازین
یازیچی
یازیچیسی
یازیچیلا
یازیچیلار
یازیچیلاری
یاس
یاسا
یاسی
یاش
یاشا
یاشادی
یاشادیغی
یاشادیقلاری
یاشار
یاشاسین
یاشام
یاشاماق
یاشامی
یاشامیر
یاشامیش
یاشایان
یاشاییب
یاشاییر
یاشاییردی
یاشاییردیلار
یاشاییرلار
یاشاییرمیش
یاشاییش
یاشاییشی
یاشلی
یاشکان
یاشی
یاشیل
یاشین
یاشیندا
یاغ
یاغا
یاغی
یاغیش
یاغینتی
یاق
یاقوت
یالان
یاللی
یالنیز
یام
یامان
یان
یانا
یاناجاق
یاناشی
یاندان
یانغین
یانق
یانلاردا
یانلاریندا
یانلیش
یانی
یانین
یانینا
یانیندا
یاواش
یاپی
یاپیمجی
یاپیمجیسی
یاکوب
یای
یایغین
یایماق
یاییلان
یاییلدی
یاییلماسی
یاییلمیش
یاییلمیشدیر
یاییلیب
یاییلیبدیر
یاییلیر
یاییم
یاییملانان
یاییملاندی
یایین
یایینا
یب
یت
یتا
یتده
یتر
یتورک
یتی
یتیریر
یج
یجی
یحیی
یخ
ید
یدا
یدالانمادا
یدان
یدانا
یدانی
یداهو
یدر
یدلر
یدن
یده
یدو
یدی
یدین
یر
یران
یرت
یرتمن
یرتیم
یرس
یرلر
یرلی
یرنجی
یرنمه
یرنمک
یرنیر
یرنیلمه
یره
یرک
یری
یریجا
یریلان
یریلدی
یریلمیش
یریلیب
یریلیر
یریلیق
یرین
یرینه
یریه
یز
یزد
یزویل
یزیانا
یزید
یس
یست
یسده
یسلی
یسم
یسی
یسین
یش
یشن
یعقوب
یعنی
یغمبر
یغمبرین
یف
یفاق
یفیت
یك
یل
یلا
یلار
یلاری
یلاریندا
یلر
یلقان
یلم
یلند
یله
یلو
یلی
یلیر
یلیق
یلین
یلە
یم
یمان
یمز
یمن
یمه
یمور
ین
ینا
ینادیغی
ینامیش
یناییب
یناییر
یناییرلار
ینجی
یندا
یندن
ینده
ینزلند
ینلخالق
ینلر
ینه
ینک
ینی
ینین
یه
یهودی
یهودیلر
یهون
یهینه
یو
یوا
یوان
یوانلار
یوانلاردیر
یوانلاری
یوانلارین
یوتا
یوتی
یوجین
یوخ
یوخاری
یوخاریدا
یوخاریداکی
یوخدور
یوخسا
یوخسول
یوخلاما
یوخو
یودیود
یورد
یوردا
یوردلار
یوردلاری
یوردلاریندا
یوردو
یوردودا
یوردون
یوردونا
یوردوندا
یوردونون
یورو
یوروش
یوروشو
یورک
یوری
یوز
یوزایل
یوزده
یوزف
یوزلرله
یوزه
یوسف
یوسیف
یوش
یوشده
یوشو
یوشولری
یوشون
یوشونده
یوشچو
یوفا
یوق
یوقوسلاوی
یول
یولا
یولدا
یولداش
یولداشلار
یولداشی
یوللا
یوللاری
یولو
یولون
یولونا
یولوندا
یولونو
یولونون
یومه
یومورتا
یون
یونان
یونانجا
یوناندا
یونانلی
یونانین
یونایتد
یونجا
یونجو
یونجوسودور
یوندا
یونس
یونسکو
یونق
یونلاری
یونلاریندا
یونلارینی
یونو
یونون
یونچو
یونچوسو
یونچولار
یونگول
یونین
یونیون
یوه
یوهان
یوو
یووا
یوونتوس
یوپاک
یوک
یوکا
یوکسک
یوکله
یوکو
یوکوهاما
یي
یپ
یچی
یک
یکان
یکر
یکل
یکی
یگانه
یۆز
یۆک
یۆکسک
یۆکسکلیکده
یۆکله
یۇخاری
یۇکسک
یی
ییب
ییتیم
یید
ییر
ییران
ییردی
ییردیلر
ییرلر
ییرم
ییرمی
ییشدی
ییشدیرمه
ییشمه
ییشیب
ییغیلماق
ییق
ییل
ییلدی
ییلدیر
ییلر
ییلن
ییلیر
ییلیردی
ییم
یین
ییندا
یینده
یینه
یینی
یینین
ییه
ییي
ییک
یییه
۰
۰۰
۰۰۰
۰۱
۰۲
۰۳
۰۴
۰۵
۰۶
۰۷
۰۸
۰۹
۱
۱۰
۱۰۰
۱۰۰۰
۱۰۱
۱۰۲
۱۰۳
۱۰۴
۱۰۵
۱۰۶
۱۰۷
۱۰۸
۱۰۹
۱۱
۱۱۰
۱۱۰۰۰
۱۱۱
۱۱۲
۱۱۳
۱۱۴
۱۱۵
۱۱۶
۱۱۷
۱۱۸
۱۱۸۰
۱۱۹
۱۲
۱۲۰
۱۲۰۰
۱۲۱
۱۲۲
۱۲۳
۱۲۴
۱۲۵
۱۲۶
۱۲۷
۱۲۸
۱۲۹
۱۲۹۹
۱۳
۱۳۰
۱۳۰۰
۱۳۱
۱۳۲
۱۳۲۰
۱۳۲۴
۱۳۲۵
۱۳۲۶
۱۳۳
۱۳۳۰
۱۳۳۱
۱۳۳۳
۱۳۳۴
۱۳۳۵
۱۳۳۶
۱۳۴
۱۳۴۴
۱۳۴۵
۱۳۴۶
۱۳۴۷
۱۳۴۸
۱۳۴۹
۱۳۵
۱۳۵۰
۱۳۵۱
۱۳۵۲
۱۳۵۴
۱۳۵۶
۱۳۵۷
۱۳۵۸
۱۳۶
۱۳۶۰
۱۳۶۱
۱۳۶۲
۱۳۶۳
۱۳۶۴
۱۳۶۷
۱۳۶۸
۱۳۶۹
۱۳۷
۱۳۷۰
۱۳۷۱
۱۳۷۲
۱۳۷۳
۱۳۷۴
۱۳۷۵
۱۳۷۶
۱۳۷۷
۱۳۷۸
۱۳۷۹
۱۳۸
۱۳۸۰
۱۳۸۱
۱۳۸۲
۱۳۸۳
۱۳۸۴
۱۳۸۵
۱۳۸۶
۱۳۸۷
۱۳۸۸
۱۳۸۹
۱۳۹
۱۳۹۰
۱۳۹۱
۱۳۹۲
۱۳۹۳
۱۳۹۴
۱۳۹۵
۱۳۹۶
۱۳۹۷
۱۳۹۸
۱۳۹۹
۱۴
۱۴۰
۱۴۰۰
۱۴۱
۱۴۲
۱۴۳
۱۴۴
۱۴۵
۱۴۶
۱۴۷
۱۴۸
۱۴۹
۱۵
۱۵۰
۱۵۰۰
۱۵۱
۱۵۲
۱۵۲۰
۱۵۳
۱۵۴
۱۵۵
۱۵۶
۱۵۷
۱۵۷۴
۱۵۸
۱۵۹
۱۶
۱۶۰
۱۶۰۰
۱۶۱
۱۶۲
۱۶۳
۱۶۴
۱۶۴۲
۱۶۴۸
۱۶۵
۱۶۶
۱۶۶۰
۱۶۷
۱۶۸
۱۶۸۳
۱۶۹
۱۷
۱۷۰
۱۷۰۰
۱۷۰۳
۱۷۰۷
۱۷۰۹
۱۷۱
۱۷۲
۱۷۲۱
۱۷۲۲
۱۷۲۳
۱۷۲۵
۱۷۲۶
۱۷۲۹
۱۷۳
۱۷۳۰
۱۷۳۲
۱۷۳۳
۱۷۳۵
۱۷۳۶
۱۷۳۷
۱۷۳۹
۱۷۴
۱۷۴۰
۱۷۴۳
۱۷۴۵
۱۷۴۶
۱۷۴۷
۱۷۴۸
۱۷۴۹
۱۷۵
۱۷۵۰
۱۷۵۱
۱۷۵۲
۱۷۵۴
۱۷۵۵
۱۷۵۶
۱۷۵۷
۱۷۵۸
۱۷۵۹
۱۷۶
۱۷۶۰
۱۷۶۱
۱۷۶۲
۱۷۶۳
۱۷۶۶
۱۷۶۷
۱۷۶۸
۱۷۶۹
۱۷۷
۱۷۷۰
۱۷۷۱
۱۷۷۲
۱۷۷۳
۱۷۷۴
۱۷۷۵
۱۷۷۶
۱۷۷۷
۱۷۷۸
۱۷۷۹
۱۷۸
۱۷۸۰
۱۷۸۱
۱۷۸۲
۱۷۸۳
۱۷۸۴
۱۷۸۵
۱۷۸۶
۱۷۸۷
۱۷۸۸
۱۷۸۹
۱۷۹
۱۷۹۰
۱۷۹۱
۱۷۹۲
۱۷۹۳
۱۷۹۴
۱۷۹۵
۱۷۹۶
۱۷۹۷
۱۷۹۸
۱۷۹۹
۱۸
۱۸۰
۱۸۰۰
۱۸۰۱
۱۸۰۲
۱۸۰۳
۱۸۰۴
۱۸۰۵
۱۸۰۶
۱۸۰۷
۱۸۰۸
۱۸۰۹
۱۸۱
۱۸۱۰
۱۸۱۱
۱۸۱۲
۱۸۱۳
۱۸۱۴
۱۸۱۵
۱۸۱۶
۱۸۱۷
۱۸۱۸
۱۸۱۹
۱۸۲
۱۸۲۰
۱۸۲۱
۱۸۲۲
۱۸۲۳
۱۸۲۴
۱۸۲۵
۱۸۲۶
۱۸۲۷
۱۸۲۸
۱۸۲۹
۱۸۳
۱۸۳۰
۱۸۳۱
۱۸۳۲
۱۸۳۳
۱۸۳۴
۱۸۳۵
۱۸۳۶
۱۸۳۷
۱۸۳۸
۱۸۳۹
۱۸۴
۱۸۴۰
۱۸۴۱
۱۸۴۲
۱۸۴۳
۱۸۴۴
۱۸۴۵
۱۸۴۶
۱۸۴۷
۱۸۴۸
۱۸۴۹
۱۸۵
۱۸۵۰
۱۸۵۱
۱۸۵۲
۱۸۵۳
۱۸۵۴
۱۸۵۵
۱۸۵۶
۱۸۵۷
۱۸۵۸
۱۸۵۹
۱۸۶
۱۸۶۰
۱۸۶۱
۱۸۶۲
۱۸۶۳
۱۸۶۴
۱۸۶۵
۱۸۶۶
۱۸۶۷
۱۸۶۸
۱۸۶۹
۱۸۷
۱۸۷۰
۱۸۷۱
۱۸۷۲
۱۸۷۳
۱۸۷۴
۱۸۷۵
۱۸۷۶
۱۸۷۷
۱۸۷۸
۱۸۷۹
۱۸۸
۱۸۸۰
۱۸۸۱
۱۸۸۲
۱۸۸۳
۱۸۸۴
۱۸۸۵
۱۸۸۶
۱۸۸۷
۱۸۸۸
۱۸۸۹
۱۸۹
۱۸۹۰
۱۸۹۱
۱۸۹۲
۱۸۹۳
۱۸۹۴
۱۸۹۵
۱۸۹۶
۱۸۹۷
۱۸۹۸
۱۸۹۹
۱۹
۱۹۰
۱۹۰۰
۱۹۰۱
۱۹۰۲
۱۹۰۳
۱۹۰۴
۱۹۰۵
۱۹۰۶
۱۹۰۷
۱۹۰۸
۱۹۰۹
۱۹۱
۱۹۱۰
۱۹۱۱
۱۹۱۲
۱۹۱۳
۱۹۱۴
۱۹۱۵
۱۹۱۶
۱۹۱۷
۱۹۱۸
۱۹۱۹
۱۹۲
۱۹۲۰
۱۹۲۱
۱۹۲۲
۱۹۲۳
۱۹۲۴
۱۹۲۵
۱۹۲۶
۱۹۲۷
۱۹۲۸
۱۹۲۹
۱۹۳
۱۹۳۰
۱۹۳۱
۱۹۳۲
۱۹۳۳
۱۹۳۴
۱۹۳۵
۱۹۳۶
۱۹۳۷
۱۹۳۸
۱۹۳۹
۱۹۴
۱۹۴۰
۱۹۴۱
۱۹۴۲
۱۹۴۳
۱۹۴۴
۱۹۴۵
۱۹۴۶
۱۹۴۷
۱۹۴۸
۱۹۴۹
۱۹۵
۱۹۵۰
۱۹۵۱
۱۹۵۲
۱۹۵۳
۱۹۵۴
۱۹۵۵
۱۹۵۶
۱۹۵۷
۱۹۵۸
۱۹۵۹
۱۹۶
۱۹۶۰
۱۹۶۱
۱۹۶۲
۱۹۶۳
۱۹۶۴
۱۹۶۵
۱۹۶۶
۱۹۶۷
۱۹۶۸
۱۹۶۹
۱۹۷
۱۹۷۰
۱۹۷۱
۱۹۷۲
۱۹۷۳
۱۹۷۴
۱۹۷۵
۱۹۷۶
۱۹۷۷
۱۹۷۸
۱۹۷۹
۱۹۸
۱۹۸۰
۱۹۸۱
۱۹۸۲
۱۹۸۳
۱۹۸۴
۱۹۸۵
۱۹۸۶
۱۹۸۷
۱۹۸۸
۱۹۸۹
۱۹۹
۱۹۹۰
۱۹۹۱
۱۹۹۲
۱۹۹۳
۱۹۹۴
۱۹۹۵
۱۹۹۶
۱۹۹۷
۱۹۹۸
۱۹۹۹
۲
۲۰
۲۰۰
۲۰۰۰
۲۰۰۱
۲۰۰۲
۲۰۰۳
۲۰۰۴
۲۰۰۵
۲۰۰۶
۲۰۰۷
۲۰۰۸
۲۰۰۹
۲۰۱
۲۰۱۰
۲۰۱۱
۲۰۱۲
۲۰۱۳
۲۰۱۴
۲۰۱۵
۲۰۱۶
۲۰۱۷
۲۰۱۸
۲۰۱۹
۲۰۲
۲۰۲۰
۲۰۲۱
۲۰۲۲
۲۰۳
۲۰۴
۲۰۵
۲۰۶
۲۰۷
۲۰۸
۲۰۹
۲۱
۲۱۰
۲۱۱
۲۱۲
۲۱۳
۲۱۴
۲۱۵
۲۱۶
۲۱۷
۲۱۸
۲۱۹
۲۲
۲۲۰
۲۲۱
۲۲۲
۲۲۳
۲۲۴
۲۲۵
۲۲۶
۲۲۷
۲۲۸
۲۲۹
۲۳
۲۳۰
۲۳۱
۲۳۲
۲۳۳
۲۳۴
۲۳۵
۲۳۶
۲۳۷
۲۳۸
۲۳۹
۲۴
۲۴۰
۲۴۱
۲۴۲
۲۴۳
۲۴۴
۲۴۵
۲۴۶
۲۴۷
۲۴۸
۲۴۹
۲۵
۲۵۰
۲۵۱
۲۵۲
۲۵۳
۲۵۴
۲۵۵
۲۵۶
۲۵۷
۲۵۸
۲۵۹
۲۶
۲۶۰
۲۶۱
۲۶۲
۲۶۳
۲۶۴
۲۶۵
۲۶۶
۲۶۷
۲۶۸
۲۶۹
۲۷
۲۷۰
۲۷۱
۲۷۲
۲۷۳
۲۷۴
۲۷۵
۲۷۶
۲۷۷
۲۷۸
۲۷۹
۲۸
۲۸۰
۲۸۱
۲۸۲
۲۸۳
۲۸۴
۲۸۵
۲۸۶
۲۸۷
۲۸۸
۲۸۹
۲۹
۲۹۰
۲۹۱
۲۹۲
۲۹۳
۲۹۴
۲۹۵
۲۹۶
۲۹۷
۲۹۸
۲۹۹
۳
۳۰
۳۰۰
۳۰۱
۳۰۲
۳۰۳
۳۰۴
۳۰۵
۳۰۶
۳۰۷
۳۰۸
۳۰۹
۳۱
۳۱۰
۳۱۱
۳۱۲
۳۱۳
۳۱۴
۳۱۵
۳۱۶
۳۱۷
۳۱۸
۳۱۹
۳۲
۳۲۰
۳۲۱
۳۲۲
۳۲۳
۳۲۴
۳۲۵
۳۲۶
۳۲۷
۳۲۸
۳۲۹
۳۳
۳۳۰
۳۳۱
۳۳۲
۳۳۳
۳۳۴
۳۳۵
۳۳۶
۳۳۷
۳۳۸
۳۳۹
۳۴
۳۴۰
۳۴۱
۳۴۲
۳۴۳
۳۴۴
۳۴۵
۳۴۶
۳۴۷
۳۴۸
۳۴۹
۳۵
۳۵۰
۳۵۱
۳۵۲
۳۵۳
۳۵۴
۳۵۵
۳۵۶
۳۵۷
۳۵۸
۳۵۹
۳۶
۳۶۰
۳۶۱
۳۶۲
۳۶۳
۳۶۴
۳۶۵
۳۶۶
۳۶۷
۳۶۸
۳۶۹
۳۷
۳۷۰
۳۷۱
۳۷۲
۳۷۳
۳۷۴
۳۷۵
۳۷۶
۳۷۷
۳۷۸
۳۷۹
۳۸
۳۸۰
۳۸۱
۳۸۲
۳۸۳
۳۸۴
۳۸۵
۳۸۶
۳۸۷
۳۸۸
۳۸۹
۳۹
۳۹۰
۳۹۱
۳۹۲
۳۹۳
۳۹۴
۳۹۵
۳۹۶
۳۹۷
۳۹۸
۳۹۹
۴
۴۰
۴۰۰
۴۰۰۰
۴۰۱
۴۰۲
۴۰۳
۴۰۴
۴۰۵
۴۰۶
۴۰۷
۴۰۸
۴۰۹
۴۱
۴۱۰
۴۱۱
۴۱۲
۴۱۳
۴۱۴
۴۱۵
۴۱۶
۴۱۷
۴۱۸
۴۱۹
۴۲
۴۲۰
۴۲۱
۴۲۲
۴۲۳
۴۲۴
۴۲۵
۴۲۶
۴۲۷
۴۲۸
۴۲۹
۴۳
۴۳۰
۴۳۱
۴۳۲
۴۳۳
۴۳۴
۴۳۵
۴۳۷
۴۳۸
۴۳۹
۴۴
۴۴۰
۴۴۱
۴۴۲
۴۴۳
۴۴۴
۴۴۵
۴۴۶
۴۴۷
۴۴۸
۴۴۹
۴۵
۴۵۰
۴۵۱
۴۵۲
۴۵۳
۴۵۴
۴۵۵
۴۵۶
۴۵۷
۴۵۸
۴۵۹
۴۶
۴۶۰
۴۶۱
۴۶۲
۴۶۳
۴۶۴
۴۶۵
۴۶۶
۴۶۷
۴۶۸
۴۶۹
۴۷
۴۷۰
۴۷۱
۴۷۲
۴۷۳
۴۷۴
۴۷۵
۴۷۶
۴۷۷
۴۷۸
۴۷۹
۴۸
۴۸۰
۴۸۱
۴۸۲
۴۸۳
۴۸۴
۴۸۵
۴۸۶
۴۸۷
۴۸۸
۴۸۹
۴۹
۴۹۰
۴۹۱
۴۹۲
۴۹۳
۴۹۴
۴۹۵
۴۹۶
۴۹۷
۴۹۸
۴۹۹
۵
۵۰
۵۰۰
۵۰۰۰
۵۰۱
۵۰۲
۵۰۳
۵۰۴
۵۰۵
۵۰۶
۵۰۷
۵۰۸
۵۱
۵۱۰
۵۱۱
۵۱۲
۵۱۳
۵۱۴
۵۱۵
۵۱۶
۵۱۸
۵۱۹
۵۲
۵۲۰
۵۲۱
۵۲۲
۵۲۳
۵۲۴
۵۲۵
۵۲۷
۵۲۸
۵۲۹
۵۳
۵۳۰
۵۳۱
۵۳۲
۵۳۴
۵۳۵
۵۳۶
۵۳۹
۵۴
۵۴۰
۵۴۲
۵۴۵
۵۴۶
۵۴۷
۵۴۸
۵۴۹
۵۵
۵۵۰
۵۵۱
۵۵۲
۵۵۳
۵۵۴
۵۵۵
۵۵۶
۵۵۸
۵۵۹
۵۶
۵۶۰
۵۶۱
۵۶۲
۵۶۳
۵۶۴
۵۶۵
۵۶۷
۵۶۸
۵۶۹
۵۷
۵۷۰
۵۷۱
۵۷۲
۵۷۳
۵۷۴
۵۷۵
۵۷۶
۵۷۸
۵۸
۵۸۰
۵۸۲
۵۸۵
۵۸۶
۵۸۷
۵۹
۵۹۰
۵۹۲
۵۹۵
۵۹۸
۵۹۹
۶
۶۰
۶۰۰
۶۰۲
۶۰۳
۶۰۵
۶۰۹
۶۱
۶۱۰
۶۱۵
۶۱۶
۶۱۸
۶۲
۶۲۰
۶۲۴
۶۲۵
۶۲۶
۶۲۷
۶۲۸
۶۳
۶۳۰
۶۳۲
۶۳۴
۶۳۹
۶۴
۶۴۰
۶۴۱
۶۴۲
۶۵
۶۵۰
۶۶
۶۶۰
۶۶۱
۶۶۷
۶۷
۶۸
۶۸۰
۶۸۴
۶۹
۷
۷۰
۷۰۰
۷۱
۷۱۴
۷۲
۷۲۰
۷۲۵
۷۳
۷۳۰
۷۴
۷۴۰
۷۵
۷۵۰
۷۶
۷۶۰
۷۶۵
۷۷
۷۸
۷۸۰
۷۹
۸
۸۰
۸۰۰
۸۱
۸۱۰
۸۲
۸۲۰
۸۳
۸۴
۸۴۴
۸۵
۸۵۰
۸۶
۸۷
۸۷۰
۸۸
۸۹
۹
۹۰
۹۰۰
۹۱
۹۲
۹۳
۹۴
۹۵
۹۶
۹۷
۹۸
۹۹
ँ
ं
क
ख
ग
च
ज
ट
ड
ण
त
द
ध
न
प
ब
भ
म
य
र
ल
व
श
ष
स
ह
़
ा
ि
ी
ु
ू
ृ
े
ो
ौ
्
ক
ট
ড
ত
দ
প
ব
ম
য
র
ল
শ
স
়
া
ি
ী
ু
ে
্
ਬ
ਮ
ਲ
ਸ
ਹ
ਾ
ਿ
ੀ
ੁ
ੇ
ા
க
த
ப
ம
ய
ர
ா
ி
ீ
ு
ெ
்
ಿ
ೆ
ೕ
ം
ക
ട
ത
ന
പ
മ
ര
റ
ല
വ
ഷ
ാ
ി
ു
ൂ
െ
േ
്
ි
ก
น
พ
ย
อ
ั
ิ
ี
ื
ุ
ู
่
้
์
ᵝ
​
‌
‍
‎
‏
‐
‑
–
—
‘
’
“
”
„
†
‡
•
…
‫
‬
‰
′
″
‹
›
‼
ⁿ
€
℅
№
™
←
↑
→
↓
↔
↷
−
≈
≤
≥
⋅
③
④
⑦
─
│
▪
►
☉
☎
♠
✉
✓
⟨
⟩
⺀
⺄
⺆
⺈
⺊
⺌
⺕
⺝
⺸
⺼
⿰
⿱
⿲
⿳
⿴
⿵
⿶
⿷
⿸
⿹
⿺
⿻
、
「
」
〢
か
さ
し
て
と
の
ら
ん
゙
゚
コ
ス
タ
テ
ト
ハ
フ
ユ
ラ
ン
・
ー
㇁
㇂
㇄
㇇
㇈
㇉
㇓
㐁
㐄
㐅
㐌
㐫
㐬
㐭
㐮
㐱
㑒
㒵
㒸
㒼
㓁
㓞
㔾
㕛
㕣
㖾
㘝
㚅
㚇
㚔
㚘
㝉
㝡
㝴
㝵
㞋
㞢
㞷
㠩
㠭
㠯
㡀
㡭
㡿
㢲
㢴
㣇
㣺
㥯
㪅
㫄
㫐
㫒
㫺
㬅
㬎
㬥
㬰
㲋
㳄
㷠
㸒
㸚
㸦
㼌
㼲
㽞
㿟
䀠
䂞
䍃
䏍
䒑
䖍
䖒
䖝
䖵
䙴
䚻
䜌
䝿
䡛
䧹
䪞
一
丁
丂
七
丄
丅
丆
万
丈
三
上
下
丌
不
与
丏
丐
丑
专
且
丕
世
丘
丙
业
东
丞
丢
丣
两
严
並
丨
丩
个
丫
丬
中
丮
丰
丱
串
丵
丶
丷
丸
丹
为
主
丽
丿
乀
乂
乃
久
乆
乇
么
义
之
乌
乍
乎
乏
乐
乑
乔
乖
乗
乘
乙
乚
乛
乜
九
乞
也
习
乡
乳
乾
亀
亅
了
亇
予
争
事
二
亍
于
亏
亐
云
互
亓
五
井
亘
亚
亜
亞
亟
亠
亡
亢
交
亥
亦
产
亨
亩
享
京
亭
亮
亯
亰
亲
亳
亶
亷
人
亻
亼
亾
仁
今
介
仌
从
仐
仑
仒
仓
仕
他
付
仝
代
令
以
任
企
伊
伏
伐
休
会
伯
但
位
何
佘
余
作
佥
使
來
侈
侌
侖
侯
侵
便
保
俞
信
修
倉
倍
候
倠
備
僉
僕
儿
兀
允
兂
元
兄
充
兆
兇
先
光
兊
克
兌
免
兑
兒
兓
兔
党
兜
兟
入
全
兩
兪
八
公
六
兮
兰
共
关
兵
其
具
典
兹
兼
冀
冂
冃
冄
内
冈
冉
冊
冋
册
再
冎
冏
冐
冒
冓
冖
冗
冘
军
农
冝
冡
冥
冫
冬
冷
几
凡
凢
凵
凶
凷
凸
凹
出
函
凾
刀
刁
刂
刃
刄
刅
分
切
刍
刑
刕
刖
列
刘
则
初
別
利
别
到
制
刺
則
削
剌
前
剡
剽
劉
力
功
加
劦
助
劫
劳
劵
勃
勇
勉
勒
動
務
勞
勤
勹
勺
勻
勾
勿
匀
匂
包
匆
匈
匊
匋
匍
匕
化
北
匚
匝
匡
匪
匱
匸
匹
区
医
匽
匿
區
十
卂
千
卄
卅
卆
升
午
卉
半
卌
华
卑
卒
卓
单
卖
南
卜
卝
卞
占
卡
卢
卣
卤
卦
卩
卪
卬
卯
印
危
即
却
卵
卷
卸
卻
厂
厃
厄
历
厈
厉
厌
厓
厘
厚
原
厤
厥
厨
厭
厲
厶
厷
厸
去
厼
厽
叀
参
參
叅
又
叉
及
友
双
反
叐
发
叒
叔
叕
取
受
叚
叜
叟
口
古
句
另
叩
只
召
可
台
叱
史
右
叵
号
司
叹
吂
各
吅
合
吉
吊
吋
同
名
后
吏
向
吕
君
吝
吞
否
含
启
吳
吴
吹
吾
呂
呆
呈
告
员
呙
周
命
咅
和
咎
咠
咢
咨
咸
咼
哀
品
哉
員
哥
哲
唐
商
啇
問
啚
啬
啻
善
喜
喬
單
喿
嗇
嘉
噩
嚴
囊
囗
囘
囙
囚
四
回
囟
因
囧
囬
困
囱
囷
固
国
圂
圅
國
圍
圓
土
圡
圣
圥
在
圭
地
圶
圼
坐
坒
坚
坴
垂
垔
垚
埀
埋
埶
執
基
堂
堅
堆
堇
堯
報
塞
墨
壘
士
壬
壯
声
壳
壴
壹
壺
壽
夂
处
夅
夆
备
夊
夋
夌
复
夏
夒
夕
外
夗
夘
多
夜
夢
大
夨
天
太
夫
夬
夭
央
失
夲
头
夷
夸
夹
夻
夾
奂
奄
奇
奈
奉
奎
奏
奐
契
奓
奔
奚
奞
奠
奢
奥
奭
女
奴
奻
好
如
妄
妙
妟
妥
妻
妾
姑
委
姜
威
娄
婁
婴
嬰
嬴
子
孑
孔
孕
孖
字
存
孚
孛
孝
孟
季
孤
学
孫
孱
學
宀
宁
宂
它
宅
宇
守
安
宋
完
宏
宓
宗
官
定
宛
宜
宝
客
宣
室
宮
宰
害
家
容
宾
宿
寄
寅
密
富
寒
寛
察
寧
審
寫
寬
寮
寸
对
寺
寻
寽
対
寿
封
尃
射
将
將
專
尉
尊
尋
尌
對
小
少
尒
尓
尔
尖
尗
尚
尞
尢
尣
尤
尧
尨
尭
就
尸
尹
尺
尻
尼
尽
尾
尿
局
居
屈
屋
屎
屏
屑
展
屖
屚
属
屠
屡
屬
屮
屯
屰
山
屵
屾
岁
岂
岑
岡
岩
岳
岸
峯
島
崇
崑
崔
崖
崙
崩
嵬
嶲
巂
巛
川
州
巟
巠
巢
巤
工
左
巧
巨
巩
巫
差
己
已
巳
巴
巷
巸
巽
巾
巿
帀
市
布
希
帚
帛
帝
带
師
席
帶
常
干
平
年
幵
并
幷
幸
幺
幻
幼
幽
幾
广
広
庄
床
底
店
庚
府
度
庫
庭
庶
康
庸
廉
廌
廛
廣
廩
廴
延
廷
建
廾
廿
开
弁
弃
弄
弇
弋
式
弓
弔
引
弗
弘
弜
弟
弥
弦
弱
張
強
强
彊
彌
彎
彐
彑
当
彔
录
彖
彗
彡
形
彥
彦
彧
彩
彭
彳
役
彼
往
待
律
徒
得
徙
從
復
微
徳
徵
心
忄
必
忌
忍
志
応
忝
忠
忩
快
念
忽
忿
思
怠
急
怱
恆
恒
恩
恭
息
悉
患
悤
悲
悶
惠
惡
惢
愁
愈
意
愛
感
慈
慧
慮
慶
憂
憲
應
戀
戈
戉
戊
戋
戌
戍
戎
成
我
戒
戔
或
戚
戠
戢
截
戲
戶
户
戹
戼
戾
房
所
扁
扇
手
扌
才
打
托
执
承
折
拉
拜
拿
掌
推
提
摩
支
攴
攵
收
攸
改
放
政
敄
敏
敕
敖
敗
教
敝
敞
敢
散
敦
敫
敬
数
敷
數
斂
文
斉
斊
斗
斤
斥
斩
斬
斯
新
方
於
施
斿
旁
旋
族
无
旡
既
旣
日
旦
旧
旨
早
旬
旱
旲
时
旾
昆
昇
昌
昍
明
昏
易
昔
昗
昜
星
春
昬
是
昱
昴
昷
時
晃
晋
晏
普
景
晶
智
暑
暦
暴
曇
曩
曰
曲
曳
更
曷
書
曹
曼
曾
替
最
朁
會
月
有
朋
服
朔
朕
朗
望
朝
期
木
朩
未
末
本
札
朮
术
朱
朵
朶
朿
杀
杏
杜
束
条
来
東
杲
杳
松
析
林
枚
果
枝
枲
枼
某
柔
查
柬
柰
柴
栗
桀
桑
桥
桼
梁
條
梟
梨
棘
棠
棥
森
楚
業
楽
榮
樂
樊
欠
次
欣
欮
欲
欶
欽
款
歆
歇
歛
止
正
此
步
武
歨
歪
歮
歯
歰
歲
歳
歴
歷
歸
歹
歺
死
殳
段
殷
殸
殹
殺
殻
殿
毋
毌
母
每
毒
比
毕
毚
毛
毳
氏
氐
民
气
氣
水
氵
氶
氷
永
氺
氾
求
汝
汞
江
沃
沓
沙
沝
河
治
泉
法
波
泣
泥
泰
洛
津
洪
活
派
流
浦
浪
浮
海
淡
淮
清
渚
渠
湯
滿
漸
火
灬
灭
灰
灵
灷
炅
炎
炏
炗
炙
炫
炭
為
烈
烏
烝
焉
無
焦
焱
然
煞
熊
熏
燕
營
燮
爪
爫
爭
爯
爰
爱
爲
爵
父
爻
爽
爾
爿
片
牙
牚
牛
牜
牟
牢
牧
牪
牽
犀
犬
犭
犮
狂
狄
狊
独
狺
猋
猒
猪
献
獻
玄
率
玉
王
玟
玨
珎
班
琴
瑟
瑩
瓜
瓦
甘
甚
生
産
用
甫
甬
田
由
甲
申
电
甶
男
甸
甹
画
甾
畀
界
畏
畐
留
畜
畟
畢
畧
畨
番
畫
異
畱
當
畺
畾
疊
疋
疌
疑
疒
疾
癶
癸
癹
登
發
白
百
皀
皃
的
皆
皇
皋
皐
皕
皮
皷
皿
盃
盆
盇
盈
益
盍
盎
监
盒
盖
盛
盡
監
盤
盧
目
直
相
盾
省
眇
眉
看
眔
眞
真
眷
眼
眾
着
睘
睪
睿
瞏
瞢
瞿
矍
矛
矞
矢
矣
知
矦
短
石
破
碎
磊
磨
示
礻
礼
神
祟
票
祭
禀
禁
禸
禹
禺
离
禽
禾
禿
秀
秃
秉
秋
科
秝
秦
移
稟
穀
穌
穴
究
穹
空
穿
突
窄
窒
立
竒
竜
竝
竟
章
童
竹
笑
笠
第
筆
等
答
箕
算
箴
節
篤
篭
米
粉
粛
粟
粤
粦
粲
糞
糸
糹
系
紀
約
納
素
索
紫
累
細
絜
絫
統
絲
維
綿
縣
繇
纍
纟
缶
网
罒
罔
罕
罗
罙
罡
罢
罪
署
罷
羅
羊
羌
羍
美
羔
羕
羗
羞
羡
羣
群
義
羲
羸
羽
翁
翏
習
翕
翟
翠
翼
老
耂
考
者
耆
而
耎
耑
耒
耳
耴
耶
耷
聂
聊
聖
聚
聶
聿
肀
肃
肅
肉
肖
肙
肥
肩
肯
育
肴
胃
背
胡
胥
能
脊
脩
膚
臣
臤
臧
自
臬
臭
臯
臱
至
致
臺
臼
臽
臾
臿
舀
舂
舄
與
興
舉
舌
舍
舛
舜
舞
舟
般
艮
良
色
艸
艹
艾
芒
芔
芬
芮
花
芳
芺
芻
苔
苗
苟
若
苦
英
茶
茸
荅
草
荒
荣
荼
莆
莧
莫
莽
菆
菊
菐
華
萬
落
葉
著
葛
董
葵
蒙
蒦
蒼
蓋
蓬
蓺
蔑
蔡
蕉
蕭
薄
薛
薦
薰
藍
藏
藥
蘭
虍
虎
虐
虒
虔
處
虖
虗
虘
虚
虛
虜
虞
虫
虽
蚤
蚩
蜀
蜜
蟲
蠡
血
行
衍
衛
衣
衤
表
衮
衰
袁
袞
褭
褱
襄
襾
西
覀
要
覃
見
規
覓
覧
親
覽
见
角
解
言
訁
訇
計
詹
誩
諸
議
讠
谷
豆
豈
豊
豐
豕
豖
豙
象
豦
豩
豪
豸
貇
貝
貞
貟
負
貢
貧
貪
貫
責
貳
貴
買
費
賁
資
賈
賏
賓
賔
賛
賞
賢
賣
質
賴
贊
贝
贡
责
贯
贲
贵
赖
赞
赤
赦
走
越
足
路
蹇
身
躬
車
軍
軎
軟
輦
车
辛
辜
辟
辥
辰
辱
農
辵
辶
边
达
过
近
连
迷
追
退
送
逆
逐
通
速
造
逢
連
逮
進
遀
遂
過
道
達
遣
適
遷
遺
邊
邑
邕
那
邦
邪
郎
部
郭
都
鄉
酉
酋
配
酓
釆
采
里
重
野
量
金
釒
錢
钅
長
镸
长
門
閃
閉
開
閏
閑
閒
間
閔
閵
閻
闌
门
间
闷
阑
阜
阝
阿
降
院
陳
隆
隊
隋
隡
隨
隱
隶
隹
隺
隻
隼
隽
难
雀
雁
集
雈
雋
雍
雐
雔
雙
雚
雜
雝
離
難
雨
雩
雪
雲
零
雷
需
霍
霜
霝
霞
霸
靈
靑
青
非
靡
面
靣
革
韋
韦
韭
韯
韱
音
頁
頃
項
須
頗
頡
頻
顛
页
風
风
飛
飞
食
飠
養
饣
首
香
馬
馮
駦
马
骨
高
髟
鬥
鬯
鬲
鬼
魚
魯
鮮
鱼
鲁
鳥
鳳
鸟
鹵
鹿
麃
麗
麥
麦
麻
黃
黄
黍
黎
黑
黒
黨
黹
黽
黾
鼎
鼓
鼠
鼻
齊
齋
齐
齒
齿
龍
龙
龜
龟
龠
龰
龱
龴
龵
龶
龷
龸
龹
者
艹
ﭼ
ﮐ
ﮑ
ﮔ
ﯼ
ﯽ
ﯾ
ﯿ
ﺁ
ﺋ
ﺌ
ﺍ
ﺎ
ﺐ
ﺑ
ﺒ
ﺗ
ﺘ
ﺟ
ﺧ
ﺩ
ﺪ
ﺭ
ﺮ
ﺯ
ﺰ
ﺳ
ﺴ
ﺶ
ﺷ
ﺸ
ﺻ
ﻋ
ﻌ
ﻓ
ﻖ
ﻗ
ﻟ
ﻠ
ﻣ
ﻤ
ﻥ
ﻦ
ﻧ
ﻨ
ﻩ
ﻪ
ﻫ
ﻬ
ﻭ
ﻮ
ﻰ
ﻳ
ﻴ
ﻻ
ﻼ
﻿
（
）
：
＝
？
￼
🇦
🇿
🚜
𠀁
𠀃
𠀆
𠀉
𠀎
𠀐
𠁁
𠁣
𠂆
𠂇
𠂈
𠂉
𠂊
𠂋
𠂎
𠂒
𠂔
𠂛
𠂡
𠂢
𠂤
𠂬
𠂭
𠂹
𠃊
𠃋
𠃌
𠃍
𠃎
𠃑
𠃓
𠃔
𠃜
𠄌
𠄎
𠄠
𠄢
𠆢
𠆥
𠇍
𠈌
𠌵
𠓜
𠔉
𠔥
𠔼
𠔽
𠔿
𠕀
𠕁
𠕋
𠘧
𠘨
𠙻
𠙼
𠚏
𠚒
𠚤
𠚪
𠣏
𠤎
𠤕
𠥓
𠦄
𠦑
𠦝
𠧒
𠧗
𠧪
𠩺
𠪚
𠫓
𠫔
𠫤
𠬛
𠬝
𠬞
𠬢
𠬤
𠬶
𠮛
𠮦
𠮷
𠯑
𠱠
𠳮
𠷎
𡈼
𡉀
𡉵
𡌥
𡍮
𡏳
𡕒
𡕩
𡕰
𡖅
𡗗
𡗜
𡘆
𡘤
𡧱
𡨄
𡩧
𡬠
𡭽
𡰣
𡰥
𡰪
𡰯
𡰱
𡷈
𡸁
𡿨
𡿩
𡿪
𡿺
𢀖
𢀛
𢀩
𢁙
𢆉
𢆰
𢆶
𢇁
𢇇
𢉖
𢌬
𢌿
𢏚
𢑑
𢑚
𢖻
𢙣
𢛳
𢦏
𢦒
𢧵
𢼄
𢾕
𣁋
𣄼
𣅀
𣅽
𣍘
𣎳
𣎵
𣏋
𣏼
𣗥
𣥂
𣥖
𣦵
𣦼
𣧄
𣪊
𣪠
𣬉
𣳾
𣶒
𤇾
𤊽
𤐫
𤓰
𤔔
𤕨
𤣩
𤰇
𤰔
𤰞
𤴓
𤴔
𤽄
𥁑
𥁕
𥃦
𥃩
𥃭
𥇡
𥑟
𥘅
𥘈
𥝢
𥫗
𥱡
𦈢
𦉪
𦉬
𦉼
𦍌
𦍒
𦎧
𦐇
𦓔
𦔮
𦘒
𦙃
𦚏
𦣝
𦣞
𦣻
𦥑
𦥔
𦥯
𦨉
𦭝
𦰩
𧆞
𧈧
𧘇
𧰨
𧴪
𧴮
𧵩
𧾷
𨸏
𨾴
𩙿
𩠐
𩫏
𩵋
𪉷
𪜀
𪟽
𪠲
𪩲
𫇦
𫔭
𫜸
𫝀
𫠣
𫠩
𫢉
𫥞
𫩏
𫩠
𫪡
𫲽
𫶧
𬀷
𬐘
𬗌
𬙙
𬛸
𬜯
𬟩
𬯁
𬴘
𬺻
𬼉
𬼖
𭀰
𭁈
𭁨
𭅰
𭑈
𭕄
𭗼
𭤨
𭥫
𭻾
𮅕
𮊿
𮍌
𮍏
𮓗
𮥼
𮧮
廾
𰀁
𰀄
𰀈
𰀉
𰀕
𰀠
𰀡
𰀢
𰀪
𰁜
𰃮
𰆊
𰆘
𰋙
𰕎
𰢴
𰧭
𰯲
02--
03--
04--
05--
06--
07--
08--
09--
100--
138--
138112--
47--
48--
49--
50--
51--
52--
53--
54--
55--
56--
57--
58--
59--
60--
61--
62--
63--
64--
65--
66--
67--
68--
69--
70--
71--
72--
73--
74--
75--
76--
77--
78--
79--
80--
81--
82--
83--
84--
85--
86--
87--
88--
89--
90--
91--
92--
93--
94--
95--
96--
97--
98--
99--
a--
aa--
ab--
abd--
abs--
ac--
acci--
achi--
acqu--
ad--
ada--
add--
adj--
adve--
advo--
ae--
aero--
af--
affi--
ag--
ago--
agricul--
ah--
ai--
air--
aj--
aja--
ak--
aka--
aki--
al--
ala--
alek--
ales--
alf--
ali--
all--
alp--
als--
alt--
alum--
am--
ame--
an--
ana--
and--
ang--
angli--
ani--
anima--
anna--
anniver--
ans--
ant--
antho--
any--
ao--
ap--
api--
apos--
appl--
aq--
aqua--
aqui--
ar--
ara--
arc--
arg--
argen--
args--
ari--
arm--
art--
aru--
as--
ash--
asp--
asse--
asso--
ast--
at--
au--
aure--
aus--
auto--
av--
avel--
avia--
aw--
ax--
ay--
az--
b--
ba--
back--
bad--
bag--
bahr--
bai--
bal--
ball--
bamb--
ban--
bar--
bard--
bas--
base--
bau--
baum--
bay--
bb--
bc--
be--
beat--
beau--
bec--
bee--
beha--
bel--
bell--
ben--
ber--
berg--
bex--
bey--
bez--
bg--
bha--
bhi--
bhu--
bi--
biało--
biblio--
biel--
big--
bin--
bio--
bir--
bis--
bit--
bl--
black--
blan--
blo--
bloo--
blue--
bn--
bo--
bob--
bohe--
bon--
bor--
bot--
bou--
bouc--
boul--
bour--
bow--
box--
br--
bra--
brad--
bre--
brei--
bres--
bri--
brig--
bris--
brit--
bro--
brod--
bru--
bry--
bs--
bt--
bu--
bud--
budd--
bul--
bun--
bur--
burg--
bus--
but--
butter--
bux--
by--
c--
ca--
cal--
calcu--
camb--
can--
cap--
car--
casa--
casc--
cass--
cat--
cauc--
caud--
cc--
ccc--
cd--
ce--
cele--
cent--
cer--
ch--
cha--
char--
che--
check--
chi--
cho--
chry--
chu--
ci--
cie--
cin--
circum--
cita--
cityof--
civi--
ck--
cl--
cla--
cladog--
cle--
cli--
clo--
clu--
cm--
co--
code--
cog--
col--
cole--
com--
con--
consi--
contr--
cor--
cord--
cori--
corn--
corr--
corres--
cort--
cory--
cos--
cott--
cou--
coug--
cove--
cow--
cr--
create--
cres--
cris--
cro--
cs--
ct--
cu--
cult--
cur--
current--
cut--
cy--
cyc--
cyclo--
cz--
cə--
d--
da--
dag--
dai--
dal--
dam--
dan--
dar--
dark--
data--
date--
day--
dc--
dcc--
dd--
de--
dec--
dedi--
def--
del--
dem--
demo--
den--
der--
des--
dev--
develo--
dha--
di--
dia--
die--
dil--
din--
dis--
disa--
disam--
disc--
discove--
dise--
disr--
div--
dj--
dl--
dm--
do--
doc--
dol--
dolo--
dom--
don--
dos--
dou--
down--
dr--
dt--
du--
dub--
duis--
dur--
dv--
dy--
dyn--
dz--
dzie--
də--
e--
ea--
east--
ec--
ed--
edit--
edu--
ee--
eff--
eg--
ehe--
ehr--
ehren--
ei--
eins--
eisen--
ek--
el--
elec--
eli--
elm--
em--
embe--
emer--
en--
encyc--
end--
eng--
epi--
equ--
er--
era--
ero--
err--
error--
es--
esco--
escu--
espe--
et--
eu--
ev--
eva--
evange--
evolu--
ew--
ex--
exc--
exclu--
exhi--
expe--
expl--
ext--
extre--
ey--
ez--
f--
fa--
fair--
fal--
falk--
fan--
far--
fe--
feat--
feld--
feli--
fen--
fer--
ferr--
fetch--
ff--
fi--
file--
fili--
film--
fin--
find--
first--
fitz--
fium--
fl--
flo--
flu--
fo--
font--
for--
format--
fr--
fra--
fre--
free--
frei--
frie--
ft--
fu--
fuji--
fuku--
full--
fur--
fuw--
g--
ga--
gal--
galle--
gamb--
gan--
gang--
gar--
gard--
gas--
gau--
gaz--
gb--
gd--
ge--
gen--
general--
genti--
geo--
ger--
get--
gha--
ghe--
gho--
ghu--
gi--
giar--
giga--
gil--
giul--
gl--
glau--
glen--
glouce--
glu--
gly--
go--
god--
gol--
gold--
good--
gor--
got--
gover--
goł--
gr--
gra--
gran--
grand--
gre--
green--
grim--
gro--
gru--
gry--
gu--
guatem--
guil--
gun--
gur--
guð--
gym--
h--
ha--
had--
haj--
hako--
hal--
ham--
hamm--
hammer--
han--
hand--
har--
harr--
hart--
has--
hat--
hau--
haup--
haupt--
haupts--
haw--
hay--
haz--
he--
head--
hed--
heid--
heiligen--
heim--
hel--
heli--
hend--
hep--
her--
hex--
hey--
hi--
hide--
high--
hil--
hild--
hip--
hiro--
his--
hl--
hm--
ho--
hoch--
hod--
hof--
home--
hon--
hop--
hor--
how--
hr--
hsi--
hu--
humb--
hun--
hur--
hutc--
hy--
hydr--
hə--
i--
ia--
ib--
ic--
id--
iden--
ideo--
ie--
if--
ig--
igna--
ii--
ike--
il--
illu--
im--
image--
impl--
in--
inc--
incor--
ind--
inde--
infan--
infe--
influ--
info--
infra--
ing--
ins--
inter--
inve--
invol--
io--
ion--
ip--
ir--
iran--
is--
isa--
ishi--
iso--
it--
ita--
iv--
iwa--
iz--
j--
ja--
jab--
jam--
jan--
jar--
jasi--
jay--
je--
ji--
jo--
js--
ju--
k--
ka--
kai--
kal--
kala--
kali--
kan--
kar--
kash--
kata--
kawa--
kay--
ke--
kei--
ken--
key--
kh--
kha--
khe--
khi--
kho--
khor--
khu--
ki--
kil--
kilo--
kim--
kirc--
kirch--
kirk--
kirs--
kit--
kiyo--
kl--
kn--
ko--
koby--
kon--
kor--
kos--
kr--
kra--
krasno--
kre--
kreuz--
kris--
kro--
kru--
kry--
ku--
kur--
kv--
kw--
ky--
kyrgyzs--
kı--
kło--
kə--
l--
la--
lak--
lake--
lamb--
lanc--
land--
lang--
lant--
lar--
las--
last--
lat--
lau--
laur--
law--
lay--
laz--
lb--
le--
lea--
leg--
leice--
len--
leon--
let--
leu--
lg--
li--
libra--
lie--
life--
lill--
lim--
lin--
link--
list--
lk--
ll--
llew--
lo--
loc--
lock--
log--
lomb--
lon--
long--
lou--
low--
ls--
lt--
lu--
luc--
luft--
lung--
lv--
ly--
lym--
lyn--
m--
ma--
mac--
macro--
mad--
mag--
mah--
mai--
main--
maj--
mak--
make--
mal--
mamm--
man--
manda--
manu--
map--
mar--
mari--
mark--
markt--
mas--
mask--
mats--
mauri--
maus--
max--
may--
maz--
mb--
mc--
mcc--
mcco--
mccu--
mcla--
me--
meas--
medi--
meer--
meg--
mei--
mel--
memo--
men--
menz--
mer--
mes--
met--
meta--
mey--
mi--
mia--
micr--
mid--
mie--
mil--
mill--
min--
mini--
mir--
mis--
mit--
miya--
ml--
mm--
mn--
mo--
mod--
mol--
mon--
mono--
monte--
mor--
mord--
more--
mort--
mos--
move--
mozambi--
mp--
mr--
ms--
mt--
mu--
muen--
mug--
muk--
mul--
multi--
mun--
mush--
mw--
my--
mø--
mə--
n--
na--
nak--
naka--
nan--
nao--
narr--
nat--
naum--
nav--
naz--
nb--
nc--
nd--
ne--
neo--
ner--
nes--
net--
neu--
neuro--
new--
news--
ng--
ngu--
ni--
nico--
nig--
nik--
nil--
nin--
nive--
nl--
nm--
nn--
no--
node--
non--
nor--
nord--
north--
not--
nr--
ns--
nt--
nu--
num--
nur--
ny--
nya--
nz--
o--
oak--
ob--
ober--
oc--
occi--
odd--
ode--
odo--
of--
off--
og--
oh--
ok--
ol--
old--
olym--
on--
one--
oo--
op--
open--
opp--
or--
orche--
org--
ori--
orie--
orient--
oro--
orts--
os--
osta--
otl--
ou--
out--
ov--
over--
ox--
oz--
p--
pa--
page--
pala--
palen--
pall--
pam--
pan--
par--
param--
parse--
pas--
pass--
pat--
pav--
pay--
pe--
pell--
pen--
per--
pesc--
petr--
pfl--
ph--
phy--
pi--
pia--
pid--
piet--
pin--
pio--
pir--
pix--
pl--
plain--
plat--
play--
plo--
pn--
po--
pobl--
pod--
pol--
pop--
por--
pos--
post--
pot--
poz--
pp--
pr--
pra--
pract--
pre--
prev--
pri--
pro--
prun--
przy--
ps--
psy--
psycho--
pt--
pu--
pul--
put--
py--
pyri--
q--
qad--
qara--
qas--
qaz--
qez--
qor--
qu--
que--
query--
quint--
qı--
qə--
r--
ra--
rad--
rade--
rag--
rai--
rail--
raj--
ram--
ran--
ravens--
raw--
ray--
rc--
rd--
re--
rece--
recog--
red--
ref--
refor--
reg--
regis--
rei--
rein--
remo--
ren--
render--
rep--
res--
ret--
reu--
rev--
rg--
rhe--
rho--
ri--
rie--
rig--
ring--
rio--
rk--
rm--
rn--
ro--
rob--
roch--
rock--
rod--
roe--
roll--
rom--
ron--
rose--
rou--
row--
rox--
rr--
rs--
rt--
ru--
ry--
ryu--
rz--
rə--
s--
sa--
sag--
sak--
saku--
sal--
salv--
sam--
san--
sand--
sar--
sass--
saw--
sax--
saxi--
say--
sb--
sc--
scale--
scand--
sch--
scha--
sche--
schi--
schle--
schm--
schr--
schu--
sco--
scri--
scul--
scy--
se--
sea--
sec--
see--
sei--
sel--
self--
semi--
sen--
sep--
ser--
serg--
set--
sex--
sey--
sg--
sh--
sham--
she--
sher--
shi--
ship--
sho--
shoo--
show--
shu--
si--
sieg--
sig--
sigm--
silv--
sin--
sir--
siz--
sk--
ska--
skel--
sky--
sl--
slav--
slo--
slove--
sm--
sne--
sni--
sno--
so--
socio--
sol--
some--
son--
sor--
sort--
sou--
sp--
spo--
spre--
sq--
squi--
sr--
ss--
st--
sta--
stadt--
stan--
star--
ste--
sti--
sto--
str--
strat--
stu--
stur--
su--
sub--
succ--
sud--
sue--
suff--
suk--
sul--
sum--
sun--
super--
sur--
survi--
sus--
sv--
sw--
sy--
sylv--
sym--
syna--
sz--
sza--
szcze--
sze--
szla--
sø--
słup--
sə--
t--
ta--
tab--
table--
tag--
tah--
tai--
taka--
tal--
talk--
tan--
tar--
tau--
taw--
tay--
tc--
te--
tea--
tel--
ten--
ter--
test--
tetra--
tex--
text--
th--
tha--
the--
this--
tho--
thor--
thur--
ti--
tie--
tim--
time--
tin--
title--
tl--
tn--
to--
toc--
toku--
tom--
ton--
top--
tor--
total--
tr--
tra--
trans--
tre--
tri--
trib--
trig--
trim--
tris--
tro--
tru--
trz--
trze--
ts--
tsu--
tt--
tu--
tur--
tusc--
tv--
tw--
ty--
type--
tz--
tə--
u--
uc--
ud--
ue--
ug--
uk--
ul--
um--
un--
under--
uni--
up--
ur--
us--
use--
user--
v--
va--
val--
valde--
van--
var--
ve--
vell--
vent--
ver--
vers--
ves--
vi--
via--
vic--
vie--
vig--
viki--
vill--
villa--
vin--
viz--
vla--
vo--
vol--
vor--
vr--
vs--
vu--
vy--
w--
wa--
wake--
wal--
wald--
wan--
war--
was--
wasser--
water--
way--
we--
web--
wei--
weins--
wel--
wen--
west--
wg--
whe--
whit--
white--
wi--
wid--
wie--
wiki--
wil--
wild--
win--
wind--
with--
wo--
wood--
worc--
work--
wp--
wro--
wu--
wy--
wya--
wyl--
wyn--
x--
xi--
xu--
xx--
y--
ya--
yama--
yas--
yay--
yaz--
ye--
yi--
yl--
yo--
yoko--
yu--
z--
za--
zar--
ze--
zh--
zi--
zie--
zim--
zo--
zoo--
zu--
zło--
þ--
đ--
ı--
ł--
ło--
ə--
ədəbiy--
əli--
α--
τ--
а--
админи--
ал--
б--
ба--
бо--
в--
ве--
во--
г--
го--
д--
дв--
джан--
до--
е--
з--
за--
и--
к--
ка--
кате--
л--
м--
ма--
ме--
мо--
н--
но--
о--
п--
па--
пе--
пер--
пр--
р--
ре--
с--
са--
св--
се--
сло--
ст--
ста--
т--
та--
те--
у--
цен--
че--
ша--
ا--
اب--
ابو--
ابوال--
ابی--
ات--
اتر--
اتو--
اثر--
اح--
احت--
احس--
اخ--
اختل--
اختی--
اد--
ادی--
اذ--
ار--
ارت--
اری--
از--
اس--
اسار--
اساس--
است--
اسپا--
اسپی--
اسکان--
اش--
اشت--
اشیا--
اصفه--
اط--
اع--
اعتب--
اعتي--
اف--
افت--
افقانی--
اق--
ال--
الا--
الح--
السال--
الش--
الص--
الط--
الع--
الغ--
الف--
الق--
الم--
الن--
اله--
الک--
الکترو--
الی--
الیاز--
ام--
امر--
امپر--
امک--
امیر--
ان--
انا--
انتخ--
اند--
انق--
انو--
انگل--
انی--
او--
اوا--
اوت--
اوج--
اوخ--
اوخشا--
اوخو--
اود--
اور--
اوروپا--
اوز--
اوس--
اوسل--
اوش--
اوغ--
اوق--
اول--
اولا--
اولما--
اوم--
اون--
اوو--
اوي--
اويون--
اوچ--
اوک--
اوی--
اوینا--
اي--
ايستي--
ايش--
ايل--
اژ--
اک--
اکس--
اکسیا--
اۆ--
اۆز--
اۆصو--
اۆل--
اۇ--
اۇرو--
اۇغ--
اۇغو--
ای--
ایب--
ایت--
ایتی--
ایث--
ایج--
ایخ--
ایختی--
اید--
ایر--
ایز--
ایس--
ایست--
ایستاتو--
ایسپان--
ایسک--
ایش--
ایشل--
ایض--
ایف--
ایفا--
ایق--
ایقتص--
ایقتی--
ایل--
ایم--
این--
اینان--
اینانی--
اینتی--
اینست--
اینستی--
اینق--
ایو--
ایچ--
ایک--
ایی--
ب--
با--
بابا--
بات--
باتی--
باجا--
باخ--
باخیش--
باد--
بار--
باز--
بازار--
باس--
باش--
باغ--
باغلان--
باغیش--
باق--
بال--
بالا--
بان--
بانک--
باها--
باي--
باک--
بای--
بت--
بح--
بخ--
بختی--
بخش--
بد--
بدو--
بر--
برا--
برت--
برد--
برمو--
برن--
برو--
بروک--
برک--
برگ--
بری--
بس--
بش--
بط--
بع--
بل--
بلا--
بلو--
بلک--
بلی--
بم--
بن--
بنا--
بند--
بنزو--
بنی--
به--
بو--
بوت--
بوح--
بود--
بور--
بوراخ--
بوراخی--
بورو--
بوز--
بوش--
بوغو--
بول--
بولون--
بوم--
بون--
بوک--
بوی--
بي--
بير--
بيل--
بژ--
بک--
بۆ--
بۇ--
بۇغ--
بی--
بیت--
بیتیر--
بید--
بیر--
بیری--
بیز--
بیس--
بیش--
بیل--
بیلی--
بیماری--
بین--
بیو--
بیچ--
بیگ--
ت--
تا--
تات--
تاث--
تاخ--
تار--
تاس--
تال--
تام--
تان--
تانی--
تاپ--
تاپی--
تاکا--
تای--
تب--
تبع--
تترا--
تتراف--
تج--
تجا--
تح--
تحو--
تخ--
تخر--
تد--
تدي--
تدی--
تر--
ترا--
تران--
تراک--
ترس--
ترو--
ترک--
تری--
تز--
تس--
تسو--
تش--
تص--
تصاو--
تصر--
تظا--
تع--
تف--
تق--
تل--
تم--
تمل--
تمک--
تمیز--
تن--
تنف--
تنوق--
ته--
تو--
توت--
توخ--
توخو--
تود--
تور--
تورشو--
تورن--
تورو--
توز--
توق--
تول--
توم--
تون--
توپ--
توپراق--
توپلا--
توپلان--
توپلو--
توپپای--
توک--
توی--
تي--
تک--
تکی--
تۆ--
تۇ--
تۇتول--
تی--
تیا--
تیر--
تیری--
تیش--
تیل--
تیم--
تین--
تیو--
تیپ--
تیک--
ث--
ثیر--
ج--
جا--
جام--
جاماع--
جان--
جانلان--
جای--
جر--
جزا--
جس--
جف--
جم--
جن--
جه--
جهت--
جو--
جور--
جون--
جي--
جک--
جۆ--
جی--
جیز--
جیل--
جین--
ح--
حا--
حاضير--
حاققی--
حال--
حبس--
حت--
حج--
حد--
حرا--
حرف--
حس--
حساب--
حص--
حق--
حل--
حمد--
حن--
حو--
حودو--
حوقوق--
حي--
حکم--
حۆ--
حیج--
حیدر--
حیک--
خ--
خا--
خات--
خار--
خاراب--
خاط--
خاطیرل--
خال--
خان--
خانا--
خاچ--
خاک--
خبر--
خدم--
خر--
خراب--
خرج--
خشا--
خط--
خطی--
خو--
خوا--
خود--
خور--
خوش--
خوی--
خي--
خۇ--
خی--
خیر--
د--
دا--
داد--
دار--
داش--
داشی--
داع--
داغ--
داغی--
دال--
دام--
دان--
دانی--
داو--
داک--
دای--
دایان--
دایاندیری--
دب--
در--
درا--
دراس--
درو--
دری--
دز--
دست--
دستان--
دل--
دلا--
دلان--
دلاندی--
دم--
دمیر--
دن--
دنی--
دنیز--
ده--
دهی--
دو--
دور--
دوز--
دوزن--
دوست--
دوش--
دوغو--
دول--
دوم--
دون--
دوک--
دوی--
دویغو--
دي--
ديل--
دک--
دگی--
دۆ--
دۆز--
دۆش--
دۆني--
دۇ--
دی--
دیا--
دیاس--
دیب--
دیر--
دیز--
دیش--
دیل--
دیم--
دین--
دیو--
دیپل--
دیک--
دیکولو--
دییشیک--
ذ--
ذاک--
ذر--
ر--
را--
راب--
رات--
راتور--
راج--
راد--
راز--
راس--
راش--
راشدیری--
رال--
رام--
ران--
راک--
رای--
رب--
رت--
رتا--
رتال--
رتی--
رتیر--
رج--
رخ--
رخا--
رد--
ردا--
ردو--
ردی--
رر--
رز--
رزو--
رس--
رش--
رصد--
رضا--
رغ--
رفت--
رفر--
رق--
رقص--
رل--
رلشدی--
رلی--
رم--
رما--
رن--
رنا--
رنگ--
ره--
رهبر--
رو--
روان--
روب--
روت--
روح--
رود--
رور--
روز--
روس--
روش--
رول--
روم--
رون--
روک--
ري--
رپو--
رژی--
رک--
رگ--
رگی--
رۆ--
رۇ--
رۇح--
ری--
ریا--
ریب--
ریح--
رید--
ریس--
ریل--
رین--
ریو--
ریچ--
ریک--
ز--
زا--
زاد--
زار--
زال--
زام--
زب--
زبک--
زجو--
زد--
زر--
زل--
زلی--
زن--
زنجی--
زنگ--
زه--
زو--
زور--
زونا--
زي--
زۆ--
زی--
زیر--
زین--
س--
سا--
ساب--
ساحل--
ساخ--
ساخلان--
ساخلانی--
سارس--
ساز--
ساغ--
ساق--
سال--
سام--
سان--
ساو--
ساواش--
ساي--
ساچ--
سای--
سایی--
سبب--
ست--
ستو--
ستی--
سخ--
سر--
سرا--
سران--
سرحد--
سرو--
سری--
سس--
سط--
سفر--
سفی--
سل--
سم--
سما--
سمینا--
سن--
سند--
سه--
سو--
سوت--
سور--
سورغو--
سورو--
سوز--
سول--
سوم--
سون--
سوپر--
سوی--
سي--
سپو--
سپوبلی--
سپی--
سک--
سکو--
سۆ--
سۆر--
سۇ--
سی--
سیا--
سیخ--
سید--
سیر--
سیرا--
سیز--
سیس--
سیغی--
سیف--
سیق--
سیل--
سیلاح--
سیلی--
سیم--
سین--
سیک--
سییا--
ش--
شا--
شاخ--
شال--
شام--
شان--
شاه--
شاگیرد--
شخ--
شد--
شر--
شرط--
شرف--
شرق--
شع--
شعو--
شفا--
شن--
شه--
شهر--
شو--
شور--
شوع--
شي--
شپا--
شک--
شۆ--
شۇ--
شی--
شیب--
شیخ--
شید--
شیر--
شیق--
شین--
شیک--
ص--
صح--
صدر--
صر--
صفر--
صمی--
صنعت--
صو--
صیف--
صین--
ض--
ط--
طا--
طالی--
طب--
طرز--
طرف--
طل--
طلب--
طهم--
طو--
ظ--
ظول--
ع--
عا--
عاغی--
عام--
عبد--
عبدال--
عبی--
عدن--
عر--
عسگر--
عص--
عط--
عظ--
علی--
عمو--
عهد--
عو--
عوض--
عونصو--
عي--
عکس--
عۆ--
عۆض--
عیب--
عیر--
غ--
غا--
غاج--
غری--
غزل--
غض--
غلو--
غم--
غو--
غوز--
غی--
غیر--
ـ--
ف--
فا--
فابری--
فاسکو--
فال--
فان--
فاکت--
فایدا--
فایر--
فت--
فدراس--
فر--
فرا--
فراکس--
فرد--
فرق--
فری--
فستی--
فضا--
فل--
فلس--
فلو--
فلی--
فن--
فه--
فو--
فور--
فوس--
فون--
في--
فيلوسوف--
فيکي--
فی--
فیر--
فیرل--
فیق--
فیل--
فین--
ق--
قا--
قاب--
قابیلی--
قات--
قاتی--
قار--
قارا--
قارشی--
قاز--
قاف--
قال--
قالا--
قالخ--
قالدی--
قام--
قان--
قاورا--
قاي--
قاپی--
قای--
قایتار--
قایی--
قبری--
قبیر--
قدر--
قرا--
قرار--
قرن--
قری--
قزا--
قص--
قصر--
قض--
قط--
قل--
قلا--
قلن--
قلو--
قلی--
قم--
قمر--
قن--
قنق--
قو--
قوا--
قوبرن--
قوت--
قور--
قورت--
قورتا--
قورو--
قوش--
قوشول--
قول--
قوم--
قون--
قوو--
قوي--
قوی--
قویول--
قویون--
قي--
قۆ--
قۇ--
قۇرب--
قۇرت--
قۇرتا--
قۇرو--
قۇش--
قی--
قید--
قیر--
قیز--
قیسم--
قیش--
قیل--
قیمت--
قێ--
ك--
كل--
كه--
كو--
كي--
ل--
لا--
لاب--
لات--
لار--
لاری--
لاس--
لاشدی--
لال--
لام--
لان--
لاو--
لاک--
لای--
لب--
لباش--
لت--
لدو--
لر--
لری--
لز--
لس--
لسا--
لش--
لشدی--
لط--
لف--
لل--
للا--
للی--
لم--
لما--
لن--
لندی--
له--
لو--
لوب--
لوس--
لوم--
لون--
لوک--
لوی--
لي--
لپ--
لچو--
لچی--
لک--
لۆ--
لۇ--
لی--
لیب--
لیر--
لیس--
لیش--
لیف--
لیق--
لیم--
لین--
لیو--
لیپ--
لیک--
لیگ--
م--
ما--
مات--
ماح--
ماخ--
ماد--
مار--
ماراق--
ماسا--
ماغا--
ماق--
مال--
مان--
ماه--
ماچ--
ماژ--
مای--
مت--
متر--
مترو--
متن--
متود--
مج--
مجا--
مجاریس--
مجم--
مح--
محت--
محمد--
مخ--
مد--
مدن--
مدی--
مذ--
مر--
مرث--
مرو--
مری--
مریض--
مز--
مزار--
مس--
مست--
مش--
مشا--
مشک--
مص--
مط--
مظ--
مع--
معا--
معنا--
مغول--
مف--
مفه--
مق--
مقا--
مقی--
مل--
ملا--
ملک--
مم--
من--
منس--
منظ--
منفع--
منو--
مه--
مها--
مهر--
مو--
موت--
موتت--
موح--
موخ--
مود--
مور--
موز--
موس--
موش--
موضوع--
موع--
موقا--
مول--
مون--
مونت--
موها--
موهاجی--
مووس--
مي--
ميل--
مپر--
مک--
مکتب--
مۆ--
مۆقا--
مۇ--
می--
میت--
میخ--
مید--
میر--
میز--
میس--
میل--
مین--
میک--
میکرو--
ن--
نا--
ناتو--
ناد--
نار--
ناقا--
نام--
نان--
ناکا--
نت--
نترو--
نتی--
نج--
نخ--
ند--
ندا--
ندر--
ندری--
ندو--
نر--
نزد--
نزی--
نس--
نشر--
نص--
نصر--
نظ--
نظر--
نع--
نفت--
نفوذ--
نق--
نقش--
نل--
نلاش--
نم--
نن--
نه--
نو--
نوت--
نور--
نوش--
نوع--
نوو--
نوی--
ني--
نک--
نگ--
نۆ--
نۆفۇ--
نۇ--
نی--
نیا--
نیت--
نیس--
نیش--
نیل--
نین--
نیو--
ه--
ها--
هابس--
هال--
هام--
هان--
هاو--
هاوا--
هاپ--
های--
هد--
هدف--
هر--
هست--
هش--
هق--
هقزا--
هل--
هلن--
هم--
همپ--
هن--
هنگ--
هو--
هوا--
هوف--
هوم--
هون--
هوپ--
هي--
هۆ--
هۇ--
هی--
هیق--
هیل--
و--
وا--
وات--
وار--
واق--
وال--
وان--
وای--
وب--
وث--
وجود--
ود--
ودال--
ور--
ورا--
ورز--
ورو--
وری--
وز--
وزت--
وس--
وست--
وص--
وض--
وضو--
وضوع--
وع--
وف--
وق--
ول--
ولا--
ولت--
ولف--
ولو--
ولی--
وم--
ون--
ونق--
وه--
وو--
وود--
وورغو--
ووروش--
وول--
وي--
وپ--
وک--
وۇ--
وی--
ویا--
ویت--
وید--
ویر--
ویس--
ویل--
وین--
ویند--
ویو--
ویچ--
ویک--
ویکی--
ي--
يا--
ياب--
يارا--
ياراد--
ياز--
يازي--
يازی--
ياشي--
يت--
يد--
ير--
يل--
ين--
يه--
يو--
يول--
يي--
يۆ--
يۇ--
يی--
پ--
پا--
پات--
پارا--
پارت--
پاریل--
پاس--
پال--
پان--
پاپ--
پاک--
پای--
پایلا--
پت--
پتر--
پر--
پراک--
پرو--
پری--
پس--
پسیک--
پل--
پلان--
پلو--
پلی--
پن--
پنا--
پنت--
په--
پو--
پود--
پور--
پوز--
پوزو--
پوزی--
پول--
پون--
پوپ--
پي--
پژ--
پک--
پۇ--
پی--
پیت--
پیر--
پیس--
پیش--
پین--
پیو--
پیک--
چ--
چا--
چات--
چاتدی--
چاتیش--
چاد--
چار--
چاغ--
چاغی--
چال--
چالي--
چالیش--
چام--
چان--
چاپ--
چای--
چدی--
چر--
چم--
چمپیون--
چن--
چه--
چو--
چوخ--
چوخال--
چور--
چورول--
چون--
چي--
چيخ--
چپ--
چک--
چکی--
چۆ--
چۇ--
چی--
چیخ--
چیخار--
چیر--
چیق--
چیل--
چیم--
چین--
چێ--
چێخ--
ژ--
ژا--
ژان--
ژن--
ژو--
ژۇ--
ژی--
ک--
کا--
کات--
کار--
کارا--
کاروان--
کاری--
کاس--
کاش--
کاغذ--
کاف--
کام--
کان--
کاوا--
کاپ--
کای--
کاینا--
کت--
کتاب--
کد--
کر--
کرد--
کرم--
کرو--
کری--
کس--
کسی--
کسییا--
کش--
کل--
کلاس--
کلو--
کلۇ--
کلی--
کم--
کمو--
کمپ--
کن--
کند--
کنی--
که--
کو--
کوا--
کوب--
کوت--
کود--
کور--
کورد--
کوز--
کوست--
کوش--
کول--
کوم--
کومی--
کون--
کونفدراس--
کوه--
کوک--
کوی--
کي--
کپ--
کۆ--
کۆرد--
کۆل--
کۇ--
کی--
کیس--
کیل--
کیم--
کین--
کیو--
گ--
گتي--
گتیر--
گتیری--
گذ--
گر--
گرمادوز--
گرک--
گست--
گفت--
گل--
گلیش--
گمی--
گن--
گنج--
گو--
گوج--
گور--
گورو--
گوز--
گوست--
گول--
گون--
گي--
گۆ--
گۆج--
گۆن--
گی--
گیزل--
گیل--
ۆ--
ی--
یا--
یات--
یاتاق--
یاخ--
یاخین--
یاد--
یار--
یارا--
یاروس--
یاریش--
یاز--
یازی--
یازیچی--
یاس--
یاسا--
یاش--
یاغ--
یاق--
یاقلان--
یام--
یاما--
یان--
یاپی--
یای--
یب--
یت--
یتی--
یح--
یخ--
ید--
یدو--
یدی--
یر--
یری--
یز--
یس--
یش--
یف--
یل--
یم--
ین--
ینا--
یه--
یو--
یوخ--
یوز--
یوش--
یول--
یوم--
یون--
یوک--
یوکسل--
یپ--
یک--
یۆ--
یۆروش--
یۆز--
یۇ--
یی--
ییخی--
ییر--
ییش--
ییشیک--
ییغی--
ییل--
ییم--
یین--
۵۳--
۵۴--
۵۸--
۵۹--
۶۰--
۶۱--
۶۲--
۶۳--
۶۴--
۶۵--
۶۶--
۶۷--
۶۸--
۶۹--
۷۰--
۷۱--
۷۲--
۷۳--
۷۴--
۷۵--
۷۶--
۷۷--
۷۸--
۷۹--
۸۰--
۸۱--
۸۲--
۸۳--
۸۴--
۸۵--
۸۶--
۸۷--
۸۸--
۸۹--
۹۰--
۹۱--
۹۲--
۹۳--
۹۴--
۹۵--
۹۶--
۹۷--
۹۸--
۹۹--
--0
--00
--01
--02
--03
--04
--05
--06
--07
--08
--09
--1
--10
--11
--12
--13
--14
--15
--16
--17
--18
--19
--2
--20
--21
--22
--23
--24
--25
--26
--27
--28
--29
--3
--30
--31
--32
--33
--34
--35
--36
--37
--38
--39
--4
--40
--41
--42
--43
--44
--45
--46
--47
--48
--49
--5
--50
--51
--52
--53
--54
--55
--56
--57
--58
--59
--6
--60
--62
--63
--64
--65
--66
--67
--68
--69
--7
--70
--71
--72
--73
--74
--75
--76
--77
--78
--79
--8
--80
--81
--82
--83
--84
--85
--86
--87
--88
--89
--9
--90
--91
--92
--93
--94
--95
--96
--97
--98
--99
--a
--aa
--ab
--aba
--abad
--abi
--ability
--able
--abr
--aby
--ac
--aca
--ach
--acio
--ack
--ad
--ade
--adensis
--adi
--ado
--adə
--ae
--ael
--af
--afa
--ag
--aga
--agawa
--age
--agh
--ah
--ahl
--ahydro
--ai
--aic
--ail
--ain
--ais
--aj
--ak
--aker
--aki
--ako
--al
--ald
--ale
--all
--ally
--aly
--am
--ama
--amino
--amo
--ampton
--an
--ana
--anca
--ance
--and
--ane
--ank
--ano
--anos
--ant
--any
--anza
--ao
--aon
--ap
--api
--apur
--aq
--ar
--ara
--ard
--are
--arg
--args
--ari
--ark
--aro
--art
--ary
--as
--asco
--asse
--ası
--at
--ata
--ate
--ated
--ates
--ath
--ati
--ating
--ation
--ations
--ato
--ator
--att
--atti
--atum
--atus
--au
--aut
--av
--ava
--aw
--awa
--awi
--ax
--ay
--aya
--az
--b
--ba
--bach
--bad
--bah
--bahn
--bar
--bat
--be
--bed
--berg
--berger
--bi
--bia
--bie
--bil
--ble
--bo
--boro
--box
--bru
--bs
--bu
--burg
--burn
--bury
--by
--c
--ca
--cat
--ce
--ced
--cell
--cept
--cer
--ces
--cey
--cfg
--ch
--che
--cher
--chi
--cht
--chy
--ci
--cio
--ck
--cki
--cks
--class
--co
--code
--coe
--col
--color
--config
--cot
--cript
--cription
--croft
--cs
--ct
--ctive
--cu
--cum
--cus
--cy
--cz
--czo
--cı
--d
--da
--dad
--dah
--dale
--dan
--data
--date
--day
--de
--ded
--deh
--den
--der
--des
--dh
--di
--din
--dis
--dition
--div
--do
--don
--dor
--dorf
--dorn
--dra
--dred
--ds
--dt
--du
--dula
--dur
--dus
--dy
--dz
--də
--e
--ea
--ean
--ear
--earch
--eau
--eb
--ec
--eca
--eck
--ecke
--ect
--ection
--ed
--eda
--edo
--ee
--een
--eer
--ef
--ego
--eh
--ei
--eim
--ein
--ejo
--ek
--el
--ela
--eld
--ele
--eley
--elf
--ell
--ella
--elli
--ello
--eln
--elope
--els
--ely
--em
--eman
--eme
--ement
--emi
--en
--ena
--ence
--end
--ene
--enham
--eni
--eno
--ens
--ense
--ensis
--ent
--ente
--ento
--ents
--enza
--eo
--eon
--ep
--er
--era
--ere
--ered
--erg
--eri
--ern
--ero
--error
--ers
--ert
--ery
--es
--ese
--esh
--esi
--eson
--ess
--est
--et
--eta
--ete
--eted
--eth
--eto
--ets
--ett
--etta
--ette
--etto
--eur
--eus
--ev
--ew
--ewo
--ews
--ex
--ey
--ez
--f
--fa
--fax
--fe
--feld
--fer
--ff
--ffe
--ffen
--fi
--fide
--fied
--field
--file
--fix
--flag
--fo
--ford
--form
--ft
--fu
--ful
--fy
--g
--ga
--gan
--gaon
--gar
--gate
--gau
--ge
--ged
--gel
--gen
--ger
--ges
--gg
--ggs
--gh
--gham
--ght
--gi
--gia
--giata
--gin
--ging
--gio
--git
--gle
--glio
--gn
--gna
--gne
--gno
--go
--gon
--grad
--graphs
--gs
--gton
--gu
--gua
--gue
--guin
--gus
--gut
--gy
--h
--ha
--hah
--hai
--hak
--ham
--han
--har
--haus
--he
--head
--hed
--heh
--hei
--heim
--hen
--her
--hes
--hey
--hi
--hia
--hian
--him
--hin
--hip
--hir
--hiro
--hm
--hn
--hner
--ho
--hoe
--hof
--hol
--hov
--hr
--hra
--hs
--ht
--hu
--hua
--hur
--hurst
--hus
--hy
--i
--ia
--iah
--ial
--ian
--iana
--iano
--ians
--ias
--iations
--ib
--ibility
--ible
--ic
--ica
--ical
--ice
--ich
--ichi
--ici
--icio
--ick
--ico
--ics
--icum
--icus
--id
--ide
--ided
--idence
--ident
--ides
--ido
--ie
--iec
--ied
--iel
--ien
--ier
--ieri
--ies
--iet
--ieu
--if
--iff
--ification
--iflora
--ig
--igan
--iggs
--ight
--ii
--ik
--ika
--iki
--iko
--il
--ila
--ile
--ili
--ill
--illa
--ille
--illo
--ilo
--im
--ima
--ime
--iment
--imo
--in
--ina
--index
--ine
--ing
--ingdon
--ingham
--ings
--ington
--inho
--ini
--ink
--ino
--inus
--iny
--io
--ion
--ions
--ior
--ios
--ious
--ip
--ipur
--iq
--ique
--ir
--ira
--ire
--iri
--iro
--is
--ise
--ised
--ish
--ishi
--isi
--ision
--ism
--ist
--ista
--ister
--ists
--isław
--it
--ite
--ith
--iti
--itia
--ities
--ition
--itt
--ity
--itz
--itzsch
--iu
--ium
--ius
--iv
--iva
--ive
--ivity
--ivo
--ix
--iya
--iyah
--iye
--iyeh
--iz
--iza
--ization
--ize
--ized
--j
--ja
--jah
--je
--jeh
--ji
--jo
--ju
--k
--ka
--kal
--kan
--kar
--karte
--kat
--kawa
--ke
--kel
--ker
--kers
--kes
--ket
--key
--kh
--ki
--kie
--kin
--kirche
--kis
--kle
--ko
--kow
--kowo
--ks
--ku
--kur
--ky
--kənd
--l
--la
--lad
--lah
--lam
--lan
--land
--lar
--lat
--lau
--layer
--lba
--ld
--lde
--ldo
--ldon
--le
--lec
--led
--left
--lem
--ler
--les
--less
--let
--level
--ley
--lf
--li
--lia
--lic
--lica
--lin
--line
--ling
--link
--links
--lis
--list
--ll
--lla
--lle
--lles
--lli
--llo
--lls
--lly
--lm
--ln
--lne
--lny
--lo
--log
--lohn
--lor
--lov
--lp
--ls
--lt
--lton
--lu
--lus
--lusion
--lva
--ly
--lyn
--lz
--lı
--lər
--m
--ma
--mah
--man
--map
--mar
--mate
--mation
--mba
--me
--med
--men
--ment
--ments
--mer
--mi
--mic
--mn
--mo
--mont
--moor
--more
--mouth
--mov
--mp
--ms
--mu
--mum
--mus
--my
--n
--na
--nah
--nal
--name
--nard
--nau
--nberg
--nburg
--nce
--nco
--ncy
--nd
--nda
--nder
--ndi
--ndo
--ndorf
--ne
--nel
--nell
--nen
--ner
--nes
--nese
--ness
--ney
--ng
--ngen
--ngo
--nheim
--ni
--nia
--nic
--nie
--ning
--nita
--nk
--nka
--nki
--nko
--nley
--nn
--nna
--nne
--no
--nos
--nova
--ns
--nse
--nsis
--nsk
--nson
--nstein
--nt
--nta
--nte
--ntec
--nthus
--nti
--ntin
--ntino
--nto
--nts
--nu
--num
--nuovo
--nus
--nx
--ny
--nza
--nzo
--o
--oa
--obj
--obo
--oc
--och
--ocide
--ock
--od
--oda
--ode
--ody
--oe
--of
--off
--og
--ogist
--ogy
--oh
--oi
--ok
--oka
--oke
--ol
--ola
--oli
--olo
--ologist
--ology
--om
--oma
--ome
--omy
--on
--ona
--one
--ong
--oni
--only
--ono
--ons
--ont
--oo
--ood
--oon
--oor
--op
--opsis
--options
--or
--ora
--ord
--ore
--orf
--ori
--orie
--orio
--orm
--orn
--orra
--ors
--ort
--orus
--ory
--os
--osa
--ose
--oslav
--oso
--ot
--ota
--ote
--oto
--ott
--ou
--oud
--ough
--ouk
--oun
--ous
--out
--ov
--ova
--ovic
--ovich
--ovo
--ovsk
--ovy
--ow
--owa
--owice
--owo
--ows
--ox
--oy
--oya
--oz
--ozoa
--p
--pa
--page
--palli
--pally
--pan
--param
--park
--part
--pe
--pec
--pect
--ped
--pelling
--pes
--pet
--ph
--pher
--phic
--phy
--pi
--platz
--ple
--po
--polis
--port
--pos
--pp
--ppa
--ppo
--ps
--pter
--pton
--pur
--pura
--puram
--pus
--py
--q
--qa
--qi
--r
--ra
--rah
--rak
--ral
--ram
--raphy
--rat
--rb
--rch
--rco
--rd
--re
--rea
--rease
--red
--ree
--ref
--rell
--res
--rf
--rg
--rga
--ri
--ria
--rie
--rill
--rim
--rin
--rino
--rio
--ris
--rix
--rk
--rl
--rley
--rm
--rn
--rndorf
--rno
--ro
--ror
--ros
--rov
--row
--rra
--rre
--rro
--rry
--rs
--rse
--rsk
--rst
--rt
--rta
--rte
--rton
--rty
--ru
--rum
--rva
--ry
--ryl
--rz
--rı
--s
--sa
--saki
--sation
--sau
--sbach
--sberg
--sburg
--sca
--sch
--schau
--sche
--sco
--sdale
--sdorf
--se
--sea
--sed
--see
--sei
--seite
--sel
--sen
--ser
--serve
--ses
--sey
--sh
--sha
--shafen
--sham
--sheim
--shi
--ship
--shire
--si
--sia
--sicht
--side
--sie
--sio
--sion
--sions
--sis
--sive
--sk
--ski
--skirche
--sky
--sley
--slow
--sm
--sno
--so
--son
--sor
--sov
--ss
--ssa
--sse
--ssen
--sson
--st
--stad
--stadt
--ster
--stic
--ston
--stone
--stown
--str
--strasse
--straße
--sts
--style
--su
--suke
--sville
--sy
--sz
--szo
--szyn
--sı
--t
--ta
--table
--tad
--tag
--tags
--tar
--tas
--tat
--tation
--tatus
--te
--tec
--ted
--tein
--ten
--ter
--tes
--text
--th
--thren
--ti
--tia
--tial
--tic
--time
--tin
--ting
--tion
--tions
--tip
--tis
--title
--tive
--tja
--tla
--tle
--tley
--to
--ton
--tone
--tor
--tos
--tow
--town
--tr
--tring
--tro
--ts
--tsk
--tsu
--tt
--tta
--tte
--tti
--tto
--tty
--tu
--tua
--tum
--ture
--turm
--tus
--tution
--ty
--tyle
--type
--tz
--tı
--u
--ua
--ual
--uan
--ub
--ubi
--uch
--uct
--ucted
--ucts
--ud
--uda
--udi
--ue
--uela
--uer
--uf
--ug
--uga
--ugh
--ui
--uil
--uk
--uka
--uke
--uki
--ul
--ula
--ult
--um
--uma
--umi
--ummary
--un
--une
--ung
--uno
--uo
--up
--uq
--ur
--ura
--ure
--urg
--urk
--url
--urm
--urn
--uro
--uru
--ury
--us
--ut
--uta
--ute
--uth
--ux
--uya
--uz
--v
--va
--val
--value
--vas
--ve
--vec
--ved
--vedo
--vel
--ven
--ver
--verse
--vert
--vi
--view
--vik
--ville
--vis
--vision
--vo
--vsk
--vsky
--vy
--w
--wa
--wal
--wald
--ware
--way
--we
--well
--wi
--wice
--wich
--wick
--wiki
--wk
--wn
--wo
--wood
--wr
--wski
--wy
--x
--xa
--xi
--xo
--xy
--y
--ya
--yah
--yam
--yan
--yar
--yard
--yat
--yd
--ye
--year
--yeh
--yer
--yev
--yi
--ying
--yl
--ym
--yn
--yo
--yon
--yr
--yra
--yre
--ys
--yu
--z
--za
--zan
--zana
--zano
--zbach
--zd
--ze
--zed
--zel
--zen
--zer
--zes
--zew
--zewo
--zi
--zia
--zie
--zig
--zing
--zio
--zki
--zno
--zo
--zol
--zon
--zona
--zu
--zy
--zyce
--zyn
--zza
--zzi
--zzo
--ße
--ı
--ıg
--ım
--ın
--ında
--ının
--ıs
--ła
--ło
--ły
--ə
--əd
--ən
--ər
--ət
--α
--ς
--υ
--а
--аи
--ан
--ар
--ая
--б
--в
--ва
--га
--д
--е
--еи
--и
--ие
--ии
--ин
--их
--ия
--к
--ка
--л
--ла
--ле
--м
--н
--ни
--ние
--ния
--ныи
--о
--ов
--ова
--ого
--ое
--ои
--ом
--р
--ра
--рии
--с
--т
--та
--у
--х
--ы
--я
--ء
--ا
--اء
--اب
--ابر
--ات
--اتا
--اتان
--اته
--اتي
--اتی
--اتیک
--اث
--اج
--اجا
--اجاق
--اح
--اخ
--اد
--ادا
--ادان
--ادلی
--اده
--ادو
--ادک
--ادی
--ار
--ارا
--اراق
--ارام
--اران
--ارت
--ارد
--اردا
--اردان
--اردی
--ارو
--اري
--اری
--از
--ازما
--ازه
--ازی
--اس
--اسا
--اسو
--اسی
--اسین
--اسینا
--اسینی
--اش
--اشان
--اشی
--اض
--اط
--اع
--اغ
--اغا
--اغی
--اغین
--اغینا
--اف
--اق
--اقا
--اقدا
--ال
--الار
--الاری
--الت
--الد
--الو
--الی
--ام
--امز
--امه
--ان
--انا
--انت
--انتی
--اندا
--انس
--انق
--انلار
--انلی
--انه
--انو
--انووو
--اني
--انکا
--انی
--انین
--اه
--او
--اوس
--اوی
--اي
--اپ
--اچ
--اچی
--اژ
--اک
--اکا
--اکی
--اگ
--اگو
--ای
--ایا
--ایسکای
--این
--ایه
--ایی
--ب
--با
--باد
--بالا
--بت
--بدیر
--بر
--برق
--برو
--بز
--بقه
--بل
--بلر
--بن
--به
--بو
--بورق
--بوس
--بي
--بک
--بی
--بیا
--ة
--ت
--تا
--تار
--تال
--تان
--تاون
--تاوی
--تت
--تح
--تدن
--تدی
--تر
--ترا
--تز
--تس
--تسا
--تسه
--تسو
--تسی
--تل
--تلار
--تله
--تلی
--تما
--تماغا
--تماق
--تن
--ته
--تو
--تور
--توس
--توسو
--تون
--توو
--توون
--تي
--تچی
--تک
--تی
--تیا
--تیان
--تیزم
--تیم
--تین
--تیک
--ث
--ثنا
--ثی
--ج
--جا
--جاغی
--جاغینی
--جاق
--جان
--جد
--جر
--جرد
--جل
--جم
--جه
--جو
--جي
--جک
--جی
--جیر
--جیق
--ح
--حات
--حه
--حی
--خ
--خا
--خان
--خت
--خدی
--خص
--خل
--خه
--خوف
--خی
--خیب
--د
--دا
--دادیر
--دار
--دارلیق
--داری
--دان
--داکی
--دت
--دج
--در
--درا
--درز
--دره
--دز
--دس
--دل
--دلر
--دلو
--دن
--ده
--دو
--دور
--دولر
--دي
--دير
--دک
--دکی
--دۇ
--دی
--دیر
--دیس
--دیغی
--دیغینی
--دیل
--دیلار
--دیلر
--دیم
--دین
--دیوم
--دە
--ذ
--ر
--را
--رات
--رار
--راق
--رام
--ران
--رت
--رخ
--رد
--ردا
--ردان
--ردو
--ردی
--ردیغی
--ردیلار
--رر
--رز
--رس
--رسا
--رسن
--رسی
--رش
--رف
--رق
--رل
--رلا
--رلار
--رلر
--رلی
--رم
--رما
--رماق
--رمه
--رمک
--رمگه
--رمیش
--رن
--رنو
--رنی
--ره
--رو
--روب
--روف
--روو
--روپ
--ري
--رپ
--رک
--رکن
--ری
--ریب
--ریت
--رید
--ریر
--ریق
--ریلدی
--ریلماسی
--ریم
--رین
--ریک
--ز
--زا
--زان
--زبرق
--زبورو
--زت
--زدا
--زر
--زلار
--زلی
--زم
--زمی
--زن
--زه
--زو
--زون
--زویل
--زي
--زک
--زکایا
--زی
--زیا
--زین
--زیو
--س
--سا
--سار
--ساق
--سال
--سان
--ساید
--سبورق
--ست
--ستا
--ستان
--ستر
--ستن
--سده
--سر
--سل
--سلاو
--سلی
--سم
--سن
--سه
--سو
--سوز
--سون
--سوو
--سوکه
--سویل
--سى
--سي
--سينا
--سيندا
--سک
--سکا
--سکای
--سکایا
--سکو
--سکی
--سی
--سیا
--سیز
--سین
--سینا
--سینی
--سیو
--سیون
--ش
--شا
--شان
--شاه
--شت
--شتی
--شدي
--شدير
--شدی
--شر
--شش
--شل
--شلر
--شما
--شن
--شنا
--شه
--شهر
--شو
--شوناس
--شوو
--شي
--شکی
--شی
--شیب
--شیر
--شین
--شیندا
--ص
--صاص
--صت
--صه
--صی
--ض
--ضا
--ضل
--ضه
--ط
--طق
--طه
--طو
--طی
--ظ
--ظم
--ع
--عا
--عت
--عد
--عش
--عفا
--علی
--عه
--عی
--غ
--غا
--غان
--غه
--غو
--غون
--غي
--غی
--غیم
--غین
--غینا
--غیندا
--غینی
--ؽ
--ؽن
--ـ
--ف
--فا
--فت
--فتون
--فر
--فس
--فق
--فل
--فن
--فه
--فو
--في
--فک
--فی
--فیت
--فیک
--ق
--قا
--قان
--قاه
--قت
--قتسا
--قتن
--قتون
--قجا
--قدا
--قدان
--قر
--قز
--قس
--قف
--قل
--قلا
--قلار
--قلاری
--قلی
--قن
--قنز
--قه
--قو
--قور
--قون
--قي
--قکی
--قی
--قیت
--قین
--ك
--كن
--كی
--ل
--لا
--لادی
--لادیغی
--لار
--لارا
--لاردا
--لاردان
--لارلا
--لاري
--لارين
--لاری
--لارین
--لارینا
--لارینی
--لاش
--لاشان
--لاشدی
--لاشما
--لاشماسی
--لاشماق
--لاشمیش
--لاشیب
--لاشیر
--لاق
--لاما
--لاماسی
--لاماق
--لامیش
--لامیشدیر
--لان
--لاندی
--لانما
--لانماسی
--لانماغا
--لانمیش
--لانیب
--لاه
--لایاراق
--لایان
--لاییب
--لاییر
--لت
--لتمه
--لد
--لدز
--لدو
--لدی
--لر
--لردن
--لرده
--لرله
--لره
--لري
--لری
--لرین
--لرینه
--لرینی
--لز
--لس
--لش
--لشدیرمه
--لشمه
--لشمیش
--لف
--لق
--لم
--لما
--لمه
--لمیر
--لن
--لند
--لنن
--له
--لو
--لوب
--لور
--لوغا
--لوغو
--لوف
--لوق
--لوو
--لوژی
--لوک
--لوکده
--لوگو
--لویو
--لى
--لي
--لير
--ليغي
--ليق
--لک
--لۆ
--لی
--لیا
--لیب
--لیر
--لیغا
--لیغی
--لیق
--لیقدا
--لیلار
--لیلر
--لین
--لیک
--لیگی
--لیگین
--لیگینی
--لیی
--لییر
--لیین
--م
--ما
--ماز
--ماسي
--ماسی
--ماغا
--ماغی
--ماغین
--ماغینا
--ماق
--ماقلا
--مالار
--مالی
--مان
--مت
--متی
--مد
--مدا
--مدن
--مر
--مز
--مس
--مسی
--معه
--مل
--ملر
--ممیش
--من
--مند
--مه
--مو
--مور
--موز
--موش
--مون
--مي
--ميز
--ميش
--ميشدير
--مپوس
--مک
--مکده
--مکله
--می
--میر
--میز
--میزا
--میزده
--میزه
--میزی
--میزین
--میش
--مین
--میک
--ن
--نا
--نات
--ناس
--نال
--نامه
--نان
--نایا
--نت
--نتس
--نتو
--نتی
--نج
--نجا
--نجی
--ند
--ندا
--ندان
--نداکی
--ندر
--ندن
--نده
--ندی
--نر
--نز
--نزا
--نس
--نسون
--نسک
--نسکی
--نق
--نقا
--نقتون
--نقز
--نقن
--نقی
--نل
--نلر
--نلی
--نما
--نماسی
--نماق
--نمز
--نمه
--نمکده
--نمیش
--نن
--نه
--نو
--نوب
--نور
--نوس
--نون
--نووو
--ني
--نين
--نچ
--نک
--نکو
--نگ
--نی
--نیا
--نیب
--نیر
--نیز
--نیزی
--نین
--نیک
--ه
--ها
--هام
--های
--هر
--هم
--هه
--هو
--هي
--هی
--هید
--و
--وا
--واسی
--وان
--وایسکای
--وب
--وبا
--وبو
--وت
--وتا
--وتو
--وتی
--وث
--وج
--وخ
--ود
--ودی
--ور
--ورا
--ورت
--وره
--ورو
--وز
--وزا
--وزی
--وس
--وسا
--وسن
--وسو
--وسون
--وسکی
--وسی
--وش
--وشو
--وشی
--وغ
--وغو
--وف
--وفوسفات
--وفون
--وق
--وقا
--وقرافی
--ول
--ولا
--ولدو
--ولن
--ولو
--وم
--وما
--ومو
--ومی
--ون
--ونا
--ونال
--ونت
--ونجو
--وند
--وندا
--وندان
--وندن
--ونده
--ونز
--ونق
--ونه
--ونو
--ونور
--ونون
--ونی
--ونیا
--ونیل
--ونیک
--وه
--وو
--ووا
--ووایسکای
--وود
--وور
--ووسکایا
--ووف
--وون
--ووو
--ووون
--ووکا
--ووی
--وویتسه
--وویچ
--وي
--وپ
--وپروپیل
--وچ
--وچی
--وژی
--وک
--وکا
--وکس
--وکه
--وکو
--وکی
--وی
--ویا
--ویتسه
--ویل
--ویچ
--ویی
--ى
--ي
--يا
--يان
--يب
--ية
--يت
--يتي
--يد
--يدير
--ير
--يز
--يش
--يشدير
--يغي
--يف
--يق
--يك
--يله
--يم
--ين
--ينا
--يندا
--يندان
--يندن
--ينده
--ينه
--يني
--ينين
--يه
--يو
--يي
--ييه
--يک
--يیر
--پ
--پا
--پالی
--پایين
--پت
--پر
--پس
--پن
--په
--پو
--پور
--پورام
--پوس
--پي
--پی
--پیل
--چ
--چا
--چاسارای
--چاسی
--چای
--چك
--چن
--چه
--چو
--چوو
--چي
--چی
--چیسی
--چیلار
--چیلیق
--ژ
--ژا
--ژن
--ژه
--ژي
--ژی
--ک
--کا
--کات
--کاتا
--کادا
--کار
--کال
--کب
--کت
--کجه
--کدن
--کده
--کر
--کز
--کس
--کش
--کل
--کلری
--کن
--که
--کو
--کوس
--کوف
--کوو
--کووو
--کي
--کی
--کیه
--ڭ
--گ
--گا
--گار
--گان
--گاه
--گاهی
--گج
--گر
--گز
--گن
--گه
--گو
--گي
--گی
--گیز
--گین
--گینی
--گییا
--ۆ
--ۆر
--ۆش
--ۆم
--ۆن
--ۇ
--ۇب
--ۇر
--ۇق
--ۇل
--ۇن
--ی
--یا
--یات
--یاجاق
--یار
--یال
--یالی
--یام
--یان
--یاک
--یایا
--یب
--یبه
--یة
--یت
--یتس
--یتسه
--یته
--یتی
--یج
--یجا
--یجی
--ید
--یدی
--یدیر
--یر
--یرا
--یردی
--یرن
--یرو
--یز
--یزم
--یزمی
--یزه
--یزی
--یس
--یست
--یستان
--یسم
--یسه
--یسکای
--یش
--یشدی
--یشدیر
--یشی
--یع
--یغی
--یف
--یق
--یقه
--یل
--یلا
--یلان
--یلدی
--یلر
--یلماسی
--یلمه
--یلمیش
--یلن
--یله
--یلی
--یلیب
--یم
--یما
--یمی
--یمیز
--ین
--ینا
--یندا
--یندان
--یندن
--ینده
--ینز
--ینق
--ینقز
--ینقن
--ینه
--ینو
--ینگ
--ینی
--ینیز
--ینین
--یه
--یو
--یور
--یوس
--یوم
--یوما
--یون
--یي
--یپ
--یچ
--یک
--یکا
--یکو
--یکی
--یگی
--یی
--ییا
--ییت
--یین
--ییه
--ێ
--ە
--۰
--۰۰
--۰۱
--۰۲
--۰۳
--۰۴
--۰۵
--۰۶
--۰۷
--۰۸
--۰۹
--۱
--۱۰
--۱۱
--۱۲
--۱۳
--۱۴
--۱۵
--۱۶
--۱۷
--۱۸
--۱۹
--۲
--۲۰
--۲۱
--۲۲
--۲۳
--۲۴
--۲۵
--۲۶
--۲۷
--۲۸
--۲۹
--۳
--۳۰
--۳۱
--۳۲
--۳۳
--۳۴
--۳۵
--۳۶
--۳۷
--۳۸
--۳۹
--۴
--۴۰
--۴۱
--۴۲
--۴۳
--۴۴
--۴۵
--۴۶
--۴۷
--۴۸
--۴۹
--۵
--۵۰
--۵۱
--۵۲
--۵۳
--۵۴
--۵۵
--۵۶
--۵۷
--۵۸
--۵۹
--۶
--۶۰
--۶۱
--۶۲
--۶۳
--۶۴
--۶۵
--۶۶
--۶۷
--۶۸
--۶۹
--۷
--۷۰
--۷۱
--۷۲
--۷۳
--۷۴
--۷۵
--۷۶
--۷۷
--۷۸
--۷۹
--۸
--۸۰
--۸۱
--۸۲
--۸۳
--۸۴
--۸۵
--۸۶
--۸۷
--۸۸
--۸۹
--۹
--۹۰
--۹۱
--۹۲
--۹۳
--۹۴
--۹۵
--۹۶
--۹۷
--۹۹
