!
"
#
##0
##1
##10
##11
##12
##13
##14
##15
##16
##17
##18
##19
##2
##20
##21
##22
##23
##24
##25
##26
##27
##28
##29
##3
##30
##31
##32
##33
##34
##35
##36
##37
##38
##39
##4
##40
##41
##42
##43
##44
##45
##46
##47
##48
##49
##5
##50
##51
##52
##53
##54
##55
##56
##57
##58
##59
##6
##60
##61
##62
##63
##64
##65
##66
##67
##68
##69
##7
##70
##71
##72
##73
##74
##75
##76
##77
##78
##79
##8
##80
##81
##82
##83
##84
##85
##86
##87
##88
##89
##9
##90
##91
##92
##93
##94
##95
##96
##97
##98
##99
$
%
&
'
(
)
*
+
,
-
.
/
0
00
000
001
01
02
03
04
05
06
07
08
080904
09
1
10
100
1000
1007
101
1016
1017
102
103
104
105
106
107
108
1080
109
1093
11
110
1100
111
1111
112
113
114
115
116
117
118
119
12
120
1200
121
122
123
124
125
126
127
128
129
13
130
1300
131
132
133
134
135
136
137
138
1380
1384
1385
1386
1387
1388
1389
139
1390
1391
1392
1393
1394
1395
1396
14
140
1400
141
142
143
144
145
146
147
148
149
15
150
1500
151
152
153
154
155
156
157
158
159
16
160
1600
161
1612
162
163
164
165
166
167
168
169
17
170
1700
171
172
173
174
1741
175
176
177
1772
1776
178
1788
1789
179
1790
1796
1797
1799
18
180
1800
1801
1802
1803
1807
1808
181
1812
1813
1814
1815
1817
1818
1819
182
1820
1822
1826
1828
1829
183
1830
1831
1832
1834
1836
1837
1839
184
1840
1841
1844
1845
1846
1847
1848
1849
185
1850
1851
1852
1853
1854
1855
1856
1857
1858
1859
186
1860
1861
1862
1863
1864
1865
1866
1867
1868
1869
187
1870
1871
1872
1873
1874
1875
1876
1877
1878
1879
188
1880
1881
1882
1883
1884
1885
1886
1887
1888
1889
189
1890
1891
1892
1893
1894
1895
1896
1897
1898
1899
19
190
1900
1901
1902
1903
1904
1905
1906
1907
1908
1909
191
1910
1911
1912
1913
1914
1915
1916
1917
1918
1919
192
1920
1921
1922
1923
1924
1925
1926
1927
1928
1929
193
1930
1931
1932
1933
1934
1935
1936
1937
1938
1939
194
1940
1941
1942
1943
1944
1945
1946
1947
1948
1949
195
1950
1951
1952
1953
1954
1955
1956
1957
1958
1959
196
1960
1961
1962
1963
1964
1965
1966
1967
1968
1969
197
1970
1971
1972
1973
1974
1975
1976
1977
1978
1979
198
1980
1981
1982
1983
1984
1985
1986
1987
1988
1989
199
1990
1991
1992
1993
1994
1995
1996
1997
1998
1999
2
20
200
2000
2001
2002
2003
2004
2005
2006
2007
2008
2009
201
2010
2011
2012
2013
2014
2015
2016
2017
2018
2019
202
2020
2021
2022
203
2039519
204
205
206
207
208
209
21
210
211
212
213
214
215
216
217
218
219
22
220
221
222
223
224
225
226
227
228
229
23
230
2307
231
232
233
234
235
236
238
24
240
242
243
244
246
247
248
249
25
250
2500
251
252
253
255
256
258
26
260
261
262
263
264
265
267
268
269
27
270
271
272
273
274
275
276
277
278
28
280
281
283
284
286
287
289
29
290
292
295
296
3
30
300
3000
301
304
305
306
307
308
31
310
311
312
313
316
317
319
32
320
324
33
330
331
333
335
34
340
345
35
350
36
360
365
37
370
375
38
380
382
388
39
390
393
395
4
40
400
406
41
410
414
415
416
417
42
420
43
430
44
440
45
450
46
460
47
470
474
48
480
49
5
50
500
51
52
520
521
53
54
55
550
56
560
57
58
580
59
6
60
600
601
61
610
612
618
62
625
63
630
6356
64
65
650
651
66
665
67
674
68
684
69
7
70
700
7000300000000000000
71
72
73
74
75
750
7553
76
77
78
79
8
80
800
81
8108
82
83
84
84596
85
850
85291
86
869833
87
88
89
9
90
900
91
92
93
94
95
950
96
97
975
978
98
99
9952
:
;
<
=
>
?
@
[
\
]
^
_
`
a
aa
aaron
ab
abbas
abbott
abbrev
abc
abd
abdel
abdul
abdulaziz
abdulla
abdullah
abe
abel
aberdeen
abi
abidjan
ablower
about
above
abprs
abraham
abs
abu
ac
academic
academy
access
accessdate
accessed
accident
accomplishments
according
account
accounts
accurate
ace
acetate
achievement
acid
acl
acquired
acres
across
act
acting
action
active
activist
actor
actors
actress
acts
ad
ada
adam
adamo
adams
adda
addison
addition
additional
address
adds
adel
adelaide
adi
adler
administers
administration
administrative
administrator
admiral
adnan
adolf
adolfo
adolph
adolphe
adrian
adriano
adulyadej
advance
advanced
adventures
advisor
advisors
advocate
adygea
ae
aerospace
af
afc
affairs
affiliation
affiliations
afghan
afghanistan
afi
africa
african
afs
aftenposten
after
ag
again
against
age
aged
agency
agent
aglais
agnes
ago
agreement
agriculture
aguilar
ah
ahead
ahfs
ahmad
ahmed
ahmet
ai
aid
ain
air
aircraft
aires
airport
aise
ait
ajuntament
ak
akihito
akira
al
ala
alabama
alain
alan
alaska
alba
albania
albany
albert
alberta
alberto
albion
albrecht
album
albums
alcaraz
alcohol
aldo
aldrich
alec
alegre
alejandro
aleksandr
aleksandro
aleppo
alessandro
alex
alexa
alexander
alexandra
alexandre
alexandria
alexis
alf
alfonso
alfred
alfredo
alge
algeria
alguazas
ali
aliabad
alias
alice
alicia
align
alison
alistair
all
allan
allen
alliance
allied
allison
allmovie
allmusic
allowed
alma
almeida
almost
along
alonso
alpha
alphonse
also
alt
alta
altai
alternative
although
alto
aluminium
alumni
alves
alvin
am
amanda
amar
amazon
ambassador
amber
ambrose
ame
amended
amending
amendment
america
american
americans
ames
amherst
amin
amine
amino
amir
ammonium
amon
among
amos
amsterdam
amur
amy
an
ana
analysis
ancestry
ancient
and
anders
andersen
anderson
andersson
andhra
andrade
andre
andrea
andreas
andreeva
andrei
andrew
andrews
andy
angel
angela
angeles
angelo
anglican
anglo
angola
angus
ani
animated
animation
anime
anita
ankara
anker
ann
anna
annals
anne
annette
annie
anniversary
announce
announced
announces
annual
anos
another
ans
anthem
anthony
anthozoa
anti
anto
antoine
anton
antonio
anuarul
any
aoki
ap
appearance
appearances
apple
appointed
approximate
apr
apre
april
aq
ar
ara
arab
arabia
arabic
aras
arc
arcadia
archaeologist
archbishop
archdiocese
archdruid
archer
archibald
archie
architect
architecture
archive
archived
archivedate
archives
archiveurl
archontology
are
area
areas
arena
argentina
aria
ariel
arizona
arkansas
arkhangelsk
arlington
armagh
armand
armando
armed
armenia
armenian
armenians
arms
armstrong
army
arne
arnold
around
arrondissements
arroyo
ars
arsenal
art
arthur
article
articles
artist
artists
arts
artur
arturo
arvid
arxivləs
as
asa
asadabad
ash
ashland
ashley
ashton
asia
asian
asp
aspx
assembly
assist
assistant
associated
association
associations
aston
astrakhan
astronomer
astronomy
at
atatu
athens
athlete
athletic
athletics
atkins
atkinson
atlanta
atlantic
atlas
atle
attack
attacks
attempt
attorney
au
aubrey
auburn
audio
audrey
auf
aug
august
augusta
auguste
augusto
augustus
aurora
austin
australia
australian
austria
austrian
author
authorities
authority
authormask
authors
auto
automobile
automotive
autonomous
autumn
av
available
avengers
average
avery
aviation
avropa
award
awarded
awards
away
axel
ay
aydın
az
azad
azerbaijan
azerbaijani
azerbaycan
azeri
aziz
aztelekom
azərb
azərbaycan
b
ba
baba
baby
back
background
bacon
bad
badajoz
baden
bafta
bag
bahadur
bahrain
bailey
baird
baker
baku
bakı
bal
bala
balance
baldwin
balfour
ball
baltimore
ban
band
bandera
bands
bang
bangladesh
bank
banks
baptist
baptiste
bar
barb
barbara
barber
barbus
barcelona
barclay
barclays
barium
barker
barlow
barnard
barnes
baron
baroness
baronet
barr
barra
barrett
barrie
barros
barry
bartlett
barton
bas
base
baseball
based
bashir
bashkortostan
basic
basil
basin
basketball
bass
bates
bath
batman
battle
battles
bauer
bavaria
baxter
bay
bayer
bayern
bb
bbc
bc
bdfutbol
be
bea
beach
bear
beat
beatrice
beaumont
beautiful
beauty
beaver
bec
became
because
beck
becker
become
becomes
bedford
bee
been
beer
before
beginning
begins
behind
being
beirut
bel
belgian
belgium
belgorod
bell
bella
bellamy
belle
belo
ben
bend
bender
benedict
benes
bengal
beni
benin
benito
benjamin
bennett
benny
benson
bentley
benton
ber
berg
bergen
berger
bergman
berkeley
berlin
bernard
bernardo
bernd
bernhard
bernie
bernstorff
beroun
berry
bert
bertrand
bes
best
bet
beta
beth
better
betty
between
beverly
bevo
bey
beydili
beyond
bfi
bharat
bhumibol
bi
biała
bibcode
bielsk
big
biggest
bihar
bild
bill
billboard
billington
billion
billy
bin
bingham
bio
biografisk
biographical
biography
biologist
bir
birch
bird
birds
birger
birinchi
birinci
birmingham
birth
birthday
births
bis
bishop
bjarne
bjo
bjørn
black
blackburn
blackwell
blackwood
blair
blake
blanchard
blanco
blank
blansko
blind
bliss
block
blog
blogspot
blood
bloom
bloomberg
bloomfield
blu
blue
blues
bluff
bna
bo
board
bob
bobby
boca
body
boko
bolagh
bold
boleslav
bolivia
bologna
bolshaya
bolshoye
bolton
bombing
bon
bond
bone
bonnie
book
books
booth
bor
bordala
border
borders
boris
born
borough
bosnia
boss
boston
bosworth
bot
botanist
both
bottom
boulder
boulenger
boundaries
bournemouth
bowen
bowman
box
boxer
boy
boyd
boyle
boys
boz
br
bra
brad
bradford
bradley
brady
brahim
bram
branch
brand
brandenburg
brandon
brands
brandt
brasil
brasileiro
brazil
brazilian
break
breaking
brenda
brendan
brennan
brent
brentford
brett
brewer
brewster
brian
bridge
bridges
brief
brieflistsearch
brien
briggs
bright
brighton
brill
brisbane
bristol
britain
britannica
british
brittany
brno
bro
broadcast
broadcaster
broadcasting
broadway
brod
broken
bromide
brook
brooke
brooklyn
brooks
bros
brosnan
brother
brothers
browa
brown
browne
browning
bruce
bruno
brunswick
bryan
bryansk
bryant
bryce
brzez
bu
buchanan
buck
buckley
bud
buddhism
buddhist
buddy
bude
budget
budy
buena
buenos
buffalo
building
built
bulgaria
bulgarian
bull
bulletin
bullock
bundesliga
bureau
buren
burgess
burgos
burke
burkina
burlington
burnett
burnley
burns
burt
burton
buryatia
bus
bush
business
businessman
businessweek
but
butch
butler
butyl
buxton
by
byrne
byron
byzantine
c
ca
cabinet
cadmium
caesar
caf
cairo
calabria
calciatori
calcio
calcium
calculating
caldwell
caleb
calendar
california
caliphate
call
called
calvin
cambodia
cambridge
camden
came
cameron
cameroon
camille
camp
campaign
campaigns
campania
campbell
campeonato
campo
campos
campus
camus
can
canada
canadas
canadian
canal
canario
canavese
cancer
candidate
cannon
canterbury
canton
canyon
capacity
cape
capital
capitol
capitolandwashington
capo
caps
captain
caption
captured
car
carbon
carbonate
card
cardiff
cardinal
care
career
carey
caribbean
carl
carleton
carlo
carlos
carlson
carlton
carmen
carmichael
carmona
carnegie
carney
caro
carol
carole
carolina
caroline
carolyn
carpenter
carr
carrie
carroll
carson
carter
cartoonist
carvalho
cary
casa
casablanca
case
cases
casey
cash
cassidy
cast
castel
castello
castelnuovo
castiglione
castile
castillo
castle
castro
casts
casualties
casualty
cat
catalog
catalogue
catalogueoflife
catalonia
catalunya
categories
category
catherine
catholic
caucasus
cause
cave
cb
cbc
cbn
cbs
cc
cd
cdp
ce
cecil
cecilia
cedar
celebrity
celt
celtic
cemetery
census
censuses
censusindia
center
centers
central
centre
centuries
century
centurycomm
ceo
cest
cet
cf
cfm
ch
cha
chad
chairman
chak
challenge
chamber
chamberlain
chambers
champion
champions
championship
chan
chancellor
chandler
chang
change
changed
changes
channel
chao
chapel
chapman
chapter
character
characteristics
charge
charity
charles
charleston
charlie
charlotta
charlotte
chart
charter
charts
chase
che
check
chelsea
chembox
chemical
chemist
chemistry
chen
cheng
cherry
chess
chester
chi
chia
chiang
chiba
chicago
chief
child
children
chile
chin
china
chinese
ching
chloride
chloro
cho
choi
choice
chris
christensen
christian
christie
christina
christine
christmas
christoph
christopher
chromium
chronicle
chronology
chse
chu
chuck
chukotka
chun
chung
church
churchill
ci
cia
cid
cielne
cild
cilt
cin
cindy
cinema
cio
circle
citation
cite
cities
citizen
citizens
citizenship
citrus
city
citypopulation
ciudad
civic
civil
civilization
ck
claim
claims
clair
claire
clara
clare
clarence
clark
clarke
class
classic
classical
classification
claude
claudia
claudio
claus
clay
clayton
cle
clear
clement
clemente
clements
clergyman
clerk
cleveland
cliff
clifford
clifton
climate
clinical
clint
clinton
clio
clive
clodfelter
close
closed
closing
club
clube
clubs
clyde
cm
cn
cnidaria
cnn
co
coa
coach
coalition
coast
coat
coauthors
cobalt
cobb
coca
code
codes
coffee
cohen
cola
cold
cole
coleman
colin
collected
collection
collections
college
colleges
collins
colombia
colon
colonel
colonial
colonies
colony
color
colorado
colors
colspan
columbia
columbus
column
com
combatant
combined
come
comedian
comedy
comes
comic
coming
command
commander
commentary
commerce
commercial
commission
commissioner
commissioners
commissions
committee
commodore
common
commonfund
commons
commonwealth
commune
communes
communication
communications
communist
communities
community
communityprofiles
como
companies
companion
company
comparative
compare
compared
competition
competitions
competitive
complete
complex
component
composer
composition
computer
comte
comune
comuni
con
concacaf
concert
concord
conductor
confederate
confederation
confederations
conference
confirmed
confirms
conflict
congo
congress
congressional
congressman
connecticut
connell
connie
connolly
connor
conor
conquest
conrad
conservative
considered
consolidated
constance
constantine
constantinople
constituency
constitution
constitutional
construction
consultant
contact
contemporary
content
contest
contested
continental
contract
control
convention
conway
cook
cooke
cool
coolidge
cooper
coordinates
copa
copper
copy
corbett
corbin
core
corey
cork
cornelius
cornell
corner
coronavirus
corp
corporate
corporation
corps
costa
costello
cotton
could
council
councillors
count
countess
counties
countries
country
counts
county
coupe
course
court
courtier
courtney
courts
cove
cover
covid
cox
craig
crane
crash
crawford
crayola
crc
creation
credits
creek
cret
crew
cricketer
crime
crimea
crimean
criminal
crisis
cristina
critic
critical
critics
croatia
croatian
croc
crop
cropped
crosby
cross
crossing
crown
crusade
cruz
crystal
cs
cst
ct
ctor
cu
cuadros
cuba
cubozoa
cullen
cultural
culture
cumann
cummings
cunningham
cup
cups
cure
curlie
current
currie
curtis
custom
cut
cutler
cyclist
cynthia
cyprus
cyril
cyrus
cz
czarna
czech
d
da
dag
dahl
dai
daily
daisuke
daisy
dakota
dale
dallas
dalrymple
dalton
daly
dam
dame
damien
dan
dana
dance
dancer
dancing
daniel
danielle
daniels
danilo
danish
danny
dar
dark
darling
darren
dartmouth
darwin
daryl
das
dash
data
database
date
datei
dates
dati
daughter
dave
davenport
david
davidson
davies
davis
dawn
dawson
day
days
daytime
dayton
db
dc
ddocname
de
dead
deadline
deadurl
deal
dean
death
deaths
debbie
deborah
debut
dec
decatur
december
decision
declaration
declared
dee
deep
deer
default
defence
defense
definition
definitions
dei
dek
del
delaware
delhi
dell
della
delle
delta
dem
democracy
democratic
democrats
demographic
demographics
demography
demoscope
den
denis
denise
denmark
dennis
density
denver
department
deputy
der
derby
derek
dergisi
des
desert
design
designated
designer
desmond
despite
detail
detailed
details
detective
detroit
deutsch
deutsche
deutschland
developer
development
devon
dewey
dexter
dfb
dfl
di
dia
dialect
diamond
diana
diane
diaspora
dick
dickinson
dickson
dictionary
did
die
died
diego
dies
diet
dieter
difference
different
digest
digital
dihydro
dihydroxy
dil
dili
dilleri
dillon
dimethyl
din
dino
dio
diocese
dione
dioxide
diplomacy
diplomat
dir
direct
director
directorate
directors
directory
dirilib
dirk
disco
discography
discogs
discovery
disease
disney
displaystyle
dispute
distance
distribution
district
districts
diversity
divisio
division
divisions
dixon
dj
dk
dna
do
dobson
doc
doctor
doctoral
document
documentary
documents
dodge
does
dog
doherty
doi
dollar
dolna
dolne
dolni
domain
domaz
domestic
domingo
dominic
dominique
don
donald
donaldson
dong
donna
donnell
donovan
doris
dorothy
dos
douard
double
doubleday
doug
douglas
douglass
dover
down
download
doyle
dp
dr
drake
drama
dramatist
draw
drawn
dream
dreams
drew
driver
drug
drugs
drummer
drummond
drums
dst
dte
dteverband
du
duane
dub
dublin
duc
duchess
dudley
due
duff
duffy
dugan
duke
dumbarton
dumont
duncan
dundee
dunn
dunne
durham
during
dutch
duz
dvd
dwight
dwo
dylan
dynastie
dynasty
dz
dəniz
e
each
eagle
earl
earle
early
earth
east
easter
eastern
easton
eastwood
eaton
ebi
ec
echo
economic
economics
economist
economy
ed
eddie
eddy
edebiyatogretmeni
eden
edgar
edge
edilməsi
edinburgh
edison
edited
edith
edition
editor
editores
editors
edmond
edmund
eds
edu
eduard
eduardo
education
educational
educator
edvard
edward
edwards
edwin
efefef
effective
effects
efl
egan
egil
egypt
egyptian
eight
eileen
einar
eisenhower
eisteddfod
ek
el
elaine
elder
eleanor
elected
election
elections
electoral
electric
electronic
elena
elevation
elgin
eli
elias
elisabeth
eliza
elizabeth
ella
ellen
elliot
elliott
ellis
elm
elmer
elo
eloratings
em
emanuel
embed
emerson
emi
emil
emile
emilia
emilio
emily
emir
emirates
emma
emmanuel
emmy
emmyonline
emmys
emperor
emperors
empire
empress
empty
en
encyclopaedia
encyclopedia
encyclopædia
end
ended
endowment
energy
eng
engineer
engineering
england
english
enrico
enrique
enrollment
ensiklopediyası
enter
entered
enterprise
enterprises
entertainer
entertainment
entrance
entrepreneur
entry
environment
environmental
ep
ephcont
epic
episode
episodes
er
era
eric
erich
ericsson
erik
eriksen
erin
eris
erling
ernest
ernesto
ernie
ernst
erov
error
erskine
erwin
es
esa
escape
eska
eske
espan
espn
essays
essential
essex
est
esta
established
establishment
estadi
estadio
estate
estates
esteban
esteghlal
esther
estimaciones
estimate
estimated
estimates
estonia
estonian
et
ether
ethiopia
ethnic
ethnicity
ethnologue
ethyl
eu
euge
eugen
eugene
euro
europa
europe
european
eurostat
eurovision
ev
eva
evan
evans
eve
evelyn
even
evening
event
events
ever
everett
everton
every
everything
evic
evidence
evolution
ew
ex
excel
excerpt
exchange
exclusive
executed
executive
expansion
experience
experimental
explorer
express
external
extra
extraordinary
eye
eyes
ez
f
fa
fabian
face
facebook
facilities
fact
factbook
factfinder
factor
facts
faculty
fahad
failure
fair
fairfax
fairfield
fairview
faisal
faith
falcon
fall
fallon
falls
fame
families
family
famous
fan
fangoria
fans
fantasy
far
farm
farmer
farmington
farrell
fashion
faso
fast
father
favorite
fay
fc
fe
feature
features
featuring
feb
february
fectures
federal
federation
federico
feed
felipe
felix
female
feminist
fenton
ferdinand
ferguson
ferna
fernandes
fernando
ferreira
festival
ff
fi
fianna
fiction
field
fields
fifa
fifth
fight
fighter
fighters
fighting
figure
figures
file
files
filip
filipino
film
filmmaker
filmography
films
final
finals
finance
financial
find
fine
finish
finland
finn
fiona
fips
fire
first
fiscal
fischer
fish
fisher
fitzgerald
fitzpatrick
five
fixtures
fk
fl
flag
flanagan
flash
flat
fleming
fletcher
fleuve
flight
flint
flora
florence
flores
florida
flower
flowers
floyd
fluoride
fluss
flying
flynn
fm
fo
focus
foley
foliage
folk
following
font
fontsize
food
foot
football
footballdatabase
footballer
footballers
footnotes
for
forbes
force
forces
ford
fordham
foreign
forest
fork
form
format
formation
former
forrest
fort
fortune
forum
forward
foster
found
foundation
founded
founder
four
fourth
fowler
fox
fr
frac
franc
france
frances
francesco
francis
francisco
franco
frank
franklin
frans
franz
fraser
fre
fred
freddie
frederic
frederick
frederik
fredrik
free
freedom
freeman
french
frey
friday
friedman
friedrich
friend
friendly
friends
fritz
friuli
from
front
frost
fruit
fry
ft
fu
fukushima
full
fuller
fulton
fun
fund
funk
further
fussballdaten
futbol
futebol
futsal
future
fy
fz
fəxri
g
ga
gaa
gabriel
gabrielle
gaddafi
gael
gaelic
gail
galaxy
gale
gallagher
gallery
galway
game
games
gandhi
gang
gao
gap
garci
garcia
garden
gardens
gardner
gareth
garfield
garland
garner
garrett
garry
gary
gas
gaston
gate
gates
gattung
gavin
gay
gaza
gazette
gazetteer
gb
gc
gct
gd
gdp
ge
gen
gene
genealogy
general
generalitat
generation
generic
geneva
gennaio
genocide
genre
geo
geoff
geoffrey
geographic
geography
geological
geologist
geonames
georg
george
georges
georgetown
georgia
ger
gerald
geraldine
gerard
gerd
gerhard
germain
german
germany
gerry
get
gets
ghana
ghost
gi
giacomo
giant
gibb
gibbs
gibson
gif
gifford
gil
gilbert
gill
gilles
gillespie
gilmore
gina
gini
gions
giorgio
giovanni
girl
girls
gitashenasi
giuseppe
give
given
gives
gks
gladstone
glasgow
glass
glen
glenda
glendale
glenn
global
globaldatalab
globe
globo
gloria
glory
glover
gma
gmin
gmina
gniezno
gnis
go
goal
goalkeeper
goals
god
godavari
goddard
godfrey
gods
goes
going
gol
gold
goldberg
golden
golfer
gomes
gomez
gonc
gonza
gonzalez
gonzalo
good
goodman
goodwin
google
gordon
gore
gos
gospel
gostyn
got
gould
gov
government
governor
governorate
governors
govoffice
gołdap
gr
gra
grace
grad
graduate
grady
graeme
graf
graham
gram
grammy
grand
grande
grant
grave
graves
graveyards
gray
gre
great
greater
greatest
greece
greek
green
greene
greenwood
greg
gregg
gregory
grey
griffin
griffith
griffiths
grimes
gro
grodzisk
gross
ground
group
groups
grove
grover
growing
growth
grupo
gryazovetsky
gu
guam
guard
guardian
guatemala
gue
guerra
guest
guez
guide
guido
guild
guillaume
guillermo
guinea
guinness
guitar
guitarist
gujarat
gulf
gun
gunn
gunnar
guntur
gurdaspur
gus
gustaf
gustav
gustave
gustavo
gustavus
gutenberg
guthrie
guy
gymnast
h
ha
haakon
haaretz
haber
had
hadi
hagen
hahn
hai
hajno
hal
hale
haley
half
hall
ham
hamad
hamas
hamburg
hamid
hamilton
hamlet
hammer
hammond
hampshire
hampton
han
hancock
hand
handbook
hanja
hanna
hannah
hanover
hans
hansen
hanson
happened
happy
haqqında
hara
harald
haram
harbor
harbour
harcourt
hard
harding
hardy
harley
harmony
harold
harper
harriet
harrington
harris
harrisburg
harrison
harry
hart
hartford
hartley
harv
harvard
harvey
haryana
has
hasan
hashim
hassan
hastings
hat
have
haven
havli
hawaii
hawkins
hawley
hay
hayashi
hayden
hayes
hazel
hbo
hdi
he
head
headline
headquarters
heads
health
healy
heart
hearts
heath
heather
heaven
heavy
hector
hedvig
hee
height
heights
heinrich
heinz
held
helen
helena
helge
hell
helle
helmut
help
henderson
hendrik
henning
henri
henrik
henrique
henry
her
herald
herbert
here
heritage
herman
hermann
herna
hero
heroes
herrera
herrick
herzegovina
hesse
hh
hi
hicks
hidden
hide
higgins
high
higher
highest
highland
highlands
highlights
hilary
hill
hills
hilton
him
hindu
hip
hirohito
hiroshi
hiroshima
hiroyuki
his
histo
historia
historian
historic
historical
history
hit
hits
hiv
hjalmar
hl
ho
hockey
hodges
hodoni
hoffman
hoffmann
hogan
hokkaido
hold
holden
holding
holdings
holiday
holland
holly
hollywood
holm
holmes
holstein
holt
holy
home
honda
honduras
hong
honor
honored
honorific
honors
hood
hoover
hop
hope
hopkins
hor
hora
horace
horizonte
horn
horni
horror
horse
horst
horton
hospital
hossain
hossein
host
hosts
hot
hotel
houghton
hour
house
household
housing
houston
how
howard
howe
howell
however
hr
hradec
hradis
hsu
htc
htm
htmarchived
html
http
https
hu
huang
hubbard
hubert
hudson
huffington
hugh
hughes
hugman
hugo
hui
hull
human
hume
humphrey
hung
hungarian
hungary
hunger
hunt
hunter
huntington
hurler
hurley
hussain
hussein
huta
hutchinson
hutton
hvem
hwang
hyde
hydride
hydroxide
hydroxy
hydrozoa
hyo
hyun
hyundai
i
iain
ian
ibdb
ibn
ibrahim
ic
ice
iceland
ichi
ichu
icon
id
ida
idaho
idarəsinin
idc
idcplg
idcservice
identification
identifiers
identity
idol
ie
if
ign
ignacio
ignored
igor
ii
iii
il
ili
illinois
illustrated
illustrator
ilə
im
image
images
imagesize
imdb
imf
img
immigration
imov
impact
imperial
impero
important
impulse
in
ina
inc
inchi
include
included
includes
including
income
incorporated
incorporation
incorporations
indec
independence
independent
index
india
indian
indiana
indianapolis
indie
indiewire
indonesia
indonesian
industrial
industrialist
industries
industry
ine
influence
influenced
influences
info
infobox
informasiya
informatics
information
ing
ingrid
inhabitants
inquirer
insee
inside
insse
instagram
institut
institute
institution
institutional
institutions
instituto
instrument
int
intelligence
inter
interactive
intercontinental
interim
interior
international
internationale
internationally
internet
interscope
interview
into
introduction
invalid
invasion
inventor
investment
investor
iodide
ion
iowa
ipl
iplstats
ir
ira
iran
iranian
iranica
iranleague
iraq
iraqi
ireann
ireland
irene
iris
irish
iron
irvine
irving
irwin
is
isa
isaac
isabel
isabella
isbn
ishikawa
isil
isis
islam
islamic
island
islands
isle
ismail
israel
israeli
issn
issue
issues
istanbul
istat
istituto
it
italia
italian
italiana
italiane
italic
italy
ito
itogi
its
itunes
iucn
iv
ivan
ivar
ivlendi
ivo
ivor
ivory
ix
iyun
iz
j
ja
jaber
jack
jackie
jackson
jacob
jacobs
jacobsen
jacobson
jacqueline
jacques
jae
jahre
jaime
jake
jakob
jalandhar
jam
jamaica
jamal
james
jamie
jan
jane
janet
jano
january
japan
japanese
jared
jarvis
jason
jasper
jassim
javascript
javier
jay
jazeera
jazz
je
jean
jeanne
jeff
jefferson
jeffrey
jena
jenkins
jennifer
jennings
jenny
jens
jensen
jeremiah
jeremy
jerome
jerry
jersey
jerusalem
jesse
jessica
jesu
jesuit
jesus
jet
jewel
jewish
jews
jezd
jfa
ji
jiang
jic
jihlava
jild
jill
jim
jime
jimmy
jin
jindr
jleague
jo
joa
joachim
joan
joanna
joanne
joaqui
joaquim
job
jodi
joe
joel
joey
johan
johann
johannes
johansen
john
johnny
johns
johnson
johnston
join
joins
joint
jon
jonas
jonathan
jones
jong
jordan
jordi
jorge
jose
josef
joseph
josephine
josh
joshua
josiah
journal
journalist
journey
jov
jovice
joy
joyce
jp
jpeg
jpg
jr
jstor
ju
juan
judge
judith
judy
jul
jules
julia
julian
julie
julio
julius
july
jun
junction
june
juneau
jung
junior
jurist
just
justice
justin
juventus
jørgen
jørgensen
k
ka
kafatı
kai
kaiser
kaithal
kalan
kamal
kamerun
kamien
kan
kanagawa
kand
kandi
kane
kang
kansas
kapurthala
kara
karel
karen
kari
karim
karin
karl
karnataka
kat
kate
katherine
kathleen
kathryn
kathy
katie
kato
katy
kay
kaynag
kazakhstan
kb
ke
keating
keeper
keisuke
keith
keller
kelley
kelly
kelvin
kemal
ken
kendall
kenji
kennedy
kenneth
kenny
kent
kentucky
kenya
kerala
kerman
kerr
kerry
kestenbaum
kevin
key
keyboards
keynes
keys
khaled
khalid
khalifa
khamenei
khan
khurd
ki
kick
kicker
kid
kids
kilkenny
kill
killed
kim
kimberly
kimura
kindai
king
kingdom
kings
kingston
kirby
kirk
kirsten
kiss
kit
kjell
klaus
klein
km
kne
knight
knopf
know
knowledge
knowles
known
knox
knudsen
knut
ko
kobayashi
koch
kohei
koji
kolonia
kon
kong
konrad
konstantin
konversationsleksikon
korea
korean
kos
kosovo
kota
kov
kovice
koz
kr
kra
krai
krais
kramer
krasny
krishna
kristen
kristian
kristin
kro
krome
ku
kumar
kunnskapsforlaget
kuo
kurdish
kurdistan
kurds
kurt
kus
kutna
kuwait
kuyavian
kwame
ky
kyle
l
la
lab
label
labor
labour
labrador
lady
lafayette
lafur
lagos
laird
lake
lakes
lal
lamar
lamb
lambert
lancaster
lance
land
landing
landowner
lands
landscape
lane
lang
lange
language
languages
lanham
lanka
laos
lar
lara
large
largest
larry
lars
larsen
las
last
lastauthoramp
late
later
latest
latestreleased
latin
launch
launches
laura
laureates
laurel
lauren
laurence
laurent
laurie
law
lawrence
laws
lawson
lawyer
lazio
ld
le
lea
lead
leader
leaders
leadership
leading
leads
leaf
league
leandro
learning
least
leaves
lebanon
led
ledger
lee
leeds
left
leg
legacy
legal
legend
legislative
legislature
leicester
leiden
leif
leigh
leighton
leksikon
len
lena
lent
leo
leon
leonard
leonardo
leone
leonid
leopold
leroy
les
lesley
leslie
lesser
lester
let
letter
letters
level
levi
levine
levy
lewis
lexington
leyman
lez
lg
lham
lhota
li
lia
liam
liberal
liberation
libertadores
liberty
libraries
library
librivox
libya
lice
lie
lieutenant
life
lig
liga
light
ligue
ligure
like
lil
lily
lim
lima
limerick
limited
lin
lincoln
linda
lindsay
line
ling
linguist
linguistic
link
links
lio
lion
lionel
lisa
lisbon
lise
list
listed
listing
listofseas
lists
literary
literature
lithium
little
littlefield
liu
live
liverpool
lives
living
livingston
lix
liz
lka
ll
llc
ller
lloyd
lo
loc
local
localities
locality
located
location
locations
locke
lodge
lodhi
log
logan
logo
lois
lombardy
london
long
longitude
look
lookup
lopes
lopez
lord
lorenzo
lori
lorraine
los
loss
losses
lost
lou
louis
louise
louisiana
louny
love
low
lowe
lowell
lower
lowry
ltd
lu
lublin
lubusz
luc
luca
lucas
luciano
lucien
lucy
ludvig
ludwig
lui
luigi
luis
luiz
luke
lumia
luna
lund
luther
luxembourg
luz
lvarez
lvaro
lydia
lyman
lynch
lyndon
lynn
lynne
lyon
lyons
lı
m
ma
mac
macau
macdonald
macedonia
machado
machine
mack
mackay
mackenzie
maclean
macmillan
mad
made
madeleine
madison
madrid
mae
magazine
maggie
magic
magnesium
magnitude
magnolia
magnus
maharashtra
maher
mahmoud
mahmud
mai
mail
main
maine
mainstream
maint
major
majority
make
makes
making
makoto
maktoum
malaya
malaysia
malaysian
malcolm
male
malformed
mali
malik
malone
man
management
manager
manchester
mandal
mandate
manganese
manhattan
manila
manitoba
mann
manning
mannix
manor
mansfield
manson
manual
manuel
many
mao
map
mapdata
maple
maps
mapsize
mar
mara
marano
marc
marcel
marcelo
march
marco
marcos
marcus
mare
margaret
marguerite
mari
maria
marian
marianne
mariano
marie
marilyn
marina
marine
mario
marion
marit
marjorie
mark
market
marks
markup
markus
marques
marquess
marquis
mars
marsh
marshal
marshall
mart
martha
marti
martial
martin
martindale
martinez
martino
martins
marty
marvel
marvin
marx
mary
maryland
mas
mascot
mask
mason
masovian
mass
massachusetts
massacre
massey
master
masters
masurian
match
matches
mater
mathematician
mathematics
mathias
matsumoto
matt
matter
matthew
matthews
matthias
maurice
mauricio
mauro
max
maximilian
maximum
maxwell
may
maya
mayer
maynard
mayo
mayor
mayors
mayıs
mazowiecki
mała
małe
mały
mbox
mc
mcbride
mccarthy
mccoy
mcdonald
mcfarland
mcfc
mcgill
mcgrath
mcgregor
mckee
mckenna
mckenzie
mckinley
mclaren
mclean
mcmahon
mcmillan
mcnary
mcnulty
md
me
mead
meadow
meadows
means
mecklenburg
mecon
medal
media
medical
medicine
medien
medieval
medina
mediterranean
medium
meet
meeting
meets
megan
mehdi
mehmet
mei
meiji
mel
melanie
melbourne
melissa
melo
melville
melvin
member
members
memorial
memory
men
mendes
mer
mercer
merchant
mercury
meredith
merriam
merrill
mes
mesa
met
meta
metal
methodist
methoxy
methyl
metro
metropolitan
mexican
mexico
meyer
mez
mi
mia
miami
michael
michel
michele
michelle
michigan
mick
mickey
microsoft
mid
middle
middleton
midway
mie
migration
miguel
mika
mike
mikhail
miksosel
mil
milan
milano
mile
miles
milford
militants
military
militia
mill
miller
milli
million
mills
milton
min
mind
ming
mini
minister
ministers
ministry
minneapolis
minnesota
minor
minorities
minority
minut
minute
minutes
mir
miranda
miriam
miroslav
mirror
mirza
miss
missing
mission
missionary
mississippi
missouri
mit
mitch
mitchell
mitolojisi
mlada
mm
mn
mo
mobile
model
modern
module
moghanshahr
mohamed
mohammad
mohammed
mohd
mojo
molly
mona
monaco
monarch
monarchy
monetary
money
monferrato
monica
monitor
monmouth
monroe
montana
monte
monteiro
montgomery
month
monthly
months
monticello
montreal
monument
moody
moon
moore
mora
morales
moran
more
moreno
morgan
mori
morley
morning
morocco
morre
morris
morrison
morrow
morse
morten
morton
moscow
moses
moshe
moss
most
mosul
mother
motion
motor
motors
motto
mount
mountain
mountains
moussa
move
movement
movie
movies
moyne
mp
mps
mr
mrs
ms
msson
mt
mtv
mu
mubarak
much
mug
mughal
muhammad
muir
multiple
mun
munich
municipal
municipalite
municipalities
municipality
municipi
munro
murder
murderer
murdoch
murphy
murray
musa
museum
music
musical
musician
muslim
must
mustafa
mw
mx
my
myers
mystery
myth
n
na
naacp
nacional
nad
nadu
nagano
nagar
nahyan
nakamura
nakhchivan
nalgonda
nam
name
named
namehangul
names
namibia
nan
nancy
nangal
naoki
naomi
napier
napoleon
nasa
nascimento
nash
nashville
nasr
nasser
nat
natal
natalia
natalie
nathan
nathaniel
nation
national
nationalism
nationalist
nationality
nationalmannschaft
nations
native
nato
natural
naturalist
nature
nav
naval
navbar
navbox
navy
nazionale
nazirliyinin
nb
nbc
nc
nchez
nclm
nd
nderspiele
ndez
ndl
ne
neal
near
nebraska
ned
need
nehri
neighborhood
neighbourhood
neil
neill
nellie
nelson
neo
nepal
nes
net
netflix
netherlands
network
networks
neucha
nevada
never
neves
neville
new
newcastle
newfoundland
newman
newport
news
newspaper
newspapers
newton
next
ney
nez
nft
ng
nga
ngaedheal
ngel
ngilizce
nh
ni
nia
niall
nic
nica
nice
nicholas
nichols
nicholson
nick
nickel
nickelodeon
nickname
nicky
nicola
nicolai
nicolas
nicole
niels
nielsen
nigel
niger
nigeria
night
nigreich
niigata
nik
nikki
nikola
nikolai
nikolay
nil
nils
nilsen
nin
nina
nine
nio
nior
nitrate
niversitesi
nixon
nizhny
nizhnyaya
nj
nkrumah
nl
nlai
nlb
nm
no
noah
nobel
nobelprize
noble
nobleman
noel
nokia
nolan
nominated
nomination
nominations
nominees
nomis
non
none
nora
nord
norfolk
norman
norris
norsk
norske
north
northern
northwest
northwestern
norton
norway
norwegian
norwich
norwood
nos
nostalgia
not
notable
notableworks
note
notes
nottingham
nou
nov
nova
novaya
novelist
november
novgorod
novo
novy
now
nowa
nowe
nowy
noyabr
npa
ns
nsson
nter
nther
nu
nuclear
nuevaweb
nugent
number
numbers
nunavut
nur
nxx
ny
nya
nyc
nytimes
nz
nəs
o
oak
oakland
oaks
obama
obituary
objects
oblast
oblasts
observatory
observer
occupancy
occupation
occurs
ocean
oceania
oclc
oct
october
odd
odore
of
off
offensive
office
officer
officers
offices
official
officially
officials
officiel
offs
offset
og
oh
ohio
oil
ois
oise
ok
oklahoma
okrug
okrugs
oktyabr
ol
ola
olaf
olav
old
ole
oles
oliveira
oliver
olivia
olivier
olof
olomouc
olsen
olson
olya
olympic
olympics
oman
omar
on
once
one
online
only
ons
ontario
opac
open
opened
opening
opera
operation
operations
opole
opposition
or
oral
orange
orchard
orchestra
orchis
order
orders
ordubad
oregon
org
organisation
organization
oriental
origin
original
originally
origins
orlando
orle
orleans
orlici
orr
os
osaka
osborne
oscar
osiek
oskar
oslo
osman
ostanhai
ostanhaye
ostro
other
others
otis
otrs
ottawa
otter
otto
ottobre
ottoman
oued
ouled
our
ourcampaigns
out
outlook
outside
ov
ove
over
overall
overseas
overview
ovice
owen
owens
own
owner
oxford
oxide
oxo
oz
p
pa
pablo
pacific
paddy
pag
page
pages
pagestatus
pahlavi
pain
painter
painting
pak
pakistan
palace
palas
palestine
palestinian
palgrave
palm
palma
palmer
pamela
pan
panama
panchayat
pandemic
panther
paolo
paper
papers
para
paradise
paraguay
parameter
parameters
parbhani
parents
paris
parish
park
parker
parks
parliament
parliamentary
parry
parsons
part
parties
partner
partnership
partof
parts
party
pas
pascal
pass
passes
past
pat
paterson
path
patriarch
patricia
patrick
patrons
patsy
patterson
patton
paul
paula
pauline
paulista
paulo
pavel
paxton
payne
paz
pdf
pdfarchived
pe
peace
peak
pearce
pearl
pearson
peck
peder
pedersen
pedro
peer
peggy
pelhr
pen
penalty
penguin
peninsula
penn
pennsylvania
penny
people
peoples
per
percent
percy
pereira
perepis
perez
perform
performance
performer
performing
period
perkins
perm
perry
persepolis
persia
persian
person
personal
personality
personnel
persons
perspectives
perth
peru
pete
peter
peters
petersburg
petersen
peterson
petski
petter
pez
pfa
pg
ph
pharmacokinetics
phelps
phenanthren
phenyl
phil
philadelphia
philanthropist
philip
philipp
philippe
philippine
philippines
phillip
phillips
philosopher
philosophical
philosophy
phoenix
phosphate
photo
photographer
photos
php
phyllis
physical
physician
physicist
physics
pi
pianist
piano
picture
pictures
piedmont
pierce
pierre
pietro
pieve
pike
pilot
pin
pincode
pine
pines
pink
pino
pinto
pioneer
piper
pires
pitt
pittsburgh
pl
place
placed
places
plains
plan
planet
planning
plans
plant
plate
plates
platinum
play
playbill
played
player
players
playing
playoffs
plays
playwright
plaza
plc
pleasant
plus
plymouth
plzen
pm
pmc
pmid
png
po
poblacio
pocket
pod
podkarpackie
podlaskie
poet
poetry
point
points
pol
polan
poland
pole
police
policy
polis
polish
political
politician
politics
polk
poll
polo
polypodiozoa
pomeranian
ponte
pop
pope
popolazione
popular
population
populations
populism
por
port
portal
portaldisp
porter
portfolio
portland
porto
portrait
portraits
portugal
portuguese
position
positions
possible
possum
post
postal
pot
potassium
potter
poul
powell
power
powers
pp
pr
practice
pradesh
prague
prairie
prasad
pratt
prc
pre
predecessor
pref
prefecture
prefix
prelate
preliminary
premier
premiere
premierleague
premiers
present
presenter
presidency
president
presidential
presidents
press
preston
previous
prezidentinin
price
priest
primary
prime
prince
princess
princeton
principal
principles
print
printing
prior
prison
private
prize
prizes
pro
probable
problems
proceedings
prod
produced
producer
product
production
productions
products
prof
professional
professor
profile
profiles
program
programme
programs
progress
progressive
project
prometheus
promising
promoted
promotion
pronounce
propan
propyl
prospects
proste
provided
providence
province
provinces
provincial
provisional
provost
prussia
pseudonym
psychedelic
psychologist
psychology
pt
pu
pub
public
publication
publications
publique
published
publisher
publishers
publishing
puebla
pueblo
puerto
punjab
punk
purple
pushpin
put
putin
px
q
qaeda
qanunvericilik
qara
qarah
qaraqurd
qareh
qatar
qaynaq
qeshlaq
qing
qrupu
qualification
qualified
qualifiers
qualify
qualifying
quantum
quarter
quarterly
que
quebec
queen
queens
queensland
quentin
quercus
questions
quick
quickfacts
quincy
quinn
quotations
r
ra
rabbi
race
racedetail
raceid
rachel
racing
radar
radical
radio
rae
rafael
ragnar
rahim
rahman
rai
railway
rain
raj
raja
rajasthan
rakovni
ralph
ram
rama
rami
ramo
ramon
ramos
ramsay
ramsey
ran
ranch
rancho
rand
randall
randolph
random
randy
ranga
range
rangers
rank
ranked
rankin
ranking
rankings
rao
rap
rapids
rapor
rapper
rappler
rard
ras
rashid
rasmussen
rate
ratings
ration
rau
ray
raymond
rayonu
rca
rd
re
read
reading
ready
reagan
real
reality
rebecca
rebel
rebellion
rebels
rec
receive
received
recensamantromania
recensement
recent
recipient
recognised
record
recorded
recording
records
red
reddy
redistricting
reed
rees
reeves
ref
referee
reference
referencea
references
reform
refugees
reg
regent
regents
regime
regina
reginald
region
regional
regioni
regions
register
registered
registrar
registration
regno
regular
regulations
reich
reid
reidar
reign
reilly
related
relations
relatives
release
released
releases
relegated
religion
religions
religious
ren
renato
renault
rene
rep
report
reported
reporter
reports
representative
representatives
repubblica
republic
republican
republics
republik
required
requires
res
research
reserve
residence
resident
residente
residents
resistance
resource
resources
respublikası
respublikasının
resting
result
results
resursları
retain
retained
retrieved
return
returns
reuters
rev
revealed
reveals
review
reviews
revised
revision
revisionselectionmethod
revolution
revolutionary
rex
rey
reyes
reynolds
rez
reza
rg
rgen
rgph
rhode
rhodes
rhys
ri
ria
ribeiro
ric
rica
ricardo
rice
rich
richard
richards
richardson
richie
richmond
richter
rick
ricky
rico
ridge
rie
rienne
rigaud
right
rightarrow
rights
riley
ring
rio
rise
rising
rita
ritchie
ritter
river
rivera
riverdale
rivers
riverside
rivie
riyyatı
rk
rkc
rkiye
rkiyə
rn
rna
rnchen
rne
ro
road
rob
robbie
robbins
robert
roberto
roberts
robertson
robin
robinson
robson
roc
rocca
rocha
roche
rochester
rock
rocky
rod
rodney
rodolfo
rodri
rodrigo
rodrigues
rodriguez
roger
rogers
rojas
roland
role
roles
rolf
roll
rollin
rolling
roma
romagna
roman
romania
romanian
romano
rome
romeo
romero
ron
ronald
ronnie
room
rooney
roosevelt
roosta
roostanews
roots
rosa
rose
rosemary
rosen
ross
rossi
roth
rotten
round
routledge
row
rowan
rowland
rowlands
rowman
rowspan
roy
royal
royaume
rs
rsssf
rt
rttemberg
ru
rube
rubin
ruby
rudolf
rudolph
rudy
rufus
rugby
rui
ruiz
rule
rules
run
rupert
rural
rus
rush
russell
russia
russian
russo
ruth
rutherford
rwanda
ry
ryan
rychnov
ryo
rz
s
sa
saad
saakshar
sabah
saeed
safavid
safety
sag
sage
sahara
sahib
sai
said
saint
saitama
saito
sakha
salah
salazar
sale
saleh
salem
sales
salim
salisbury
sally
salman
salmon
salmonsens
salt
salvador
sam
samantha
same
sami
samir
sammy
samoa
samsung
samuel
san
sanchez
sand
sanders
sandra
sandro
sandy
sanford
sang
sant
santa
santana
santiago
santo
santos
sar
sara
sarah
sardinia
sari
sasha
saskatchewan
satellite
sato
saturday
saturn
saud
saudi
saunders
savage
saxe
saxon
saxony
say
sayed
sayfa
says
sayı
sbs
sc
scandal
scar
scarecrow
scene
sch
schedule
scheduled
schmidt
schneider
scho
scholar
scholarly
scholars
school
schools
schro
schultz
schuster
schwartz
schweizer
schweizerischer
sci
science
sciences
scientific
scientist
score
scored
scores
scotia
scotland
scots
scott
scottish
screen
screenwriter
scribunto
sculptor
scyphozoa
sd
se
sea
seal
sean
seanad
search
season
seasons
seat
seattle
sebastia
sebastian
sec
second
secret
secretary
section
securities
security
see
seen
segunda
sek
selected
self
selma
selsoviet
semi
sen
senate
senator
senators
seneca
senegal
senior
sentyabr
seoul
sep
september
serbia
serbian
serge
sergei
sergey
sergio
serie
series
serieslink
serra
servant
served
service
services
serving
session
sessions
set
seth
sets
settlement
settlements
sevastopol
seven
seventh
several
sex
seymour
sezon
sgh
shadow
shah
shakespeare
shane
shanghai
shannon
sharifabad
sharma
sharon
sharp
sharpe
shaun
shaw
shawn
she
sheet
sheffield
sheikh
sheila
shek
sheldon
shell
shelley
shepherd
sheridan
sherman
sherwood
shi
shield
shields
shift
shin
ship
shirley
shirt
shizuoka
sho
shoot
shore
shores
short
shot
should
show
shown
shows
shtml
shu
shuttle
si
sicily
sid
side
sidi
sidney
siege
sierra
sign
signature
signed
signs
sigurd
sikh
silent
silesian
silva
silver
simmons
simon
simone
simpson
sin
sina
since
sinclair
singapore
singer
singh
single
singles
sinn
sir
sister
sisters
site
sites
situation
six
sixty
size
sk
ska
skater
ski
skie
sko
sky
skyline
slam
slave
slstat
sm
small
smart
smet
smith
smyth
snl
snow
snyder
so
soap
soares
soccer
soccerbase
soccerway
social
socialist
society
sodium
sofia
sofla
software
sokolsky
sokoło
solar
soldier
soldiers
solo
solomon
somalia
some
somers
somerset
somerville
son
song
songs
songwriter
sonny
sons
sony
soo
sophia
sophie
soria
sortkey
sortkeyvalue
soul
sound
soundtrack
source
sources
sourehcinema
sousa
south
southampton
southeast
southern
souza
soviet
sp
space
spain
span
spanish
sparks
speaker
speaking
special
species
specified
speech
speeches
speed
spencer
spider
spiegel
spin
spirit
spl
split
spoken
sponsor
sport
sporting
sportmagazin
sports
spouse
spring
springer
springfield
springs
sprouse
spy
sq
squad
squads
square
squirrel
sr
sri
ss
st
sta
stade
stadio
stadion
stadium
stadiums
stadt
staff
stafford
stage
stalin
stan
stanbul
stand
standard
standing
stanford
stanley
stanton
star
stara
stare
stark
starr
starring
stars
start
starting
stary
stat
state
statement
statements
states
statesman
statewide
station
statistica
statistical
statistics
statistik
statistische
stats
statue
status
staurozoa
ste
steel
steele
stefan
stefano
stein
stephanie
stephen
stephens
stephenson
sterling
stern
steve
steven
stevens
stevenson
stewart
sti
stica
stifadə
still
stirling
sto
stock
stockholm
stockton
stoke
stone
store
stories
storm
story
str
strack
straits
strakonice
strange
stranger
strategic
strategy
street
strength
strickland
strike
strikes
strong
structure
struggle
stuart
stub
student
students
studies
studio
studios
study
style
su
sub
subdivision
subdivisions
subject
subjects
submit
subscription
success
succession
successor
such
sudamericana
sudan
sue
suez
suffix
suggested
suicide
sul
sulfate
sulfide
sullivan
sultan
sultanate
sultanpur
sultats
summary
summer
summers
summit
sumner
sun
sunday
sung
suny
super
supercopa
supercoppa
supercup
superficie
support
supreme
sur
surgeon
survey
susan
susanna
suspense
sussex
sutherland
sutton
suzanne
suzuki
svein
sven
sverre
svg
svitavy
swan
sweden
swedish
sweet
swift
swimmer
swiss
switzerland
sworn
sydney
syed
sylvia
symbols
synopsis
syracuse
syria
syrian
system
systems
səh
t
ta
tab
table
tables
tabriz
tactical
taft
tag
taha
tai
taipei
taiwan
takahashi
takahiro
takashi
take
taken
takes
takeshi
takuya
talbot
tale
talent
taliban
talk
talks
tamil
tampa
tan
tanaka
tang
tanks
taoiseach
tara
tarihi
tarihinde
tarixi
tarixində
taro
tasmania
tatar
tate
tauris
taylor
tcm
te
teacher
teachta
team
teams
tech
technical
technologies
technology
ted
teddy
teen
tehran
tel
telegraph
telephone
television
tell
temperature
temple
ten
teng
tennessee
tennis
ter
terence
teresa
term
terme
terms
terrace
territorial
territories
territory
terror
terry
tert
tesla
test
texas
text
textbooks
texts
tez
th
thai
thailand
than
thanjavur
that
the
theater
theatre
their
them
then
theo
theodor
theodore
theologian
theory
there
theresa
these
they
thing
things
third
this
thomas
thompson
thomson
thor
thornton
those
thought
thousand
three
thriller
thrones
through
thumb
ti
tice
tico
tie
tienne
tiger
till
tim
time
timeline
times
timezone
timothy
tin
tina
titanium
title
to
tobias
today
todd
together
tokrzyskie
tokyo
toledo
tom
toma
tomas
tomatoes
tommy
toni
tonight
tony
too
took
top
topic
topics
topography
tops
tor
tora
tore
toronto
torre
torres
torsten
tory
toshkent
total
tottenham
tour
tourism
tournament
tournaments
towards
tower
town
towns
townsend
township
toyota
tr
tra
track
tracy
trade
tradition
traditional
traditions
trail
trailer
train
trainers
training
trans
transfers
translated
translation
translator
transport
transportation
travel
travis
tre
treatment
treaty
tree
trees
trent
trenton
trevor
tribune
trim
trinity
troops
trophy
troy
true
truman
trump
trust
truth
trygve
trzcianka
tsai
tt
ttir
tu
tucker
tuik
tunis
tunisia
turkey
turkic
turkish
turks
turkstat
turnbull
turner
tv
tvguide
tvline
tweet
twentieth
twenty
twilight
twin
twitter
two
tx
ty
tyler
type
tyrone
tyson
tərcu
u
ua
uae
uc
ucc
uefa
uherske
uk
ukraine
ukrainian
ulrich
ulster
ulysses
um
umperk
un
una
und
undated
under
understanding
underwood
unesco
unhcr
uni
union
unionist
unit
united
units
unity
univ
universal
universe
universities
university
unknown
unpo
unrecognized
until
unveiled
up
update
updated
upon
upper
upright
upton
urban
url
uruguay
us
usa
uscensusest
use
used
uses
usgs
using
usnews
usps
ust
utah
utc
uttar
uzbekistan
v
va
vacant
vajiralongkorn
val
vale
valencia
valentin
valentine
valera
valerie
valid
validation
valle
valley
value
values
valverde
van
vance
vancouver
vanessa
var
vargas
variety
various
varzesh
vasco
vashkinsky
vaudreuil
vaughan
vc
ve
vega
vegas
velikoustyugsky
velke
veneto
venezuela
venice
ventura
vera
verde
verilməsi
verkh
verkhny
verkhnyaya
verlag
vermont
vernon
verona
version
vertical
very
ves
veteran
vi
via
vic
vice
vicente
viceroy
victim
victor
victoria
victory
vidal
video
videos
vienna
vietnam
view
vii
viii
viking
viktor
vila
vilhelm
villa
village
villages
villanova
villanueva
villar
ville
vince
vincent
viola
violet
virgin
virginia
virtual
vis
viscount
vision
visit
vista
visual
vito
vivian
vladimir
vlət
vo
vocalist
vocals
voice
voices
voivodeship
vol
volgograd
volleyball
vologda
vologodsky
volume
volumes
von
vote
voyager
vozhegodsky
vs
vy
vys
və
w
wa
wade
wagner
wales
walk
walker
walking
wall
wallace
walnut
walsh
walt
walter
walters
walton
wan
wanamaker
wang
want
war
ward
wards
warfare
warmian
warner
warren
wars
warsaw
warwick
was
washington
watanabe
watch
water
waterford
watford
watkins
watson
watt
watts
wave
way
wayback
wayne
wcm
we
weather
weaver
web
webb
weber
website
webster
week
weekly
wei
weight
weir
weiss
wek
welch
welcome
well
wellington
wells
welsh
wen
wendy
wentworth
were
werner
wes
wesley
wessel
west
western
westminster
weston
westport
westwood
wharton
what
wheeler
when
where
which
whig
while
white
whitehead
whitfield
whitney
who
whose
why
wi
wide
width
wie
wielka
wielki
wielkie
wielkopolski
wies
wife
wiki
wikibooks
wikimedia
wikinews
wikipedia
wikiquote
wikisource
wikiversity
wikivoyage
wiktionary
wilaya
wild
wilde
wilder
wildlife
wiley
wilhelm
wilkes
wilkins
wilkinson
will
willard
willem
william
williams
williamson
willie
willis
willow
willy
wilmot
wilson
win
winchester
wind
windsor
winfield
wing
winner
winners
winning
wins
winston
winter
wisconsin
wise
with
within
without
wka
wko
wo
wola
wolf
wolff
wolfgang
woman
women
won
wong
woo
wood
woodland
woodrow
woods
woodward
word
words
work
workforce
working
workplaces
works
world
worldfootball
worlds
worldwide
worst
worth
would
wounded
wp
wrestler
wright
writer
writers
writing
written
wu
www
wyatt
wyoming
x
xalq
xavier
xi
xifres
xii
xiii
xiv
xix
xls
xperia
xv
xvi
xviii
xx
y
ya
yahoo
yahya
yale
yamaguchi
yamamoto
yan
yang
yao
yas
yayınları
ye
year
yearbook
years
yellow
yemen
yen
yeni
yerevan
yes
yet
yi
yil
ying
yl
yo
yong
york
yorkshire
yoshida
you
young
youngartistawards
younger
your
youssef
youth
youtube
yu
yuan
yugoslavia
yun
yuri
yusuf
yuxarı
yves
z
za
zach
zachary
zagreb
zahir
zavou
zayed
zdro
ze
zealand
zedong
zhang
zhou
zhu
zimbabwe
zimmermann
zinc
zip
zipcode
zli
zlu
zme
znojmo
zo
zoe
zone
zoo
zrə
zs
zu
zur
{
|
}
~
£
§
©
ª
«
¬
­
®
°
±
²
³
·
º
»
½
¿
×
ð
ø
ı
ın
ından
ł
łe
ło
ə
ədliyyə
əfsanə
əli
ʤ
ʰ
ʲ
ʻ
ʼ
ʾ
ʿ
ˈ
ˌ
ː
̀
́
̂
̃
̄
̆
̇
̈
̉
̊
̋
̌
̓
̔
̛
̣
̦
̧
̨
̱
̲
͂
α
β
δ
ε
η
λ
μ
ν
ο
π
ς
а
абзелиловского
августа
автономных
адыгея
азербаи
александровского
алексеевского
алтаи
алтая
альшеевского
аммония
амурскои
архангельского
архангельскои
аскинского
астраханскои
аургазинского
ачского
б
ба
баи
бакалинского
баку
балтачевского
башкортостана
белгородскои
белебеевского
белорецкого
би
бирского
благоварского
благовещенского
более
большая
большое
большои
бромид
брянскои
буздякского
булякского
бураевского
бурятии
бы
в
валуи
вашкинскии
великоустюгскии
верх
верхнии
верхняя
верхова
владимирскои
внесении
во
вои
волгоградскои
вологодскии
вологодскои
волоконовского
времени
всероссии
всесоюзная
вступил
высшая
вытегорского
вычислительныи
вязниковского
г
газета
гафурии
года
город
города
городецкого
городов
городских
гороховецкого
государственнои
грязовецкого
гусь
д
давлекановского
дате
демографии
деревни
днеи
дня
добрянка
домов
дуреченского
дюртюлинского
е
егодского
енского
з
за
закон
закона
зианчуринского
зилаирского
значении
и
иглинского
из
изменении
илишевского
иловлинского
индексов
институт
информации
информационно
исследовательского
истечении
история
исчислении
итоги
ишимбаи
июля
июня
к
ка
кабанского
кадуи
калачевского
календарнои
калия
калтасинского
кальция
камешковского
камышинского
караидельского
кармаскалинского
карта
кир
кирилловского
кислота
кичменгско
ковровского
кольчугинского
консультантплюс
королевство
костопіль
кочевского
крае
красная
краснокамского
красныи
края
кугарчинского
кудымкарского
кумыл
кушнаренковского
куюргазинского
л
ловского
лок
м
мазинского
маи
макскии
малая
ме
меленковского
мелеузовского
мечетлинского
михаи
мишкинского
миякинского
мои
море
муниципальным
мурманскои
муромского
н
на
наличного
народная
населе
населением
населения
натрия
национального
национальныи
нижнии
нижняя
никольского
нных
новая
новоаннинского
новые
новыи
номерами
нуримановского
ныи
нюксенского
о
оасу
об
областеи
области
область
образованиям
объектов
округов
оксид
он
она
онных
онов
опубликован
опубликования
орган
от
официального
п
палласовского
памятник
первомаи
переписи
перепись
пермского
пермском
петушинского
по
поиск
польского
посе
поселении
поселка
после
почта
почтовои
правительство
приток
пунктов
р
раи
распространение
регионам
регионов
ред
река
республик
республика
республике
республики
россии
рпо
с
салаватского
сборник
связи
се
села
селивановского
сельских
серафимовичского
силу
ск
ская
скии
ского
ское
скои
ском
слу
собинского
советская
сокольского
состав
составе
союзных
справочник
среднеахтубинского
старооскольского
старыи
статистики
статистическии
статья
стерлибашевского
стерлитамакского
субъектов
судогодского
суздальского
сульфат
сям
т
татышлинского
территориальныи
том
точном
туи
тысячи
у
улицами
университета
урюпинского
усть
уфимского
учалинского
ф
федеральная
федерального
федеральнои
федеральныи
федеральных
федерации
федоровского
фз
фторид
х
хлорид
хрустального
хутора
центр
центров
ч
чекмагушевского
человек
чернушинского
численность
чишминского
шаранского
шестидесяти
школа
ъ
э
экономики
энциклопедия
эталонныи
ю
юрьев
я
янаульского
января
і
է
ְ
ִ
ֶ
ַ
ָ
ֹ
ּ
א
ה
ו
י
ל
،
؛
؟
ا
اانین
اب
اباد
ابدی
ابراهیم
ابراهیمی
ابرلین
ابرو
ابن
ابهر
ابو
ابوالحسن
ابوالقاسم
ابوت
ابوظبی
ابومسلم
ابی
ات
اتان
اتانول
اتدی
اتر
اتری
اتفاق
اتفاقی
اتلتیک
اتلتیکو
اتمیش
اتنیک
اتو
اتوم
اتی
اتیل
اتیلن
اتین
اتیوپی
اتیکت
اثر
اثرده
اثرلر
اثرلری
اثرلرین
اثرلریندن
اثرلرینده
اثرلرینی
اثری
اثرین
اثرینده
اثرینی
اثناسیندا
اجتماعی
اجدادی
احاطه
احتیاج
احتیمال
احتیمالی
احتیوا
احسان
احمد
احمدا
احمدفداله
احمدی
احوال
اختر
اخلاق
اخلاقی
اد
اداره
ادام
ادامز
ادامو
ادب
ادبي
ادبيات
ادبياتي
ادبی
ادبیات
ادبیاتی
ادبیاتیندا
ادبیاتینین
ادر
ادریس
ادعا
ادقار
ادموند
ادن
ادوارد
ادواردز
ادواردو
ادوین
ادی
ادیب
ادیتور
ادیر
ادیسون
ادینبروق
ادینبورق
ار
اراضی
اراضیده
اراضیسی
اراضیسینده
اراضیلرده
اراضیلری
اراضیلرین
اراک
اربانا
ارجاع
اردبيل
اردبیل
اردبیلی
اردیبهشت
ارسطو
ارسلان
ارل
ارمنی
ارمنیستان
ارنست
ارنستو
اره
ارومیه
ارون
اروگوي
اروین
اری
اریتره
اریمه
ارین
ارینا
اریک
اریکا
اریکسون
از
اس
اساس
اساسا
اساسدا
اساسي
اساسيندا
اساسی
اساسین
اساسیندا
اساسینی
اسامه
اسامی
است
استات
استاد
استادیوم
استار
استارا
استان
استانبول
استانبولی
استانداری
استانیسلاو
استاوروپول
استر
استرا
استرلینق
استریت
استفاده
استفان
استفانو
استفن
استقلال
استن
استنفورد
استنلی
استوارت
استون
استونی
استوک
استي
استیتس
استیشن
استیل
استیو
استیون
استیونز
اسحاق
اسد
اسدا
اسدالله
اسدی
اسراي
اسفند
اسلام
اسلامی
اسلحه
اسماعیل
اسماعیلیه
اسمیت
اسناد
اسپانیایی
اسپرینق
اسپرینقز
اسپرینقفیلد
اسپنسر
اسکات
اسکار
اسکندر
اسکی
اسکیت
اسید
اسیر
اش
اشاره
اشتات
اشتاین
اشتفان
اشتوتقارت
اشتون
اشرف
اشعار
اشلی
اشنایدر
اشوی
اصغر
اصفهان
اصل
اصلا
اصلی
اصلینده
اصول
اصیل
اطراف
اطرافی
اطرافین
اطرافیندا
اطلاعات
اطلاعاتی
اطلس
اعانه
اعتبارا
اعتراض
اعتیبارا
اعتیبارلی
اعتیراض
اعتیقاد
اعدام
اعصاب
اعظم
اعلام
اعلان
اف
افسانه
افسردگی
افشار
افشین
افغانی
افغانیستان
افغانیستاندا
افندی
اقتصادی
اقلایس
ال
الا
الاتحاد
الاسلام
الان
الاهلی
البته
البرت
البورز
الترک
الثلاثي
الثناي
الجزاییر
الجزاییرده
الجزاییرلی
الجزیره
الخالق
الخلق
الدن
الده
الدوسری
الدوله
الدین
السلطنه
الشباب
الصوديوم
العابدین
العاده
العربی
العین
الف
القرا
الكريم
الله
اللی
الم
المر
المللی
الملک
المنت
المو
الن
النجارقی
النصر
النهرین
النور
اله
الهاي
الوارگرمسیري
الوحده
الوند
الوي
الویس
الي
الک
الکتروشیمی
الکترومغناطیس
الکترون
الکترونیک
الکتريک
الکتریک
الکتیریک
الکس
الکساندر
الکساندرا
الکسی
الکندی
الکول
الی
الیازماسی
الیاس
الیزابت
الیس
الیسون
الیفبا
الیفباسی
الیفبالاری
الیله
الین
الیندن
الینده
الینه
الیوت
الیور
الییي
ام
اما
امار
امام
امامزاده
امان
امانوي
امبر
امر
امرسون
امره
امری
امریکا
امریکن
امل
املاک
امنیت
امهرست
اموری
امير
امک
امکدار
امکداش
امکداشلیق
امی
امید
امیر
امیری
امیل
امیلی
امیلیا
امین
امینی
ان
انا
انتشارات
انتونی
انتونیو
انجمن
اند
اندرسن
اندرسون
اندرو
اندروز
اندروید
اندونزی
اندونزینین
اندی
اندیمشک
انرژی
انرژیسی
انریکه
انریکو
انزل
انزلی
انسان
انستیتوسو
انستیتوسودا
انصاری
انقلاب
انور
انگلیس
انگلیسجه
انگلیسی
انگوران
انی
انیتا
انیمیشن
انینزولاق
اها
اهالي
اهاليسي
اهاليسی
اهالی
اهالیسی
اهالیسیندن
اهالیسینین
اهالینین
اهر
اهل
اهلی
اهمیت
اهمیتلی
اهمیته
اهمیتی
اهواز
اهیو
او
اوا
اوانز
اواک
اواکس
اوبا
اوباما
اوبلاست
اوبلاستی
اوبلاستیندا
اوبلاستینده
اوبیری
اوبیي
اوت
اوتار
اوتاراکند
اوتاق
اوتریش
اوتریشلی
اوتریشین
اوتو
اوتوز
اوتوموبیل
اوتومومبیل
اوتیس
اوجا
اوجار
اوجارود
اوجاغی
اوجاق
اوجالیغی
اوجان
اوجو
اوخ
اوخشار
اوخوجو
اوخودو
اوخودوغو
اوخولو
اوخوماغا
اوخوماق
اوخویان
اوخویوب
اود
اودا
اودسا
اودلو
اودماسی
اودور
اودیا
اودیسا
اور
اورا
اورادا
اورادان
اورارتو
اورال
اورانوس
اورانیوم
اورت
اورتا
اورتاسی
اورتاسیندا
اورتاق
اورتالاریندا
اورتايا
اورتایا
اورتون
اورخون
اوردا
اوردو
اوردوباد
اوردوبادي
اوردوسو
اوردوسونا
اوردوسوندا
اوردوسونون
اوردون
اوردوندا
اوردونون
اوردي
اوردیبهشت
اورشلیم
اورقان
اورقانی
اورقانیک
اورقن
اورلاندو
اورلي
اورلیتسی
اورمو
اورمونون
اورموی
اورمیه
اورنج
اوره
اوروج
اوروقوي
اوروپا
اوروپاایتتیفاقی
اوروپادا
اوروپانین
اوروپایا
اوري
اورک
اوری
اوز
اوزاق
اوزان
اوزانان
اوزای
اوزره
اوزرین
اوزرینده
اوزرینه
اوزه
اوزو
اوزوم
اوزون
اوزوندن
اوزونده
اوزونلوغو
اوزونلوق
اوزونه
اوزونو
اوزي
اوساکا
اوست
اوستا
اوستاد
اوستادی
اوستان
اوستاندا
اوستانداری
اوستانلاری
اوستانلاریندان
اوستاني
اوستانين
اوستانی
اوستانین
اوستانیندا
اوستانینده
اوستانینین
اوسترالیا
اوسترالیادا
اوسترالیالی
اوسترالیانین
اوسته
اوستو
اوستون
اوستونده
اوستونلوک
اوستونه
اوستی
اوسکار
اوسکارا
اوشاغی
اوشاق
اوشاقلار
اوشاقلاری
اوشاقلیق
اوشنو
اوصول
اوصولو
اوغروندا
اوغلان
اوغلو
اوغلونون
اوغلی
اوغور
اوغورلو
اوغوز
اوغول
اوف
اوقاندا
اوقیانوس
اوقیانوسو
اول
اولا
اولاجاق
اولاد
اولار
اولاراق
اولارکن
اولارین
اولان
اولاندا
اولاندان
اولای
اولجه
اولد
اولدو
اولدوز
اولدوزلار
اولدوزو
اولدوغو
اولدوغونا
اولدوغوندان
اولدوغونو
اولدوق
اولدوقجا
اولدوقلاری
اولدولار
اولدی
اولریش
اولسا
اولسان
اولسن
اولسون
اولما
اولمادان
اولمادی
اولمادیغی
اولمادیغینی
اولماز
اولماسا
اولماسی
اولماسین
اولماسینا
اولماسینی
اولماغا
اولماغی
اولماق
اولماقدا
اولماقلا
اولمالی
اولماماسی
اولمایان
اولمور
اولموش
اولموشدو
اولموشدور
اولموشلار
اولمپیک
اولو
اولوب
اولوبدور
اولوبلار
اولور
اولوردو
اولورسا
اولورلار
اولوس
اولوسلارا
اولوغ
اولوم
اولوموتس
اولومووتس
اولونا
اولونان
اولوندو
اولوندوغو
اولونماسی
اولونماسینا
اولونموش
اولونموشدو
اولونموشدور
اولونوب
اولونور
اولونوردو
اولچوسو
اولچوسوده
اولکه
اولی
اولیمپییا
اولین
اولیور
اولیویرا
اوماها
اومبریا
اومید
اون
اونا
اونتاریو
اونجه
اونجو
اوندا
اوندان
اونسی
اونلار
اونلارا
اونلاردا
اونلاردان
اونلارلا
اونلارين
اونلاری
اونلارین
اونملی
اونو
اونون
اونونجو
اونونلا
اونيوي
اونگوت
اونی
اونیل
اونیوي
اوهارا
اوهایو
اوهرسکه
اوو
اوول
اوون
اوي
اوپرا
اوپن
اوپوله
اوپي
اوچ
اوچاق
اوچوش
اوچون
اوچونجو
اوک
اوکتبر
اوکتوبر
اوکراین
اوکراینجه
اوکراینین
اوکسید
اوکسیژن
اوکلاهوما
اوکلند
اویدو
اویغور
اویغون
اویل
اوینادی
اوینامیشدیر
اوینانیلان
اوینایان
اویناییر
اویه
اویون
اویونا
اویونجوسودور
اویوندا
اویونلار
اویونلاری
اویونلاریندان
اویونلارینین
اویونو
اویونون
اویونچو
اویونچوسو
اویونچوسودور
اویونچولار
اي
ايالتي
ايتالیالی
ايجتيماعي
ايجرود
ايداره
ايدي
ايران
ايرانين
ايسته
ايستيفاده
ايسراي
ايسراییل
ايسلام
ايسه
ايشتيراک
ايشله
ايفاده
ايل
ايلد
ايلدن
ايلده
ايللرده
ايله
ايلين
ايلک
ايميشلى
اينانجلارينا
اينجي
اينجی
اينسان
ايچينده
ايکي
ايکينجي
اپل
اپیتلی
اچ
اژه
اک
اکبر
اکتبر
اکتلر
اکثر
اکثریتی
اکران
اکرم
اکس
اکسبیریا
اکسل
اکوادور
اکونومیک
اکينچي
اکین
اکینچی
اکینچیلیک
اکینچیلیکله
اگر
اۆدم
اۆر
اۆرتیم
اۆرک
اۆز
اۆزره
اۆزرینده
اۆزرینه
اۆزه
اۆزو
اۆست
اۆستون
اۆستونده
اۆلکه
اۆچ
اۆچون
اۆچونجو
اۆچۆن
اۆیه
اۇجالیقی
اۇجالیقیدا
اۇدلاغی
اۇدلاغین
اۇدلاق
اۇدلاقدا
اۇزاق
اۇزانیر
اۇزای
اۇزون
اۇزونلوغو
اۇستانیندا
اۇشاق
اۇشاقلاری
اۇلدوزلاری
اۇکتوبر
اۇیغون
ای
ایاق
ایالت
ایالتلر
ایالتلری
ایالتلرین
ایالتلرینده
ایالتلرینین
ایالتی
ایالتین
ایالتیندا
ایالتینده
ایالتینین
ایان
ایب
ایباراکی
ایبتیدایی
ایبراهیم
ایبن
ایت
ایتالیا
ایتالیاجا
ایتالیادا
ایتالیالی
ایتالیانین
ایتالیایی
ایتتیفاقی
ایتو
ایتون
ایتکی
ایتی
ایتیردی
ایتیرمه
ایتیرمیش
ایجاد
ایجازه
ایجتماعی
ایجتیماعی
ایجرا
ایجرود
ایحاطه
ایختیراع
ایخراج
اید
ایدا
ایداره
ایداری
ایدمان
ایدمانچی
ایده
ایدي
ایدی
ایدیعا
ایدیل
ایدیلر
ایذه
ایر
ایراده
ایران
ایرانا
ایراندا
ایراندان
ایرانلی
ایرانی
ایرانیان
ایرانین
ایراکلی
ایرشاد
ایرل
ایرلند
ایرلندلی
ایرلنده
ایرلی
ایره
ایروان
ایروین
ایروینق
ایرکوتسک
ایری
ایز
ایزابل
ایزاک
ایزله
ایزمیر
ایزوپروپیل
ایساک
ایسبن
ایست
ایستادیوم
ایستادیومدا
ایستادیومدور
ایستادیوملاریندا
ایستادیومو
ایستار
ایستاری
ایستانبول
ایستانبولا
ایستانبولدا
ایستاندارد
ایستحصال
ایستحصالی
ایستر
ایسترسه
ایستفن
ایستقلال
ایستمی
ایسته
ایستودیو
ایستون
ایستونی
ایستونیتلی
ایستوکهولم
ایستي
ایستک
ایستی
ایستیثنا
ایستیفاده
ایستیقامت
ایستیقامتینده
ایستیقلال
ایستیناد
ایستیو
ایستیوارت
ایستیون
ایستییر
ایسراي
ایسراییل
ایسفند
ایسلام
ایسلامدان
ایسلامی
ایسلامین
ایسلند
ایسلنده
ایسلواکی
ایسلوواکی
ایسلوونی
ایسماعیل
ایسماعیللی
ایسمیت
ایسه
ایسپارتا
ایسپانجا
ایسپانیا
ایسپانیادا
ایسپانیالی
ایسپانیانین
ایسپرینق
ایسپرینقز
ایسپي
ایسکات
ایسکاتلند
ایسکاتلندلی
ایسکاتلنده
ایسکلت
ایسکندر
ایسکندریه
ایسکوت
ایش
ایشاره
ایشبارا
ایشتیراک
ایشتیراکی
ایشدن
ایشده
ایشغال
ایشغالی
ایشغالیندان
ایشلدنلری
ایشلر
ایشلرده
ایشلره
ایشلری
ایشلرین
ایشلریندن
ایشلرینده
ایشلرینه
ایشلرینی
ایشلریژانر
ایشلنمه
ایشلنن
ایشلنیر
ایشله
ایشلي
ایشلییر
ایشه
ایشچی
ایشی
ایشیغی
ایشیق
ایشین
ایشینه
ایشینی
ایصفاهان
ایصفهان
ایضاح
ایضاحلی
ایفا
ایفاده
ایفرازات
ایقبال
ایقتصادچی
ایقتیصاد
ایقتیصادچی
ایقتیصادی
ایقتیصادیسی
ایقل
ایقلیم
ایقلیمی
ایقور
ایل
ایلا
ایلام
ایلان
ایلاهه
ایلاهی
ایلتیهابی
ایلد
ایلدن
ایلده
ایلدیریم
ایللر
ایللردن
ایللرده
ایللری
ایللرین
ایللرینده
ایللیک
ایله
ایلهام
ایلين
ایلچه
ایلک
ایلکین
ایلگی
ایلگیلی
ایلی
ایلین
ایلیندن
ایلینده
ایلیننۆفوس
ایلینه
ایلینوی
ایلینین
ایم
ایمارات
ایماراتدا
ایمام
ایمامی
ایمان
ایمتیناع
ایمضا
ایمضالاندی
ایمن
ایمنی
ایمپراتور
ایمپراتورلوغو
ایمپراتورلوغونون
ایمپي
ایمپیراتو
ایمپیراتور
ایمپیراتورلوغو
ایمپیراتورلوغونون
ایمپیراتورلوق
ایمپیراتورلوقلار
ایمپیراتورو
ایمکان
ایمکانی
ایمی
ایمیش
ایمیشو
این
اینام
اینانج
اینانجلاری
اینانجی
اینترنت
اینترنتی
اینترنشنال
اینترپرایسیز
اینتي
اینجه
اینجی
ایندی
ایندیا
ایندیان
ایندیانا
ایندیاناپولیس
ایندیلیکده
ایندیه
ایندیکی
ایندییه
اینسان
اینسانا
اینسانلار
اینسانلارا
اینسانلاری
اینسانلارین
اینسانی
اینسانین
اینستیتوتونون
اینسرتا
اینشا
اینضیباطی
اینفي
اینقیلاب
اینقیلابچی
اینقیلابی
اینقیلابیندان
اینک
اینکیشاف
اینکیشافی
اینکیشافینا
اینکیشافیندا
اینکیشافینی
اینگلیس
اینگلیسجه
اینگلیسیجه
اینگیلیس
اینگیلیسجه
اینگیلیسده
اینگیلیسلی
اینگیلیسی
اینگیلیسیجه
اینگیلیسین
اینی
ایو
ایوان
ایوانز
ایوانو
ایوب
ایون
ایووا
ایپک
ایچ
ایچره
ایچری
ایچریسینده
ایچه
ایچکی
ایچی
ایچین
ایچینده
ایچینه
ایک
ایکرز
ایکس
ایکن
ایکی
ایکیسی
ایکیطرفلی
ایکینجی
ایگید
ایگیرمی
ایی
اییی
ب
با
باب
بابا
باباسی
بابل
بابک
بابی
بابیل
بات
باتلر
باتی
باتیستا
باجی
باجیسی
باخ
باخان
باخماياراق
باخمایاراق
باخمیدان
باخیر
باخیش
باخیم
باخیمدان
باخیمین
باخیمیندان
باد
باداخس
بادام
بادان
بادن
باده
بادی
بار
باراندوزچای
باراک
باربارا
بارت
بارتلت
بارتون
بارسلون
بارسلونا
بارسلونادا
بارماق
بارنت
بارنز
باره
باروق
بارون
بارکر
باری
باریش
باریوم
باز
بازار
بازارا
بازاری
بازل
بازی
بازیکن
باس
باستان
باسقی
باسک
باسیلیکاتا
باش
باشا
باشاریر
باشاریلی
باشدا
باشقا
باشقالاری
باشقانی
باشقورت
باشقیردیستان
باشقیردیستاندا
باشلادی
باشلادیغی
باشلادیلار
باشلامیش
باشلامیشدی
باشلامیشدیر
باشلانان
باشلاندی
باشلانغیج
باشلانمیش
باشلانیر
باشلایاراق
باشلایان
باشلاییب
باشلاییر
باشلی
باشلیجا
باشلیغی
باشلیق
باشماق
باشچی
باشچیسی
باشچیلیغی
باشچیلیق
باشکان
باشکانی
باشکند
باشکندی
باشگاه
باشی
باشین
باشینا
باشیندا
باغ
باغلار
باغلاری
باغلانتی
باغلانتیسی
باغلانتیلی
باغلاندی
باغلانمیش
باغلي
باغلی
باغلیدیر
باغچاسارای
باغچه
باغی
باغیرساق
باغیمسیز
باغیمسیزلیغینی
باغیمسیزلیق
باقر
بال
بالا
بالابان
بالاجا
بالاکن
بالتیمور
بالتیک
بالدوین
بالي
بالکان
بالیغی
بالیق
بان
باند
بانک
بانکوک
بانکی
بانی
بانیسی
باهار
باول
باوي
باي
باک
باکتری
باکلی
باکو
باکي
باکيدا
باکی
باکیدا
بای
بایاتی
بایر
بایراغی
بایراق
بایرام
بایرامی
بایرن
بایرون
بایه
بایو
بایگانی
بت
بتا
بتل
بتی
بحث
بحر
بحري
بختیاری
بخش
بخشی
بدر
بدفورد
بدن
بدنلری
بدنی
بدنین
بدو
بدیعی
بر
برا
برابر
برابردیر
برابرلیک
براد
برادفورد
برادوست
براساس
براندنبورق
براندون
برانچ
براهام
براون
براونینق
برای
برایان
برایتون
برایس
برت
برتر
برتون
برج
برد
بردلی
برده
بردی
بردین
بررسی
برزیل
برزیلده
برزیللی
برزیلین
برق
برلین
برمن
برمینقم
برن
برنار
برنارد
برنامه
برنت
برند
برندا
برنز
برنو
برنی
برهان
برو
بروتزو
برود
بروس
بروم
برومید
برونو
بروک
بروکس
بروکسل
بروکلین
بري
برپا
برچسب
برچسپ
برک
برکلی
بری
بریاجی
بریان
بریانسک
بریتانیا
بریتانیادا
بریتانیالی
بریتانیانین
بریتانییا
بریتیش
بریج
بریستول
بریقم
برین
بزرق
بزرگ
بزه
بزينه
بس
بستان
بسته
بسله
بش
بشیر
بشینجی
بصره
بعضا
بعضي
بعضی
بعضیلری
بغداد
بل
بلا
بلاروس
بلاغ
بلاف
بلال
بلانسکو
بلاک
بلدیه
بلقراد
بللی
بلو
بلوز
بلوط
بلوف
بلوم
بلومفیلد
بلوچیستان
بلوک
بلي
بلژیک
بلژیکده
بلژیکلی
بلک
بلکه
بلی
بلیک
بم
بمبي
بن
بنا
بناب
بنت
بنتلی
بنتون
بنجامین
بند
بندر
بندرماهشهر
بندیکت
بنزر
بنزن
بنزه
بنزوي
بنزیل
بنسون
بنشوف
بنقال
بنقلادش
بنقلادشده
بنه
بنو
بنکس
بنی
بنین
به
بهار
بهانه
بهبهان
بهرام
بهرنگی
بهره
بهروز
بهزاد
بهلول
بهمن
بو
بوب
بوبی
بوت
بوتان
بوتسوانا
بوتلر
بوتو
بوتون
بوتونلوکله
بوتیل
بوجاق
بوجپوری
بوخارا
بوخارست
بود
بودا
بوداق
بوداپست
بودجه
بودور
بودین
بودیوویتسه
بور
بورا
بورادا
بورادان
بورایا
بورتون
بورج
بوردا
بورس
بورق
بورقس
بورلی
بورن
بورنو
بورو
بوروشکیل
بورون
بوروندی
بورک
بورکینافاسو
بوریاتیا
بوریاتیادا
بوریس
بوز
بوستان
بوستون
بوسنی
بوش
بوشانما
بوشلوغوندا
بوشهر
بوغاز
بوغازی
بوغدا
بوغرا
بوغوم
بوفالو
بول
بولاغی
بولاق
بولبول
بولتون
بولدر
بولسلاف
بولشایا
بولشوی
بولشویک
بولغار
بولغاریستان
بولغاریستانین
بولقار
بولود
بولوم
بولومو
بولومی
بولونیا
بولگه
بولینق
بولیوی
بومی
بون
بونا
بوناپارت
بوندان
بونلار
بونلارا
بونلاردان
بونلاری
بونلارین
بونه
بونو
بونون
بونونلا
بونی
بوهم
بوي
بوک
بوکا
بوکان
بوکس
بوگون
بوگونکو
بوی
بوید
بویز
بویل
بویو
بویون
بویونجا
بویوک
بي
بير
بيرليکده
بيري
بيرينجي
بيز
بيزيم
بيلر
بيلمه
بيگ
بک
بکر
بکشلو
بۆتو
بۆتون
بۆتۆن
بۇ
بۇرادا
بۇز
بۇغوم
بۇنا
بۇندان
بۇنلار
بۇنلاردان
بۇنون
بۇنونلا
بی
بیات
بیان
بیاننامه
بیاوا
بیت
بیتر
بیتس
بیتمیش
بیتکی
بیتگی
بیتی
بیتیردیکدن
بیتیرمیش
بیتیریب
بیجار
بیده
بیر
بیرباشا
بیربیرینه
بیرد
بیردن
بیرده
بیرلش
بیرلشدیرمه
بیرلشدیرن
بیرلشمه
بیرلشمیش
بیرلشیک
بیرلیک
بیرلیکده
بیرلیگی
بیرمنقام
بیرمینگام
بیرن
بیرنجی
بیره
بیروت
بیرون
بیري
بیرچوخ
بیرگه
بیری
بیریدیر
بیریسی
بیریمی
بیرین
بیرینجی
بیریندن
بیرینده
بیرینه
بیرینی
بیرینین
بیز
بیزانس
بیزه
بیزی
بیزیم
بیزینسمن
بیس
بیسمارک
بیسکای
بیشاپ
بیق
بیل
بیلا
بیلباي
بیلدی
بیلدیردی
بیلدیریب
بیلدیریر
بیلر
بیلردی
بیلرلر
بیلریک
بیلشیک
بیلقاراد
بیلمز
بیلمه
بیلمک
بیلمیر
بیلن
بیله
بیلگه
بیلگی
بیلگیلر
بیلگین
بیلی
بیلیب
بیلیر
بیلیردی
بیلیرلر
بیلیم
بیلیمجی
بیلیمی
بیلیندی
بیلینن
بیلینیر
بیلیک
بیمه
بین
بینا
بیناسی
بینانین
بینه
بینی
بیهار
بیو
بیوتیک
بیور
بیوشیمی
بیوفارماسی
بیولوژی
بیولوژیست
بیوک
بیچ
بیک
بیکر
بیگ
بیگلی
بیگوو
بیگی
بیگین
ة
ت
تا
تابع
تابعه
تابور
تابي
تات
تاتار
تاتارجا
تاتارلاری
تاتاریستان
تاتسویا
تاتورک
تاثیر
تاثیری
تاج
تاجه
تاجیر
تاجیک
تاجیکیستان
تاخت
تاختا
تاخیل
تاخیم
تاخیمی
تاخیمیسینین
تاخیمیندا
تاد
تار
تاراقونا
تاردو
تارو
تاريخ
تاريخي
تاريخينده
تاریخ
تاریخدن
تاریخده
تاریخلی
تاریخه
تاریخچه
تاریخچی
تاریخچیسی
تاریخچیلر
تاریخی
تاریخین
تاریخیندا
تاریخینده
تاریخینه
تاریخینی
تازا
تازه
تاسی
تاسیس
تاسینی
تاسینین
تاش
تاشکند
تاغی
تال
تالار
تالان
تالبوت
تالیش
تالیوم
تام
تامارا
تاماشا
تاماشاچی
تامام
تامامیله
تامسون
تامپسون
تامی
تامیل
تامین
تان
تاناکا
تانری
تانریسی
تانزانیا
تانی
تانیش
تانیلمیش
تانیلیر
تانیماق
تانیمایان
تانینان
تانینمیش
تانینمیشدیر
تانینیر
تاون
تاي
تاپا
تاپابیلرسینیز
تاپان
تاپدی
تاپماق
تاپمیش
تاپمیشدیر
تاپیب
تاپیر
تاپیلار
تاپیلان
تاپیلدی
تاپیلمیش
تاکاشی
تاکاهاشی
تاکاهیرو
تاکشی
تاکوما
تاکومی
تاکویا
تای
تایر
تایلر
تایلند
تایلندلی
تایلنده
تایلور
تایمز
تایوان
تایواندا
تبت
تبريز
تبریز
تبریزدن
تبریزده
تبریزلی
تبریزه
تبریزی
تبریزین
تبعه
تبلیغ
تبلیغات
تترا
تترافلوي
تتسویا
تجروبه
تحریر
تحصيل
تحصیل
تحصیلی
تحصیلینی
تحلیل
تحلیلی
تخت
تخته
تختی
تخصصی
تخلص
تخمین
تخمینا
تخمینی
تد
تدبیرلر
تدریجا
تدریس
تدقیق
تدقیقات
تدقیقاتچی
تده
تدي
تديگي
تدی
تدیردی
تدیرمه
تدیرمک
تدیرمیش
تدیرمیشدیر
تدیرن
تدیره
تدیریر
تدیریلیر
تدیلر
تدیک
تدیکجه
تدیکدن
تدیکلری
تدیگی
تدیگینی
تدیی
تذکره
تر
ترا
ترابزون
تراختور
ترامپ
ترانس
تراکتورسازی
تربیت
تربیه
تربیچ
ترت
ترتر
ترتيب
ترتیب
ترجمه
ترجومه
ترزا
ترس
ترق
ترمه
ترموشیمی
ترنت
ترنتون
ترنر
ترنس
ترنوپیل
تره
ترو
تروبللاریلردن
تروبللاریلردیر
ترور
تروي
تروی
تري
ترک
ترکان
ترکی
ترکیب
ترکیبی
ترکیبین
ترکیبینده
ترکیبینه
تری
تریس
تریسی
ترینیتی
ترینیداد
تریومتیل
تز
تزار
تزه
تسلا
تسلانین
تسلیم
تسه
تسوونتری
تسین
تش
تشان
تشسکا
تشکیل
تشکیلات
تشکیلاتی
تشکیلاتین
تشکیلاتینین
تصادف
تصادوف
تصادوفی
تصحیح
تصدیق
تصروفاتی
تصو
تصویر
تصویری
تضییق
تضییقی
تطبیق
تطبیقی
تعداد
تعریف
تعقیب
تعلیم
تعلیمی
تعیین
تفت
تفکیک
تقارون
تقدیم
تقریبا
تقسیمات
تقلید
تقویم
تقویمی
تقویمینده
تقی
تل
تلانتا
تلانتیک
تلانقانا
تلر
تلری
تلطیف
تلفون
تلفونو
تله
تلورید
تلوقو
تلویزیون
تلی
تماس
تماق
تمام
تماما
تمثیل
تمل
تممیش
تمن
تمنی
تمه
تموسفر
تميش
تميشدير
تمپل
تمک
تمکده
تمکله
تمگه
تمگی
تمیر
تمیز
تمیزله
تمیش
تمیشدی
تمیشدیر
تمیشلر
تمیه
تن
تنام
تنسی
تنظیم
تنفوس
تنقيد
تنقید
تنقیدچی
تنقیدی
تنه
تنگ
تنیک
ته
تهران
تهرانا
تهراندا
تهرانین
تهلوکه
تهي
تو
توا
توابع
توبی
توت
توتاراق
توتان
توتدو
توتماق
توتموش
توتوب
توتور
توتوردو
توتولان
توتولدو
توتولماسی
توتولور
توحید
تود
توده
تور
تورا
توران
توربه
توردو
تورس
تورك
توركجه
تورمه
تورن
تورنتون
تورنر
توره
تورو
توروب
تورور
تورولوبدور
تورونتو
تورپاغا
تورپاغی
تورپاغین
تورپاق
تورپاقلاری
تورک
تورکجه
تورکلر
تورکلری
تورکلرین
تورکلریندن
تورکلرینین
تورکمان
تورکمن
تورکمنیستان
تورکو
تورکوستان
تورکولوق
تورکچه
تورکچولوک
تورکی
تورکیستان
تورکیه
توری
توریسم
تورین
تورینقن
توز
توسعه
توسکانی
توفیق
توقو
تول
تولا
تولدو
تولستوی
تولو
تولید
تولیدو
تولیدی
تولین
توم
توماس
تومسون
تومی
تون
تونس
تونو
تونون
تونونون
تونی
تونیس
تونیسلی
توون
توووز
توي
توپ
توپراق
توپلوسو
توپلوم
توپلومسال
توپو
توپونیم
توچیقی
توک
توکیو
توی
توین
تویوتا
تي
تين
تپه
تچی
تک
تکاب
تکامول
تکان
تکجه
تکدرخت
تکرار
تکزاس
تکلیف
تکنو
تکنولوژی
تکنیک
تکنیکی
تکه
تکی
تکیسی
تکین
تگزاس
تۆتون
تۆر
تۆرک
تۆرکجه
تۆرکلر
تۆرکلری
تۆرکلرین
تۆرکیه
تۇتور
تۇتولوب
تۇتومونا
تۇز
تی
تیاقو
تیت
تیتانیوم
تیجارت
تیجاری
تیجی
تیر
تیراختور
تیردی
تیره
تیری
تیریر
تیشدی
تیشیر
تیفلیس
تیفلیسده
تیل
تیلا
تیلر
تیلور
تیم
تیملر
تیملری
تیموتی
تیمور
تیمورون
تیموریلر
تیمی
تیمین
تیمینین
تین
تینا
تینده
تینه
تینی
تینین
تیو
تیپ
تیپه
تیپی
تیپینه
تیک
تیکا
تیکان
تیکلنبیلن
تیکمه
تیکیلمه
تیکیلمیش
تیکیلیب
تیکینتی
تیگین
ث
ثابت
ثابیت
ثار
ثانی
ثانیه
ثانییه
ثبت
ثبوت
ثلاثي
ثناي
ثوبوت
ثیر
ثیرلی
ثیری
ج
جا
جاببارلي
جابر
جارویس
جارکند
جاز
جاستین
جاسم
جاش
جاشوا
جالاندهار
جام
جامال
جاماییکا
جامع
جامعة
جامعه
جامو
جامگان
جامی
جامیعه
جان
جاناتان
جانت
جانز
جانستون
جانسن
جانسون
جانلاندیریب
جانلی
جانکشن
جانی
جانین
جاواب
جاواد
جاوان
جاوانشیر
جاک
جای
جایزه
جبار
جبراییل
جبل
جبهه
جده
جدول
جدی
جدید
جر
جراح
جراحی
جرارد
جرالد
جرالدین
جرج
جردن
جرمی
جرمیسی
جرمین
جروم
جری
جریان
جزا
جزیره
جسارت
جسی
جسیکا
جعفر
جعفرزاده
جعفری
جغرافیا
جغرافیای
جغرافیایی
جف
جفرزون
جفرسون
جفری
جلال
جلب
جلد
جلیل
جم
جماعت
جمال
جمشید
جمشیدی
جمع
جمعده
جمعه
جمعيت
جمعی
جمعیت
جمعیتی
جمعیتین
جمعیتینه
جمله
جمهوری
جمهوریتی
جمیعتی
جمیل
جن
جناب
جنازه
جنت
جنرال
جنوا
جنوب
جنوبوندا
جنوبی
جنکینز
جنگ
جنی
جنیفر
جنینقز
جه
جهاد
جهان
جهانگیر
جهانی
جهت
جهتدن
جهد
جو
جوا
جواب
جواد
جوان
جوت
جود
جودی
جودیت
جور
جورج
جورجو
جورجیا
جوردن
جوره
جوزف
جوزپه
جوش
جوغرافی
جوغرافیا
جول
جولای
جولفا
جولی
جولیا
جولیان
جولیو
جولیوس
جومعه
جومله
جومهور
جومهورباشقانی
جومهورو
جومهوری
جومهوریت
جومهوریتی
جومهوریتین
جومهوریتینده
جومهوریتینین
جون
جونز
جونسون
جونق
جونی
جونیور
جووانی
جوي
جوی
جویس
جي
جک
جکدیر
جکسون
جکلر
جکی
جگی
جگینی
جۆ
جۆمله
جۆمهوریتی
جۆمهۇریتی
جۇ
جۇلای
جی
جیب
جیبوتی
جیددی
جیدی
جیری
جیسم
جیسمین
جیسون
جیسیم
جیف
جیل
جیلد
جیلدده
جیلدلیک
جیم
جیمز
جیمس
جیمی
جیمینا
جین
جینا
جینایت
جینایی
جینس
جینسی
جیهاز
جیورجیو
جیوه
جیووانی
جیک
جیکوب
جییر
ح
حاج
حاجي
حاجی
حادثه
حاديثه
حادیثه
حاصیل
حاضیر
حاضیردا
حاضیرلانان
حاضیرلانماسی
حاضیرلانمیش
حاضیرلانیر
حافظ
حافیظه
حاق
حاقدا
حاقلاری
حاقی
حاقین
حاقیندا
حال
حالا
حالتینده
حالدا
حاللاردا
حالی
حالینا
حالیندا
حامد
حاکم
حاکمی
حاکمیت
حاکمیته
حاکمیتی
حاکیم
حاکیمی
حاکیمیت
حاکیمیته
حاکیمیتی
حبت
حبس
حبیب
حبیبی
حت
حتا
حتشم
حتی
حج
حجم
حجمی
حد
حدود
حدیث
حذفی
حرب
حربی
حرف
حرفه
حرفی
حرفیدیر
حرکات
حرکاتی
حرکت
حرکته
حرکتی
حرکتین
حریف
حزب
حزبی
حزبینین
حس
حساب
حسابینا
حسام
حسب
حسن
حسنی
حسين
حسین
حسینعلی
حسینی
حسینین
حسینیه
حصر
حضرت
حضور
حق
حقوق
حقیقت
حقیقتی
حقیقی
حل
حلال
حلب
حلقه
حلی
حمد
حمزه
حمض
حمله
حمید
حمیدیه
حو
حوزه
حوسي
حوقوق
حوقوقو
حوقوقی
حومه
حوکومت
حوکومتی
حي
حيات
حياتي
حيصه
حکایه
حکم
حکمت
حکومت
حکومتی
حکیم
حیات
حیاتا
حیاتی
حیاتین
حیاتینا
حیاتیندا
حیاتینی
حیدر
حیدری
حیزب
حیزبی
حیس
حیسه
حیص
حیصار
حیصه
حیمایه
حیکایه
خ
خاتون
خادیم
خادیمی
خار
خاراق
خاراکتي
خارجی
خارپوستان
خارکف
خاری
خاریج
خاریجه
خاریجی
خاریجینده
خاص
خاصه
خاطره
خاطیره
خاقان
خاقانلیغی
خاقانی
خاقانین
خال
خالخال
خالد
خالق
خالقا
خالقدان
خالقلار
خالقلاری
خالقلارین
خالقين
خالقی
خالقین
خالقینین
خالچا
خام
خامنه
خان
خانا
خاندان
خاندانی
خانلا
خانلار
خانلاری
خانلیغی
خانلیغین
خانلیغینا
خانلیغیندا
خانلیق
خانلیقلاری
خانه
خانوار
خانيم
خانی
خانیم
خانیمی
خانین
خاویر
خاي
خاچماز
خبر
خبرده
خبرلر
خبرلری
خبرگزاری
خبری
ختاچی
خدابنده
خدور
خدیجه
خر
خراسان
خرداد
خرسون
خرمدره
خرمشهر
خریطه
خزر
خزرلر
خزینه
خسا
خسان
خستلیین
خسته
خسرو
خشام
خصوصی
خصوصیت
خصوصیله
خط
خطاب
خطاسی
خطاسیماژول
خطی
خطینده
خلاص
خلاصه
خلافتی
خلانیلیبدیر
خلج
خلف
خلق
خلو
خليل
خلیج
خلیفان
خلیفه
خلیل
خمسه
خملنیتسکی
خمیس
خمینی
خو
خواجه
خوارزم
خوان
خواننده
خواهیش
خوتا
خوجا
خوجالی
خوجاوند
خود
خودافرین
خور
خوراسان
خورخه
خورد
خورداد
خورشیدی
خوزستان
خوزه
خوزیستان
خوش
خوشبخت
خوصوصا
خوصوصی
خوصوصیله
خولیو
خوندزاده
خونه
خوی
خویوب
خي
خۆصوصیت
خی
خیابان
خیابانی
خیاو
خیبر
خیدمت
خیدمتی
خیر
خیردا
خیرونا
خیزی
خیلاص
خیلافت
خیلافتی
خیملاری
خیوه
د
دا
داخلی
داخيل
داخی
داخیل
داخیلدیر
داخیلی
داخیلین
داخیلینده
داد
دادا
دادلی
داده
دادیر
دار
دارا
دارالکتب
دارتموث
دارد
دارن
داروین
داریو
داریوش
داس
داستان
داستانی
داسی
داسیندا
داش
داشلار
داشکسیه
داشی
داشییان
داشیییر
داغ
داغلار
داغلاری
داغلارین
داغلیق
داغی
داغیستان
داغیلدی
داغین
داق
داقلاس
دال
دالار
دالاری
دالاس
دالاییجیلار
دالتون
دالغا
دالی
دام
داما
دامار
دامارلارلا
دامارینین
داماش
دامز
داملار
داملاری
داملارین
دامی
دامین
دان
دانا
دانبرووا
دانبرووکا
دانشنامه
دانشگاه
دانلد
دانمارک
دانمارکدا
دانمارکلی
دانوب
دانيشيرلار
دانکن
دانی
دانیال
دانیشان
دانیشماغی
دانیشیر
دانیشیرلار
دانیشیق
دانیشیلان
دانیشیلیر
دانیل
دانین
داها
داهی
داو
داوا
داوار
داوارچیلیغلا
داوام
داواملی
داود
داور
داورانیش
داوری
داوسون
داون
داوود
داوید
داویس
داي
داک
داکتور
داکتورو
داکوتا
داکی
دای
دایاق
دایان
دایاناراق
دایانان
دایانیر
دایر
دایره
دایسوکه
دایم
دایمی
دایکی
دایی
دب
دبلیو
دبورا
دبی
دده
ددی
ددیر
ددیم
ددینجی
در
درام
دراماتورق
دراماتیک
درباره
دربند
دربی
درج
درجه
درحال
درخت
درد
دردی
درس
درسدن
درسی
درلر
درمان
درن
دره
درو
درویش
دري
درک
درکن
درگاه
درگی
درگیسی
درگیسینده
دری
دریا
دریان
دریانو
دریای
دریسی
دریسیتیکان
دریلی
درین
دریندن
دریک
دزفول
دسا
دسامبر
دسامبرین
دست
دسته
دستک
دستکله
دستگاه
دشت
دعوت
دفتر
دفعه
دفن
دفه
دقت
دقیق
دقیقه
دكتر
دل
دلا
دلار
دلاری
دلارینی
دلان
دلانان
دلاندی
دلاندیریرلار
دلاندیریلان
دلاندیریلیر
دلانیب
دلانیر
دلانیردی
دلاویر
دلتا
دله
دلي
دلی
دلیل
دلیم
دلیکلردن
دلیکلره
دلیی
دم
دمشق
دمه
دموکرات
دموکراتیک
دموکراسی
دمک
دمیتری
دمیر
دمیرچی
دن
دنباله
دنده
دنس
دنه
دنور
دنی
دنیز
دنیزلرده
دنیزلرین
دنیزه
دنیزی
دنیزین
دنیزینده
دنیزینه
دنیزینین
دنیس
دنیل
دنیلز
دنیپر
دنیپروپتروفسک
ده
دهدز
دهستان
دهلی
دهیستانی
دو
دواء
دواءنین
دوام
دوایت
دوبلور
دوبلین
دوبی
دوحه
دودانگه
دور
دوران
دوربین
دورتموند
دورد
دورلار
دوره
دوروتی
دورور
دوروم
دورومو
دوریس
دوز
دوزلار
دوزن
دوزه
دوزگون
دوس
دوست
دوستلوق
دوستو
دوسلدورف
دوشدو
دوشرگه
دوشمن
دوشمه
دوشموش
دوشن
دوشه
دوشوب
دوشور
دوشونجه
دوغال
دوغان
دوغرو
دوغما
دوغو
دوغودان
دوغوسوندا
دوغولموش
دوغولوب
دوغوم
دوق
دوققوز
دوققوزونجو
دوقلاس
دول
دولار
دولایی
دولت
دولتی
دولف
دولماسی
دولنا
دولنه
دولنی
دولو
دولونه
دولونو
دولی
دوم
دوماژلیتسه
دوموز
دومینیک
دون
دونا
دونالد
دونتسک
دونق
دونيا
دونیا
دونیادا
دونیادان
دونیاسی
دونیاسیندا
دونیاسینی
دونیانی
دونیانین
دونیایا
دونیایه
دونیوی
دوه
دوو
دوور
دوولت
دوي
دوژه
دوک
دوکتور
دوکتورو
دوکلیغی
دویل
دویو
دي
ديب
دير
ديردي
ديل
ديلمه
ديلن
ديله
ديلي
ديلير
ديلينده
ديني
دينی
ديگر
دپرسان
دژ
دک
دکتر
دکستر
دکی
دۆز
دۆزولموش
دۆشدو
دۆشونجه
دۆنیا
دۆنیادا
دۆنیاسین
دۆنیانین
دۆنیایا
دۇزلمیش
دی
دیا
دیاری
دیارینده
دیاز
دیالي
دیان
دیانا
دیاوکسید
دیب
دیبلر
دیبینده
دیتابیس
دیتر
دیترویت
دیتون
دیجی
دیجیتال
دیدیر
دیر
دیردی
دیردیلر
دیرسه
دیرلار
دیرلر
دیرلی
دیرم
دیرماق
دیرمک
دیره
دیری
دیریلان
دیریک
دیزی
دیستریکت
دیسون
دیش
دیشلی
دیشی
دیغیه
دیف
دیفید
دیفیس
دیق
دیقت
دیققت
دیقو
دیل
دیلا
دیلار
دیلده
دیلدی
دیلدیر
دیلدیگی
دیلر
دیللر
دیللرده
دیللری
دیللریندن
دیللرینده
دیللرینه
دیللرینی
دیللرینین
دیللی
دیلمه
دیلمکده
دیلمیش
دیلمیشدی
دیلمیشدیر
دیلن
دیله
دیلون
دیلچی
دیلچیلیک
دیلی
دیلیب
دیلیدی
دیلیدیر
دیلیر
دیلیردی
دیلین
دیلیندن
دیلینده
دیلینه
دیلینی
دیلینین
دیم
دیمیتری
دین
دینا
دینامو
دینج
دینجی
دیندا
دیندان
دینله
دینه
دینی
دینیدی
دینین
دینینه
دیه
دیو
دیوان
دیوانی
دیومتوکسی
دیومتیل
دیوید
دیویدسن
دیویس
دیپ
دیپلومات
دیپلوماتیک
دیک
دیکسون
دیکلری
دیکنسون
دیکنلیلر
دیگر
دیگری
دیگی
دیگینه
دیگینی
دییر
دییش
دییشمه
دییشیب
دییشیر
دییشیک
دییل
دییلا
ذ
ذاکر
ذر
ذربايجان
ذربايجاندا
ذربایجان
ذربایجانا
ذربایجاندا
ذربایجانلی
ذربایجانی
ذربایجانین
ذرنشر
ذره
ذری
ذوب
ذین
ر
را
راب
رابرت
رابرتس
رابرتسون
رابی
رابین
رابینسون
راتقرز
راجاستان
راجر
راجرز
راجستان
راحت
راخو
راد
رادا
رادان
رادرفورد
رادنی
رادیو
رادیکال
راز
رازی
راس
راست
راسل
راسيندا
راسی
راسین
راسینا
راسیندا
راسیندان
راسینداکی
راش
راشد
راشدیرما
راشدیرمالار
راشدیرمالاری
راشل
راضی
رافاي
راق
رال
رالاریندا
رالف
رالی
رالیق
رام
راموس
رامون
رامی
ران
راندبی
راندولف
راندی
رانقا
رانی
راه
راي
راچستر
راک
راکت
راکوونیک
راکی
رای
رایا
رایان
رایت
رایس
رایلی
رایموند
راین
راینلاند
رایون
رایونو
رایونون
رایونوندا
رایونونون
رب
رباعي
ربکا
ربیع
رت
رتا
رتالی
رتان
رتایا
رتماسی
رته
رتور
رتولموش
رتویو
رتویونون
رتي
رتيق
رتی
رتیجیلار
رتیر
رتیرماق
رتیق
رج
رجب
رحمان
رحمت
رحیم
رخا
رخاسیندا
رخانقلسک
رخي
رد
ردا
ردالیلار
ردالیلارتیپی
ردالیلارتیپینه
ردالیلارین
رداکتورو
ردن
رده
ردو
ردوسو
ردوسونون
ردونجو
ردي
ردی
ردیجی
ردیجیل
ردیر
ردیلر
ردینجا
ردیندان
ردینق
ردیگی
ردیی
رر
رز
رزا
رزرو
رزم
رزن
رزو
رس
رساله
رسام
رستم
رستوران
رسم
رسما
رسمی
رسن
رسنال
رسه
رسول
رسیته
رسیتي
رسین
رش
رشت
رشته
رشد
رشید
رشیدی
رشین
رشیو
رشیولنیب
رضا
رضایی
رضوی
رفزی
رفسنجان
رفعت
رق
رقابت
رقاص
رقانلار
رقص
رقصی
رقم
رقملرینه
رقود
رقیب
رل
رلر
رلردن
رلرده
رلره
رلری
رلرین
رلریندن
رلرینده
رلشمه
رلشمیش
رلشن
رلشه
رلشيب
رلشیب
رلشیبدیر
رلشیر
رله
رلو
رلي
رلی
رلیشیب
رلین
رلینقتون
رلیک
رم
رما
رماسی
رمالی
رمان
رمت
رمزی
رمسترانق
رمضان
رمضانی
رمنی
رمنیستان
رمنیلر
رمه
رمو
رموش
رمي
رمک
رمی
رمیزی
رمیش
رمیشدی
رمیشدیر
رن
رنا
رناتو
رندل
رندی
رنه
رنو
رنولد
رنچ
رنک
رنگ
رنگلر
رنگلی
رنگی
رنی
ره
رهبر
رهبرلیک
رهبرلیگی
رهبری
رو
روا
رواد
روادی
روان
روانقردان
روایت
روب
روبر
روبرت
روبرتس
روبرتو
روبن
روبی
روبین
روبینزون
روت
روتبه
روث
روجر
روجرز
روح
روحانی
روحو
روحون
روحی
رود
رودا
رودبار
رودریقز
رودریقو
رودشمالی
رودولف
رودی
رور
روز
روزا
روزنامه
روس
روساریو
روستا
روستای
روستم
روستوف
روسجا
روسل
روسلار
روسلارین
روسو
روسونون
روسی
روسیه
روش
روشدیه
روشن
روشو
روشور
روضه
رول
رولاند
رولموش
رولموشدور
رولن
رولو
رولور
رولونو
روم
روما
رومان
رومانتیک
رومانو
رومانچی
رومانی
رومانیا
رومانیانین
رومانین
رومن
رومي
رومی
رون
رونالد
رونمه
رونموشدور
رونن
رونور
رونون
رونی
روي
روژه
روک
روکا
روی
رویال
رویس
ري
رير
رينه
رپ
رپا
رپاغا
رپاق
رپاقلاری
رپر
رپه
رپو
رپوسو
رچر
رچه
رچک
رچی
رژانتین
رژانتیندا
رژیمی
رک
رکانزاس
رکس
رکملی
رکن
رکه
رکک
رگي
رگی
رگیک
ری
ریا
ریاض
ریاضی
ریاضیات
ریاضیاتچی
ریال
ریان
ریب
ریتا
ریتابانلاری
ریتر
ریتم
ریج
ریجی
ریحان
ریخنوف
رید
ریدج
ریر
ریردی
ریرلر
ریزونا
ریزی
ریس
ریساله
ریش
ریشته
ریل
ریلدی
ریلمه
ریلمیش
ریلمیشدیر
ریلن
ریله
ریلی
ریلیب
ریلیر
ریلیردی
ریموند
رین
رینا
رینده
رینه
رینو
رینولدز
رینی
ریه
ریو
ریوتا
ریوجی
ریور
ریورساید
ریوسوکه
ریونه
ریچ
ریچارد
ریچاردز
ریچاردسون
ریچل
ریچموند
ریچی
ریک
ریکاردو
ریکو
ریکی
ز
زا
زاد
زادلیغی
زادلیق
زاده
زادگان
زادی
زار
زارع
زاقاتالا
زاقافقازیا
زال
زالیر
زامان
زامانا
زاماندا
زامانلار
زامانلاردا
زامانلاردان
زامانی
زامانین
زامانیندا
زامبیا
زاویه
زاپوریژیا
زاکارپاتیا
زاکسن
زاگورا
زاید
زبان
زبک
زبکیستان
زبکیستانین
زجوک
زد
زدروی
زدن
زده
زدیر
زر
زربايجان
زرداب
زردابي
زرینه
زل
زلر
زلری
زلرین
زلریندن
زلرینه
زلرینی
زلزله
زللیک
زللیکله
زله
زلو
زلوک
زلوگو
زلوگون
زلۆک
زلۆکلر
زلۆیۆ
زلین
زلیکله
زمان
زمانه
زمانی
زمین
زمینی
زن
زنجان
زنجانرود
زند
زندگی
زنویمو
زنگ
زنگان
زنگه
زنگی
زنگیلان
زنگین
زنیت
زه
زهتابی
زهرا
زو
زور
زورنا
زوریخ
زوف
زوم
زون
زوندن
زونده
زونه
زونو
زونون
زي
زکریا
زگه
زگورلوک
زی
زیاد
زیارت
زیان
زید
زیدون
زیر
زیره
زیروه
زیست
زیمبابوه
زین
زیپ
س
سا
ساب
ساتو
ساتوشی
ساتيريک
ساتیریک
ساتیش
ساتین
ساحل
ساحللرینی
ساحلی
ساحه
ساحیل
ساحیلی
ساحیلینده
ساخا
ساخسی
ساخلاماق
ساخلانیلیر
ساخلایان
ساخلاییر
سادات
ساده
سارا
ساراب
ساراقوسا
سارای
سارایی
ساراییندا
ساردینیا
ساري
ساری
ساز
سازاوو
سازلار
سازمان
سازی
سازیشی
ساسانی
ساسانیلر
ساشا
ساعات
ساعاتلی
ساعاتی
ساعت
ساغ
ساغلام
ساغلیق
سافت
سال
سالا
سالار
سالان
سالت
سالدی
سالم
سالماس
سالماق
سالنامه
سالوادور
سالونو
سالی
سالیان
سالیوان
سام
سامارا
سامان
سامانتا
سامانی
سامبر
سامر
سامسون
سامسونگ
ساموخ
ساموي
سامی
سامیت
سان
سانت
سانتا
سانتانا
سانتو
سانتوس
سانتی
سانتیاقو
سانتیاگو
ساندرز
ساندرلند
ساندرو
سانچز
سانکی
سانی
ساهر
ساوا
ساوادسیزدیرلار
ساوادلی
ساواش
ساواشا
ساواشدا
ساواشلاری
ساواشلاریندا
ساواشی
ساواشین
ساواشینا
ساواشیندا
ساواشیندان
ساواشینین
ساوالان
ساوانا
ساوت
ساوه
ساي
سايي
ساييسي
ساکا
ساکالار
ساکالاری
ساکالارین
ساکای
ساکربیس
ساکیت
ساکین
سای
سایا
سایار
سایاگلیر
سایت
سایتاما
سایتو
سایتی
سایتیندا
ساید
سایدا
سایر
سایلی
سایمون
ساینت
سایه
سایپا
سایکوتیک
سایکولوژی
سایکولوژیست
سایی
ساییسی
ساییلان
ساییلیر
ساییلیردی
ساییلیرلار
ساییم
ساییمی
ساییمینا
سایین
سایینا
ساییندا
سباستین
سبب
سببدن
سببله
سببی
سببیندن
سبز
ست
ستار
ستارا
ستارخان
ستاره
ستاری
ستالین
ستان
ستراکونیتسه
ستردی
سترمه
سترمک
سترمیش
سترمیشدیر
سترن
ستره
سترونومی
ستریب
ستریجی
ستریر
ستریردی
ستریش
ستریلن
ستریلیر
سترین
ستما
سته
ستو
ستوریاس
ستون
ستونده
ستي
ستی
ستین
ستیوارت
سجاد
سجاس
سحر
سد
سدار
سدیس
سر
سرا
سراب
سراجوبولومو
سراسکند
سربست
سرت
سرجیو
سرحد
سرحدلری
سرخ
سرخیو
سردار
سردشت
سرده
سرشماری
سرطان
سرعین
سرقي
سرقی
سرمایه
سرمربی
سرو
سرکرده
سرگی
سری
سریال
سرین
سزار
سزیوم
سس
سسری
سسله
سسلی
سسه
سسی
سطح
سطحی
سطحین
سعادت
سعد
سعدی
سعود
سعودی
سعید
سفر
سفری
سفلی
سفید
سفیری
سل
سلاح
سلام
سلان
سلجوق
سلجوقلو
سلطان
سلطانيه
سلطانی
سلطنت
سلما
سلماس
سلمان
سلنید
سلول
سلوم
سلی
سلیزیا
سلیم
سلیمان
سلیمانی
سم
سما
سمرقند
سمی
سمیر
سن
سنا
سناتور
سناریست
سناریو
سنت
سنتا
سنتر
سنترال
سنجاب
سند
سندلر
سندلی
سندی
سنقال
سنقاپور
سنقاپوردا
سنقر
سنندج
سنه
سنی
سنین
سه
سهامی
سهند
سو
سوا
سواد
سوارز
سواستوپول
سوال
سوان
سوت
سوتا
سوتو
سوتون
سوخو
سود
سودا
سودان
سودیوم
سور
سورا
سوردلوفسک
سورن
سوره
سورو
سورولر
سورگون
سوری
سوریه
سوز
سوزا
سوزان
سوزوکی
سوزی
سوسا
سوسان
سوسن
سوسیال
سوسیالیست
سوفره
سوفی
سوفیا
سوق
سول
سولا
سولاردا
سولاله
سولدوز
سولطان
سولطانلیغی
سولطانپور
سولطانی
سولفات
سولفور
سولفید
سولو
سولي
سولی
سولیوان
سوم
سومالی
سومر
سومي
سومی
سون
سونا
سوندا
سونرا
سونرادان
سونرالار
سونراکی
سونق
سونلاریندا
سوننو
سونو
سونونا
سونونجو
سونوندا
سونی
سووار
سوواری
سووت
سووي
سوي
سوپر
سوکوووف
سوی
سویا
سویتاوی
سویه
سویو
سویوق
سویون
سوییه
سى
سي
سياسي
سيرا
سيز
سيندن
سينده
سينه
سيني
سينين
سپاسی
سپتامبر
سپتامبرین
سک
سکا
سکسن
سکو
سکوت
سککیز
سککیزینجی
سکی
سگاه
سۆت
سۆرعت
سۆرعتله
سۆرعتی
سۆرن
سۆلاله
سۆلي
سۇ
سۇدا
سۇلطان
سۇلطانی
سی
سیا
سیاتل
سیاحت
سیادا
سیاست
سیاستچی
سیاستی
سیاستینی
سیاسی
سیامک
سیانید
سیانیدلر
سیانیدین
سیانین
سیاه
سیاهی
سیاهیسی
سیبری
سیبیر
سیتی
سیخ
سیخلیغی
سید
سیدمحمود
سیدنی
سیده
سیدولی
سیدی
سیدیر
سیدیک
سیر
سیرا
سیرادا
سیراسی
سیراسیندا
سیرالانماسی
سیراکیوس
سیروس
سیز
سیزلیک
سیزه
سیزین
سیس
سیستان
سیستم
سیستمه
سیستمی
سیستمین
سیستمینده
سیستمینه
سیستمینی
سیستمینین
سیستي
سیسیل
سیف
سیفویدلر
سیل
سیلا
سیلاح
سیلاحلی
سیلزی
سیلسیان
سیلسیله
سیلم
سیله
سیلوا
سیلوانه
سیلور
سیلی
سیم
سیمبیان
سیمور
سیمون
سیمونز
سیمپسون
سیمگه
سین
سینا
سینت
سیندا
سیندان
سیندن
سینده
سیندی
سینسیناتی
سینسینتی
سینق
سینما
سینه
سینين
سینی
سینیر
سینیرلاری
سینین
سیه
سیپاهان
سیک
سییا
سییاسی
سییاهه
سییاهیسی
ش
شا
شابران
شابلون
شابک
شاخص
شاخه
شاد
شادی
شارجه
شارل
شارلوت
شارون
شارپ
شارکی
شارکیچی
شاعر
شاعری
شاعير
شاعیر
شاعیرلر
شاعیرلری
شاعیرلریندن
شاعیری
شاعیرین
شاغا
شاغی
شاغیدا
شاغیداکی
شافعی
شال
شام
شاماخی
شامان
شامانیزم
شاملو
شامپیون
شامی
شامیل
شان
شانقهای
شانون
شاه
شاها
شاهزاده
شاهسي
شاهلاری
شاهلیغی
شاهلیق
شاهنامه
شاهی
شاهین
شاو
شاپور
شایق
شب
شباب
شبستر
شبکه
شجره
شخص
شخصلر
شخصلرین
شخصه
شخصی
شخصیت
شخصین
شد
شده
شدی
شر
شراب
شرایط
شرح
شرط
شرطی
شرف
شرفینه
شرق
شرقدن
شرقده
شرقه
شرقی
شرقین
شرقینده
شرلی
شرمن
شرور
شروود
شرکت
شری
شریدان
شریعت
شریف
شعبان
شعبه
شعر
شعرلر
شعرلری
شعرلرینده
شعرلرینی
شعری
شعیر
شعیرلر
شعیرلری
شفیلد
شل
شلاله
شلبی
شلدون
شلسویق
شلوق
شلی
شماره
شمال
شمالی
شمس
شمسی
شمه
شمپین
شمپیندا
شمکیر
شن
شناس
شناسنامه
شناسی
شنبه
شه
شهاب
شهبازی
شهر
شهردار
شهرداری
شهردن
شهرده
شهردیر
شهرستان
شهرك
شهرلر
شهرلردن
شهرلرده
شهرلری
شهرلرین
شهرلریندن
شهرلرینده
شهرلرینین
شهره
شهرها
شهري
شهرين
شهرينده
شهرک
شهری
شهریار
شهریدیر
شهریستانی
شهرین
شهریندن
شهرینده
شهرینه
شهرینی
شهرینین
شهریور
شهی
شهید
شو
شوبهه
شوتا
شود
شور
شورا
شوراسی
شورای
شورز
شورلت
شوروی
شوشا
شوشادا
شوشتر
شوشه
شوط
شوعاری
شوقو
شولتز
شومال
شومالی
شومن
شومپرک
شون
شوناس
شونلاری
شونو
شوهی
شي
شيق
شک
شکار
شکر
شکلین
شکلینده
شکيلده
شکی
شکیل
شکیلده
شکیللی
شکیلی
شی
شیب
شیبدیر
شیبی
شیتلی
شیخ
شید
شیر
شیراز
شیرازی
شیرلی
شیره
شیروان
شیروانشاه
شیروانی
شیرکت
شیرکتدیر
شیرکتی
شیرکتین
شیری
شیرین
شیزوي
شیطان
شیعه
شیعهدیرلر
شیفاهی
شیق
شیلا
شیلی
شیلیده
شیمال
شیمالی
شیمی
شیمیایی
شین
شینا
شینجی
شینیا
شیوه
شیک
شیکاقو
شیکایت
ص
صابر
صابیرا
صاحب
صاحبی
صاحیب
صاحیبی
صادق
صادقی
صادیق
صاف
صالح
صاي
صباح
صباحی
صبای
صحابه
صحرا
صحنه
صحيفه
صحیفه
صدا
صدر
صدری
صدیق
صر
صرب
صربیستان
صرف
صص
صفحه
صفوی
صفویلر
صفویلرین
صفویه
صفی
صلاح
صلیب
صلیبی
صمد
صنایع
صنعت
صنعتکار
صنعتکارلیق
صنعتی
صنم
صو
صورت
صورتده
صوفی
صوفیه
صولح
صومای
صونعی
صۆلح
صینفه
صینیف
ض
ضبط
ضد
ضرب
ضربه
ضربی
ضرر
ضروری
ضعیف
ضعیفله
ضیا
ضیاء
ضیالی
ط
طارق
طارم
طالب
طالع
طاهر
طایفا
طایفاسی
طایفالاری
طایفه
طب
طبقه
طبیب
طبیعت
طبیعتی
طبیعتین
طبیعی
طراح
طرح
طرزی
طرف
طرفدارلاری
طرفداری
طرفدن
طرفده
طرفه
طرفيندن
طرفی
طرفین
طرفیندن
طرفینده
طرفینه
طریقت
طلال
طلب
طلبه
طنز
طهماسیب
طیاره
طیب
طیبی
ظ
ظریف
ظفر
ع
عابباس
عابده
عابیده
عادت
عادتا
عادل
عادی
عارف
عاریف
عاشورا
عاشیق
عاع
عالم
عالمی
عالی
عالیم
عالیملر
عالیملری
عالیمی
عام
عامر
عاي
عاييله
عاید
عایله
عایید
عاییددیر
عاییله
عبارت
عباس
عباسقولو
عباسی
عبد
عبدالحمید
عبدالرحمان
عبدالرحمن
عبدالرحیم
عبدالعزیز
عبدالقادر
عبدالله
عبدالمجید
عبدالکریم
عبرانیجه
عبری
عبه
عبیدالله
عثمان
عثمانلی
عثمانی
عجب
عجبشي
عجم
عدالت
عدد
عدددیر
عدنان
عراق
عراقدا
عراقین
عرب
عربجه
عربلر
عربی
عربیستان
عربیستاندا
عرضه
عرضین
عرضینده
عرفه
عزیز
عزیزبیگوف
عسکر
عسگر
عسگرلری
عسگری
عشق
عصام
عصر
عصردن
عصرده
عصرلر
عصرلرده
عصره
عصرین
عصیان
عضله
عضو
عضولری
عضوو
عظیم
عقل
عقیده
علا
علاءالدین
علاقه
علامت
علامتی
علاوه
علرین
علم
علملر
علملری
علملرین
علمی
علمین
علوم
علوی
علي
علی
علیا
علیرضا
علیشیر
علیه
علیهینه
علیي
عماد
عمار
عمر
عمران
عمرو
عمل
عمله
عملی
عملیات
عملیاتی
عمومی
عمی
عمیسی
عناقچه
عنعنه
عنوان
عهد
عو
عوثمان
عوثمانلی
عوصیان
عوصیانی
عوض
عوضو
عوضولری
عوضوو
عوضینه
عومان
عومر
عوموم
عومومی
عومومیت
عومومیتله
عي
عکس
عکسینه
عکسینی
عۆصیان
عۆمومی
عیبارت
عیبارتدیر
عیراق
عیسی
عین
عینی
غ
غا
غاج
غاجی
غاجین
غارت
غازی
غاسی
غالیب
غجابه
غداش
غدام
غرب
غربدن
غربده
غربه
غربی
غربینده
غرو
غری
غریب
غریلاری
غزل
غستافا
غلار
غلارگولر
غلام
غلامحسین
غلامرضا
غلبه
غلو
غلودور
غلۇ
غم
غنا
غنی
غو
غوز
غول
غوم
غوملار
غي
غی
غیر
غیرلیق
غیری
غیز
غیزانیه
غیزلا
ـ
ف
فا
فابیو
فاجیعه
فارس
فارست
فارسجا
فارسلار
فارسی
فارسیجا
فارل
فارماکولوژی
فارمینقتون
فاستر
فاشیست
فاصیله
فاضل
فاطما
فاطمه
فال
فالتس
فالز
فالس
فان
فانتزی
فانک
فاکت
فاکس
فاکولته
فایت
فایدالی
فایر
فایز
فایق
فایل
فت
فتح
فتحعلی
فتحی
فجر
فخرالدین
فخری
فدراتیو
فدراسیونو
فدرال
فدرالیست
فدریکو
فر
فرات
فران
فرانتس
فرانس
فرانسجه
فرانسه
فرانسهلی
فرانسوا
فرانسوی
فرانسیس
فرانسیسکو
فرانچسکو
فرانک
فرانکفورت
فرانکلین
فرانکو
فرانکی
فرانکیسوک
فرای
فرج
فرد
فردریک
فردوسی
فردی
فردیناند
فرزانه
فرضیه
فرق
فرقله
فرقلی
فرقوسن
فرقی
فرمان
فرمانداری
فرمانی
فرناندز
فرناندو
فرنچ
فرهاد
فرهنگ
فرهنگی
فروردین
فري
فری
فریتس
فرید
فریدریش
فریدون
فریرا
فریزر
فریقا
فریقادا
فریقالی
فریقانین
فریمن
فرین
فریولی
فصل
فصلی
فضا
فضل
فضولی
فطرت
فع
فعال
فعالی
فعالیت
فعالیته
فعالیتی
فعالیتینه
فعالیتینی
ففي
فقط
فقه
فقیه
فلت
فلسفه
فلسفي
فلسفی
فلمینق
فلورانس
فلورنس
فلوريد
فلورید
فلوریدا
فلوي
فلوید
فلچر
فلینت
فلیکس
فن
فنلاند
فنلاندلی
فنول
فنی
فنیل
فه
فهد
فهرست
فهله
فو
فوت
فوتبال
فوتبالیست
فوتبالینین
فوتبول
فوتسال
فوتوشیمی
فور
فورت
فورد
فوردهام
فورست
فورستر
فورمادا
فورماسی
فورمال
فوروارد
فورپومرن
فورک
فوری
فوریه
فوسفات
فوسفور
فوضولی
فوق
فولاد
فولبه
فولتون
فولر
فولک
فولکلور
فولکور
فون
فونکسیاسی
فونیکس
فوي
فوکس
فوکوي
في
فک
فۇتبالیست
فۇتبول
فۇتبولو
فۇتبولچو
فی
فیت
فیتزجرالد
فیتیله
فیرقه
فیروز
فیزیولوژی
فیزیک
فیزیکچی
فیزیکی
فیستیغیمسی
فیش
فیشر
فیصل
فیض
فیفا
فیل
فیلادلفیا
فیلد
فیلدز
فیلسوف
فیلم
فیلمده
فیلملری
فیلملرین
فیلمی
فیلمین
فیلمینده
فیلو
فیلوسوف
فیلی
فیلیس
فیلیسطین
فیلیسطینده
فیلیپ
فیلیپس
فیلیپه
فیلیپین
فین
فینال
فیورلار
فیوضات
فیکری
فیکرینجه
فیکرینه
فیکیر
فیکیرلر
فیکیرلری
ق
قا
قاب
قاباریق
قاباغی
قاباغیندا
قاباق
قاباقجیل
قاباقکی
قابریل
قابلار
قابیلیتینه
قات
قاتی
قاتیلان
قاتیلدی
قاجار
قاجارلار
قاجارین
قاخ
قاداغان
قادين
قادین
قادینلار
قادینلارین
قار
قارا
قاراباغ
قاراباغدا
قاراباغین
قاراجییر
قاراجییرده
قاراداغ
قاراداغلی
قاراعین
قاراقویون
قارانلیق
قاراچای
قارت
قارتال
قارداش
قارداشلاری
قارداشی
قاردن
قاردنر
قاردنز
قارسیا
قارشي
قارشی
قارشیسیندا
قارشیسینی
قارفیلد
قارماق
قارنر
قاره
قاری
قاریشدیغینا
قاریشیق
قارین
قاز
قازاخ
قازاخیستان
قازاق
قازان
قازانا
قازاناراق
قازانان
قازاندی
قازانماق
قازانمیش
قازانمیشدیر
قازانیب
قازانیر
قازی
قاستون
قاسم
قاسپل
قاسیم
قاشقای
قاضی
قاطار
قافقاز
قافقازا
قافقازدا
قافقازین
قال
قالا
قالاسی
قالان
قالانی
قالانین
قالاکسی
قالخان
قالدی
قالماق
قالمیش
قالمیشدیر
قالی
قالیب
قالیر
قالین
قالیوم
قاما
قامچیلی
قان
قانلی
قانون
قانونا
قانونلاری
قانونو
قانونی
قانی
قانین
قاهیره
قاي
قاپی
قاپیچی
قاچاق
قاچدی
قاچقین
قاچیب
قای
قایا
قایدا
قایدالاری
قایسه
قایغی
قایناغی
قایناق
قایناقلار
قایناقلاردا
قایناقلاری
قایناقلاماسی
قایی
قاییتدی
قاییدیب
قاییدیر
قبری
قبل
قبله
قبه
قبول
قبیله
قتل
قتله
قجرات
قجراتی
قدر
قدس
قدم
قده
قديم
قدیم
قدیملیینه
قدیمی
قرا
قرار
قرارا
قرارداد
قراری
قرارینا
قراس
قراف
قرافیک
قرانادا
قرانت
قراند
قراهام
قرای
قرب
قرت
قرق
قرقوری
قرم
قرمز
قرن
قرنت
قرند
قره
قرو
قروبودور
قروه
قروو
قروپ
قروپا
قروپو
قروپون
قروپونا
قروپوندا
قروپونون
قري
قری
قریت
قریس
قریفین
قریق
قریقوری
قرین
قرینفیلد
قرینوود
قرینویل
قزوین
قزي
قشلاق
قصبه
قصد
قصر
قصه
قصیده
قطب
قطر
قطعی
قطه
قفقاز
ققوز
ققوزونجو
قلازقو
قلاسقو
قلب
قلد
قلسمه
قلعه
قلقر
قلم
قلمه
قلن
قلوریا
قلی
قم
قمر
قمری
قمینا
قناتوستومودیلرین
قنقزنو
قهرمان
قهرمانلار
قهرمانلیق
قهرمانی
قهوه
قو
قوا
قوانقژو
قوبا
قوبادلی
قوبالی
قوبوستان
قوبي
قوت
قوتوسو
قوتینقن
قوجا
قود
قوداواری
قودس
قودوین
قور
قورا
قوران
قوربان
قورتولوش
قورخو
قورد
قوردو
قوردوغو
قوردولار
قوردون
قورعه
قورغوشون
قورقود
قورماق
قورموش
قورنا
قورنه
قورو
قوروجوسو
قورولان
قورولتای
قورولتایی
قورولدو
قورولموش
قورولموشدور
قورولوب
قورولوش
قورولوشو
قوروم
قوروماق
قورومو
قوروه
قورویوب
قورکا
قوری
قوز
قوزای
قوزي
قوس
قوسار
قوست
قوستا
قوستاو
قوستاوو
قوستنق
قوش
قوشا
قوشاچای
قوشولدو
قوشولوب
قوشون
قوشونلاری
قوشونو
قوشچو
قوطب
قول
قولاق
قولد
قولدن
قولر
قولف
قوللوق
قولو
قولی
قولییي
قوم
قومز
قومی
قوناق
قونتر
قونزالس
قونشو
قونشودور
قوه
قوهوم
قوو
قووداپ
قووه
قوووه
قوي
قوچ
قوی
قویان
قویدو
قویروق
قویماق
قویموش
قوین
قویوب
قویور
قویولموش
قویولور
قویون
قي
قيشلاغي
قيشلاق
قۇرتاریر
قۇرو
قۇرولان
قۇرولدو
قۇرولموش
قۇرولوب
قۇرولوش
قۇرولوشا
قۇرولوشو
قۇرومو
قۇرومودیر
قۇزي
قۇیولموش
قی
قیام
قیبریس
قیبسون
قیت
قیتس
قیراغیندا
قیرخ
قیرغیز
قیرغیزیستان
قیرمیز
قیرمیزی
قیریم
قیریمی
قیز
قیزلار
قیزی
قیزیل
قیزیلباش
قیسا
قیساجا
قیسمن
قیسمی
قیش
قیشلاغی
قیشلاق
قیشلاقی
قیطعه
قیل
قیلاب
قیلبرت
قیلینج
قیمت
قینه
قیپچاق
قێزیل
ك
كسيد
كل
كلوريد
كندلری
كندي
كندين
كندی
كندین
كه
كو
كوت
كوچك
كي
ل
لا
لاب
لاباما
لابم
لات
لاتزیا
لاتزیو
لاتین
لاتینجه
لاتیوم
لاجاق
لاجان
لار
لارا
لاراق
لاردا
لاردان
لاردیر
لارس
لارسن
لارلا
لارنس
لارکن
لاری
لارین
لارینا
لاریناجان
لاریندا
لاریندان
لارینی
لارینین
لازیم
لازیمدیر
لاس
لاسکا
لافایت
لاقو
لال
لاله
لام
لامار
لان
لانا
لانان
لانق
لانی
لانیر
لاهیجان
لاو
لاورنس
لاي
لاپ
لاچین
لاک
لاکرونیا
لاکين
لاکین
لای
لایق
لاین
لایپزیق
لایی
لاییحه
لاییق
لب
لبا
لبان
لبانی
لبر
لبرت
لبرتو
لبنان
لبوم
لبومو
لبیون
لت
لتا
لتای
لتلری
لتمیش
لتو
لتون
لتيندا
لتی
لتین
لتینا
لتینجی
لتیندا
لتیندادیر
لجه
لدا
لدار
لداشی
لدن
لده
لدهید
لدو
لدوردو
لدورولدو
لدورولمه
لدوغو
لدوغونا
لدوغونو
لدوقجا
لدوقلاری
لدولار
لدي
لدۇ
لدۇغۇ
لدی
لدیغی
لدیلار
لر
لرجه
لردن
لرده
لردیر
لرله
لره
لري
لرين
لريندن
لرينده
لريني
لری
لریله
لرین
لریندن
لرینده
لرینن
لرینه
لرینی
لرینین
لریک
لزاندر
لزلی
لس
لسا
لساندرو
لستر
لسلی
لسون
لشمه
لشن
لطیف
لطیفه
لغات
لغة
لغت
لغو
لف
لفا
لفرد
لفونسو
لقبی
لل
للا
للار
للاری
للارینی
للاه
للاهوي
للر
للری
للرین
للرینده
للو
للي
للی
لم
لما
لماسی
لماسینا
لماسینی
لماغا
لماق
لماقلا
لمالی
لمان
لمانجا
لماندا
لمانلی
لمانی
لمانین
لمایان
لمریا
لمه
لموش
لموشدو
لموشدور
لموشلار
لمک
لمۇش
لمۇشدۇر
لمی
لمیدا
لمیش
لمیشدی
لمیشدیر
لن
لنا
لند
لندن
لندی
لندینق
لنمه
لنمیش
لنه
لنکران
لنکستر
لنیر
لنین
لنینقراد
له
لهجه
لهوتا
لهیستان
لهیستانجا
لهیستانلی
لو
لوا
لوارو
لوب
لوبدور
لوبلین
لوبنان
لوبوسکی
لوتر
لوجانلار
لودهی
لودور
لودویق
لور
لورا
لوران
لورلار
لورن
لورنزو
لورنس
لوری
لوریستان
لورین
لوز
لوس
لوسی
لوسیانو
لوغت
لوغتی
لوغو
لوغونا
لوق
لوقان
لولا
لولار
لوم
لومباردی
لومباردیا
لومدن
لومده
لوملر
لوملری
لومه
لومو
لومون
لوموندن
لومونده
لومونه
لومونو
لومونون
لومیا
لومینیوم
لون
لونا
لونان
لوندا
لوندو
لونق
لونماسی
لونمه
لونموش
لونموشدور
لونه
لونو
لونوب
لونور
لونوردو
لونون
لوهانسک
لوو
لووف
لوول
لوونی
لوي
لوپز
لوک
لوکا
لوکاس
لوکزامبورق
لوکوموتیو
لوی
لوید
لویس
لوین
لویی
لوییس
لي
ليک
لپ
لچاق
لچمک
لچو
لچوده
لچوسو
لچولو
لچومو
لچی
لک
لکالوي
لکس
لکساندر
لکن
لکه
لکی
لگه
لۆم
لۇب
لۇر
لۇنۇر
لی
لیا
لیام
لیب
لیبرال
لیبرتس
لیبرتی
لیبي
لیبی
لیبیده
لیتل
لیتوانی
لیتون
لیتیوم
لیجا
لیدری
لیدز
لیدن
لیدي
لیدی
لیدیا
لیدیر
لیر
لیردی
لیریک
لیز
لیزا
لیس
لیسا
لیسانس
لیسبون
لیست
لیستی
لیستینده
لیسون
لیش
لیغا
لیغی
لیغین
لیغینا
لیغیندا
لیغینی
لیف
لیفی
لیق
لیقا
لیقلا
لیقوریا
لیل
لیلا
لیلار
لیلاردا
لیلارین
لیلر
لیلی
لیم
لیما
لیمان
لیمانی
لین
لیناردو
لینان
لیندا
لیندسی
لیندن
لینده
لیندی
لینماسی
لینمیش
لینمیشدیر
لینه
لینچ
لینکلن
لینکولن
لینیب
لینیر
لینین
لیه
لیو
لیورپول
لیون
لیونل
لیویس
لیي
لیپا
لیک
لیکانته
لیکدن
لیکده
لیکس
لیکلر
لیکلری
لیکلرین
لیکله
لیگ
لیگه
لیگی
لیگین
لیگیندن
لیگینده
لیگینه
لیگینی
لیگینین
لییه
لییی
م
ما
مات
ماتریال
ماتسوموتو
ماتي
ماتیاس
ماتیو
ماجاریستان
ماجاریستانلی
ماجد
ماجی
ماحال
ماحالی
ماحمود
ماد
مادا
ماداقاسکار
مادای
مادده
مادرید
ماده
مادی
مادیا
مادیسون
مار
مارا
ماراغا
ماراق
ماراقلی
مارال
مارت
مارتا
مارتن
مارتی
مارتین
مارتینز
مارتینو
مارس
مارسل
مارسلو
مارسی
مارسین
مارسیو
مارش
مارشال
مارشی
مارقارت
مارقریت
مارلاری
مارلارینا
ماروین
مارک
مارکت
مارکز
مارکس
مارکه
مارکو
مارکوس
ماری
ماریا
ماریان
مارین
مارینا
ماریو
ماریون
مازندران
مازو
مازون
ماس
ماسا
ماساتو
ماساللی
ماساهیرو
ماساچوست
ماساکی
ماسوری
ماسون
ماسوویان
ماسی
ماشین
ماشینی
ماق
ماقومایي
مال
مالا
مالاوی
مالایا
مالایالم
مالدارلیق
مالزی
مالزیده
مالوی
مالک
مالکوم
مالی
مالیه
مالیک
مالیکدیر
مالیکدیرلر
مالییه
مان
مانت
ماند
ماندا
ماندال
مانش
مانع
ماننا
مانو
مانوي
مانکن
مانی
مانیپور
ماه
ماهر
ماهشهر
ماهنشان
ماهنی
ماهی
ماوا
ماونت
ماونتین
ماوه
ماوی
ماي
ماچ
ماک
ماکاي
ماکس
ماکسول
ماکسیم
ماکسیمیلیان
ماکو
ماکوتو
ماکی
مای
مایا
مایتهیلی
مایر
مایرز
مایع
مایل
مایلز
ماین
مایو
مایک
مایکروسافت
مایکل
مایکون
مباردا
مبارک
مبارکین
مبولاکرال
مت
متا
متابولیسمی
متال
متالوژی
متان
متحده
متر
مترو
متروسو
مترولارین
متفاوت
متن
متناظر
متنی
متوکسی
متي
متیر
متیل
متیلن
متیو
مثال
مثلا
مثنوی
مجبور
مجبوری
مجبوریتینده
مجتبی
مجلس
مجله
مجلیس
مجلیسی
مجلیسین
مجلیسینده
مجموعه
مجنون
مجید
محاربه
محاصره
محاوره
محبت
محتوای
محدود
محرم
محروم
محسن
محصول
محصوللاری
محصولو
محض
محل
محلله
محله
محلی
محم
محمد
محمدتقی
محمدحسن
محمدحسین
محمدرضا
محمدزاده
محمدعلی
محمدقولوزاده
محمدی
محمدیار
محمدین
محمود
محو
محکمه
محکوم
مختار
مخصوص
مدار
مدت
مدرسه
مدل
مدنی
مدنیت
مدنیتی
مدنیتین
مدنیتینده
مدیا
مدیسن
مدیسون
مدینا
مدینه
مذهب
مذهبی
مذهبینه
مر
مراتی
مراجعت
مراد
مراسیم
مراسیمی
مراغه
مراکش
مراکشلی
مربع
مربی
مرتبه
مرتضی
مرجان
مرحله
مرحمت
مرحوم
مرد
مرداد
مردم
مرسی
مركزي
مركزی
مرند
مره
مرو
مروان
مرونون
مرکز
مرکزلری
مرکزلرینی
مرکزي
مرکزی
مرکزیدیر
مرکزینده
مرکزینه
مرکوری
مرگور
مری
مریخ
مریخین
مریضلیک
مریل
مریلند
مریم
مریکا
مریکادا
مریکالی
مریکانا
مریکانین
مریکایا
مریکایی
مز
مزار
مزارلیقی
مزاری
مزدیسنا
مزرعه
مس
مسا
مساحت
مساحتی
مسافه
مساله
مستردام
مستقل
مسجد
مسجید
مسجیدی
مسجیدین
مسعود
مسلم
مسلمان
مسله
مسي
مسکن
مسکو
مسکون
مسی
مسیح
مسیحی
مسیحیت
مشروطه
مشروطیت
مشغول
مشقچی
مشه
مشهد
مشهدی
مشهور
مشهوردور
مصر
مصطفی
مصلحت
مصنوعی
مضمونو
مطبخ
مطبخی
مطبعه
مطبوع
مطبوعات
مطبوعاتدا
مطبوعاتی
معادل
معاریف
معاریفچی
معاونت
معجم
معدن
معده
معرفی
معروض
معروف
معلم
معلوم
معلومات
معلوماتا
معلوماتلار
معلوماتلاری
معلوماتی
معلوماتینا
معلومدور
معمار
معمارلیق
معماری
معنا
معنادا
معناسی
معناسیندا
معناسینی
معنوی
معنی
معیشت
معین
مغان
مغلوب
مغول
مفتامین
مقاله
مقام
مقامی
مقان
مقاومت
مقبره
مقدس
مقدمه
مقدونیه
مقصد
مقصدله
مقصدی
مقصدیله
مقی
مل
ملا
ملادا
ملانی
ملبورن
ملت
ملن
ملوان
ملون
ملوین
ملک
ملکاری
ملکه
ملی
ملیسا
ملیک
مم
مما
ممفیس
مملكة
مملوک
مملکت
مممدوو
ممه
من
منبع
منبعلرده
منجوان
مندز
منسوب
منشا
منشالی
منصور
منطقه
منطیق
منظره
منظوم
منظومه
منفی
منقنز
منه
منهتن
منچستر
منگور
منی
منیزیوم
منیم
منیمسه
مه
مهاباد
مهاراشترا
مهدی
مهر
مهران
مهرداد
مهرست
مهم
مهند
مو
موالیجه
موباحیثه
موباريزه
موباریزه
موبایل
موبایلین
موت
موتا
موتفک
موتور
موتورز
موتورولا
موثبت
موجادیله
موحاریبه
موحاصیره
موحافیظه
موحیط
موخالیف
موخالیفت
موختار
موختصات
موختليف
موختلیف
مود
موداخیله
مودافع
مودافیعه
مودت
مودرن
مودل
مودي
مودی
مودیری
موذاکیره
مور
مورا
موراجیعت
موران
موراوی
موراویا
مورای
مورایس
مورب
موربع
مورتون
مورداد
موردلره
مورفی
مورقان
مورمانسک
مورنو
مورو
مورک
موری
موریتانی
موریس
موریسون
موز
موزامبیک
موزش
موزه
موزي
موزیسین
موزیک
موس
موسا
موسابیقه
موساوات
موستانق
موستقیل
موستقیم
موستملکه
موسلمان
موسلمانلار
موسلمانلارین
موسوی
موسيقي
موسکو
موسکودا
موسی
موسیسه
موسیقچی
موسیقی
موسیقیسین
موسیقیچی
موش
موشاهیده
موشتری
موصول
موطلق
موعاصیر
موعاوینی
موعل
موعلیم
موعلیمی
موعی
موعین
موغام
موغامی
موغان
موغن
موغنی
موغول
موغولیستان
موقاویله
موقاییسه
موقد
موقدس
موقعیتینده
مول
مولانا
مولاییم
مولداوی
مولر
موللا
مولکی
مولیزه
مومکون
مومکوندور
مون
موناسیبت
موناسیبتی
موناقیشه
موناکو
مونت
مونتانا
مونتاین
مونترا
مونتقومری
مونته
مونرو
مونفراتو
مونوفوسفات
مونیخ
مونیوم
مونیکا
موهندیس
موهوم
مووافیق
موکافات
موکافاتی
موکرات
موکراتیک
مي
ميرزه
ميل
مين
مپ
مپي
مک
مکان
مکانیک
مکتب
مکتبده
مکتبی
مکتبین
مکتبینده
مکتبینه
مکتوب
مکتوم
مکدونالد
مکدیر
مکریان
مکزیک
مکزیکده
مکزیکلی
مکزیکو
مکس
مکعب
مکقیل
مکلنبورق
مکنزی
مکه
مکی
مگه
مگی
مۆالیجه
مۆباریزه
مۆحاریبه
مۆحافیظه
مۆحیط
مۆختلیف
مۆختلیفلیینه
مۆد
مۆدافیعه
مۆدافیه
مۆدت
مۆستقیل
مۆسلمان
مۆسلماندیرلار
مۆشاهیده
مۆعاصیر
مۆقاویله
مۆلکودور
مۆمکون
مۆناقیشه
مۆهندیس
مۇحاریبه
مۇغان
می
میامی
میان
میانا
میاندوا
میانه
میت
میثال
میثم
میخاي
مید
میدال
میدان
میدانا
میدانین
میدیا
میر
میرا
میراث
میراندا
میرزا
میرزه
میز
میزوری
میس
میسون
میسیسیپی
میش
میشاي
میشدی
میشدیر
میشل
میشیقان
میصر
میصرده
میصرلی
میصرین
میصیر
میف
میفو
میفولوژی
میقداردا
میقداری
میقل
میل
میلاد
میلادان
میلاددان
میلادی
میلان
میلت
میلتلر
میلتلرا
میلتون
میلتچی
میلر
میلز
میلس
میللت
میللی
میللیت
میلو
میلواکی
میلی
میلیارد
میلیون
میلیونا
مین
مینا
میناره
مینجی
میندن
مینرال
مینسوتا
مینلرله
مینه
مینو
مینی
میه
میوزیک
میوه
میچل
میک
میکا
میکاي
میکرو
میکل
میکولاي
میکی
ن
نا
نات
ناتاشا
ناتالی
ناتالیا
ناتان
ناتانیل
ناتو
ناتولی
ناتینقهام
ناجی
ناحیه
ناخجیوان
ناخچیوان
ناد
نادان
نادر
نادو
نادولو
نادولودا
نادیر
نار
نارا
ناراحات
نازلی
نازی
نازیک
ناسا
ناسی
ناسیمنتو
ناسیونال
ناصر
ناصرالدین
ناصری
ناظری
ناظیر
ناظیری
ناغارا
ناغیل
ناقار
ناقانو
ناليتيک
نالیتیک
نالیز
نام
ناماز
نامعتبر
نامه
نامیزد
نان
نانسی
ناوکی
ناي
ناپلي
ناپولی
ناکامورا
ناکس
نای
نایت
نایجل
نایل
نباتی
نبراسکا
نبضلی
نبی
نبیل
نت
نتال
نتایج
نتس
نتمن
نتمنی
نته
نتوان
نتورک
نتون
نتونی
نتونیو
نتي
نتيجه
نتی
نتیجه
نتیوخوس
نتیک
نثر
نجاق
نجف
نجلا
نجلس
نجلو
نجه
نجو
نجي
نجی
نجیب
نخل
ند
ندا
ندان
ندر
ندرا
ندراده
ندرانیک
ندردی
ندردیگی
ندرزون
ندرس
ندرسون
ندره
ندري
ندری
ندریاس
ندریر
ندریلدی
ندریو
ندلاشماسی
ندن
ندنی
نده
ندو
ندورا
ندي
ندی
ندیر
نر
نرا
نرادان
نرالار
نراکی
نری
نریمان
نس
نساجی
نسخه
نسرت
نسلی
نسلیندن
نسنه
نسیل
نسیمی
نسین
نسیکلوپي
نشان
نشد
نشده
نشر
نشره
نشری
نشریاتی
نشریه
نشو
نشویل
نشین
نصر
نصرالدین
نصرت
نظارت
نظارتی
نظام
نظامی
نظر
نظردن
نظرده
نظره
نظرکهریزی
نظری
نظریه
نظم
نظمی
نعلین
نعمان
نعمت
نغمه
نفت
نفتچالا
نفر
نفردن
نفردیر
نفرلیک
نفره
نفری
نفریمیش
نفرین
نفس
نفوس
نق
نقاش
نقد
نقده
نقرو
نقش
نقشه
نقطه
نقل
نقلیات
نقو
نقولا
نل
نلار
نلارا
نلاردا
نلاردان
نلاری
نلارین
نلاشما
نلاشماسی
نلام
نلامی
نلامینا
نلامیندا
نلاین
نلاییش
نلاییشی
نلر
نلسون
نلی
نم
نماینده
نمده
نملی
نمه
نمونه
نمک
نمی
نمین
نمینده
نن
ننه
نه
نهالت
نهایت
نهر
نهنگ
نو
نوا
نوادا
نواف
نوامبر
نوایی
نوبل
نوبي
نوت
نوتردام
نوتلار
نوح
نوخوشلوق
نور
نورا
نورت
نورتون
نورث
نوردراین
نورمال
نورمان
نورماندی
نورمن
نورو
نوروز
نوروزی
نوروود
نوروژ
نوروژده
نوروژلی
نوروژین
نوری
نوریس
نوریچ
نوس
نوسخه
نوش
نوشهر
نوع
نوفوس
نوفوسو
نوقای
نوقطالنمیش
نوقطه
نول
نولان
نوماینده
نوماییش
نومره
نومونه
نون
نونا
نونجو
نوندا
نونده
نوه
نوو
نووا
نووامبر
نووایا
نووع
نووقورود
نووه
نووی
نوي
نوچ
نوکیا
نوی
نویس
نویل
نوین
ني
نيش
نين
نپال
نپتون
نچه
نژاد
نک
نکا
نکارا
نکارادا
نۆسخه
نۆفوس
نۆفوسا
نۆفوسلارینا
نۆفوسو
نۆوه
نۇ
نۇفوس
نۇن
نی
نیا
نیاز
نیازمند
نیاسین
نیب
نیت
نیترات
نیتروژن
نیترید
نیتن
نیجر
نیجریه
نیدرزاکسن
نیدن
نیر
نیروی
نیز
نیزه
نیس
نیسان
نیسبت
نیسبتا
نیسبی
نیش
نیشانی
نیظام
نیظامی
نیقاتا
نیل
نیلز
نیلسن
نیلسون
نیلمه
نیلن
نیله
نیلین
نیما
نیمه
نین
نینا
نیندا
نینگ
نیه
نیو
نیوتن
نیوتون
نیوجرسی
نیوز
نیوزیلند
نیوزیلنده
نیومن
نیومکزیکو
نیوهمپشایر
نیوپورت
نیوکاسل
نیویورک
نیویورکدا
نیویوک
نیژني
نیژنی
نیژنیایا
نیک
نیکسون
نیکل
نیکلاس
نیکو
نیکول
نیکولا
نیکولاس
نیکولای
نیکی
ه
ها
هابي
هات
هادسون
هادی
هارا
هاربر
هاربور
هارت
هارتفورد
هارد
هاردی
هاردینق
هاروارد
هارولد
هارون
هاروی
هارپر
هاریانا
هاریس
هاشم
هاشمی
هافبک
هافمن
هال
هالی
هالید
هالیدی
هالیوود
هامبورق
هامی
هامیسی
هامیلتون
هان
هانا
هانت
هانتر
هانس
هانسي
هانسی
هانوفر
هانی
هاو
هاوا
هاواجیلیق
هاوادا
هاوارد
هاواسی
هاوانین
هاواي
هاوایی
هاوزن
هاوس
هاولیتشکوف
هاون
هاوکینز
هاي
هاپ
هاپکینز
هاچینسون
های
هایتس
هایدلبرگ
هایدن
هایلند
هاینتس
هاینریش
هاینز
هجری
هجوم
هخامنشلر
هد
هدایت
هدر
هدف
هدفی
هده
هدی
هدیه
هر
هرات
هرادتس
هرادیشتی
هربرت
هرت
هرزقووین
هرمان
هرمن
هره
هرودوت
هری
هریس
هریسون
هسن
هشام
هشترخان
هضم
هـ
هفت
هفته
هقزافلوي
هل
هلاک
هلایجان
هلن
هلنا
هلند
هله
هم
همان
همت
همدان
همده
همراز
همراه
همزه
همسرحددیر
همشهری
همن
همه
همولیمفا
همين
همپتون
همچنین
همچینین
همیشه
همیلتون
همین
هن
هند
هندرسون
هندوراس
هنر
هنری
هنریک
هنه
هنگ
هو
هوا
هوارد
هوانق
هوت
هوجوم
هوجوما
هوجومو
هوجومچو
هوجي
هود
هودونین
هورا
هوراندبولومو
هورتون
هورموزقان
هورن
هورنی
هوستون
هوقو
هول
هولت
هولدن
هولدینق
هولشتاین
هولمز
هولند
هولندلی
هولنده
هولوتوریلر
هولی
هوم
هومبولت
هون
هوندا
هونر
هونق
هوو
هووارد
هوپ
هوک
هوکایدو
هوی
هویت
هویزه
هي
هپاتیت
هچ
هکتور
هۆجوم
هۆجومچو
هۆجۇم
هی
هیت
هیتلر
هیجری
هید
هیدرو
هیدروژن
هیدروکسی
هیدروکسید
هیدرویدلر
هیدرید
هیدن
هیروشیما
هیز
هیل
هیلاری
هیلتون
هیلز
هیلس
هیلی
هیماچال
هیند
هیندوستان
هیندوستاندا
هیندوستانلی
هیندوستانین
هیندی
هیندیجه
هیندیستان
هیو
هیوز
هیوستون
هیوقو
هیون
هیوندای
هیي
هیپ
و
وا
وابسته
وات
واتانابه
واتر
واترلو
واتسون
واتکینز
واتیکان
واجیب
واحد
واحید
واحیدی
واحیدینده
واخت
واختدا
واختلار
واختلاردا
واختی
واختیندا
واد
وادی
وار
وارايميش
وارایمیش
وارتون
وارد
واردير
واردی
واردیر
وارسا
وارلی
وارلیغی
وارلیغینی
وارلیق
وارميش
وارمی
وارمیش
وارن
وارنا
وارنر
واری
واریث
واریدی
واریمیش
واسطه
واسيطه
واسیطه
واسیلی
واشنقتون
واشینقتن
واشینقتون
واطلاعات
واقع
واقنر
وال
والا
والاس
والت
والتر
والترز
والتون
والری
والش
والنسیا
والنوت
واله
والي
والکر
والی
والیبال
والیدي
وامبر
وان
وانادیوم
وانق
واکر
واکسن
وای
وایادولید
وایت
وایلد
واین
وایومینق
وب
وبتی
وبر
وبستر
وبه
وجود
وجوددور
وحدت
وحشی
وحه
وحی
وحید
ود
ودا
ودال
وده
ودور
ور
ورا
ورخ
ورخنی
ورخنیایا
ورد
وردن
ورده
وردی
ورزشگاه
ورزیقان
ورشو
ورق
ورلرده
ورمانت
ورمونت
ورن
ورنر
ورنون
وره
ورو
ورومتان
ورون
ورونا
ورونده
ورونه
ورونو
ورونون
وروپا
وروپادا
وروپانین
وري
ورۆنده
وری
ورید
وریر
وریل
وریلدی
وریلمه
وریلمیش
وریلمیشدیر
وریلیب
وریلیر
وریلین
وریه
وز
وزارت
وزت
وزه
وزیر
وزیری
وزینه
وس
وست
وستا
وسترن
وستفالن
وستوود
وستی
وستین
وسدا
وسلین
وسیله
وشار
وشه
وشیمی
وضعیت
وضعیتده
وضعیته
وضعیتی
وضه
وضو
وضوع
وطن
وطنداش
وطنه
وطنی
وظیفه
وع
وعو
وف
وفات
وفاتی
وفاتیندان
وق
وقا
وقاس
وقت
وقع
وقفی
وقوست
وقي
ول
ولا
ولاخ
ولادی
ولادیمیر
ولت
ولتلر
ولتلری
ولتلرین
ولته
ولتی
ولتین
ولتینده
ولتینه
ولتینی
ولتینین
ولر
ولری
ولز
ولزده
ولزلی
ولش
ولف
ولفقانق
ولقوقراد
ولندی
وله
ولو
ولورهمپتون
ولوژی
ولی
ولیامز
ولید
ولین
ولینقتون
ولیکو
وم
ون
ونارد
وناردو
ونتزیا
ونتو
وندربیلت
وندل
وندی
ونزوي
ونسا
ونق
ونه
ونیز
وه
وهر
وو
ووتسکی
وود
وودز
وورتمبرق
ووروب
ووستر
وولا
وولف
وولفسبورق
وولقا
وولوقدا
وولکا
وون
وي
ويكيپديا
ويکي
وپولد
وکا
وکسی
وکی
وکیل
وکیلی
وگی
وۇرماییب
وۇروب
وۇروشون
وی
ویا
ویت
ویتامین
ویتنام
ویتنی
ویتو
ویتون
وید
ویدي
ویر
ویرا
ویرجینیا
ویردی
ویرن
ویروس
ویزد
ویس
ویستا
ویسنته
ویسوچینا
ویسکانسین
ویش
ویشکوف
ویل
ویلا
ویلارد
ویلایت
ویلایتی
ویلایتین
ویلایتینده
ویلج
ویلر
ویلسون
ویلم
ویلن
ویلهلم
ویلوو
ویلي
ویلکا
ویلکوپولسکی
ویلکی
ویلکیج
ویلکیه
ویلی
ویلیام
ویلیامز
ویلیامسون
ویلیج
ویلیس
ویم
وین
وینا
وینتر
وینتون
وینج
ویندزور
وینده
ویندوز
وینس
وینستون
وینسنت
وینفیلد
وینه
وینچستر
وینی
وینیتسیا
ویه
ویو
ویور
ویولا
ویومینق
ویوودشیپ
ویي
ویچ
ویژوال
ویک
ویکتور
ویکتوریا
ویکی
ویکیپدیا
وییه
وییو
ى
ي
يا
يازيردي
يازيچي
ياشايان
ياشايير
يت
يد
يدانا
يدر
ير
يره
يري
يعني
يل
يله
ين
يني
يه
يو
يوان
يوخاري
يوخدور
يول
يولو
يوک
يي
يير
ييل
ييلير
يی
ً
ٌ
ٍ
َ
ُ
ِ
ّ
ْ
ٓ
ٔ
ٕ
ٚ
ٛ
١
٤
٦
٪
٫
٬
٭
ٰ
پ
پا
پابلو
پات
پاتر
پاتریسیا
پاتریشا
پاتریشیا
پاتریک
پاتي
پاخیر
پادار
پادشاه
پادشاهی
پارا
پاراقوي
پاران
پاراگوي
پارتی
پارتیاسی
پارتیسی
پاردوبیتسه
پاردی
پاردیغی
پارس
پارساا
پارلاق
پارلامي
پارماق
پارمیش
پارچا
پارچاسی
پارک
پارکر
پارکی
پاریب
پاریجی
پاریر
پاریس
پاریسده
پاریلان
پاریلیر
پاس
پاسو
پاسکال
پاشا
پاشانین
پال
پالاس
پالتار
پالم
پالمر
پالنسیا
پالی
پام
پامبیق
پاملا
پان
پاناما
پاور
پاول
پاي
پاپ
پاپاق
پاک
پاکیستان
پاکیستاندا
پاکیستانلی
پاکیستانین
پای
پایان
پایتختی
پاین
پاینز
پایگاه
پاییز
پت
پتر
پترزبورق
پترسون
پترولیوم
پتی
پداقوژی
پدرو
پدروی
پديا
پدیا
پدیاسی
پدیاسینین
پدیانین
پدیده
پر
پرادش
پراق
پراقا
پرایری
پرایس
پرت
پرتغالی
پرده
پردو
پرروف
پرز
پرزیدنت
پرزیدنتی
پرس
پرستون
پرسپولیس
پرسی
پرل
پرم
پرمیر
پرنده
پرو
پروانه
پروبلم
پروبلي
پروتي
پروس
پروسدا
پروسس
پروسسی
پروسه
پروسي
پروفایلی
پروفسور
پروفي
پروقرام
پروقرامی
پروپان
پروژه
پرویز
پري
پرکینز
پری
پریا
پریبرام
پریرا
پریری
پریسلی
پریشی
پریل
پرینستون
پرینسیپ
پس
پست
پسند
پشتلو
پقی
پل
پلاتا
پلام
پلان
پلانی
پلزن
پله
پلهریموف
پلون
پلوودیو
پلي
پلی
پلیس
پلین
پلینز
پن
پناه
پنجاب
پنجابی
پنجره
پنسیلوانیا
پنی
په
پهلوی
پو
پوبلیسیست
پوتاسیوم
پود
پودلاسکی
پودوچری
پودکارپاتسکیه
پور
پورت
پورتال
پورتالي
پورتالی
پورتر
پورتلند
پورتو
پورتوقال
پورتوقالدا
پورن
پورنو
پوست
پوستی
پوشکین
پول
پولاد
پولتاوا
پولدشت
پولو
پولک
پولکوونیک
پولی
پولیا
پولیس
پولیمر
پولیپلری
پولیپمدوزلار
پولیپودیلر
پومرانی
پومورسکی
پون
پونته
پوي
پوپ
پوینت
پي
پژوهشي
پژوهشی
پک
پکن
پی
پیام
پیان
پیانو
پیت
پیتر
پیترو
پیتسبرق
پیتسبورگ
پیج
پیدا
پیر
پیرانشهر
پیرس
پیرسون
پیروشه
پیری
پیس
پیسک
پیش
پیشه
پیشیک
پیغمبر
پیل
پیلله
پیمان
پیمونت
پین
پینتو
پیو
پیوتر
پیوه
پیي
پیک
پیکچرز
چ
چاتان
چاتدی
چاتمیش
چاتمیشدیر
چاتیب
چاتیر
چاد
چار
چارلز
چارلستون
چارلی
چارنا
چاغ
چاغاتای
چاغدا
چاغداش
چاغی
چاغیندا
چال
چالدیران
چالشیان
چالغی
چالیشان
چالیشدی
چالیشدیغی
چالیشما
چالیشماسی
چالیشمالاری
چالیشمیش
چالیشمیشدیر
چالیشیب
چالیشیر
چالیشیردی
چالیشیرلار
چان
چاناق
چانق
چاي
چاپ
چاپا
چاپلین
چاپی
چاک
چای
چایلاری
چاینا
چایپاسار
چایی
چایین
چایینا
چاییندان
چایینین
چتین
چدو
چدی
چدیب
چر
چرشنبه
چرلی
چرنیهیو
چرنیوتسی
چرچ
چرچیل
چرچیوه
چرکاسی
چری
چستر
چسکه
چشمه
چغامیش
چلبی
چلسی
چلیابینسک
چم
چماق
چمن
چمندیر
چمه
چمک
چمیش
چمیشده
چمیشدی
چمیشدیر
چن
چندلر
چندین
چنق
چنه
چنگیز
چه
چهار
چو
چوب
چوبان
چوخ
چوخدور
چوخلو
چوخلوجا
چوخلی
چوخو
چوخونلوغو
چور
چورزق
چورولمه
چوسان
چول
چولار
چون
چونکو
چونکی
چوواش
چي
چپل
چپمن
چک
چکدی
چکمه
چکمک
چکن
چکه
چکی
چکیب
چکیر
چکیردک
چکیشمه
چکیلدی
چکیلمه
چکیلمیش
چکیلن
چکیلیب
چکیلیر
چی
چیب
چیبا
چیخاردی
چیخارماق
چیخاریلیر
چیخان
چیخدی
چیخماسی
چیخماق
چیخمیش
چیخمیشدیر
چیخیب
چیخیر
چیخیش
چیخیشی
چید
چیر
چیردی
چیردیگی
چیرلر
چیرمه
چیرمک
چیرن
چیره
چیریب
چیریر
چیریلدی
چیریلمه
چیریلمیش
چیریلمیشدیر
چیریلن
چیریله
چیریلیر
چیس
چیسی
چیفتلیک
چیق
چیقلادی
چیل
چیلار
چیلان
چیلدی
چیلر
چیلری
چیلله
چیلماق
چیلمه
چیلمیش
چیلمیشدیر
چیلن
چیله
چیلیب
چیلیر
چیلیشی
چیلیک
چیمی
چین
چینجه
چینده
چینلی
چینه
چینکو
چینی
چینین
چیچک
ژ
ژان
ژانر
ژانرلاریندا
ژانویه
ژانیرو
ژاپنی
ژاپون
ژاپونجا
ژاپوندا
ژاپونلو
ژاپونلی
ژاپونین
ژاک
ژدار
ژرمن
ژرژ
ژن
ژنتیک
ژنرال
ژنو
ژو
ژوا
ژورنال
ژورنالی
ژورنالیست
ژوزف
ژوزه
ژول
ژولای
ژوي
ژي
ژی
ژیتومیر
ژیسسور
ژیسینده
ک
کا
کابول
کاتالان
کاترین
کاتلین
کاتو
کاتولیک
کاتي
کاتیب
کاتیبی
کادمی
کادمیوم
کادمیک
کادي
کار
کارا
کاراجا
کاراي
کاراکتي
کارت
کارتر
کارتی
کاردیف
کارسون
کارل
کارلایل
کارلتون
کارلو
کارلوس
کارلووی
کارلین
کارمن
کارن
کارناتاکا
کارنقی
کاروالیو
کارول
کارولین
کارولینا
کارپنتر
کاری
کارین
کازان
کازوکی
کاس
کاستاریکا
کاسترو
کاستل
کاستلو
کاستیلیونه
کاسرس
کاسپي
کاسپی
کاسیب
کاشیما
کاظم
کاظیم
کاغذکنان
کاغیذ
کافي
کال
کالابریا
کالان
کالج
کالجی
کالجیندا
کالجیینده
کالوین
کالي
کالی
کالیفرنیا
کالیفورنیا
کالیفورنیادا
کالین
کالینز
کالینینقراد
کام
کامران
کامرون
کامل
کامپ
کامپانیا
کامپبل
کامپس
کامپو
کامیل
کامینق
کامینقز
کان
کانادا
کانادادا
کانادالی
کانادانین
کاناقاوا
کانال
کانالی
کاناوزه
کانت
کانتری
کانتون
کانتونون
کانتونونون
کانتی
کانتیکت
کانزاس
کانو
کانون
کانوی
کانی
کانیون
کاوه
کاي
کاپ
کاپورتالا
کاپی
کاپیتان
کاکس
کای
کاید
کایل
کایه
کبي
کبیر
کت
کتاب
کتابخانه
کتابی
کتسینقزلشافت
کتوبر
کتور
کتورو
کتون
کتی
کتیبه
کتیو
کد
کدن
کدپ
کر
کراس
کراسنودار
کراسنویارسک
کراسنی
کرال
کرالا
کراللیغی
کرالووه
کرالی
کراوفورد
کراکوف
کرایق
کربلا
کربون
کربونات
کربونیل
کربوکسیلیک
کرت
کرج
کرد
کرست
کرسول
کرم
کرمان
کرن
کرنل
کره
کرو
کروز
کروس
کرول
کرون
کروواسی
کري
کرک
کرکوک
کری
کریس
کریستال
کریستن
کریستوف
کریستوفر
کریستی
کریستیان
کریستین
کریستینا
کریشنا
کریق
کریم
کریمه
کریمی
کریمین
کرین
کریک
کس
کسب
کسروی
کسفورد
کسل
کسن
کسکین
کسی
کسیجی
کسین
کش
کشف
کشفی
کشفیات
کشمیر
کشور
کشوری
کشکول
کل
کلارا
کلارنس
کلارک
کلاسیک
کلام
کلاوس
کلای
کلایتون
کلاید
کلاین
کلبجر
کلر
کلری
کلسیوم
کلله
کلم
کلمبوس
کلمبیا
کلمن
کلمنت
کلمه
کله
کلو
کلوب
کلوبو
کلوبونا
کلوبوندا
کلود
کلي
کلی
کلیتون
کلیر
کلیسا
کلیساسی
کلیف
کلیفتون
کلیفورد
کلین
کلینتون
کلیولند
کم
کمال
کمبریج
کمداری
کمری
کمپ
کمپبل
کمپل
کمکی
کمیته
کن
کنار
کنارا
کناردا
کناریندا
کنت
کنتا
کنتاکی
کنتیکت
کنجی
کند
کندال
کندده
کنددیر
کندلر
کندلرده
کندلری
کندلرین
کندلریندن
کندلرینده
کندلی
کنده
کندوان
کندی
کندین
کندینده
کندینین
کنراد
کنستانتین
کنعان
کنلی
کننده
کنی
کنیا
کنیاز
کنیون
که
کو
کوا
کوانت
کوب
کوبا
کوبالت
کوبایاشی
کوبه
کوت
کوتا
کوتله
کوتلوی
کوتنا
کوتیکولیار
کوثر
کوجی
کود
کودو
کور
کورا
کورت
کورتیس
کورد
کوردجه
کوردلر
کوردمیر
کوردوبا
کوردوستان
کورنر
کورنل
کوره
کوروش
کوروشون
کوروم
کوروواسی
کوری
کوریا
کوستا
کوسمیک
کوسوکه
کوشچیلنه
کوفته
کوفه
کول
کولتور
کوللي
کولمبوس
کولمبیا
کولمن
کولن
کوله
کولو
کولوب
کولوبو
کولوبودور
کولوبونا
کولوبوندا
کولوبونون
کولور
کولورادو
کولورید
کولومب
کولومبیا
کولونقا
کولک
کولین
کولینز
کومار
کومان
کوماندانی
کومت
کومتی
کومتین
کومدی
کومدین
کومو
کومور
کومون
کومونه
کومونیست
کومي
کومی
کومیته
کون
کونتیکت
کوندن
کونستانتین
کونسي
کونفدراسیونو
کونق
کونقره
کونقلومرات
کونقو
کونو
کوه
کوهن
کوهی
کوو
کووالانسیونو
کووي
کوي
کوپر
کوپنهاق
کوچه
کوک
کوکس
کوکو
کوکی
کوی
کویافسکو
کویت
کوین
کي
کيتاب
کيمي
کيچيک
کپسول
کۆتله
کۆره
کۆل
کی
کیت
کیتا
کیتاب
کیتابخانا
کیتابخاناسی
کیتابخاناسیندا
کیتابدا
کیتابلار
کیتابلاری
کیتابه
کیتابی
کیتابیدیر
کیتابین
کیتابیندا
کیتابینی
کیتی
کیث
کید
کیرا
کیربی
کیرلیلیغی
کیرمان
کیرمانشاه
کیرن
کیرووهراد
کیرپیلری
کیرپیکلی
کیریل
کیس
کیسه
کیسواریلر
کیسوکه
کیسی
کیشی
کیشیلر
کیف
کیفایت
کیفن
کیل
کیلسه
کیلو
کیلومتر
کیلومتیر
کیلومي
کیلی
کیلیسا
کیلیساسی
کیم
کیمبرلی
کیمسه
کیمی
کیمیا
کیمیاچی
کیمین
کیمیوی
کین
کینق
کینقز
کینقستون
کینو
کینی
کیو
کیوتو
کیي
کیپ
کیچیک
گ
گاز
گالگسی
گانه
گاه
گتیردی
گتیردیگی
گتیرمه
گتیرمک
گتیرمیش
گتیرن
گتیره
گتیریب
گتیریر
گتیریلدی
گده
گر
گربه
گرده
گره
گروه
گروهی
گرچک
گرک
گرگان
گرگین
گریگوری
گزارش
گزه
گل
گلدی
گلدیلر
گلدیگی
گلر
گلمه
گلمک
گلمیش
گلمیشدیر
گلن
گلندن
گله
گلکسی
گلیب
گلیر
گلیردی
گلیرلر
گلیشمه
گلین
گلینیر
گمی
گمیریجی
گمیسی
گن
گنج
گنجعلی
گنجلر
گنجلیک
گنجه
گنجوی
گه
گو
گوج
گوجلری
گوجلو
گوجو
گورا
گورانبوی
گورجو
گورجوستان
گورجیستان
گوره
گورک
گوز
گوزل
گوست
گوسترن
گوستریر
گوشه
گول
گولش
گولله
گولو
گولوستان
گومان
گوموش
گون
گوناه
گوندن
گونده
گوندوز
گونش
گونشلی
گونلرده
گونلری
گونلوک
گونه
گونو
گونوموزده
گونوموزه
گونون
گونونده
گوني
گونی
گوهر
گویا
گي
گۆج
گۆجلری
گۆجلو
گۆجو
گۆل
گۆن
گۆنده
گۆنش
گۆنشلی
گۆنو
گۆنوموز
گۆني
گۆنۆ
گۆنی
گی
گیاه
گیاهان
گیتاشناسی
گیتی
گیرده
گیردی
گیرمه
گیرن
گیره
گیریب
گیریش
گیزلی
گیل
گیلان
گینه
ۆ
ی
یا
یابقو
یاتاق
یاتیریم
یاخشی
یاخلاشیق
یاخود
یاخچی
یاخین
یاخیندان
یاخینلیغین
یاخینلیغیندا
یاد
یادا
یادکرد
یار
یارا
یاراتدی
یاراتدیغی
یاراتماق
یاراتمیش
یاراتمیشدیر
یارادان
یارادیب
یارادیجی
یارادیجیلیغی
یارادیر
یارادیلان
یارادیلدی
یارادیلماسی
یارادیلمیش
یارادیلمیشدیر
یارادیلیب
یارالی
یاران
یارانان
یاراندی
یارانما
یارانماسی
یارانماسینا
یارانمیش
یارانمیشدیر
یارانیب
یارانیر
یاراي
یاردیم
یاردیملی
یاردیمچی
یاردیمی
یارپاغی
یارپاق
یاری
یاریسی
یاریسیندا
یاریش
یاریشی
یاریقلاری
یاریلانما
یاریم
یاز
یازار
یازاری
یازان
یازدی
یازدیغی
یازدیغینا
یازدیقلاری
یازما
یازماغا
یازماق
یازمیش
یازمیشدیر
یازی
یازیب
یازیر
یازیردی
یازیسی
یازیلار
یازیلاری
یازیلان
یازیلمیش
یازیلمیشدیر
یازیلی
یازیلیب
یازیلیر
یازیلیم
یازیچی
یازیچیسی
یازیچیلار
یاس
یاسا
یاسر
یاسی
یاسین
یاش
یاشا
یاشادی
یاشادیغی
یاشار
یاشام
یاشاماق
یاشامی
یاشامیر
یاشامیش
یاشایان
یاشاییب
یاشاییر
یاشاییردی
یاشاییردیلار
یاشاییرلار
یاشاییرمیش
یاشاییش
یاشاییشی
یاشلی
یاشکان
یاشی
یاشیل
یاشین
یاشیندا
یاغ
یاغا
یاغی
یاغیش
یاغینتی
یافت
یاق
یاقلانماسی
یاقوت
یالان
یاللی
یالنیز
یامادا
یاماقوچی
یاماموتو
یامان
یان
یانا
یاناجاق
یاناشی
یانق
یانلاردا
یانلاریندا
یانلیش
یانی
یانین
یانینا
یانیندا
یاواش
یاپی
یاپیمجی
یاپیمجیسی
یاکوب
یای
یایماق
یاییلان
یاییلدی
یاییلماسی
یاییلمیش
یاییلمیشدیر
یاییلیب
یاییلیر
یاییم
یاییملانان
یاییملاندی
یایین
یب
یت
یتا
یتده
یتر
یتس
یتورک
یتی
یتیریر
یج
یجی
یحیی
یخ
ید
یدا
یدالانمادا
یدان
یدانا
یدانی
یداهو
یدر
یدن
یده
یدو
یدی
یدین
یر
یرا
یران
یرت
یرتمن
یرتیم
یرس
یرلر
یرلی
یرنجی
یرنمک
یرنیر
یرنیلمه
یره
یرک
یری
یریجا
یریلدی
یریلمیش
یریلیب
یریلیر
یریلیق
یرین
یرینه
یز
یزاک
یزد
یزویل
یزیانا
یزید
یس
یسده
یسلی
یسم
یسون
یسی
یسین
یش
یعقوب
یعنی
یغمبر
یغمبرین
یف
یفون
یفیت
یك
یل
یلا
یلاریندا
یلر
یلقان
یلم
یلند
یله
یلو
یلی
یلیر
یلیق
یلین
یم
یمان
یمز
یمن
یمه
یمور
ین
ینا
ینامیش
یناییب
یناییر
یناییرلار
ینجی
یندا
ینده
ینزلند
ینلخالق
ینه
ینک
ینی
ینین
یه
یهودی
یهودیلر
یهون
یهینه
یو
یوا
یوان
یوانلار
یوانلاردیر
یوانلارین
یوتا
یوتی
یوتیوب
یوجین
یوخ
یوخاری
یوخاریدا
یوخدور
یوخسا
یوخسول
یوخلاما
یوخلانیب
یوخلانیلیب
یوخو
یود
یودشیپ
یودیود
یورد
یوردا
یوردلاری
یوردلاریندا
یوردو
یوردودا
یوردونا
یوردوندا
یوردونون
یورقن
یورو
یوروش
یوروشو
یورک
یوری
یوز
یوزایل
یوزده
یوزف
یوزه
یوسف
یوسیف
یوش
یوشده
یوشو
یوشون
یوشونده
یوشیدا
یوفا
یوق
یوقوسلاوی
یول
یولا
یولدا
یولداش
یولداشی
یوللا
یوللاری
یولو
یولون
یولوندا
یولونو
یولونون
یومرومدوزلار
یومه
یومورتا
یون
یونا
یونان
یونانجا
یوناندا
یونانلی
یونانی
یونانین
یونایتد
یونجا
یونجو
یونجوسودور
یوندا
یونس
یونسکو
یونق
یونلاریندا
یونلارینی
یونو
یونون
یونچو
یونچوسو
یونگول
یونی
یونین
یونیون
یوه
یوهان
یوهانس
یوو
یووا
یوي
یوپاک
یوک
یوکا
یوکسک
یوکو
یوکوهاما
یویل
یي
یپ
یچی
یک
یکان
یکر
یکل
یکی
یگانه
یۆز
یۆک
یۆکسک
یۆکسکلیکده
یۇخاری
یۇکسک
یی
ییب
یید
ییر
ییردی
ییردیلر
ییرلر
ییشدی
ییشمه
ییشیب
ییغیلماق
ییل
ییلدی
ییلدیر
ییلر
ییلن
ییلیر
ییلیردی
ییم
یین
ییندا
ییندریخوف
یینده
یینه
یینی
یینین
ییه
ییهلاوا
ییي
ییچین
ییک
یییه
۰
۰۰
۰۰۰
۰۱
۰۲
۰۳
۰۴
۰۵
۰۶
۰۷
۰۸
۰۹
۱
۱۰
۱۰۰
۱۰۰۰
۱۰۱
۱۰۲
۱۰۳
۱۰۴
۱۰۵
۱۰۶
۱۰۷
۱۰۸
۱۰۹
۱۱
۱۱۰
۱۱۰۰۰
۱۱۱
۱۱۲
۱۱۳
۱۱۴
۱۱۵
۱۱۶
۱۱۷
۱۱۸
۱۱۹
۱۲
۱۲۰
۱۲۰۰
۱۲۱
۱۲۲
۱۲۳
۱۲۴
۱۲۵
۱۲۶
۱۲۷
۱۲۸
۱۲۹
۱۲۹۹
۱۳
۱۳۰
۱۳۰۰
۱۳۰۴
۱۳۱
۱۳۲
۱۳۲۰
۱۳۲۳
۱۳۲۴
۱۳۲۵
۱۳۲۶
۱۳۳
۱۳۳۰
۱۳۳۱
۱۳۳۳
۱۳۳۴
۱۳۳۵
۱۳۳۶
۱۳۴
۱۳۴۴
۱۳۴۵
۱۳۴۶
۱۳۴۷
۱۳۴۸
۱۳۴۹
۱۳۵
۱۳۵۰
۱۳۵۱
۱۳۵۲
۱۳۵۴
۱۳۵۶
۱۳۵۷
۱۳۶
۱۳۶۰
۱۳۶۲
۱۳۶۳
۱۳۶۷
۱۳۶۸
۱۳۶۹
۱۳۷
۱۳۷۰
۱۳۷۱
۱۳۷۲
۱۳۷۳
۱۳۷۴
۱۳۷۵
۱۳۷۶
۱۳۷۷
۱۳۷۸
۱۳۷۹
۱۳۸
۱۳۸۰
۱۳۸۱
۱۳۸۲
۱۳۸۳
۱۳۸۴
۱۳۸۵
۱۳۸۶
۱۳۸۷
۱۳۸۸
۱۳۸۹
۱۳۹
۱۳۹۰
۱۳۹۱
۱۳۹۲
۱۳۹۳
۱۳۹۴
۱۳۹۵
۱۳۹۶
۱۳۹۷
۱۳۹۸
۱۳۹۹
۱۴
۱۴۰
۱۴۰۰
۱۴۱
۱۴۲
۱۴۳
۱۴۴
۱۴۵
۱۴۶
۱۴۷
۱۴۸
۱۴۹
۱۵
۱۵۰
۱۵۰۰
۱۵۱
۱۵۲
۱۵۳
۱۵۴
۱۵۵
۱۵۶
۱۵۷
۱۵۸
۱۵۹
۱۶
۱۶۰
۱۶۱
۱۶۲
۱۶۳
۱۶۴
۱۶۵
۱۶۶
۱۶۷
۱۶۸
۱۶۹
۱۷
۱۷۰
۱۷۰۷
۱۷۱
۱۷۲
۱۷۳
۱۷۴
۱۷۴۷
۱۷۵
۱۷۵۰
۱۷۶
۱۷۶۰
۱۷۶۱
۱۷۶۳
۱۷۶۸
۱۷۷
۱۷۷۰
۱۷۷۲
۱۷۷۴
۱۷۷۵
۱۷۷۶
۱۷۷۸
۱۷۷۹
۱۷۸
۱۷۸۰
۱۷۸۱
۱۷۸۲
۱۷۸۳
۱۷۸۴
۱۷۸۵
۱۷۸۶
۱۷۸۷
۱۷۸۸
۱۷۸۹
۱۷۹
۱۷۹۰
۱۷۹۱
۱۷۹۲
۱۷۹۳
۱۷۹۴
۱۷۹۵
۱۷۹۶
۱۷۹۷
۱۷۹۸
۱۷۹۹
۱۸
۱۸۰
۱۸۰۰
۱۸۰۱
۱۸۰۲
۱۸۰۳
۱۸۰۴
۱۸۰۵
۱۸۰۶
۱۸۰۷
۱۸۰۸
۱۸۰۹
۱۸۱
۱۸۱۰
۱۸۱۱
۱۸۱۲
۱۸۱۳
۱۸۱۴
۱۸۱۵
۱۸۱۶
۱۸۱۷
۱۸۱۸
۱۸۱۹
۱۸۲
۱۸۲۰
۱۸۲۱
۱۸۲۲
۱۸۲۳
۱۸۲۴
۱۸۲۵
۱۸۲۶
۱۸۲۷
۱۸۲۸
۱۸۲۹
۱۸۳
۱۸۳۰
۱۸۳۱
۱۸۳۲
۱۸۳۳
۱۸۳۴
۱۸۳۵
۱۸۳۶
۱۸۳۷
۱۸۳۸
۱۸۳۹
۱۸۴
۱۸۴۰
۱۸۴۱
۱۸۴۲
۱۸۴۳
۱۸۴۴
۱۸۴۵
۱۸۴۶
۱۸۴۷
۱۸۴۸
۱۸۴۹
۱۸۵
۱۸۵۰
۱۸۵۱
۱۸۵۲
۱۸۵۳
۱۸۵۴
۱۸۵۵
۱۸۵۶
۱۸۵۷
۱۸۵۸
۱۸۵۹
۱۸۶
۱۸۶۰
۱۸۶۱
۱۸۶۲
۱۸۶۳
۱۸۶۴
۱۸۶۵
۱۸۶۶
۱۸۶۷
۱۸۶۸
۱۸۶۹
۱۸۷
۱۸۷۰
۱۸۷۱
۱۸۷۲
۱۸۷۳
۱۸۷۴
۱۸۷۵
۱۸۷۶
۱۸۷۷
۱۸۷۸
۱۸۷۹
۱۸۸
۱۸۸۰
۱۸۸۱
۱۸۸۲
۱۸۸۳
۱۸۸۴
۱۸۸۵
۱۸۸۶
۱۸۸۷
۱۸۸۸
۱۸۸۹
۱۸۹
۱۸۹۰
۱۸۹۱
۱۸۹۲
۱۸۹۳
۱۸۹۴
۱۸۹۵
۱۸۹۶
۱۸۹۷
۱۸۹۸
۱۸۹۹
۱۹
۱۹۰
۱۹۰۰
۱۹۰۱
۱۹۰۲
۱۹۰۳
۱۹۰۴
۱۹۰۵
۱۹۰۶
۱۹۰۷
۱۹۰۸
۱۹۰۹
۱۹۱
۱۹۱۰
۱۹۱۱
۱۹۱۲
۱۹۱۳
۱۹۱۴
۱۹۱۵
۱۹۱۶
۱۹۱۷
۱۹۱۸
۱۹۱۹
۱۹۲
۱۹۲۰
۱۹۲۱
۱۹۲۲
۱۹۲۳
۱۹۲۴
۱۹۲۵
۱۹۲۶
۱۹۲۷
۱۹۲۸
۱۹۲۹
۱۹۳
۱۹۳۰
۱۹۳۱
۱۹۳۲
۱۹۳۳
۱۹۳۴
۱۹۳۵
۱۹۳۶
۱۹۳۷
۱۹۳۸
۱۹۳۹
۱۹۴
۱۹۴۰
۱۹۴۱
۱۹۴۲
۱۹۴۳
۱۹۴۴
۱۹۴۵
۱۹۴۶
۱۹۴۷
۱۹۴۸
۱۹۴۹
۱۹۵
۱۹۵۰
۱۹۵۱
۱۹۵۲
۱۹۵۳
۱۹۵۴
۱۹۵۵
۱۹۵۶
۱۹۵۷
۱۹۵۸
۱۹۵۹
۱۹۶
۱۹۶۰
۱۹۶۱
۱۹۶۲
۱۹۶۳
۱۹۶۴
۱۹۶۵
۱۹۶۶
۱۹۶۷
۱۹۶۸
۱۹۶۹
۱۹۷
۱۹۷۰
۱۹۷۱
۱۹۷۲
۱۹۷۳
۱۹۷۴
۱۹۷۵
۱۹۷۶
۱۹۷۷
۱۹۷۸
۱۹۷۹
۱۹۸
۱۹۸۰
۱۹۸۱
۱۹۸۲
۱۹۸۳
۱۹۸۴
۱۹۸۵
۱۹۸۶
۱۹۸۷
۱۹۸۸
۱۹۸۹
۱۹۹
۱۹۹۰
۱۹۹۱
۱۹۹۲
۱۹۹۳
۱۹۹۴
۱۹۹۵
۱۹۹۶
۱۹۹۷
۱۹۹۸
۱۹۹۹
۲
۲۰
۲۰۰
۲۰۰۰
۲۰۰۱
۲۰۰۲
۲۰۰۳
۲۰۰۴
۲۰۰۵
۲۰۰۶
۲۰۰۷
۲۰۰۸
۲۰۰۹
۲۰۱
۲۰۱۰
۲۰۱۱
۲۰۱۲
۲۰۱۳
۲۰۱۴
۲۰۱۵
۲۰۱۶
۲۰۱۷
۲۰۱۸
۲۰۱۹
۲۰۲
۲۰۲۰
۲۰۲۱
۲۰۲۲
۲۰۳
۲۰۴
۲۰۵
۲۰۶
۲۰۷
۲۰۸
۲۰۹
۲۱
۲۱۰
۲۱۱
۲۱۲
۲۱۳
۲۱۴
۲۱۵
۲۱۶
۲۱۷
۲۱۸
۲۱۹
۲۲
۲۲۰
۲۲۱
۲۲۲
۲۲۳
۲۲۴
۲۲۵
۲۲۶
۲۲۷
۲۲۸
۲۲۹
۲۳
۲۳۰
۲۳۱
۲۳۲
۲۳۳
۲۳۴
۲۳۵
۲۳۶
۲۳۷
۲۳۸
۲۳۹
۲۴
۲۴۰
۲۴۱
۲۴۲
۲۴۳
۲۴۴
۲۴۵
۲۴۶
۲۴۷
۲۴۸
۲۴۹
۲۵
۲۵۰
۲۵۱
۲۵۲
۲۵۳
۲۵۴
۲۵۵
۲۵۶
۲۵۷
۲۵۸
۲۵۹
۲۶
۲۶۰
۲۶۱
۲۶۲
۲۶۳
۲۶۴
۲۶۵
۲۶۶
۲۶۷
۲۶۸
۲۶۹
۲۷
۲۷۰
۲۷۱
۲۷۲
۲۷۳
۲۷۴
۲۷۵
۲۷۶
۲۷۷
۲۷۸
۲۷۹
۲۸
۲۸۰
۲۸۱
۲۸۲
۲۸۳
۲۸۴
۲۸۵
۲۸۶
۲۸۷
۲۸۸
۲۸۹
۲۹
۲۹۰
۲۹۱
۲۹۲
۲۹۳
۲۹۴
۲۹۵
۲۹۶
۲۹۷
۲۹۸
۲۹۹
۳
۳۰
۳۰۰
۳۰۱
۳۰۲
۳۰۳
۳۰۴
۳۰۵
۳۰۶
۳۰۷
۳۰۸
۳۰۹
۳۱
۳۱۰
۳۱۱
۳۱۲
۳۱۳
۳۱۴
۳۱۵
۳۱۶
۳۱۷
۳۱۸
۳۱۹
۳۲
۳۲۰
۳۲۱
۳۲۲
۳۲۳
۳۲۴
۳۲۵
۳۲۶
۳۲۷
۳۲۸
۳۲۹
۳۳
۳۳۰
۳۳۱
۳۳۲
۳۳۳
۳۳۴
۳۳۵
۳۳۶
۳۳۷
۳۳۸
۳۳۹
۳۴
۳۴۰
۳۴۱
۳۴۲
۳۴۳
۳۴۴
۳۴۵
۳۴۶
۳۴۷
۳۴۸
۳۴۹
۳۵
۳۵۰
۳۵۱
۳۵۲
۳۵۳
۳۵۴
۳۵۵
۳۵۶
۳۵۷
۳۵۸
۳۵۹
۳۶
۳۶۰
۳۶۱
۳۶۲
۳۶۳
۳۶۴
۳۶۵
۳۶۶
۳۶۷
۳۶۸
۳۶۹
۳۷
۳۷۰
۳۷۱
۳۷۲
۳۷۳
۳۷۴
۳۷۵
۳۷۶
۳۷۷
۳۷۸
۳۷۹
۳۸
۳۸۰
۳۸۱
۳۸۲
۳۸۳
۳۸۴
۳۸۵
۳۸۶
۳۸۷
۳۸۸
۳۸۹
۳۹
۳۹۰
۳۹۱
۳۹۲
۳۹۳
۳۹۴
۳۹۵
۳۹۶
۳۹۷
۳۹۸
۳۹۹
۴
۴۰
۴۰۰
۴۰۰۰
۴۰۱
۴۰۲
۴۰۳
۴۰۴
۴۰۵
۴۰۶
۴۰۷
۴۰۸
۴۰۹
۴۱
۴۱۰
۴۱۱
۴۱۲
۴۱۳
۴۱۴
۴۱۵
۴۱۶
۴۱۷
۴۱۸
۴۱۹
۴۲
۴۲۰
۴۲۱
۴۲۲
۴۲۳
۴۲۴
۴۲۵
۴۲۶
۴۲۷
۴۲۸
۴۲۹
۴۳
۴۳۰
۴۳۱
۴۳۲
۴۳۳
۴۳۴
۴۳۵
۴۳۶
۴۳۷
۴۳۸
۴۳۹
۴۴
۴۴۰
۴۴۱
۴۴۲
۴۴۳
۴۴۴
۴۴۵
۴۴۶
۴۴۷
۴۴۸
۴۴۹
۴۵
۴۵۰
۴۵۱
۴۵۲
۴۵۳
۴۵۴
۴۵۵
۴۵۶
۴۵۷
۴۵۸
۴۵۹
۴۶
۴۶۰
۴۶۱
۴۶۲
۴۶۳
۴۶۴
۴۶۵
۴۶۶
۴۶۷
۴۶۸
۴۶۹
۴۷
۴۷۰
۴۷۱
۴۷۲
۴۷۳
۴۷۴
۴۷۵
۴۷۶
۴۷۷
۴۷۸
۴۷۹
۴۸
۴۸۰
۴۸۱
۴۸۲
۴۸۳
۴۸۴
۴۸۵
۴۸۶
۴۸۷
۴۸۸
۴۸۹
۴۹
۴۹۰
۴۹۱
۴۹۲
۴۹۳
۴۹۴
۴۹۵
۴۹۶
۴۹۷
۴۹۸
۴۹۹
۵
۵۰
۵۰۰
۵۰۰۰
۵۰۱
۵۰۲
۵۰۳
۵۰۴
۵۰۵
۵۰۶
۵۰۷
۵۰۸
۵۰۹
۵۱
۵۱۰
۵۱۱
۵۱۲
۵۱۳
۵۱۴
۵۱۵
۵۱۶
۵۱۷
۵۱۸
۵۱۹
۵۲
۵۲۰
۵۲۱
۵۲۲
۵۲۳
۵۲۴
۵۲۵
۵۲۷
۵۲۸
۵۲۹
۵۳
۵۳۰
۵۳۱
۵۳۲
۵۳۳
۵۳۴
۵۳۵
۵۳۶
۵۳۷
۵۳۸
۵۳۹
۵۴
۵۴۰
۵۴۱
۵۴۲
۵۴۳
۵۴۵
۵۴۶
۵۴۷
۵۴۸
۵۴۹
۵۵
۵۵۰
۵۵۱
۵۵۲
۵۵۳
۵۵۴
۵۵۵
۵۵۶
۵۵۸
۵۵۹
۵۶
۵۶۰
۵۶۱
۵۶۲
۵۶۳
۵۶۴
۵۶۵
۵۶۸
۵۶۹
۵۷
۵۷۰
۵۷۱
۵۷۲
۵۷۳
۵۷۴
۵۷۵
۵۷۶
۵۷۸
۵۸
۵۸۰
۵۸۲
۵۸۳
۵۸۵
۵۸۶
۵۸۷
۵۹
۵۹۰
۵۹۲
۵۹۴
۵۹۵
۵۹۸
۵۹۹
۶
۶۰
۶۰۰
۶۰۲
۶۰۳
۶۰۴
۶۰۵
۶۰۹
۶۱
۶۱۰
۶۱۳
۶۱۵
۶۱۶
۶۱۷
۶۱۸
۶۲
۶۲۰
۶۲۱
۶۲۲
۶۲۴
۶۲۵
۶۲۶
۶۲۷
۶۲۸
۶۳
۶۳۰
۶۳۱
۶۳۲
۶۳۴
۶۳۷
۶۳۹
۶۴
۶۴۰
۶۴۱
۶۴۲
۶۴۳
۶۴۴
۶۵
۶۵۰
۶۵۳
۶۵۴
۶۵۶
۶۶
۶۶۰
۶۶۱
۶۶۷
۶۷
۶۷۰
۶۷۲
۶۷۴
۶۷۵
۶۸
۶۸۰
۶۸۴
۶۸۵
۶۹
۷
۷۰
۷۰۰
۷۰۵
۷۰۷
۷۱
۷۱۰
۷۱۴
۷۱۷
۷۱۸
۷۲
۷۲۰
۷۲۱
۷۲۵
۷۲۶
۷۳
۷۳۰
۷۳۱
۷۳۲
۷۳۵
۷۴
۷۴۰
۷۴۷
۷۴۹
۷۵
۷۵۰
۷۵۶
۷۶
۷۶۰
۷۶۵
۷۷
۷۸
۷۸۰
۷۸۵
۷۹
۸
۸۰
۸۰۰
۸۰۹
۸۱
۸۱۰
۸۲
۸۲۰
۸۲۲
۸۳
۸۳۵
۸۴
۸۴۰
۸۴۲
۸۴۴
۸۴۵
۸۵
۸۵۰
۸۶
۸۶۰
۸۶۲
۸۷
۸۷۰
۸۷۳
۸۷۶
۸۸
۸۸۰
۸۹
۹
۹۰
۹۰۰
۹۱
۹۲
۹۳
۹۳۰
۹۴
۹۴۵
۹۵
۹۵۰
۹۶
۹۶۴
۹۷
۹۷۰
۹۷۸
۹۸
۹۹
۹۹۷
ं
क
ख
ग
च
ज
ट
ड
ण
त
द
ध
न
प
ब
भ
म
य
र
ल
व
श
ष
स
ह
़
ा
ि
ी
ु
ू
ृ
े
ो
ौ
्
া
ু
ก
จ
ต
น
พ
ย
ว
ส
อ
ั
ิ
ี
ื
ุ
ู
็
่
้
์
​
‌
‍
‎
‏
‐
‑
–
—
‘
’
‚
“
”
„
†
•
…
‫
‬
′
″
‹
›
⁄
⁡
€
℅
№
™
←
↑
→
↔
↷
−
≈
⋅
⋯
③
④
⑦
▪
►
☪
♠
⧼
⧽
⺀
⺄
⺆
⺈
⺊
⺌
⺕
⺝
⺸
⺼
⿰
⿱
⿲
⿳
⿴
⿵
⿶
⿷
⿸
⿹
⿺
⿻
、
。
「
」
〢
あ
い
う
え
お
か
き
く
こ
さ
し
す
せ
た
ち
つ
て
と
な
に
の
ま
み
も
ゆ
ら
り
る
ん
゙
゚
ア
ィ
イ
ウ
ェ
エ
オ
カ
キ
ク
ケ
コ
サ
シ
ス
セ
ソ
タ
チ
ッ
テ
ト
ナ
ニ
ハ
ヒ
フ
ヘ
ホ
マ
ム
メ
ャ
ュ
ユ
ラ
リ
ル
レ
ロ
ン
・
ー
㇁
㇂
㇄
㇇
㇈
㇉
㇓
㐁
㐄
㐅
㐌
㐫
㐬
㐭
㐮
㐱
㑒
㒵
㒸
㒼
㓁
㓞
㔾
㕛
㕣
㖾
㘝
㚅
㚇
㚔
㚘
㝉
㝡
㝴
㝵
㞋
㞢
㞷
㠩
㠭
㠯
㡀
㡭
㡿
㢲
㢴
㣇
㣺
㥯
㪅
㫄
㫐
㫒
㫺
㬅
㬎
㬥
㬰
㲋
㳄
㷠
㸒
㸚
㸦
㼌
㼲
㽞
㿟
䀠
䂞
䍃
䏍
䒑
䖍
䖒
䖝
䖵
䙴
䚻
䜌
䝿
䡛
䧹
䪞
一
丁
丂
七
丄
丅
丆
万
丈
三
上
下
丌
不
与
丏
丐
丑
专
且
丕
世
丘
丙
业
东
丞
丢
丣
两
严
並
丨
丩
个
丫
丬
中
丮
丰
丱
串
丵
丶
丷
丸
丹
为
主
丽
丿
乀
乂
乃
久
乆
乇
么
义
之
乌
乍
乎
乏
乐
乑
乔
乖
乗
乘
乙
乚
乛
乜
九
乞
也
习
乡
乳
乾
亀
亅
了
亇
予
争
事
二
亍
于
亏
亐
云
互
亓
五
井
亘
亚
亜
亞
亟
亠
亡
亢
交
亥
亦
产
亨
亩
享
京
亭
亮
亯
亰
亲
亳
亶
亷
人
亻
亼
亾
仁
今
介
仌
从
仐
仑
仒
仓
仕
他
付
仙
仝
代
令
以
任
企
伊
伏
伐
休
会
伯
但
位
佐
何
佘
余
作
佥
使
來
侈
侌
侖
侯
侵
便
保
俞
信
修
倉
倍
候
倠
備
傳
僉
僕
儿
兀
允
兂
元
兄
充
兆
兇
先
光
兊
克
兌
免
兑
兒
兓
兔
党
兜
兟
入
全
兩
兪
八
公
六
兮
兰
共
关
兵
其
具
典
兹
兼
冀
冂
冃
冄
内
冈
冉
冊
冋
册
再
冎
冏
冐
冒
冓
冖
冗
冘
军
农
冝
冡
冥
冫
冬
冷
几
凡
凢
凵
凶
凷
凸
凹
出
函
凾
刀
刁
刂
刃
刄
刅
分
切
刍
刑
刕
刖
列
刘
则
初
別
利
别
到
制
刺
則
削
剌
前
剡
剽
劉
力
功
加
劦
助
劫
劳
劵
勃
勇
勉
勒
動
務
勞
勤
勹
勺
勻
勾
勿
匀
匂
包
匆
匈
匊
匋
匍
匕
化
北
匚
匝
匡
匪
匱
匸
匹
区
医
匽
匿
區
十
卂
千
卄
卅
卆
升
午
卉
半
卌
华
卑
卒
卓
協
单
卖
南
卜
卝
卞
占
卡
卢
卣
卤
卦
卩
卪
卬
卯
印
危
即
却
卵
卷
卸
卻
厂
厃
厄
历
厈
厉
厌
厓
厘
厚
原
厤
厥
厨
厭
厲
厶
厷
厸
去
厼
厽
叀
参
參
叅
又
叉
及
友
双
反
叐
发
叒
叔
叕
取
受
叚
叜
叟
口
古
句
另
叩
只
召
可
台
叱
史
右
叵
号
司
叹
吂
各
吅
合
吉
吊
吋
同
名
后
吏
向
吕
君
吝
吞
否
含
启
吳
吴
吹
吾
呂
呆
呈
告
员
呙
周
命
咅
和
咎
咠
咢
咨
咸
咼
哀
品
哉
員
哥
哲
唐
唑
商
啇
問
啚
啬
啶
啻
善
喜
喬
單
喿
嗇
嗪
噩
嚴
囊
囗
囘
囙
囚
四
回
囟
因
団
囧
囬
困
囱
囷
固
国
圂
圅
國
圍
圓
土
圡
圣
圥
在
圭
地
圶
圼
坂
坐
坒
坚
坦
坴
垂
型
垔
垚
埀
埋
城
埶
執
基
堂
堅
堆
堇
堯
報
塞
墨
壘
士
壬
壯
声
壳
壴
壹
壺
壽
夂
处
夅
夆
备
夊
夋
夌
复
夏
夒
夕
外
夗
夘
多
夜
夢
大
夨
天
太
夫
夬
夭
央
失
夲
头
夷
夸
夹
夻
夾
奂
奄
奇
奈
奉
奎
奏
奐
契
奓
奔
奚
奞
奠
奢
奥
奭
女
奴
奻
好
如
妄
妙
妟
妥
妻
妾
姑
委
姜
威
娄
婁
婴
嬰
嬴
子
孑
孔
孕
孖
字
存
孚
孛
孝
孟
季
孤
学
孫
孱
學
宀
宁
宂
它
宅
宇
守
安
宋
完
宏
宓
宗
官
定
宛
宜
宝
客
宣
室
宮
宰
害
家
容
宾
宿
寄
寅
密
富
寒
察
寧
審
寫
寬
寮
寸
对
寺
寻
寽
対
寿
封
尃
射
将
將
專
尉
尊
尋
尌
對
小
少
尒
尓
尔
尖
尗
尚
尞
尢
尣
尤
尧
尨
尭
就
尸
尹
尺
尻
尼
尽
尾
尿
局
居
屈
屋
屎
屏
屑
展
屖
屚
属
屠
屡
屬
屮
屯
屰
山
屵
屾
岁
岂
岑
岡
岩
岳
岸
峯
島
崇
崎
崑
崔
崖
崙
崩
嵬
嶲
巂
巛
川
州
巟
巠
巢
巤
工
左
巧
巨
巩
巫
差
己
已
巳
巴
巷
巸
巽
巾
巿
帀
市
布
希
帚
帛
帝
带
師
席
帯
帶
常
干
平
年
幵
并
幷
幸
幺
幻
幼
幽
幾
广
広
庄
床
底
店
庚
府
度
庫
庭
庶
康
庸
廉
廌
廛
廣
廩
廴
延
廷
建
廾
廿
开
弁
弃
弄
弇
弋
式
弓
弔
引
弗
弘
弜
弟
弥
弦
弱
張
強
强
彊
彌
彎
彐
彑
当
彔
录
彖
彗
彡
形
彥
彦
彧
彭
彳
役
彼
往
征
待
律
徒
得
徙
從
復
微
徵
心
忄
必
忌
忍
志
忝
忠
忩
快
念
忽
忿
思
怠
急
怱
恆
恒
恩
恭
息
悉
患
悤
悲
悶
情
惠
惡
惢
愁
愈
意
愛
感
慈
慧
慮
憂
憲
應
戀
戈
戉
戊
戋
戌
戍
戎
成
我
戒
戔
或
戚
戠
戢
戦
截
戲
戶
户
戸
戹
戼
戾
房
所
扁
扇
手
扌
才
打
托
执
承
折
报
拉
拜
拿
掌
推
提
摩
支
攴
攵
收
攸
改
放
政
敄
敏
敕
敖
敗
教
敝
敞
敢
散
敦
敫
敬
数
敷
數
斂
文
斉
斊
斗
斤
斥
斩
斬
斯
新
方
於
施
斿
旁
旋
族
无
旡
既
旣
日
旦
旧
旨
早
旬
旱
旲
时
旾
昆
昇
昌
昍
明
昏
易
昔
昗
昜
星
春
昬
是
昱
昴
昷
時
晃
晋
晏
普
景
晶
智
暑
暴
曇
曩
曰
曲
曳
更
曷
書
曹
曼
曾
替
最
朁
會
月
有
朋
服
朔
朕
朗
望
朝
木
朩
未
末
本
札
朮
术
朱
朵
朶
朿
杀
李
杏
村
杜
束
条
来
東
杲
杳
松
析
林
枚
果
枝
枲
枼
柏
某
柔
查
柬
柰
柴
査
栗
校
株
桀
桑
桼
梁
條
梟
梨
棘
棠
棥
森
楚
業
楽
榮
樂
樊
橋
欠
次
欣
欮
欲
欶
欽
款
歆
歇
歌
歛
止
正
此
步
武
歨
歪
歮
歯
歰
歲
歳
歴
歷
歸
歹
歺
死
殳
段
殷
殸
殹
殺
殻
殿
毋
毌
母
毎
每
毒
比
毕
毚
毛
毳
氏
氐
民
气
氟
氣
氧
氯
水
氵
氶
氷
永
氺
氾
求
汝
汞
江
沃
沓
沙
沝
泉
法
波
泣
泥
泰
洛
津
洪
活
派
流
浦
浪
浮
海
淡
淮
清
渚
渠
湯
滿
漸
火
灬
灭
灰
灵
灷
炅
炎
炏
炗
炙
炭
為
烈
烏
烝
焉
無
焦
焱
然
煞
熊
熏
燕
營
燮
爪
爫
爭
爯
爰
爱
爲
爵
父
爻
爽
爾
爿
片
版
牙
牚
牛
牜
牟
牢
牧
牪
特
牽
犀
犬
犭
犮
狂
狄
狊
独
狺
猋
猒
猪
献
獎
獻
玄
率
玉
王
玟
玨
珎
班
現
球
琴
瑟
瑩
瓜
瓦
甘
甚
生
産
用
甫
甬
田
由
甲
申
电
甶
男
甸
甹
画
甾
畀
界
畏
畐
留
畜
畟
畢
畧
畨
番
畫
異
畱
當
畺
畾
疊
疋
疌
疑
疒
疫
疾
病
癶
癸
癹
発
登
發
白
百
皀
皃
的
皆
皇
皋
皐
皕
皮
皷
皿
盃
盆
盇
盈
益
盍
盎
监
盒
盖
盛
盡
監
盤
盧
目
直
相
盾
省
眇
眉
看
県
眔
眞
真
眷
眼
眾
着
睘
督
睪
睿
瞏
瞢
瞿
矍
矛
矞
矢
矣
知
矦
短
石
破
碎
碱
磊
磨
示
礻
礼
社
神
祟
票
祭
禀
禁
福
禸
禹
禺
离
禽
禾
禿
秀
秃
秉
秋
科
秝
秦
移
稟
穀
穌
穴
究
穹
空
穿
突
窄
窒
立
竒
竜
竝
竟
章
童
竹
笑
笠
第
筆
等
答
箕
算
箴
節
篤
篭
米
粉
粛
粟
粤
粦
粲
糞
糸
糹
系
約
納
素
索
紫
累
細
結
絜
絫
統
絲
維
綿
縣
繇
纍
纟
线
维
缶
网
罒
罔
罕
罗
罙
罡
罢
罪
署
罷
羅
羊
羌
羍
美
羔
羕
羗
羞
羡
羣
群
義
羲
羸
羽
翁
翏
習
翕
翟
翠
翼
老
耂
考
者
耆
而
耎
耑
耒
耳
耴
耶
耷
聂
聊
聖
聚
聶
聿
肀
肃
肅
肉
肖
肙
肥
肩
肯
育
肴
胃
背
胡
胥
胺
能
脊
脩
膚
臣
臤
臧
自
臬
臭
臯
臱
至
致
臺
臼
臽
臾
臿
舀
舂
舄
與
興
舉
舌
舍
舛
舜
舞
舟
般
艮
良
色
艸
艹
艾
芒
芔
芬
芮
花
芳
芺
芻
苔
苗
苟
若
苦
苯
英
茶
茸
荅
草
荒
荣
荼
莆
莧
莫
莽
菆
菊
菌
菐
華
萬
落
葉
著
葛
董
葵
蒙
蒦
蒼
蓋
蓬
蓺
蔑
蔡
蕉
蕭
薄
薛
薦
薰
藍
藏
藤
藥
蘭
虍
虎
虐
虒
虔
處
虖
虗
虘
虚
虛
虜
虞
虫
虽
蚤
蚩
蜀
蜜
蟲
蠡
血
行
衍
衛
衣
衤
表
衮
衰
袁
袞
褭
褱
襄
襾
西
覀
要
覃
見
規
覓
覧
親
覽
见
角
解
言
訁
訇
計
試
詹
語
誩
調
諸
議
讠
谷
豆
豈
豊
豐
豕
豖
豙
象
豦
豩
豪
豸
貇
貝
貞
貟
負
貢
貧
貪
貫
責
貳
貴
買
費
賁
資
賈
賏
賓
賔
賛
賞
賢
賣
質
賴
贊
贝
贡
责
贯
贲
贵
赖
赛
赞
赤
赦
走
越
足
路
蹇
身
躬
車
軍
軎
軟
輦
车
辛
辜
辟
辥
辰
辱
農
辵
辶
边
达
过
运
近
连
迷
追
退
送
逆
逐
通
速
造
逢
連
逮
進
遀
遂
過
道
達
遠
遣
適
遷
選
遺
邊
邑
邕
那
邦
邪
郎
部
郭
都
鄉
酉
酋
配
酓
酮
酸
釆
采
里
重
野
量
金
釒
錢
鑑
钅
铁
長
镸
长
門
閃
閉
開
閏
閑
閒
間
閔
閵
閻
闌
门
间
闷
阑
阜
阝
阪
阿
降
院
陳
隆
隊
隋
際
隡
隨
隱
隶
隹
隺
隻
隼
隽
难
雀
雁
集
雈
雋
雍
雐
雔
雙
雚
雜
雝
離
難
雨
雩
雪
雲
零
雷
需
霉
霍
霜
霝
霞
霸
靈
靑
青
非
靡
面
靣
革
韋
韦
韭
韯
韱
音
頁
頃
項
須
頗
頡
頻
顛
页
風
风
飛
飞
食
飠
養
饣
首
香
馬
馮
駦
马
骨
高
髟
鬥
鬯
鬲
鬼
魚
魯
鮮
鱼
鲁
鳥
鳳
鸟
鹵
鹿
麃
麗
麥
麦
麻
黃
黄
黍
黎
黑
黒
黨
黴
黹
黽
黾
鼎
鼓
鼠
鼻
齊
齋
齐
齒
齿
龍
龙
龜
龟
龠
龰
龱
龴
龵
龶
龷
龸
龹
者
艹
ﭼ
ﮐ
ﮑ
ﮔ
ﯼ
ﯽ
ﯾ
ﯿ
ﺁ
ﺋ
ﺌ
ﺍ
ﺎ
ﺐ
ﺑ
ﺒ
ﺗ
ﺘ
ﺟ
ﺧ
ﺩ
ﺪ
ﺭ
ﺮ
ﺯ
ﺰ
ﺳ
ﺴ
ﺶ
ﺷ
ﺸ
ﺻ
ﻋ
ﻌ
ﻓ
ﻖ
ﻗ
ﻟ
ﻠ
ﻣ
ﻤ
ﻥ
ﻦ
ﻧ
ﻨ
ﻩ
ﻪ
ﻫ
ﻬ
ﻭ
ﻮ
ﻰ
ﻳ
ﻴ
ﻻ
ﻼ
﻿
！
（
）
，
－
：
＝
？
ｊ
ｓ
ｕ
｜
￼
𠀁
𠀃
𠀆
𠀉
𠀎
𠀐
𠁁
𠁣
𠂆
𠂇
𠂈
𠂉
𠂊
𠂋
𠂎
𠂒
𠂔
𠂛
𠂡
𠂢
𠂤
𠂬
𠂭
𠂹
𠃊
𠃋
𠃌
𠃍
𠃎
𠃑
𠃓
𠃔
𠃜
𠄌
𠄎
𠄠
𠄢
𠆢
𠆥
𠇍
𠈌
𠌵
𠓜
𠔉
𠔥
𠔼
𠔽
𠔿
𠕀
𠕁
𠕋
𠘧
𠘨
𠙻
𠙼
𠚏
𠚒
𠚤
𠚪
𠣏
𠤎
𠤕
𠥓
𠦄
𠦑
𠦝
𠧒
𠧗
𠧪
𠩺
𠪚
𠫓
𠫔
𠫤
𠬛
𠬝
𠬞
𠬢
𠬤
𠬶
𠮛
𠮦
𠮷
𠯑
𠱠
𠳮
𠷎
𡈼
𡉀
𡉵
𡌥
𡍮
𡏳
𡕒
𡕩
𡕰
𡖅
𡗗
𡗜
𡘆
𡘤
𡧱
𡨄
𡩧
𡬠
𡭽
𡰣
𡰥
𡰪
𡰯
𡰱
𡷈
𡸁
𡿨
𡿩
𡿪
𡿺
𢀖
𢀛
𢀩
𢁙
𢆉
𢆰
𢆶
𢇁
𢇇
𢉖
𢌬
𢌿
𢏚
𢑑
𢑚
𢖻
𢙣
𢛳
𢦏
𢦒
𢧵
𢼄
𢾕
𣁋
𣄼
𣅀
𣅽
𣍘
𣎳
𣎵
𣏋
𣏼
𣗥
𣥂
𣥖
𣦵
𣦼
𣧄
𣪊
𣪠
𣬉
𣳾
𣶒
𤇾
𤊽
𤐫
𤓰
𤔔
𤕨
𤣩
𤰇
𤰔
𤰞
𤴓
𤴔
𤽄
𥁑
𥁕
𥃦
𥃩
𥃭
𥇡
𥑟
𥘅
𥘈
𥝢
𥫗
𥱡
𦈢
𦉪
𦉬
𦉼
𦍌
𦍒
𦎧
𦐇
𦓔
𦔮
𦘒
𦙃
𦚏
𦣝
𦣞
𦣻
𦥑
𦥔
𦥯
𦨉
𦭝
𦰩
𧆞
𧈧
𧘇
𧰨
𧴪
𧴮
𧵩
𧾷
𨸏
𨾴
𩙿
𩠐
𩫏
𩵋
𪉷
𪜀
𪟽
𪠲
𪩲
𫇦
𫔭
𫜸
𫝀
𫠣
𫠩
𫢉
𫥞
𫩏
𫩠
𫪡
𫲽
𫶧
𬀷
𬐘
𬗌
𬙙
𬛸
𬜯
𬟩
𬯁
𬴘
𬺻
𬼉
𬼖
𭀰
𭁈
𭁨
𭅰
𭑈
𭕄
𭗼
𭤨
𭥫
𭻾
𮅕
𮊿
𮍌
𮍏
𮓗
𮥼
𮧮
廾
𰀁
𰀄
𰀈
𰀉
𰀕
𰀠
𰀡
𰀢
𰀪
𰁜
𰃮
𰆊
𰆘
𰋙
𰕎
𰢴
𰧭
𰯲
00--
01--
02--
03--
04--
05--
07--
08--
29--
32--
34--
35--
36--
38--
40--
41--
42--
43--
44--
45--
46--
50--
51--
52--
53--
54--
55--
56--
57--
59--
60--
61--
62--
64--
66--
67--
69--
70--
700--
71--
73--
74--
75--
76--
77--
78--
79--
80--
81--
82--
83--
84--
85--
86--
87--
88--
89--
90--
95--
978--
99--
a--
aa--
ab--
abd--
abdul--
abi--
abs--
ac--
acc--
ad--
adi--
ado--
ae--
af--
ag--
ago--
agra--
agu--
ah--
ai--
air--
ait--
ak--
aki--
al--
ala--
ale--
alek--
ales--
alf--
ali--
all--
alt--
aly--
am--
ame--
an--
ana--
and--
ang--
ani--
anna--
ans--
anth--
anthro--
aos--
ap--
appe--
applicat--
aqu--
ar--
ara--
arc--
arg--
argen--
ari--
aris--
art--
as--
ash--
asp--
assess--
asso--
astr--
at--
ato--
atten--
au--
audio--
auto--
av--
avi--
ax--
ay--
az--
b--
ba--
bad--
bag--
bah--
bak--
bal--
ball--
bam--
ban--
bar--
bas--
batt--
bau--
bay--
be--
beau--
bel--
bell--
ben--
ber--
berk--
bes--
bi--
biało--
bib--
biblio--
bien--
big--
bil--
bin--
bio--
bir--
bis--
bit--
bla--
black--
bli--
blo--
blue--
bly--
bo--
bob--
bohe--
bol--
bom--
bon--
bor--
bos--
bot--
bou--
bouc--
bour--
bow--
boy--
br--
bra--
brad--
bre--
bri--
brit--
bro--
broad--
brod--
bru--
bry--
bu--
bul--
bun--
bund--
bur--
burg--
burn--
bus--
but--
butter--
by--
c--
ca--
cab--
cal--
cam--
can--
car--
carl--
cass--
cat--
cau--
cay--
ce--
cele--
celebra--
cen--
cer--
cere--
cert--
ch--
cha--
chair--
char--
che--
chi--
chlo--
chloro--
cho--
chu--
ci--
cin--
ck--
cla--
cle--
cli--
clo--
cn--
co--
coch--
cock--
cog--
col--
cole--
coll--
collec--
com--
compo--
con--
connect--
conse--
consi--
contr--
contri--
cor--
corn--
cos--
cott--
cou--
cow--
cra--
cre--
creat--
cres--
cri--
cro--
cru--
cs--
cu--
cul--
cur--
cut--
cy--
cyclo--
cz--
czer--
czy--
d--
da--
dag--
dai--
dal--
dam--
dan--
dar--
dau--
daw--
de--
dec--
defe--
defi--
del--
dem--
den--
der--
des--
descript--
deu--
dev--
di--
dia--
dil--
disa--
disc--
disp--
diss--
dj--
do--
dol--
dolo--
don--
dor--
dos--
dou--
dow--
down--
dr--
dru--
dry--
du--
dub--
dun--
duns--
dupl--
dur--
dy--
dz--
dzie--
də--
e--
ear--
east--
ec--
ech--
ed--
edge--
eff--
eg--
ehr--
ei--
eic--
ein--
eis--
eisen--
eit--
ek--
el--
ele--
eli--
em--
emb--
emer--
emi--
en--
end--
eng--
ep--
equ--
er--
ery--
es--
est--
et--
eu--
euras--
euro--
ev--
ew--
ex--
expe--
ey--
ez--
f--
fa--
fair--
fal--
fan--
far--
fau--
fe--
fel--
feld--
feli--
fen--
fer--
fi--
fil--
fill--
fit--
fitz--
fix--
fl--
fle--
flo--
flor--
flu--
fo--
fol--
for--
fr--
fre--
free--
frei--
fri--
fu--
fuji--
fuku--
fur--
g--
ga--
gal--
gall--
gallo--
gam--
gar--
gard--
gas--
gau--
gaz--
ge--
gen--
geo--
ger--
get--
gha--
gi--
gian--
gil--
giu--
gla--
gle--
glen--
gli--
glou--
gly--
go--
god--
gol--
gold--
good--
gor--
gos--
got--
gott--
gou--
gover--
gr--
gra--
grand--
gre--
green--
grim--
gro--
gru--
gry--
gu--
guil--
gun--
guð--
h--
ha--
hai--
haj--
hal--
ham--
hamp--
han--
hand--
har--
hart--
has--
hat--
hau--
haw--
hay--
haz--
he--
hed--
heine--
hel--
hen--
hend--
her--
hex--
hey--
hi--
high--
hil--
him--
hip--
his--
hit--
hl--
ho--
hod--
hodg--
hol--
home--
hoo--
hop--
hor--
how--
hr--
hsi--
hu--
hum--
hur--
hus--
hut--
hy--
hydr--
hə--
i--
ib--
ic--
id--
ide--
iden--
if--
ig--
ike--
il--
im--
immi--
in--
inc--
indi--
infi--
ing--
inhabi--
initi--
insp--
insur--
int--
inte--
inter--
io--
ir--
is--
iso--
it--
iv--
iwa--
iz--
j--
ja--
jab--
jam--
jan--
jar--
jasi--
jasm--
jay--
je--
jed--
jen--
jer--
ji--
jo--
jou--
ju--
judi--
juni--
k--
ka--
kal--
kan--
kar--
kash--
kat--
kau--
kawa--
kazu--
ke--
kei--
kel--
ken--
ker--
key--
kha--
khe--
kho--
ki--
kie--
kil--
kim--
kin--
kir--
kirk--
kit--
kiyo--
kla--
kle--
klo--
klu--
kna--
kno--
knock--
ko--
koby--
kol--
kon--
kor--
kos--
kot--
koł--
kr--
kra--
krasno--
kru--
kry--
ku--
ky--
kı--
kło--
kə--
l--
la--
lake--
lan--
land--
lang--
lans--
lar--
las--
lati--
lau--
law--
lay--
le--
lea--
leg--
legisla--
leh--
len--
les--
let--
lfc--
lg--
li--
lie--
life--
lil--
lim--
lin--
lind--
lip--
lithua--
ll--
lo--
lock--
lom--
long--
lou--
lu--
luc--
lud--
ly--
m--
ma--
mac--
mad--
mag--
maga--
magd--
magi--
mah--
mai--
maj--
mak--
mal--
mala--
mall--
man--
mar--
mas--
mat--
matsu--
mau--
may--
maz--
mc--
mcc--
mccor--
mcke--
mckin--
me--
med--
meh--
mei--
mel--
men--
mer--
mes--
met--
meta--
methyl--
mi--
mia--
mic--
mid--
mie--
mik--
mil--
mill--
min--
mir--
mit--
mix--
miya--
mo--
moh--
mol--
mon--
mono--
mons--
mont--
monte--
mor--
mort--
mos--
mou--
mp--
ms--
mu--
muk--
mul--
mum--
mun--
mur--
mus--
my--
mø--
mə--
mədə--
n--
na--
naka--
nan--
nao--
nar--
narra--
nat--
naz--
nc--
nd--
ne--
ner--
nes--
net--
neu--
neuro--
new--
news--
ng--
ngu--
ni--
nikol--
nine--
nizh--
no--
nor--
north--
not--
ns--
nu--
ny--
o--
oak--
ob--
od--
of--
og--
oh--
ok--
ol--
old--
oly--
on--
one--
opt--
or--
org--
ori--
os--
ot--
ou--
out--
ov--
over--
ox--
oz--
p--
pa--
pad--
pala--
pall--
pan--
par--
para--
pas--
pat--
pav--
pavlo--
paw--
pay--
pe--
pelle--
pen--
penta--
per--
petr--
ph--
phar--
phasco--
phos--
pi--
pick--
pin--
pio--
pit--
pl--
plat--
play--
ple--
plo--
plot--
plu--
po--
pod--
pog--
pol--
poly--
pon--
pop--
popu--
por--
pos--
post--
poz--
pr--
prak--
pre--
pris--
prit--
pro--
protect--
provi--
pru--
przy--
psy--
psycho--
pu--
pul--
pur--
put--
py--
pyri--
q--
qa--
qas--
qaz--
qu--
qua--
que--
qui--
quint--
quo--
qı--
qə--
r--
ra--
rad--
raff--
rag--
rai--
raj--
ram--
ran--
rat--
raw--
ray--
raz--
rd--
re--
rec--
red--
ref--
rein--
rela--
ren--
rep--
res--
reti--
reu--
rhe--
rhi--
rho--
ri--
rich--
rid--
rig--
rk--
rn--
ro--
rob--
rock--
rod--
ron--
ros--
rose--
rou--
rous--
rox--
rs--
rt--
ru--
run--
rut--
ry--
ryb--
ryu--
rz--
rı--
rə--
s--
sa--
sab--
sac--
sad--
sag--
saku--
sal--
sala--
salva--
sam--
san--
sand--
sar--
sau--
saw--
say--
sc--
scal--
sch--
scor--
scu--
se--
sea--
sec--
sed--
see--
sei--
sel--
select--
sen--
sep--
ser--
set--
sey--
sh--
sha--
share--
she--
sher--
shi--
shin--
sho--
shr--
shu--
si--
sici--
sig--
sil--
sili--
sin--
sir--
sit--
sk--
ska--
sky--
sla--
sli--
slo--
sm--
sne--
sno--
so--
soci--
socio--
sol--
some--
sor--
sos--
sou--
sove--
sp--
spe--
spec--
specta--
spo--
spot--
spra--
sr--
ss--
st--
sta--
stan--
star--
ste--
sti--
sto--
str--
stu--
su--
sub--
suk--
sul--
sun--
super--
supple--
sur--
susta--
sve--
swa--
swe--
sy--
syl--
symp--
syn--
sz--
sza--
szla--
sø--
słup--
sə--
t--
ta--
tai--
tajiki--
taka--
tal--
tall--
tan--
tar--
tat--
tau--
taw--
tax--
tay--
te--
teac--
tect--
tel--
temp--
ten--
ter--
tet--
tetra--
th--
the--
thi--
tho--
thor--
thre--
thu--
ti--
tie--
tiff--
til--
tim--
to--
tol--
tom--
top--
tor--
tr--
tra--
trans--
tre--
tri--
trim--
trin--
tris--
tro--
tru--
trz--
trze--
tsu--
tt--
tu--
tun--
tung--
tur--
turk--
tv--
twel--
twi--
ty--
tə--
u--
uc--
uk--
ul--
ull--
ultra--
um--
un--
under--
uni--
univer--
up--
ur--
ura--
us--
ut--
uti--
uz--
v--
va--
vacc--
val--
van--
var--
ve--
vehi--
vel--
velo--
ven--
ver--
verified--
vers--
ves--
vi--
via--
vie--
vig--
vil--
vill--
villa--
vin--
vis--
vo--
vol--
vs--
w--
wa--
wad--
wai--
wake--
wal--
wald--
wan--
war--
water--
way--
we--
web--
wed--
wei--
wel--
wen--
wes--
west--
whe--
whit--
white--
wi--
wick--
wid--
wie--
wiki--
wil--
wild--
win--
wit--
with--
wo--
wol--
won--
wood--
wor--
wu--
wy--
wyl--
wyn--
x--
xi--
xx--
y--
ya--
yama--
yan--
yar--
yas--
yaz--
ye--
yev--
yi--
yl--
yo--
yoko--
yu--
z--
za--
zam--
ze--
zhe--
zi--
zie--
zim--
zir--
zo--
zoo--
zu--
đ--
ı--
ł--
ło--
ə--
ədəbiy--
а--
ал--
ар--
б--
бе--
бо--
бу--
в--
ве--
г--
го--
гор--
д--
джа--
джан--
ди--
е--
ел--
з--
и--
иванов--
имп--
ио--
к--
ка--
кав--
каль--
ки--
кл--
ко--
ку--
кы--
л--
ли--
лов--
м--
ма--
мо--
му--
н--
ниж--
ник--
николаев--
нит--
но--
нов--
ново--
новониколаев--
о--
октябрь--
п--
па--
пе--
пер--
пр--
при--
р--
раз--
рус--
с--
са--
сло--
совет--
ст--
ста--
су--
суль--
т--
та--
у--
ф--
х--
ч--
я--
ا--
اب--
ابو--
ابوال--
ابی--
ات--
اتح--
اتو--
اث--
اثر--
اح--
احت--
اخ--
اد--
ادی--
اذ--
ار--
ارت--
ارو--
اری--
از--
اس--
اساس--
است--
اسپا--
اسکان--
اش--
اشچی--
اشیا--
اط--
اع--
اعت--
اعتي--
اعتی--
اف--
افت--
اق--
ال--
الا--
الث--
الج--
الح--
الخ--
الش--
الص--
الط--
الع--
الغ--
الف--
الق--
الك--
الم--
الن--
اله--
الو--
الي--
الک--
الی--
الیاز--
ام--
امبوهی--
امپر--
امیر--
ان--
انا--
انت--
انج--
اند--
انق--
انو--
انی--
او--
اوا--
اوبر--
اوت--
اوج--
اوخ--
اود--
اور--
اورن--
اوز--
اوزري--
اوس--
اوسل--
اوغ--
اوق--
اول--
اولا--
اولما--
اوم--
اون--
اوو--
اوي--
اويون--
اوچ--
اوک--
اوکتا--
اوینا--
اي--
ايش--
ايل--
اين--
اژ--
اک--
اکس--
اکسیا--
اۆ--
اۆز--
اۆصو--
اۇ--
اۇرو--
اۇغو--
اۇلوس--
ای--
ایب--
ایت--
ایج--
ایخ--
ایختی--
اید--
ایر--
ایز--
ایزوبو--
ایس--
ایست--
ایش--
ایف--
ایفا--
ایق--
ایقتص--
ایقتی--
ایل--
ایم--
ایمتیاز--
ایمضا--
این--
اینست--
اینق--
ایو--
ایچ--
ایک--
ب--
با--
بابا--
بات--
باتی--
باجا--
باخ--
باد--
بار--
باز--
باس--
باش--
باشلان--
باشچی--
باغ--
باق--
بال--
بالا--
بام--
بان--
باها--
باي--
باک--
بای--
بت--
بخ--
بختی--
بخش--
بدو--
بر--
برا--
برت--
برد--
برق--
برمو--
برن--
برو--
برک--
برگ--
بری--
بس--
بش--
بط--
بع--
بل--
بلا--
بلو--
بلک--
بلی--
بم--
بن--
بنا--
بند--
بندر--
بنزو--
بنی--
به--
بو--
بوت--
بوح--
بود--
بور--
بوراخی--
بورو--
بوز--
بوش--
بوع--
بوق--
بول--
بوم--
بون--
بوند--
بوک--
بوکوو--
بوی--
بي--
بژ--
بژو--
بک--
بۇ--
بۇغ--
بی--
بیت--
بیر--
بیرلش--
بیس--
بیش--
بیل--
بیلا--
بیلدی--
بین--
بینا--
بینق--
بیو--
بیگ--
بییا--
ت--
تا--
تات--
تاخ--
تار--
تال--
تام--
تان--
تانی--
تاپ--
تاپیل--
تاکا--
تاکای--
تای--
تب--
تترا--
تث--
تجا--
تجر--
تجه--
تح--
تحقی--
تخر--
تد--
تدي--
تدی--
تر--
ترا--
ترس--
ترو--
ترک--
تری--
تز--
تسو--
تش--
تص--
تصر--
تع--
تعط--
تف--
تق--
تل--
تم--
تمل--
تمک--
تمیز--
تن--
تنف--
تنق--
تنوق--
ته--
تو--
توت--
توتول--
توخ--
توخو--
تود--
تور--
تورو--
توز--
توص--
توققوش--
تول--
توم--
تون--
توپ--
توپراق--
توپلان--
توپلو--
توک--
توی--
تي--
تک--
تۆ--
تۇ--
تۇتول--
تی--
تیت--
تیر--
تیش--
تیل--
تیم--
تین--
تیو--
تیپ--
تیک--
ث--
ثیر--
ج--
جا--
جاذ--
جاماع--
جان--
جانلان--
جاک--
جای--
جر--
جزا--
جسد--
جغرا--
جف--
جم--
جن--
جه--
جهت--
جو--
جور--
جي--
جک--
جۆ--
جی--
جیب--
جیل--
جیمز--
جین--
ح--
حا--
حاش--
حاض--
حال--
حت--
حج--
حد--
حرا--
حرف--
حرکت--
حس--
حص--
حق--
حل--
حمد--
حن--
حو--
حي--
حکم--
حۆ--
حۆقو--
حیدر--
حیم--
حیک--
خ--
خا--
خات--
خار--
خاس--
خاط--
خاطیر--
خال--
خان--
خانا--
خاچ--
خاک--
خبر--
ختار--
خدم--
خر--
خرج--
خریس--
خریستیان--
خط--
خن--
خو--
خود--
خور--
خوش--
خوی--
خي--
خۆ--
خی--
خیر--
د--
دا--
دار--
داس--
داش--
داغ--
داغی--
دال--
دام--
دان--
داو--
دای--
دایان--
دب--
در--
درا--
دراس--
درس--
درو--
دز--
دست--
دل--
دلا--
دلاندی--
دلی--
دم--
دمیر--
دن--
ده--
دو--
دور--
دوز--
دوست--
دوش--
دوغو--
دول--
دوم--
دون--
دوو--
دوک--
دوی--
دي--
ديل--
دک--
دۆ--
دۆز--
دۆش--
دۆشۆ--
دۇ--
دی--
دیا--
دیب--
دیر--
دیز--
دیل--
دیم--
دین--
دیو--
دیپ--
دیک--
دیکولو--
دیکین--
دییش--
ذ--
ذر--
ر--
را--
راب--
راح--
راد--
راز--
راس--
راش--
راشد--
رال--
رام--
ران--
راک--
رای--
رب--
رت--
رتا--
رتی--
رج--
رح--
رخا--
رد--
ردا--
ردو--
ردی--
رر--
رز--
رزو--
رس--
رش--
رضا--
رع--
رق--
رقص--
رل--
رلشدی--
رم--
رما--
رمی--
رن--
ره--
رهبر--
رو--
روان--
روت--
روح--
رود--
روز--
روس--
روش--
رول--
روم--
رون--
روک--
ري--
رپ--
رپو--
رک--
رگی--
رۇ--
رۇحل--
ری--
ریب--
رید--
ریس--
ریل--
رین--
ریو--
ریچ--
ریک--
ز--
زا--
زاد--
زار--
زال--
زام--
زبک--
زجو--
زح--
زد--
زر--
زع--
زل--
زن--
زنگ--
زه--
زو--
زون--
زي--
زۆ--
زی--
زیر--
زیق--
زین--
س--
سا--
ساب--
ساحل--
ساخ--
ساخلان--
ساغ--
ساق--
سال--
سام--
سان--
ساو--
ساواش--
ساچ--
سای--
سایی--
سبب--
ست--
ستو--
ستژ--
ستی--
سخ--
سد--
سر--
سرا--
سرو--
سری--
سس--
سسی--
سط--
سفر--
سفی--
سل--
سم--
سمی--
سن--
سند--
سه--
سو--
سوا--
سوت--
سور--
سورع--
سورو--
سوز--
سول--
سوم--
سون--
سوو--
سوی--
سي--
سپا--
سپو--
سک--
سکو--
سکی--
سۆ--
سۇ--
سی--
سیا--
سیخ--
سید--
سیر--
سیرا--
سیز--
سیس--
سیغی--
سیق--
سیل--
سیم--
سین--
سیک--
ش--
شا--
شاخ--
شاغا--
شام--
شان--
شاه--
شاو--
شاگیرد--
شب--
شتی--
شخ--
شد--
شر--
شرط--
شرق--
شع--
شعو--
شل--
شلان--
شن--
شه--
شهر--
شهری--
شو--
شور--
شوع--
شي--
شچ--
شک--
شکیل--
شۆ--
شۇ--
شی--
شیب--
شیخ--
شید--
شیر--
شیق--
شین--
شیک--
ص--
صح--
صدر--
صمی--
صو--
صیف--
صین--
ض--
ط--
طا--
طالی--
طب--
طرز--
طرف--
طل--
طلب--
طهم--
طو--
ظ--
ظول--
ع--
عا--
عام--
عبد--
عبدال--
عذ--
عر--
عص--
عط--
عظ--
علی--
عو--
عوض--
عونصو--
عونوا--
عي--
عۆ--
عیب--
غ--
غا--
غاج--
غزن--
غض--
غلو--
غم--
غو--
غول--
غی--
غیر--
ـ--
ف--
فا--
فابری--
فاسکو--
فاط--
فال--
فان--
فایدا--
فایر--
فت--
فدراس--
فر--
فرد--
فرق--
فرو--
فری--
فستی--
فع--
فل--
فلسط--
فلی--
فن--
فه--
فو--
فوجی--
فور--
فوز--
فوس--
فون--
فوکو--
في--
فيلوسوف--
فيکي--
فک--
فی--
فیر--
فیل--
فین--
ق--
قا--
قاب--
قات--
قاتی--
قار--
قارا--
قاز--
قال--
قالا--
قالخ--
قام--
قان--
قاپی--
قای--
قایی--
قبری--
قبیر--
قدر--
قر--
قرا--
قرار--
قرن--
قرو--
قروپ--
قری--
قزا--
قص--
قض--
قط--
قل--
قلا--
قلد--
قلن--
قلو--
قلی--
قم--
قمر--
قن--
قو--
قوا--
قوت--
قود--
قور--
قورو--
قوش--
قوشول--
قول--
قوم--
قون--
قوو--
قوي--
قوی--
قویول--
قویون--
قي--
قۆ--
قۇ--
قۇرو--
قی--
قیر--
قیز--
قیسم--
قیل--
قێ--
قێزل--
ك--
كل--
كه--
كو--
كي--
ل--
لا--
لاب--
لات--
لار--
لاس--
لاش--
لال--
لام--
لان--
لاو--
لاپ--
لاک--
لای--
لب--
لبا--
لت--
لتا--
لدو--
لر--
لری--
لز--
لس--
لش--
لشدی--
لف--
لق--
لل--
لم--
لما--
لن--
لندی--
له--
لو--
لوا--
لوب--
لوز--
لوم--
لون--
لوو--
لوک--
لوی--
لي--
لپ--
لچو--
لک--
لۆ--
لۇ--
لی--
لیا--
لیب--
لیر--
لیس--
لیش--
لیق--
لین--
لیو--
لیک--
م--
ما--
مات--
ماد--
مار--
ماس--
ماغا--
ماق--
مال--
مان--
ماه--
ماچ--
ماک--
مای--
مب--
مت--
متا--
متر--
متو--
مج--
مجا--
مجاریس--
مح--
محمد--
مخ--
مد--
مدن--
مذ--
مر--
مرا--
مرث--
مرو--
مری--
مریض--
مز--
مزار--
مس--
مست--
مش--
مص--
مض--
مط--
مظ--
مع--
معا--
معنا--
مفه--
مق--
مل--
ملا--
مم--
من--
منس--
منظ--
منو--
مه--
مها--
مهر--
مو--
موت--
موجا--
موح--
موخ--
مود--
مور--
موز--
موس--
موش--
موض--
موف--
موق--
موقا--
مول--
مون--
موها--
موهاجی--
مي--
مپ--
مپرا--
مک--
مکتب--
مۆ--
می--
میت--
میخ--
مید--
میر--
میز--
میس--
میل--
مین--
مینو--
میکرو--
ن--
نا--
نار--
ناظ--
ناقا--
نام--
نان--
ناکا--
نای--
نت--
نترو--
نتی--
نج--
نخ--
ند--
ندا--
ندر--
ندو--
نر--
نزد--
نس--
نص--
نصر--
نع--
نفت--
نفوذ--
نق--
نقش--
نل--
نم--
نن--
نه--
نهر--
نو--
نوت--
نور--
نوو--
نوی--
ني--
نک--
نگ--
نۆ--
نۆفۇ--
نی--
نیا--
نیت--
نیدر--
نیس--
نیش--
نیل--
نیم--
نین--
نیو--
ه--
ها--
هابس--
هات--
هاس--
هال--
هام--
هامپ--
هان--
هاو--
هاپ--
های--
هد--
هر--
هش--
هق--
هقزا--
هل--
هم--
همپ--
هن--
هند--
هو--
هوا--
هود--
هوف--
هول--
هوم--
هون--
هي--
هۆ--
هۇ--
هی--
هید--
هیق--
هیل--
هیو--
و--
وا--
وات--
واتر--
وار--
وال--
وان--
واو--
وای--
وایت--
وب--
وت--
وث--
وجود--
ود--
ور--
ورا--
ورز--
ورو--
وری--
وز--
وزت--
وس--
وست--
وص--
وضو--
وع--
وف--
وق--
ول--
ولا--
ولت--
ولی--
وم--
ون--
وه--
وو--
وود--
وور--
وورغول--
وي--
وۇ--
وی--
ویا--
ویت--
وید--
ویر--
ویس--
ویش--
ویل--
ویلا--
وین--
ویو--
ویچ--
ویژ--
ویک--
ي--
يا--
ياب--
ياخ--
يارا--
ياز--
يازي--
ياشي--
يد--
ير--
يل--
ين--
يه--
يو--
يول--
يي--
يۇ--
يی--
پ--
پا--
پات--
پارا--
پارت--
پارل--
پارچا--
پاریل--
پاس--
پال--
پام--
پان--
پاپ--
پاک--
پای--
پایلا--
پت--
پتر--
پر--
پراک--
پرت--
پرز--
پرس--
پرو--
پروت--
پری--
پز--
پس--
پل--
پلو--
پلی--
پن--
پنت--
پنتا--
په--
پو--
پوت--
پود--
پور--
پوز--
پوزو--
پوزی--
پول--
پولی--
پون--
پوپ--
پژ--
پک--
پۇ--
پی--
پیت--
پیتس--
پیر--
پیس--
پیش--
پیل--
پین--
پیو--
پیک--
چ--
چات--
چاد--
چار--
چاغ--
چاغی--
چال--
چالیش--
چان--
چاپ--
چای--
چتین--
چر--
چز--
چم--
چمپیو--
چن--
چه--
چو--
چوخ--
چور--
چورول--
چي--
چيخ--
چک--
چکی--
چۆ--
چۇ--
چی--
چیخ--
چیخار--
چیخاری--
چیر--
چیق--
چیل--
چین--
چێ--
ژ--
ژان--
ژانر--
ژن--
ژو--
ژۇ--
ژی--
ک--
کا--
کات--
کار--
کاروان--
کاری--
کازو--
کاس--
کاش--
کال--
کام--
کان--
کاوا--
کاپ--
کای--
کت--
کتاب--
کد--
کر--
کراف--
کرد--
کرن--
کرو--
کری--
کس--
کسی--
کش--
کل--
کلر--
کلو--
کلۇ--
کلی--
کم--
کمدار--
کمپ--
کن--
کند--
کنی--
که--
کو--
کوا--
کوب--
کوبو--
کوت--
کود--
کور--
کورد--
کوز--
کوست--
کوش--
کول--
کوم--
کومپ--
کون--
کونفدراس--
کوه--
کوو--
کوژ--
کوک--
کوی--
کي--
کژ--
کۆ--
کۇ--
کی--
کیت--
کیس--
کیل--
کیم--
کین--
کیو--
گ--
گتي--
گتیری--
گر--
گرمادوز--
گز--
گزگن--
گفت--
گل--
گلیش--
گمی--
گن--
گنج--
گو--
گوج--
گول--
گون--
گي--
گۆ--
گۆج--
گۆن--
گی--
گیل--
ی--
یا--
یابو--
یات--
یاد--
یار--
یارا--
یاروس--
یاریش--
یاز--
یازی--
یازیچی--
یاس--
یاش--
یاغ--
یاق--
یام--
یاما--
یان--
یای--
یب--
یت--
یتی--
یح--
یخ--
ید--
یدو--
یر--
یری--
یز--
یس--
یش--
یف--
یل--
یلا--
یم--
ین--
ینا--
یه--
یو--
یوخ--
یوز--
یوسون--
یوش--
یول--
یوم--
یون--
یوک--
یپ--
یژو--
یک--
یۆ--
یۆروش--
یۇ--
یی--
ییخی--
ییر--
ییغی--
ییل--
۵۹--
۶۱--
۶۵--
۶۶--
۶۸--
۶۹--
۷۲--
۷۴--
۷۵--
۷۶--
۷۷--
۷۸--
۷۹--
۸۰--
۸۱--
۸۲--
۸۳--
۸۵--
--0
--00
--0000000
--00000000
--000000000000
--1
--2
--3
--4
--5
--6
--7
--8
--9
--a
--ab
--abad
--able
--aby
--ac
--aca
--ach
--ack
--ad
--ade
--ado
--ados
--ae
--af
--afa
--ag
--aga
--age
--agh
--ah
--ahan
--ahl
--ahydro
--ai
--aine
--aj
--ak
--aka
--aker
--aki
--al
--ale
--all
--als
--am
--ama
--ami
--amide
--amino
--amo
--an
--ana
--ance
--and
--ane
--ang
--ano
--ant
--any
--anza
--ao
--aon
--ap
--apur
--aq
--ar
--ara
--ard
--ari
--aries
--ark
--aro
--ary
--as
--ası
--at
--ata
--ate
--ated
--ates
--ath
--ati
--ation
--ato
--ator
--ats
--au
--aus
--aut
--awa
--ay
--aya
--az
--b
--ba
--bach
--back
--be
--berg
--bi
--bil
--bility
--ble
--bo
--book
--boro
--bs
--bu
--burg
--burn
--bury
--by
--c
--ca
--cal
--can
--ce
--cent
--ces
--cey
--ch
--che
--chi
--choice
--chy
--ci
--cie
--cise
--ck
--cki
--co
--coe
--croft
--cs
--ct
--cts
--cu
--cum
--cy
--cz
--cze
--czo
--d
--da
--dad
--dal
--dale
--data
--day
--dd
--ddy
--de
--ded
--den
--der
--dh
--di
--dice
--dis
--dix
--dner
--do
--don
--dor
--dorf
--dra
--ds
--dsey
--dt
--du
--dur
--dy
--dz
--də
--e
--ea
--eal
--eau
--eb
--ec
--eca
--eck
--ed
--eda
--edo
--ee
--een
--eer
--ees
--ef
--eh
--ei
--eiro
--ek
--el
--ela
--ell
--elle
--elli
--ello
--els
--em
--eman
--en
--ena
--enburg
--end
--ene
--ens
--ent
--ento
--ents
--eo
--eon
--ep
--er
--era
--ere
--erg
--eri
--ern
--ero
--ers
--ert
--ery
--es
--ese
--esh
--esi
--ess
--est
--et
--eta
--eto
--ets
--ett
--ette
--eur
--ev
--evo
--ew
--ewo
--ex
--ey
--ez
--f
--fa
--fc
--fe
--fect
--feld
--fer
--ff
--ffe
--fi
--field
--fo
--ford
--ft
--ful
--fur
--furt
--g
--ga
--gan
--gar
--gate
--ge
--ged
--gel
--gen
--ger
--ges
--gg
--ggs
--gh
--ght
--gi
--gia
--ging
--gio
--gle
--gna
--gno
--go
--gon
--gs
--gt
--gton
--gu
--gy
--h
--ha
--ham
--har
--harina
--harine
--haw
--he
--hed
--hei
--heim
--hem
--hen
--her
--hes
--hi
--hia
--hic
--hin
--hip
--hiro
--hl
--hm
--hn
--ho
--hod
--hol
--hon
--hood
--ht
--hu
--hurst
--hy
--i
--ia
--ial
--ian
--ians
--ias
--ib
--ible
--ic
--ica
--ical
--ice
--ich
--ick
--ico
--ics
--id
--ide
--idin
--ie
--iec
--ied
--iel
--ien
--ient
--ier
--ieri
--ies
--ieu
--ig
--igan
--ii
--ik
--ika
--il
--ild
--ile
--ill
--illa
--ille
--illo
--im
--ima
--ime
--imo
--in
--ina
--inda
--ine
--ing
--inger
--ingham
--ings
--ington
--inho
--ini
--ino
--ins
--inson
--iny
--io
--ion
--ions
--ios
--ip
--ir
--ira
--ire
--iro
--irs
--is
--ish
--ishi
--isi
--islav
--ism
--ison
--ist
--ista
--istic
--ists
--isław
--it
--ita
--itarian
--ite
--ited
--ites
--ities
--itt
--ity
--iu
--ium
--ius
--iv
--ive
--ix
--iya
--iz
--ized
--j
--ja
--jah
--je
--ji
--jo
--ju
--k
--ka
--kar
--kawa
--ke
--kel
--ker
--kers
--kh
--ki
--kie
--kin
--kis
--kley
--ko
--kowo
--ks
--ku
--ky
--l
--la
--lam
--lan
--land
--lay
--lba
--lc
--ld
--ldo
--le
--ler
--les
--less
--ley
--lf
--li
--lic
--lin
--line
--link
--lis
--list
--lity
--lk
--ll
--lla
--lle
--lles
--lli
--llia
--llo
--lls
--lly
--lm
--lo
--lon
--lor
--lov
--lp
--ls
--lt
--lton
--lu
--lum
--lus
--ly
--lyn
--lz
--lı
--lər
--m
--ma
--mal
--man
--mar
--mb
--mbo
--me
--men
--ment
--ments
--mer
--mi
--mo
--mon
--mond
--mont
--mott
--mp
--ms
--mu
--mus
--my
--n
--na
--nal
--nberg
--nc
--nce
--ncies
--nco
--nd
--nda
--nde
--nder
--ndez
--ndon
--ne
--ned
--nell
--ner
--ners
--nes
--ness
--net
--ney
--ng
--nge
--nger
--ngo
--ni
--nia
--nic
--nie
--ning
--nk
--nka
--nki
--nko
--nn
--nna
--nne
--no
--nor
--ns
--nse
--nsky
--nson
--nstein
--nt
--nte
--nthus
--nti
--ntino
--nto
--nton
--nts
--ntz
--num
--nus
--ny
--nza
--nze
--nzo
--o
--oa
--oc
--och
--ock
--od
--oda
--oe
--of
--off
--og
--ogy
--oi
--ok
--oka
--oke
--ol
--ola
--oli
--olia
--olo
--ologist
--ology
--olt
--om
--oma
--ome
--on
--ona
--one
--ong
--oni
--onia
--online
--ons
--oo
--ood
--oon
--op
--or
--ora
--ord
--ore
--orf
--ori
--oride
--orio
--oro
--ors
--ory
--os
--osa
--ose
--oshi
--oso
--ot
--oto
--ots
--ott
--ou
--oud
--ough
--our
--ous
--out
--ov
--ova
--ovic
--ovich
--ovka
--ovo
--ovsky
--ovy
--ow
--owa
--owice
--owo
--ows
--ox
--oxy
--oy
--oye
--oz
--p
--pa
--pard
--pe
--ph
--phan
--pher
--phic
--phies
--phy
--ple
--po
--port
--post
--ppa
--prise
--ps
--pt
--pton
--pur
--py
--q
--qi
--r
--ra
--rad
--ram
--rat
--raz
--rc
--rd
--re
--ree
--rf
--rg
--ri
--ria
--rie
--ries
--rin
--rio
--ris
--rix
--rk
--rl
--rley
--rly
--rm
--rn
--rno
--ro
--ros
--rov
--rp
--rr
--rra
--rry
--rs
--rst
--rt
--rta
--rty
--ru
--rup
--ry
--ryl
--rz
--s
--sa
--sboro
--sburg
--sco
--se
--sea
--sed
--sel
--sen
--ser
--servation
--ses
--sey
--sh
--sha
--shi
--ship
--shire
--si
--sia
--side
--sie
--sio
--sion
--sis
--sk
--ska
--ske
--sky
--slav
--sley
--sm
--sno
--so
--son
--ss
--ssa
--sse
--ssen
--sson
--st
--stad
--stan
--ste
--ster
--ston
--stone
--stown
--su
--suke
--sus
--sville
--sy
--sz
--szo
--sı
--t
--ta
--tad
--tal
--tas
--tat
--tation
--te
--ted
--ten
--ter
--tes
--th
--tha
--thal
--tham
--ti
--tia
--tial
--tic
--tin
--ting
--tion
--tive
--tle
--to
--tock
--ton
--tone
--tor
--tos
--tov
--town
--tro
--truction
--try
--ts
--tsu
--tt
--tta
--tte
--tti
--tto
--tty
--tu
--tum
--ty
--tyl
--tz
--tzer
--tı
--u
--ua
--ual
--ub
--uc
--uch
--ud
--uda
--ue
--ues
--uf
--ug
--uga
--ugh
--ught
--ui
--uk
--uke
--uki
--ul
--ula
--ult
--ulus
--um
--umi
--un
--une
--ung
--up
--ur
--ura
--ure
--uri
--uride
--us
--usz
--ut
--utes
--uth
--ux
--uz
--v
--va
--ve
--ved
--ven
--ver
--vers
--vi
--vie
--view
--ville
--vin
--vka
--vo
--vor
--vou
--vsky
--vy
--w
--wa
--wal
--way
--we
--well
--wi
--wice
--wich
--wick
--wig
--wire
--wk
--wn
--wo
--wood
--ws
--wy
--wyn
--x
--xi
--xy
--y
--ya
--yan
--yce
--ye
--years
--yev
--yi
--yl
--ylic
--yn
--yo
--yon
--yre
--ys
--yyət
--yz
--z
--za
--zano
--zd
--ze
--zec
--zel
--zen
--zene
--zer
--zew
--zewo
--zi
--zia
--zie
--zio
--zki
--zko
--zno
--zo
--zol
--zole
--zu
--zy
--zyce
--zyl
--zyn
--zyz
--zz
--zzi
--zzo
--ı
--ın
--ının
--ıs
--ław
--ło
--ły
--ə
--əd
--ən
--ər
--ət
--а
--ан
--арь
--ат
--ая
--в
--ва
--г
--га
--д
--да
--ды
--е
--ее
--еи
--з
--и
--ид
--ие
--ии
--ин
--ино
--их
--ица
--ия
--к
--ки
--л
--ле
--ло
--ль
--м
--ма
--н
--ни
--ние
--ния
--нка
--но
--ное
--нь
--о
--ов
--ое
--ои
--ок
--ор
--р
--ра
--рии
--рия
--ры
--с
--т
--та
--у
--ш
--ы
--ыи
--ь
--я
--ء
--ا
--اء
--اب
--ابا
--ابر
--ات
--اتا
--اته
--اتي
--اتی
--اتین
--اج
--اجاق
--اح
--اخ
--اد
--ادا
--ادان
--اده
--ادو
--ار
--ارا
--اراق
--اران
--ارت
--ارتی
--ارد
--اردا
--ارو
--ارک
--اری
--از
--ازما
--ازه
--ازول
--ازی
--اس
--اسا
--اسو
--اسکو
--اسی
--اسین
--اسینا
--اسینی
--اش
--اشی
--اض
--اط
--اع
--اغ
--اغا
--اغی
--اغین
--اف
--اق
--اقا
--اقو
--ال
--الار
--الاری
--الت
--الد
--الدو
--الو
--الی
--ام
--اموتو
--ان
--انا
--انت
--اند
--انس
--انق
--انلی
--انه
--انو
--انوو
--انکا
--انی
--انین
--اه
--اهی
--او
--اوی
--اي
--اچ
--اچی
--اژ
--اک
--اکا
--اکر
--اکو
--اکی
--ای
--ایا
--اید
--ایسکای
--ایه
--ایی
--ب
--با
--باد
--بالا
--بت
--بد
--بر
--برق
--برو
--بز
--بس
--بقه
--بل
--بلر
--بن
--به
--بو
--بورق
--بوس
--بي
--بک
--بی
--بیا
--ة
--ت
--تا
--تاس
--تال
--تان
--تاون
--تت
--تح
--تد
--تدن
--تر
--ترز
--تز
--تزا
--تزو
--تس
--تسا
--تسه
--تسو
--تسی
--تش
--تل
--تما
--تماغا
--تن
--ته
--تو
--تور
--توس
--تون
--توو
--توون
--تي
--تک
--تی
--تیا
--تیان
--تین
--تیک
--ث
--ثر
--ثی
--ج
--جا
--جاق
--جان
--جت
--جد
--جر
--جرد
--جل
--جه
--جو
--جوسو
--جک
--جی
--جیر
--جیق
--ح
--حه
--حی
--خ
--خا
--خان
--خت
--خدی
--خل
--خه
--خو
--خوو
--خووو
--خی
--خیب
--د
--دا
--دادیر
--دار
--دان
--داکی
--دت
--دج
--در
--درا
--دره
--دز
--دزی
--دس
--دل
--دلر
--دمن
--دن
--ده
--دو
--دور
--دون
--دوگو
--دي
--دير
--دک
--دۇ
--دی
--دیر
--دیریر
--دیس
--دیغی
--دیغینی
--دیل
--دیلار
--دیلر
--دین
--دیوم
--ذ
--ر
--را
--رات
--رار
--راق
--رام
--ران
--رت
--رتون
--رث
--رخ
--رد
--ردا
--ردو
--ردی
--ردیلار
--رر
--رز
--رس
--رسون
--رش
--رف
--رق
--رل
--رلا
--رلار
--رلر
--رلی
--رم
--رما
--رماق
--رمه
--رمک
--رمیش
--رن
--ره
--رو
--رود
--روف
--روو
--روپ
--ري
--رية
--رک
--رکن
--رکی
--ری
--ریا
--ریب
--ریت
--ریتسه
--ریخ
--رید
--ریر
--ریش
--رین
--ریو
--ریک
--ز
--زا
--زان
--زانو
--زبرق
--زت
--زر
--زس
--زش
--زل
--زلار
--زم
--زمن
--زمه
--زمی
--زن
--زند
--زه
--زو
--زول
--زون
--زویل
--زي
--زی
--زیا
--زین
--زیو
--س
--سا
--سار
--سال
--سبورق
--ست
--ستا
--ستان
--ستر
--سترا
--ستن
--سر
--سز
--سط
--سف
--سل
--سلاو
--سلر
--سم
--سن
--سه
--سو
--سوز
--سون
--سوو
--سوکه
--سویل
--سي
--سيندا
--سک
--سکا
--سکو
--سکی
--سکیه
--سی
--سیا
--سیز
--سین
--سینا
--سینی
--سیو
--سیوس
--ش
--شا
--شان
--شاه
--شت
--شدي
--شدير
--شر
--شلار
--شما
--شن
--شنا
--شه
--شهر
--شو
--شوناس
--شوو
--شي
--شکی
--شی
--شیب
--شیر
--شین
--شیپ
--ص
--صا
--صه
--صی
--ض
--ضا
--ضل
--ضه
--ضی
--ط
--طق
--طه
--طی
--ظ
--ظر
--ظم
--ع
--عا
--عت
--عد
--عفا
--علی
--عه
--عی
--غ
--غا
--غال
--غان
--غه
--غو
--غون
--غي
--غی
--غین
--غینا
--غینی
--ؽ
--ؽن
--ف
--فا
--فت
--فر
--فس
--فسکی
--فق
--فل
--فلد
--فن
--فه
--فو
--في
--فی
--فیلد
--ق
--قا
--قام
--قان
--قاه
--قت
--قتس
--قتسا
--قتن
--قتون
--قدا
--قدان
--قر
--قز
--قس
--قسک
--قف
--ققز
--قل
--قلا
--قلاری
--قلی
--قن
--قه
--قو
--قون
--قي
--قکی
--قی
--قین
--ك
--كی
--ل
--لا
--لادی
--لادیغی
--لار
--لارا
--لاردا
--لاردان
--لارلا
--لاري
--لارين
--لاری
--لارین
--لاش
--لاشان
--لاشدی
--لاشما
--لاشمیش
--لاشیر
--لاق
--لاما
--لاماق
--لان
--لاند
--لاندی
--لانما
--لانماسی
--لانمیش
--لانیب
--لایان
--لاییر
--لت
--لتدی
--لتمه
--لتمک
--لد
--لدز
--لدو
--لدی
--لدین
--لر
--لردن
--لرده
--لره
--لري
--لری
--لرین
--لرینه
--لرینی
--لز
--لس
--لش
--لشمه
--لف
--لم
--لمه
--لن
--لند
--لنن
--لنیب
--له
--لو
--لوب
--لور
--لوف
--لوق
--لوپ
--لوژی
--لوک
--لوگو
--لویو
--لى
--لي
--لير
--ليق
--لک
--لی
--لیا
--لیب
--لیر
--لیغا
--لیغی
--لیق
--لیقدا
--لین
--لیک
--لیگی
--لیی
--لیین
--لیینی
--م
--ما
--مار
--ماز
--ماسی
--ماغا
--ماغی
--ماق
--مان
--مت
--مد
--مدا
--مر
--مز
--مس
--مل
--من
--مند
--مه
--مو
--موتو
--موث
--مون
--مي
--ميش
--ميشدير
--مک
--مکده
--می
--میر
--میز
--میزین
--میش
--مین
--میک
--ن
--نا
--نات
--ناس
--نامه
--نان
--ناک
--نایا
--نبرق
--نت
--نتا
--نتو
--نتی
--نج
--نجا
--نجر
--نجی
--ند
--ندا
--ندان
--نداکی
--ندن
--نده
--ندی
--نر
--نز
--نس
--نسون
--نسک
--نسکی
--نش
--نق
--نقا
--نقتس
--نقتسا
--نقتون
--نقز
--نقن
--نقه
--نقهام
--نقک
--نقی
--نل
--نلی
--نما
--نماسی
--نماغا
--نماق
--نمیش
--نن
--نه
--نهام
--نو
--نوا
--نور
--نوف
--نون
--نوو
--نووو
--ني
--نين
--نيوم
--نک
--نکا
--نکس
--نکو
--نکی
--نگ
--نی
--نیا
--نیب
--نیر
--نین
--نیو
--نیک
--ه
--ها
--هام
--های
--هد
--هر
--هم
--هه
--هو
--هي
--هی
--و
--وا
--وال
--وان
--وب
--وبو
--وبی
--وت
--وتا
--وتس
--وتو
--وتی
--وث
--وج
--وخ
--ود
--ودی
--ور
--ورا
--ورت
--ورسیته
--ورف
--وره
--ورو
--وز
--وزا
--وزی
--وس
--وسا
--وسو
--وسون
--وسکی
--وسی
--وش
--وشو
--وشوو
--وشی
--وط
--وغلو
--وغو
--وف
--وفوسفات
--وفون
--وق
--وقو
--ول
--ولا
--ولدو
--ولو
--ولی
--وم
--وما
--ومو
--ومی
--ون
--ونا
--ونال
--ونان
--ونت
--ونجو
--وند
--وندا
--وندن
--ونده
--وندو
--ونز
--ونه
--ونو
--ونور
--ونون
--ونی
--ونیا
--ونیک
--وه
--وو
--ووا
--وود
--وور
--وون
--ووو
--ووک
--ووکا
--ووی
--وویتسه
--وویچ
--وي
--وپ
--وچ
--وچی
--وژ
--وژی
--وک
--وکا
--وکس
--وکو
--وی
--ویا
--ویتسه
--ویل
--ویه
--ویو
--ویچ
--ى
--ي
--يا
--يان
--يب
--ية
--يت
--يتي
--يد
--ير
--يز
--يش
--يشدير
--يغي
--يف
--يق
--يم
--ين
--ينا
--يندا
--يندان
--يندن
--ينده
--ينه
--يني
--يه
--يو
--يوم
--يي
--يک
--پ
--پا
--پایين
--پت
--پر
--پس
--پسون
--پل
--په
--پو
--پور
--پي
--پی
--چ
--چا
--چاسی
--چای
--چر
--چزتر
--چل
--چن
--چنو
--چه
--چو
--چوو
--چي
--چک
--چی
--چیسی
--چیلار
--چیلیق
--چیو
--ژ
--ژا
--ژتس
--ژن
--ژه
--ژی
--ک
--کا
--کات
--کادا
--کار
--کاوا
--کت
--کجه
--کدن
--کده
--کر
--کز
--کس
--کل
--کن
--که
--کو
--کوس
--کوف
--کوم
--کووو
--کي
--کک
--کی
--کیا
--کیه
--گ
--گار
--گان
--گاه
--گاهی
--گر
--گراد
--گه
--گو
--گي
--گی
--گین
--گینی
--ۆ
--ۆر
--ۆن
--ۇ
--ۇر
--ۇل
--ۇن
--ی
--یا
--یات
--یار
--یاسی
--یام
--یاما
--یان
--یانو
--یاک
--یب
--یت
--یتسه
--یته
--یتو
--یتی
--یج
--ید
--یر
--یردی
--یرو
--یز
--یزم
--یزه
--یس
--یست
--یستان
--یسم
--یش
--یشدیر
--یشی
--یع
--یغی
--یف
--یق
--یقه
--یل
--یلا
--یلدی
--یلر
--یلن
--یله
--یم
--یما
--یمی
--ین
--ینا
--یندا
--یندان
--یندن
--ینده
--ینز
--ینق
--ینقتون
--ینقز
--ینقن
--ینه
--ینو
--ینگ
--ینی
--ینین
--یه
--یو
--یور
--یوس
--یوم
--یون
--یوو
--یي
--یپ
--یچ
--یژ
--یک
--یکا
--یکس
--یکو
--یکی
--یی
--ییا
--ییب
--ییه
--۰
--۰۰
--۱
--۲
--۳
--۴
--۵
--۶
--۷
--۸
--۹
