!
"
#
##0
##1
##10
##11
##12
##13
##14
##15
##16
##17
##18
##19
##2
##20
##21
##22
##23
##24
##25
##26
##27
##28
##29
##3
##30
##31
##32
##33
##34
##35
##36
##37
##38
##39
##4
##40
##41
##42
##43
##44
##45
##46
##47
##48
##49
##5
##50
##51
##52
##53
##54
##55
##56
##57
##58
##59
##6
##60
##61
##62
##63
##64
##65
##66
##67
##68
##69
##7
##70
##71
##72
##73
##74
##75
##76
##77
##78
##79
##8
##80
##81
##82
##83
##84
##85
##86
##87
##88
##89
##9
##90
##91
##92
##93
##94
##95
##96
##97
##98
##99
$
%
&
'
(
)
*
+
,
-
.
/
0
00
000
001
002
003
004
005
006
007
008
009
01
010
013
014
017
018
019
02
020
021
022
024
025
026
03
03000
032
036
04
040
041
043
044
046
048
05
056
058
059
06
062
064
068
069
07
070
072
075
076
077
08
080
083
088
09
090
096
1
10
100
1000
1002
1007
101
1010
1012
1013
1016
102
1020
1021
1024
103
1030
1038
104
1040
105
1050
106
1060
107
1070
108
1080
1086
1087
109
1090
11
110
1100
1103
1105
1106
111
1110
1111
1118
112
1120
1124
1126
1128
113
1130
1135
1139
114
1140
1144
115
1150
1154
116
1160
117
1170
118
1180
1187
1189
119
1190
12
120
1200
1204
1205
121
1210
1214
1216
1219
122
1220
1225
1227
123
1230
1235
1236
124
1240
1241
12411
1247
125
1250
1259
126
1260
127
1270
1272
1274
128
1280
1285
129
1290
1295
13
130
1300
1303
1304
1307
1308
131
1310
1312
1314
1318
132
1320
1322
1327
133
1330
134
1340
1345
1346
135
1350
1355
136
1360
1362
1364
1365
1367
1369
137
1370
1375
1377
138
1380
1386
1389
139
1390
1394
1395
1396
1398
1399
14
140
1400
1404
1405
1406
141
1410
1412
1415
1417
142
1420
1422
1423
1425
1427
1428
143
1430
1431
1432
1434
1435
1436
1437
1439
144
1440
1441
1445
1449
145
1450
1451
1452
1453
1454
1455
1456
1457
1458
1459
146
1460
1461
1462
1464
1465
1466
1467
1468
1469
147
1470
1471
1472
1473
1474
1475
1476
1477
1478
1479
148
1480
1481
1482
1483
1484
1485
1486
1487
1488
1489
149
1490
1491
1492
1493
1494
1495
1496
1497
1498
1499
15
150
1500
1501
1502
1503
1504
1505
1506
1507
1508
1509
151
1510
1511
1512
1513
1514
1515
1516
1517
1518
1519
152
1520
1521
1522
1523
1524
1525
1526
1527
1528
1529
153
1530
1531
1532
1533
1534
1535
1536
1537
1538
1539
154
1540
1541
1542
1543
1544
1545
1546
1547
1548
1549
155
1550
1551
1552
1553
1554
1555
1556
1557
1558
1559
156
1560
1561
1562
1563
1564
1565
1566
1567
1568
1569
157
1570
1571
1572
1573
1574
1575
1576
1577
1578
1579
158
1580
1581
1582
1583
1584
1585
1586
15868
1587
1588
1589
159
1590
1591
1592
1593
1594
1595
1596
1597
1598
1599
16
160
1600
1601
1602
1603
1604
1605
1606
1607
1608
1609
161
1610
1611
1612
1613
1614
1615
1616
1617
1618
1619
162
1620
1621
1622
1623
1624
1625
1626
1627
1628
1629
163
1630
1631
1632
1633
1634
1635
1636
1637
1638
1639
164
1640
1641
1642
1643
1644
1645
1646
1647
1648
1649
165
1650
1651
1652
1653
1654
1655
1656
1657
1658
1659
166
1660
1661
1662
1663
1664
1665
1666
1667
1668
1669
167
1670
1671
1672
1673
1674
1675
1676
1677
1678
1679
168
1680
1681
1682
1683
1684
1685
1686
1687
1688
1689
169
1690
1691
1692
1693
1694
1695
1696
1697
1698
1699
17
170
1700
1701
1702
1703
1704
1705
1706
1707
1708
1709
171
1710
1711
1712
1713
1714
1715
1716
1717
1718
1719
172
1720
1721
1722
1723
1724
1725
1726
1727
1728
1729
173
1730
1731
1732
1733
1734
1735
1736
1737
1738
1739
174
1740
1741
1742
1743
1744
1745
1746
1747
1748
1749
175
1750
1751
1752
1753
1754
1755
1756
1757
1758
1759
176
1760
1761
1762
1763
1764
1765
1766
1767
1768
1769
177
1770
1771
1772
1773
1774
1775
1776
1777
1778
1779
178
1780
1781
1782
1783
1784
1785
1786
1787
1788
1789
179
1790
1791
1792
1793
1794
1795
1796
1797
1798
1799
18
180
1800
1801
1802
1803
1804
1805
1806
1807
1808
1809
181
1810
1811
1812
1813
1814
1815
1816
1817
1818
1819
182
1820
1821
1822
1823
1824
1825
1826
1827
1828
1829
183
1830
1831
1832
1833
1834
1835
1836
1837
1838
1839
184
1840
1841
1842
1843
1844
1845
1846
1847
1848
1849
185
1850
1851
1852
1853
1854
1855
1856
1857
1858
1859
186
1860
1861
1862
1863
1864
1865
1866
1867
1868
1869
187
1870
1871
1872
1873
1874
1875
1876
1877
1878
1879
188
1880
1881
1882
1883
1884
1885
1886
1887
1888
1889
189
1890
1891
1892
1893
1894
1895
1896
1897
1898
1899
19
190
1900
1901
1902
1903
1904
1905
1906
1907
1908
1909
191
1910
1911
1912
1913
1914
1915
1916
1917
1918
1919
192
1920
1921
1922
1923
1924
1925
1926
1927
1928
1929
193
1930
1931
1932
1933
1934
1935
1936
1937
1938
1939
194
1940
1941
1942
1943
1944
1945
1946
1947
1948
1949
195
1950
1951
1952
1953
1954
1955
1956
1957
1958
1959
196
1960
1961
1962
1963
1964
1965
1966
1967
1968
1969
197
1970
1971
1972
1973
1974
1975
1976
1977
1978
1979
198
1980
1981
1982
1983
1984
1985
1986
1987
1988
1989
199
1990
1991
1992
1993
1994
1995
1996
1997
1998
1999
2
20
200
2000
2001
2002
2003
2004
2005
2006
2007
2008
2009
201
2010
2011
2012
2013
2014
2015
2016
2017
2018
2019
202
2020
2021
2022
203
204
205
206
207
208
209
21
210
211
212
213
214
215
216
217
218
219
22
220
221
222
223
224
225
226
227
228
229
23
230
231
232
233
234
235
236
237
238
239
24
240
241
242
243
244
245
246
247
248
249
25
250
2500
251
252
253
254
255
256
257
258
259
26
260
261
262
263
264
265
266
267
268
269
27
270
271
272
273
274
275
276
277
278
279
28
280
281
282
283
284
285
286
287
288
289
29
290
291
292
293
294
295
296
297
298
299
3
30
300
3000
301
302
303
304
305
306
307
308
309
31
310
311
312
313
314
315
316
3166
317
318
319
32
320
321
322
323
324
325
326
327
328
329
33
330
331
332
333
334
3349
335
336
337
338
339
34
340
341
342
343
344
345
346
347
348
349
35
350
3500
351
352
353
354
355
356
357
358
359
3590
36
360
361
362
363
364
365
366
367
368
369
37
370
371
372
373
374
375
376
377
378
379
38
380
381
382
383
384
385
386
387
388
389
39
390
391
392
393
394
395
396
397
398
399
4
40
400
4000
401
402
403
404
405
406
407
408
409
41
410
411
412
413
414
415
416
417
418
419
42
420
421
422
423
424
425
426
427
428
429
43
430
431
432
433
434
435
436
437
438
439
44
440
441
442
443
444
445
446
447
448
449
45
450
451
452
453
454
455
456
457
458
459
46
460
461
462
463
464
465
466
467
468
469
47
470
471
472
473
474
475
476
477
478
479
48
480
481
482
483
484
485
486
487
488
489
49
490
491
492
493
494
495
496
497
498
499
5
50
500
5000
501
502
503
504
505
506
507
508
509
51
510
511
512
513
514
515
516
517
518
519
52
520
521
522
523
524
525
526
527
528
529
53
530
531
532
533
534
535
536
537
538
539
54
540
541
542
543
544
545
546
547
548
549
55
550
551
552
553
554
555
556
557
558
559
56
560
561
562
563
564
565
566
567
568
569
57
570
571
572
573
574
575
576
577
578
579
58
580
581
582
583
584
585
586
587
588
589
59
590
591
592
593
594
595
596
597
598
599
6
60
600
6000
601
602
603
604
605
606
607
608
609
61
610
611
612
613
614
615
616
617
618
619
62
620
621
622
623
624
625
626
627
628
629
63
630
631
632
633
634
635
636
637
638
639
64
640
641
642
643
644
645
646
647
648
649
65
650
651
652
653
654
655
656
657
658
659
66
660
661
662
663
664
665
666
667
668
669
67
670
671
672
673
674
675
676
677
678
679
68
680
681
682
683
684
685
686
687
688
689
69
690
691
692
693
694
695
696
697
698
699
7
70
700
701
702
704
705
706
707
708
709
71
710
711
712
713
714
715
716
717
718
719
72
720
721
722
723
724
725
726
727
728
729
73
730
731
732
733
734
735
736
737
738
739
74
740
741
742
743
744
7442
746
747
748
749
75
750
751
752
753
754
755
756
7566
757
758
759
76
760
761
762
763
764
765
766
767
7679
768
769
77
770
7701
771
772
773
774
775
776
777
778
779
78
780
781
782
783
784
785
786
7864
787
788
789
79
790
791
792
793
794
795
796
797
798
799
8
80
800
8000
8001
801
802
803
804
805
806
807
808
809
81
810
811
812
813
814
815
816
818
819
82
820
821
822
823
824
825
8252
826
827
8274
828
829
83
830
8304
831
832
833
834
835
836
837
838
839
84
840
841
842
843
844
845
846
847
848
849
85
850
851
852
853
854
855
857
858
859
86
860
861
86108
862
863
864
865
866
867
868
869
87
870
871
872
873
874
875
876
87651
877
878
879
88
880
881
882
883
88309
884
885
886
88680
887
888
889
89
890
891
89104
892
893
894
895
89533
896
89602
897
89784
898
899
9
90
900
901
902
903
904
905
906
908
909
91
910
911
912
913
914
915
916
917
918
919
92
920
921
922
923
924
925
926
927
928
929
93
930
931
932
933
934
935
936
937
939
94
940
941
942
943
944
945
946
947
948
949
95
950
951
952
953
954
955
956
957
958
959
96
960
961
962
963
964
965
966
967
968
969
97
970
971
972
973
974
975
976
977
978
979
98
980
981
982
983
984
985
986
987
988
989
99
990
991
992
993
994
995
996
997
998
999
:
;
<
=
>
?
@
[
\
]
^
_
`
a
aa
aaaaacaaj
aaaacaaj
aachen
aadler
aaft
aal
aalto
aan
aant
aante
aanten
aantenvagels
aap
aarden
aargau
aarhus
aaron
aart
aarten
aas
aasp
aastrup
ab
abbendo
abbenseet
abbey
abbott
abc
abchaasch
abe
abegg
abel
abend
abendblatt
abendroth
abenteuer
aber
abercrombie
aberdeen
abgeordnete
abgerufen
abhandlungen
abitur
about
abraham
abram
abs
abschied
abstract
abt
abu
ac
acade
academia
academic
academy
ach
achem
achievement
achille
achim
acht
achte
achtelfinale
achten
achter
achteran
achterbeen
achterdiek
achtere
achteren
achterflunken
achtergrund
achterher
achterhooks
achterlaaten
achterland
achterlief
achtern
achterna
achternah
achtho
acker
ackerbo
ackerland
ackerman
ackermann
acosta
act
acta
action
actionfilm
actors
ad
ada
adair
adalbert
adam
adams
adamson
adb
addelborg
adderley
addison
ade
adel
adelaide
adele
adelheid
adelstitel
adenauer
adickes
adjektiv
adler
administration
admiraal
admiral
admiralita
adolf
adolfo
adolph
adolphe
adrastea
adress
adria
adriaan
adrian
adriana
adriano
adriatico
adrien
adulte
adulten
advanced
advancement
advent
adventisten
adventure
adventures
advisory
ae
af
afa
afanassjew
afar
afbildt
afbillen
afbillt
afbo
afboet
afboot
afbraken
afbreken
afbrennt
afbroken
afd
afdeckt
afdeel
afdeelen
afdeelt
afdelen
afdragen
aff
affa
affairs
affall
affinghusen
affo
affohrt
affolg
affu
afgeven
afghanistan
afgrenzen
afgrenzt
afha
afhangig
afhangigkeit
afhangt
afholen
afhollen
afk
afkaat
afkamen
afko
afkregen
afkummt
afkumst
aflagern
aflagert
afleddt
afleggen
afleggt
aflehnen
aflehnt
afleiden
afleidt
afleist
afleit
aflo
afloop
aflopen
afmaakt
afnahmen
afnehmen
afordente
afordenten
afordneten
afordneter
afornte
afornten
aforntenhuus
afreeten
afreten
africa
african
afrieten
afrika
afrikaans
afrikaansch
afrikaansche
afrikaanschen
afrikaforscher
afroopen
afropen
afsacken
afsackt
afscha
afschafft
afscheed
afscheedt
afseggt
afsehn
afsett
afsetten
afsicht
afslaten
afslepen
afslooten
afsluss
afsluten
afsluut
afsluute
afsluuten
afsnackt
afsneden
afsnidd
afsnitt
afsnitten
afsolute
afspann
afspeelt
afsta
afstammen
afstammt
afstammung
afstand
afstieg
afstimmen
afstimmt
afsto
afstrahlt
afstro
afteken
after
aftheker
aftreden
aftrennt
afwater
afwehr
afwehrspeler
afwesseln
afwieken
ag
again
against
agamemnon
agatha
agathe
agder
age
agedrup
agency
agent
agenten
agentur
agnes
agnon
agon
agostini
agoult
agrarwetenschopper
agua
aguacate
aguiar
aguilar
agusti
ah
ahern
ahlden
ahlen
ahmed
ahn
ahnen
ahrens
ahusen
ai
aichach
aid
aids
aikman
aimbeck
aime
ain
ainsworth
air
airbus
aires
airlines
airport
ais
aisch
aise
aisne
aitken
aitne
aix
ajax
ak
akademie
akademische
akademischer
aken
aki
akira
akkerat
akraat
akron
aks
akschoon
akt
akte
akten
aktiv
aktive
aktiveert
aktiven
aktivist
aktivistin
aktivita
aktschoon
aktuell
aktuelle
aktuellen
akustik
akute
al
alabama
alain
alajuela
alan
alaska
alb
alba
albaansch
albaanschen
alban
albanien
albany
albedo
alben
albers
albert
alberta
alberti
alberto
alberts
albin
albion
albrecht
albright
albst
album
albums
aldea
aldo
aldrich
aldridge
alec
aleixandre
alejandro
aleksandar
aleksander
alembert
alert
alessandro
alex
alexander
alexandra
alexandre
alexandria
alexandrowitsch
alexandrowna
alexandru
alexei
alexejew
alexejewitsch
alexijewitsch
alexis
alf
alfaro
alfons
alfonso
alfred
alfredo
alfs
alfst
algen
algerien
algier
ali
alias
alibi
alice
alicia
alien
aliens
alison
aljechin
alkalimetallen
alkanen
alkohol
all
allan
allard
alldag
alle
allee
alleen
allegheny
allegro
allein
allelen
allem
allen
allendale
allende
allens
aller
allerdings
allerhand
allerup
allerwegens
alles
allested
allesø
allga
allgemeen
allgemeene
allgemeine
allgemene
allgemenen
alliance
allianz
allieerten
allier
allison
allmers
allmusic
allns
alltohoop
alltohopen
alltosamen
allwo
alma
almeida
alois
alonso
aloys
alpen
alpers
alpes
alpha
alphabet
alphonse
alpine
alpinist
als
alsen
alslev
also
alt
alta
altamira
altar
alte
alten
alter
alternativ
alternative
altmaier
altman
altmann
altno
alto
altona
altor
altsa
aluminium
alumni
alvarez
alverdissen
alves
alvin
always
alwin
alzheimer
am
amadeus
amador
amalia
amalie
amalthea
amanda
amandala
amano
amateur
amateure
amazonas
amber
amberg
ambrose
ambrosius
ame
amelia
amelkusen
amelung
amenn
amenne
america
american
amerika
amerikaansch
amerikaansche
amerikaanschen
amerikaner
amerikanerin
amerikaners
amerikanischen
ami
amiens
aminosu
ammerland
ammoniak
ammoniten
among
amor
amos
amour
amphibien
amrum
amstel
amsterdam
amt
amteeren
amtlich
amtliche
amtliches
amtmann
amtsassesser
amtsgericht
amtsgerichten
amtshauptmann
amtsjuristen
amtsschriever
amtsspraak
amtsspraken
amtstied
amtstiet
amtsvaagdie
amundsen
amy
an
ana
analog
analyse
analysen
analysis
anand
ananke
anarchist
anas
anastasius
anatidae
anatoli
anatoljewitsch
anatomie
anatoom
anbacksel
anbackt
anbaden
anbau
anbaut
anbeden
anbo
anboden
anboot
anbott
anbro
anbrocht
anbunnen
anc
anca
ancash
ancient
and
andalusien
andeel
andeelen
andelen
anden
andenken
andere
anderen
anders
andersen
anderson
anderssen
andersson
andoon
andorra
andra
andrag
andre
andrea
andreas
andrei
andrej
andrejewitsch
andres
andresen
andreven
andrew
andrews
andric
andromeda
andrzej
andu
anduern
anduert
andy
anerkannt
anerkennung
anette
anfa
anfall
anfang
anfangen
anfangs
anfangstiet
anfangt
anfo
anfu
anfung
anfungen
angaav
angahn
angaven
ange
angebot
angeho
angeiht
angel
angela
angelegenheiten
angeles
angelika
angeln
angelo
angels
angelsass
angelsassen
angelsassisch
angerer
angeven
angewandte
angifft
anglikaansche
anglikaanschen
anglist
anglo
angola
angreep
angreepen
angrepen
angriepen
angrieper
angriepers
angst
anguilla
angus
anha
anhalt
anhand
anhang
anhangers
anho
anhollen
anholt
anhu
ani
animal
animator
animatschoonsfilm
anita
anja
anjou
ankamen
anke
ankeeken
ankeken
anker
ankieken
anklaag
anklaagt
anklaagten
anklam
ankloh
anknu
anku
ankummt
ankunft
anlaag
anlaat
anlagen
anleggen
anleggt
anlehnt
anleitung
anliggen
anloop
anlopen
anmarken
ann
anna
annahm
annahmen
annalen
annan
anne
annegret
annehmen
annekteert
anneliese
annemarie
anner
annere
anneren
annerlingen
annern
anners
annersru
annersrum
annert
annerthalv
annerwegens
annette
annie
annika
anno
annommen
annual
anopheles
anorden
anordent
anorganischen
another
anpassen
anpasst
anraden
anreed
anreegt
anregen
anregt
anriekert
anro
anropen
ans
ansa
ansatz
ansbach
anschu
anseggt
ansehn
anselm
anser
ansett
ansgar
ansicht
ansichten
ansiedelt
ansla
anslag
anslahn
anslaten
anslooten
ansluss
anslusssteed
ansluten
ansluuten
ansluutend
ansnackt
ansonsten
anspeel
anspeelt
anspelen
anspro
ansta
anstalt
anstalten
ansteed
anstegen
ansteken
anstellt
anstellten
anstellung
anstieg
anstiegen
ansto
anstreevt
anta
antall
antarctic
antarctica
antarktika
antarktis
antarktische
antarktischen
antarktisexpeditschoon
ante
anteken
anterior
antholz
anthony
anthropologin
anthropoloog
anti
antigen
antigenen
antigua
antike
antiken
antiko
antillen
antimon
antiochia
antiochos
antioquia
antiquar
antisemitismus
antje
anto
antodrapen
antodrepen
antofangen
antofinnen
antoine
antoinette
antokieken
antoleggen
anton
antonehmen
antonelli
antoni
antonia
antonio
antonius
antonow
antrecken
antreden
antreeden
antrim
antwerpen
antwoort
antwort
anwassen
anwendt
anwennen
anwennt
anwesen
anwiesen
anwiest
anzeiger
ao
aoede
aorta
ap
apache
apachen
aparicio
apartheid
apel
apen
apene
apenen
apenlich
apenliche
apenlichkeit
apenmaakt
apenmaken
apentlich
apentliche
apentlichen
apentlichkeit
aphel
aphrodite
apollo
apollon
apostel
apostels
apparat
apparatspott
appel
appeln
appels
appelsorten
apple
appleton
applied
april
aquitanien
ar
ara
araabsch
araabsche
araabschen
arabers
arabien
arad
arago
aragon
arama
aramis
aranda
arapaho
arbeid
arbeiden
arbeider
arbeiderpartei
arbeiders
arbeidt
arbeit
arbeiten
arbeiter
arbeiters
arbeitsgrupp
arbor
arc
archa
arche
archer
archibald
archie
archipel
architekt
architekten
architektin
architektur
architekturhistoriker
archiv
archivar
archive
archiveert
archives
archivlink
ard
arde
ardennes
are
area
arellano
arena
arenal
arend
arendt
arens
arensch
arensperg
arentsschild
ares
argentiensch
argentiensche
argentienschen
argentina
argentinien
arger
arges
argon
arias
arie
ariel
aristoteles
arizona
arkansas
arktis
arm
armand
armando
armbruster
arme
armee
armeen
armeensch
armeensche
armeenschen
armen
armenia
armenian
armenien
armeniers
armin
arminia
armitage
armoot
armor
arms
armsdo
armsen
armstrong
army
arnd
arndt
arne
arnhold
arninge
arno
arnold
arnsberg
arnt
aroma
around
arp
arrangements
arrangeur
arrango
arrest
arrondissement
arroyo
ars
arsdo
arsen
art
artdirector
arte
artemis
arten
arteria
arterie
arterien
arthur
article
artie
artikel
artikels
artillerie
artist
artists
artmann
arts
artur
arturo
aruba
arv
arven
arvid
arvt
arzbischo
arzbischop
arzbisdom
arzstift
arzt
as
ascap
ascension
asch
aschaffenburg
asche
aschwarden
asendo
aserbaidschan
ash
ashby
ashcroft
ashland
ashley
ashton
ashusen
asia
asien
askø
asp
aspekte
aspekten
aspx
asquith
ass
assad
assens
assesser
assistant
assistent
assmann
associate
associated
association
asteroid
asteroiden
asteroidengo
astrid
astrologie
astronaut
astronauten
astronautin
astronom
astronomen
astronomical
astronomie
astronomin
astronomy
astronoom
astronoomsch
astronoomsche
astronoomschen
astrophysics
astrophysiker
asturias
asturien
at
atchison
atelier
aten
atenluft
athen
athenaeum
athene
athens
atherton
athleten
athletinnen
athos
atkinson
atla
atlanta
atlantic
atlantik
atlantique
atlantiques
atlantis
atlas
atmospha
atoll
atom
atombomb
atomen
atomic
atomkarn
atomkarns
atomtall
atomteken
atp
attenta
attentat
attila
atwood
au
aube
aubert
aubin
aubry
auburn
auch
auckland
aude
audio
audiodateien
auditer
audley
audrey
auerk
auerker
auf
aufbau
aufbruch
aufl
auflage
aufsa
aufstieg
auge
augen
augsborg
augsburg
august
augusta
auguste
augustin
augustine
augustinus
augusto
augustus
auk
aula
auld
aumann
aumund
aurelius
aurich
aurora
aus
ausgabe
ausgewa
ausmachenden
ausschreiben
ausstellung
aust
austin
austraalsch
austraalsche
austraalschen
australia
australian
australien
australopithecus
auto
autobahn
autobahndreeeck
autobahnen
autobahnkru
autobiografie
autobiographie
autohersteller
automaatsch
automatisch
automobile
automodell
autonoe
autonome
autor
autoren
autorenlexikon
autorennfohrer
autorita
autoroute
autos
autostrada
autounfall
autovi
aux
av
ava
avantgarde
aven
avend
avendmahl
avends
avengers
avens
aventu
avenue
aver
avernakø
avers
aveyron
aviation
avignon
aviv
avkaat
avkatin
avnede
avon
aw
award
awarded
awards
away
awer
ax
axel
ay
ayacucho
aykroyd
aymara
ayres
az
azevedo
azoren
azul
aßel
aßlersand
b
ba
baad
baade
baadmo
baadschopper
baaksbarg
baal
baarnborg
baarnstrup
baas
bab
babcock
baben
babenhen
baby
babylon
baca
bacalar
baccum
bach
bachelor
bacher
bachmann
bachtenbrock
back
backen
backer
backhaus
backs
backsteen
backt
bacmeister
bacon
bad
baden
badenst
badlsdo
badmintonspeler
badmintonspelerin
baeza
bafta
bagdad
bagen
bagenschu
bahamas
bahi
bahia
bahlburg
bahn
bahnen
bahnho
bahnhof
bahnhoff
bahnhoffstraat
bahnlien
bahnlienen
bahnnegen
bahnradfohrer
bahnradsportler
bahr
bahrain
bailey
baillie
bailly
baines
baja
bak
baker
bakterien
bakterioloog
bal
bald
baldwin
balje
balkan
balken
ball
ballade
balladen
ballett
ballettdanzer
ballettdanzerin
ballon
balthasar
baltikum
baltimore
balzer
bamberg
bambi
ban
bananen
bancroft
band
bande
bandholm
bandleader
bands
banerjee
bang
bange
bangemann
bangladesch
banjo
bank
banken
banker
bankier
bankmanager
banks
bannen
banner
bannerman
bannig
bannige
bannigen
bannister
baptist
baptiste
baptisten
bar
bara
barack
baradei
baranowski
barbados
barbara
barbarossa
barber
barbosa
barbuda
barcelona
barchel
bardo
baren
barg
bargbo
bargboinscheno
bargdal
barge
bargen
bargens
bargfrede
bargfu
bargkamm
bargkeed
bargland
bargmann
bargst
bargstieger
bargstiegerin
bargt
bargwertung
barium
bark
barken
barker
barkhausen
barkhusen
barlavento
barley
barlow
barnabas
barnard
barnes
barnett
barney
barnsteen
barntrup
barock
barocke
baron
baroness
baronet
barr
barranco
barratt
barre
barrera
barreto
barrett
barrie
barrien
barrier
barron
barrow
barry
bart
bartel
bartelmees
bartels
barth
barthe
barthel
barthold
bartholdy
bartholoma
bartlett
bartoli
barton
barver
barzel
bas
basalt
basbeek
basdaal
base
baseballspeler
basedow
baseert
basel
basen
basic
basie
basil
basilika
basin
basis
baskenland
basketball
basketballspeler
basketballspelerin
basketballtrainer
bass
bassen
bassener
bassist
bassisten
bastien
bastion
bastogne
basuun
basuunist
bateman
bates
bath
bathurst
batterien
battista
battle
bau
bauch
bauen
bauer
baukem
baum
baumann
baume
baumga
baumgart
baumgarten
baumgartner
baur
bausch
baut
bautista
bautz
bautzen
bauwark
bauwarken
baven
bavenflach
bavenhen
baxter
bay
bayer
bayerisch
bayerische
bayerischen
bayerisches
bayern
bayerns
bayreuth
bazille
bb
bbc
bbe
bben
bbkl
bbs
bd
bde
be
beach
beacht
beachvolleyballspeler
beachvolleyballspelerin
beal
beale
beamte
beamten
bean
bear
bearb
bearbeit
bearbeiten
bearbeitet
beard
beat
beate
beatles
beatrice
beatrix
beattie
beatty
beau
beaufort
beaulieu
beaumont
beautiful
beaux
beaver
bebop
beborg
bec
bechet
beck
becke
becken
beckenbauer
becker
beckett
beckmann
becquerel
bedacht
bedden
bedeckt
bedeeligen
bedeeligt
bedeeligten
bedeent
bedeligt
beden
bedenken
bedeutung
bedford
bedfordshire
bedingen
bedingt
bedingungen
bedra
bedrapen
bedreev
bedreeven
bedreven
bedrief
bedriev
bedrieven
bedriever
bedrievsweert
bedrievt
bedrifft
bedriggt
bedrocht
bedroht
bedroog
bedu
bedutt
beeden
beek
beekdo
been
beend
beer
beerbaum
beers
beester
beet
beeten
beethoven
beeß
befaat
befaaten
befaten
befehl
befehlhebber
befind
befinnd
befinnen
befinnt
befo
befohren
before
befre
befreet
befru
befruchten
befunn
befunnen
bega
begahn
begas
begeevnis
begeevnissen
begegnung
begegnungen
begeistert
begeven
beginn
begleit
begleiten
begleiter
begraven
begreep
begrenzt
begrepen
begriepen
begro
begru
begu
behandlung
behanneln
behannelt
beherrschen
beherrscht
behle
behningen
beho
beholen
behollen
behr
behrens
behring
behrn
behull
bei
beid
beide
beiden
beiderbecke
beienrode
beim
beindruckt
beinfloot
being
beispiel
beitra
beitrag
beka
bekannst
bekannsten
bekannt
bekannte
bekannten
bekannter
bekannteste
bekanntesten
bekanntheit
bekanntschap
bekanntst
bekanntste
bekanntsten
beke
bekeken
beken
bekennt
bekenntnis
bekieken
bekker
bel
belagern
belagert
belang
belast
belasten
bele
beleev
beleevt
belegg
beleggt
belen
beleven
belfort
belgie
belgien
belgier
belgisch
belgische
belgischen
belgrad
belinda
belize
beljawski
bell
bella
bellamy
belle
bellen
belleville
bellevue
bellinge
bellmann
bellow
belmont
belmopan
belo
below
belt
beltra
belu
belushi
bemannt
bemo
bemu
ben
benavente
bend
benda
bender
bendsto
benedict
benedikt
benediktiner
benedix
bener
benes
bengt
beni
benin
benito
benjamin
bennbo
bennett
bennington
benno
benny
beno
benoi
benque
benson
bensted
bent
bente
bentem
benten
bentley
benton
bentwisch
benz
beobacht
beobachten
beobachter
beobachtungen
ber
beraden
berader
berarbeitete
berchtesgadener
berchtold
bereit
bereken
berekent
berend
berendt
berenn
berensch
beresford
berg
bergamo
berge
bergemann
bergen
berger
bergheim
bergisch
bergman
bergmann
bergner
bergschen
bergson
bergu
bericht
berichte
berichten
beriek
berieken
berkeley
berkshire
berlepsch
berlin
berlinale
berliner
berlioz
berlusconi
berman
bermuda
bermudian
bern
bernacchi
bernal
bernard
bernardino
bernardo
bernd
berndo
berndt
berne
berner
bernhard
bernoulli
bernstein
bero
beroop
berop
beropen
beropene
beropenen
berry
bersetzt
bersetzung
bersicht
bert
bertelsmann
bertha
berthe
berthold
bertin
bertozzi
bertram
bertrand
beru
beryllium
bes
besatten
bescha
bescheed
beschra
beschreev
beschreeven
beschreibung
beschreven
beschrieven
beschrifft
besehren
besehrt
besett
besetten
besiedelt
besiedlung
besiegen
besiegt
besitt
besitten
besitter
besitters
beslaten
beslooten
beslu
besluss
besluten
beslutt
besnacken
besnackt
beso
besocht
besonderer
besse
bessen
besser
besson
best
besta
bestahn
bestahnd
bestaht
bestand
bestanddeel
bestanddeelen
bestanddelen
beste
besteegen
besteiht
besteit
bestellt
besten
bestiegen
bestimmen
bestimmt
bestimmte
bestimmten
bestreeden
bestu
bestunn
besu
besunnere
besunners
bet
beta
betahlen
betahlt
betallen
betallt
betancourt
betaverfall
beteeken
beteken
betekend
betekent
beteknung
beten
beter
betere
beteren
bethany
bethlehem
betlehem
betog
betogen
beton
betoog
betrecken
betreckt
betreut
betru
betrucken
bett
bettendorf
better
bettina
betts
betty
betu
between
betz
beupdragt
beven
bever
beverly
bevern
bevers
beverst
bevo
bewa
bewahners
bewahnt
bewegen
bewegt
bewegung
bewick
bewies
bewiesen
bewiest
bewohren
bewohrt
bewurben
bewusst
bexho
bey
beyer
beyond
beziehung
beziehungen
bezirk
bezirke
bezzel
bhe
bhutan
bhutto
bi
bia
bianca
biathlet
biathleten
biathletin
biathlon
biathlonresults
biathlonsport
bibehollen
bibel
bibelo
bibliographie
bibliographisches
bibliothek
bibliothekar
bibliothekarin
bibrocht
bichl
biddle
biden
bidra
bidrag
bidragen
bie
biedenweg
biedermann
biel
bielefeld
bienbu
bier
biesbroeck
biester
bieten
big
bigband
biggs
bight
biho
bihor
bilanz
bild
bilder
bildern
bildhauer
bildhauerin
bildnis
bildt
bildung
bilirubin
bill
billboard
bille
billen
biller
billie
billn
billt
billy
bilu
bin
binaam
binah
binda
bing
bingen
bingham
binnen
binnenarchitekt
binnenland
binnenminister
binnenministerium
binnenstadt
binnere
binneren
binnerhalv
binngeweev
binnt
bio
biochemie
biochemiker
biochemikerin
biograaf
biografie
biographical
biographie
biographisch
biographisches
biography
biological
biologie
biologin
biology
bioloog
bioloogsche
biophysiker
birch
birchard
bird
birds
birgit
birket
birkner
birmingham
birnbacher
bis
biscayne
bisch
bischo
bischoff
bischop
bischopsseet
biscoe
bisdo
bisdom
bisett
bishop
bismarck
bispeel
bispeelswies
bispelen
bispell
bispill
bissau
bissen
bist
bistrit
bistu
bit
bither
bitherig
bitherto
bitlang
bito
bitreden
bitreeden
bitt
bitte
bitter
bittner
biwesen
bix
bjo
bjørndalen
bjørnson
bk
bke
bl
bla
black
blackburn
blackburne
blackman
blackmore
blackwater
blackwell
blackwood
bladd
bladen
blaine
blair
blake
blakey
blanc
blanca
blanchard
blanche
blanco
bland
blangen
blangenbi
blangento
blank
blaschke
blasen
blatt
blattlu
blau
blaue
blauen
blaut
blauw
bleben
bleckwedel
bleev
bleeven
bleibt
bleibtreu
bleiht
bleikd
blend
blends
blenner
bler
blessing
bleven
bley
blick
blie
blieft
bliersdo
blieven
blievt
blifft
blind
blitz
blo
bloch
block
blockbuster
blockland
blofeld
blog
blohm
blomen
blomendal
blomendol
blood
blooddruck
bloodfatt
bloodfatten
bloodgrupp
bloodgruppen
bloodko
bloodkreisloop
bloodplasma
bloom
bloomfield
bloot
bloots
blot
blots
blount
bloß
blu
blue
blues
bluff
blum
blumberg
blume
blyth
bmi
bn
bner
bo
boa
board
bob
bobby
bobeamten
boben
bobfohrer
bochum
bock
bockelmann
bockhorst
bodden
boddens
bode
boden
bodensee
bodmer
bodo
body
bodybuilder
boeck
boehmer
boeing
boen
boenin
boer
boet
bogart
bogen
bogense
boggs
bogota
bohla
bohr
boinscheno
bois
boissie
boitzen
bok
bokel
bokelt
bokholt
bokma
bolbro
bold
bolden
boli
bolivia
boliviaanschen
bolivien
boll
bollen
bollinger
bollmann
bologna
bolt
bolten
bolton
bomb
bomben
bomber
bomeester
bomlitz
bon
bonaparte
bond
bonifatius
bonito
bonn
bonner
bonnie
book
bookdrucker
bookdruckeree
booker
bookha
bookholt
booko
books
bookstaav
bookstaven
bookstavenkombinatschonen
boom
boomwull
boon
boone
boonen
boor
boord
boos
boot
bootel
booth
bop
bopp
bor
borbeck
borchardt
borchel
borchers
bord
bordeaux
borden
bordingenieur
boren
borene
borg
borgdo
borgen
borges
borgfeld
borgmann
borgruin
borgwall
boris
borissowitsch
bork
bormann
born
bornbarg
bornbo
bornemann
borns
borough
borowski
borrelly
borries
borst
borstel
borussia
bos
bosch
bose
bosnien
bosnisch
boson
bosonen
boss
bosse
bossel
bossi
bost
bostelmann
boston
bot
botanik
botaniker
botanikerin
bote
bothmer
botos
botsuana
botswana
bott
botter
bottervagel
bottervagels
bottrop
botwinnik
bou
boucher
bouches
boulanger
boulevard
boundaries
bounty
bourbon
bourchier
bourg
bourne
boutros
bouvier
boven
bovenhen
bovento
bowark
bowarken
bowden
bowen
bower
bowers
bowie
bowies
bowman
box
boxer
boy
boyce
boyd
boyer
boyle
boys
boysen
br
bra
braackel
braak
braamst
braamstermoor
brabant
brad
bradbury
bradford
bradley
bragg
brahe
brahetrolleborg
brahms
braken
bram
bramel
brammer
branch
branco
brand
brandeis
brandenburg
brandenstein
branderslev
brandner
brandon
brandsta
brandt
brannenborg
brant
branta
braque
brarup
bras
brasiliaansch
brasiliaansche
brasiliaanschen
brasilien
brass
brauel
braun
braunau
brauns
braunschweig
brava
bravo
bray
bre
break
breaking
brecht
breddo
brede
breden
bredenbeek
bredenwisch
breder
bredow
breed
breede
breedt
breef
breefmark
breefmarken
breefmarkenku
breemsche
breet
bregen
bregninge
breisgau
breken
bremen
bremer
bremerhaven
bremerhoben
bremerhobener
bremerhorn
bremerleh
bremers
bremervo
bremervoerde
bremische
brendan
brendel
brennblasen
brennecke
brennen
brenner
brenneree
brennereen
brennstoff
brennt
brentano
brescia
breslau
brest
bretagne
bretel
breton
bretschneider
brett
breuer
breven
brewer
brewster
breyer
brian
brice
bricen
brickt
bridge
bridgewater
brie
brief
briefe
briefwechsel
brien
brietsch
brietsche
brietschen
brigaadgeneraal
brigitte
brill
brillit
brinckman
bringen
bringt
brink
brinkmann
bristol
britain
britannia
britannica
britannien
briten
britisch
britische
britischen
british
britsch
britsche
britschen
britt
britta
brittsche
brittschen
brix
bro
broad
broadway
brobargen
broberg
broby
broch
brochdo
brocht
brock
brockhaus
brockmann
brod
broder
broderick
brodsky
broer
broeree
brok
broken
brom
bronswiek
bronx
bronze
bronzemedaille
bronzetiet
brood
brook
brooke
brookel
brooklyn
brookm
brooks
brooksen
broot
bros
brosnan
brot
brothers
brott
brouk
brown
browne
brownsville
broz
bru
brubeck
bruce
bruckmann
bruckner
bruhn
bruhns
bruken
brukt
brun
brune
brunei
brunen
brunner
bruno
bruns
brunshusen
brunswick
brunswiek
bruuk
bruuken
bruukt
bruukte
bruun
bruunswiek
bruut
bryan
bryant
bryce
brædstrup
brændekilde
bsc
bt
btissin
btw
bu
buch
buchan
buchanan
buchgesellschaft
buchhandlung
buchholz
bucht
buck
buckeye
buckingham
buckinghamshire
buckland
buckley
bucks
bud
buda
budapest
budd
budde
buddel
buddels
budden
buddhismus
buddy
budget
buena
buenaventura
buenos
buer
bueree
bueri
buern
buffalo
bugenhagen
buhl
building
builefeld
bukarest
bulgaarsch
bulgaarsche
bulgaarschen
bulgarien
bull
bullet
bulletin
bullitt
bullock
bulnes
bult
bulten
bund
bundesamt
bundeskanzler
bundesliga
bundesrepublik
bundestag
bundestages
bundsautobahn
bundsautobahnen
bundsdag
bundsdagsafordnete
bundsdagsafordneter
bundsdagswahl
bundsdagswahlkreis
bundskanzler
bundsla
bundsland
bundsliga
bundsligaspelen
bundsminister
bundsministerin
bundsministerium
bundspra
bundsraat
bundsregeeren
bundsrepubliek
bundsrepublik
bundsstaat
bundsstaaten
bundsstaten
bundsstraat
bundsstraten
bundstrainer
bundsverdeenstkru
bundsvo
bundswehr
bunge
bunker
bunn
bunnen
bunnskanzler
bunny
bunt
bunte
buorken
burchard
burda
bureau
bureaus
buren
burg
burger
burgess
burgos
burgund
burian
burke
burkhard
burkina
burley
burlington
burman
burmeister
burmester
burn
burnet
burnett
burns
burr
burrell
burroughs
burrows
burschenschaft
bursø
burt
burton
burundi
burweg
bury
bus
busch
buschhusen
buschmann
buse
bush
bushido
business
busoni
busse
bussy
buster
but
butan
buten
butendem
butendiek
butenminister
butenpolitik
butenskelett
buterdem
butere
buteren
buterhalv
butjadingen
butler
butt
butte
butterworth
buuk
buur
buurman
buurn
buurschop
buut
buxtehude
buxthu
buxton
buxwv
buza
by
byhusen
byng
byrd
byrne
byron
byzantiensche
byzantinist
byzanz
bzw
bø
c
ca
caballero
caban
cabbage
cabinet
cabo
cabral
cacao
cadle
cadmium
caesar
caesarea
cafe
cah
cahill
caicosinseln
caillebotte
cain
caine
cairns
cajamarca
cal
calais
calcio
calcium
calcutta
calder
caldero
caldwell
caledonia
calenberg
calgary
calhoun
caliban
california
call
calla
callaghan
callahan
called
callender
callirrhoe
callistemon
caltech
calvados
calvin
calw
camalote
camargo
cambria
cambridge
camden
came
cameo
cameron
camilla
camille
camillo
camp
campbell
campe
campeche
campo
campos
campus
camus
can
canada
canadian
canal
cancer
candelaria
candy
cane
canetti
cani
canidae
canis
cannes
canning
cannonball
cantal
canterbury
canton
canyon
cap
capablanca
cape
capelle
capellen
capital
capitol
capo
cappel
cappeler
captain
car
carabus
caracciolo
caras
carbon
cardona
cardoso
cardozo
carducci
career
carey
caribbean
carl
carla
carlin
carlo
carlos
carls
carlsen
carlson
carlton
carme
carmelita
carmen
carnap
carnegie
carney
caro
carol
carole
carolin
carolina
caroline
carolyn
caron
carotis
carpenter
carpo
carr
carranza
carrasco
carre
carretera
carrie
carrillo
carrington
carroll
cars
carson
carsten
carstens
carter
cartoonist
carvajal
cary
cas
case
casey
cash
casimir
casino
caspar
casper
cass
cassian
cassidy
cassini
castan
castelli
castello
castiglione
castiglioni
castillo
castle
castro
cat
catalina
catalogue
catamarca
catarina
category
catharina
cathedral
catherine
catholic
cathy
catlett
cattle
cauca
caulker
cavalli
cave
cavendish
cay
caye
cayetano
cayo
cbs
cc
cctld
cd
cdot
cds
cdu
ce
cecil
cecilia
cedar
cedric
cela
cell
celle
cello
cellospeler
cells
celsius
cembalospeler
census
cent
center
centerville
central
centre
century
ceo
cerebri
ceres
cern
cernan
cerro
cervantes
cesare
cfm
ch
cha
chabrol
chaco
chad
chadwick
chaldene
challenge
challenger
cham
chambers
chameleco
champagne
champaign
champion
champions
championships
champs
chan
chance
chancen
chandler
chang
change
channel
chanty
chaos
chapel
chapelle
chaplin
chapman
charadrius
charakter
charakteristisch
charente
charles
charleston
charlie
charlois
charlotte
charlottenburg
charlton
charly
charme
charon
charpentier
charta
charts
chase
chaussee
chauvin
chd
chde
chdra
che
cheemsch
cheemsche
cheemschen
chef
chefredakteur
chel
chem
chemical
chemie
chemiker
chemikerin
chemisch
chemische
chemischen
chemistry
chemnitz
chen
cheney
cher
cherei
chern
cherokee
cherry
cheshire
chess
chessbase
chessgames
chester
chesterfield
chet
chetumal
cheyenne
chfo
chgahn
chgeven
chi
chiapas
chicago
chick
chico
chief
chihuahua
child
children
chile
chileensch
chileensche
chileenschen
chin
china
chinees
chineesch
chineesche
chineeschen
chinesen
chinesisch
chippewa
chiquibul
chiquito
chirurg
chirurgie
chisholm
chkamen
chkehren
chkehrt
chkommen
chler
chlich
chlo
chlor
chlorid
chner
cho
choco
choctaw
choice
choorbaas
chopin
chor
choreograaf
choreografin
chow
chpunkt
chr
chris
christ
christa
christel
christen
christendom
christenlu
christensen
christi
christiaan
christian
christiane
christians
christie
christina
christine
christlich
christliche
christlichen
christmas
christof
christoph
christophe
christopher
christus
chrom
chromosomen
chronik
chronist
chsische
chsischen
chsisches
chspeler
chst
chstadt
chste
chsten
chstens
chstrahlt
cht
chte
chten
chter
chtig
chtige
chtigen
chtkraft
chtlinge
chtlingen
chtnis
chtogen
chtpunkt
chtreden
chtreeden
chtrucken
chttoorn
chu
chuck
chunox
church
churchill
churfu
ci
cia
cicero
cid
cie
cima
cimarron
cincinnati
cinema
cio
circa
circle
circuit
cirksena
citadel
citrus
city
ciudad
civil
ck
cke
ckeborg
ckel
ckelbeek
cken
cker
ckkehr
cklabruck
cklen
cklich
ckmann
ckner
ckse
cksichtigung
cksta
ckstadt
ckstand
ckt
cktoog
cktra
cl
cla
clair
claire
clan
clara
clare
clarence
clark
clarke
class
classic
classics
claude
claudia
claudio
claudius
claus
clausthal
clav
clay
clayton
cle
clear
cleese
clemens
clement
clerc
clerf
clermont
cleve
cleveland
clienensiel
cliff
clifford
clifton
climate
clint
clinton
clive
cloppenborg
close
cloud
clown
clu
club
clubs
cluj
cluvenhagen
clyde
cm
cn
co
coahuila
coast
coates
coatsland
cobb
cobham
coburg
coburn
cochabamba
cochran
cochrane
cockscomb
coco
code
codex
coelestin
coetzee
coffee
cohen
cohn
cohrs
col
colbert
cold
cole
coleman
coleoptera
colin
coll
colle
collection
college
collet
collier
collin
collins
colman
colmar
colo
colombe
colombo
colonel
colonia
colorado
coltrane
columbia
columbus
com
comanche
comas
comayagua
come
comeback
comedian
comedy
comer
comes
comic
comics
comicschriever
comicteekner
commander
commission
committee
common
commons
commonwealth
communications
community
como
companion
company
competition
complete
composite
computer
comstock
comte
comyn
con
concelho
concepcio
concepcion
concert
concord
concordia
condon
conejo
conference
congress
connecticut
connell
connelly
connery
connie
connolly
connor
conrad
consejo
conservation
constance
constant
constantin
constantius
constituency
container
containers
containerscheepe
containerschipp
contemporary
content
contest
continental
contreras
control
convention
conway
cook
cool
coolidge
cooper
copa
copeland
copley
coppa
copper
coppi
coppola
copress
corazon
corbett
cord
cordelia
cordes
cordillera
corey
corinna
corinth
cornaro
cornelia
cornelis
cornelius
cornell
corner
corners
cornet
cornu
cornwall
corona
coronavirus
corozal
corporation
corps
corpus
corre
correa
corregimiento
corrientes
corry
corse
corte
cos
cosby
cosima
cosmae
costa
costner
cotta
cottbus
cotton
council
count
country
county
countys
courcelles
court
courtenay
courtney
cousin
cousins
couture
cove
cover
cowboy
cowley
cowpen
cox
coxen
coy
coye
coyne
cr
cra
crabtree
craddock
craig
cramer
crane
cranz
crassus
crawford
crazy
cre
crean
creative
creek
creighton
cremer
crespo
cressida
creuse
crew
crick
cricketspeler
crippen
crique
cristian
cristina
cristo
crite
critics
crockett
croix
cromwell
cronin
crooked
crosby
cross
crossroads
crow
crowley
crutzen
cruz
cry
crystal
cs
csi
csu
ctor
cu
cuatro
cue
cuenca
cullmann
cultural
culture
cum
cumarin
cumberland
cumbria
cumming
cummings
cunha
cunningham
cup
curac
curie
curler
curlerin
curran
current
currie
curry
curt
curtis
cusack
custer
cut
cutler
cutoff
cuxhaven
cuxhoben
cv
cycle
cycling
cygnus
cyllene
cynthia
cyr
cyrano
cyril
cz
czermak
czy
d
da
daag
daagbladd
daagblatt
daagbook
daal
daallaten
daalleggt
daalslahn
daam
daan
daar
dabei
dach
dachau
dacht
dack
dafrika
dafrikaansch
dafrikaansche
dafrikaanschen
dag
dagaz
dage
dagmar
dagogik
dagogin
dagoog
dags
dahl
dahlmeier
dahm
dahmen
daily
daisy
dakota
dal
dalarna
dale
dalen
dallas
dallaten
dalli
dalrymple
dalslaken
dalton
dalum
daly
dam
damals
dame
damen
damerika
dameron
damian
damiani
damit
damm
dammann
dammhagen
dammhusen
damon
damp
dampierre
dampschipp
dan
dana
dance
dancing
dangersen
dangriga
daniel
daniela
daniele
daniels
dank
dankworth
dann
dannemare
dannenbarg
dannenberg
dannendo
dannige
danny
dans
dante
danville
danz
danzen
danzer
danzerin
danzig
daphne
dar
darbi
darby
dard
darin
dario
darja
dark
darm
darmstadt
darna
darren
darryl
darstellung
dart
darte
darten
dartig
dartigjo
dartspeler
darum
darwin
das
dass
dat
data
database
dateert
datei
daten
datenbank
datlantik
dato
datsu
datt
datum
dauben
daulsen
dauphine
daustralien
dave
david
davide
davidson
davies
davinde
davis
dawes
dawkins
dawn
dawson
day
days
dazu
daß
db
dc
dchen
dcl
dd
dda
dde
ddel
dden
dder
ddern
ddert
ddeutsche
ddin
ddr
ddt
ddu
de
dea
dead
deal
dean
death
deborah
debst
debu
debussy
decatur
decca
december
deck
decken
decker
deckt
dee
deefholt
deekflunken
deel
deele
deelen
deelken
deelnahm
deelnahmen
deelnehmen
deelnehmer
deelnehmers
deelnommen
deelrebeet
deels
deelstreck
deelstrecken
deelstreckenrennen
deelstu
deelt
deelten
deeltonehmen
deelwies
deen
deenen
deenst
deensten
deent
deep
deepe
deepen
deeper
deepgang
deepste
deer
deern
deerns
deernsnaam
deert
deerten
deerter
deerternaams
deesdorp
defence
defineert
definitschoon
degas
degener
deggendorf
dehn
dehnkamp
dei
deichmann
deiht
deil
dein
deine
deins
deinst
deit
dekalb
dekanat
deke
dekker
deklinatschoon
del
delaware
deledda
delen
delgado
delhi
delius
dell
della
delle
delm
delmar
dels
delsen
delta
deltied
deluxe
dem
demand
demann
demant
democracia
democratic
demokraatsch
demokraatsche
demokraatschen
demokraten
demokratie
demokratischen
demonstratschonen
demost
dempsey
den
dend
dende
dene
denen
denis
denise
denk
denken
denkmaal
denkmaalpleger
denkmal
denkmalpflege
denkmalprojekt
denkmalschutz
denkmollisten
denkt
denn
dennis
dennoch
denny
denst
denste
densten
densu
densverklaren
dent
denver
depardieu
departamento
departamentos
departement
department
dependency
depot
deppelt
der
deratschoon
derbusch
derby
derbyshire
derdiek
derek
derelv
deren
derenn
deritz
dermanland
dermatoloog
derpmark
derpt
derquart
derrick
ders
derwals
derwisch
des
desdemona
desert
deshalb
design
designer
designerin
desire
desmond
despina
dessen
destillatschoon
destille
destillen
desto
desu
deswegen
det
details
detlef
detlev
detmold
detroit
detten
deur
deuropa
deutsch
deutsche
deutschen
deutscher
deutsches
deutschland
deutschlands
deux
development
devil
deville
devon
dewey
dewitt
dewitz
dexter
dez
dezember
dfb
dgeorgien
dhof
dhp
di
dia
diabetes
diageo
diagnoos
diagnostik
diagramm
dialekt
dialekte
dialekten
dialog
dialogen
diamond
diamonds
diana
diane
diarra
dias
diaz
dibbelsen
dibbersen
dich
dicht
dichtbi
dichte
dichten
dichter
dichterin
dichters
dichtmaakt
dichtmaken
dichtung
dichtungen
dick
dicke
dickel
dickenson
dicker
dickey
dickinson
dickson
dictionary
did
didaktiker
diderot
didier
die
dieckmann
diederich
diedrich
diego
diek
dieken
diekirch
diekmann
dieksenn
dien
dienst
dierk
diernæs
diersto
dies
diese
diesel
diesem
diesen
dieser
dieses
dieter
dietl
dietmar
dietrich
dietz
dietze
differenz
differenzen
dig
dige
digen
digendags
diger
digital
digitale
digitalisat
digt
dikat
diktater
diktator
diktatur
dillingen
dillon
diminutiv
dimitri
din
dine
ding
dinge
dingen
dinghausen
dingolfing
dingwo
dink
dinosauriers
dintenfische
dio
dion
dionysius
dios
diplom
diplomaat
diplomat
diplomatin
diptera
dir
dirac
dircks
director
direkt
direkte
direktemang
direkten
direkter
direktkannedaten
direktor
dirigent
dirk
dirks
dirty
disch
dische
dischen
discher
dischtennisspeler
dischtennisspelerin
discogs
discovery
disease
diskografie
diskographie
diskusschoon
diskussion
diskussionssiet
diskussmieter
diskuteert
disl
disney
displaystyle
disraeli
diss
disse
dissen
dissertation
dissertatschoon
dissident
distanz
distilleries
distillers
distillery
distinguished
district
distrikt
distrikte
distrikten
disziplin
disziplinen
dit
dithmarschen
dithmarscher
ditions
ditmal
ditmol
dittmer
dittrich
diverse
division
dixieland
dixon
dizzy
dj
dk
dkm
dkorea
dkoreaanschen
dku
dl
dlamini
dlich
dliche
dlichen
dm
dmitri
dmitrijewitsch
dna
dnb
dnvp
do
doans
doasdo
dobrook
dobson
doc
doch
dochter
dochteru
doctor
documenta
dodds
dode
doden
dodge
dodson
dog
doherty
dohm
dohren
doi
dokter
dokterarbeid
dokterarbeit
dokters
doktersche
doktertitel
doktor
dokument
dokumentarfilm
dokumentarfilmer
dokumentation
dokumentatschoon
dokumente
dokumenteert
dokumenten
dolj
doll
dollar
dollars
dollern
dollinger
dolores
dom
doma
domain
domenico
domestica
domineeren
domineert
domingo
domingos
dominic
dominica
dominik
dominikaansche
dominikaanschen
dominikaner
dominique
domols
domratschawa
don
donald
donau
donn
donna
donner
donnern
dood
doodbleven
dooden
doodmaakt
doodschaten
doodsdag
doolbro
doom
doomherr
doon
door
doorho
doornbusch
doornsood
doors
doost
doostasien
doosten
doot
dootschaten
doping
dor
dora
dorachter
doran
dorbi
dordo
dordogne
dordrecht
dore
doren
dorf
dorfes
dorfo
dorgegen
dorhen
dorher
dorin
doris
dorlehnskass
dorling
dormalig
dormalige
dormaligen
dormals
dormank
dormit
dormolige
dormoligen
dormols
dorn
dorna
dornah
dorneben
doro
dorop
dorophen
dorothea
dorothee
dorothy
dorp
dorsey
dorstellen
dorsteller
dorstellerin
dorstellers
dorstellersche
dorstellt
dorstellung
dort
dortmund
dortmunder
dorto
dortostellen
dortwu
doru
dorum
dorumer
dorup
doruphen
dorut
dorvan
dorvo
dorvon
dorvun
dos
dosis
dosten
dot
douard
double
doubleday
doubs
doudna
doug
dougherty
douglas
douglass
dove
dover
down
download
doyle
dozent
dp
dpool
dpoolstatschoon
dr
dra
draag
draapt
dracula
draff
dragen
dragon
draht
drake
draken
drama
dramatic
dramatiker
dramatikerin
dramatisch
dramaturg
dramaturgie
dramaturgin
dramen
drand
drang
drangst
drapen
drapens
draper
drapt
drauht
drayton
dre
dream
dreams
drebber
dree
dreeeck
dreegt
dreemal
dreemol
dreespringer
dreest
dregen
dreger
drei
dreier
dreih
dreiharbeiten
dreihbo
dreihbook
dreihbookschriever
dreihbookschrieverin
dreihbookschrieversche
dreihn
dreiho
dreiht
drennhusen
drenthe
drentwede
drepen
drept
dreptersiel
dresden
dresdner
dreven
drew
dreyer
dreßel
drieven
drifft
driftseth
driggt
drinken
drinkwater
drippt
driscoll
dritte
dritten
driver
dro
drocht
drochters
droemer
drogen
droog
droom
droop
drost
droste
dru
druck
drucker
druckt
drunk
drunken
drup
drury
dry
dryden
ds
dsch
dschanibekow
dsche
dschen
dschibuti
dsied
dstaaten
dsu
dsudan
dt
dte
dter
dtirol
dtiroler
dtisch
dtodag
dtv
du
dubbel
dubbelsteern
dubbelsteerns
dubbelt
dubbelte
dublin
duc
duchtig
duck
ducks
duckwitz
duda
duden
dudley
due
duell
duer
duern
duersom
duersome
duert
duett
duflo
dugan
duhnen
duhrn
duisborg
duisburg
duke
dulce
dull
duller
dullern
dumas
dumm
dumont
dump
dunbar
duncan
duncker
dundas
dune
dunkel
dunker
dunlop
dunn
dunne
duo
dupont
dupre
dupree
dupuis
dur
dura
duran
durand
durango
duras
durch
durham
during
dus
dusend
dusende
dustin
dutch
dutt
duukt
duur
duurt
duuv
duval
dva
dvd
dvor
dvu
dwarg
dwargen
dwargplanet
dwargplaneten
dwars
dweer
dwest
dwesten
dwestlich
dwight
dwingen
dwungen
dwyer
dyer
dylan
dynamik
dynastie
dyrup
dz
døllefjelde
e
eads
eagle
eamon
earl
earle
early
earth
east
eastern
easton
eastwood
easy
eaton
eau
ebadi
ebb
ebeling
eben
ebendo
ebene
ebenfalls
ebenso
eberhard
eberle
ebersberg
ebersen
ebert
ebsto
echegaray
echo
echt
echte
echten
eck
eckart
eckel
ecken
eckernfo
eckhard
eckhoff
eckstein
eckstine
ecm
econ
economic
economics
ecuador
ed
eda
edda
eddelfamilie
eddelfro
eddelgas
eddelgasen
eddelgood
eddelmann
eddelstahl
eddie
eddy
edelhagen
eden
eder
edgar
edinburgh
edison
edith
edition
editor
edmond
edmund
edna
edo
edouard
edu
eduard
eduardo
education
edvard
edward
edwards
edwin
edzard
ee
eed
eegen
eegendo
eegenschapen
eegensta
eegentlich
eegentliche
eek
eekel
eekholt
eems
eemsland
een
eendagsrennen
eendu
eene
eenen
eener
eenfach
eenfache
eenfachen
eenfacher
eenfack
eenfacke
eenheit
eenheiten
eenheitenteken
eenheitlich
eenheitliche
eenheitsgemeen
eenheitsgemenen
eenig
eenige
eenigen
eenigt
eenmal
eenmol
eens
eentall
eenzel
eenzelergevnis
eenzelrennen
eenzelt
eenzeltietfohren
eenzelwertung
eenzig
eenzige
eenzigen
eenzigst
eenzigste
eer
eerd
eerdatmospha
eerdbeven
eerdbo
eerddeel
eerdgas
eerdhistorie
eerdko
eerdkrust
eerdmantel
eerdo
eerdwetenschoppen
eernst
eerst
eerstbestiegen
eerste
eersten
eerster
eerstmal
eerstmalig
eerstmals
eerstmol
eerststimmen
eerstupfu
eest
eestbru
eestland
eestnisch
eestnische
eestnischen
eeten
eeßel
effects
effekt
effekten
eg
egal
egan
egbert
egen
egene
egenen
egennaam
egenoort
egens
egenschop
egenschoppen
egensta
egent
egentlich
egentliche
egentlichen
egg
egger
eggers
eggert
egon
egypten
eh
ehder
ehe
ehefru
ehemaalsche
ehemaligen
ehemann
ehepaar
eher
ehfro
ehlers
ehmalg
ehmalge
ehmalgen
ehmalger
ehmalig
ehmalige
ehmann
ehmke
ehmolig
ehmolige
ehmoligen
ehmols
ehpoor
ehr
ehrder
ehre
ehren
ehrenamtlich
ehrenamtlichen
ehrenbo
ehrenborg
ehrendokter
ehrendokterwu
ehrenlegion
ehrenliddmaat
ehrhoorn
ehrlich
ehrn
ehrt
ehsdo
ei
eichel
eichinger
eichler
eichsta
eickhoff
eid
eide
eidelstee
eider
eier
eifel
eiffeltoorn
eike
eiland
eilannen
eileen
eilers
ein
einar
eindhoven
eindo
eine
einem
einen
einer
eines
einfu
einhard
einige
einmal
einstein
eintracht
eintrag
einzel
eirene
eirsch
eirsche
eirschen
eis
eisele
eisenberg
eisenhower
eisner
eiten
eitze
ej
ejby
ek
ekel
eken
ekkehard
ekliptik
eko
el
elaine
elara
elbe
elbeeinzugsgebiet
elder
eldridge
eleanor
election
elections
electric
electronic
elektrisch
elektrische
elektrischen
elektrizita
elektroinscheno
elektrolys
elektromagneetsche
elektron
elektronegativita
elektronen
elektronenhu
elektronik
elektroonsche
elektrotechnik
elektrotechniker
element
elementar
elementardeelken
elemente
elementen
elements
elena
eleonora
eleonore
elf
elfenbeenku
elfriede
elgin
eli
elias
elinor
eliot
elisa
elisabeth
elise
elite
eliza
elizabeth
elk
elke
elkeen
ella
ellen
eller
ellerbrook
elling
ellington
elliot
elliott
ellis
ellsworth
ellsworthbargen
ellsworthland
elm
elmar
elmer
elo
elrington
elsa
elsass
elsdo
else
elsevier
elsfleth
elsner
elster
elv
elvin
elvis
elvmasch
elvmu
elvsto
ely
em
emanuel
embryo
emden
emerson
emery
emhusen
emi
emil
emile
emilia
emiliano
emilie
emilio
emily
eminem
emiraten
emma
emmanuel
emmanuelle
emmelndo
emmen
emmerich
emmet
emmett
emmons
emmy
empfa
empire
ems
emsland
en
enborg
enciclopedia
encyclope
encyclopedia
end
ende
endemisch
enden
enderbyland
endergebnis
endgu
endlich
endres
endrunn
endschap
endspeel
endurance
ene
enen
enercon
energie
energy
enerwegens
eng
engageert
engagement
engagements
engel
engelbert
engelmann
engeln
engels
engelsch
engelsche
engelschen
engelschopp
enger
engestofte
engineering
engl
engla
england
engle
englert
englisch
englischen
english
eni
enige
enkarken
enke
enkel
enkelso
enkelt
enkelte
enkelten
enmoor
enn
enne
ennen
ennis
enno
ennt
enrico
enrique
ensemble
entdeckt
entenvo
enterprise
entertainer
entertainment
entgegen
enthollen
enthollt
entlaaten
entomoloog
entre
entscheeden
entscheedend
entslooten
entspreken
entsprekend
entstahn
entstaht
entstehung
entsteiht
entstunn
entstunnen
entta
entweder
entwickel
entwickeln
entwickelt
entwicklung
entworfen
entwu
entwurf
environmental
enz
enzo
enzyklopa
enzym
enzyme
enzymen
eoi
eon
ep
ephraim
epilepsie
epilepsien
episoden
episood
epithel
epoch
epos
epstein
er
era
erasmus
erdbeschreibung
erde
erding
erdmann
ere
erectus
ereignisse
erekschoon
eren
erer
erfohren
erfohrungen
erfolg
erfolge
erfolgen
erforschung
erfu
erfurt
erga
ergebnis
ergebnisse
ergeven
ergevnis
ergevnisse
erha
erhaben
erhard
erho
erhollen
eric
erich
erickson
erie
erik
erika
eriksen
erin
erinnern
erinnert
erinnerung
erinnerungen
erinome
eris
eritrea
erkennen
erkenntnis
erkla
erkrankung
erla
erlangen
erlo
ermland
ern
erna
ernannt
ernaux
ernennung
ernest
ernesto
ernie
ernst
erny
ero
erobern
erobert
eroberung
eros
erosion
erovert
erreicht
erricht
errichten
errindlev
ers
ersa
ersam
ersatz
ersatzmann
ersatzmannschap
erschienen
ersett
ersetten
erst
erste
ersten
erster
ert
ertl
ertu
erwa
erwehr
erwin
erwurben
erxleben
erythrozyten
erza
erzhartog
es
esa
escalante
esch
eschenbach
escher
escobar
esdo
esel
esens
eskilstrup
espan
espat
espe
esperanto
esperanza
espi
esquivel
ess
essay
essayist
essays
essen
essex
essonne
est
estate
este
esteban
estelle
estevan
esther
estland
estonia
et
eta
etaaschen
etc
eten
ethan
ethel
ethik
ethnograaf
ethnologin
ethnoloog
etienne
etwa
etwas
etzel
eu
euanthe
eucken
euge
eugen
eugene
eugenio
eukaryoten
eukelade
eun
eune
eunen
eupheme
euporie
eurasien
eure
euro
euroadria
europa
europacup
europaea
europameester
europameesterschap
europameesterschapen
europapokal
europas
europe
european
eurovision
eurydome
eutin
euwe
ev
eva
evan
evangeelsch
evangeelsche
evangeelschen
evangelien
evangelisch
evangelische
evangelist
evangelium
evans
evb
eve
evelyn
even
event
eventuell
ever
everest
everett
evers
eversdo
eversen
evert
evic
evidence
evil
evolution
evolutschoon
evsdo
ew
ewald
ewart
ewig
ewigkeit
ex
examen
executive
exil
existenz
expansion
expedition
expeditions
expeditschonen
expeditschoon
experiment
experimental
experimente
experimentell
experimentelle
experimenten
experten
explodeert
explosion
export
express
extra
extrem
extreme
exzentrizita
eyck
eye
eyes
eyndo
ez
eßel
f
fa
faaborg
faat
faaten
faber
fabian
fabio
fabri
fabricius
fabrik
fabrikant
face
facettenogen
fack
facke
facklu
facto
facts
faden
fagott
fagus
fahn
fahrenheit
fair
fairfax
fairfield
fairview
fairweather
faith
faken
fakener
fakenste
fakensten
fakten
fakter
fakters
fakulta
falck
falcon
falk
falkenbarg
falkerslev
falkland
falklandinseln
fall
fallen
fallon
falls
fallt
falsch
falster
falter
fambossel
fame
familia
familiaris
familie
familien
familiennaam
family
famreport
fan
fang
fangel
fangen
fangenen
fangt
fanny
fans
fantasy
far
farben
fardig
fardigstellt
farge
farley
farlow
farm
farmer
farmington
farquhar
farrar
farrell
farrington
farv
farven
farvt
faso
fast
faste
fasten
fasthollen
fastigkeit
fastko
fastland
fastleggen
fastleggt
fastmaakt
fastnahmen
fastsett
faststellen
faststellt
faststoff
faten
father
fats
fatt
fatten
faulkner
fauna
faure
faust
fausto
fawcett
fay
fayette
faz
fbi
fc
fci
fdp
fe
feat
feather
featuring
februar
fechner
fechter
fechterin
fed
fedder
fedderkleed
feddern
federal
federation
federer
federico
feel
feende
feerdig
feernseh
feernsehfilm
feernsehjournalist
feernsehn
feernsehpries
feernsehprodukschonen
feernsehproduzent
feernsehreeg
feernsehregen
feernsehsenner
fehl
fehlen
fehler
fehlerfree
fehlers
fehling
fehlt
fehmarn
fehrs
fei
fein
feind
feinde
feine
feist
fejø
fekt
fektur
felber
feld
felde
feldherr
feldhoff
feldhusen
feldmark
feldmarschall
feldmarschallleutnant
feldtog
felice
felipe
felix
fell
feller
fellow
fellowship
fels
felsen
felsenkliff
felsigen
felssporn
femininum
feministin
femø
fen
fenn
fenster
fenton
fer
ferdinand
ferenc
ferguson
fergusson
fermi
ferna
fernand
fernandez
fernando
ferner
fernsehen
ferrara
ferrari
ferrie
ferris
ferry
fesen
fest
feste
festival
festivals
festschrift
festspelen
festung
fett
feuer
feuerbach
feuerstein
fever
ff
ffel
ffeln
ffen
ffentliche
ffentlichen
ffentlichungen
ffer
ffler
ffnis
ffnung
fft
ffte
ffteihn
fften
fftig
fi
fiala
fichtelgebirge
fick
fickmo
fiction
fide
fidschi
fiedler
fief
fiefmol
field
fielding
fields
fien
fiend
fienden
fiene
fienen
fienfo
fiennes
fier
fierdag
fiern
fiert
fiev
fievka
fievte
fievten
fifa
figueiredo
figueroa
figur
figuren
fiktive
filiaal
filialen
filip
filippo
fillmore
film
filmarchitekt
filmdrama
filme
filmeditor
filmeditorin
filmen
filmfestival
filmgewarf
filmkritik
filmkritiker
filmkummedie
filmkumponist
filmkunst
filmlexikon
filmmaker
filmmakerin
filmmusik
filmpries
filmpriesen
filmprodukschonen
filmproduzent
filmproduzentin
filmreeg
filmrull
filmrullen
films
filmschauspeler
filmschauspelerin
filmsnitt
filmspeelbaas
filmstarts
filmwark
filmzentrale
filter
fin
final
finale
finance
financial
finanzeert
finanzen
finanziell
finanzielle
finanziellen
finanzminister
finckh
find
findlay
findo
findt
fine
finger
fingers
finiste
fink
finkwarder
finland
finn
finnegan
finnen
finney
finnisch
finnland
finnsch
finnsche
finnschen
finnst
finnt
finster
fintel
finterbarg
fiona
fire
firma
firmen
first
fis
fisch
fischbeek
fische
fischer
fischeree
fischers
fish
fisher
fitch
fitger
fitschen
fitz
fitzgerald
five
fix
fjelde
fjodor
fjodorowitsch
fjord
fl
fla
flaag
flaaghaven
flach
flache
flachen
flack
flag
flagen
flagg
flagge
flaggen
flags
flamm
flanagan
flannern
flash
flat
flaubert
flavius
fle
flecken
fleegen
fleegt
fleesch
fleest
fleet
fleetwood
flegen
fleger
flegerhaven
flegerkunstrukto
flegerpioneer
flegerplatz
flegers
flegersellschop
fleischer
fleischmann
fleming
flensborg
flensburg
fletcher
fleten
fletig
fletige
fletigen
fletigkeit
fletigkeiten
fleury
fließgewa
flight
flink
flint
flo
flood
floog
flooghaven
floogtu
floot
flora
florence
florencio
florenz
flores
florian
florida
flott
flotte
flower
flowers
floyd
flu
flucht
flunken
fluor
fluss
flying
flynn
fm
fner
fo
fock
focke
focus
foddern
foddert
foerste
foerster
fogo
fohren
fohrendo
fohrer
fohrers
fohrt
fohrtu
foley
folg
folge
folgen
folgend
folgende
folgetiet
folgt
folgten
folk
folsom
folter
fonda
fonseca
fontaine
fontainebleau
fontana
fontenay
food
foorm
foorts
foot
football
footballer
footballfunkschona
footballnatschonalmannschap
footballnatschonalspeler
footballscheedsrichter
footballspeler
footballspelerin
footballtrainer
footballvereen
footen
footga
for
forbes
force
forchheim
ford
fordert
fore
foreign
forest
forever
fork
form
formal
format
formation
formatschonen
formatschoon
formel
formelteken
formen
former
formt
formuleert
forrest
forsberg
forsch
forschen
forscher
forschers
forscht
forschung
forschungen
forschungsreis
forst
forster
forsthuus
forstmann
forstwetenschopper
fort
forte
fortfu
fortschreibung
fortsett
fortsetten
fortuna
fortune
forum
foss
fosse
fossil
fossile
fossilen
fossum
foster
foto
fotograaf
fotograf
fotografeert
fotografie
fotografien
fotografin
fotomodell
fotos
foundation
four
fourcade
fox
fr
fra
fraag
fraagt
frac
fracht
frachtschipp
frage
fragen
fragment
frahm
frakschoon
frakschoonsvo
fraktschoon
fram
franc
franca
france
frances
francesco
francis
francisco
franck
franckh
franco
francois
francop
francs
frank
franke
frankel
franken
frankenberg
frankenborg
frankenbossel
frankenmoor
frankenriek
frankfort
frankforter
frankfurt
frankfurter
franklin
frankreich
frankriek
frans
frantis
franz
franzenborg
franziska
franziskaner
franzius
franzo
franzoos
franzoosen
franzosen
franzosentied
fraser
frau
frauen
fraugde
frauke
frazer
frazier
fre
fred
freddie
freddy
freden
fredensverdrag
frederic
frederick
frederik
fredrik
free
freebo
freeborg
freedag
freeden
freedensnobelpries
freedensnobelpriesdra
freedom
freegaav
freegeven
freeheit
freeheitska
freelaten
freeman
freemu
freen
freenbeek
freesch
freesche
freeschen
freeschluunbarg
freesett
freesetten
freesk
freeske
freesland
freestaat
freestatt
freestil
freestyle
freet
freetiet
freetown
freewillig
freewillige
freewilligen
freeze
fregatt
frei
freiborg
freiburg
freid
freie
freien
freiheit
freiherr
freising
freisler
freitag
freißenbu
frellsdorp
frelsers
fremde
fremont
french
frequenz
frerich
frese
fresen
fresh
freten
freud
freudenthal
freund
freunde
frey
freyer
freyung
fri
fricke
friedberg
friedel
friedemann
frieden
friederich
friederike
friedhelm
friedl
friedman
friedrich
friedrichs
friedrichsdo
frielingen
friends
friesen
friis
frings
frisch
frische
fritsch
fritt
fritz
fro
froenslu
from
fromm
fromme
fronslu
front
frontera
froo
froonrechtlerin
froonslu
frost
frr
fru
frucht
fruchtfleesch
frue
fruen
fry
frz
fsk
ft
ftartikel
ftdorsteller
ftdorstellerin
ftdorstellersche
fte
ften
ftfigur
ftgo
ftgrupp
ftig
ftigen
ftigt
ftling
ftlinge
ftoort
ftquartier
ftreeg
ftrull
ftrullen
ftsa
ftsfo
ftsfu
ftsmann
ftstadt
ftstrecken
ftwark
fu
fuchs
fuchsberger
fuchtig
fuchtige
fuchtigkeit
fudder
fudderhen
fuglse
fuhrmann
fukuda
fulda
full
fullen
fullenen
fuller
fullerton
fulton
fund
fundsteed
fundstu
fung
fungen
funk
funker
funkschona
funkschoneert
funkschonen
funkschoon
funktion
funktschona
funktschoon
funn
funnen
funnix
furrer
fusion
future
fuust
fux
fußball
fußballdaten
fy
føvling
g
ga
gaav
gabon
gabriel
gabriela
gabriele
gabun
gackau
gaddafi
gaertner
gaetano
gaff
gagarin
gage
gaher
gahn
gaht
gaillard
gaines
gairdner
gaius
gal
gala
galanthus
galat
galatea
galaxie
galaxien
galbraith
gale
galerie
galerist
gales
galicien
galila
galilei
galileische
galileo
galindo
gall
gallardo
gallen
gallery
gallien
gallimard
gallium
gallus
galsworthy
gamaliel
gambia
gambit
gamble
game
games
gamma
gammastrahlen
gan
gandhi
gang
ganner
gans
ganymed
ganz
ganze
ganzen
gao
gar
garci
garcia
gard
garde
garden
gardenia
gardens
gardiner
gardner
garfield
garifuna
garland
garlst
garlsto
garmisch
garn
garner
garnier
garonne
garrett
garten
gary
garz
gas
gasen
gasfo
gaspar
gasparin
gast
gasta
gasten
gasthuus
gaston
gastronoom
gastrullen
gate
gates
gattung
gau
gauck
gauderhandviddel
gaudin
gaue
gauen
gauer
gauguin
gaulle
gauthier
gautier
gauß
gavelsiet
gavelt
gavin
gay
gazetteer
gb
gd
gdeerten
gdeerter
ge
geb
geba
gebauer
geben
gebhard
gebietsstand
gebo
geboort
geboortsdag
geboren
gebort
gebortsdag
gebruuk
gebu
geburt
geburtstag
geda
gedanken
geddes
gedenkdag
gedenken
gedenksta
gedenktafel
gedenktafeln
gedesby
gedicht
gedichte
gedichten
gediegen
gedser
geef
geel
geern
geert
geese
geest
geestborn
geestenseth
geesthacht
geestland
geestmu
geestrand
geev
geeven
geevt
gefa
gefahr
gefallen
gefallenendenkma
gefecht
gefo
gefohr
gefohren
gefu
gegen
gegenan
gegend
gegendeel
gegenden
gegenenanner
gegeno
gegenpaapst
gegensatz
gegensiedig
gegensietig
gegenspeler
gegensta
gegenstand
gegenstu
gegenwart
gegner
gegners
gehalt
geheem
geheemdeenst
geheemdeenstler
geheeme
geheemnis
geheim
geheimnis
gehemen
gehen
gehle
geho
gehrden
gehren
gehring
geht
geiger
geiht
geismar
geist
geistig
geistige
geistlich
geistliche
geistlichen
geit
gel
gela
geld
gelderland
geldsoort
gele
gelegenheit
gelegentlich
gelehrte
gelehrten
gelen
gelk
gelkeit
gelkeiten
gelkerwies
gell
gellen
geller
gellt
geln
gels
gelsenkia
gelung
gelungen
gem
gema
gemacht
gemarken
gemeen
gemeend
gemeende
gemeenden
gemeenfree
gemeenraad
gemeenraat
gemeenreform
gemeensam
gemeensame
gemeensamen
gemeenschap
gemeenschop
gemeensom
gemeensome
gemeensomen
gemeente
gemeenten
gemeinde
gemeindelexikon
gemeinden
gemeindeverzeichnis
gemenen
gemeng
gemini
gemu
gen
genannt
genau
genaueren
genauso
genbossel
gend
gene
genealogie
genealogisches
genealogy
genealoog
genehmigt
genen
genera
generaal
generaaldokter
generaalguverno
generaalleutnant
generaalmajor
generaalstaatsanwalt
general
generaldio
generalfeldmarschall
generalleutnant
generalmajor
generaloberst
generalsekreta
generalstaff
generation
generatschonen
generatschoon
generell
genesis
genest
genetik
genetiker
geneva
genevie
genf
genfer
genie
genitiv
gennadi
genom
genre
genres
gens
genscher
gent
genten
genua
genus
geo
geoda
geoff
geoffrey
geograaf
geograafsche
geografie
geographic
geographical
geographie
geographisch
geological
geologie
geology
geoloog
geoloogsch
geoloogsche
geometrie
geophysiker
georg
george
georges
georgetown
georgeville
georgi
georgia
georgien
georgschen
ger
gera
geraden
gerais
gerald
gerard
gerbert
gerd
gerda
gere
gerechte
gerechten
gerechtigkeit
geren
gerhard
gerhardt
gerhart
gericht
gerichten
gerichtsbezirk
gerichtshoff
gerichtsverfatensgesett
gerin
gerlach
germaansch
germaansche
germaanschen
germain
german
germanen
germania
germanist
germanistik
germanistin
germanium
germany
germer
gern
gernot
gero
gerold
gerrard
gerrit
gerry
gers
gersdorff
gert
gertrud
gertrude
geru
gerup
gervais
ges
gesa
gesamt
gesamte
gesamten
gesamtliste
gesamtschool
gesamtsieg
gesamtwark
gesamtweltcup
gesamtwertung
gesandten
gesang
gesangspa
gescha
gesche
geschenk
geschicht
geschichte
geschichten
geschichts
geschwister
gesellschaft
gesett
gesette
gesetten
gesetz
gesetze
gesetzes
gesicht
gesine
geslecht
geslechter
gesmold
gespra
gessner
gestalt
gestalten
gestaltung
gestapo
gestelev
gestern
gestis
gestorben
gesund
gesundheit
gesundheitlich
geswister
get
getal
getz
geven
geversdo
gewa
gewalt
gewaltig
gewarf
geweev
gewerkschaft
gewerkschaften
gewerkschafter
gewerkschaftsfunkschona
gewicht
gewichthever
gewinn
gewinnen
gewinnt
gewissen
gewo
gewohr
gewu
geyer
gg
ggd
gge
ggeln
ggen
gger
ggt
ghana
gheorghe
ghersteller
ghost
gi
giacomo
gian
gianni
giant
gibbons
gibbs
gibraltar
gibson
gibt
gide
gie
giehl
giersbarg
giersdo
gies
giesecke
gießen
gifft
gifhorn
gift
giftig
gigi
gil
gilbert
gilberto
gilde
gildemeister
giles
gill
gille
gilles
gillespie
gilmore
gilmour
gina
ging
gino
giordano
giorgi
giorgio
giovanni
gips
girard
girardet
giraud
girl
girls
giro
girolamo
gironde
gisela
gislev
gitarr
gitarrist
gitarristen
gitarrspeler
gitler
giulio
giurgiu
giuseppe
givt
gjellerup
gl
gla
glacier
gladbach
gladstone
glas
glaser
glasgow
glashu
glasmaler
glatt
gleason
gleichen
gleis
gleise
glen
glenn
gler
gletscher
gletschers
glich
gliche
glichen
glicherwies
glichkeit
glichkeiten
glichst
glieck
gliederung
gliek
gliekbedu
glieke
glieken
glieker
gliekgewicht
gliekmatig
glieknaamig
gliekno
glieks
gliektiedig
gliektietig
gliese
glinn
glinst
glo
global
globale
globe
globen
glogau
gloria
gloslunde
gloucestershire
gloven
glu
gm
gmbh
gnarrenborg
gnd
gnis
go
god
goddard
gode
goden
godendo
godenst
godfather
godfrey
godoy
godshem
godsted
godwin
goerdeler
goes
goethe
goff
gogericht
gogh
goh
gohbeek
gohn
goia
going
gold
goldap
goldberg
golden
goldene
goldenen
goldfinger
golding
goldmann
goldmedaille
goldmedaillen
goldpeer
goldschmidt
goldsmidd
goldson
goldwyn
golf
golfspeler
goll
gollen
golo
golson
goltz
gomes
gomez
gonc
gondwana
gone
gonza
gonzaga
gonzalo
good
gooden
goodman
goodsbesitter
goodshuus
google
goorn
goornarchitekt
goorner
goorns
goos
goossens
goot
gootsch
gootsche
gor
gora
goran
gorch
gorda
gorden
gordimer
gordon
gore
gorj
gorman
gornich
gosla
gosler
gossypium
got
goten
gotha
gothenborg
gotik
gott
gottes
gottfried
gotthard
gotthelf
gotthold
gottlieb
gottlob
gottschalk
gould
gouverneur
gov
government
govt
gower
goya
gp
gr
gra
graad
graaf
graafschop
grab
grabe
grabfeld
grace
gracia
gracie
grad
graduate
grady
graeme
graetz
graf
grafel
grafen
grafenau
graff
graffsteen
grafikdesigner
grafiker
grafikerin
grafschaft
grafton
graham
grahamland
gramm
grammatik
grammatikaalsche
grammatiker
grammy
gran
granada
grand
grande
granger
granit
grant
granville
granz
graphit
gras
grasbarg
grasdo
grashupper
grass
grau
graubu
graue
grauen
graupner
grave
graven
gravenhorst
gravens
graves
gravitatschoon
gravo
gray
graz
gre
great
greater
greatest
greek
greeksch
greeksche
greekschen
greeley
green
greene
greenville
greenwich
greenwood
greep
greer
greev
greg
greger
gregg
gregor
gregoriaanschen
gregorio
gregory
greiner
greis
greiz
greken
grekenland
grenada
grenadinen
grenoble
grenville
grenz
grenzen
grenzo
grenzt
grepen
gresig
gresige
gresigen
greta
grete
greun
greundiek
greve
greven
grevengericht
grey
grieg
grienenbargshusen
griepen
griepswohld
griepswoold
griept
gries
griffin
griffith
griffon
grigori
grigorjewitsch
grill
grimes
grimm
grimme
grinnen
grippt
gris
gro
groafschup
grode
groden
groff
grohmann
groll
groningen
groot
grootbookstaav
grootbritannien
grootdeel
groote
grooten
groothartog
groothartogdom
grootkru
grootmeester
grootmeestertitel
grooto
grootpolen
grootsta
grootstadt
grootvadder
grootvader
grootweurn
gros
gross
grosse
grossman
grosso
grosvenor
grote
groten
grotenwe
groth
group
grove
grover
groves
growers
growth
groß
große
großen
großer
großes
gru
grube
gruben
gruber
grund
grundgesett
grundlaag
grundlage
grundlagen
grundmann
grundsa
grundsatz
grundscholen
grundschool
grundsteen
grundstu
grundwater
grundy
grundzentrum
grunnen
grunneng
grupp
gruppe
gruppen
gruyter
græshave
gspeler
gste
gsten
gt
gte
gten
gu
guadalupe
guadeloupe
guam
guanacaste
guanajuato
guardian
guardiola
guatemala
guayana
gudme
gudrun
gue
guernsey
guerra
guerrero
guez
guide
guido
guild
guillaume
guillermo
guinea
guinness
guldbeek
guldborgsund
gull
gullen
gun
gundlach
gundslev
gung
gungen
gunn
gunnar
gunter
gunther
gunzenhausen
gurlitt
gurnah
gurreby
gus
gustaf
gustav
gustave
gustavo
gut
gute
gutenberg
guterres
guthrie
gutie
gutsbezirke
guttenberg
guttmann
guverno
guy
guyana
gvbl
gymnasiaallehrer
gymnasien
gymnasium
gyna
gyo
gypten
gyptisch
gyptischen
gyptoloog
gyptschen
gyula
h
ha
haack
haadler
haag
haak
haal
haalt
haar
haare
haaren
haarmann
haas
haase
hab
habe
haben
habenhusen
habens
haber
habermann
habert
habsborg
hackett
hackl
hadde
haddo
hadeln
haden
hades
hadley
hadrian
haeften
hafnium
haft
hagedorn
hagemann
hagen
hagener
hahl
hahn
hahnenknoop
hai
haig
haile
hain
haines
hainmo
haiti
hake
hal
haldane
halder
hale
halen
half
halfass
halfeiland
halffinale
halfgo
halfinsel
halfmoon
halfweertstiet
halfweertstieten
halifax
hall
halle
hallen
haller
halley
halogenen
hals
halsey
halsmo
halsted
halt
haltern
halv
halve
halven
halvinsel
ham
hambargen
hambo
hamborg
hamborger
hamburg
hamburger
hamburgisches
hamel
hameln
hamelwo
hamer
hamersmieter
hamgyong
hamilton
hamlet
hamlin
hamm
hammah
hammer
hammerschmidt
hammerstein
hammoh
hammond
hampshire
hampton
hamsun
han
hanau
hancock
hand
handball
handballspeler
handballspelerin
handbook
handbuch
handel
handke
handlung
hando
handschrift
handwark
handwarker
handy
hang
hangen
hangt
hanisch
hank
hanke
hann
hanna
hannah
hanne
hannel
hanneln
hannelore
hannelt
hannen
hannes
hannibal
hanno
hannober
hannover
hannovera
hannoversche
hanns
hanover
hans
hansa
hanse
hansen
hanser
hansestadt
hansjo
hanson
hansson
hanst
hansta
hansted
hapag
hapen
happs
happy
har
hara
harald
harbor
harbour
harburg
harcourt
hard
harde
harden
hardenberg
harder
hardin
harding
hardy
harfst
harghita
harlan
harlem
harley
harlingerland
harlow
harm
harmonie
harms
harmsto
harndorp
harold
harpalyke
harper
harpspelerin
harr
harrer
harriet
harris
harrison
harrn
harrt
harry
harseim
harsfeld
hart
harte
harten
hartinfarkt
hartl
hartley
hartman
hartmann
hartmut
harto
hartog
hartogdo
hartogdom
hartung
hartwig
harvard
harvey
harvst
harwood
harz
has
hase
haskell
hass
hassbossel
hasse
hassel
hasselhoff
hasselmann
hasselwarder
hassendo
hast
hastedt
hastings
hat
hatch
hatfield
hatt
hatte
hattieville
hatting
hatz
hau
hauer
haug
haugduitsk
haumea
haupeer
haupeerd
haupt
hauptamt
hauptamtlichen
hauptmann
hauptmanns
hauptoort
hauptschool
hauptstraat
haus
hauschild
hausen
hauswald
haut
haute
hautes
hauts
havanna
have
havel
havemann
haven
havens
havenstadt
hawaii
hawk
hawkins
hawley
haworth
hawthorne
haydn
haye
hayes
haynes
hays
hayward
haßel
hcl
hd
hdt
he
head
healey
health
healy
heaney
heard
heart
heat
heath
heather
heaven
heavy
hebb
hebben
hebbt
heben
hebra
hebriden
hebt
heck
heckmann
heckthusen
hector
heden
hedwig
hee
heel
heelmiddel
heelmiddels
heemken
heemlich
heemsbu
heendo
heer
heerfo
heerst
heerstraat
heesdo
heesen
heesters
heet
heeten
heevschruver
heeßel
hef
heff
hefft
heft
hegemone
heger
hegle
hei
heid
heidbahn
heidbarg
heide
heidegger
heidelbarg
heidelbarger
heidelberg
heidemann
heiden
heidenau
heidenstam
heidi
heidkreis
heien
heights
heike
heikki
heiko
heil
heilbronn
heiligen
heilmann
heilshoorn
heim
heimaatdichter
heimaatforscher
heimann
heimat
heimatbund
heimatforscher
heimatkunde
heimatland
heimatmuseum
heimatskunde
heimatstadt
heimatvereen
heimatverein
heimfeld
hein
heinbockel
heine
heinemann
heiner
heino
heinrich
heins
heinsbarg
heinsberg
heinz
heinze
heiraadt
heiraat
heiraden
heirat
heiraten
heis
heise
heisenberg
heit
heitmann
heißenbuttel
heken
hektar
hektor
helbig
held
helden
hele
helen
helena
helene
helga
helge
helgoland
helike
helium
hell
helle
hellen
hellenismus
heller
hellerup
helligkeit
helljes
hellmut
hellmuth
hellste
hellweeg
helm
helmst
helmstidde
helmut
helmuth
helmworth
help
helpen
helpsmann
helpt
helsch
helsinki
hem
hembus
hemel
hemeln
hemendo
hemingway
hemm
hemmoor
hempel
hemslingen
hemzel
hen
henderson
hendricks
hendrik
hendrix
hendu
hengahn
henk
henkamen
henkel
henkregen
henn
hennig
henning
henri
henrich
henricht
henrietta
henriette
henrik
henrique
henriques
henry
henryk
hensicht
henstellt
henstu
hentagen
hento
hentokriegen
henwies
henwiesen
henwiest
henze
hepatitis
hepburn
hepst
her
hera
heraldik
heraldiker
herausgeber
herausgegeben
herb
herberger
herbert
herbie
herbig
herbst
herder
here
heredia
heren
heribert
heritage
herkamen
herkummt
herkumst
herkunft
herman
hermann
hermeneutik
hermes
hermine
hermippe
herna
herne
hero
herodes
heroes
herpetoloog
herr
herred
herredskirke
herren
herrera
herring
herringe
herritslev
herrlichkeit
herrmann
herrn
herrschaft
herrschap
herrschen
herrscher
herrschers
herrschop
herrscht
herschel
herse
herstellen
hersteller
herstellt
herstellung
herta
hertel
hertfordshire
hertha
hertog
hertogdo
hertogdom
hertostellen
hertz
herut
herutbrocht
herutgeven
herutgever
herutragen
herutragend
herve
hervo
herwig
herz
herzberg
herzegowienschen
herzegowina
herzen
herzfeld
herzog
herzogthu
hesel
hesiod
hess
hesse
hessen
hessisch
hest
heston
het
heten
hett
hetthorn
hetzweeg
heu
heumann
heusinger
heuss
heute
heven
heyer
heymann
heyne
heyse
hg
hger
hgere
hi
hiarwede
hicattee
hickey
hickman
hicks
hickstead
hidalgo
hidden
hiddingen
hie
hier
hierarchy
hierbi
hieronymus
hig
higgins
higgs
high
highland
highlander
highlands
highschool
highway
higkeit
higkeiten
hilaire
hilary
hilde
hildebrand
hildebrandt
hildegard
hildesheim
hilfe
hilger
hill
hillary
hille
hillen
hiller
hillerslev
hillested
hillge
hillig
hillige
hilligen
hills
hillsborough
hilmar
hilmessen
hilmssen
hilton
him
himalaya
himalia
himmel
himmelfohrt
himmelpoorten
himmelsko
himmler
hin
hind
hindenburg
hindi
hinds
hines
hingis
hingst
hinnerk
hinnern
hinnert
hinrich
hinrichs
hinrichsen
hinstorff
hinter
hinton
hintze
hintzendo
hinz
hip
hippolyte
hipst
hiram
hirsch
hirschfeld
hirt
hirzel
his
hispanist
histoire
histoorsch
histoorsche
histoorschen
historia
historical
historie
historiker
historikerin
historikers
historisch
historische
historischen
historischer
historisches
historsch
historschen
history
hit
hitchcock
hitler
hitlers
hitparade
hits
hitt
hitte
hittfeld
hiv
hjallese
hjohr
hl
hlau
hldorf
hle
hlen
hlenbeek
hlendiek
hlendoor
hlener
hlenreeg
hler
hlers
hlich
hlig
hling
hlingen
hlke
hlmann
hlmeyer
hln
hlspriete
hlt
hlte
hlten
hlung
hlungen
hm
hmann
hme
hmen
hmer
hmermann
hms
hmsch
hmschen
hmt
hmte
hmten
hmung
hn
hndokter
hne
hnen
hnenbillner
hner
hnke
hnlich
hnliche
hnlichen
hnmediziner
hns
hnt
hnung
ho
hobby
hoben
hobu
hoch
hochdeutsch
hochdeutsches
hochdu
hochfilzen
hochtiet
hockeyspeler
hockeyspelerin
hockmo
hodge
hodges
hoepner
hof
hofer
hoff
hoffbeamten
hoffbesitter
hoffbookdruckeree
hoffgericht
hoffman
hoffmann
hoffmeister
hoffnung
hoffraad
hofmann
hofstetter
hoge
hogen
hogenabargen
hogenmoor
hogenoh
hogg
hogwarts
hohe
hohenzollern
hohl
hohmann
hohn
hokkaido
holbm
holbrook
holder
holding
hole
holeby
holen
holger
holiday
holl
holla
holland
hollande
hollander
hollandsch
holle
holleman
hollen
hollenbeek
hollis
hollmann
hollnseth
hollow
hollt
holly
hollywood
holm
holman
holmberg
holmenkollen
holmes
holocaust
holpen
holsminne
holsseln
holst
holste
holsteen
holsteenschen
holstein
holsten
holt
holte
holten
holthausen
holthusen
holto
holtsnittjer
holy
holzapfel
holzmann
homann
home
homepage
homer
homersen
hommage
homo
hondo
honduras
honegger
honey
hong
hongkong
honnef
honolulu
honor
honore
honorius
hooch
hoochdu
hoochland
hoochscholen
hoochschool
hoochspringer
hoochspringerin
hoochsuerlandkreis
hood
hoog
hoogdu
hooge
hoogedu
hooker
hoolt
hoop
hooper
hoopt
hoor
hoorn
hoornspeler
hoot
hoov
hoover
hop
hope
hopen
hopeville
hopkins
hoppe
hopper
horace
horbelev
horbo
horborg
horchler
hordaland
hormonen
horn
hornborg
horne
horner
hornig
horowitz
horreby
horror
horrorfilm
horse
horsens
horslunde
horst
horstmann
hort
horvat
horwitz
horß
hospital
host
hot
hotel
hotelier
hotels
hottinger
houghton
hour
house
houston
houten
hove
how
howard
howe
howell
hoy
hoya
hr
hrden
hre
hren
hrend
hrende
hrenden
hrer
hrerin
hrers
hrfriesisch
hrig
hrige
hrigen
hring
hringer
hrlich
hrliche
hrlichen
hrmann
hrn
hrnsen
hrr
hrs
hrschipp
hrsg
hrst
hrt
hrte
hrten
hrung
hrungen
hstu
ht
htm
html
http
https
hu
hubbard
hubble
huber
hubert
hubertus
hudson
hueber
huffman
hugenotten
hugh
hughes
hugo
huhn
hull
hullen
hullern
hullnst
hulpen
hulse
human
humanismus
humanist
humanistisch
humanita
humberto
humblot
humboldt
hume
hummel
hummingbird
humor
humphrey
hund
hunedoara
hungen
hunger
hunnen
hunnert
hunnerte
hunseby
hunt
hunte
hunter
huntford
hunziker
hurley
huron
hurricane
hurrikan
hurst
hus
huston
husum
hut
hutchinson
hutchison
huttbargen
hutten
huttenbusch
hutton
huud
huus
huusappel
huusbo
huusbrook
huusholt
huuslehrer
huusvaagdie
huut
huxley
hyde
hygiene
hygieniker
hymne
hymnen
hynes
hypothees
hæsinge
højby
højrup
hørning
i
ia
iaaaaqaaj
iaeo
iain
ialomit
ian
ias
iata
iau
iba
ibn
ibrahim
ibu
ic
ica
ice
ich
ichi
ichiro
ichthyoloog
ick
iclicki
id
ida
idaho
ideal
ideale
idee
ideen
identifizeeren
identifizeert
identita
identity
ideologie
idestrup
ie
iemecken
ierz
ierzen
ies
iesen
iesenbahn
iesenbahnen
iesenbahninscheno
iesern
iesflinklo
ieshockeyspeler
ieshockeyspelerin
ieshockeytrainer
ieskunstlo
ieskunstloop
iesla
iesland
ieslandsch
ieslandschen
ieslannsch
ieslannsche
if
ig
iga
ignacio
ignatius
ignaz
ignazio
igor
iguana
ihlpohl
ihm
ihn
ihnen
ihr
ihre
ihren
ihrer
ii
iii
ik
ike
il
ila
ilfeld
ilfov
ilhas
ilhe
ilic
ilja
iljitsch
ilka
ille
illegal
illinois
illustrated
illustrater
illustratersche
ilm
ilmenau
ilsdo
ilse
im
image
imbeek
imdb
imhof
imhoff
immanuel
immen
immer
immunologie
immunoloog
immunsystem
impact
imperial
imperium
impressionismus
impressionisten
impuls
impulse
imre
imßen
in
ina
inaten
inbaut
inberopen
inbo
inboet
inboot
inbro
inbroch
inbrocht
inbunnen
inc
indeelen
indeelt
indelen
indem
independence
independent
inders
index
india
indiaansch
indian
indiana
indianer
indianers
indianerstamm
indians
indiekt
indien
indies
indirekt
indisch
indische
indischen
indium
indo
indoloog
indonesien
indra
indraag
indrag
indragen
indrapen
indre
indringen
indru
indruck
industrial
industrie
industriehavens
industriell
industrielle
industriellen
industriemanager
industries
ine
inen
ines
infall
infallen
infallend
infangen
infanterie
inferior
infloot
inflootriek
influss
info
informatik
informatiker
informatikerin
information
informationen
informatschonen
informatschoon
infos
infrastruktur
infu
infungen
inga
ingahn
ingang
inge
ingeborg
ingelsch
ingelsche
ingenieur
ingo
ingolstadt
ingrid
ingriepen
inheemsche
inheemschen
inhollen
inholt
inholtsverteken
initiative
inka
inkamen
inkamensgrenz
inlaaden
inlaadt
inladen
inlagert
inlaten
inleggt
inlet
inmarscheert
inmu
inn
innahmen
inne
innehmen
innen
innere
innkreis
innozenz
innsbruck
inoffiziell
inoffiziellen
inordent
inquart
inricht
inrichten
inrichtung
inrichtungen
ins
insa
insatz
insatzen
insatzgruppen
insbesu
inscha
inscheno
inschra
inschreven
inschrift
inschriften
insecta
insekt
insekten
insel
inselgrupp
inseln
inselstaat
insett
insetten
insgesamt
insichten
inside
inslag
inslahn
inslaten
insluutend
insorteert
insparrt
inspeelt
inspekter
inspireert
inst
instellen
instellt
institut
institute
institution
instituts
institutschonen
institutschoon
instrument
instrumente
instrumenten
instrumentenboer
instuuft
inszeneert
int
intagen
integreert
intehn
intellektuellen
intelligent
intelligenz
intendant
intensita
intensiv
intensive
inter
interessant
interesse
interesseert
interessen
interna
internacional
internat
international
internationale
internationalen
internationales
internatschonaal
internatschonal
internatschonale
internatschonalen
internatschonaler
internet
internett
internist
interpretatschoon
interpreteert
interview
interviews
interzonenturnier
into
intonehmen
intorichten
intosetten
intra
intreden
intreeden
intressant
intresse
intresseert
intressen
introduction
intrucken
intschen
intu
intwu
invasion
inverstahn
inw
inwahner
inwahners
inwahnertall
inwahnertallen
inwannerers
inwannert
inwarken
inwarkt
inweeht
inweiht
inwieht
inwirken
inwohners
inzmo
io
ioc
iocaste
ion
iona
ionen
iowa
ipa
ippens
ir
ira
iraanschen
irak
iran
ireland
irene
irina
iris
irisch
irische
irischen
irish
irland
irma
irmgard
irokesen
iron
irvine
irving
irwin
is
isa
isaac
isaak
isabel
isabella
isabelle
isbn
isch
ische
ischen
ise
isenhagen
isensee
isheim
ishiguro
isidor
isidro
isla
islaamsche
islaamschen
islam
islamwetenschopper
island
islands
islas
islay
isle
iso
isoleert
isonoe
isotop
isotopen
israeelsch
israeelsche
israeelschen
israel
iss
issell
issendo
issn
issue
ist
istanbul
istva
it
italia
italiana
italieensch
italieensche
italieenschen
italien
italiener
italieners
italiensch
italienschen
itf
ithaca
its
itzwo
iucn
iulius
iupac
iut
iv
iva
ivan
ivar
iver
iversen
ives
ivkovic
ivo
iwan
iwanowitsch
iwanowna
ix
izabal
j
ja
jaagt
jacek
jacinto
jack
jackie
jackson
jacksonville
jacob
jacobi
jacobs
jacobus
jacqueline
jacques
jacquet
jade
jaeger
jaffe
jagd
jagdfleger
jagen
jager
jagger
jahn
jahr
jahrbuch
jahre
jahren
jahres
jahrgang
jahrhundert
jahrhunderts
jahrhunnert
jaime
jake
jakob
jakobi
jakobus
jakowlewitsch
jakub
jalacte
jalapa
jalisco
jallow
jam
jamaika
jamaikaansche
jamaikaanschen
james
jameson
jamestown
jamie
jan
jana
jane
janeiro
janet
jankovic
jann
jans
jansen
janssen
januar
janusz
jaor
japaansch
japaansche
japaanschen
japan
japaner
japaners
japanoloog
jarl
jaroslav
jarre
jarrett
jarvis
jasmin
jason
jasper
java
javier
jay
jazz
jazzlexikon
jazzmusiker
je
jean
jeanette
jeanne
jeddingen
jede
jedeen
jeden
jedenfalls
jeder
jedereen
jedes
jedet
jeed
jeedeen
jeem
jeersdo
jef
jeff
jefferson
jeffery
jeffrey
jeffreys
jegorow
jehle
jekaterina
jelena
jelinek
jelly
jem
jemehr
jemehrn
jemen
jemols
jena
jenkins
jennifer
jennings
jenny
jens
jenseits
jensen
jeremiah
jeremy
jero
jerome
jerry
jersey
jerusalem
jerzy
jesborg
jesper
jesse
jessen
jessica
jessie
jesu
jesuit
jesuiten
jesus
jet
jetzt
jever
jeweils
jewgeni
jewiels
jg
jh
ji
jichtenseen
jichtenswat
jiddisch
jilbern
jill
jillhorn
jim
jime
jimmie
jimmy
jin
jir
jjen
jn
jo
joa
joachim
joan
joanna
joanne
joaqui
joaquim
joaquin
job
jobs
jobst
jochen
jockey
jod
joden
jodendom
joe
joel
joey
joh
johan
johann
johanna
johanne
johannes
johannis
johansen
john
johnny
johns
johnson
johnston
johnstone
johr
johrdusend
johre
johren
johrgang
johrhunnert
johrhunnerte
johrhunnerten
johrig
johrige
johrigen
johrn
johrteihnten
johrteinten
joly
jon
jonas
jonathan
jones
jong
jonsson
joos
joost
jordan
jordanien
jorge
jos
joschka
jose
josef
josep
joseph
josephine
josh
joshua
josip
jost
journal
journalist
journalisten
journalistin
journey
joy
joyce
jozef
jr
ju
jua
juan
jubila
juda
judas
juden
judith
judoka
judy
jugend
jugoslaawsch
jugoslaawsche
jugoslaawschen
jugoslawien
jugurtha
jules
juli
julia
julian
juliane
julie
julien
juliet
julio
julius
jumfer
jumfern
jumferninseln
jummerlos
jummers
jun
juncker
junction
june
jung
jungblut
junge
jungen
jungs
juni
junior
junioren
juniorenweltmeesterschapen
junkermann
juno
jupiter
jur
jura
jure
juri
jurist
juristen
juristeree
juristin
juristisch
juristische
jurjewitsch
jury
juskowiak
just
justice
justin
justine
justiz
justizkanzlie
justizraad
justizreform
justus
jute
jutiapa
jutta
juventus
jørgen
k
ka
kaak
kaakpunkt
kaamt
kabarettist
kabarettistin
kabel
kabinett
kaden
kader
kaffee
kafka
kahl
kahle
kahn
kai
kaidiek
kaimaninseln
kairo
kaisa
kaisen
kaiser
kaiserin
kaiserlich
kaiserliche
kaiserlichen
kaiserriek
kaisers
kaiserslautern
kaken
kakensto
kale
kalf
kalif
kalifornien
kaliningrad
kalispel
kalium
kalk
kalksteen
kallichore
kallisto
kalmar
kalyke
kam
kamara
kambodscha
kambrium
kamen
kamer
kamera
kameraden
kameramann
kameras
kamerherr
kamern
kamerun
kaminsky
kamm
kammann
kammer
kamp
kampagne
kampala
kampen
kampf
kamt
kan
kanaadsch
kanaadsche
kanaadschen
kanaal
kanada
kanal
kanarische
kandel
kandidat
kandidaten
kandidatenturnier
kandidatur
kandideert
kane
kaneel
kann
kannedaat
kannedaten
kannst
kanon
kansas
kant
kantate
kanten
kanter
kanther
kanton
kantons
kantu
kanufohrer
kanufohrerin
kanzel
kanzler
kanzlie
kap
kapell
kapellmeester
kapillaren
kapita
kapitel
kapitulatschoon
kaplan
kappel
kappeln
kapsel
kaptein
kaputt
kapverden
kapverdische
kara
karambolagespeler
karasek
kardina
kardinaal
kardinal
kardinaltalen
kardinaltall
kardioloog
karel
karen
kari
kariben
karibik
karibische
karikaturist
karin
kark
karkdo
karken
karkengemeen
karkenhistoriker
karkenkreis
karkenleeddichter
karkenmusiker
karkenrechtler
karkenstaat
karkgellsen
karkho
karkhoff
karklich
karktimk
karkwals
karkwist
karl
karleby
karlfeldt
karlheinz
karlsruhe
karlsruher
karn
karnfusion
karnkraftwark
karnphysik
karns
karnstadt
karol
karoline
karoxbossel
karrer
karriere
karsten
karteert
karthago
kartograaf
kartuffeln
kasachschen
kasachstan
kasern
kaspar
kaspel
kaspels
kaspelsgericht
kassbroker
kassbrook
kassel
kassen
kasten
kastilien
katalaansch
katalaanschen
katalog
katalonien
kataloog
katalysater
katar
katarina
katastraalgemeen
katastrooph
katastrophe
kate
katechissen
kategorie
kategorien
katelnborg
kater
katharina
katharine
katharinen
kathedraal
kathedrale
katherine
kathleen
katholiken
kathoolsch
kathoolsche
kathoolschen
kathrin
kathy
kati
katie
kationen
katja
katrin
katt
katte
katten
katz
katzer
kauffmann
kaufmann
kauh
kaukasus
kawabata
kay
kayser
kaysers
kazuo
kb
kdo
ke
keanu
kear
keck
keden
kedenborg
kedenbrook
kedener
keed
keegan
keem
keemen
keen
keene
keeneen
keerl
kees
kehr
kehrt
kein
keine
keitel
keith
kekchi
keken
kel
kelfeld
kelheim
kelhusen
keller
kellermann
kelley
kelly
kelnaam
kelsey
kelten
kelvin
kemen
kemm
kemp
kempe
kempen
kempf
ken
kendall
kene
kener
kenia
kenmoor
kenn
kennedy
kennen
kennenlehrt
kenner
kenneth
kenney
kennt
kennteken
kenntekent
kenntnis
kenny
kent
kentnis
kentucky
kenya
kenyon
kepler
ker
keramik
keramiker
kerber
keree
keres
kerk
kerkboitzen
kerke
kerken
kerklinneln
kerl
kern
kerr
kerry
kers
kershaw
kerstin
kert
kerte
kerteminde
kessel
kettinge
ketzendo
kevin
key
keyboard
keyboarder
keyser
kg
khan
khmer
ki
kia
kicker
kickt
kid
kidder
kiek
kieken
kiekt
kiel
kieler
kien
kienzle
kiepenheuer
kies
kieselsu
kiesewetter
kiesinger
kiesow
kiew
kill
killer
kilogramm
kilometer
kilometern
kilometers
kim
kind
kinder
kindermann
kindersley
kindheit
kindler
king
kingdom
kings
kingsley
kingston
kinkel
kinner
kinnerdokter
kinnergoorn
kinners
kinnertiet
kinney
kino
kinofilm
kinofilmen
kinos
kinsey
kiowa
kipling
kippinge
kippt
kirby
kirche
kirchen
kirchengeschichte
kirchenlexikon
kirchheim
kirchhellen
kirchhellener
kirchner
kirgisien
kiribati
kirk
kirke
kirkeby
kirkpatrick
kirsten
kiss
kissingen
kist
kit
kita
kittel
kitts
kitty
kitzingen
kißling
kj
kla
klaagt
klaar
klaas
kladdert
klammern
klang
klappen
klappt
klar
klara
klarinett
klarinette
klarinetten
klarinettist
klarinettspeler
klass
klasse
klassen
klassifikatschoon
klassik
klassiker
klassisch
klassische
klassischen
klauen
klaus
klaut
klaveer
klavier
klecken
kledaasch
klee
kleedasch
kleen
kleenbookstaav
klein
kleine
kleinen
kleiner
kleines
kleinschmidt
kleist
klemmt
klenkendo
klenner
kleopatra
klethen
kleure
kleve
klever
kliff
klima
klimatoloog
klindworth
kline
klingenberg
klinger
klingt
klinik
klinische
klint
klischees
klitoris
klo
klock
klocken
klockengeter
klockenmaker
klockentoorn
klook
kloor
klooster
kloosters
klopstock
klor
klore
kloss
kloster
klu
klub
klug
kluge
km
knaken
knakenmark
knapp
knappen
knauer
knaur
knee
knick
knight
knill
kno
knoll
knoop
knorre
know
knowles
knox
knu
knud
knudsen
knut
knuth
ko
koalitschoon
koalitschoonskriege
kobalt
koblenz
koch
kocher
kock
koffein
koffie
kofi
kogge
koh
kohl
kohlenfo
kohlenhusen
kohlenstoff
kohlenstoffatom
kohlenstoffatomen
kohlenstoffdioxid
kohlenstoffmonoxid
kohlensu
kohlenwaterstoffen
kohlhammer
koine
koken
kokerbeek
kolbe
kole
kolen
kolleeg
kollegen
koller
kollision
kollmann
kologie
koloniaalbeamten
koloniaalguverno
kolonie
kolonien
kolonisten
koloog
kolt
kolumbiaansch
kolumbiaansche
kolumbiaanschen
kolumbien
kolumbus
kolumnist
koma
kombinatschoon
kombineert
kombinerer
komen
komet
kometen
komiker
komikerin
komische
komitee
komm
kommandant
kommando
kommen
kommentar
kommenteert
kommerbusch
kommerziell
kommerzielle
kommerziellen
kommissar
kommissarisch
kommissarsch
kommission
kommt
kommun
kommunaalreform
kommunale
kommunalen
kommunalpolitiker
kommunalreform
kommunalwahl
kommunalwahlen
kommunen
kommunikatschoon
kommunikatschoonswetenschopper
kommunismus
kommunist
kommunisten
kommunistisch
kommunistische
kommunistischen
komo
komoren
kompanie
kompendium
komplett
komplex
komplexe
komplexen
komponeer
komponeeren
komponeert
komponenten
komponist
komponisten
komponistin
kompositschonen
kompositschoon
komuna
kondenseert
kondo
kone
konferenz
konflikt
konfo
kongo
kongress
konitz
konjugeeren
konjungeerte
konklave
konkurrenten
konkurrenz
konn
konnen
konnt
konnte
konom
konomie
konoom
konrad
konservativ
konservative
konservativen
konservatorium
konsonanten
konstant
konstantin
konstantinopel
konstantinowitsch
konstanz
konstrueert
konsul
konsuln
kontakt
kontext
kontinent
kontinentale
kontinenten
kontiolahti
kontrabass
kontroll
kontrolleert
konzentratschoon
konzentreert
konzept
konzern
konzert
konzerte
konzerten
konzil
kood
kool
koolt
koop
kooperatschoon
koophuus
kooplu
koopma
koopmann
koordinaten
koorn
koort
koorten
kopen
kopenhagen
kopf
kopff
kopie
kopp
koppel
koppels
koppenn
kopper
koppersteker
koppfo
koptein
kore
korea
koreaansch
koreaansche
koreakrieg
koren
korinth
korl
korlsho
kornberg
korps
korrespondenzblatt
korsika
korsløkke
kort
korte
korten
kortfilm
kortform
kortgeschicht
kortschnoi
korup
kos
koschnick
kosmonaut
kosmonauten
kosmos
kosovo
kosten
koster
kostic
kostu
kott
kova
kovac
kowal
kpd
kr
kra
kraam
kraan
krafft
kraft
kraftwark
kraftwerk
krakau
kraken
kramer
krank
kranke
kranken
krankenhuus
krankenswester
krankheit
krankheiten
krankmakers
kranz
krarup
krater
kraters
kraus
krause
kraut
krebs
kreeft
kreefte
kreeg
kreegen
kreepm
kregen
kreis
kreisbahn
kreisdag
kreise
kreisen
kreisfre
kreisfree
kreishauptmann
kreisloop
kreisreform
kreisspoorkass
kreisstadt
kreisstraat
kreisstraten
kreist
kreisverband
kreisvo
kremer
kreolen
kreta
kreuzer
kried
krieg
kriege
kriegen
krieger
kriegsenn
kriegsschipp
kriegsverbreker
kriegt
kriggt
krim
krimi
kriminellen
kriminoloog
krimireeg
kring
krink
krischan
krise
kristallen
kristalliseert
kristallsystem
kristen
kristian
kristiansen
kristin
kristina
kritik
kritiken
kritiker
kritikers
kritisch
kritische
kritischen
kritiseer
kritiseert
kro
kroaatsch
kroaatsche
kroaatschen
kroatien
krogmann
kronach
kronberg
krone
kronen
kronenborg
kroog
kroon
kroonblo
kroonprinz
kropp
krosigk
kru
krug
kruger
krumeich
krumm
krummendiek
krupa
kruse
kruupt
kruutsand
krypton
krzysztof
krønge
ks
kt
ku
kuba
kubaansch
kubaansche
kubaanschen
kubassow
kubismus
kubrick
kuc
kufferath
kugel
kugelsmieter
kugler
kuhl
kuhla
kuhlen
kuhlmann
kuhn
kuhs
kuhstermoor
kuiper
kuipergo
kujawien
kulenkampff
kulmbach
kult
kultur
kulturell
kulturelle
kulturellen
kulturen
kulturgeschichte
kulturhistoriker
kulturmanager
kulturpries
kulturwetenschopper
kultuur
kumbarg
kummandant
kummando
kummedie
kummedien
kummer
kummt
kumplett
kumplette
kumplex
kumplexe
kumponist
kumponistin
kund
kunflikt
kungress
kunkel
kunn
kunnen
kunnig
kunnt
kuno
kunquistador
kunsel
kunservater
kunst
kunstakademie
kunstgeschichte
kunstha
kunsthistoriker
kunsthistorikerin
kunstkritiker
kunstmuseum
kunstpa
kunstrukto
kunstsammler
kunststoff
kunstwarken
kuntakt
kuntakte
kuntakten
kunteradmiraal
kuntrabassist
kuntrei
kuntreien
kuntrull
kunz
kunzentratschoon
kunzentreert
kunzept
kunzern
kunzler
kurater
kuratersche
kurfo
kurfu
kurie
kurier
kurko
kurosawa
kurs
kursiv
kurt
kurz
kusch
kusmin
kutenhult
kutschera
kuubsch
kuum
kuwait
kuzorra
kværndrup
kw
kyle
kyo
kz
købelev
køng
l
la
laaber
laadt
laag
laak
laat
laaten
lab
label
labiau
labor
laboratory
labour
labrador
lac
lacey
lachen
lacombe
lacy
laden
ladens
ladislav
ladung
lady
ladyville
lafayette
lafontaine
lage
lagen
lager
lagerkvist
lagerlo
lagern
lagers
lagersteden
lagert
lago
lagoon
lagrange
laguna
laguun
lahn
lahnstein
lahti
laine
laing
laird
laj
lajos
lake
lakota
lamaze
lamb
lambda
lambert
lamberti
lambrecht
lamont
lampe
lancashire
lancaster
lance
land
landa
landau
landdag
landdagsafordnete
landdagsafordneter
landdagswahl
landdrost
landdrostie
lande
landes
landesamt
landesamtes
landesmuseum
landet
landgemeen
landgericht
landgraf
landing
landis
landkreis
landkreise
landkreisen
landmark
landraad
landraadsamt
lands
landsamt
landsberg
landschaft
landschap
landschapsmaler
landschop
landschoppen
landschopsarchitekt
landschopsverband
landsho
landshut
landskark
landslist
landsmann
landsmeester
landspitz
landsraad
landsstraat
landsstraten
landstraat
landstreken
landsverba
landsverband
landsvo
landtag
landweertschap
landweertschop
landwehr
landwertschap
landwo
lane
lang
lange
langeland
langen
langendammsmoor
langenfeld
langenhusen
langer
langhans
langjohrig
langley
langloh
langobarden
langs
langsam
langsflu
langslo
langsom
langsomer
langt
language
languages
langwedel
langwedelermoor
langø
lanhusen
lanka
lann
lannen
lannsregeern
lannt
lansing
lanz
laos
lara
large
largo
lari
larissa
larry
lars
larsen
larve
larven
las
lasarew
lasch
laser
lasius
lasker
lasky
lasse
lassen
last
lasten
lat
late
laten
later
latere
lateren
laterhen
laterhenn
latern
latien
latienamerika
latiensch
latiensche
latienschen
latienschool
latin
latour
latreille
lau
lauber
laue
lauenbru
lauenstein
lauer
laughlin
laughton
laura
laureate
laureates
laurel
lauren
laurence
laurent
laurentius
laurie
lausanne
laut
lava
laval
laven
laver
law
lawrence
laws
lawson
laxness
layton
lazaro
lb
lbe
lben
lbige
lc
lccn
lcea
ld
lde
lden
lder
lderlin
ldst
ldste
le
lea
leach
leader
league
leal
leandro
lebber
leben
lebennig
lebens
leber
leberecht
leblanc
lebt
lebus
lech
leclerc
leclercq
lecture
leda
leddanlaag
ledder
leddig
leden
leder
ledermaker
lee
leech
leed
leeden
leeder
leeds
leedtexter
leef
leefert
leefste
leefsten
leeft
leeg
leegen
leegt
leendaal
leendaler
leep
leer
leerhaaf
leernst
leessem
leest
leet
leeten
leev
leeven
leevste
leevsten
leevt
leevtieden
leevwesen
leferung
left
legacy
legal
legeeren
legen
legend
legenda
legende
legenden
legenn
legeren
legg
leggen
leggt
legislativversammlung
legrand
leguas
leh
lehe
leherheid
lehman
lehmann
lehmbruck
lehn
lehnert
lehnt
lehnwo
lehr
lehramt
lehrbook
lehrbuch
lehrde
lehre
lehren
lehrer
lehrerin
lehrers
lehrerseminar
lehrn
lehrstohl
lehrt
leibniz
leicestershire
leid
leiden
leider
leidt
leif
leifig
leigh
leinemann
leipzig
leipziger
leist
leisten
leistung
leistungen
leit
leiten
leiter
leitung
lek
lektor
leland
lemaire
lembrouk
lemfo
lemge
lemke
lemmermann
lemonal
lemy
len
lena
lenape
lengen
lengenbossel
lenglen
leni
lenin
leningrad
lenken
lenni
lennie
lennon
lenoir
lent
lentz
lenz
leo
leon
leonard
leonardo
leone
leonhard
leoni
leonid
leonidowitsch
leopold
leopoldina
lepidoptera
lepidopteroloog
leptonen
ler
lern
lernen
lerner
lernt
leroy
lers
les
lesen
leser
lesley
leslie
lesotho
lesser
lessing
lest
leste
lesten
lester
lesum
let
leto
lett
letter
letters
lettland
lettsch
lettschen
letzt
letzte
letzten
letztlich
leuenberger
leuka
leuschner
leute
leutheusser
leutnant
level
leven
levend
levensduer
levensjohr
levensjohren
levenslang
levensloop
levensmiddel
levensu
levenswark
lever
leverkusen
levern
levert
levi
levin
levinson
levt
levy
lew
lewandowski
lewen
lewis
lex
lexikograaf
lexikon
lexington
leyen
leyser
lez
lf
lft
lfte
lg
lgen
lgenla
li
lia
libanon
libe
liberal
liberale
liberalen
liberia
libertad
liberty
liborius
library
librettist
libretto
libuda
libyen
lice
lich
licht
lichtathlet
lichtathletik
lichtathletin
lichte
lichten
lichtenberg
lichtenfels
lichter
lichtjohren
lichtsta
lidd
liddfo
liddmaat
liddmaaten
liddmaatschap
liddmaten
lidmaat
lie
liebe
lieben
liebermann
liebmann
liechtensteen
liechtensteenschen
liechtenstein
lied
lieden
lieder
liedtke
lief
liegt
liek
lieke
lieken
liekers
lien
lienen
lienwand
lier
lies
liest
lieth
lieutenant
liev
lieven
life
lig
liga
liggen
liggend
liggt
light
like
lili
lilienthal
lillebrænde
lillehammer
lilly
lily
lima
limborg
limburg
limited
limo
lin
lina
linares
lincoln
lincolnshire
linda
lindau
linde
lindemann
linden
lindhost
lindley
lindo
lindow
lindqvist
lindsay
lindsey
lindstro
line
linear
lines
lingen
lingua
linguist
linguistik
linie
link
linke
linken
links
linn
linnaeus
linne
linneln
linnen
lins
lintel
lintig
linus
linux
linz
lio
lion
lionel
lippe
lippen
lippischer
lippisches
lippmann
lipscomb
lisa
lisch
lische
lischer
lise
lissabon
list
liste
listen
liszt
lit
litauen
litauschen
liter
literarisch
literarische
literatur
literature
literaturhistoriker
literaturkritiker
literaturpries
literaturwetenschopper
literaturwetenschopperin
lithium
lithograaf
lithospha
little
littleton
liu
liut
liv
live
liverpool
lives
living
livingston
livingstone
livland
lix
liz
lizenz
lk
lkau
lke
lken
lker
lkersen
lkerung
lkerungsstandes
lkw
ll
llano
lle
llemann
llen
ller
llerdeel
llerdom
llere
lleren
llerich
llern
llernhuus
llers
llig
llige
lligen
lling
lln
llner
llosa
lloyd
llste
llsten
llt
lm
lmehr
lms
ln
lner
lnischen
lo
local
loch
lock
locke
locker
lockhart
lockt
lockwood
lodge
lodi
loeb
logan
loge
logik
logiker
logo
loh
lohe
lohmann
lohmo
lohn
lohner
lohnt
lohse
loir
loire
loiret
lois
lokal
lokale
lokalen
loki
lola
lolland
lombard
lombardei
lombardi
london
londoner
lone
long
longrightarrow
lonnie
loodkup
loof
loog
look
lookout
loomis
loomst
loonborg
loop
loopbahn
loopen
loopka
loopt
looptiet
loos
loov
loovt
lopen
lopes
lopez
lord
lords
loren
lorenz
lorenzo
loriot
lorne
lorraine
los
losgahn
losgeiht
losgu
loss
lossow
lost
lot
lothar
lothringen
lotte
lotto
lou
loudon
louis
louisa
louise
louisiana
louisville
loup
louvre
love
loved
lovell
low
lowe
lowell
lower
lowndes
lox
loy
loyola
lozano
loze
lp
lpe
lpen
lpsarbeider
lpt
ls
lsbarg
lsch
lsche
lschen
lscher
lsdo
lse
lsen
lst
lt
ltd
lte
lten
lter
ltig
ltige
ltigen
ltnis
ltnisse
ltnissen
ltpunkt
lu
lubbock
lublin
luc
luca
lucas
lucca
lucht
luci
lucia
luciano
lucie
lucien
lucius
luck
lucke
lucky
lucy
lude
luden
luder
ludewig
ludger
ludlow
ludolf
ludolph
ludvig
ludwig
ludwigs
ludwigshafen
ludwigslust
luft
luftangreep
luftdruck
luftfuchtigkeit
luftopnahmen
luftwaffe
luftwapen
lugge
luh
luhdo
luhmo
luhn
lui
luigi
luis
luise
luiz
luka
lukas
luke
lully
lum
lumby
lumen
luna
lund
lunde
lundgren
lung
lungen
lungenentzu
lunke
lupus
lust
lustig
lustige
luther
lutherisch
luthersch
luthersche
lutherschen
lutten
lutz
luud
luun
luunst
luut
lux
luxembo
luxemborg
luxemborgsch
luxemborgschen
luxemburg
luzern
luzia
lv
lvarez
lvaro
lve
lven
lver
lvermedaille
lvern
lvig
lvige
lvigen
lvs
lvst
lvsta
lvstmoord
lvstregeerte
lvststa
lvstverlag
lvsverlag
lwl
lwv
ly
lydia
lyle
lymphozyten
lynch
lyndelse
lyndon
lynn
lynx
lyon
lyrik
lyriker
lyrikerin
lysithea
lyø
lz
lzel
lzen
lzer
løjtofte
m
ma
maack
maak
maaken
maakt
maal
maalt
maand
maandag
maande
maanden
maandkrater
maarten
maas
maasen
maat
maateenheit
maateenheiten
maatgevend
mab
mabel
mabilha
mac
macal
macarthur
macaulay
macdonald
macfarlane
macgregor
machen
machine
macht
mack
mackay
macke
mackenzie
macker
mackers
mackinnon
mackintosh
maclean
macleod
macmillan
macnee
macon
mad
madagascar
madagaskar
madame
made
madeira
madeleine
madigan
madison
madonna
madre
madrid
madsen
maeterlinck
mafia
mafioso
mafredi
mag
magazin
magazine
magda
magdalena
magdalene
magee
magen
maggie
magic
magister
maglebrænde
magma
magne
magnesium
magnetfeld
magnitude
magnus
maher
mahfouz
mahlen
mahler
mahndo
mahnke
mahogany
mai
maier
maihofer
maika
mail
mailand
main
maine
mainstream
mainz
maio
mair
maire
mairie
mairien
mais
maizie
majbølle
majesty
major
make
makedonien
makemake
maken
making
makt
mal
malaria
malawi
malaysia
malcolm
male
malediven
malen
maler
maleree
malerin
malers
malerschool
mali
mallet
mallorca
malmo
malo
malone
maloney
mals
malst
malt
malta
malte
malts
malus
man
mana
manabe
management
manager
managerin
manatee
mance
manche
manchester
manchmol
mandaat
mandan
mandat
mandela
mandeville
mandl
manet
manfred
mang
mangan
mangel
mango
manhattan
manila
manitoba
mank
manley
mann
manne
manners
mannheim
mannheimer
manning
mannlu
manns
mannschaft
mannschap
mannschapen
mannschapseuropameesterschapen
mannschop
mannschoppen
mannslu
manny
mano
manor
mansfield
mansijsk
mantel
manuel
manuela
manufacturing
many
mao
mar
mara
maramures
maranha
marathon
marathonlo
marborg
marburg
marc
marcel
marcello
marcelo
march
marchand
marchetti
marco
marconi
marcos
marcus
mare
marek
maren
margaret
margareta
margarete
margaretha
margarethe
margarita
margot
margret
marguerite
mari
maria
marian
marianne
mariano
maribo
marie
marien
marienkark
marija
marilyn
marin
marina
marine
marini
marino
marinus
mario
marion
maritime
maritimes
marius
marjorie
mark
markanten
marke
markeert
marken
markennaam
market
marketing
markgraaf
markham
markmol
markmolen
marko
marks
markt
marktgemeen
marktplatz
markus
marl
marlene
marley
marlow
marmsdo
marne
maro
marokko
marple
marquardt
marquess
marquis
marr
mars
marsalis
marsch
marschalck
marschall
marscheert
marsden
marseille
marsh
marshal
marshall
marskrater
marston
marta
martell
marten
martens
martha
marti
martial
martin
martina
martinelli
martinez
martini
martinique
martins
martinskark
martinson
marty
marvin
marx
marxen
mary
maryland
mas
masch
maschen
maschien
maschinen
maschinenboer
maschinenboinscheno
maschinenfabrik
masculinum
mash
maskall
maskenbillner
maskulin
mason
masowien
mass
massachusetts
massaker
masse
massen
massenstart
massenstartrennen
massimo
massiv
mast
master
masters
masuren
match
mate
maten
mateo
mateos
materiaalwetenschopper
material
materialen
materialien
materie
mathbb
mathemaatsch
mathematik
mathematiker
mathematikerin
mathematisch
mather
matheson
mathias
mathieu
mathilde
mathis
mathrm
matit
mato
matrix
matt
matteo
matter
mattfeld
mattha
matthes
matthew
matthias
matthies
mattho
matti
mattingly
mauch
maud
mauer
maureen
maurer
mauretanien
mauri
mauriac
maurice
mauricio
maurismaur
mauritius
mauro
maury
maus
mawson
max
maxim
maximal
maxime
maximilian
maximus
maxwell
may
maya
mayen
mayenne
mayer
mayerhofer
maynard
mayo
mayor
mayotte
mayr
mayrhofer
mays
mb
mbillnerin
mbo
mboot
mborg
mborger
mbovit
mbringen
mbro
mbrocht
mbu
mc
mcarthur
mcbride
mccain
mccarthy
mccartney
mcclelland
mcclure
mcconnell
mccord
mccoy
mcdonald
mcdougall
mcfadden
mcfarland
mcfarlane
mcgee
mcghee
mcgill
mcgovern
mcgowan
mcgrath
mcgregor
mcintosh
mcintyre
mckay
mckee
mckenna
mckenzie
mckinley
mclane
mclean
mclennan
mcleod
mcmahon
mcmillan
mcmurdo
mcnair
mcnally
mcnamara
mcpartland
mcpherson
mcqueen
mcrae
md
mdat
mde
mden
me
meade
meadows
mechaansch
mechaansche
mechanik
mechaniker
mechanismus
mechthild
meckelnborg
meckels
mecklenburg
med
medaille
medaillen
medal
medalljo
medeloller
media
medical
medici
medicine
medien
medienmanager
medienwetenschopper
medina
medium
medizin
mediziner
medizinerin
medizinhistoriker
medizinisch
medizinische
medizinischen
medizinsche
medizinstudium
medsien
meen
meenen
meent
meenung
meer
meere
meeschfatt
meest
meeste
meesten
meestens
meester
meesterin
meesterschap
meesterschapen
meesterschoppen
meestertitel
meet
meetarbeiden
meeten
megaclite
megan
meh
mehdo
mehedint
mehl
mehm
mehnert
mehr
mehrdu
mehrere
mehreren
mehrfack
mehrfak
mehrheit
mehrkamp
mehrmals
mehrmols
mehrst
mehrsten
mehrstendeels
mehrsttiets
mehrtall
meideborg
meier
meijer
meilsen
mein
meine
meinel
meinem
meinen
meiner
meiners
meines
meisner
meist
meiste
meisten
meister
meißen
meißner
meji
mekelbo
mekelborg
mekelnborg
mel
melanchthon
melanie
melbourne
melcher
melchers
melchior
melchor
meld
meldo
meldung
mele
melinda
melissa
melk
melkprodukt
melkstraat
melle
mellgenhusen
mellt
melo
melodie
melodien
melolontha
melville
melvin
member
members
membran
memel
memento
memmingen
memoiren
memorial
memory
memphis
men
mena
mende
mendel
mendelssohn
mendoza
menen
mengde
mengden
mengen
menke
mennig
mennoniten
mennonitenplattdu
mensch
menschen
menschheit
mensching
mensing
ment
mentor
mentzel
menzel
menzies
meppen
mer
mercedes
mercer
mercia
mercier
merckle
merckx
mercosur
mercury
mercy
meredith
merkel
merkur
meroitsch
merrick
merrill
merritt
merrn
mers
mersch
merteler
mertens
mertesacker
merton
mertz
mervyn
merz
mes
mesa
mesborg
mescalero
meschacht
mesonen
mesopotamia
mesopotamien
mess
messe
messen
messengers
messias
messier
messner
mestizen
met
meta
metal
metall
metallen
metallsch
metallurg
metaphysik
metcalf
metcalfe
meten
meteorit
meteoriten
meteoroiden
meteorologie
meteoroloog
meter
metern
meters
meth
methan
methode
methoden
methood
metis
metro
metropolitan
metz
metzendo
metzger
metzler
metzner
meurthe
meuse
mev
mevenst
mex
mexico
mexikaansch
mexikaansche
mexikaanschen
mexiko
meyenborg
meyer
meyerbeer
meyerhoff
meyers
meyn
mez
mezger
mfaat
mfang
mfaten
mfeld
mg
mgahn
mgang
mgangsspraak
mgegend
mgeven
mgm
mi
mia
miami
mich
michael
michaela
michaelis
michaels
michaelskark
michail
michailowitsch
michal
michalski
michel
michelangelo
michele
michelle
michels
michigan
michoaca
mick
mickey
microsoft
mid
midd
midde
middel
middelamerika
middelengelsch
middeleuropa
middelfart
middelfeld
middelfeldspeler
middelfranken
middellannsche
middelma
middelmeer
middelnedderdu
middelo
middeloller
middelpunkt
middels
middelschool
middelsdo
middelzentrum
midden
midderwielen
middfu
middju
middle
middlere
middleren
middlesex
middleton
middletown
midi
midnight
midway
mie
miegro
miel
mielen
mielke
mien
mienenbu
miesbach
miet
mieten
mifflin
miguel
miha
mikael
mike
miklo
mikrobioloog
mikronesien
mikroskop
mila
milan
milde
mildred
mile
miles
milford
milhous
milita
military
mill
millard
millbu
miller
millet
milliarden
milligan
millimeter
millimeters
million
millionen
milljonen
millm
mills
milner
milos
milt
miltenberg
milton
min
minas
mind
mindelo
minden
mindst
mine
mineral
mineralen
mineralien
mineralogie
mineraloog
ming
mingus
mini
minireeg
minister
ministeriaalbeamten
ministerien
ministerium
ministerpra
ministers
ministry
minn
minna
minne
minneapolis
minnen
minner
minnerheit
minnerheiten
minnern
minnert
minneseeren
minneseert
minnesota
minor
minsch
minschen
minschenrechte
minschenrechten
minschenrechtsaktivist
minschheit
minschlich
minschliche
minschlichen
minsk
minsken
minst
minu
minuten
minuut
minuuten
mio
mioza
mir
mira
miranda
miriam
mirko
miroslav
misch
mische
mischen
mischt
mischung
misiones
miss
misschoon
misselwarden
mission
missionar
missionen
missionsspezialisten
mississippi
missouri
mistral
mit
mitarbeider
mitarbeiders
mitarbeit
mitarbeiter
mitarbeiters
mitbegru
mitchell
mitdeelt
miteens
mitenanner
mitglieder
mitgru
mitkregen
mitmaakt
mitmaken
mitnahmen
mitnanner
mitochondern
mitspeelt
mitspelen
mitt
mittag
mitte
mitteilungen
mittel
mittelalter
mittelalters
mitteleuropas
mittelniederdeutsches
mittelskark
mittelsnohn
mittlere
mittlerwiel
mitu
mitwarken
mitwarkt
mixed
miłosz
mk
mkamen
mkenmoor
ml
mlich
mliche
mloop
mloopbahn
mloopbahnen
mlooptiet
mlpd
mm
mme
mmel
mmen
mmer
mmerer
mmerhoff
mmern
mmers
mmerspelen
mmert
mmingen
mmling
mms
mmt
mmte
mmten
mneme
mno
mo
mobile
modder
mode
model
modell
modellen
models
moder
moderater
moderator
moderatorin
modereert
modern
moderne
modernen
modersohn
moderspraak
modervader
modiano
modifikatschonen
modifikatschoon
moe
moglobin
mohamed
mohammed
mohawk
moho
mohr
moi
moin
moken
mokt
mol
moldau
moldawien
moldovan
mole
molecular
moleku
molekularbioloog
molekulare
molen
molie
molina
moll
molly
molna
molt
molteree
moltke
momang
moment
mommsen
mon
mona
monaco
monarkie
mond
monde
monet
money
mongolei
monica
monika
monk
monkey
monod
monroe
mons
mont
montagne
montague
montale
montan
montana
monte
monteiro
montenegro
monterey
montero
monteverdi
montevideo
montfort
montgomery
montigny
montreal
montreuil
montserrat
monty
monument
mood
mooddesigner
moody
mookt
mool
moon
mooney
moonraker
moor
moorborg
moord
moordo
moore
moorenn
moorhusen
mooringen
moorkolonie
moorliek
moot
mopan
mora
moral
morales
moran
morave
moravec
moray
moraza
morbihan
mord
more
moreau
morello
morelos
moreno
moretti
morey
morgan
morgen
morgens
morgenstern
morisot
moritz
morley
morlock
morning
morphologie
morphy
morris
morrison
morrow
morsen
morten
morton
mosambik
moschee
mose
mosel
moseley
moselle
moser
moses
moskau
moskauer
moslems
mosler
moss
most
mostaas
motagua
mother
motian
motion
motiv
motive
motiven
motor
motorrad
motorradrennfohrer
motors
mott
motte
motten
motto
moulton
mound
mount
mountain
mountains
mouse
movement
movie
movies
mowbray
mower
moya
mozart
mp
mpe
mpel
mpen
mper
mpfe
mpfer
mpferin
mpt
mr
mrd
mrebeed
mrs
ms
msatz
msch
msche
mschen
mschrift
msen
msett
msetten
msta
mstand
mstellt
mstreden
mt
mtagen
mte
mten
mter
mtliche
mto
mtobringen
mtosetten
mtv
mu
mubarak
much
muck
mudder
mudderspraak
mueller
muenster
muer
muern
muggen
muhammad
mulberry
mulder
mull
mullen
mulligan
mullins
mulmshoorn
mulsen
mun
mund
mundart
mundarten
mundell
mundwarktu
munici
municipio
municipios
munkebjerg
munro
munsee
munste
munster
munteanu
munthe
murad
murat
murchison
murder
mures
murillo
murphy
murray
mus
musa
musculus
muse
museen
musen
museum
museums
museumsbaas
museumsdirekter
music
musical
musicaldorsteller
musik
musikaalsch
musikaalsche
musikalbum
musikalisch
musikalische
musikalischen
musikdirekter
musiker
musikerin
musikern
musikers
musikgrupp
musikhistoriker
musikjournalist
musikkritiker
musiklehrer
musikoloog
musikpa
musikproduzent
musikschriever
musikstu
musiktheoretiker
musikverlag
musikverleger
musikwetenschopper
musikwetenschopperin
musil
musique
muskeln
muskogee
muskulatur
muslimen
muss
musse
musseln
mussen
mussolini
mustafa
muster
mut
mutt
mutter
muus
muß
mw
mwanneln
mwannelt
mwelt
mweltschu
my
myanmar
myers
mykoloog
myon
myrtle
mystery
mystiker
mythen
mythologie
mythos
mærsk
møller
møre
n
na
naam
naamen
naamgever
naams
naamt
naberspraken
nableven
nach
nachrichten
nacht
nachts
nacional
nacken
nad
nadah
nadem
nadine
nadja
naef
nafolgen
nafolgend
nafolger
nafolgers
nafraag
nagano
nagel
nah
nahdem
nahderhen
nahderhenn
nahdruck
nahe
naher
nahfolge
nahfolgend
nahfolger
nahkommen
nahmen
nahnanner
nahricht
nahroop
nahst
nahwies
nahwiesen
nahwiest
naipaul
nairobi
nakamen
nakeken
nakelte
nakieksel
naklapp
nalaten
naleest
nam
name
named
namen
namens
names
namibia
namiddags
nancy
nanner
nansen
nao
napole
napoleon
naranjo
narbn
narciso
naricht
narichten
narichtendeenstler
naroop
naru
nasa
nash
nashville
nassau
nast
nat
natal
natalie
natalja
nathalie
nathan
nathaniel
nation
national
nationalbibliothek
nationalbu
nationale
nationalsozialismus
nationen
nations
native
nato
natrium
natschonaalpark
natschonaalversammlung
natschonal
natschonalbo
natschonale
natschonalen
natschonalflagg
natschonalliberale
natschonalmannschap
natschonalmannschop
natschonalpark
natschonalsozialismus
natschonalsozialisten
natschonalspeler
natschonen
natschoon
natt
natu
natur
natural
naturbahnrodler
naturbuch
nature
naturforscher
naturschu
naturschutz
naturschuul
naturschuulrebeden
naturschuulrebeed
naturwetenschoppen
naturwetenschopper
natuur
nau
naue
nauer
nauigkeit
naumann
nauru
naval
navarra
navarro
naver
navergemenen
navero
navers
navra
navy
nawahl
nawies
nawiesen
nawiest
nazareth
nazi
nazis
nb
nbc
nberg
nbeudel
nborg
nbr
nchen
nchener
nchengladbach
nchez
nchhausen
nchmeyer
nchner
ncipe
nd
ndb
nde
ndel
ndels
nden
nder
ndern
nderung
nderungen
ndez
ndig
ndige
ndigen
ndigung
ndin
ndisch
ndische
ndischen
ndler
ndlerin
ndlich
ndliche
ndnis
ndor
ndr
nds
ndsch
ndschop
ndsk
ndt
ndung
ne
nea
neal
neamt
neander
neanderdaler
neapel
near
nebbelunde
nebeck
nebel
neben
nebenbi
nebraska
nebst
neburg
neckar
necke
ned
nedderbayern
nedderdu
nedderelv
nedderelvbahn
nedderenn
nedderla
nedderlaag
nedderlagen
nedderlandsch
nedderlandsche
nedderlandschen
nedderlannen
nedderlannsch
nedderlannsche
nedderlannschen
nedderrhien
neddersakssch
neddersass
neddersassen
neddersassenhuus
neddersassisch
neddersassische
neddersassischen
nedderschlesien
neddersla
nedderslag
nedderstreek
nederland
nederlandse
nedersaksiese
nedersaksisch
nee
neebo
neebruunswiek
neefeld
neefundland
neeg
neegd
neegraven
neegste
neegsten
neegt
neeguinea
neehoff
neehuus
neejohr
neekark
neeklooster
neeland
neelannermoor
neemlich
neemo
neen
neenborg
neendamm
neendiek
neenhusen
neenkarken
neenkerken
neenkroog
neenlann
neenslu
neer
neernabargen
nees
neeschottland
neeseeland
neeseelandsche
neeseelandschen
neespanien
neestadt
neet
neetiet
neetral
neetz
neeutgaav
nef
neff
neffe
neffen
negativ
negative
negen
negente
negenten
neger
negra
negri
negro
neher
nehm
nehmen
nehmt
nehren
nehrmiddel
neiht
neil
neill
nek
nelson
nemann
nemo
nen
nenad
nengraff
nennt
neo
neogen
neon
nepal
nepomuk
neptun
neptune
neptunium
ner
nereid
neren
nero
neruda
nerven
nervensystem
nervus
nes
ness
nest
nester
net
nett
nettflunken
nettwark
network
neu
neuber
neuburg
neue
neuen
neuer
neues
neueste
neugebauer
neuhaus
neuimin
neukirch
neukirchen
neumann
neumarkt
neumayer
neumu
neuner
neunkirchen
neureuther
neurobioloog
neurologie
neuroloog
neurowetenschopper
neuss
neustadt
neustrien
neutral
neutrino
neutrinos
neutron
neutronen
neutrum
neuville
neuwied
neuwirth
neuzeit
nevada
nevel
neven
nevendorsteller
nevendorstellerin
nevendorstellersche
nevenklo
nevenrull
nevenrullen
nevenwirken
never
neville
nevis
new
newark
newcastle
newell
newman
newport
news
newton
next
nez
nf
nfeld
nftig
ng
ngc
ngde
nge
ngel
ngen
nger
ngere
ngeren
ngerin
ngern
ngers
ngert
ngig
ngige
ngigen
ngigkeit
ngjang
nglich
ngliche
nglichen
ngnis
ngs
ngst
ngste
ngsten
ngt
nh
nheit
nhusen
ni
nia
nic
nica
nicaragua
niccolo
nice
nich
nicholas
nicholls
nichols
nicholson
nicht
nichte
nichts
nick
nickel
nicks
nico
nicola
nicolai
nicolas
nicolau
nicolaus
nicole
nie
niederdeutsch
niederdeutsche
niederdeutschen
niederdeutsches
niederelbe
niedero
niedersa
niedersachsen
nieg
niege
niegen
niegseeland
niels
nielsen
niemann
niemeyer
niemo
niemu
nien
nienborg
niendo
nienich
niestadt
niethammer
nietzsche
niewohl
nig
nige
nigel
nigen
niger
nigeria
night
nigin
niglich
nigliche
niglichen
nigreich
nigreichs
nigriek
nigrieken
nigsbarg
nigshoff
nigshuus
nigslutter
nigsmarck
nigsmoor
nik
niklas
nikola
nikolai
nikolaj
nikolajew
nikolajewitsch
nikolaus
nikolic
nil
nils
nilsson
nim
nimmt
nimo
nimoy
nimrod
nimzowitsch
nin
nina
nincop
nindo
nine
ning
ningh
ninndo
nino
nio
nip
nipp
nis
nisch
nissen
nitsch
nitsche
nitz
niveau
nix
nixon
nizza
nj
njeshusen
nk
nkarken
nke
nken
nkt
nl
nland
nlandschen
nlich
nliche
nlichen
nlichkeit
nlichkeiten
nlp
nls
nm
nmark
nn
nnavend
nnd
nndag
nndu
nne
nnen
nnenku
nner
nnerbraken
nnerbreeken
nnerbreken
nnerbro
nnerbrocht
nnerbroken
nnerdeelt
nnerdelen
nnerdoma
nnerdru
nnere
nnerelv
nneren
nnerenanner
nnerfranken
nnergahn
nnergang
nnergrund
nnerhalv
nnerheit
nnerhollen
nnerholt
nnerhuus
nnericht
nnerin
nnerkamen
nnerkregen
nnerlagen
nnerleegen
nnerlich
nnerliche
nnerlichen
nnern
nnernehm
nnernehmen
nnernehmens
nnernehmensberader
nnernehmensgrupp
nnernehmer
nnernehmerin
nnernommen
nnerpries
nnerricht
nnerrichten
nners
nnerscheden
nnerscheed
nnerscheeden
nnerscheedlich
nnerscheedliche
nnerscheedlichen
nnerscheedt
nnerscheidlik
nnerschreeven
nnerschreven
nnersett
nnersiet
nnerso
nnersocht
nnerspeel
nnerspelen
nnerst
nnersta
nnerste
nnerstellt
nnersto
nnerstu
nnert
nnerte
nnertekent
nnerwegens
nnerwelt
nnhusen
nnich
nnies
nnig
nnige
nnigen
nniger
nnigkeit
nnigt
nnlich
nnliche
nnlichen
nnlicht
nnmassen
nnsch
nnsche
nnschen
nnsystem
nnt
nnte
nnten
nnwind
no
noah
nobel
nobelpreis
nobelpries
nobelpriesdra
nobelprize
noble
noch
nochmal
nochmals
nochmol
noe
noel
noh
nolte
nom
nombre
nome
nomen
nomenklatur
nominativ
nomineeren
nomineert
nommen
non
noog
noord
noordafrika
noordamerika
noordamerikaansche
noordamerikaanschen
noorddu
noordeirschen
noorden
noordeuropa
noordfreesch
noordfreesland
noordfu
noordholt
noordirland
noordkeden
noordkorea
noordku
noordmakedonien
noordo
noordoost
noordoosten
noordosten
noordpool
noordrand
noordrhien
noordschen
noordsee
noordseeku
noordsied
noordwest
noordwestdu
noordwesten
noordwestlich
noordwestmekelborg
noorweegsch
noorweegsche
noorweegschen
noorwegen
noorwegsch
noot
nor
nora
norbert
nord
nordahn
nordatlantik
norddu
norden
nordenham
norderstedt
nordhausen
nordischen
nordland
nordlunde
nordrhein
nordsee
nordwesten
norfolk
norm
norma
normal
normale
normalen
normalerwies
norman
normandie
normannen
normdaten
normen
normolerwiese
norris
norte
north
northampton
northeim
northern
northrop
northumberland
northumbria
northwest
norton
norvo
norway
norweegsch
norweegsche
norweegschen
norwegen
norweger
nos
not
notar
note
noteert
noten
notes
notizen
notre
nottensdo
nottingham
notwennig
nov
nova
novalis
nove
november
novo
novotny
now
nowgorod
np
npd
nr
nrw
ns
nsch
nsche
nschen
nscht
nsdap
nse
nst
nste
nsten
nster
nsterla
nsterland
nsterlannsch
nstig
nstler
nstlerin
nstlerisch
nstlerische
nstlernaam
nstlers
nstlich
nstliche
nstlichen
nsto
nt
nte
ntefering
nten
nter
ntgen
nther
ntida
ntjes
nto
ntsied
ntu
nu
nuclear
nueva
nuevo
nul
null
number
numeral
numismatiker
nummer
nummern
numms
nun
nunatak
nunatakker
nunavut
nung
nuordrien
nur
nuremberg
nutied
nutiet
nutt
nuurten
ny
nyborg
nykøbing
nymphe
nymphen
nynorsk
nysted
nz
nzburg
nzen
nzer
nzt
nzte
nzz
næra
næsby
næsbyhoved
nøbbet
nørre
o
oaaaacaaj
oak
oakes
oakland
oakley
oaks
oara
oates
oaveriessel
oaxaca
ob
obama
obbens
oben
ober
oberallga
oberamtmann
oberbergschen
obergericht
oberhausen
oberhof
oberhofer
oberlandsgericht
oberliga
oberndorf
obero
oberon
oberpfalz
obers
oberschool
oberst
oberstleutnant
objekt
objekte
objekten
oblast
oboenspeler
obrego
observatorium
observatory
ocampo
ocean
ochenhusen
ochlerotatus
ochoa
ock
octavian
october
octopus
octopussy
oddingen
odell
odense
oder
odersen
odessa
odeweg
odoaker
odore
odyssee
oe
oederquart
oerel
oertzen
of
ofb
off
offenbach
offensive
offenwarden
offenwardermoor
office
officer
official
offizeer
offiziell
offizielle
offiziellen
offizier
offshore
offzeer
ofschons
ofschoons
ofschoonst
oft
og
ogden
ogen
ogenblick
ogendokter
ogg
ogle
ognd
oh
ohio
ohlendo
ohlendorf
ohlenst
ohlers
ohm
ohn
ohne
ohnsorg
ohr
ohrel
ohren
ohrensmoor
ohrenswohl
ohrsen
oi
ois
oise
ojc
ok
oklahoma
okres
oktober
ol
ola
olaf
olanchito
olancho
olav
olbers
olbricht
old
olden
oldenborgsch
oldenbourg
oldenburg
oldenburger
oldfield
ole
oleg
olen
olenbrook
olenbu
olendiek
olendo
olenwoold
olga
olimpbase
olive
oliveira
oliver
olivia
olivier
oll
olle
ollen
ollenborger
ollendo
oller
ollern
ollnbo
ollnborg
ollnborger
olms
olndo
olof
ologen
ologie
ologin
ologisch
oloog
oloogsche
olpe
olsen
olstrup
olt
oltmanns
olympia
olympiasieger
olympiasiegerin
olympic
olympisch
olympische
olympischen
olympsche
olympschen
om
omaha
oman
omar
omega
omer
omloop
ommo
omoa
on
one
onkel
online
onlineprojekt
only
onno
ons
onslow
ontario
ontologie
ontoloog
oog
oogen
ook
ool
oold
ooldfreesch
ooldgr
ooldgreeksch
ooldhistoriker
ooldhoogdu
ooldklooster
ooldnoorsch
ooldorientalist
ooldphiloloog
ooldsass
ooldsassische
ooldstadt
oolland
oolluunbarg
oolstadt
oolt
ooltgreeksch
ooltgreeksche
ooltstadt
oolwarder
oord
oordeel
oorden
oorknall
oorkunn
oorkunnen
oorntlich
ooropfo
oorsaak
oorsaken
oorspru
oorsprung
oorssen
oort
oorten
oortsbo
oortschap
oortsche
oortschop
oortschoppen
oortsdeel
oortsdeelen
oortsdelen
oortsnaams
oortsraad
oortsschiller
oortsvo
oorwoold
oost
oostafrika
oostantarktika
oosten
oostendo
ooster
oosterbrook
oostereis
oosterenn
oosterholt
oosterholter
oostern
oosterndo
oostersood
oosterstood
oostertimk
oostervees
oosterweed
oosteuropa
oostfr
oostfreesch
oostfreesche
oostfreeschen
oostfreeske
oostfreesland
oostholsteen
oostku
oostnordseeplattdu
oostpreußen
oostpru
oostrand
oostro
oostsee
oostsied
oosttimor
oostvaagdie
op
opbo
opboet
opboot
opdecken
opdecker
opdeckt
opdeelt
opdrag
opduken
ope
open
oper
opera
operation
operatorname
operatschonen
operatschoon
opereert
operette
opern
opernsa
opfaat
opfallen
opfer
opfo
opfohrt
opfohrten
opfu
opfunnen
opgaav
opgahn
opgaven
opgeven
opgrepen
ophelia
opho
ophollen
opkamen
opkla
opko
opl
oplaag
opletzt
oplo
opmaakt
opnahm
opnahmen
opnehmen
opp
oppeln
opper
oppermann
oppers
oppositschoon
oprecht
opropen
opschreven
opsetters
opsicht
opsichtsraad
opslag
opsmo
opsta
opstand
opstaut
opstegen
opstellen
opstellt
opstiegen
opstunns
opteken
optekent
optical
optik
optiker
optisch
optische
optischen
optreckwetenschopper
optreden
optritt
opus
opwa
opwand
opwassen
opwiesen
opwiest
opwossen
opwussen
or
orange
oranien
oranje
oratorium
orbit
orbital
orbitalen
orbiter
orchester
orchesterbaas
orchestra
ord
ordbog
orden
ordensgeistlichen
ordensgru
ordentlich
order
orders
ordnung
ore
oregon
orf
org
orgaansch
orgaansche
orgaanschen
organ
organe
organellen
organen
organisation
organisatschonen
organisatschoon
organische
organiseert
organismen
organismus
organist
organistin
organization
orgasmus
orgel
orgeln
orgelspeler
orhan
orient
oriental
orientales
orientalist
orienteeren
orienteert
orientwetenschopper
orig
origin
original
originaldreihbook
originalschriften
originaltitel
orion
orkneyeilannen
orlando
orle
orleans
orlow
orne
ornen
ornette
ornitholoog
oro
orozco
ort
orte
ortega
orthodoxe
orthodoxen
orthopa
orthoptera
orthosie
ortiz
orts
ortschaften
ortsverzeichnis
orville
os
osage
osborne
oscar
oscars
oscarvergaav
osenhorst
oskar
oslo
osmaansche
osmanen
osmium
osnabru
osrblie
ossen
ossenbru
ost
ostallga
oste
osten
oster
osterholz
ostermann
osteuropa
ostfa
ostfriesen
ostfriesische
ostfriesischen
ostfriesischer
ostfriesland
ostfrieslands
ostgoten
ostroe
ostrom
ostsee
oswald
ot
oterndo
other
otis
otoxha
ott
ottawa
otten
ottenbeek
ottendo
ottens
otter
otterbarg
otterst
otterup
ottmar
otto
ou
ouen
our
out
ouvertu
ov
ova
over
overbeck
overeen
overnahmen
oversett
oversetten
overton
owen
owens
own
ox
oxford
oxfordshire
oxid
oxidatschoon
oxidatschoonsstoop
oxideert
oz
ozean
ozeanen
ozeanien
ozeanograaf
ozon
p
pa
paane
paapst
paar
paare
paarung
paarup
paavst
pablo
pac
pacheco
pacific
padd
paddy
paderborn
padilla
padingbu
padua
page
pagenstecher
pages
paget
pageview
paige
pakistan
pal
pala
palace
palacio
palacios
palais
palast
palau
palermo
palin
palisa
palladium
pallas
palm
palma
palmar
palmare
palmer
palmerland
palo
palz
pamela
pamuk
pan
panama
pandia
pandora
pann
panne
panzer
paolo
papa
pape
papeer
papen
papers
papier
pappenheim
papst
papua
par
para
parade
paradies
paradise
paraguay
paraguayschen
parai
paraiso
parallel
parameters
paramount
parana
parasiten
parchen
pardo
paredes
parey
paris
pariser
parish
parisi
park
parker
parks
parlament
parlamentarier
parlamentswahl
parlamentswahlen
parma
parnell
parodie
parra
parrns
parsons
part
partei
parteibaas
parteidag
parteien
parteifunkschona
partein
parteivo
partement
partenkirchen
particle
partido
partie
partien
partikel
partikels
partisanen
partizip
partner
partners
partnerschop
party
pas
pasadena
pascal
pascha
pasiphae
pasithee
paslow
pass
passage
passageerschipp
passau
passeer
passeeren
passeern
passeert
passen
passert
passion
passt
past
paster
pasternak
pasteur
pastoor
pastor
pastoren
pat
patchacan
pate
patent
pater
paterson
patholoog
patient
patienten
patmos
paton
patriarch
patrice
patricia
patrick
patrimonialgericht
patt
patten
patterbuorn
patterbuorner
patterson
patti
patton
patty
pauer
paul
paula
pauli
pauline
paulo
pauls
paulsen
paulus
pauly
paus
pavel
pavlovic
pawel
pawlowitsch
pawnee
payne
paz
pazifik
pb
pbub
pd
pdf
pe
peace
peacock
peak
peaks
pearce
pearl
pearson
pease
pech
pechstein
peck
peden
pedersen
pedro
pee
peebles
peel
peer
peerd
peerko
peeters
pegel
peggy
peiffer
peking
pekka
pel
pelham
pelle
pellegrini
peln
peloponnes
pembroke
pen
penguin
penis
penn
penner
pennigbu
pennington
pennsylvania
penny
penrose
pension
people
pepper
per
peralta
percival
percy
perdita
perdomo
pereira
peres
perfect
perfekt
perfesser
perfessers
performance
perho
perihel
perin
period
perioden
periodensystem
periodical
periood
perkins
perkussionist
perl
perm
pero
perrin
perry
pers
perse
perserriek
persers
perseus
persien
perso
person
personal
personalities
personalpronomen
personalunion
personen
personennaamdatei
personenso
personenverkehr
persoon
perspektiven
perth
perthes
peru
peruaansch
peruaansche
peruaanschen
perzent
perzess
peschel
peschke
pest
petar
pete
peter
peters
petersborg
petersburg
petersen
petershollen
peterson
petit
petkovic
petr
petra
petri
petrosjan
petrovic
petrowitsch
petrus
pettiford
petzold
pez
pf
pfaffenhofen
pfalz
pfeiffer
pfeil
pfer
pflug
pfner
pforzheim
pforzheimer
pg
ph
pha
phaas
phane
pharao
pharmakoloog
pharmazeut
pharmazie
phase
phasen
phd
phelps
phi
phil
philadelphia
philanthroop
philanthropin
philibert
philip
philipp
philippe
philippiensche
philippienschen
philippinen
philipps
philippus
philips
phillip
phillips
philologie
philologin
philoloog
philophrosyne
philosofin
philosoof
philosoph
philosophen
philosophical
philosophie
philosophische
pho
phobos
phoenix
phosphor
photon
photonen
php
phylogeny
phys
physical
physics
physik
physikaalsch
physikaalsche
physikaalschen
physikalisch
physikalische
physiker
physikerin
physikochemiker
physiologie
physioloog
pi
pia
piaf
pianist
pianisten
pianistin
piano
picard
picasso
pichler
pickering
pickstock
pico
picture
pictures
pie
piel
pieldintenfische
pielliek
piemont
pien
piep
piepen
pier
pierce
piero
pierre
piet
pieter
pietro
pietsch
pig
pige
pike
pilar
pilatus
pilkmann
piloot
pilot
piloten
pimentel
pin
pine
ping
pingsten
pinheiro
pink
pinnbarg
pint
pinter
pinto
pio
pioneer
pionier
piotr
piotrowski
piper
pippin
pirandello
piraten
pires
pisa
pistool
pitcairn
pitt
pitts
pittsburgh
pius
pizarro
pjo
pjotr
pke
pl
pla
plaan
plaans
plaant
plaante
plaanten
plaat
place
placencia
placid
plack
placken
plains
plan
planck
planen
planet
planetary
planeten
plank
plant
plantaaschen
plantagen
plantagenet
plante
planten
plantennaams
planung
plasma
plastik
plata
plate
plateau
platen
platentektonik
platin
plato
platon
platt
plattdeutsch
plattdeutsche
plattdeutschen
plattdeutsches
plattdu
plattduitsken
platte
platten
plattenfirma
plattform
plattmakers
platz
platzeeren
platzen
plaut
plautdietsch
plauttdietsch
play
playa
playboy
player
plays
pleasant
pleeg
pleegt
plegen
pleistoza
plicht
plichten
plichtfu
plioza
plo
ploog
plu
plummer
plunkett
plural
pluralform
plus
pluto
plutonium
plymouth
pm
pmid
po
pockwitz
podest
podium
poe
poesie
poet
poggmo
pogue
pohl
pohle
pohlmann
point
poire
poite
pokal
pokalsieger
pokalwinner
pokerspeler
pokljuka
pol
polar
polarforscher
pole
polen
police
policy
polietsch
polietsche
polietschen
politaktivist
political
politics
politik
politiker
politikerin
politikers
politikersche
politikwetenschopper
politikwetenschopperin
politisch
politische
politischen
politoloog
polizei
polizeibeamten
polizeioffzeer
polizeipra
polizist
polizisten
polk
poll
pollack
pollard
pollen
pollock
polonium
polydor
pommern
pommersche
pomona
pompeius
pond
pons
pont
pontiac
pontifikat
pontoppidan
pool
poolbillardspeler
poolsch
poolsche
poolschen
poor
pop
pope
popescu
popmusik
popowitsch
popp
poppe
poppen
poppenspeler
popper
popula
popular
popularita
population
populatschonen
populatschoon
porcellio
poren
pornodorsteller
pornodorstellerin
port
porta
portage
portal
porter
portia
portland
porto
portra
portrait
portsmouth
portugal
portugeesch
portugeesche
portugeeschen
porvenir
posaunspeler
posch
poseidon
posen
positiv
positive
positschonen
positschoon
post
postbeamten
postdo
posten
posterior
posthum
posthusen
postum
potential
potosi
potsdam
pott
potter
poul
poulsen
pour
powell
power
powers
powiat
pozzi
pp
ppe
ppel
ppelt
ppeltitel
ppen
pper
ppers
ppm
ppner
ppt
ppwark
pr
pra
praat
praetorius
prag
prager
prahova
praia
prairie
praktisch
praktische
praten
pratt
praxidike
praxis
pre
precht
preddiger
prediger
predigt
predigten
preester
preis
premier
premiere
premierminister
premierministers
prescott
presidency
president
presidential
presley
presque
press
presse
pressemitdeelen
prestige
preston
prestrud
preussischen
preuß
preußen
preußisch
preußische
preußischen
preyer
pri
price
pride
pries
priesdra
priesen
priesgeld
priest
priester
priestley
prignitz
prima
primary
primaten
prime
primus
prince
princeton
prins
print
prinz
prinzen
prinzessin
prinzip
prinzipien
prior
prisma
pritchard
privaat
privat
private
privaten
prix
prize
pro
problem
probleme
problemen
probst
proceedings
proctor
production
productions
produkschonen
produkschoon
produkschoonsfirma
produkt
produkte
produkten
produktion
produktschoon
produzeeren
produzeert
produzent
produzenten
produzentin
prof
professer
professionell
professor
professur
profi
profil
profile
profis
program
programm
programme
programmen
progreso
progressive
progresso
project
projekt
projekte
projekten
prokop
prolog
prometheus
promotschoon
promoveert
pronomen
proov
proovst
proovstie
propaganda
properties
prophet
propheten
proportschoon
propyla
prosa
prosper
prospero
protagonisten
protein
proteine
proteinen
protest
protestanten
protestantsche
protestantschen
protesten
proteus
proto
protokoll
proton
protonen
protour
proven
provence
providence
provinz
provinzen
provinziallanddag
prozent
prozess
prozesse
pru
prudhomme
ps
psalm
psalmen
psalter
psen
pseudonym
pste
pstlich
pstliche
psychiater
psychiatrie
psychoanalytiker
psychoanalytikerin
psychologie
psychologin
psycholoog
psychotherapeut
pt
ptolema
ptolemaios
pu
puberta
public
publications
publiek
publikatschonen
publikatschoon
publikum
publishers
publishing
publius
publizeert
publizist
publizistin
puck
puebla
pueblo
puente
puerto
puget
pula
pulaski
pulver
pulvermo
pumpt
pund
punk
punkt
punkte
punkten
punktera
punktewertung
punta
pup
purcell
pure
purmunt
purple
putin
putnam
putsch
puunsen
puy
pyramid
pyre
pyrena
pyrit
pyrmont
python
q
qaaaacaaj
qtzdaqaamaaj
qua
quadratkilometer
qualifikatschoon
qualifizeeren
qualifizeert
qualita
quantenmechanik
quantum
quark
quarks
quarta
quartet
quartett
quartier
quarz
quasi
quasimodo
quast
quater
quatoriaal
quatre
que
quebrada
quechua
quecksu
quedens
queen
queens
queensland
quelkhoorn
quelle
quellen
quentin
quere
quernheim
quest
quez
qui
quick
quickborn
quincy
quinn
quintana
quintero
quintett
quirnheim
quiroga
r
ra
raab
raabe
raad
raadhuus
raadsherr
raakt
raasch
raat
raatgever
raathuus
raaß
rabbiner
rabe
raben
race
raceid
rachel
racine
rad
radar
radcliffe
rade
rademacher
raderer
radford
radikal
radio
radioaktiv
radioaktive
radioaktiven
radioaktivita
radioloog
radium
radius
radon
radrennen
radrennfohrer
radrennfohrerin
radsport
radsportler
radsportlerin
radsportseiten
radsted
radtke
radziwill
rae
raf
rafael
raffaele
ragnar
rahmen
rahn
railway
raimund
rain
rainbow
rainer
rajon
rakete
raketen
ralf
rallyefohrer
ralph
ramels
rami
ramirez
ramm
ramo
ramon
ramos
ramsauer
ramsay
ramsey
ramus
ramßel
ran
rana
ranch
ranchito
rancho
rand
randall
randolph
random
randy
rang
range
rangel
ranges
rankamen
ranking
ransom
raoul
rap
raphae
raphael
rapper
rard
rarzbisdom
ras
rasch
rasmus
rasmussen
raspe
rass
rassen
rassismus
rat
ratcliffe
rate
rath
rau
rauch
raul
rault
raum
rauscher
rautenberg
rave
ravelin
raven
ravenna
ravensberger
ravensbiarg
ravensburg
ravnebjerg
ray
raymond
rb
rbara
rbehollen
rbel
rbereit
rbereiten
rbern
rbi
rbiflagen
rbild
rbiller
rbisdom
rbo
rbook
rbro
rbrook
rca
rch
rchen
rcher
rd
rde
rdeel
rdeenst
rdel
rdem
rden
rdenas
rder
rdere
rderer
rdergrund
rdern
rdert
rderung
rdig
rdigt
rdlich
rdliche
rdlichen
rdoba
rdra
rdrag
rdringen
re
rea
read
reader
reagan
reageeren
reageert
reakschonen
reakschoon
reakter
reaktschoon
real
realismus
realita
realschool
rebecca
rebeden
rebeed
rebeeden
rebeedsreform
rebeet
rebeetsverband
rebel
rebell
rebellen
reber
rebsoort
recht
rechte
rechtebe
rechtebermoor
rechten
rechtenfleth
rechtenflethermoor
rechts
rechtschreibung
rechtshistoriker
rechtswetenschapen
rechtswetenschopper
rechtswetenschopperin
rechttietig
reck
recken
recklinghausen
recklinghusen
reckt
reclam
reclams
record
recordings
records
red
redakschoon
redakteur
redakto
redaktschoon
redden
reddt
rede
reden
redensarten
redingen
redirects
redschoppen
redukschoon
reduzeert
reed
reeden
reeder
reederee
reedschop
reedschoppen
reef
reeg
reege
reekner
reep
rees
reese
reet
reeves
reeßen
ref
reference
referendar
referendum
referent
reflekteert
reform
reforma
reformater
reformation
reformator
reformatschoon
reformeert
reformeerte
reformeerten
reformen
regeer
regeeren
regeern
regeert
regeerung
regel
regelmatig
regelmatige
regeln
regelt
regen
regensborg
regensburg
regent
regenwoold
regeren
regerung
regerungsassesser
regerungsbeamten
regerungsbezirk
regerungsbezirke
regerungspra
regerungsraad
reggae
regie
regierung
regime
regiment
regina
reginald
regio
region
regional
regionale
regionalen
regionalliga
regionen
regions
regisseur
register
registers
registreerten
regula
rehder
rehrn
rei
reich
reichelt
reiches
reichstagswahlen
reid
reido
reihe
reimer
reimers
reims
rein
reinbek
reindo
reine
reinen
reiner
reiners
reinert
reinhard
reinhardt
reinheit
reinhold
reinmuth
reinsa
reis
reise
reisen
reisinger
reist
reiter
reith
reitz
reken
rekent
rekord
rekter
rektor
rel
relativ
relative
relativita
relatschoon
release
religio
religion
religionen
religionspa
religionswetenschopper
remake
rembrandt
remember
remich
remis
remnoh
remo
ren
renaissance
renate
renato
rendsborg
rene
reni
rennen
renner
rennfohrer
rennrodler
rennrodlerin
reno
renoir
renoveert
rentsch
renz
renzi
rep
repertoire
report
reporter
repra
represents
reprint
reptilien
republic
republiek
republiekaners
republik
republikaansch
republikaner
republikaners
requiem
rer
rers
res
resbossel
resch
reschke
research
reservat
reservation
reservatschoon
reserve
residenz
resonanz
resources
respekt
ressa
ressourcen
rest
restaurant
restaurants
restaurater
restaureert
reste
resten
restlichen
resultaat
resultat
resultate
resultaten
results
reten
rethen
retriever
rett
retten
return
reuben
reuss
reuter
reuters
reuther
reuß
rev
revel
review
reviews
revolution
revolutschona
revolutschoon
revue
rex
rey
reyes
reykjavi
reymont
reynolds
rez
rezension
rezepters
rf
rfall
rfatten
rfe
rfeld
rfen
rfer
rflunken
rfo
rfohren
rfu
rg
rga
rgahn
rgahns
rgang
rge
rgel
rgelboer
rgen
rgens
rger
rgerkrieg
rgerlich
rgerliche
rgerlichen
rgermeester
rgermeesters
rgermeestersche
rgermeister
rgerrechtler
rgerrechtlerin
rgers
rgerschap
rgerschop
rgerschup
rgert
rgeschicht
rgeven
rgsch
rgsche
rgschen
rgt
rgv
rgy
rhaar
rhannen
rhea
rheiderland
rhein
rheinische
rheinland
rher
rherige
rhetorik
rhien
rhienland
rhiensch
rhin
rhistoriker
rho
rhode
rhodes
rhoff
rhollen
rhuut
rhythm
rhythmus
ri
ria
ribbentrop
ribeira
ric
rica
ricardo
riccardo
ricco
rice
rich
richard
richards
richardson
richey
richie
richland
richmond
richt
richten
richter
richters
richtig
richtige
richtigen
richtung
rick
ricky
rico
ridder
ridderkru
ridders
ridderschop
ride
rider
ridge
ridgeway
ridley
rie
rieck
ried
riedel
rieden
rieder
riedl
rieg
rieger
riek
riekdom
rieke
rieken
rieksdag
rieksdagswahl
rieksdaler
rieksgerichtsraad
riekskanzler
riemann
riemels
riemer
riep
riepen
rier
ries
rieten
riff
riffenburgh
rig
riga
rige
rigen
rigg
right
rightarrow
rights
rigkeit
rijn
rik
riley
rin
rinaldi
rinco
ring
ringahn
ringe
ringen
ringer
ringo
rings
ringsebølle
ringst
ringtail
rinkamen
rinn
rio
rioja
ripley
ris
risch
rische
rischen
rise
risiko
risius
rist
rita
ritchie
rito
ritsch
ritscher
ritschermoor
ritt
ritter
ritz
ritzbu
rium
rivas
river
rivera
rivers
riversdale
riverside
rivie
rizzo
rjohr
rk
rkaamt
rkamen
rkamt
rke
rkei
rken
rkens
rker
rkie
rkisch
rklich
rklichkeit
rko
rkommen
rksch
rksche
rkschen
rkt
rkummt
rl
rlaag
rland
rleggt
rlesen
rlesungen
rlich
rliche
rlichen
rliggt
rlitz
rlo
rlopen
rm
rmann
rme
rmediziner
rmer
rmeter
rmig
rmige
rmigen
rmland
rmolige
rmoligen
rmols
rmt
rn
rna
rnaam
rnaams
rnahmen
rnbarg
rnbarger
rnberg
rnberger
rnen
rner
rnig
rnommen
rns
rnt
rnten
ro
roach
road
roald
roaring
roata
rob
robben
robbie
robert
roberta
roberto
roberts
robertson
robin
robinson
robson
roca
rocco
roche
rochefort
rochelle
roches
rochester
rochow
rock
rockband
rockefeller
rockford
rockingham
rockmusik
rockmusiker
rocks
rockst
rockville
rocky
rod
roddenberry
rode
roden
rodenborg
roderer
rodererin
roderick
rodgers
rodham
rodney
rodolfo
rodri
rodrigo
rodrigues
rodriguez
roger
rogers
rogge
rogier
roh
rohde
rohlfs
rohr
rohrbach
rohreis
rohstand
rohstoff
rohstoffen
roi
roland
rolando
role
rolf
rolfsted
roll
rolland
rolle
rolling
rollins
roloff
roly
rom
roma
romaan
romaansche
romain
roman
romane
romanen
romanist
romano
romans
romantik
romantisch
romantische
romanus
rome
romeo
romer
romero
rommel
romney
romsdal
ron
ronald
ronde
ronne
ronnie
ronny
roo
rood
roof
rook
room
rooney
roonkarken
roop
roor
roort
roos
roosbrook
roosevelt
root
roov
roovt
rop
ropen
roper
rore
roren
ros
rosa
rosalind
rosario
roscher
roscoe
rose
rosemarie
rosemary
rosen
rosenberg
rosenberger
rosenfeld
rosengoorn
rosenheim
rosenkranz
rosenstiel
rosenthal
roseville
ross
rossi
rossini
rostock
rostocker
rot
rotatschoon
rote
roteert
roten
rotenburg
roth
rothschild
rott
rottal
rotten
rotter
rotterdam
rotto
roubaix
rouen
rouge
rough
round
rouse
rousseau
route
routledge
rover
rowe
rowland
rowohlt
roy
royal
royale
royaume
royce
royer
rp
rpdo
rpel
rpen
rper
rperlich
rpermoor
rpers
rperschop
rphagen
rpm
rpmer
rpommern
rpstraat
rquez
rr
rrach
rrez
rrn
rrt
rs
rsch
rsche
rschen
rschreven
rschriften
rsdo
rsehn
rsen
rsett
rsetten
rshusen
rsichtig
rsitt
rsitter
rsitterin
rsittersche
rsla
rslag
rslahn
rslev
rsmeeten
rsmeten
rsnitt
rsnittlich
rsnittliche
rspeel
rspeelbaas
rspeelspreker
rspelen
rsprung
rst
rstadt
rstand
rstandsvo
rstbischop
rste
rsteher
rsteiher
rsteihers
rstellen
rstellt
rstellung
rstellungen
rsten
rstenberg
rstendom
rstenfeldbruck
rstenthum
rster
rstin
rsto
rsu
rt
rtbiografie
rtbiographie
rte
rteihn
rtel
rteln
rten
rter
rterbuch
rtere
rth
rtig
rtige
rtigjohrigen
rtl
rtlich
rtliche
rtlichen
rtner
rtosetten
rts
rttemberg
rtyrer
ru
ruanda
rube
ruben
rubens
rubin
rubinstein
ruby
ruch
ruchweg
ruck
rucker
rudd
ruden
rudi
rudolf
rudolph
rudy
rue
rufus
rugby
rugbyspeler
ruge
ruggen
ruhestand
ruhig
ruhm
ruhpolding
ruhr
ruhrrebeet
rui
ruinen
ruiz
rulfsen
rull
rullen
rum
ruma
rump
run
rund
rundfohrt
rundfohrten
rundfunk
rundschau
rung
runge
rungen
runn
runne
runnen
running
rup
rupert
ruperti
ruprecht
rus
ruschwedel
rush
russ
russch
russel
russell
russen
russia
russisch
russische
russischen
russland
rut
ruta
rutas
rutbillt
rutbro
rutbrocht
ruten
rutendorp
rutfinnen
rutfunnen
rutg
rutgahn
rutgeven
rutgever
rutgeverin
rutgevers
ruth
rutherford
rutkamen
rutkeem
rutkommen
rutkummt
rutland
rutnahmen
rutragen
rutschke
rutsmeten
rutstellt
ruttofinnen
ruum
ruumfa
ruumfloog
ruumfohrer
ruumfohrt
ruumordnungsprogramm
ruumschipp
ruumsond
ruumsonden
ruumstatschoon
ruumtemperatur
ruupen
ruut
rwahl
rwahlen
rwark
rweg
rwehr
rwetenschopper
rwoort
ry
ryan
ryde
ryder
rye
rymill
ryn
ryslinge
rz
rzborg
rzburg
rzte
rður
rødby
rødbyhavn
s
sa
saag
saak
saal
saale
saamsch
saans
saanstermoor
saar
saarbru
saarland
saat
saavedra
saba
sabatier
sabatini
sabbat
sabina
sabine
sabrina
sacco
sachs
sachsen
sack
sacred
sadler
saga
sagan
sage
sagen
sager
sahara
sahlenborg
said
sailer
saint
sainte
saison
sake
saken
sakskøbing
sal
salas
salazar
salem
salgado
salieri
saline
salinger
salisbury
salish
saljut
sall
salle
salles
sally
salminen
salomon
salomonen
salon
salpetersu
salt
salta
salvador
salvatore
salzburg
sam
samantha
sambia
samen
samlungen
sammel
sammeln
sammelt
sammler
sammlung
sammlungen
sammy
samniten
samoa
sampras
sampson
samson
samt
samtgemeen
samtgemeenbo
samtgemeend
samtgemeende
samtgemeendirekter
samtgemeenraad
samtgemeinde
samtgemenen
samtla
samuel
samuels
samuelson
samuelsson
samy
san
sanchez
sanctuary
sand
sandager
sandbossel
sandby
sander
sanders
sanderum
sandholts
sandhusen
sandoval
sandra
sandro
sandy
saneert
sangensta
sanger
sanita
sankt
sanremo
sansibar
sanskrit
sant
santa
santana
santander
santiago
santo
santos
sao
sapiens
sapporo
sar
sara
sarah
sarajevo
saramago
saratoga
sarawee
sarco
sardinien
sargent
sarnighausen
sarrazin
sars
sarstoon
sarteneja
sarthe
sartre
sascha
saskatchewan
saskia
sass
sassen
sassisch
sassische
sassischen
sat
satellit
satellite
satelliten
satellitenstaat
saterdag
saterland
satire
satiriker
satu
saturn
satz
satzen
satzteken
satzung
sau
saudi
sauer
sauerla
sauerlandes
saul
saunders
saur
saust
sauvage
sauveur
savannah
savas
save
savelli
savic
savigny
savoie
savoy
savoyen
sawyer
sax
saxofonspeler
saxofoonspeler
saxophon
saxophonist
saxophonisten
say
sb
sc
scala
scandium
scar
sch
scha
schaaf
schaal
schaamlippen
schaap
schaaphusen
schaaten
schach
schachbund
schachgrootmeester
schachkumponist
schachmeester
schacholympiade
schacholympiaden
schachpartien
schachspeel
schachspeler
schachspelerin
schacht
schachweltmeester
schadden
schaden
schadens
schaefer
schaff
schaffen
schaffer
schaffner
schafft
schalen
schalke
schall
schallplatten
schaltjohr
schaltjohren
schandaal
schanz
schanzendo
schapen
schaper
schapp
schapt
scharf
scharmba
scharmbeek
scharmbeekstotel
scharnhors
scharnhorst
scharp
scharpe
schatalow
schaten
schatt
schatten
schatz
schaumborg
schaumburg
schauspeel
schauspeelhuus
schauspeelschool
schauspeler
schauspeleree
schauspelerin
schauspelers
schauspelersche
schaven
sche
scheden
scheed
scheeden
scheedt
scheef
scheel
scheep
scheepe
scheert
scheeten
scheetfehler
scheeßl
scheibler
scheitern
scheitert
schelfies
schell
scheller
schelling
schempp
schen
schenck
schendo
schenfall
schenk
schenkt
schentiet
scheperhund
schepinkel
scher
scherf
scherrer
scherzer
scheten
schett
scheuermann
schiaparelli
schicht
schichten
schick
schicken
schicksal
schickt
schiedsrichter
schien
schienbor
schienbore
schient
schier
schieren
schierholz
schierhoorn
schiet
schiev
schiff
schild
schildfoot
schill
schiller
schilling
schindler
schinkel
schipp
schippdo
schipper
schipperee
schirmer
schirra
schla
schlacht
schlecht
schlechter
schledden
schlegel
schlesien
schlesinger
schleswig
schlichting
schlo
schloss
schlott
schloß
schlu
schmetterling
schmetterlinge
schmid
schmidl
schmidt
schmitt
schmitz
schmu
schmude
schnabel
schneider
schnell
schneller
schnitger
schnittberichte
schnitzler
schnyder
scho
schobert
schoch
schock
schockemo
schoh
scholen
scholes
scholl
schollen
scholten
scholz
schon
schonen
schongau
schoof
school
schoolbaas
schoolen
schoolhuus
schooljohr
schoolmeester
schoolmeesterin
schoolmeesters
schoolmeestersche
schooltiet
schoolzentrum
schopenhauer
schossee
schott
schotten
schottisch
schottische
schottischen
schottland
schottsch
schottsche
schottschen
schra
schraag
schrader
schramm
schreben
schreev
schreeven
schreiben
schreiber
schreiner
schreven
schrieven
schriever
schrieverin
schrievers
schrieversche
schrieversnaam
schrievnorm
schrievt
schrievwies
schrievwiesen
schrifft
schrift
schriften
schriftenreihe
schriftlich
schriftsteller
schritt
schro
schrobenhausen
schroeder
schroth
scht
schu
schubart
schubert
schuberth
schuld
schulden
schule
schulen
schuler
schull
schullen
schuller
schult
schulte
schulten
schultz
schultze
schulz
schulze
schumacher
schumann
schunken
schuppen
schuster
schutt
schutz
schuul
schuult
schuven
schwa
schwaben
schwandorf
schwartz
schwarz
schwarze
schwarzkopf
schwassmann
schweden
schweiger
schweinfurt
schweiz
schweizer
schwierigkeiten
schwitschen
schworgen
sci
science
sciences
scientific
scientist
score
scotia
scotland
scott
scotti
scottish
scotts
screen
sd
se
sea
seal
sean
search
sears
seaton
seattle
sebarg
sebastia
sebastian
sec
seca
sechs
seckendorff
second
secret
section
security
sed
seddon
seden
sedgwick
sedimenten
see
seebargen
seebodden
seebohm
seech
seedo
seefohrer
seefohrt
seeg
seeger
seehofer
seehusen
seel
seeland
seele
seeler
seelhorn
seelmann
seelu
seemann
seen
seenplatt
seeslacht
seet
seeten
seev
seevagels
seevdaal
seewater
seferis
segal
segel
segen
seger
segg
seggen
seggt
segler
segment
segmente
segmenten
segovia
segura
seh
sehen
sehn
sehnsucht
sehr
sehren
seht
sei
seibel
seidel
seidler
seifert
seiffert
seiler
seilerin
seilt
sein
seine
seinem
seinen
seiner
seines
seismische
seismologie
seismoloog
seit
seite
seiten
seiters
seken
seker
sekerheit
sekern
sekert
sekret
sekreta
sekunda
sekunn
sekunnen
sel
selassie
selbst
selen
selena
seleukidenriek
selle
sellers
sellhorn
sellschap
sellschop
sellschopp
sellschoppen
sellst
selma
selten
selznick
semester
seminar
semjonow
semper
sen
senaat
senat
senate
senater
senator
senators
send
sendung
seneca
senegal
sener
senfleet
senior
senioren
senn
sennen
senner
sennt
sens
sense
sentant
sentantenhuus
senteert
sentinel
senz
seoul
sepp
seppens
september
ser
serbien
serbisch
serbsch
serbsche
serbschen
serebrow
serena
serge
sergeant
sergei
sergej
sergejewitsch
sergio
serie
serien
series
serra
serre
sert
server
service
services
ses
sess
session
sessions
set
seten
seth
sethlerhemm
sett
setten
seu
seven
sever
severin
severus
sevilla
sewell
sex
sextett
sexuell
sexuelle
seychellen
seymour
seyß
sf
sg
sh
shackleton
shadow
shaka
shakespeare
shane
shanghai
shankar
shannon
shapley
sharon
sharp
sharpless
shatner
shaughnessy
shavers
shaw
shawn
she
shearer
sheila
shelby
sheldon
shelley
shelly
shelton
shepherd
sheppard
sheridan
sheriff
sherman
shetlandeilannen
shipyard
shire
shirley
shoemaker
shoman
shop
short
shorter
shoshone
should
show
showalter
showdown
shows
shriver
shropshire
shu
shuttle
si
sibirien
sibiu
sibley
sibun
sibusiso
sibylle
sich
sicht
sichtbor
sichtbore
sick
sid
side
sideman
sident
sidenten
sidentenamt
sidentin
sidentschap
sidentschapswahl
sidium
sidney
sido
sie
sieben
sieber
siebert
sied
siede
siedeln
siedelt
sieden
siedenstraat
siedland
siedler
siedlers
siedlung
siedlungen
siefkes
sieg
siegbert
siege
siegel
siegen
sieger
siegert
siegfried
siegmund
siehe
siek
siel
siemens
sien
siena
siene
sienen
sienkiewicz
sierra
siet
sietdem
siete
sieten
sieter
sietere
siether
sietwenn
sievern
sievers
sig
sigel
sigismund
sigmar
sigmaringen
sigmund
signal
sigrid
sik
silcher
silikat
silizium
silk
silke
sillanpa
silva
silver
silvester
silvestri
silvia
silvio
sima
simbabwe
simejis
simeon
simmonds
simmons
simms
simo
simon
simone
simpson
sims
sin
sinai
sinaloa
sinatra
sind
sine
sinfonie
sinfonien
sing
singapur
singen
singer
singerin
singers
singersche
single
singles
singleton
sings
singt
singular
sinn
sinnbild
sinne
sinnen
sinoloog
sinope
sint
sio
sioux
sir
sire
sirius
sische
sischen
sisley
sit
sitcom
site
sitt
sitte
sittee
sitten
situatschonen
situatschoon
sium
six
sixtus
sizilien
sjo
sjolochov
sk
ska
skala
skanderborg
skandinavien
skateresults
skelby
skeletonfohrer
skelett
skelton
sken
skerninge
ski
skier
skierin
skifohrer
skilanglo
skinner
skirennlo
skispringer
skizzen
sko
skovby
skovlænge
skulpturen
sky
skye
skylab
skørringe
sla
slaap
slacht
slachten
slag
slaganfall
slagtu
slahn
slaht
slam
slang
slank
slapen
slaten
slaven
slaveree
slawen
slawist
slecht
slechte
slechten
slechter
sleiht
slemminge
sler
slesien
sleswig
sleßel
slich
sliche
slichten
slim
slo
sloan
sloot
slooten
slopen
sloten
slott
slottpark
slovenia
slowaaksch
slowaakschen
slowakei
sloweensch
sloweensche
sloweenschen
slowenien
slu
slumpt
sluss
slusslo
sluten
slutt
sluut
sluuten
sluutend
sma
smack
small
smeckt
smeten
smidt
smiet
smieten
smit
smith
smithfield
smithsonian
smitt
smo
sms
smu
smuck
smunt
smusenaam
smyslow
smyth
snaaksch
snaaksche
snaakschen
snack
snacken
snackers
snackt
snake
snavel
sneden
snee
snell
snelligkeit
snelligkeiten
snevern
snieden
snieder
sniggen
snitt
snittfaten
snookerspeler
snow
snowboarder
snowboarderin
snyder
so
soc
socht
social
socie
society
sofia
sofort
software
sogar
sogn
sogneportalen
sogor
sogors
sohn
sojus
sokrates
sol
sola
solang
solano
solar
solberg
soldaat
soldat
soldaten
soldier
soli
solingen
solist
solisten
solke
soll
solo
solomon
solowjow
solt
soltau
soltborg
solten
soltgitter
soltschenizyn
soltsu
soltwater
soltwedel
solzhusen
somalia
some
somerset
somerville
something
somit
somme
sommer
sommersell
sommerspelen
son
sonate
sonaten
sond
sonden
sondern
song
songs
songschriever
songschrieverin
songwriter
songwriterin
sonja
sonne
sonnenschein
sonnern
sonntag
sonny
sonora
sons
sonst
soort
soorten
soosdo
sootel
sophia
sophie
sopranistin
sorbschen
sorg
sorgen
sorgt
sort
sorteert
sorten
sosa
sotoseggen
sotschi
sott
sotto
soul
sound
soundtrack
sounsiek
source
sous
sousa
south
southampton
southern
souvera
souza
soveel
sowat
sowie
sowiet
sowjeetsch
sowjeetschen
sowjets
sowjetsch
sowjetsche
sowjetschen
sowjetunion
sowohl
soyinka
soziaalpa
soziaalwetenschopper
sozial
sozialdemokraten
soziale
sozialen
sozialismus
sozialistische
soziologie
soziologin
sozioloog
sp
spa
spaansch
spaansche
spaanschen
spaaß
space
spacefacts
spaden
spain
spalding
spang
spangen
spaniel
spanien
spanier
spaniers
spanish
spannt
spannung
spannungen
sparks
sparrt
sparrwark
sparta
spartacus
spasski
spaulding
spd
specht
special
species
speck
specken
spee
speed
speedskatingnews
speel
speelbaas
speelbaasfro
speelbasen
speeldeel
speelen
speelfeld
speelfilm
speelfilmen
speelt
speeltied
speeltiet
speelutwickler
speelwies
speer
speersmieter
speersmieterin
spegel
speidel
spektakula
spektralklass
spektrum
spel
spelen
speler
spelerin
spelers
spencer
spengler
spennen
spermien
sperry
spessart
speyer
speyside
speziaaleffektku
spezialiseert
speziell
spezielle
speziellen
spezies
spezifische
spha
spider
spiegel
spiek
spieker
spiekern
spiekert
spiel
spielberg
spielen
spieler
spielfilm
spielmann
spier
spies
spiesen
spiest
spill
spin
spindler
spinnen
spinoza
spirit
spitta
spitteler
spitz
spitzbargen
spitze
spitzen
spitzer
splitt
splitten
spo
spock
spohr
spokane
sponde
sponser
spontan
spood
spoodriek
spoodrieke
spoodrieken
spoodriekst
spoodriekste
spoodrieksten
spoor
spoorkass
sporen
sport
sportfunkschona
sportjournalist
sportkummentater
sportler
sportlerin
sportlich
sportliche
sportmediziner
sports
sportschu
sportsreference
sportvereen
sportverlag
sportwetenschopper
spoto
spraak
spraaken
spraakfamilie
spraakforscher
spraakruum
spraakwetenschop
spraakwetenschopper
spraakwetenschopperin
sprache
sprachforschung
sprague
sprake
spraken
spraok
spreckelsen
spree
spreken
sprekens
spreker
sprekerin
sprekers
spremberg
spreng
sprengel
sprengt
sprichwo
spriekels
spring
springe
springen
springer
springfield
springrieder
springriederin
springs
springt
sprint
sprinter
sprinterin
sprintrennen
spro
sproke
sproken
spru
sprung
spur
spuren
spy
square
squashspeler
squashspelerin
squez
sr
sri
ss
ssch
sse
ssel
sseldo
sseldorf
sseldorfer
sseldorp
ssen
sser
ssergu
sserung
ssig
ssigkeit
ssisch
ssler
sslich
ssmal
ssner
ssr
sst
sste
ssteihn
ssten
st
sta
staaste
staat
staaten
staatenkunde
staates
staatlich
staatliche
staatlichen
staats
staatsarchiv
staatsbeamten
staatsbo
staatsdeenst
staatsexamen
staatsgrenz
staatsmann
staatsminister
staatspra
staatsraad
staatssekreta
staatstheater
stabil
stacey
stad
stadager
stade
stadelmann
stader
stadion
stadium
stadler
stadt
stadtarchiv
stadtbezirk
stadtdeel
stadtdeelen
stadtdelen
stadtentwa
stadtgemeen
stadtgeschichte
stadtplaner
stadtraad
stadtraat
stadtrebeet
stadtrecht
stadtrechte
stadtrechten
stadttheater
stadtwarken
stadtzentrum
staff
staffa
staffel
staffeln
staffelrennen
staffhoochspringer
stafford
staffordshire
stage
stahl
stahn
staht
stalin
stalingrad
stall
stamm
stammen
stammspeler
stammt
stammzellen
stan
stand
standard
standardmodell
standards
standing
stando
standoort
standpunkt
stanford
stangl
stanisław
stankovic
stanley
stann
stanton
stapel
stapleton
star
stargard
stark
starke
starken
starker
starkere
starkste
starksten
starnberg
starr
stars
starsbeek
start
starten
starven
starvt
state
staten
states
station
statistical
statistics
statistik
statistiken
statistiker
statistisch
statistische
statistischen
statistisches
statschoneert
statschonen
statschoon
statt
stattdessen
stattfinnen
stattfunnen
stattho
stattholler
statue
status
staudamm
staudinger
stauffenberg
stausee
staut
stavenhagen
ste
steadfast
stearns
steddo
steden
stedinger
steed
steeg
steek
steekt
steel
steele
steen
steenau
steenbarg
steenbeek
steenborg
steenfeld
steenhauer
steenkark
steentiet
steern
steernbarg
steernbild
steernbiller
steernflott
steernhopen
steerns
steernwacht
steert
stefan
stefanie
stefano
steffen
steffens
steffi
stegemann
stegen
steht
steiermark
steiht
steil
stein
steinbeck
steinbru
steiner
steininger
steinitz
steinmann
steinmeier
steken
stell
stella
stellen
stellich
stellingwarfs
stellsfellen
stellt
stellung
stellvertreden
stellvertredend
stellvertreder
steltzer
stemmen
stemmert
stempel
stemshorn
sten
stendal
stendo
stenen
stenløse
stenzel
step
stephan
stephanie
stephen
steps
ster
stere
steren
sterling
stern
sterne
sternis
sterreich
sterreichischen
sterriek
sterrieker
sterrieksch
sterrieksche
sterriekschen
sters
stersund
stert
stettin
steuben
steve
steven
stevens
stevenson
stewart
sthetik
stia
stichtage
stickenbu
stickstoff
stickt
stief
stiegen
stiegern
stift
stiften
stifter
stifterin
stiftung
stig
stige
stiggt
stiglitz
stil
stilistisch
still
stille
stiller
stillleggt
stills
stimbeck
stimm
stimme
stimmen
stimmt
stimmung
stina
stinensische
stinst
stipendium
stitt
stlich
stliche
stlichen
stmanland
stner
sto
stobbe
stock
stockholm
stockwarken
stoddart
stoder
stoff
stoffblo
stoffe
stoffen
stoffwessel
stohl
stoht
stojanovic
stokes
stokkemarke
stolberg
stolle
stollen
stolp
stolpe
stolt
stoltenberg
stolzenau
stone
stones
stood
stoop
stoov
stop
stopen
stor
storer
stories
stork
storm
stormark
stormarn
stormflood
stormfloot
stormvagels
storstrøm
storven
story
stotel
stout
stra
straaf
straat
straaten
straatenrennen
stracks
strafen
strahlen
strahlt
stralsund
strand
strange
strasser
strategie
strategisch
straten
stratenbahn
stratendo
stratennett
stratigraphische
stratmann
stratton
straubing
straus
strauss
strauß
straßburg
straße
stream
streck
strecken
streckenbeschrieven
strecker
streden
streek
streeken
street
streit
streken
streng
stresemann
streven
strickland
stried
strieden
striepen
striepens
striet
strietkra
strike
stringen
stringer
stringtown
stro
strobel
strobl
stroh
strom
strong
stroom
strow
stru
structure
struktur
strukturen
strunz
strup
struve
sts
stso
stu
stuart
stubbekøbing
stubben
stuck
stuckato
stuckenbossel
studeer
studeeren
studeern
studeert
student
studenten
studeren
studie
studien
studies
studio
studioalbum
studiomusiker
studios
studium
study
stuhr
stummfilm
stumpf
stunde
stung
stunn
stunnen
stuntman
sturben
sturm
sturven
stuttgart
stuttgarter
stuur
style
su
sua
substantiv
subtribus
subtropen
succotz
suceava
suche
sucker
sucre
sud
sudan
sue
sueddeutsche
suer
suerland
suerstoff
suffix
suffolk
sugar
suhr
suhrkamp
suisse
suite
sul
sula
suldat
suldaten
sulingen
sull
sullen
sullivan
sully
sulpice
sultan
sulzbach
sulzer
sum
summ
summenformel
summer
summit
sumner
sump
sun
sund
sunday
sunde
sundermann
sung
sungen
sunne
sunner
sunnerlich
sunnerliche
sunnerlichen
sunst
super
superior
supermarkt
supernova
supperndent
supreme
sur
sure
surinam
suriname
surrey
survey
sus
susan
susanna
susanne
suspense
sussex
suster
sutherland
sutton
suugt
suur
suurheid
suwohle
suzanne
sv
svanninge
sven
svendborg
svendsen
swa
swaak
swaan
swaar
swaart
swaarten
swaben
swabern
swachhusen
swack
swacke
swacken
swan
swann
swans
swanson
swarm
swarms
swart
swarte
swarten
swasey
swasiland
swatt
swatte
swatten
sweden
sweedsch
sweedsche
sweedschen
sweeney
sweer
sweert
sweet
swegen
swemmaanten
swemmbad
swemmen
swemmer
swemmerin
swemmsportler
swemmsportlerin
swemmt
sweren
swerin
swetlana
swevel
swevelsu
swien
swiersdo
swiez
swiezer
swiezersch
swift
swing
swingen
swinn
swo
swoboda
swonewebel
swoor
swoorpunkt
swor
swore
sworen
sworer
swr
sy
syddjurs
sydney
sydow
syke
sylt
sylter
sylvain
sylvester
sylvestre
sylvia
symbol
symbolen
symphonie
symptomen
syn
synagoog
synchronisatschoon
synchroonkartei
synchroonsnacker
synchroonsnackerin
synchroonspreker
synchroonsprekerin
syndikus
syndrom
synode
synonym
synonymen
synood
synthees
synthese
synthesis
synthesizer
synthesizers
syria
syrien
system
systematik
systeme
systemen
systems
systofte
sz
sza
szeen
szene
szenen
szenenbild
szenenbillner
szlo
szymborska
sædinge
søby
søllested
søllinge
sønder
søndersø
t
ta
taaken
taal
tabak
tabasco
tabell
tabelle
tacitus
tadel
tadeusz
tadschikistan
tafel
taft
tag
tage
tageblatt
tagebuch
tagen
tagesschau
tagesspiegel
tagore
tahl
tahlen
taimanow
taiwan
take
taktik
tal
tale
talent
talk
tall
tallen
tallinn
tallriek
tallrieke
tama
tamara
tamaulipas
tambos
tambran
tamm
tan
taneo
tang
tanja
tank
tanner
tansania
tante
tanz
tarassow
tarija
tarjei
tarms
tarmst
tarn
taro
tarrafal
tarrasch
tartakower
tasch
taschenbuch
tasmanien
tass
tasting
tat
tate
tatjana
tatort
tatsa
tatum
tau
taube
tauber
taurus
tavares
taxa
taxeert
taxi
taxon
taxonomie
taygete
taylor
taz
tb
tcken
te
tea
teagarden
teakettle
team
teams
teatro
teau
teauneuf
teborg
technical
technik
techniken
techniker
technisch
technische
technischen
technologie
technology
teck
ted
teddy
tee
teeken
teekner
teeknerin
teel
teelen
teemlich
teen
tegelee
tegelkamp
tegen
tegeno
tehn
teht
teichmann
teihn
teihnka
teihnte
teihnten
teil
tein
teixeira
teken
tekens
tekent
tekner
teknungen
tel
tela
telefon
telegraph
telemann
telen
teleorman
teles
teleschach
telescope
teleskop
teleskopen
television
tell
tellen
tellt
tellur
tels
telt
temelk
temlich
temmen
tempel
temperatur
temperaturen
temple
tempo
ten
tennessee
tennis
tennismeesterschapen
tennisspeler
tennisspelerin
tenno
tenor
tenorsaxophon
tensack
tenspeler
teo
ter
tera
tere
terence
teresa
teritum
termin
tern
terra
terrier
territoire
territorien
territorium
territory
terror
terroransla
terrorismus
terrorist
terroristen
terry
ters
tersche
tersloh
tert
tertia
tes
tesp
tessin
test
testament
testpilot
tet
teu
teubner
texas
text
texte
texten
texter
textilu
tg
th
tha
thadda
thailand
thalassa
thalberg
thaler
thalia
thallium
thalmann
thames
than
that
thatcher
the
theater
theaterbaas
theaterdirekter
theatergrupp
theaterintendant
theaterkritiker
theaters
theaterschauspeler
theaterschriever
theaterstu
theaterwetenschopper
theatre
thebe
theben
theil
their
theisbru
theißen
thelma
thelonious
thelxinoe
thema
themen
themisto
then
theo
theoderich
theoderik
theodor
theodore
theodosius
theologen
theologie
theologin
theologisch
theologische
theoloog
theoretisch
theoretische
theorie
theorien
theory
ther
therapie
there
theresa
therese
theresia
thermische
thermodynamik
thesen
they
thiel
thiele
thieme
thierry
thies
thieshoop
thilo
thing
thiopien
third
this
tho
thom
thomas
thompson
thomsen
thomson
thorbecke
thorium
thorn
thorne
thornton
thorpe
thorsten
three
thriller
thrombozyten
thron
throon
through
thu
thun
thurau
thurston
thyone
thyssen
ti
tiberius
tibet
tichonow
tie
tied
tiedemann
tieden
tiedlang
tiedo
tiedschrift
tiemann
tien
tienne
tiere
tierra
tiet
tietduer
tieten
tietgeno
tietgliek
tietje
tietjen
tietlevens
tieto
tietpunkt
tietruum
tietschrift
tietschriften
tietskala
tietwies
tig
tige
tigen
tiger
tight
tigkeit
tigkeiten
tigran
tigre
tigt
tilden
till
tillitse
tillon
tilly
tilova
tim
timberlake
time
times
timis
timm
timmel
timmermann
timo
timothy
tin
tina
tingo
tingsted
tinn
tiny
tipp
tirol
tirschenreuth
tirsted
tis
tiss
titan
titania
titanic
titel
titelleed
titelrull
titels
title
tito
titula
titus
tivoli
tje
tjen
tke
tland
tld
tlich
tliche
tlichen
tm
to
tobago
tobias
tobin
tobro
tochter
tod
todacht
today
todd
todeelt
todem
toeerst
toenn
toenne
toepfer
tofa
tofall
tofallig
tofo
tofra
tofreden
tog
toga
togaav
togang
togange
togeho
togen
together
togeven
togliek
toglieks
togo
togreep
togrepen
togunsten
toho
tohoop
tohoopdaan
tohoopfaat
tohoopfleten
tohoopgahn
tohoopleggt
tohoopsett
tohoopslaten
tohoopstellt
tohoopwussen
tohopen
tohopenfaat
tohopensett
tohopensetten
tohopenslaten
tohopenstellt
tohopensto
tohuse
tohuus
tokamen
tokarczuk
tokieker
tokiekers
tokio
tokregen
toku
tokumst
tokunft
tokyo
tolaaten
tolaten
toledo
tolest
toletzt
tolkien
toll
tollboom
tolstoi
tolstrup
tom
toma
tomas
tomasz
tomatoes
tome
tomeest
tomehrst
tomeist
tomindst
tominnst
tominst
tomlinson
tommerup
tommy
tomorrow
ton
tona
tonaam
tonaams
tonahmen
tonehmen
tonehmend
tonga
toni
tonicht
tonichten
tony
too
toog
toole
tools
toon
tooninscheno
toonmeester
toontechniker
toordent
toorn
toorns
top
topograaf
topographische
topp
toppen
toppensta
topplevel
tor
tora
toreby
torecht
torekent
torkilstrup
torn
tornbjerg
toronto
torre
torres
torslunde
torsted
torsten
toru
tos
tosa
tosamen
tosamenarbeit
tosamenfaat
tosamenhang
tosamensett
tosamensetten
tosamensto
tosammen
tosatz
toschannen
toschreven
toseggt
tosett
toskana
tosommen
tosommenarbeit
tosommenhang
tospraaken
tospraken
tosta
tostand
tostann
tostanne
tostannen
tostannenkamen
tostimmen
tostimmt
tot
total
toten
touch
toulouse
tour
touren
tourismus
touristen
tournee
tourneen
tours
toveel
tovo
towendt
tower
towielen
towiest
town
townes
township
tr
tra
tracey
tracy
trade
tradition
traditschonell
traditschonelle
traditschonellen
traditschonen
traditschoon
tragedy
trago
trail
train
traineer
traineert
trainer
trainerin
training
trallen
trans
transantarktischen
transliterated
transport
transporteert
transtro
trapp
trauer
traugott
traum
traunstein
trautmann
traverse
travis
tre
trech
treck
trecken
treckt
treden
tree
treed
trek
trennt
trennung
trentino
tres
tresckow
trett
trevor
trial
trias
triathlet
triathletin
tribe
tribes
tribus
tribute
trick
trickeffekten
trient
trier
trikolore
trikot
trill
trilogie
trimble
trinidad
trinity
trio
tristan
tristano
triton
tritt
trittin
triumph
tro
trock
trocken
trois
trompete
trompeter
trondheim
tropen
tropical
tropisch
tropischen
trotz
troy
tru
truck
trucken
true
truffaut
trujillo
truman
trumbull
trummer
trump
trumpeter
trupermoor
trupp
truppen
trust
truth
truup
trøndelag
ts
tsbibliothek
tsch
tschad
tschbaltschen
tsche
tschechien
tschechisch
tschechischen
tschechoslowaaksch
tschechoslowaakschen
tschechoslowakei
tschechsch
tschechsche
tschechschen
tschen
tscher
tschigorin
tschland
tschspraakig
tse
tsel
tsen
tsien
tsk
tske
tskland
tsperfesser
tsstadt
tste
tstheorie
tsunami
tsv
tt
ttasien
ttcher
tte
ttel
tten
ttenangaav
ttenbund
ttendo
ttenhuus
ttenverband
ttenvereen
tter
ttere
tteren
ttern
ttert
ttgen
ttger
ttgere
ttich
ttin
tting
ttingen
ttinger
ttir
ttje
ttjen
ttjer
ttjere
ttjeren
ttjet
ttler
ttmer
ttner
ttodaags
ttpunkt
ttst
ttste
ttsten
ttstendeels
ttwo
tu
tucht
tucker
tudor
tun
tunesien
tung
tunnel
tunnen
turin
turkmenistan
turks
turku
turn
turnbull
turneer
turnen
turner
turneren
turnerin
turnier
turniere
turnieren
tus
tussen
tuttle
tuun
tuuscht
tuvalu
tv
tved
twaents
twalf
twater
twe
twedde
twee
tweed
tweede
tweeden
tweeflunken
tweegleisigkeit
tweemal
tweemol
tweeschen
tweet
tweete
tweeten
tweetgro
twei
tweibroken
twete
tweten
twice
twiefel
twieg
twiege
twiegen
twiegt
twielenfleet
twielenfleth
twievel
twilight
twin
twintig
twischen
two
twolf
twu
twuschen
twustern
tycho
tyler
tyne
tyner
typ
type
typen
typisch
typograaf
tyree
tyrone
tyrsting
tyson
tyyp
tyypsch
tyypsche
tyypschen
tz
tzassenholt
tzdo
tze
tzel
tzen
tzendo
tzenvereen
tzer
tzfleet
tzlich
tzliche
tzlichen
tzt
tzung
u
ua
ub
ubad
ubberud
uber
uble
uci
uckermark
ud
ude
udo
udp
udssr
ueber
uefa
uelzen
uer
uetersen
ufer
uganda
uhde
uhl
uhlig
uhlmann
uhr
uk
ukraine
ukrainsch
ukrainsche
ukrainschen
ulb
ule
ulen
ulf
uli
ulla
ullmann
ullrich
ullstein
ulm
ulmer
ulrich
ulrike
ulslev
ultimatum
ulu
ulysses
um
umberto
umbriel
umbrocht
ume
umer
umfaat
umfaaten
umfangriek
umfeld
umgang
umgebung
umgeven
umkamen
ummuddelt
umno
umsta
umstreeden
umto
umwannelt
umwelt
un
una
unafha
unafhangig
unafhangige
unafhangigkeit
unami
unbannig
unbannige
unbedingt
unbekannt
unbekannte
unbekannten
unbesta
unbestimmt
und
unde
under
underground
underwood
undset
une
unentscheeden
unesco
unfa
unfall
ungaarsch
ungaarsche
ungaarschen
ungarn
ungarsch
ungefa
unger
ungewitter
ungewo
unglu
ungu
uni
uniform
unio
union
unit
united
unitedville
univ
universal
universe
universita
universities
university
universum
unkel
unmo
unna
unnel
unnen
unner
unneraarden
unnerdeelt
unnerfamilie
unnerfamilien
unnergrund
unnernehmen
unnerornen
unnerricht
unnerscheden
unnerscheed
unnerscheedlich
unnerscheedliche
unnerschreven
unnerso
unnersocht
unnerwegens
uno
unregelmatig
uns
unseker
unser
unsere
unserer
unter
unterallga
unternehmen
unterstu
untersuchung
untersuchungen
untu
unvera
unvermodens
unverwacht
unzicker
up
upbau
upbaut
upbo
upboot
upbraken
update
updeelt
updra
updrag
updu
upenholt
upfaaten
upfallen
upfo
upfu
upgaav
upgahn
upgave
upgaven
upgeeven
upgeven
upgrund
uphollen
upkamen
upkla
upl
uplaag
uplage
upleggt
uplo
upmaakt
upmarksom
upmarksomkeit
upnahm
upnahmen
upnehmen
upnommen
upon
upper
uppsala
upricht
uprichten
upropen
upschreven
upsehn
upstand
upstellen
upstellt
upsternaatschen
upstieg
uptagen
uptakt
uptra
uptreden
uptreeden
upwiest
upwussen
ur
uran
urania
uranus
uranusmaanden
urban
urbana
urbina
urdu
urin
urkunn
urkunnen
urlaub
urquhart
urs
ursprung
ursula
urteil
uruguay
uruguayisch
uruguaysche
uruguayschen
us
usa
usbekistan
uschi
use
user
usgs
usher
uss
usw
ut
uta
utah
utarbeit
utbaut
utbenahmen
utbildt
utbildung
utbillen
utbilln
utbillt
utbo
utboet
utboot
utbraken
utbreden
utbreedt
utbreken
utbro
utbu
utdacht
utdehnen
utdehnt
utdragen
utdru
utdruck
ute
utenanner
uteneen
utermatig
utfa
utfallen
utfinnen
utfinner
utfo
utforschen
utforscht
utfu
utfunnen
utgaav
utgahn
utgang
utgangspunkt
utgave
utgaven
utgeiht
utgeven
utgleken
utgliek
utgraven
uth
uthleer
uthleererbarg
utigam
utklamu
utkrapen
utkunnt
utla
utland
utleggen
utleggt
utlehnt
utlo
utlopen
utmaakt
utmaken
utnahm
utnahmen
utnanner
utnannersetten
utneihn
utneiht
utnu
uto
utplu
utpra
utprobeert
utrecht
utreken
utrekent
utricht
utrichten
utropen
utru
utrum
utsaag
utschalten
utscheden
utscheeden
utscheedt
utschu
utschuss
utseggen
utsehn
utseht
utsett
utsetten
utsicht
utslaten
utslooten
utsnackt
utso
utspraak
utspraaken
utspraken
utspunnen
utstaffeert
utstarven
utstatt
utstellen
utstellt
utstellung
utstellungen
utsto
utstorven
utstrahlen
utstrahlt
utsu
utteken
uttekend
uttekent
utteknung
utteknungen
utterslev
uttofo
uttreden
uttuusch
uttuuscht
utwa
utwahl
utwannern
utwannert
utwassen
utwiest
utwiet
utwieten
utwirken
utwussen
uut
uv
uwe
v
va
vaagdie
vaagdiegericht
vaccinium
vadder
vader
vaders
vadersnaam
vagel
vagelnaams
vagels
vagina
vagts
vahl
vakuum
val
valde
vale
valea
valencia
valentin
valentine
valentinian
valerie
valerius
valetudo
valle
valley
valverde
van
vanadium
vance
vancouver
vandaag
vandag
vandage
vandagen
vandenhoeck
vane
vanessa
vantinge
vantore
vanuatu
var
varel
varela
vargas
variante
varianten
variatschonen
varieta
varley
varrel
vasallenstaat
vasco
vasconcelos
vaslui
vater
vatikaan
vatikan
vaucluse
vaughan
vaughn
vaux
vch
vd
vdstadt
ve
vec
vechte
vedby
vedder
veeh
veehtucht
veel
veele
veelen
veen
veer
veerdel
veerho
veerhusen
veermal
veermol
veern
veerner
veers
veert
veerte
veerteihn
veertelfinale
veerten
veertgro
veertig
vega
vegas
veh
vehicle
veit
vejle
vejleby
vekter
vel
vela
velasco
velden
vele
velen
velgu
velsmoor
veluws
ven
venbo
vende
venedig
venen
venezuela
venter
ventura
venus
ver
vera
veracruz
verafscheedt
verall
veranstalt
veranstalten
veranstaltung
veranstaltungen
verantwoortlich
verantwortlich
verantwortung
verapaz
verapenlicht
verarbeidt
verarbeit
verarbeiten
verb
verba
verbaden
verband
verbandsfunkschona
verbannt
verbayern
verben
verbetern
verbetert
verbindung
verbinnen
verbinnt
verbleven
verbo
verboden
verbot
verbrechen
verbreden
verbreedt
verbreken
verbreker
verbrekers
verbrennen
verbrennt
verbroch
verbrocht
verbruukt
verbu
verbund
verbunn
verbunnen
verda
verdacht
verdammt
verdanken
verde
verdeckt
verdeelen
verdeelt
verdeenst
verdeenste
verdeensten
verdeenstkru
verdeenstorden
verdeent
verdeffendeert
verdeffenderen
verdelen
verden
verdenen
verdi
verdra
verdrag
verdragen
verdrapen
verdregen
verdreven
verdrevene
verdrieven
verdu
verdun
vere
vereen
vereenen
vereenigt
vereenigte
vereenigten
vereenigung
vereens
vereent
vereente
vereenten
verehrt
verein
vereine
vereinigung
vereins
veren
verena
verenen
verfa
verfaat
verfaaten
verfahren
verfall
verfallen
verfallt
verfamilie
verfaten
verfilmen
verfilmt
verflach
verflachen
verfo
verfohren
verfolgen
verfolgt
verfolgung
verfolgungsrennen
verfranken
verfu
verga
vergaav
vergahn
vergahnd
vergang
vergangen
vergangenheit
vergeeven
vergeiht
vergeten
vergeven
vergevens
vergifft
vergiften
vergleken
vergliek
vergliekbor
vergliekbore
verglieken
vergliekswies
vergno
vergro
verha
verhaalt
verhaft
verhalv
verhandlungen
verhanneln
verhannelt
verhaupt
verheiraadt
verheiraat
verhinnern
verhinnert
verho
verhoeff
verhollen
verhollt
verhoopt
verhu
verkehr
verkehrt
verkehrte
verkehrten
verkeken
verkieken
verkiekt
verklaart
verklamen
verklaren
verkleedt
verkloort
verkloren
verklort
verknu
verko
verkoop
verkreisdirekter
verku
verl
verla
verlaaten
verlag
verlags
verlagsgesellschaft
verlangen
verlangt
verlaren
verlaten
verleden
verleefert
verleehn
verleeht
verleep
verleert
verleevt
verleger
verlegerin
verleggen
verleggt
verlehen
verlehnt
verleht
verleren
verlett
verletzt
verleven
verlevende
verlevert
verliga
verlo
verloop
verlopen
verlor
verloren
verlorene
verlu
verlust
verluste
verma
vermehren
vermehrt
vermeschacht
vermeten
vermiddeln
vermiddelt
vermisst
vermo
vermoden
vermodt
vermont
vermoodt
vermoot
vermootlich
vern
vernahm
vernahmen
verne
verneeland
vernehm
vernehmen
vernimmt
vernommen
vernon
vernunft
vero
verona
veronica
veronika
veroordeelt
veroorsaakt
verordeelt
verordnung
verordnungen
verornt
verpalz
verpass
verplicht
verraden
verraschen
verraschend
verrascht
verresten
verru
vers
versailles
versammeln
versammelt
versammlung
verschaven
versche
verscheden
verschedene
verschedenen
verscheeden
verscheelt
verschelen
verschen
verschu
verseekuntreien
versehn
versen
versenkt
versett
versetten
versetter
versetterin
versicht
versiedelt
version
versionen
versmo
verso
versocht
versorgen
versorgt
verspreken
verst
versta
verstahn
verstaht
verstand
verste
versteek
versteiht
versteken
versten
versto
verstu
versu
versuch
verswinnen
verswo
verswunnen
vert
verteidigen
verteidiger
verteidigung
vertell
vertellen
verteller
vertelln
vertellsel
vertellsels
vertellt
verto
vertreden
vertreder
vertreders
vertreeden
vertriddt
vertu
verve
verwacht
verwachten
verwalt
verwalten
verwalter
verwaltung
verwaltungs
verwaltungsbeamten
verwaltungsbezirk
verwaltungsdeenst
verwaltungsgemeenschop
verwaltungsgemeenschoppen
verwaltungsgemeinschaften
verwaltungsgeschichte
verwaltungsjurist
verwaltungsrebeed
verwaltungsreform
verwaltungssaken
verwandt
verwandte
verwandten
verwannelt
verweddern
verweegend
verwennen
verwennt
verwesseln
verwesselt
verwickelt
verwiest
verwinnen
verwo
verwunnen
verwunnt
very
verzeichnis
verzicht
ves
vesack
vesely
vest
vesta
veste
vestenskov
vester
vesterborg
vestre
veterina
veur
vfb
vfl
vfr
vgl
vi
via
viaf
viana
vibraphon
vic
vicente
vickers
victor
victoria
victory
vidal
video
videoku
videos
vie
viejo
viel
vieland
viele
vienna
vienne
vier
vierden
vietnam
vietnamkrieg
vieux
view
viez
viezadmiraal
viezkanzler
viezko
viezmeester
viezpra
viezweltmeester
vigelien
vigelienboer
vigelienspeler
vigelienspelerin
vigsnæs
vii
viii
viktor
viktoria
viktorialand
viktoriasee
vila
vilaine
vildo
vilhelm
villa
village
villanueva
villard
villars
ville
villeneuve
villers
villicht
villiers
vilsen
vin
vince
vincent
vincenzo
vindeby
vindinge
vinson
viola
violine
violinist
violoncello
viren
virgil
virgin
virginia
viroloog
virus
vischer
viscount
vision
visselho
visser
vist
vista
visuelle
vita
vitamin
vito
vittorio
vitus
viva
vivaldi
vivian
vlaanderen
vladimi
vladimir
vn
vo
voda
voerladega
vogel
vogl
vogt
voigt
voigtding
vokalen
vol
volapu
volk
volkens
volker
volkmar
volkmarst
volks
volksbank
volksgrupp
volksgruppen
volkskark
volkskunde
volkskundler
volksmusik
volkspartei
volksrepubliek
volksschool
volksweert
volksweertschopper
volksza
vollerso
volleyball
volleyballspeler
volleyballspelerin
vollmer
vollsmose
vollsta
volltext
volta
voltaire
volume
volumen
vom
von
vondaag
vonwegen
voor
vor
vorarlberg
vordem
vorga
vorkamen
vorpommern
vos
vosges
vosloog
voss
vosshusen
voyage
voyager
voß
vrancea
vre
vreden
vres
vries
vs
vt
vu
vuc
vuelta
vulgaris
vulkaan
vulkaansch
vulkaansche
vulkan
vulkanen
vulkanismus
vull
vulle
vullkamen
vullmaand
vullsta
vulltext
vun
vund
vundaag
vundagen
vundeswegen
vunenanner
vunwegen
vy
væggerløse
vær
w
wa
waadt
waag
waak
waakhusen
waal
waals
waar
waarn
waart
waarten
waaschen
wachholtz
wacht
wachter
wade
wadsworth
wagen
wagenfeld
wagner
wagners
wahl
wahlberechtigten
wahlen
wahlgang
wahlkamp
wahlkreis
wahlkreise
wahlkreisnummer
wahlperiood
wahlrecht
wahlspro
wahn
wahnen
wahnhu
wahnhuus
wahnsitt
wahnsteed
wahnt
wahnung
wahnungen
wahrheit
waibel
waigel
wainwright
wake
wakefield
walcott
wald
walde
waldeck
waldemar
walden
waldnaab
waldner
waleri
wales
walk
walker
wall
wallace
wallach
walle
waller
wallho
wallis
wallmann
wallonne
walloonsch
wallraff
wallstein
walnut
walsh
walt
walter
walther
walton
wand
wanda
wandalen
wandel
wandlu
wang
wangersen
wanho
wann
wanneer
wannehr
wannel
wannelt
wannen
wannern
wannert
want
wapen
wapens
wapenstillstand
wappen
war
warburton
ward
warden
warder
wardt
waren
warf
warft
warften
wark
warke
warken
warkt
warktu
warm
warmer
warms
warnduorp
warner
warnke
warr
warrd
warren
warrn
warrt
wars
warschau
warstood
wart
warum
warveldeerten
warveldeerter
warvellose
warwick
warwickshire
was
wash
washburn
washington
wasra
wass
wassdom
wassen
wasser
wassermann
wassili
wassiljewitsch
wasst
wat
watch
water
waterball
waterballspeler
waterboinscheno
waterdamp
waterfall
waterford
watergate
waterhouse
wateries
waterige
waterkant
waterlo
waterloo
waterloop
watermo
waterplanten
waters
waterscheed
waterspringer
waterspringerin
waterstoff
watson
watt
wattenmeer
watts
waugh
wave
wawrinka
way
wayne
wdr
we
weaver
web
webb
weber
webpra
webseite
websiet
website
websteed
webster
wecke
wecken
wedder
weddergeven
wedderkamen
weddersta
wedderstand
wedderstandska
wedderum
weddervereenigen
wedderwa
wedderwahl
weddewarden
wedel
wedelsforth
wedemeier
wedemeyer
weder
wee
weeg
weegt
weeht
week
weekdeerter
weeken
weeks
ween
weener
weer
weeren
weern
weersbe
weersbermoor
weert
weerten
weertschap
weertschop
weertschopplich
weertschoppliche
weertschops
weertschopsfunkschona
weertschopshistoriker
weertschopsinformatiker
weertschopsmanager
weertschopswetenschopper
weertschopswetenschopperin
weet
weeten
weetfro
weevspinnen
weg
wege
wegen
wegener
wegfullen
weggahn
weglopen
wegmaakt
wegmaken
wegnahmen
wegner
wehdel
wehden
wehl
wehldo
wehlen
wehner
wehnsen
wehr
wehrbleck
wehrdeenst
wehrli
wehrmacht
weibel
weid
weidemann
weiden
weidenho
weidmann
weidner
weigel
weigl
weih
weiht
weil
weiland
weiler
weilheim
weimar
weimarer
wein
weinberger
weiner
weinheim
weinrich
weir
weise
weiss
weiter
weitz
weizsa
weiß
weiße
weißen
weißenborn
weißenburg
weken
wekenenn
wel
welch
welche
welcome
welk
welke
welker
well
welle
wellen
wellenbalken
wellenlien
wellesley
wellington
wellmann
wells
welt
weltall
weltbild
weltcup
weltcuppunkte
weltcuprennen
weltcupsieg
welten
welter
weltfussball
weltkrieg
weltkulturarv
weltlich
weltmeester
weltmeesterin
weltmeesterschap
weltmeesterschapen
weltmeesterschop
weltmeesterschoppen
weltmeestertitel
weltranglist
weltrekord
weltruum
weltwiet
wen
wendell
wendland
wendt
wendy
wenig
wenige
wenigen
weniger
wenkerbogen
wenn
wennen
wennt
wens
wense
wentzel
wenzel
wep
wer
werden
werder
were
weren
werk
werke
werken
werkstatt
wern
werner
werra
werrn
werrt
werschenreeg
wersebe
werser
wersermarsch
wersermasch
wersermu
wert
wertschap
wertschaplich
wertschapswetenschapen
wertschapswetenschapler
wertung
wes
wesel
wesen
wesentlich
wesentlichen
weser
wesermuende
wesley
wesleyan
wessel
wesseln
wessels
wesselt
wesselwirken
wessely
wessen
wessex
wessloh
west
westafrika
westantarktika
westaustralien
westdu
westen
wester
westerbeek
westerbeverst
westerenn
westeresch
westerhamm
westerhoff
westerholt
westerland
westerlandfo
westermann
western
westersood
westertimk
westervees
westerwals
westerwannen
westerwelle
westerwisch
westeuropa
westfa
westfalen
westfaolen
westfreesch
westgo
westgoten
westhoff
westku
westlich
westliche
westlichen
westminster
westmo
westmoreland
westo
weston
westphal
westphalie
westpommern
westrand
westro
westsahara
westsied
weten
wetenmo
wetenschap
wetenschapen
wetenschapler
wetenschaplich
wetenschop
wetenschopliche
wetenschoplichen
wetenschoppen
wetenschopper
wetenschoppers
wetenschoppler
wetenschopplers
wetenschopplich
wetenschoppliche
wetenschopplichen
wetenschopshistoriker
weth
wetschken
wettbewarf
wettbewarfen
wetter
wettern
wetterndo
wettka
wettkamp
wettstriet
wetzel
wever
weyden
weyerbarg
weyermoor
weyhe
wg
wharton
what
wheaton
wheeler
whelan
when
where
which
whigs
whipple
whisky
whiskybrenneree
whiskylexikon
whiskyrebeet
whiskys
whitaker
whitbread
white
whiteman
whiting
whitley
whitman
whitney
whittaker
who
why
wi
wia
wiberg
wichita
wichmann
wichtig
wichtige
wichtigen
wichtiger
wichtigst
wichtigste
wichtigsten
wider
widerstand
widmann
widmet
wie
wiebe
wiebelsheim
wiebke
wieck
wieczorek
wied
wiedau
wieden
wieder
wiedere
wiederen
wiedergeven
wiederhen
wiederhenn
wiedspringer
wieflich
wiegand
wiegersen
wiegert
wiehbischop
wiehnachten
wiehnachtsmarkt
wieht
wieken
wiekt
wiel
wieland
wieldat
wieldes
wiels
wiemsdo
wien
wienborebeed
wiener
wiepenkathen
wier
wierer
wiersdo
wies
wiesbaden
wiese
wiesen
wiesinger
wiest
wiet
wiete
wieten
wieter
wietere
wieteren
wieterfo
wietergeven
wieterhen
wietgahnd
wiethen
wietsten
wievlich
wight
wik
wiki
wikiborn
wikidata
wikimedia
wikinger
wikingers
wikipedia
wikiquote
wiktionary
wiktor
wiktorowitsch
wilbur
wilckens
wilczek
wild
wilde
wilden
wilder
wildlife
wildnis
wiley
wilfred
wilfried
wilhadi
wilhelm
wilhelmine
wilhelms
wilke
wilken
wilkens
wilkes
wilkesland
wilkins
will
willard
wille
willehad
willehadi
willem
willems
willemsborg
willemshaben
willemshaven
willen
willi
william
williams
williamson
willibald
willie
willing
willis
willow
willows
wills
willy
wilmington
wilmot
wilms
wils
wilson
wilst
wilts
wiltshire
wim
wimbledon
wimmer
winchester
wind
windhuk
windmo
windows
windpark
windra
windsheim
windsor
winfield
winfried
wing
wingfield
wingst
winkel
winkeldo
winkler
winkopp
winnen
winner
winners
winnipeg
winnt
winogradow
winona
winsen
winston
wintemaur
winter
winters
wintersemester
winterspelen
winton
winzendo
wir
wirbellose
wird
wirken
wirklich
wirklichkeit
wirkt
wirkung
wirth
wirtschaft
wirtz
wirz
wisch
wischen
wischhoben
wischhobener
wisconsin
wise
wiseman
wismer
wismut
wiss
wisse
wissen
wissenschaft
wissenschaften
wissenschaftliche
wist
wit
with
witherspoon
without
witsch
witt
witte
witten
wittenbarg
wittenberg
wittenmoor
wittfru
wittkopsbossel
wittloh
wittmund
wittmunder
witto
wittruss
wittrussisch
wittrussland
wittst
witz
witzleben
wk
wladimir
wladimirowitsch
wladimirowna
wm
wo
woans
wobi
wochenblatt
wodo
wofaken
wofo
wohl
wohlenbeek
wohlers
wohlthatmassiv
wohltho
wohnen
wohnt
wohr
wohre
wohren
wohrhaftig
wohrheit
wohrnahmen
wohrnehmen
wohrschau
wohrschienlich
wohrschienlichkeit
wohrt
woiwodschop
wokeen
woldar
wolf
wolfe
wolff
wolfgang
wolfram
wolfratshausen
wolkonski
wolkow
woll
wollen
wolljes
wollte
wolsbuddel
wolter
woltern
woltmershusen
womack
woman
women
womit
won
wonderland
woneem
woo
wood
woodrow
woods
woodson
woodville
woodward
woody
woold
woolden
woonst
woor
woord
woorn
woort
woortaart
woortherkamen
wor
worcester
word
worde
worden
woren
work
works
workshop
world
worm
worms
worn
worpheim
worphusen
worpsweed
worr
worraftig
worrn
wort
wortfleet
worth
wortmann
woru
worup
worut
woveel
wovun
wrach
wrack
wrangel
wrede
wreem
wremen
wrestler
wright
wta
wu
wuddel
wuddeln
wuddels
wulf
wulfenbu
wulff
wulfsborg
wulfsen
wulk
wulken
wull
wullen
wulln
wullt
wulmsdo
wulsdo
wunder
wunderlich
wunn
wunnen
wunner
wunsch
wunsdo
wunsiedel
wupperdaal
wur
wurd
wurde
wurden
wurn
wurr
wurrd
wurrn
wurrr
wuss
wussen
wusten
wuster
wustrow
wuur
www
wyatt
wyman
wyneken
wynton
wyoming
x
xaibe
xaver
xavier
xc
xd
xe
xen
xenon
xf
xi
xico
xii
xiii
xiv
xt
xter
xv
xvi
y
ya
yalbac
yale
yamazaki
yangon
yates
year
years
yeats
yellow
yemeri
yo
yonne
york
yorker
yorkshire
yoro
yoshino
you
young
your
youth
youtube
yu
yucata
yukon
yvelines
yves
yvon
yvonne
z
za
zacapa
zacatecas
zach
zacharias
zachary
zagreb
zahlen
zahn
zambia
zanne
zapata
zar
zaro
zdf
ze
zealand
zeche
zee
zees
zef
zehn
zeilinger
zeiss
zeit
zeiten
zeitgeschichte
zeitler
zeitschrift
zeitung
zeitungen
zell
zellen
zeller
zellerfeld
zellkarn
zellula
zellweger
zement
zen
zenin
zeno
zensur
zensus
zentimeter
zentraal
zentraalafrikaansche
zentral
zentrale
zentralen
zentren
zentrum
zentrumspartei
zer
zeremonie
zersto
zeus
zeven
zevener
zhang
zie
ziegler
ziel
zikaden
zil
zimmer
zimmerman
zimmermann
zink
zio
zion
zist
zit
zitat
zitaten
ziteert
zittens
zivilisten
zkark
zo
zoarn
zola
zone
zonen
zoo
zoologie
zooloog
zoon
zoot
zoran
zquez
zt
ztabell
ztog
zu
zucker
zuckerrohr
zug
zugeho
zukertort
zukunft
zulu
zum
zung
zur
zuru
zusammen
zuse
zwar
zweck
zwei
zweig
zweite
zweiten
zwickau
zwischen
zwo
zwolle
zyklus
zypern
{
|
}
~
¢
£
§
¨
«
­
®
¯
°
±
²
³
´
µ
·
¹
»
½
×
ß
ße
ßel
ßen
ßer
ßig
ßler
ßsche
ßschen
ßt
ßte
ßtrupp
æ
ærø
ð
÷
ø
ønslev
ørslev
ørsted
øster
østofte
þ
ł
ło
ŋ
ɐ
ɑ
ɔ
ə
ɛ
ɣ
ʁ
ʃ
ʒ
ʰ
ʲ
ʷ
ʻ
ʼ
ʾ
ʿ
ˈ
ˌ
ː
˙
̀
́
̂
̃
̄
̆
̇
̈
̉
̊
̋
̌
̑
̓
̔
̛
̣
̥
̦
̧
̨
̩
̮
̯
̱
̸
͂
͡
α
β
γ
δ
ε
ζ
η
θ
ι
λ
μ
ν
ο
π
ρ
ς
σ
τ
υ
φ
χ
ψ
ω
ϕ
а
александр
в
връх
гора
е
и
к
м
н
о
с
у
ф
ч
і
ՙ
՚
՛
՜
՝
՞
՟
ա
աա
բ
բբ
գ
գգ
դ
դդ
ե
եե
զ
զզ
է
էէ
ըը
թթ
ժժ
ի
իի
լ
լլ
խխ
ծծ
կ
կկ
հ
հհ
ձ
ձձ
ղղ
ճճ
մ
մմ
յ
յյ
ն
նն
շշ
ո
ոո
ու
չ
չչ
պպ
ջ
ջջ
ռռ
ս
սս
վ
վվ
տտ
ր
րր
ցց
ւ
ււ
փփ
ք
քք
օօ
ֆ
ֆֆ
և
։
֊
֏
ִ
ַ
ּ
א
י
ך
פ
ר
ا
ٔ
ް
क
ज
ड
द
न
ब
य
र
ल
व
ा
ि
ी
ु
े
ो
्
ন
ব
য
র
়
া
ি
ু
ে
্
ா
ி
்
ಿ
්
་
င
န
ာ
ု
်
ម
រ
ស
ា
ី
្
​
‎
–
—
‘
’
‚
“
”
„
†
•
․
…
‪
′
″
‹
›
‿
⁡
₁
₂
₃
€
↑
→
↓
↔
↷
⇌
⇒
⇔
∂
∅
∈
∑
−
∗
∘
∙
∞
∫
≈
≡
⊆
⊙
⋅
③
④
⑦
─
┌
└
├
►
◄
☉
♀
♂
♠
♣
♥
♦
⚭
⟩
⟶
⺀
⺄
⺆
⺈
⺊
⺌
⺕
⺝
⺸
⺼
⿰
⿱
⿲
⿳
⿴
⿵
⿶
⿷
⿸
⿹
⿺
⿻
〢
い
た
の
゙
ア
イ
ク
コ
シ
ス
ト
ニ
フ
ユ
ラ
リ
ル
ン
・
ー
㇁
㇂
㇄
㇇
㇈
㇉
㇓
㐁
㐄
㐅
㐌
㐫
㐬
㐭
㐮
㐱
㑒
㒵
㒸
㒼
㓁
㓞
㔾
㕛
㕣
㖾
㘝
㚅
㚇
㚔
㚘
㝉
㝡
㝴
㝵
㞋
㞢
㞷
㠩
㠭
㠯
㡀
㡭
㡿
㢲
㢴
㣇
㣺
㥯
㪅
㫄
㫐
㫒
㫺
㬅
㬎
㬥
㬰
㲋
㳄
㷠
㸒
㸚
㸦
㼌
㼲
㽞
㿟
䀠
䂞
䍃
䏍
䒑
䖍
䖒
䖝
䖵
䙴
䚻
䜌
䝿
䡛
䧹
䪞
一
丁
丂
七
丄
丅
丆
万
丈
三
上
下
丌
不
与
丏
丐
丑
专
且
丕
世
丘
丙
业
东
丞
丢
丣
两
严
並
丨
丩
个
丫
丬
中
丮
丰
丱
串
丵
丶
丷
丸
丹
为
主
丽
丿
乀
乂
乃
久
乆
乇
么
义
之
乌
乍
乎
乏
乐
乑
乔
乖
乗
乘
乙
乚
乛
乜
九
乞
也
习
乡
乳
乾
亀
亅
了
亇
予
争
事
二
亍
于
亏
亐
云
互
亓
五
井
亘
亚
亜
亞
亟
亠
亡
亢
交
亥
亦
产
亨
亩
享
京
亭
亮
亯
亰
亲
亳
亶
亷
人
亻
亼
亾
仁
今
介
仌
从
仐
仑
仒
仓
仕
他
付
仝
代
令
以
任
企
伊
伏
伐
休
会
伯
但
位
何
佘
余
作
佥
使
來
侈
侌
侖
侯
侵
便
保
俞
信
修
倉
倍
候
倠
備
僉
僕
儿
兀
允
兂
元
兄
充
兆
兇
先
光
兊
克
兌
免
兑
兒
兓
兔
党
兜
兟
入
全
兩
兪
八
公
六
兮
兰
共
关
兵
其
具
典
兹
兼
冀
冂
冃
冄
内
冈
冉
冊
冋
册
再
冎
冏
冐
冒
冓
冖
冗
冘
军
农
冝
冡
冥
冫
冬
冷
几
凡
凢
凵
凶
凷
凸
凹
出
函
凾
刀
刁
刂
刃
刄
刅
分
切
刍
刑
刕
刖
列
刘
则
初
別
利
别
到
制
刺
則
削
剌
前
剡
剽
劉
力
功
加
劦
助
劫
劳
劵
勃
勇
勉
勒
動
務
勞
勤
勹
勺
勻
勾
勿
匀
匂
包
匆
匈
匊
匋
匍
匕
化
北
匚
匝
匡
匪
匱
匸
匹
区
医
匽
匿
區
十
卂
千
卄
卅
卆
升
午
卉
半
卌
华
卑
卒
卓
单
卖
南
卜
卝
卞
占
卡
卢
卣
卤
卦
卩
卪
卬
卯
印
危
即
却
卵
卷
卸
卻
厂
厃
厄
历
厈
厉
厌
厓
厘
厚
原
厤
厥
厨
厭
厲
厶
厷
厸
去
厼
厽
叀
参
參
叅
又
叉
及
友
双
反
叐
发
叒
叔
叕
取
受
叚
叜
叟
口
古
句
另
叩
只
召
可
台
叱
史
右
叵
号
司
叹
吂
各
吅
合
吉
吊
吋
同
名
后
吏
向
吕
君
吝
吞
否
含
启
吳
吴
吹
吾
呂
呆
呈
告
员
呙
周
命
咅
和
咎
咠
咢
咨
咸
咼
哀
品
哉
員
哥
哲
唐
商
啇
問
啚
啬
啻
善
喜
喬
單
喿
嗇
噩
嚴
囊
囗
囘
囙
囚
四
回
囟
因
囧
囬
困
囱
囷
固
国
圂
圅
國
圍
圓
土
圡
圣
圥
在
圭
地
圶
圼
坐
坒
坚
坴
垂
垔
垚
埀
埋
城
域
埶
執
基
堂
堅
堆
堇
堯
塞
墨
壘
士
壬
壯
声
壳
壴
壹
壺
壽
夂
处
夅
夆
备
夊
夋
夌
复
夏
夒
夕
外
夗
夘
多
夜
夢
大
夨
天
太
夫
夬
夭
央
失
夲
头
夷
夸
夹
夻
夾
奂
奄
奇
奈
奉
奎
奏
奐
契
奓
奔
奚
奞
奠
奢
奥
奭
女
奴
奻
好
如
妄
妙
妟
妥
妻
妾
姑
委
姜
威
娄
婁
婴
嬰
嬴
子
孑
孔
孕
孖
字
存
孚
孛
孝
孟
季
孤
学
孫
孱
學
宀
宁
宂
它
宅
宇
守
安
宋
完
宏
宓
宗
官
定
宛
宜
宝
客
宣
室
宮
宰
害
家
容
宾
宿
寄
寅
密
富
寒
察
寧
審
寫
寬
寮
寸
对
寺
寻
寽
対
寿
封
尃
射
将
將
專
尉
尊
尋
尌
對
小
少
尒
尓
尔
尖
尗
尚
尞
尢
尣
尤
尧
尨
尭
就
尸
尹
尺
尻
尼
尽
尾
尿
局
居
屈
屋
屎
屏
屑
展
屖
屚
属
屠
屡
屬
屮
屯
屰
山
屵
屾
岁
岂
岑
岡
岩
岳
岸
峯
島
崇
崑
崔
崖
崙
崩
嵬
嶲
巂
巛
川
州
巟
巠
巢
巤
工
左
巧
巨
巩
巫
差
己
已
巳
巴
巷
巸
巽
巾
巿
帀
市
布
希
帚
帛
帝
带
師
席
帶
常
干
平
年
幵
并
幷
幸
幹
幺
幻
幼
幽
幾
广
広
庄
床
底
店
庚
府
度
庫
庭
庶
康
庸
廉
廌
廛
廣
廩
廴
延
廷
建
廾
廿
开
弁
弃
弄
弇
弋
式
弓
弔
引
弗
弘
弜
弟
弥
弦
弱
張
強
强
彊
彌
彎
彐
彑
当
彔
录
彖
彗
彡
形
彥
彦
彧
彭
彳
役
彼
往
待
律
徒
得
徙
從
復
微
徵
德
心
忄
必
忌
忍
志
忝
忠
忩
快
念
忽
忿
思
怠
急
怱
恆
恒
恩
恭
息
悉
患
悤
悲
悶
惠
惡
惢
愁
愈
意
愛
感
慈
慧
慮
憂
憲
應
戀
戈
戉
戊
戋
戌
戍
戎
成
我
戒
戔
或
戚
戠
戢
截
戲
戶
户
戹
戼
戾
房
所
扁
扇
手
扌
才
打
托
执
承
折
拉
拜
拿
掌
推
提
摩
支
攴
攵
收
攸
改
放
政
敄
敏
敕
敖
敗
敝
敞
敢
散
敦
敫
敬
数
敷
數
斂
文
斉
斊
斗
斤
斥
斩
斬
斯
新
方
於
施
斿
旁
旋
族
无
旡
既
旣
日
旦
旧
旨
早
旬
旱
旲
时
旾
昆
昇
昌
昍
明
昏
易
昔
昗
昜
星
春
昬
是
昱
昴
昷
時
晃
晋
晏
普
景
晶
智
暑
暴
曇
曩
曰
曲
曳
更
曷
書
曹
曼
曾
替
最
朁
會
月
有
朋
服
朔
朕
朗
望
朝
木
朩
未
末
本
札
朮
术
朱
朵
朶
朿
杀
杏
杜
束
条
来
東
杲
杳
松
析
林
枚
果
枝
枲
枼
柏
某
柔
查
柬
柰
柴
栗
桀
桑
桼
梁
條
梟
梨
棉
棘
棠
棥
森
楚
業
楽
榮
樂
樊
欠
次
欣
欮
欲
欶
欽
款
歆
歇
歛
止
正
此
步
武
歨
歪
歮
歯
歰
歲
歴
歷
歸
歹
歺
死
殳
段
殷
殸
殹
殺
殻
殿
毋
毌
母
每
毒
比
毕
毚
毛
毳
氏
氐
民
气
氣
水
氵
氶
氷
永
氺
氾
求
汝
汞
江
沃
沓
沙
沝
油
泉
法
波
泣
泥
泰
泽
洛
洞
津
洪
活
派
流
浦
浪
浮
海
淡
淮
清
渚
渠
湯
滿
漸
火
灬
灭
灰
灵
灷
炅
炎
炏
炗
炙
炭
為
烈
烏
烝
焉
無
焦
焱
然
煞
熊
熏
燕
營
燮
爪
爫
爭
爯
爰
爱
爲
爵
父
爻
爽
爾
爿
片
牙
牚
牛
牜
牟
牢
牧
牪
牽
犀
犬
犭
犮
狂
狄
狊
独
狺
猋
猒
猪
献
獻
玄
率
玉
王
玟
玨
珎
班
琴
瑟
瑩
瓜
瓦
甘
甚
生
産
用
甫
甬
田
由
甲
申
电
甶
男
甸
甹
画
甾
畀
界
畏
畐
留
畜
畟
畢
畧
畨
番
畫
異
畱
當
畺
畾
疊
疋
疌
疑
疒
疾
癶
癸
癹
登
發
白
百
皀
皃
的
皆
皇
皋
皐
皕
皮
皷
皿
盃
盆
盇
盈
益
盍
盎
监
盒
盖
盛
盡
監
盤
盧
目
直
相
盾
省
眇
眉
看
眔
眞
真
眷
眼
眾
着
睘
睪
睿
瞏
瞢
瞿
矍
矛
矞
矢
矣
知
矦
短
石
破
碎
磊
磨
示
礻
礼
社
祟
票
祭
禀
禁
禸
禹
禺
离
禽
禾
禿
秀
秃
秉
秋
科
秝
秦
移
稟
穀
穌
穴
究
穹
空
穿
突
窄
窒
立
竒
竜
竝
竟
章
童
竹
笑
笠
筆
等
答
箕
算
箴
節
篤
篭
米
粉
粛
粟
粤
粦
粲
糞
糸
糹
系
約
納
素
索
紫
累
細
絜
絫
絲
維
綿
線
縣
繇
纍
纟
缶
网
罒
罔
罕
罗
罙
罡
罢
罪
署
罷
羅
羊
羌
羍
美
羔
羕
羗
羞
羡
羣
群
義
羲
羸
羽
翁
翏
習
翕
翟
翠
翼
老
耂
考
者
耆
而
耎
耑
耒
耳
耴
耶
耷
聂
聊
聖
聚
聶
聿
肀
肃
肅
肉
肖
肙
肥
肩
肯
育
肴
胃
背
胡
胥
能
脊
脩
膚
臣
臤
臧
自
臬
臭
臯
臱
至
致
臺
臼
臽
臾
臿
舀
舂
舄
與
興
舉
舌
舍
舛
舜
舞
舟
般
艮
良
色
艸
艹
艾
芒
芔
芬
芮
花
芳
芺
芻
苔
苗
苟
若
苦
英
茶
茸
荅
草
荒
荣
荼
莆
莧
莫
莽
菆
菊
菐
華
萬
落
葉
著
葛
董
葵
蒙
蒦
蒼
蓋
蓬
蓺
蔑
蔡
蕉
蕭
薄
薛
薦
薰
藍
藏
藥
蘭
虍
虎
虐
虒
虔
處
虖
虗
虘
虚
虛
虜
虞
虫
虽
蚤
蚩
蜀
蜜
蟲
蠡
血
行
衍
衛
衣
衤
表
衮
衰
袁
袞
褭
褱
襄
襾
西
覀
要
覃
見
規
覓
覧
親
覽
见
角
解
言
訁
訇
計
詹
語
誩
諸
讠
谷
豆
豈
豊
豐
豕
豖
豙
象
豦
豩
豪
豸
貇
貝
貞
貟
負
貢
貧
貪
貫
責
貳
貴
買
費
賁
資
賈
賏
賓
賔
賛
賞
賢
賣
質
賴
贊
贝
贡
责
贯
贲
贵
赖
赞
赤
赦
走
越
足
路
蹇
身
躬
車
軍
軎
軟
輦
车
辛
辜
辟
辥
辰
辱
農
辵
辶
边
达
过
近
连
迷
追
退
送
逆
逐
通
速
造
逢
連
逮
進
遀
遂
過
道
達
遣
適
遷
遺
邊
邑
邕
那
邦
邪
郎
郡
部
郭
都
鄉
酉
酋
配
酓
釆
采
里
重
野
量
金
釒
錢
钅
镇
長
镸
长
門
閃
閉
開
閏
閑
閒
間
閔
閵
閻
闌
门
间
闷
阑
阜
阝
阿
降
陳
隆
隊
隋
隡
隨
隱
隶
隹
隺
隻
隼
隽
难
雀
雁
集
雈
雋
雍
雐
雔
雙
雚
雜
雝
離
難
雨
雩
雪
雲
零
雷
需
霍
霜
霝
霞
霸
靈
靑
青
非
靡
面
靣
革
韋
韦
韭
韯
韱
音
頁
頃
項
須
頗
頡
頻
顛
页
風
风
飛
飞
食
飠
養
饣
首
香
馬
馮
駦
马
骨
高
髟
鬥
鬯
鬲
鬼
魚
魯
鮮
鱼
鲁
鳥
鳳
鸟
鹵
鹿
麃
麗
麥
麦
麻
黃
黄
黍
黎
黑
黒
黨
黹
黽
黾
鼎
鼓
鼠
鼻
齊
齋
齐
齒
齿
龍
龙
龜
龟
龠
龰
龱
龴
龵
龶
龷
龸
龹
者
艹
ﬓ
ﬔ
ﬕ
ﬖ
ﬗ
？
𐌰
𐌱
𐌲
𐌳
𐌸
𐌹
𐌽
𐌿
𐍂
𐍃
𐍅
𐍉
𠀁
𠀃
𠀆
𠀉
𠀎
𠀐
𠁁
𠁣
𠂆
𠂇
𠂈
𠂉
𠂊
𠂋
𠂎
𠂒
𠂔
𠂛
𠂡
𠂢
𠂤
𠂬
𠂭
𠂹
𠃊
𠃋
𠃌
𠃍
𠃎
𠃑
𠃓
𠃔
𠃜
𠄌
𠄎
𠄠
𠄢
𠆢
𠆥
𠇍
𠈌
𠌵
𠓜
𠔉
𠔥
𠔼
𠔽
𠔿
𠕀
𠕁
𠕋
𠘧
𠘨
𠙻
𠙼
𠚏
𠚒
𠚤
𠚪
𠣏
𠤎
𠤕
𠥓
𠦄
𠦑
𠦝
𠧒
𠧗
𠧪
𠩺
𠪚
𠫓
𠫔
𠫤
𠬛
𠬝
𠬞
𠬢
𠬤
𠬶
𠮛
𠮦
𠮷
𠯑
𠱠
𠳮
𠷎
𡈼
𡉀
𡉵
𡌥
𡍮
𡏳
𡕒
𡕩
𡕰
𡖅
𡗗
𡗜
𡘆
𡘤
𡧱
𡨄
𡩧
𡬠
𡭽
𡰣
𡰥
𡰪
𡰯
𡰱
𡷈
𡸁
𡿨
𡿩
𡿪
𡿺
𢀖
𢀛
𢀩
𢁙
𢆉
𢆰
𢆶
𢇁
𢇇
𢉖
𢌬
𢌿
𢏚
𢑑
𢑚
𢖻
𢙣
𢛳
𢦏
𢦒
𢧵
𢼄
𢾕
𣁋
𣄼
𣅀
𣅽
𣍘
𣎳
𣎵
𣏋
𣏼
𣗥
𣥂
𣥖
𣦵
𣦼
𣧄
𣪊
𣪠
𣬉
𣳾
𣶒
𤇾
𤊽
𤐫
𤓰
𤔔
𤕨
𤣩
𤰇
𤰔
𤰞
𤴓
𤴔
𤽄
𥁑
𥁕
𥃦
𥃩
𥃭
𥇡
𥑟
𥘅
𥘈
𥝢
𥫗
𥱡
𦈢
𦉪
𦉬
𦉼
𦍌
𦍒
𦎧
𦐇
𦓔
𦔮
𦘒
𦙃
𦚏
𦣝
𦣞
𦣻
𦥑
𦥔
𦥯
𦨉
𦭝
𦰩
𧆞
𧈧
𧘇
𧰨
𧴪
𧴮
𧵩
𧾷
𨸏
𨾴
𩙿
𩠐
𩫏
𩵋
𪉷
𪜀
𪟽
𪠲
𪩲
𫇦
𫔭
𫜸
𫝀
𫠣
𫠩
𫢉
𫥞
𫩏
𫩠
𫪡
𫲽
𫶧
𬀷
𬐘
𬗌
𬙙
𬛸
𬜯
𬟩
𬯁
𬴘
𬺻
𬼉
𬼖
𭀰
𭁈
𭁨
𭅰
𭑈
𭕄
𭗼
𭤨
𭥫
𭻾
𮅕
𮊿
𮍌
𮍏
𮓗
𮥼
𮧮
廾
𰀁
𰀄
𰀈
𰀉
𰀕
𰀠
𰀡
𰀢
𰀪
𰁜
𰃮
𰆊
𰆘
𰋙
𰕎
𰢴
𰧭
𰯲
000--
01--
010--
017--
02--
03--
04--
05--
06--
08--
09--
136--
854--
923--
925--
928--
93--
931--
932--
980--
a--
aa--
aal--
aan--
ab--
abben--
abe--
abend--
abra--
abs--
absol--
absor--
ac--
ach--
acht--
achter--
action--
ad--
adams--
adapt--
ade--
adel--
admini--
adop--
ae--
aemi--
aeros--
af--
afd--
aff--
afk--
afko--
aford--
afro--
afsp--
afto--
aftos--
afwi--
ag--
ah--
ahe--
ahl--
ahn--
ai--
aig--
air--
ak--
akade--
akko--
aks--
akt--
aktua--
akzept--
al--
alb--
alek--
alem--
alf--
alger--
ali--
alka--
all--
alle--
aller--
allie--
alpha--
als--
alt--
alten--
alve--
am--
amateur--
ame--
ami--
amphi--
amt--
an--
ana--
anc--
and--
anfer--
anfo--
ange--
angl--
anhy--
ani--
anima--
aniso--
ann--
anne--
anom--
anord--
anre--
ans--
ansa--
ant--
anth--
anthrop--
anti--
antisemit--
anto--
ao--
ap--
apen--
apok--
apostool--
appen--
appro--
aqua--
ar--
ara--
arc--
are--
argu--
ari--
arm--
art--
arv--
arz--
as--
asch--
ash--
asp--
ass--
assistenz--
assozie--
assy--
astro--
at--
aten--
atmosp--
atom--
au--
auf--
auk--
aus--
austra--
auto--
außer--
av--
aw--
ax--
ay--
az--
aß--
b--
ba--
baad--
bab--
bach--
back--
bad--
baden--
bag--
bagen--
bahn--
bak--
bal--
ball--
ban--
band--
bank--
bar--
barg--
bark--
barnk--
bas--
base--
basis--
baski--
bass--
bat--
bata--
bau--
bay--
baz--
bb--
bbe--
be--
bean--
beau--
bec--
beck--
bee--
been--
beer--
beg--
begl--
beha--
bei--
bel--
belage--
bell--
belle--
ben--
bent--
beo--
ber--
beren--
berg--
bern--
bes--
besat--
besich--
beso--
best--
besu--
bet--
beta--
betra--
beu--
beut--
bew--
bewa--
beweg--
bi--
bian--
bibel--
biber--
bibl--
biblio--
bick--
bidd--
bie--
bier--
big--
bild--
bill--
bin--
binnen--
binner--
bio--
biograf--
biologi--
bird--
birn--
bis--
bit--
bito--
bja--
bje--
bjø--
bl--
bla--
blau--
blei--
blie--
blo--
blood--
blu--
blue--
blume--
bo--
boarb--
bob--
bock--
bod--
boden--
bohn--
bohr--
bomb--
bomben--
bon--
bonn--
book--
boom--
boot--
bor--
borch--
bord--
borg--
born--
bos--
boss--
bost--
bot--
bott--
bou--
bow--
box--
boy--
boß--
br--
bra--
bram--
brand--
brau--
bre--
breef--
breit--
brenn--
brett--
bri--
brig--
briga--
bro--
brod--
brom--
brook--
bru--
bruch--
bry--
brø--
bu--
buch--
buck--
bud--
buern--
bug--
buko--
bulg--
bull--
bullen--
bund--
bundes--
bundsg--
bunt--
bur--
burck--
burg--
burgen--
burk--
bus--
but--
buten--
butenir--
butt--
buuk--
buur--
buy--
by--
byzant--
bø--
c--
ca--
cag--
cal--
camb--
camp--
can--
cap--
car--
carl--
cas--
cass--
cat--
ce--
cer--
cey--
ch--
cha--
cham--
chan--
charl--
che--
chef--
chemie--
cher--
chi--
chlor--
cho--
choor--
chor--
chr--
christ--
chro--
chron--
chry--
chryso--
chst--
cht--
chu--
ci--
cir--
ck--
cl--
cla--
cle--
clear--
clo--
clu--
cn--
co--
cog--
col--
cold--
cole--
com--
compo--
computer--
con--
constitut--
contr--
cor--
corn--
cos--
cou--
coud--
cour--
cow--
cr--
cra--
cre--
crit--
cro--
cron--
crone--
cru--
cu--
cum--
cut--
cuya--
cy--
cycl--
cz--
d--
da--
daal--
dack--
dag--
dagog--
dahl--
dal--
dallm--
dam--
damen--
damp--
dan--
danck--
dann--
danz--
dar--
data--
daten--
daug--
day--
dd--
dder--
de--
dea--
deaflymp--
deba--
deck--
dee--
deel--
deenst--
deep--
deer--
dei--
del--
delegat--
dem--
demo--
demonstra--
den--
denk--
depen--
der--
des--
det--
detek--
deu--
deute--
dev--
di--
dia--
dialekt--
dicht--
dick--
did--
die--
diek--
dill--
dimen--
din--
dio--
dir--
direkt--
dirig--
dis--
disc--
disk--
dist--
distribut--
dit--
divi--
dj--
dk--
dl--
do--
doc--
dog--
dom--
don--
dood--
doom--
door--
doot--
dor--
dorf--
dorn--
dorto--
dos--
dot--
dou--
dow--
dp--
dr--
dra--
dre--
dree--
drei--
dreih--
dressur--
drie--
driev--
drif--
dro--
drogen--
dru--
druck--
ds--
dt--
dte--
du--
dubbel--
duc--
duck--
duer--
dull--
dunk--
dur--
dus--
dwarg--
dweer--
dwest--
dy--
e--
ear--
east--
eb--
eber--
ecc--
eche--
eck--
ed--
edel--
ee--
eegen--
eek--
een--
eens--
eenzel--
eer--
eerd--
eerst--
eg--
egen--
egg--
eggen--
eh--
ehe--
ehr--
ehren--
ei--
eich--
eichen--
eier--
eig--
eigent--
ein--
eis--
eisen--
ej--
ek--
eken--
el--
elec--
elek--
elektro--
elf--
eli--
elk--
ell--
ellipt--
elm--
elo--
elv--
em--
emer--
emerit--
emi--
emot--
empi--
ems--
en--
end--
ene--
energie--
eng--
enn--
ent--
entom--
entomolog--
ents--
entspre--
environ--
enz--
ep--
epho--
epi--
epid--
epidemi--
er--
ere--
erfa--
erk--
erla--
ern--
ero--
ers--
erst--
erz--
es--
esch--
ess--
est--
este--
et--
eta--
etabl--
etappen--
ethn--
etrus--
ety--
etymolog--
eu--
euph--
euro--
europa--
euse--
ev--
evan--
ever--
every--
ew--
ex--
exem--
exist--
explo--
expo--
extern--
exzentr--
ey--
ez--
f--
fa--
face--
fach--
fack--
fahl--
fahr--
fair--
fakt--
falk--
falken--
familien--
fan--
fanta--
far--
farv--
fass--
fast--
fatt--
fau--
fe--
fed--
feern--
feernseh--
fehl--
fehren--
fei--
fein--
feld--
feli--
fell--
fels--
fen--
fer--
fernseh--
fest--
ff--
ffen--
fi--
fie--
fien--
fier--
fig--
film--
fin--
finan--
finanz--
fire--
fisch--
fitz--
fix--
fl--
fla--
flaag--
flat--
fle--
fleeg--
fleger--
flie--
flo--
floog--
flu--
fo--
fohr--
fohrrad--
folge--
folk--
foot--
football--
for--
form--
forst--
fort--
foto--
fou--
fox--
fra--
frakt--
fre--
fredens--
free--
frei--
frent--
freuden--
fri--
fried--
fries--
fro--
fru--
fruen--
fruit--
fry--
ft--
fu--
fund--
funk--
fy--
fø--
g--
ga--
gal--
gall--
gan--
gang--
gar--
gas--
gast--
gau--
gaz--
gb--
gd--
ge--
geb--
gedenk--
geel--
geest--
gefa--
gegen--
gei--
gel--
geld--
gem--
gemeen--
gemein--
gen--
generaal--
general--
geo--
geologi--
geomet--
ger--
gere--
ges--
gesa--
gesamt--
gesch--
geschichts--
gesel--
get--
gewerk--
gg--
gge--
gi--
giac--
giam--
gian--
gie--
gigan--
gil--
gill--
gins--
gio--
gisb--
gl--
gla--
glanz--
glas--
gleed--
glei--
glen--
gliek--
glo--
glu--
gm--
gna--
gnaag--
go--
god--
goddes--
godds--
gode--
gold--
golf--
good--
goot--
gor--
got--
gott--
gov--
gr--
gra--
grad--
graf--
graff--
gras--
grau--
gre--
greben--
green--
grenz--
gri--
grie--
griechi--
griems--
gries--
grig--
grim--
grin--
gro--
groot--
groß--
gru--
grund--
gry--
gsch--
gu--
gue--
guggen--
gugl--
guil--
guld--
gun--
gus--
gut--
guz--
gy--
gym--
gypt--
h--
ha--
haar--
hab--
haft--
hahnen--
hai--
hal--
half--
hall--
hals--
halv--
ham--
han--
hand--
hans--
hanse--
har--
hard--
harmon--
hart--
has--
hau--
haupt--
haus--
haven--
hay--
haß--
he--
hed--
hee--
heel--
heer--
heeres--
hei--
heid--
heide--
heim--
heimat--
hein--
helb--
helf--
hell--
helm--
hem--
hen--
hendr--
henk--
hento--
her--
herr--
herut--
het--
heu--
hew--
hex--
hey--
hg--
hi--
hie--
hig--
high--
hill--
him--
hin--
hip--
hippo--
his--
hit--
hitt--
hl--
hlen--
hler--
hm--
hn--
hnen--
hner--
ho--
hoch--
hoden--
hof--
hoff--
hoge--
hogen--
hohe--
holl--
holla--
holt--
holtz--
holz--
homo--
hooch--
hoog--
hop--
hori--
horn--
hot--
how--
hr--
hren--
hrs--
hu--
hund--
hur--
hus--
hut--
huus--
huut--
huy--
hy--
hya--
hybr--
hydro--
hyper--
hypo--
hø--
i--
ia--
iber--
ic--
id--
ide--
ie--
ies--
iesen--
ieshockey--
if--
ig--
ihl--
ik--
il--
illust--
im--
imag--
immobi--
immun--
impo--
improvi--
improvisat--
in--
inc--
indi--
indivi--
indo--
infeks--
infekt--
inflat--
info--
infra--
ing--
inge--
inn--
inne--
ins--
insol--
inst--
inszenie--
int--
integ--
intel--
inter--
interpretat--
into--
invest--
inw--
io--
ion--
ionen--
ionise--
ir--
ira--
iron--
is--
ise--
isenb--
iso--
it--
iv--
j--
ja--
jade--
jagd--
jahr--
jam--
jan--
jazz--
je--
jem--
ji--
jo--
jod--
johr--
johres--
jor--
jos--
ju--
jud--
jugend--
jun--
jung--
junioren--
jur--
justiz--
k--
ka--
kaak--
kai--
kala--
kalk--
kall--
kam--
kamer--
kamera--
kamp--
kampf--
kan--
kang--
kap--
kark--
karken--
karn--
karp--
karth--
kartog--
kasi--
kass--
kata--
kataly--
kath--
katho--
kau--
ke--
kel--
kem--
ken--
kepp--
ker--
kerck--
kerk--
kern--
key--
khu--
ki--
kie--
kiek--
kien--
kim--
kin--
kinn--
kinner--
kino--
kirch--
kit--
kj--
kla--
klapp--
klar--
klaveer--
kle--
kli--
klima--
klin--
klo--
klu--
kna--
kne--
kni--
knie--
kno--
knu--
ko--
koh--
kohl--
koll--
kolo--
kolonia--
koloniaal--
kommunal--
komp--
kompliz--
komposit--
komprom--
kon--
konfess--
konk--
konom--
kons--
konse--
konstitut--
konstrukt--
kont--
konven--
konzen--
konzert--
koord--
koorn--
kopp--
korn--
korr--
korres--
korrup--
kort--
kos--
kosy--
kova--
kr--
kra--
kraft--
kre--
kreat--
krebs--
kredit--
krei--
kreis--
krem--
kreool--
kreuz--
kriegsge--
kriegsver--
krist--
kristall--
krit--
kro--
kroon--
kru--
kry--
krypt--
ks--
ku--
kuc--
kugel--
kuli--
kull--
kult--
kultur--
kultus--
kum--
kump--
kumpone--
kuns--
kunst--
kunt--
kunz--
kur--
kurz--
kw--
ky--
kyrill--
l--
la--
laat--
lab--
lac--
lake--
lamp--
lan--
land--
landes--
lands--
landver--
lang--
langs--
lans--
lapp--
las--
lat--
lau--
lauten--
law--
lay--
laz--
lb--
lc--
ld--
le--
lea--
lebens--
led--
ledd--
leder--
lee--
leed--
leev--
legg--
legi--
legislatu--
leh--
lehr--
lei--
leich--
lein--
leis--
leit--
lek--
lem--
len--
leo--
lepi--
ler--
les--
let--
lett--
leu--
leukozy--
leup--
lew--
ley--
lf--
lg--
lgen--
li--
libe--
licht--
lie--
lieb--
lief--
liek--
lien--
life--
lig--
liga--
limb--
lin--
lind--
links--
lipp--
lips--
lit--
litau--
literatur--
litho--
liv--
lju--
lk--
lker--
ll--
lle--
llen--
ller--
llers--
lm--
lo--
logi--
loh--
long--
loop--
loot--
lorbeer--
los--
lot--
lou--
love--
low--
loy--
lp--
ls--
lt--
lu--
luc--
lud--
ludo--
luft--
luftfohrt--
lum--
lust--
lutt--
luud--
luut--
luy--
lv--
lver--
lvst--
ly--
lz--
m--
ma--
maand--
maat--
mab--
mac--
macht--
mad--
made--
mag--
magnifi--
maha--
mahl--
mai--
maje--
mak--
make--
makro--
mal--
mali--
mamm--
man--
manif--
mann--
mannschaps--
mantel--
mao--
mar--
mara--
marien--
marine--
mark--
markt--
mars--
mas--
masch--
massen--
mat--
mathematik--
max--
may--
maz--
mb--
mbil--
mc--
mcki--
md--
me--
med--
medien--
medik--
medizin--
meer--
meet--
mehl--
mehr--
mei--
mein--
meit--
mel--
memo--
men--
mer--
merri--
merse--
mes--
met--
meta--
metall--
mete--
meteor--
metropol--
mey--
mg--
mi--
micr--
mid--
midde--
middel--
mie--
mieg--
mig--
mik--
mikro--
mill--
min--
mir--
mira--
misch--
miss--
mit--
mito--
mitt--
mittel--
mk--
ml--
mm--
mmer--
mo--
mobi--
moe--
moi--
mol--
moldaaw--
molekularbi--
mon--
monog--
mont--
monte--
moor--
moos--
mor--
morm--
morp--
mort--
mos--
mou--
movi--
moy--
mp--
mr--
ms--
mt--
mto--
mu--
mudder--
mul--
mult--
mun--
mund--
muraw--
mus--
musik--
muske--
muskel--
musli--
mut--
mutat--
muus--
muy--
mw--
mwelt--
my--
n--
na--
naam--
naams--
nach--
nacht--
nad--
nah--
nahber--
nam--
nao--
nar--
nat--
national--
nato--
natrium--
natschonaal--
natschonal--
natur--
natuur--
nau--
naver--
navi--
naviga--
nay--
nb--
nd--
nde--
nder--
ne--
neben--
ned--
nedder--
nederla--
nee--
neeg--
neen--
nei--
nek--
nen--
neo--
ner--
nerven--
net--
nett--
neu--
neuen--
neuro--
neuroweten--
neven--
new--
news--
nf--
ng--
ngen--
nger--
nh--
ni--
nibelu--
nich--
nicht--
nie--
nieder--
nieg--
nien--
nig--
nij--
nik--
nil--
nin--
nir--
nis--
nj--
nk--
nl--
nn--
nne--
nnen--
nnens--
nner--
no--
noh--
nom--
non--
noor--
noord--
noot--
nor--
nord--
normal--
north--
nos--
not--
nouv--
noy--
ns--
nstler--
nt--
ntgen--
nu--
nuk--
null--
numer--
nur--
nuß--
ny--
nz--
nzen--
o--
oak--
ob--
ober--
oc--
oco--
octa--
ody--
oe--
of--
off--
offen--
offer--
og--
ogen--
oh--
ohrensf--
oi--
ok--
okzit--
ol--
old--
ole--
olen--
oll--
ollen--
olt--
oly--
olympia--
om--
ommel--
on--
one--
oogen--
ool--
oold--
oolt--
oor--
oort--
oorts--
oost--
ooster--
op--
open--
opern--
opl--
opp--
oppen--
opto--
or--
orchi--
ord--
ore--
orgel--
original--
ork--
ort--
orts--
os--
ost--
oster--
ot--
ott--
ou--
out--
ov--
over--
ow--
ox--
oz--
ozeaan--
p--
pa--
pac--
pal--
palen--
pan--
papeer--
par--
para--
park--
partei--
pas--
pass--
pat--
patri--
paw--
pay--
pazif--
pe--
pedi--
peer--
pel--
pen--
per--
perl--
pers--
petr--
pey--
pf--
pfar--
ph--
pha--
pharmak--
phi--
phil--
pho--
photog--
phy--
phys--
pi--
picc--
pick--
pid--
pie--
piel--
pier--
pig--
pill--
pin--
pine--
pio--
piss--
pit--
piz--
pl--
pla--
plaas--
planten--
plast--
platt--
platten--
play--
ple--
pleeg--
plie--
plu--
po--
poit--
pol--
polar--
polit--
politik--
polizei--
poll--
poly--
pomp--
pon--
pong--
poor--
pop--
port--
portu--
porz--
posit--
possessiv--
post--
pp--
ppel--
pr--
pra--
prakti--
pre--
press--
presse--
pri--
pries--
privat--
pro--
produ--
produkt--
profess--
profi--
promo--
proport--
provo--
pru--
pry--
ps--
psy--
psychi--
psycho--
psychologi--
pt--
pu--
publi--
publikat--
punkt--
pur--
py--
pyo--
q--
qu--
qua--
quanten--
que--
qui--
r--
ra--
raats--
rad--
rade--
radio--
raf--
rag--
ramb--
rams--
ran--
rand--
rang--
rap--
ras--
rassen--
rasta--
rat--
ratz--
rau--
raum--
raw--
ray--
rb--
rbi--
rch--
rd--
rder--
re--
rea--
reakt--
real--
realist--
reb--
rece--
rech--
rechts--
reck--
red--
ref--
reg--
regel--
regen--
regi--
regional--
registre--
regu--
reh--
rei--
rein--
reis--
reise--
reken--
rekord--
rel--
relat--
ren--
reno--
rep--
res--
resen--
resolut--
rest--
retro--
reut--
rev--
revol--
rey--
rez--
rezep--
rf--
rg--
rgel--
rger--
rher--
rho--
ri--
rich--
richt--
rick--
ridd--
rie--
riek--
rieks--
riep--
riese--
rig--
rijks--
rin--
ring--
ris--
ritt--
rk--
rken--
rl--
rlo--
rm--
rn--
rneh--
ro--
rob--
robot--
rock--
rod--
roh--
rohr--
rom--
ron--
rood--
roof--
root--
roque--
ros--
rose--
rosen--
ross--
rot--
rothen--
rott--
rouv--
row--
rox--
roß--
rp--
rper--
rr--
rreg--
rs--
rsch--
rspeel--
rst--
rt--
rte--
rts--
ru--
rui--
rull--
rum--
run--
rund--
rup--
rus--
rut--
rutto--
ruum--
ry--
rz--
rø--
s--
sa--
saag--
saal--
saar--
saat--
sack--
saison--
sal--
salam--
salz--
sam--
samt--
san--
sand--
sar--
sassen--
sat--
sater--
sau--
sc--
scar--
sch--
scha--
schaam--
schach--
schall--
scharm--
schaus--
sche--
scheet--
schen--
schie--
schim--
schipp--
schir--
schle--
schli--
schlie--
schni--
scho--
school--
schri--
schriev--
schrift--
schu--
schuul--
schwe--
sci--
scu--
se--
sea--
sec--
sed--
sedlm--
see--
seel--
segel--
seh--
sei--
seismo--
seker--
sekt--
sel--
selbst--
seleu--
sen--
sept--
seque--
ser--
sex--
sey--
sf--
sh--
she--
shi--
sho--
show--
shu--
si--
sie--
sieg--
siet--
sig--
sik--
silbe--
simu--
simulat--
sin--
sinfo--
sing--
sinn--
sir--
sit--
sk--
ska--
ske--
ski--
sko--
skorp--
sku--
sky--
sla--
slaap--
slaav--
slaaw--
slacht--
slag--
sle--
sli--
slo--
slott--
slu--
slubb--
sma--
sme--
smo--
smu--
smuck--
sna--
snee--
sni--
sno--
snu--
so--
soc--
sol--
solem--
solo--
solt--
sommer--
son--
sonder--
song--
souv--
sowjet--
soziaal--
sozial--
sp--
spa--
spe--
spec--
speel--
spei--
spek--
spektro--
spekulat--
speler--
sper--
spezia--
spi--
spil--
spir--
spitzen--
spo--
sport--
spraak--
spre--
spring--
sprint--
ss--
st--
sta--
staats--
stad--
stadt--
staffel--
stahl--
stamm--
stammes--
stan--
stand--
standard--
star--
start--
statt--
ste--
steef--
steek--
steen--
steern--
stein--
stell--
stemm--
sten--
ster--
stern--
sthet--
sti--
stich--
stie--
stil--
still--
stimm--
stipen--
stir--
sto--
stock--
stoff--
stoll--
stor--
storm--
story--
stra--
straaf--
straaten--
strahlen--
strand--
straten--
straß--
stre--
striek--
stro--
stroom--
stu--
studenten--
studien--
sty--
su--
sub--
subt--
sud--
sue--
sul--
sum--
sun--
super--
supp--
supra--
sur--
sus--
susque--
suu--
suur--
sv--
sver--
swa--
swamm--
swan--
swart--
swe--
swee--
swemm--
swi--
swie--
swim--
swoor--
swor--
swu--
sy--
symmetr--
symp--
sympho--
syn--
synchron--
synchroon--
syy--
sz--
sæ--
sø--
t--
ta--
taek--
tag--
tai--
takt--
tal--
tall--
tan--
tank--
tat--
tau--
te--
tea--
team--
tee--
teel--
teil--
teken--
tel--
telekommunika--
ten--
tennis--
teo--
ter--
tes--
test--
tet--
teu--
text--
textil--
tg--
th--
tha--
the--
theater--
theo--
ther--
thi--
thie--
tho--
thra--
throm--
thu--
thunder--
thy--
ti--
tie--
tied--
tiet--
tig--
till--
tim--
timm--
tin--
tis--
titel--
tja--
tla--
tm--
to--
tod--
todts--
tog--
tohoop--
tohopen--
toll--
tom--
ton--
too--
toon--
toord--
top--
topog--
tor--
tos--
tosamen--
tot--
tour--
tourist--
toxi--
tr--
tra--
tragi--
trans--
traut--
tre--
treck--
tri--
trick--
trig--
trin--
tro--
tron--
tru--
try--
træ--
ts--
tsch--
tschuk--
tt--
tten--
tto--
tu--
tuberku--
tun--
turn--
tus--
tv--
twe--
twee--
tweet--
twei--
ty--
typ--
tyyp--
tz--
tzen--
tzfle--
u--
ub--
ud--
ugan--
uhl--
uhlen--
uk--
ul--
ult--
ultravi--
um--
umwelt--
un--
una--
under--
une--
ungar--
unge--
uni--
unner--
uns--
unter--
up--
upfo--
upfu--
upl--
upper--
upsp--
upto--
ur--
uran--
urs--
us--
use--
ut--
utbu--
ute--
uth--
utla--
uto--
utto--
uttos--
utwa--
v--
va--
val--
valenz--
van--
var--
varia--
vd--
ve--
vec--
veds--
veeh--
veel--
veer--
vegetat--
veh--
vej--
vel--
ven--
venus--
ver--
veraf--
verant--
verapen--
verb--
verbe--
verbee--
vere--
vergl--
verl--
verlags--
verlet--
vern--
vernich--
vero--
vers--
versch--
verschi--
vert--
verun--
ves--
vey--
vi--
via--
vic--
vie--
vieh--
[...]
