!
"
#
##0
##1
##10
##11
##12
##13
##14
##15
##16
##17
##18
##19
##2
##20
##21
##22
##23
##24
##25
##26
##27
##28
##29
##3
##30
##31
##32
##33
##34
##35
##36
##37
##38
##39
##4
##40
##41
##42
##43
##44
##45
##46
##47
##48
##49
##5
##50
##51
##52
##53
##54
##55
##56
##57
##58
##59
##6
##60
##61
##62
##63
##64
##65
##66
##67
##68
##69
##7
##70
##71
##72
##73
##74
##75
##76
##77
##78
##79
##8
##80
##81
##82
##83
##84
##85
##86
##87
##88
##89
##9
##90
##91
##92
##93
##94
##95
##96
##97
##98
##99
$
%
&
'
(
)
*
+
,
-
.
/
0
00
000
001
002
003
004
005
006
007
008
009
01
010
013
014
017
018
019
02
020
021
022
025
026
03
032
036
04
040
041
043
044
046
048
05
058
059
06
062
068
069
07
072
075
076
077
08
080
083
088
09
098
1
10
100
1000
1002
1007
101
1010
1012
1013
1016
102
1020
1024
103
1038
104
1040
105
1050
106
107
108
109
11
110
1100
1103
1105
111
1111
112
1124
113
114
115
1150
1154
116
117
118
1180
1187
1189
119
12
120
1200
121
1219
122
1220
1227
123
1230
124
1241
125
1250
126
1268
127
1270
128
1285
129
1290
13
130
1300
1303
1304
1307
131
1310
1312
1318
132
1320
1322
133
134
1345
1346
135
1350
1355
136
1360
1362
1365
1367
137
1370
138
1380
139
14
140
1400
1404
1406
141
142
1420
1422
1428
143
1430
1436
144
1440
1445
145
1450
1451
1453
1454
1455
1456
1458
1459
146
1460
1461
1462
1464
1465
1468
147
1470
1471
1473
1474
1475
1476
1477
1478
1479
148
1480
1481
1482
1483
1485
1487
1489
149
1490
1491
1492
1493
1494
1495
1496
1497
1498
1499
15
150
1500
1501
1502
1503
1504
1505
1506
1507
1508
1509
151
1510
1511
1512
1513
1514
1515
1516
1517
1518
1519
152
1520
1521
1522
1523
1524
1525
1526
1527
1528
1529
153
1530
1531
1532
1533
1534
1535
1536
1537
1538
1539
154
1540
1541
1542
1543
1544
1545
1546
1547
1548
1549
155
1550
1551
1552
1553
1554
1555
1556
1557
1558
1559
156
1560
1561
1562
1563
1564
1565
1566
1567
1568
1569
157
1570
1571
1572
1573
1574
1575
1576
1577
1578
1579
158
1580
1581
1582
1583
1584
1585
1586
15868
1587
1588
1589
159
1590
1591
1592
1593
1594
1595
1596
1597
1598
1599
16
160
1600
1601
1602
1603
1604
1605
1606
1607
1608
1609
161
1610
1611
1612
1613
1614
1615
1616
1617
1618
1619
162
1620
1621
1622
1623
1624
1625
1626
1627
1628
1629
163
1630
1631
1632
1633
1634
1635
1636
1637
1638
1639
164
1640
1641
1642
1643
1644
1645
1646
1647
1648
1649
165
1650
1651
1652
1653
1654
1655
1656
1657
1658
1659
166
1660
1661
1662
1663
1664
1665
1666
1667
1668
1669
167
1670
1671
1672
1673
1674
1675
1676
1677
1678
1679
168
1680
1681
1682
1683
1684
1685
1686
1687
1688
1689
169
1690
1691
1692
1693
1694
1695
1696
1697
1698
1699
17
170
1700
1701
1702
1703
1704
1705
1706
1707
1708
1709
171
1710
1711
1712
1713
1714
1715
1716
1717
1718
1719
172
1720
1721
1722
1723
1724
1725
1726
1727
1728
1729
173
1730
1731
1732
1733
1734
1735
1736
1737
1738
1739
174
1740
1741
1742
1743
1744
1745
1746
1747
1748
17481
1749
175
1750
1751
1752
1753
1754
1755
1756
1757
1758
1759
176
1760
1761
1762
1763
1764
1765
1766
1767
1768
1769
177
1770
1771
1772
1773
1774
1775
1776
1777
1778
1779
178
1780
1781
1782
1783
1784
1785
1786
1787
1788
1789
179
1790
1791
1792
1793
1794
1795
1796
1797
1798
1799
18
180
1800
1801
1802
1803
1804
1805
1806
1807
1808
1809
181
1810
1811
1812
1813
1814
1815
1816
1817
1818
1819
182
1820
1821
1822
1823
1824
1825
1826
1827
1828
1829
183
1830
1831
1832
1833
1834
1835
1836
1837
1838
1839
184
1840
1841
1842
1843
1844
1845
1846
1847
1848
1849
185
1850
1851
1852
1853
1854
1855
1856
1857
1858
1859
186
1860
1861
1862
1863
1864
1865
1866
1867
1868
1869
187
1870
1871
1872
1873
1874
1875
1876
1877
1878
1879
188
1880
1881
1882
1883
1884
1885
1886
1887
1888
1889
189
1890
1891
1892
1893
1894
1895
1896
1897
1898
1899
19
190
1900
1901
1902
1903
1904
1905
1906
1907
1908
1909
191
1910
1911
1912
1913
1914
1915
1916
1917
1918
1919
192
1920
1921
1922
1923
1924
1925
1926
1927
1928
1929
193
1930
1931
1932
1933
1934
1935
1936
1937
1938
1939
194
1940
1941
1942
1943
1944
1945
1946
1947
1948
1949
195
1950
1951
1952
1953
1954
1955
1956
1957
1958
1959
196
1960
1961
1962
1963
1964
1965
1966
1967
1968
1969
197
1970
1971
1972
1973
1974
1975
1976
1977
1978
1979
198
1980
1981
1982
1983
1984
1985
1986
1987
1988
1989
199
1990
1991
1992
1993
1994
1995
1996
1997
1998
1999
2
20
200
2000
2001
2002
2003
2004
2005
2006
2007
2008
2009
201
2010
2011
2012
2013
2014
2015
2016
2017
2018
2019
202
2020
2021
2022
203
204
205
206
207
208
209
21
210
211
212
213
214
215
216
217
21769
218
219
22
220
221
222
223
224
225
226
227
228
229
23
230
231
232
233
234
235
236
237
238
239
24
240
241
242
243
244
245
246
247
248
249
25
250
2500
251
252
253
254
255
256
257
258
259
26
260
261
262
263
264
265
266
267
268
269
27
270
271
272
273
274
275
276
27616
27628
277
278
279
28
280
281
282
283
284
285
286
287
288
289
29
290
291
292
293
294
295
296
297
298
299
3
30
300
3000
301
302
303
304
305
306
307
308
309
31
310
311
312
313
314
315
316
3166
317
318
319
32
320
321
322
323
324
325
326
327
328
329
33
330
331
332
333
334
3349
335
336
337
338
339
34
340
341
342
343
344
345
346
347
348
349
35
350
3500
351
352
353
354
355
356
357
358
359
3590
36
360
361
362
363
364
365
366
367
368
369
37
370
371
372
373
374
375
376
377
378
379
38
380
381
382
383
384
385
386
387
388
389
39
390
391
392
393
394
395
396
397
398
399
4
40
400
4000
401
402
403
404
405
406
407
408
409
41
410
411
412
413
414
415
416
417
418
419
42
420
421
422
423
424
425
426
427
428
429
43
430
431
432
433
434
435
436
437
438
439
44
440
441
442
443
444
445
446
447
448
449
45
450
451
452
453
454
455
456
457
458
459
46
460
461
462
463
464
465
466
467
468
469
47
470
471
472
473
474
475
476
477
478
479
48
480
481
482
483
484
485
486
487
488
489
49
490
491
492
493
494
495
496
497
498
499
5
50
500
5000
501
502
503
504
505
506
507
508
509
51
510
511
512
513
514
515
515921
516
517
518
519
52
520
521
522
524
525
526
527
528
529
53
530
531
533
534
535
536
537
538
539
54
540
541
542
543
544
545
546
547
548
549
55
550
551
552
553
554
555
556
557
558
559
56
560
561
562
563
564
565
566
567
568
569
57
570
571
572
573
574
575
576
577
578
579
58
580
581
582
583
584
585
586
587
588
589
59
590
592
593
595
596
5968
597
598
6
60
600
6000
601
602
603
604
605
606
607
608
61
610
611
61194
612
613
614
615
616
618
62
620
621
622
623
624
625
626
627
628
629
63
630
631
632
633
634
635
636
637
638
639
64
640
641
642
643
644
645
646
647
648
649
65
650
651
652
653
654
655
656
657
658
659
66
660
661
662
664
665
666
667
668
669
67
670
671
672
673
674
675
676
678
679
68
680
681
683
684
685
686
687
688
689
69
690
691
693
694
695
696
697
699
7
70
700
701
702
704
706
707
708
709
71
710
711
712
714
715
716
717
718
719
72
720
721
722
723
725
726
727
728
729
73
730
731
733
734
735
737
738
739
74
740
741
742
743
744
7442
747
748
749
75
750
751
752
753
754
755
756
7566
757
758
759
76
760
761
762
764
765
76578
766
767
7679
768
769
77
770
7701
771
772
773
774
775
776
777
778
779
78
780
781
782
783
784
785
786
7864
787
788
789
79
790
791
792
793
795
797
798
799
8
80
800
8000
8001
801
802
803
804
805
806
808
809
81
810
811
812
813
814
815
818
82
820
822
823
825
8252
8274
828
829
83
830
8304
831
832
833
834
836
837
838
839
84
840
841
842
843
844
845
846
848
85
850
851
852
853
854
854645
858
86
860
86108
862
863
864
865
866
867
868
87
870
871
872
874
875
876
87651
877
878
88
880
881
882
88309
884
886
88680
887
888
889
89
890
891
89104
894
89440
895
896
89602
89678
897
89784
899
9
90
900
901
904
908
91
910
911
912
914
915
918
919
92
922
923
927
929
93
930
935
936
937
94
942
943
944
945
946
95
950
951
952
954
955
956
957
958
959
96
960
961
962
963
964
965
966
968
969
97
971
972
973
974
975
976
977
978
979
98
980
9806090
981
983
984
985
986
987
99
990
991
992
994
995
996
998
999
:
;
<
=
>
?
@
\
^
_
`
a
aa
aaaacaaj
aachen
aadler
aaft
aal
aalen
aalto
aan
aant
aante
aanten
aantenvagels
aarden
aargau
aarhus
aaron
aart
aarten
aas
aasp
ab
abbe
abbendo
abbenseet
abbey
abbott
abc
abdullah
abe
abegg
abel
abend
abendblatt
abenteuer
aber
abercrombie
aberdeen
abgeordnete
abgerufen
abhandlungen
abitur
abiy
about
abraham
abs
abschied
absencen
absolveert
absorbeert
abstract
abt
abtei
abu
ac
acade
academia
academic
academy
ace
ach
achem
achievement
achille
achim
acht
achte
achtelfinale
achten
achter
achteran
achterbeen
achterdiek
achtere
achteren
achterflunken
achtergru
achtergrund
achterher
achterlaaten
achterland
achterlief
achtern
achterna
achternah
achtho
acker
ackerbo
ackerland
ackerman
ackermann
acosta
act
acta
action
actionfilm
actors
ad
ada
adagio
adair
adalbert
adam
adams
adamson
adb
addelborg
adderley
addison
ade
adel
adelaide
adele
adelheid
adelsdorp
adelstitel
adenauer
adenauers
adern
adickes
adler
administration
admiraal
admiral
admiralita
adolf
adolfo
adolph
adolphe
adopteert
adress
adria
adriaan
adrian
adriana
adriano
adriatico
adrien
adulte
adulten
advanced
advancement
advent
adventisten
adventures
advisory
ae
aeropuerto
aerosolen
aerosolpartikels
aeshna
af
afa
afanassjew
afbild
afbildt
afbillen
afbillt
afbo
afboet
afboot
afbraaken
afbraken
afbreken
afbrennt
afbro
afbroken
afd
afdeckt
afdeel
afdeelen
afdeelt
afdelen
afdragen
afdruckt
affa
affair
affairs
affall
affo
affohrt
affolg
affu
afgaav
afgeven
afghanistan
afgifft
afgrenzen
afgrenzt
afha
afhangig
afhangigkeit
afhangt
afholen
afhollen
afk
afkaat
afkamen
afko
afkommen
afkregen
afkummt
afkumst
aflagern
aflagert
afleddt
afleggen
afleggt
aflehnen
aflehnt
afleiden
afleidt
afleist
afleit
aflo
afloop
aflopen
afmaakt
afnahmen
afnehmen
afordente
afordenten
afordnete
afordneten
afordneter
afornte
afornten
aforntenhuus
afreeten
afreten
africa
african
afrieten
afrika
afrikaans
afrikaansch
afrikaansche
afrikaanschen
afrikaforscher
afro
afroamerikaner
afroopen
afropen
afru
afsacken
afsackt
afscha
afschaffen
afschafft
afscheed
afscheedt
afseggt
afsehn
afsett
afsetten
afsicht
afsichten
afslaten
afslepen
afslooten
afsluss
afsluten
afsluut
afsluute
afsluuten
afsmeten
afsnackt
afsneden
afsnidd
afsnitt
afsnitte
afsnitten
afsolute
afsolventen
afspann
afspeelt
afsperrt
afspleten
afspraken
afsta
afstammen
afstammt
afstammung
afstand
afstieg
afstimmen
afstimmt
afsto
afstrahlt
afstro
afteken
after
aftheker
aftrecken
aftreden
aftrennt
aftwiegen
aftwiegt
afwater
afwaterverband
afwehr
afwehren
afwehrspeler
afwesseln
afwieken
ag
again
against
agamemnon
agatha
agathe
agder
age
agency
agent
agenten
agentin
agentur
aggressiv
aggro
agnes
agon
agostini
agoult
agrarwetenschopper
agua
aguacate
aguiar
aguilar
agusti
ah
ahlden
ahlen
ahlenfalkenbarg
ahlerstedt
ahmed
ahn
ahnen
ahrens
ahusen
ai
aid
aids
aime
ain
ainsworth
air
airbus
aircraft
aires
airlines
airport
ais
aisch
aise
aisne
aitken
aix
ajax
ak
akademie
akademisch
akademische
akademischer
aken
akershus
aki
akira
akkerat
akraat
akron
akschoon
akt
akte
akten
aktion
aktiv
aktive
aktiveeren
aktiveert
aktiven
aktivist
aktivistin
aktivita
aktschonen
aktschoon
aktualiseert
aktualiseerte
aktuell
aktuelle
aktuellen
akureyri
akustik
akustische
akute
akzepteert
al
alabama
alain
alajuela
alamo
alan
alarich
alarm
alaska
alb
alba
albaanschen
alban
albanien
albany
albedo
alben
albers
albert
alberta
alberti
alberto
alberts
albertville
albifrons
albin
albrecht
albright
albst
album
albumin
albums
alcatraz
aldag
aldea
aldo
aldrich
aldridge
aldrin
alec
alejandro
aleksandar
aleksander
alembert
aleppo
alert
alessandro
alex
alexander
alexandra
alexandre
alexandria
alexandrowitsch
alexei
alexejew
alexejewitsch
alexijewitsch
alexis
alf
alfaro
alfons
alfonso
alfred
alfredo
alfs
alfst
algen
algerien
algier
ali
alias
alibi
alice
alicia
alien
aliens
aline
alison
aljechin
alkalimetallen
alkanen
alkenvagels
alkohol
all
alla
allan
alldag
alle
allee
alleen
alleenig
allegheny
allegro
allein
allelen
allem
allen
allendale
allende
allens
aller
allerdings
allerdo
allerhand
allerhilligen
allers
allerwegens
alles
allga
allgemeen
allgemeene
allgemeenen
allgemeine
allgemeinen
allgemene
allgemenen
alliance
allianz
allieerte
allieerten
allier
alliierten
allison
allma
allmers
allmusic
allns
allto
alltohoop
alltohopen
alltosamen
allwo
alma
almas
almeida
alois
alonso
alopochen
aloys
alpen
alpers
alpes
alpha
alphabet
alphonse
alpine
als
alsen
also
alt
alta
altamira
altar
alte
alten
altenburg
alter
alternativ
alternative
alternativen
altes
altmaier
altman
altmann
altno
alto
altona
altor
aluminium
alumni
alvarez
alverdissen
alves
alvin
always
alwin
alzheimer
am
amadeus
amalia
amalie
amalthea
amanda
amandala
amano
amateur
amateure
amazonas
amber
amberg
ambroise
ambrose
ambrosius
ame
amelia
amelkusen
amenn
amenne
america
american
amerika
amerikaansch
amerikaansche
amerikaanschen
amerikaner
amerikanerin
amerikaners
amerikanischen
ami
amiens
aminosu
ammerland
ammoniak
ammoniten
among
amor
amore
amorph
amos
amour
amphibien
amstel
amsterdam
amt
amteeren
amtlich
amtliche
amtliches
amtlu
amtmann
amtsantra
amtsassesser
amtsgericht
amtsgerichten
amtshauptmann
amtsjuristen
amtsperiood
amtsrichters
amtsschriever
amtsschrievers
amtsspraak
amtssprake
amtsspraken
amtstied
amtstiet
amtsvaagdie
amundsen
amy
an
ana
analog
analoge
analyse
analysen
analysis
anand
anarchist
anare
anas
anastomosen
anatoli
anatomie
anatomy
anatoom
anbacksel
anbackt
anbaden
anbau
anbaut
anbeden
anbinnen
anbo
anboden
anboot
anboren
anbott
anbro
anbrocht
anbunnen
anc
anca
ancash
ancient
and
andalusien
andeel
andeelen
andelen
anden
andenken
andere
anderen
anders
andersen
anderson
anderssen
andersson
andoon
andorra
andra
andrag
andre
andrea
andreas
andrei
andrej
andrejewitsch
andres
andresen
andreven
andrew
andrews
andriev
andromeda
andrzej
andu
anduern
anduert
andy
anerkannt
anerkennen
anerkennung
anette
anfa
anfall
anfang
anfangen
anfangs
anfangstiet
anfangt
anfertigt
anfo
anfru
anfu
anfung
anfungen
ang
angaav
angaben
angahn
angaven
ange
angeblich
angebot
angeho
angeiht
angel
angela
angelegenheiten
angeles
angelika
angeln
angelo
angels
angelsassen
angelsassisch
angerer
angesichts
angeven
angevlich
angewandte
angifft
anglikaansche
anglikaanschen
anglist
anglo
angola
angreep
angreepen
angrepen
angriepen
angrieper
angriepers
angst
angu
angus
anha
anhalt
anhand
anhang
anhangers
anho
anhollen
anholt
anhu
ani
animal
animator
animatschoonsfilm
animeert
anita
anja
anjou
ankamen
anke
ankeeken
ankeem
ankeken
anker
ankieken
anklaag
anklaagt
anklaagten
anklage
anklam
ankloh
anknu
ankommen
anku
ankummt
ankunft
anla
anlaag
anlaat
anlagen
anlass
anleggen
anleggt
anlehnen
anlehnt
anliggen
anloop
anlopen
anmarken
anmellt
ann
anna
annahm
annahmen
annalen
annan
anne
annegret
annehmen
annekteert
anneliese
annemarie
anner
annere
anneren
annerlingen
annern
anners
annersru
annersrum
annert
annerthalv
annerwegens
annette
annexion
annie
annika
anniversary
anno
annommen
annual
anonym
anopheles
anorden
anordent
anordnet
anordnung
anorganischen
another
anpassen
anpasst
anplant
anraden
anreegt
anregen
anregt
anregungen
anriekert
anro
anropen
ans
ansa
ansammeln
ansammelt
ansatz
ansbach
anschu
anseggt
ansehn
anselm
anser
ansett
ansgar
ansgari
ansicht
ansichten
ansiedeln
ansiedelt
ansla
anslag
anslahn
anslaten
anslooten
ansluss
anslusssteed
anslussteed
ansluten
ansluuten
ansluutend
ansnackt
ansonsten
anspeel
anspeelt
anspelen
anspro
anspruch
ansta
anstalt
anstalten
anstatt
ansteed
anstegen
ansteken
anstellen
anstellt
anstellten
anstellung
anstieg
anstiegen
ansto
anstreevt
anstu
anta
antall
antarctic
antarctica
antarktika
antarktis
antarktische
antarktischen
antarktisexpeditschoon
ante
anteken
antennen
anterior
antert
antholz
anthony
anthropologie
anthropologin
anthropoloog
anti
antideelken
antigen
antigenen
antigua
antik
antike
antiken
antiko
antillen
antimon
antiochia
antiochos
antioquia
antiquar
antisemitismus
antje
anto
antodrapen
antodrepen
antofangen
antofinnen
antogriepen
antoine
antoinette
antokieken
antoleggen
anton
antonehmen
antonelli
antoni
antonia
antonio
antonius
antonow
antrecken
antreden
antreeden
antrim
antwerpen
antwoort
antwoorten
antwort
anwa
anwassen
anwendt
anwennen
anwennt
anwesen
anwesend
anwesenheit
anwiesen
anwiest
anwussen
anzeigen
anzeiger
ao
aorta
apache
apachen
apartheid
apel
apen
apene
apenen
apenlich
apenliche
apenlichen
apenlichkeit
apenmaakt
apenmaken
apentlich
apentliche
apentlichen
apentlichkeit
aphel
aphrodite
apollo
apollon
apostel
apostelgeschicht
apostels
apparat
apparatspott
appel
appelbeek
appeln
appels
appelsort
appelsorten
apple
appleton
applied
approach
april
aquarelle
aquitanien
ar
ara
araabsch
araabsche
araabschen
arabers
arabica
arabien
arad
arago
aragon
arama
aramis
aranda
arapaho
arbeid
arbeiden
arbeider
arbeiderpartei
arbeiders
arbeidt
arbeit
arbeiten
arbeiter
arbeiters
arbeitgever
arbeitsgrupp
arbeitskreis
arbeitslosigkeit
arbeitstitel
arbor
arc
archa
archaeen
arche
archer
archibald
archie
archimbaud
archipel
architekt
architekten
architektin
architektur
archiv
archivar
archive
archives
ard
arde
arden
ardennes
are
area
arena
arend
arendt
arens
arensch
arensperg
arequipa
ares
argentiensch
argentiensche
argentienschen
argentinien
arger
arges
argon
arias
arie
ariel
aristoteles
arizona
arkansas
arktis
arm
armand
armando
arme
armee
armeen
armeensch
armeensche
armeenschen
armen
armenia
armenien
armeniers
armin
arminia
armitage
armoot
armor
arms
armsdo
armsen
armstrong
army
arnd
arndt
arne
arnim
arno
arnold
arnt
aroma
around
arp
arrangements
arrangeur
arrango
arrest
arrondissement
arrow
arroyo
ars
arsdo
arsen
art
artdirector
arte
artemis
arten
arteria
arterie
arterien
arthur
article
artie
artikel
artikels
artillerie
artist
artists
arts
artur
arturo
aruba
arv
arven
arvid
arvt
arzbischo
arzbischop
arzbisdom
arzstift
arzt
as
ascap
asch
asche
aschwarden
asel
asendo
aserbaidschan
ash
ashby
ashland
ashley
ashton
ashusen
asia
asien
asp
aspekt
aspekte
aspekten
aspx
ass
assen
assenma
assens
assesser
assistant
assistent
assmann
associate
associated
association
asteroid
asteroiden
astrid
astronaut
astronauten
astronautenta
astronautin
astronom
astronomen
astronomical
astronomie
astronomin
astronomy
astronoom
astronoomsch
astronoomsche
astronoomschen
astrophysics
astrophysik
astrophysiker
asturien
at
atalanta
atelier
aten
atenluft
atenschuulreedschoppen
athen
athena
athenaeum
athene
athens
atherton
athlet
athleten
athletinnen
athos
atkinson
atla
atlanta
atlantic
atlantik
atlantique
atlantiques
atlantis
atlas
atmospha
atoll
atom
atombomb
atomen
atomic
atomkarn
atomkarns
atomphysik
atomtall
atomteken
atp
attena
attenta
attentat
attika
attila
atwood
au
aube
aubert
aubin
aubry
auch
auckland
aude
audio
auditer
audrey
auerk
auerker
auf
aufbau
aufbruch
aufl
auflage
aufsa
aufstieg
auftrag
aufzu
auge
augen
augsborg
augsburg
august
augusta
auguste
augustin
augustine
augustinus
augusto
augustus
auk
aula
auld
aulen
aumann
aumund
aura
aurelius
aurich
aurora
aus
auschwitz
ausgabe
ausgewa
ausschreiben
ausstellung
aust
austin
austraalsch
austraalsche
austraalschen
australia
australian
australien
australopithecus
austria
auswahl
auto
autobahn
autobahndreeeck
autobahnen
autobahnkru
autobahntall
autobiografie
autobiographie
autohersteller
automaatsch
automatisch
automobile
automodell
autonome
autonomie
autor
autoren
autorennfohrer
autorita
autoroute
autos
autostrada
autounfall
autovi
aux
av
ava
avantgarde
avec
aven
avend
avendmahl
avends
avendu
avengers
avens
aventu
avenue
aver
avers
avery
aveyron
aviation
avignon
aviv
avkaat
avkatin
avon
award
awarded
awards
away
awer
ax
axel
ayacucho
aymara
ayres
az
azevedo
aznavour
azoren
azul
aßel
aßlersand
b
ba
baad
baade
baadmo
baadschopper
baal
baas
bab
babcock
baben
babenhen
baby
babylon
baca
bacalar
baccum
bach
bachelor
bacher
bachmann
bachtenbrock
back
backen
backer
backhaus
backs
backsteen
backt
bacmeister
bacon
bad
baden
badenst
badlsdo
badmintonspeler
badmintonspelerin
badrihaye
bafta
bagdad
bagen
bagenschu
bahamas
bahi
bahia
bahlburg
bahn
bahnen
bahnho
bahnhof
bahnhoff
bahnhoffstraat
bahnlien
bahnlienen
bahnnegen
bahnradfohrer
bahnradsportler
bahnresonanz
bahnstieg
bahnstreck
bahr
bailey
bailly
baines
baja
baker
bakterien
bakterioloog
bal
bald
baldwin
balje
balkan
balken
ball
ballade
balladen
ballet
ballett
ballettdanzerin
ballon
balmoral
balthasar
baltikum
baltimore
balzer
bam
bamberg
bamberger
bambi
ban
bananen
bancroft
band
bande
bandleader
bandnummer
bands
bane
banerjee
bang
bange
bangladesch
banjo
bank
banken
banker
bankier
bankmanager
banks
bann
bannen
banner
bannerman
bannig
bannige
bannigen
bannister
bantu
baptist
baptiste
baptisten
bar
bara
barack
baradei
barbados
barbara
barbarossa
barber
barbosa
barbuda
barcelona
barchel
bardo
baren
barg
bargbo
bargdal
barge
bargen
bargens
bargfu
barggrupp
bargkamm
bargkamp
bargkeed
bargland
bargmann
bargst
bargstieger
bargstiegerin
bargt
bargup
bargwark
bargwertung
bariton
barium
bark
barken
barker
barkhusen
barlow
barnard
barnes
barnett
barney
barnsteen
barntrup
barock
barocke
baron
baroness
baronet
barr
barratt
barre
barrera
barreto
barrett
barrie
barrien
barrier
barron
barrow
barry
bart
bartel
bartelmees
bartels
barth
barthe
barthel
barthold
bartholdy
bartholoma
bartholomew
bartlett
bartoli
barton
bartsch
baruch
bas
basalt
basbeek
basdaal
base
baseball
baseballspeler
baseert
basel
basen
basic
basie
basil
basilika
basin
basis
basislager
baskenland
basketball
basketballspeler
basketballspelerin
basketballtrainer
bass
bassen
bassermann
bassist
bassisten
basso
bastian
bastien
bastion
bastogne
basuun
basuunist
bates
bath
bathurst
batterien
battista
battle
bau
bauen
bauer
baukem
baum
baumann
baume
baumeester
baumga
baumgart
baumgarten
baumgartner
baur
bausch
baut
bauten
bautista
bautz
bautzen
bauwark
bauwarken
baven
bavenflach
bavenhen
baxter
bay
bayer
bayerisch
bayerische
bayerischen
bayern
bayerns
bayreuth
bazille
bb
bbc
bbe
bben
bbena
bbkl
bbp
bbs
bc
bd
bde
be
beach
beacht
beachtung
beachvolleyballspeler
beachvolleyballspelerin
beagle
beal
beale
beamte
beamten
bean
bear
bearb
bearbeit
bearbeiten
bearbeitet
bearbeitung
beard
beardmore
beat
beate
beatles
beatrice
beatrix
beattie
beatty
beau
beaufort
beaulieu
beaumont
beautiful
beaux
beaver
bebop
beborg
bec
bechet
beck
becke
becken
beckenbauer
becker
beckett
beckmann
becquerel
bedacht
bedeckt
bedeeligen
bedeeligt
bedeeligten
bedeent
bedeligt
beden
bedenken
bedeutung
bedford
bedfordshire
bedingen
bedingt
bedingungen
bedra
bedrag
bedragen
bedrapen
bedreev
bedreeven
bedreven
bedrief
bedriev
bedrieven
bedriever
bedrievsweert
bedrievt
bedrifft
bedriggt
bedrocht
bedroht
bedroog
bedu
bedutt
bee
beeden
beek
beekdo
been
beend
beer
beerbaum
beers
beest
beester
beeten
beethoven
beethovens
beeß
befaat
befaaten
befahlen
befallen
befaten
befehl
befehlhebber
befestigt
befind
befinnd
befinnen
befinnt
befo
befohren
before
befre
befreen
befreet
befru
befruchten
befu
befunn
befunnen
bega
begahn
begann
begas
begeevnis
begeevnissen
begegnung
begegnungen
begeistert
begeisterung
begeven
begin
beginn
begleit
begleiten
begleiter
begra
begraben
begraven
begreep
begrenzt
begrepen
begriepen
begro
begru
begu
behandlung
behanneln
behannelt
beherrschen
beherrscht
behle
behningen
beho
beholen
behollen
behr
behrens
behring
behrn
behull
bei
beid
beide
beiden
beiderbecke
beides
beids
beienrode
beim
beindruckt
beinfloot
beinflooten
being
beispiel
beitra
beitrag
beka
bekannst
bekannsten
bekannt
bekannte
bekannten
bekannter
bekannteste
bekanntesten
bekanntgeven
bekanntheit
bekanntschap
bekanntst
bekanntste
bekanntsten
bekeken
beken
bekennen
bekennt
bekenntnis
bekieken
bel
bela
belagern
belagert
belagerung
belang
belast
belasten
bele
beleev
beleevt
belege
belegen
belegg
beleggen
beleggt
belen
beleven
belfort
belgien
belgier
belgisch
belgische
belgischen
belgrad
belinda
belize
beljawski
bell
bella
bellamy
belle
bellen
belleville
bellevue
bellmann
bells
belmont
belmopan
belo
below
belt
beltoise
beltra
belu
belushi
bemannt
bemarkenswert
bemo
bemu
ben
bend
benda
bender
benedict
benedikt
benediktiner
benedix
bener
benes
bengt
beni
benin
beninga
benito
benjamin
bennbo
bennett
bennington
benno
benny
beno
benoi
benque
benserade
benson
bent
bente
bentem
benten
bentley
benton
bentwisch
benz
benzin
beobacht
beobachten
beobachter
beobachtung
beobachtungen
beowulf
ber
beraden
berader
berchtold
bereit
bereken
berekent
beren
berend
berendt
berenn
berensch
beresford
beresowoi
berg
bergamo
berge
bergen
berger
bergheim
bergisch
bergman
bergmann
bergner
bergschen
bergu
berhaupt
bericht
berichte
berichten
beriek
berieken
berkeley
berkshire
berlepsch
berlin
berlinale
berliner
berlioz
berlusconi
berman
bermuda
bermudian
bern
bernacchi
bernadette
bernal
bernard
bernardino
bernardo
bernd
berndo
berndt
berne
berner
bernhard
bernoulli
bernstein
bero
beroop
berop
beropen
beropene
beropenen
beroplich
berry
bersetzt
bersetzung
bersicht
bert
bertelsmann
bertha
berthe
berthold
bertin
bertolt
bertozzi
bertram
bertrand
beru
beryllium
bes
besatten
besatzung
bescha
bescheed
beschra
beschreev
beschreeven
beschreibung
beschreven
beschrieven
beschrifft
beseggt
besehren
besehrt
besett
besetten
besiedeln
besiedelt
besiedlung
besiegen
besiegt
besitt
besitten
besitter
besitters
beslaten
beslooten
besloten
beslu
besluss
besluten
beslutt
besluut
besnacken
besnackt
beso
besocht
besonderer
bess
besse
bessen
besser
besson
best
besta
bestahn
bestahnd
bestaht
bestand
bestanddeel
bestanddeelen
bestanddelen
beste
besteegen
besteiht
bestellt
besten
bestiegen
bestimmen
bestimmt
bestimmte
bestimmten
bestimmung
bestraaft
bestreeden
bestrieden
bestu
bestunn
bestunnen
besu
besunnere
besunnern
besunners
bet
beta
betahlen
betahlt
betallen
betallt
betancourt
betaverfall
beteeken
beteken
betekend
betekent
beteknung
beten
beter
betere
beteren
betern
bethany
betherto
bethlehem
betlehem
betog
betogen
beton
betoog
betrecken
betreckt
betreden
betreut
betrieb
betru
betruck
betrucken
bett
better
bettina
betts
betty
betu
between
betz
beupdragt
beven
bever
beverly
bevern
beverst
bevo
bewa
bewahner
bewahners
bewahnt
bewegen
bewegt
bewegung
bewick
bewies
bewiesen
bewiest
bewohren
bewohrt
bewunnern
bewunnert
bewurben
bewusst
bexho
bey
beyer
beyond
beza
beziehung
beziehungen
bezirk
bezirke
bezirken
bezirksvo
bezzel
bhe
bhutto
bi
bianca
biathlet
biathleten
biathletin
biathlon
biathlonresults
biathlonsport
biathlonworld
bibehollen
bibel
bibelo
biber
bibliografie
bibliographie
bibliographisches
bibliothek
bibliothekar
bibliothekarin
bibliotheken
bibrocht
bichl
biddle
biden
bidra
bidrag
bidragen
bie
biedenweg
biedermann
biel
bielefeld
bienbu
bier
biermann
biesbroeck
biester
bieten
big
bigahn
bigband
biggs
bight
biho
bihor
bilanz
bild
bilder
bildern
bildhauer
bildhauerin
bildnis
bildsuche
bildt
bildung
bilirubin
bill
billboard
bille
billen
biller
billie
billn
billt
billy
biloh
bilu
bin
binaam
binah
bing
bingen
binger
bingham
binnen
binnenland
binnenminister
binnenministerium
binnenpolitik
binnenstadt
binnere
binneren
binnerhalv
binnerste
binngeweev
binnt
bio
biochemie
biochemiker
biochemikerin
biograaf
biografie
biografien
biographical
biographie
biographien
biographisch
biographisches
biography
biological
biologie
biologin
biologisch
biology
bioloog
bioloogsch
bioloogsche
biophysiker
birch
bird
birds
birgit
birmingham
birnbacher
bis
biscayne
bisch
bischo
bischoff
bischop
bischopsseet
biscoe
bisdo
bisdom
bisett
bishop
bismarck
bison
bispeel
bispeelswies
bispelen
bispill
bispille
bissau
bissen
bist
bistrit
bistu
bit
bither
bitherig
bitherigen
bitherto
bitlang
bito
bitreden
bitreeden
bitt
bitte
bitter
bittner
biwesen
bix
bjaaland
bjo
bjørndalen
bk
bke
bl
bla
blaas
black
blackburn
blackburne
blackman
blackmore
blackwater
blackwell
blackwood
bladd
bladen
blaine
blair
blake
blakey
blanc
blanca
blanchard
blanche
blanco
bland
blangen
blangenbi
blangenstraat
blangento
blank
blaschke
blasen
blatt
blattlu
blau
blaue
blauen
blaut
bleben
bleckwedel
bleef
bleev
bleeven
bleibt
bleibtreu
bleiht
bleikd
blend
blends
blenner
bler
blessing
bleven
bley
blich
blick
blie
blieben
blieft
bliersdo
blieven
blievt
blifft
blind
blitz
blo
bloch
block
blockbuster
blockeert
blofeld
blog
blohm
blomen
blomendal
blomendol
blood
bloodbild
blooddruck
bloodfatt
bloodfatten
bloodgrupp
bloodgruppen
bloodko
bloodkreisloop
bloodplasma
bloom
bloomberg
bloomfield
bloot
bloots
blot
blots
blount
bloß
blu
blue
blues
bluff
blum
blumberg
blume
blumenthal
blut
blv
bmi
bn
bner
bo
boa
board
bob
bobby
bobeamten
boben
bobfohrer
bochum
bock
bockelmann
bockhorst
bodden
boddens
bode
boden
bodensee
bodmer
bodo
body
boeck
boehmer
boeing
boen
boer
boet
bogart
bogen
boggs
bogota
bohla
bohnen
bohnhoff
bohr
boinscheno
bois
boitzen
bok
bokel
bokma
bol
bold
bolden
boli
boliviaanschen
bolivien
boll
bollen
bollmann
bologna
bolt
bolton
bomb
bombardeeren
bomben
bombenangreep
bomber
bomeester
bomlitz
bon
bonaparte
bond
bonhoeffer
bonifatius
bonito
bonn
bonner
bonnie
boogie
book
bookdrucker
bookdruckeree
booker
bookha
bookholt
booko
books
bookstaav
bookstaven
boom
boomwull
boon
boone
boonen
boor
boord
boos
booster
boot
boote
bootel
booth
bop
bor
borbeck
borbecksch
borchardt
borchel
borchers
borchgrevink
bord
bordeaux
borden
border
bordingenieur
boren
borene
borg
borgdamm
borgdo
borgen
borges
borgfeld
borgmann
borgruin
borgwall
borgzittens
boris
borissowitsch
bork
bormann
born
bornbarg
bornemann
bornen
bornrieh
borns
borough
borowski
borries
borst
borstel
borussia
bos
bosch
bose
bosnien
bosnisch
boson
bosonen
boss
bosse
bossel
bosselbeek
bossi
bost
bostelmann
boston
botanik
botaniker
botanikerin
bote
bothmer
botos
botswana
bott
botter
bottervagel
bottervageloorten
bottervagels
bottom
bottrop
botwinnik
bou
boucher
bouches
boulanger
boulevard
bounty
bourbon
bourg
bourne
boutros
bouvier
boven
bovendem
bovenhen
bovento
bowark
bowarken
bowden
bowen
bower
bowers
bowie
bowies
bowman
box
boxer
boy
boyce
boyd
boyer
boyle
boys
boysen
br
bra
braackel
braak
braamst
brabant
brad
bradbury
bradford
bradley
brahe
brahm
brahms
braken
bram
bramel
brammer
branch
branco
brand
brandeis
brandenburg
brandenstein
brandon
brandsta
brandt
brannenborg
brant
branta
braque
bras
brasiliaansch
brasiliaansche
brasiliaanschen
brasilien
brass
brauel
braun
braunau
brauns
braunschweig
braut
brava
bravo
bray
bre
break
breaking
brecht
breddo
brede
breden
bredenbeek
bredenwisch
breder
bredow
breed
breede
breeder
breedt
breef
breefmark
breefmarken
breefmarkenku
breefwessel
breekt
breemsche
breet
bregen
breier
breisgau
breken
bremen
bremer
bremerhaben
bremerhaven
bremerhoben
bremerhobener
bremerleh
bremers
bremervo
breminale
brendan
brendel
brennblasen
brennen
brenner
brenneree
brennereen
brennicke
brennstoff
brennt
brent
brentano
brescia
breslau
brest
bretagne
bretel
breton
bretschneider
brett
breuer
breven
brewer
brewster
breyer
brian
briand
brice
bricen
brickt
bridge
bridgewater
brie
brief
briefe
briefen
briefwechsel
brien
brietsch
brietsche
brietschen
brigaadgeneraal
brigitte
brill
brillit
brinckman
bringen
bringt
brink
brinkmann
bristol
britain
britannia
britannica
britannien
briten
britisch
britische
britischen
british
britsch
britsche
britschen
britt
britta
brittsche
brittschen
brix
bro
broad
broadway
brobargen
broberg
broccoli
broch
brochdo
brocht
brock
brockhaus
brockmann
brod
broder
broderick
broer
broeree
brok
broken
brom
bronswiek
bronx
bronze
bronzemedaille
bronzetiet
brood
brook
brooke
brookel
brooklyn
brooks
brooksen
broot
bros
brosnan
brot
brothers
brott
brouk
brown
browne
brownsville
bru
brubeck
bruce
bruckmann
bruckner
bruhn
bruhns
bruken
brukt
brule
brun
brundo
brune
brunen
brunnen
brunner
bruno
bruns
brunshusen
brunswick
brunswiek
bruuk
bruukdom
bruuken
bruuklast
bruuklastspezialisten
bruukt
bruukte
bruun
bruunswiek
bruut
bryan
bryant
bryce
bs
bsb
bsc
bt
btissin
btw
bu
buch
buchanan
buchgesellschaft
buchhandlung
buchholz
buchner
bucht
buck
buckeye
buckingham
buckinghamshire
buckland
buckley
bud
buda
budapest
budd
budde
buddel
buddels
budden
buddhismus
buddy
budget
buena
buenos
buer
bueree
buern
buffalo
bug
bugenhagen
buhl
building
builefeld
bukarest
bulgaarsch
bulgaarsche
bulgaarschen
bulgarien
bull
bulle
bullet
bulletin
bullock
bullwinkel
bult
bulten
bun
bund
bundeskanzler
bundesliga
bundesrepublik
bundestag
bundestages
bundeswehr
bundsautobahn
bundsdag
bundsdagsafordnete
bundsdagsafordneter
bundsdagsfraktschoon
bundsdagswahl
bundsdagswahlkreis
bundsdu
bundsgenoten
bundskanzler
bundsla
bundsland
bundsliga
bundsligaspelen
bundsminister
bundsministerin
bundsministerium
bundsparteidag
bundspra
bundsregeeren
bundsrepubliek
bundsrepublik
bundsstaat
bundsstaaten
bundsstaten
bundsstraat
bundsstraten
bundstrainer
bundsverdeenstkru
bundsvo
bundswehr
bunge
bunker
bunn
bunnen
bunnskanzler
bunnspra
bunny
bunt
bunte
burchard
burda
bureau
buren
burg
burgen
burger
burgess
burgos
burgund
burke
burkhard
burkina
burlington
burmeister
burmester
burn
burnett
burns
burr
burrell
burrows
burschenschaft
burt
burton
burundi
burweg
bury
bus
busch
buschhusen
buschmann
buse
bush
bushido
business
buskerud
busoni
busse
bussy
buster
but
butan
buten
butendem
butendiek
butenland
butenminister
butenministerium
butenpolitik
butenpolitisch
butenskelett
butensta
butenste
butensteed
butentank
butenwelt
buterdem
butere
buteren
buterhalv
butersten
butjadingen
butler
butt
butte
butterworth
buttfoor
buuk
buur
buurn
buurnhuus
buurschop
buut
buxtehude
buxthu
buxton
buxwv
buza
by
bye
byhusen
byrd
byrne
byron
byzantiensche
byzantiners
byzantinist
byzanz
bzw
bø
c
ca
caballero
caban
cabinet
cabo
cabral
cacao
caddo
cadle
cadmium
caesar
cafe
cahill
cahn
caillebotte
cain
caine
cairns
cajamarca
cal
calais
calcio
calcium
calcutta
calder
caldero
caldwell
caledonia
calenberg
calgary
calhoun
calidris
california
call
callahan
called
callender
caltech
calvados
calvin
calw
camargo
cambria
cambridge
camden
came
cameo
cameron
camilla
camille
camillo
caminho
camp
campbell
campe
campeche
campingplatz
campo
campos
campus
can
canada
canadian
canal
cancer
candelaria
candy
cane
cani
canis
canmore
cannes
cannonball
cantal
canterbury
canton
canvas
canyon
cap
capablanca
cape
capelle
capital
capitol
capo
cappel
cappeler
cappella
capra
captain
car
carabus
caras
carbon
card
cardiff
cardona
cardoso
cardozo
care
career
carey
caribbean
carl
carla
carlin
carlo
carlos
carlsen
carlson
carlton
carme
carmelita
carmen
carnegie
carney
carnot
caro
carol
carola
carole
carolin
carolina
caroline
carolyn
caron
carotis
carpenter
carr
carranza
carrasco
carre
carretera
carrie
carrillo
carrington
carroll
cars
carson
carsten
carstens
carter
cartoonist
cary
cas
casablanca
case
casey
cash
casimir
casino
caspar
casper
cass
cassian
cassidy
cassini
castelli
castello
castiglioni
castillo
castle
castro
cat
catalogue
catamarca
catarina
catch
catharina
cathedral
catherine
catholic
cathy
catlett
cauca
cavalli
cave
cavendish
cay
caye
cayetano
cayo
cbs
cc
cctld
cd
cda
cdot
cdp
cds
cdu
ce
cecil
cecilia
cedar
cedric
cell
celle
cello
cellospeler
cells
celsius
cembalospeler
cemetery
census
cent
center
centerville
central
centre
century
ceo
ceres
cern
cernan
cerro
cervantes
cesare
ceylon
ch
cha
chabrol
chaco
chad
chadwick
challenge
challenger
cham
chambers
chameleco
champagne
champaign
champion
champions
championships
champs
chan
chance
chancen
chandler
chang
change
channel
chanty
chaos
chapel
chapelle
chaplin
chapman
charadrius
charakter
charakteristisch
charente
charge
charles
charleston
charlie
charlois
charlotte
charlottenburg
charlton
charly
charme
charon
charpentier
charta
charts
chase
chaussee
chauvin
chblennen
chd
chde
chdra
che
cheemsch
cheemsche
cheemschen
chef
chefredakteur
chel
chelsea
chem
chemical
chemie
chemiker
chemikerin
chemisch
chemische
chemischen
chemistry
chemnitz
chen
cheney
cher
cherei
chern
cherokee
cherry
cheshire
chess
chessbase
chessgames
chester
chesterfield
chet
chetumal
cheyenne
chfo
chfu
chgahn
chgeiht
chgeven
chhollen
chi
chiapas
chicago
chick
chico
chief
chihuahua
child
children
chile
chileensch
chileensche
chileenschen
chin
china
chinees
chineesch
chineesche
chineeschen
chines
chinesen
chinesisch
chip
chippewa
chips
chiquibul
chirac
chirurg
chirurgie
chisholm
chkamen
chkehren
chkehrt
chkommen
chlaten
chler
chlich
chlo
chlor
chlorid
chmark
chner
cho
choctaw
choice
choorbaas
chopin
chor
choreograaf
choreografin
chorthippus
chow
chpunkt
chr
chris
christ
christa
christel
christen
christendom
christenlu
christensen
christi
christiaan
christian
christiane
christians
christie
christina
christine
christlich
christliche
christlichen
christmas
christof
christoph
christophe
christopher
christophorus
christus
chrom
chromosom
chromosomen
chronik
chronist
chronologie
chroonsche
chse
chsische
chsischen
chsisches
chslahn
chspeler
chst
chste
chsten
chstens
chstrahlt
cht
chte
chtehn
chten
chter
chtern
chtig
chtige
chtigen
chtigt
chtkraft
chtlinge
chtlingen
chtnis
chtofu
chtogen
chtpunkt
chtrecken
chtreden
chtreeden
chtrucken
chttoorn
chu
chuck
church
churchill
chwiest
ci
cia
cicero
cid
cie
cimarron
cincinnati
cindy
cinema
cio
circ
circa
circle
circuit
circus
cirksena
cis
citadel
citizen
citrus
city
ciudad
civil
ck
cke
ckeborg
ckel
ckelbeek
ckelk
cken
cker
ckkehr
cklabruck
cklich
ckmann
ckner
ckse
ckser
cksicht
cksichtigung
cksiet
cksta
ckstadt
ckstand
ckt
ckte
ckten
cktoog
cktra
cl
cla
clair
claire
clan
clara
clare
clarence
clark
clarke
class
classic
classics
claude
claudia
claudio
claudius
claus
clausen
clav
clay
clayton
cle
clear
cleese
clemens
clement
cleopatra
clerc
clermont
cleve
cleveland
clienensiel
cliff
clifford
clifton
climate
clinical
clint
clinton
clive
cloppenborg
close
cloud
clown
clu
club
clubs
cluj
cluvenhagen
clyde
cm
cn
co
coahuila
coast
coates
coatsland
cobb
cobham
coburg
coburn
cochabamba
cochran
cochrane
cockpit
cockscomb
coco
code
codex
coeli
coetzee
coffee
cohen
cohn
cohrs
col
colbert
cold
cole
coleman
coleoptera
colin
colle
collection
college
colleges
collet
collier
collin
collins
colman
colmar
colo
colombe
colombo
colonel
colonia
color
colorado
coltrane
columbia
columbus
com
comanche
comas
comayagua
come
comeback
comedian
comedy
comer
comes
comic
comics
comicschriever
comicteekner
command
commander
commission
committee
common
commons
commonwealth
community
como
companion
company
competition
complete
composite
computer
comstock
comte
con
concelho
concepcio
concert
concord
concordia
condon
conference
congress
connecticut
connell
connelly
connery
connie
connolly
connor
conrad
conservation
constance
constant
constantin
constantius
constituency
container
containers
containerscheepe
containerschipp
contemporary
content
contest
continental
contreras
control
convention
conway
cook
cool
coolidge
cooper
copa
copeland
copland
copley
coppa
copper
coppi
coppola
copress
corazon
corbett
cord
cordes
cordillera
corea
corey
corinna
corinth
cornelia
cornelis
cornelius
cornell
corner
corners
cornet
cornu
cornwall
corona
corozal
corporation
corps
corpus
corre
correa
corregimiento
correspondance
corte
corvey
cos
cosby
cosmae
costa
costner
cotta
cottbus
cotton
council
count
country
county
countys
couperus
courcelles
court
courtenay
courtney
cousin
cousine
couture
cove
cover
covid
cowboy
cowley
cox
coxen
coy
coye
coyne
cr
cra
craddock
craig
cramer
crane
cranz
crassus
crawford
crazy
cre
crean
creative
creek
creighton
cremer
crespo
creuse
crew
crick
cricketspeler
crippen
crique
cristian
cristina
cristo
crite
critical
critics
crockett
croix
cromwell
cronin
crooked
crosby
cross
crossover
crossroads
crow
crowley
cruise
crutzen
cruz
cry
crystal
cs
csi
csio
csu
ctor
cu
cuenca
cultural
culture
cum
cumarin
cumberland
cumbria
cumming
cummings
cumulus
cunningham
cup
curie
curler
curlerin
curran
current
currie
curry
curt
curtis
cusack
custer
cut
cutler
cutoff
cuxhaven
cuxhoben
cuxhobener
cycle
cycling
cygnus
cynthia
cyr
cyrano
cyriacks
cyril
cyrus
czy
d
da
daag
daagbladd
daagblatt
daagblo
daagbook
daak
daal
daallaten
daalleggt
daalslahn
daam
daan
daar
dabei
dach
dachau
dacht
dack
daddy
dae
dafrika
dafrikaansch
dafrikaansche
dafrikaanschen
dag
dagblatt
dage
dagmar
dagogik
dagogin
dagoog
dags
dahl
dahlmeier
daily
daisy
dakota
dal
dalarna
dale
dalen
dali
dallas
dallaten
dalleggt
dallek
dalli
dalrymple
dalslaken
dalton
daly
dam
damals
dame
damen
damerika
dameron
damian
damiani
damit
damm
dammann
dammhagen
dammhusen
damon
damp
dampdruck
dampschipp
dan
dana
dance
dancing
dangriga
daniel
daniela
daniele
daniels
dank
dankworth
dann
dannenbarg
dannenberg
dannige
danny
dans
dante
danz
danzen
danzer
danzerin
danzig
daphne
dar
daran
darbi
darby
dard
darf
darin
dario
darja
dark
darling
darm
darmstadt
darna
darrell
darren
darryl
darstellung
dart
darte
darten
dartig
dartigjo
dartigjohrigen
dartspeler
daru
darum
darwin
das
dass
dat
data
database
datacenter
date
dateert
datei
daten
datenbank
datlantik
dato
datsu
datt
datum
dauben
daud
daulsen
dauphine
daustralien
dave
davenport
david
davide
davidson
davies
davis
dawes
dawkins
dawn
dawson
day
days
dazu
daß
db
dc
dchen
dd
dda
dde
ddel
dden
dder
ddern
ddert
ddeutsche
ddin
ddr
ddt
ddu
de
dead
deaflympsche
deal
dean
death
debatte
deborah
debst
debu
debussy
decatur
decca
deck
decken
decker
deckt
decorations
dee
deefholt
deekflunken
deel
deelbru
deele
deelen
deelken
deelnahm
deelnahmen
deelnehmen
deelnehmer
deelnehmers
deelnommen
deelrebeet
deels
deelstreck
deelstrecken
deelstreckenrennen
deelstreckensiege
deelstu
deelt
deelten
deeltonehmen
deelwies
deen
deenen
deenst
deensten
deent
deep
deepe
deepen
deeper
deepgang
deepland
deepsee
deepste
deer
deere
deern
deerns
deernsnaam
deerschuulpartei
deert
deerten
deerter
deerternaams
deesdorp
defence
defineert
definitschonen
definitschoon
degas
degener
deggendorf
dehn
dei
deichmann
deiht
deil
dein
deine
deins
deinst
deit
dekalb
dekanat
deke
dekker
del
delano
delaware
delen
delgado
delhi
delius
dell
della
delle
delm
delmar
dels
delsen
delt
delta
deltied
deluxe
dem
demand
demann
demant
democracia
democratic
demografie
demoiselles
demokraatsch
demokraatsche
demokraatschen
demokraten
demokratie
demokratischen
demonstratschonen
demonstratschoon
demost
dempsey
den
dend
dende
dendom
dene
denen
denis
denise
denk
denken
denkmaal
denkmaalpleger
denkmal
denkmalpflege
denkmalprojekt
denkmalschutz
denkmalschuul
denkmol
denkmollisten
denkschrift
denkt
denn
dennis
dennoch
denny
denst
denste
densten
densu
dent
denver
depardieu
departamento
departamentos
departement
department
depenbeek
dependency
depot
deppelt
depression
der
deratschoon
derbusch
derby
derbyshire
derdiek
derek
derelv
deren
derenn
deritz
dermanland
dermatoloog
derpmark
derpt
derquart
derrick
ders
derverkehr
derwals
derwisch
des
desert
deshalb
design
designer
designerin
desmond
dessen
destillatschoon
destille
destillen
desto
desu
deswegen
det
detail
details
detlef
detlev
detmold
detroit
detten
deum
deuropa
deuterium
deutsch
deutsche
deutschen
deutscher
deutsches
deutschland
deutschlands
deux
development
devil
deville
devon
dewey
dewitt
dewitz
dexter
dez
dezember
dfb
dflo
dgeorgien
dharma
dhof
dhp
di
dia
diabetes
diageo
diagnoos
diagnostik
diagramm
dialekt
dialekte
dialekten
dialog
dialogen
diamond
diana
diane
diarra
dias
diaz
dibbelsen
dibbersen
dich
dicht
dichtbi
dichte
dichten
dichter
dichterin
dichters
dichtkunst
dichtmaakt
dichtmaken
dichtung
dichtungen
dick
dicke
dicken
dickenson
dicker
dickey
dickinson
dickson
dictionary
did
didaktiker
diderot
didier
die
dieckmann
diederich
diedrich
diego
diek
dieken
diekmann
dieksenn
diekshuus
dien
dienst
dierk
diersto
dies
diese
diesel
diesem
diesen
dieser
dieses
dieter
dietl
dietmar
dietrich
dietz
dietze
differenz
differenzen
dig
dige
digen
digendags
diger
digital
digitale
digitalisat
digt
dikat
diktater
diktator
diktatur
dillon
dim
dimension
diminutiv
dimitri
din
dine
ding
dinge
dingen
dinghausen
dingolfing
dingwo
dink
dinosauriers
dintenfische
dio
dion
dionysios
dionysius
dios
diplom
diplomaat
diplomat
diplomaten
diplomatin
diplomatisch
dipshoorn
diptera
dir
dirac
director
direkt
direkte
direktemang
direkten
direkter
direktkannedaten
direktmandat
direktor
dirigent
dirk
dirks
dirty
disch
dische
dischen
discher
dischtennis
dischtennisspeler
dischtennisspelerin
discogs
discovery
disease
diskografie
diskographie
diskographisch
diskusschoon
diskussion
diskussmieter
diskuteert
disl
disney
disqualifizeert
disraeli
diss
disse
dissen
dissertation
dissertatschoon
distanz
distillers
distillery
distinguished
district
distrikt
distrikte
distrikten
disziplin
disziplinen
dit
dithmarschen
dithmarscher
ditions
ditmal
ditmol
dittmer
dittrich
diverse
division
divisionen
dixieland
dixon
dizzy
dj
dk
dkm
dkorea
dkoreaanschen
dku
dl
dlamini
dlich
dliche
dlichen
dm
dmitri
dmitrijewitsch
dms
dna
dnb
dnf
dns
dnv
dnvp
do
doans
doasdo
dobrook
dobson
doc
doch
docht
dochter
dochteru
doctor
documenta
dodds
dode
doden
dodge
dodson
doe
doering
dog
dogger
dogs
doherty
dohren
doi
dokter
dokterarbeid
dokterarbeit
dokters
doktersche
doktertitel
doktor
doktrin
dokument
dokumentar
dokumentarfilm
dokumentarfilmer
dokumentation
dokumentatschoon
dokumente
dokumenteert
dokumenten
dolj
doll
dollar
dollars
dollern
dolly
dolores
dolphy
dom
doma
domain
dome
domenico
domestica
dominanz
domineeren
domineert
domingo
domingos
dominic
dominica
dominik
dominikaansche
dominikaanschen
dominikaner
dominique
domols
domratschawa
don
donald
donau
donegan
donn
donna
donner
donnern
dood
doodbleven
dooden
doodmaakt
doodschaten
doodsdag
doodsstraaf
doolbro
doom
doomherr
doon
door
doorho
doornbusch
doornsood
doors
doorschu
doost
doostasien
doosten
doot
dootschaten
doping
dor
dora
dorachter
doran
dorbi
dorblangen
dordo
dordogne
dordrecht
dore
doren
dorf
dorfes
dorfo
dorgegen
dorhen
dorhenn
dorher
dorin
doris
dorlehnskass
dorling
dormalig
dormalige
dormaligen
dormals
dormank
dormit
dormolige
dormoligen
dormols
dorn
dorna
dornah
dorneben
dornum
doro
dorop
dorophen
dorothea
dorothee
dorothy
dorp
dorsey
dorstellen
dorsteller
dorstellerin
dorstellers
dorstellersche
dorstellt
dorstellung
dort
dortieds
dortmund
dortmunder
dorto
dortostellen
dortwu
doru
dorum
dorumer
dorup
dorupfolgen
doruphen
doruphenn
dorut
dorvan
dorvo
dorvon
dorvun
dos
dosis
dosten
dot
doteert
douard
double
doubleday
doubs
doudna
doug
dougherty
douglas
douglass
dourm
dove
dover
down
download
doyle
dozent
dp
dpool
dpoolstatschoon
dr
dra
draag
draapt
dracula
draff
dragen
dragon
draht
drake
draken
drama
dramatic
dramatiker
dramatikerin
dramatisch
dramatische
dramaturg
dramaturgie
dramaturgin
dramen
drand
drang
drange
drangst
drapen
drapens
draper
drapt
drauht
dre
dream
dreams
dree
dreebarg
dreeeck
dreegt
dreemal
dreemol
dregen
dreger
drei
dreier
dreih
dreiharbeiten
dreihbo
dreihbook
dreihbookschriever
dreihbookschrieverin
dreihbookschrieversche
dreihn
dreiho
dreihsinn
dreiht
drennhusen
drenthe
drepen
drept
dresden
dresdner
dreven
drew
drewes
drey
dreyer
dreßel
drieven
drievstoff
drievwarken
drifft
driftseth
driggt
dringelborg
drinken
drinkwater
drippt
driscoll
dritte
dritten
driver
dro
drocht
drochters
droemer
drogen
droht
droog
droom
droop
drost
droste
dru
druck
drucker
druckeree
druckt
drum
drummer
drunk
drunken
drup
drury
dry
dryden
ds
dsch
dschanibekow
dsche
dschen
dschibuti
dschungel
dsee
dsied
dstaaten
dsu
dsudan
dt
dtb
dte
dter
dtirol
dtiroler
dtisch
dtische
dtischen
dtodag
dtv
du
dubbel
dubbelsteern
dubbelsteerns
dubbelt
dubbelte
dubbelten
dublin
duc
duchtig
duck
ducks
duckwitz
duda
duden
dudley
due
duell
duer
duerhaftig
duern
duersom
duersome
duert
duett
duffy
duflo
dugan
duhnen
duhrn
duisborg
duisburg
duke
duker
dulce
dull
dulle
duller
dullern
dullsten
dumas
dumm
dumont
dump
dunbar
duncan
duncker
dundas
dune
dunkel
dunker
dunkle
dunlop
dunn
dunne
duo
dupont
dupre
dupree
dupuis
dur
dura
duran
durand
durango
duras
durch
durham
during
dus
dusend
dusende
dustin
dutch
dutt
dutz
duukt
duum
duur
duurt
duval
duwamish
dv
dva
dvd
dvds
dvietnam
dvor
dvp
dvu
dwang
dwarg
dwargen
dwargplanet
dwargplaneten
dwars
dweer
dwest
dwesten
dwestlich
dwight
dwingen
dwungen
dwyer
dyer
dylan
dynamik
dynamite
dynastie
dz
e
eads
eagle
earl
earle
early
earth
east
eastern
easton
eastwood
easy
eaton
eau
ebb
ebd
ebeling
eben
ebendo
ebene
ebenfalls
ebenso
eberhard
eberle
ebersen
ebert
ebhardt
echo
echt
echte
echten
eck
eckart
eckel
ecken
eckern
eckernfo
eckhard
eckhoff
eckstein
eckstine
ecm
eco
econ
economic
economics
economy
ecuador
ed
eda
edda
eddelfamilie
eddelfro
eddelgas
eddelgasen
eddelgood
eddelmann
eddelstahl
eddie
eddy
edelhagen
eden
eder
edgar
edinburgh
edison
edith
edition
editor
edmond
edmund
edna
edo
edouard
edu
eduard
eduardo
education
edvard
edward
edwards
edwin
edzard
eed
eeg
eegen
eegendo
eegens
eegenschapen
eegensta
eegentlich
eegentliche
eek
eekel
eems
eemsland
een
eendagsrennen
eendu
eene
eenen
eener
eenfach
eenfache
eenfachen
eenfacher
eenfack
eenfacke
eenfak
eenheit
eenheiten
eenheitensystem
eenheitenteken
eenheitlich
eenheitliche
eenheitsgemeen
eenheitsgemenen
eenig
eenige
eenigen
eenigt
eenmal
eenmol
eens
eenstimmig
eentall
eenzel
eenzelergevnis
eenzeln
eenzelrennen
eenzelt
eenzeltietfohren
eenzelwertung
eenzig
eenzige
eenzigen
eenzigst
eenzigste
eer
eerd
eerdatmospha
eerdbahn
eerdbeven
eerdbo
eerddeel
eerdgas
eerdhistorie
eerdkarn
eerdko
eerdkrust
eerdmantel
eerdo
eerdphysik
eerdtieto
eerdumloopbahn
eerdwetenschoppen
eernst
eerst
eerstbestiegen
eerste
eersten
eerster
eerstmal
eerstmalig
eerstmals
eerstmol
eerstmols
eerststimmen
eerstupfu
eest
eestbru
eestland
eestnisch
eestnische
eestnischen
eestrup
eeten
eeßel
effects
effekt
effekte
effekten
efim
eg
egal
egan
egbert
egen
egene
egenen
egenoort
egens
egenschop
egenschoppen
egensta
egent
egentlich
egentliche
egentlichen
egg
egger
eggers
eggert
egon
eh
ehder
ehe
ehefru
ehem
ehemaalsche
ehemaligen
ehemals
ehemann
ehepaar
eher
ehfro
ehlers
ehmalg
ehmalge
ehmalgen
ehmalger
ehmalig
ehmalige
ehmals
ehmann
ehmolig
ehmolige
ehmoligen
ehmols
ehpoor
ehr
ehrder
ehre
ehren
ehrenamtlich
ehrenamtlichen
ehrenbo
ehrendokter
ehrendokterwu
ehrenlegion
ehrenliddmaat
ehrenteken
ehrenzeichen
ehrhoorn
ehrlich
ehrn
ehrt
ehrungen
ehsdo
ei
eichinger
eichler
eid
eide
eider
eier
eifel
eiffeltoorn
eigen
eigenen
eike
eiland
eilannen
eileen
eilers
ein
einar
eindhoven
eindo
eine
einem
einen
einer
eines
einfach
einfu
einhard
einheit
einige
einmal
einsatz
einsatzgruppen
einstein
eintracht
eintrag
einzel
eirsch
eirsche
eirschen
eis
eisele
eisenberg
eisenhower
eisner
eiten
eitze
ej
ek
ekel
eken
ekkehard
ekliptik
eko
el
elaine
elbe
eldridge
eleanor
election
electric
electronic
elektrisch
elektrische
elektrischen
elektrizita
elektrodynamik
elektroinscheno
elektrolys
elektromagneetsch
elektromagneetsche
elektron
elektronegativita
elektronen
elektronenhu
elektroneninfang
elektronik
elektroonsche
elektrotechnik
elektrotechniker
element
elementar
elementardeelken
elemente
elementen
elements
elena
eleonora
eleonore
elf
elfenbeenku
elfriede
elgin
eli
elias
elinor
eliot
elisa
elisabeth
elise
elite
eliza
elizabeth
elk
elke
elkeen
ella
ellen
eller
ellerbrook
ellington
elliot
elliott
elliptische
ellis
ellsworth
ellsworthbargen
ellsworthland
elm
elmar
elmer
elo
elrington
elsa
elsass
elsdo
else
elsevier
elsfleth
elsner
elster
elv
elvin
elvis
elvmasch
elvmu
elvsto
em
emanuel
embryo
embryonale
emden
emder
emerson
emery
emhusen
emi
emil
emile
emilia
emiliano
emilie
emilio
emily
eminem
emma
emmanuel
emmanuelle
emmaus
emmelndo
emmen
emmer
emmerich
emmet
emmett
emmons
emmy
empfa
empfangen
empire
ems
emsland
en
enciclopedia
encyclope
encyclopedia
end
ende
endeavour
endemisch
enden
enderbyland
endgu
endin
endlich
endothel
endres
endrunn
endschap
endspeel
endurance
ene
enen
enercon
energie
energien
energy
enerwegens
eng
engageert
engagement
engagements
enge
engel
engelbert
engelmann
engels
engelsch
engelsche
engelschen
engelschopp
engen
enger
engineering
engl
engla
england
engle
englert
englisch
englischen
english
eni
enige
enigermaten
enkarken
enke
enkel
enkeld
enkelso
enkelt
enkelte
enkelten
enmoor
enn
enne
ennen
ennis
enno
ennt
enorm
enrico
enrique
ensemble
ensign
enstahn
entdeckt
entdeckung
entente
entenvo
enterprise
entertainer
entertainment
entfernt
entfu
entgegen
enthollen
enthollt
enthu
enthull
entlaaten
entlang
entomologie
entomoloog
entre
entropie
entscheed
entscheeden
entscheedend
entscheedung
entscheidung
entslooten
entsluss
entsorgung
entspreekend
entspreken
entsprekend
entstahn
entstaht
entstehung
entsteiht
entstunn
entstunnen
entta
entwa
entweder
entwickel
entwickeln
entwickelt
entwicklung
entwicklungen
entworfen
entwu
entwurf
environmental
enz
enzo
enzyklika
enzyklopa
enzym
enzyme
enzymen
eo
ep
epen
ephraim
epidemie
epilepsie
epilepsien
epileptische
episode
episoden
episodeno
episood
epithel
epoch
epoche
epochen
epos
epstein
er
era
erasmus
erde
erding
erdmann
ere
erectus
ereignis
ereignisse
erekschoon
eren
erer
erfilm
erfohren
erfohrung
erfohrungen
erfolg
erfolge
erfolgen
erfolgt
erforschung
erfu
erfurt
erga
ergebnis
ergebnisse
ergeev
ergeven
ergevnis
ergevnisse
erha
erhaben
erhard
erho
erhollen
eric
erich
erickson
erie
erik
erika
eriksen
erin
erinnern
erinnert
erinnerung
erinnerungen
eris
eritrea
erkennen
erkenntnis
erkenntnisse
erkla
erkrankung
erla
erlaaten
erlangen
erlass
erleeden
erler
erlo
erloovt
ermland
ermordung
ern
erna
ernannt
ernd
ernennung
ernest
ernesto
ernie
ernst
erny
ero
erobern
erobert
eroberung
eros
erosion
erovern
erovert
erreicht
erricht
errichten
errichtung
ers
ersam
ersatz
ersatzmann
ersatzmannschap
ersett
ersetten
erst
erste
ersten
erster
erstreckt
ert
ertl
ertu
erwa
erwehr
erweiterte
erwin
erwurben
erxleben
erythrozyten
erza
erzhartog
erziehung
es
esa
escalante
escape
esch
escher
esdo
esel
esens
espan
espat
esperanto
esperanza
espi
esquivel
essay
essayist
essays
essen
essex
essonne
est
estate
este
esteban
estelle
ester
estevan
esther
estland
et
eta
etaaschen
etableert
etc
eten
ethan
ethel
ethers
ethik
ethnograaf
ethnologin
ethnoloog
etienne
ettinger
etwa
etwas
etymologie
etzel
etzen
eu
euch
eucken
euge
eugen
eugene
eugenio
eukaryoten
eun
eune
eunen
eur
eurasien
eure
euro
euroadria
europa
europacup
europaea
europameester
europameesterschap
europameesterschapen
europameesterschoppen
europapokal
europas
europawahl
europe
european
eurovision
eusebius
euwe
ev
eva
evan
evangeelsch
evangeelsche
evangeelschen
evangelien
evangelisch
evangelische
evangelist
evangelium
evans
evb
eve
evelyn
even
evenen
evening
event
ever
everest
everett
evernhusen
evers
eversdo
eversen
evert
every
everything
evic
evidence
evil
evolution
evolutschoon
evsdo
ewald
ewig
ewige
ewigen
ewigkeit
ex
examen
executive
exekutive
exemplare
exil
existeert
existenz
expansion
expedition
expeditions
expeditschonen
expeditschoon
experiment
experimental
experimente
experimentell
experimentelle
experimenten
experten
explodeert
explosion
export
express
externa
externstenen
extra
extrem
extreme
exzentrizita
eyck
eye
eyes
eyndo
ez
eßel
f
fa
faaborg
faat
faaten
faber
fabian
fabio
fabri
fabricius
fabrik
fabrikant
face
faces
facettenogen
fack
facke
facken
facklu
fackspraak
fackveehdokter
fact
facto
factor
facts
faden
fagott
fagus
fahn
fahrenheit
fair
fairfax
fairfield
fairview
fairweather
faith
faken
fakener
fakenste
fakensten
fakten
fakter
fakters
faktisch
fakulta
falck
falco
falcon
falk
falken
falkenbarg
falkenhayn
falkland
falklandinseln
fall
fallen
fallon
falls
fallt
falsch
falster
falter
fambossel
fame
familia
familie
familien
familiennaam
familiennaams
familje
family
famous
famreport
fan
fang
fangen
fangenen
fangenschap
fangt
fanny
fans
fantasie
fantasy
fantasyfilm
far
faraday
farben
fardig
fardigstellt
farel
farge
farley
farlow
farm
farmer
farmers
farmington
farrar
farrell
farv
farven
farvt
faslam
faso
fassade
fassaden
fassung
fast
faste
fasten
faster
fasthollen
fastigkeit
fastko
fastland
fastleggen
fastleggt
fastmaakt
fastnahmen
fastnommen
fastsett
fastsetten
faststellen
faststellt
faststoff
faststoffen
fasttostellen
faten
father
fats
fatt
fatten
fattwand
faulkner
fauna
faure
faust
fausto
favoriten
fawcett
fay
fayette
faz
fbi
fc
fci
fdp
fe
feat
feather
featuring
februar
fechner
fechter
fechterin
fed
fedder
fedderkleed
feddern
federal
federation
federer
federico
feel
feend
feende
feenden
feerdig
feernseh
feernsehfilm
feernsehjournalist
feernsehn
feernsehpries
feernsehprodukschonen
feernsehproduzent
feernsehreeg
feernsehregen
feernsehsenner
fehl
fehlen
fehler
fehlerfree
fehlers
fehlslahn
fehlt
fehmarn
fehrenbrook
fehrs
fei
fein
feind
feinde
feine
fekt
fektur
feld
felde
felder
feldgo
feldherr
feldhoff
feldhusen
feldmark
feldmarschall
feldmarschallleutnant
feldtog
felice
felipe
felix
fell
fellen
feller
fellow
fellowship
fels
felsen
felsenkliff
felsigen
felssporn
feministin
fen
fenn
fenster
fenton
fer
ferdinand
ferenc
ferencz
ferguson
ferien
fermi
ferna
fernand
fernandez
fernando
ferner
fernsehen
ferrara
ferrari
ferrie
ferris
ferruccio
ferry
fertigt
fesen
fest
feste
festen
festival
festivals
festschrift
festung
fett
fettes
feuer
feuerbach
feuerstein
feuerwehr
fever
ff
ffel
ffeln
ffen
ffentliche
ffentlichen
ffentlichung
ffentlichungen
ffer
ffler
ffnis
ffnung
fft
ffte
ffteihn
fften
fftig
fi
fiala
fibrin
fick
fickmo
fiction
fide
fidel
fidschi
fiebig
fiedler
fief
fiefhusen
fiefmol
field
fielding
fields
fien
fiend
fienden
fiene
fienen
fienfo
fiennes
fier
fierdag
fierlich
fiern
fiert
fiev
fievka
fievte
fievten
fifa
figueiredo
figueroa
figur
figuren
fiktive
file
filiaal
filialen
filip
filipe
filippo
fillmore
film
filmarchitekt
filmdrama
filme
filmeditor
filmeditorin
filmen
filmfestival
filmgewarf
filmhistorie
filmindustrie
filmkritik
filmkritiker
filmkummedie
filmkumponist
filmkunst
filmlexikon
filmmaker
filmmakerin
filmmusik
filmmusiken
filmografie
filmpries
filmpriesen
filmprodukschonen
filmproduzent
filmproduzentin
filmreeg
filmrull
filmrullen
films
filmschauspeler
filmschauspelerin
filmsnitt
filmspeelbaas
filmstarts
filmwark
filmzentrale
filter
fin
final
finale
finance
financial
finanzeeren
finanzeert
finanzen
finanziell
finanzielle
finanziellen
finanzminister
finckh
find
finden
findlay
findo
findt
fine
finger
fingers
fink
finkwarder
finn
finnegan
finnen
finnisch
finnland
finnmark
finnsch
finnsche
finnschen
finnt
finster
fintel
finterbarg
fire
firma
firmen
first
fis
fisch
fischbeek
fische
fischer
fischerdo
fischeree
fischers
fish
fisher
fitch
fitger
fitschen
fitz
fitzgerald
five
fix
fjodor
fjodorowitsch
fjord
fjorden
fl
fla
flaag
flaagen
flaaghaven
flach
flache
flachen
flack
flag
flagen
flagg
flagge
flaggen
flaggvo
flags
flamm
flammen
flanagan
flannern
flash
flat
flaubert
flavius
fle
flechten
flecken
fleegen
fleegt
fleesch
fleest
fleet
fleetwood
flegen
flegenbarg
fleger
flegerhaben
flegerhaven
flegerpioneer
flegerplatz
flegers
flegersellschop
fleischer
fleischmann
fleming
flensborg
flensburg
fler
fletcher
fleten
fletig
fletige
fletigen
fletigkeit
fletigkeiten
fleur
fleury
flight
flink
flint
flo
flohr
flood
floog
flooghaben
flooghaven
floogtu
floot
flora
florence
florencio
florenz
flores
florian
florida
flott
flotte
flower
flowers
floyd
flu
flucht
flunken
fluor
fluorid
fluss
flutt
flying
flynn
fm
fner
fo
fock
focke
focus
foddern
foddert
foerster
fogo
fohren
fohrendo
fohrer
fohrers
fohrrad
fohrt
fohrtu
foley
folg
folge
folgejohren
folgen
folgend
folgende
folgenden
folgesaison
folgetiet
folgt
folgten
folk
folkmusik
folsom
folter
fonda
fonseca
fontaine
fontainebleau
fontana
fontane
fontenay
fontsize
food
foorts
foot
football
footballer
footballfunkschona
footballnatschonalmannschap
footballnatschonalspeler
footballscheedsrichter
footballspelen
footballspeler
footballspelerin
footballtrainer
footballvereen
footen
footga
footnoten
for
forbes
force
forces
forchheim
ford
forder
fordert
forderungen
fore
foreign
forest
forever
fork
form
formal
format
formation
formatschonen
formatschoon
formel
formell
formelteken
formen
former
formt
formuleeren
formuleert
forrest
forsberg
forsch
forschen
forscher
forschers
forscht
forschung
forschungen
forschungsreis
forst
forster
forsthuus
forstmann
forstwetenschopper
fort
fortan
fortfu
fortsett
fortsetten
fortuna
fortune
forum
foss
fosse
fossil
fossile
fossilen
fossilien
fossum
foster
foto
fotograaf
fotograf
fotografeert
fotografie
fotografien
fotografin
fotomodell
fotos
foucault
found
foundation
fountain
four
fourcade
fox
fr
fra
fraag
fraagt
fraas
frac
fracht
frachter
frachtschipp
frage
fragen
fragment
fragmente
frahm
frakschoon
frakschoonsvo
fraktschoon
fram
frame
franc
franca
france
frances
francesca
francesco
francis
francisco
franck
francke
franckh
franco
francois
francop
francs
frank
franke
frankel
franken
frankenberg
frankenborg
frankenbossel
frankenriek
frankfort
frankforter
frankfurt
frankfurter
frankie
franklin
frankreich
frankriek
frans
frantis
franz
franzenborg
franziska
franziskaner
franziskus
franzius
franzo
franzoos
franzoosen
franzosen
franzosentied
fraser
frau
frauen
frauke
frazer
frazier
fre
fred
freddie
freddy
freden
fredenskark
fredensverdrag
frederic
frederick
frederik
fredrik
free
freebad
freebo
freeborg
freedag
freeden
freedensnobelpries
freedensnobelpriesdra
freedlich
freedom
freegaav
freegeven
freeheit
freeheitska
freekarken
freelaten
freeman
freemu
freen
freenbeek
freesch
freesche
freeschen
freeschluunbarg
freesett
freesetten
freesk
freeske
freesland
freestaat
freestil
freestyle
freet
freetied
freetiet
freetown
freetz
freewillig
freewillige
freewilligen
freeze
fregatt
frei
freiborg
freiburg
freid
freie
freien
freiheit
freiherr
freising
freisler
freit
freitag
freißenbu
frellsdorp
fremde
fremont
french
frenulum
frequenz
frequenzen
frerich
frese
fresen
fresh
freten
freud
freudenthal
freund
freunde
freundschaft
frey
freyer
frick
fricke
fridtjof
frieda
friedel
friedemann
frieden
friederich
friederike
friedhelm
friedhof
friedl
friedman
friedrich
friedrichs
friedrichsdo
frielingen
friends
friesen
friesland
friestaat
friis
frisch
frische
frischen
fritsch
fritt
fritz
fro
froenslu
from
fromm
fromme
fronslu
front
fronten
frontera
froo
froonrechtlerin
froonslu
frost
frr
fru
frucht
fruchtbor
fruchtfleesch
fruen
fry
frz
fsk
ft
ftartikel
ftbahnhoff
ftdorsteller
ftdorstellerin
ftdorstellersche
fte
ften
ftfigur
ftfiguren
ftgo
ftgrupp
ftig
ftigen
ftigt
ftling
ftlinge
ftoort
ftquartier
ftreeg
ftrull
ftrullen
ftsa
ftsatz
ftsfo
ftsfu
ftsitt
ftsmann
ftstadt
ftsteern
ftutgaav
ftwark
fu
fuchs
fuchsberger
fuchtig
fuchtige
fuchtigkeit
fudder
fudderhen
fuer
fugitive
fuhrmann
fukuda
fulda
full
fullen
fullenen
fuller
fullerton
fulton
fund
funde
fundo
fundsteden
fundsteed
fundstu
fung
fungen
funk
funker
funkschona
funkschoneert
funkschonen
funkschoon
funktion
funktschona
funktschonen
funktschoon
funn
funnen
funnix
furrer
fusion
future
fuust
fußball
fußballdaten
fw
fwg
fy
g
ga
gaav
gab
gabriel
gabriela
gabriele
gabun
gackau
gaddafi
gaetano
gaff
gagarin
gage
gaher
gahn
gaht
gail
gaillard
gaines
gairdner
gaius
gal
gala
galanthus
galat
galatea
galaxie
galaxien
galbraith
gale
galerie
galerist
galicien
galila
galilei
galileo
galindo
galizien
gall
gallardo
gallen
gallery
gallia
gallien
gallimard
gallinago
gallium
gambia
gambit
gamble
game
games
gamma
gammastrahlen
gandhi
gang
ganner
gans
ganymed
ganz
ganze
ganzen
gar
garci
garcia
gard
garde
garden
gardenia
gardens
gardiner
gardner
garfield
garifuna
garland
garlst
garlsto
garmisch
garn
garner
garnier
garnison
garonne
garrett
garten
gary
garz
gas
gasen
gasfo
gasparin
gasphaas
gast
gasta
gasten
gasthuus
gaston
gastrullen
gate
gates
gattung
gau
gauck
gauderhandviddel
gaue
gauen
gauer
gauguin
gaulle
gauthier
gautier
gauß
gavin
gay
gayl
gazette
gazetteer
gazprom
gb
gd
gdeerten
gdeerter
ge
geb
geba
gebauer
geben
gebhard
gebiet
gebietsstand
gebirge
gebo
geboort
geboortsdag
geboren
gebort
gebortsdag
gebortshuus
gebote
gebru
gebruuk
gebruuken
gebu
geburt
geburtsdag
geburtstag
geda
gedanken
geddes
gedenkdag
gedenken
gedenksta
gedenksteen
gedenktafel
gedenktafeln
gedicht
gedichte
gedichten
gediegen
geef
geel
geele
geern
geert
geese
geest
geestborn
geestendo
geestenseth
geesthacht
geestland
geestmu
geestrand
geev
geeven
geevt
gefa
gefahr
gefallen
gefallenendenkma
gefecht
gefo
gefohr
gefohren
gefu
gegen
gegenan
gegend
gegendeel
gegenden
gegenenanner
gegeno
gegenpaapst
gegensatz
gegensiedig
gegensietig
gegenspeler
gegenspelers
gegensta
gegenstand
gegenstu
gegenu
gegenwa
gegenwart
gegner
gegnerisch
gegners
gehalt
geheem
geheemdeenst
geheemdeenstler
geheeme
geheemnis
geheim
geheimnis
gehemen
gehen
gehirn
geho
gehrden
gehren
gehring
geht
gehu
geiger
geiht
geismar
geist
geister
geistig
geistige
geistigen
geistlich
geistliche
geistlichen
geit
gel
gela
geld
gelderland
geldsoort
gele
gelebte
gelegen
gelegenheit
gelegentlich
gelehrte
gelehrten
gelen
gelk
gelkeit
gelkeiten
gelkerwies
gell
gellen
geller
gellt
geln
gels
gelsenkia
gelung
gelungen
gema
gemacht
gemarken
gemeen
gemeend
gemeende
gemeenden
gemeenderaat
gemeendirekters
gemeene
gemeenen
gemeenfree
gemeenraad
gemeenraat
gemeenreform
gemeensam
gemeensame
gemeensamen
gemeenschap
gemeenschop
gemeensom
gemeensome
gemeensomen
gemeente
gemeenten
gemeenvo
gemeinde
gemeinden
gemenen
gemeng
gemini
gemu
gen
genannt
genau
genauso
genbossel
gend
gene
genealogie
genealogisches
genealogy
genealoog
genehmigt
genen
genera
generaal
generaalguverno
generaalleutnant
generaalmajor
generaalstaatsanwalt
general
generaldio
generalfeldmarschall
generaliseerte
generalleutnant
generalmajor
generaloberst
generalsekreta
generalstaff
generation
generatschonen
generatschoon
generell
genesis
genest
genetik
genetiker
genetisch
geneva
genevie
genf
genfer
genie
genitiv
gennadi
genom
genoog
genre
genres
gens
genscher
gent
genten
gentleman
genu
genua
genug
genus
geo
geoda
geoff
geoffrey
geograaf
geograafsche
geografie
geographic
geographical
geographie
geographisch
geologen
geological
geologie
geology
geoloog
geoloogsch
geoloogsche
geometrie
geophysiker
georg
george
georges
georgetown
georgi
georgia
georgien
georgschen
ger
gera
geraden
gerais
gerald
gerard
gerbert
gerd
gerda
gere
gerechte
gerechten
gerechtigkeit
geren
gerhard
gerhardt
gerhart
gericht
gerichten
gerichtsbezirk
gerichtsborkeit
gerichtshoff
gerichtsverfatensgesett
gerin
gerken
gerlach
germaansch
germaansche
germaanschen
germain
german
germanen
germania
germanist
germanistik
germanistin
germanium
germany
gern
gernot
gero
gerold
gerrard
gerrit
gerry
gers
gersdorff
gert
gertrud
gertrude
geru
gervais
ges
gesa
gesammelte
gesamt
gesamte
gesamten
gesamtschool
gesamtsieg
gesamtwark
gesamtweltcup
gesamtwertung
gesandten
gesang
gesangspa
gescha
geschah
gesche
geschenk
geschicht
geschichte
geschichten
geschichts
geschu
geschwindigkeit
geschwister
gesellschaft
gesett
gesette
gesetten
gesettgeven
gesetz
gesetze
gesetzes
gesetzgebung
gesicht
gesine
geslecht
geslechter
gesmold
gespra
gest
gesta
gestalt
gestalten
gestaltung
gestapo
gestern
gestorben
gesund
gesundheit
gesundheitlich
gesundheitliche
gesundheitstostand
get
getz
geven
geversdo
gewa
gewalt
gewaltig
gewarf
gewarfsfo
geweev
gewehr
gewerkschaft
gewerkschaften
gewerkschafter
geweten
gewicht
gewichthever
gewichtheverin
gewinn
gewinnen
gewinner
gewinnt
gewissen
gewo
gewohr
gewu
geyer
gg
ggd
gge
ggen
gger
ggt
ghali
ghana
ghersteller
ghetto
ghost
gi
giacomo
gian
gianni
giant
gibbons
gibbs
gibraltar
gibson
gibt
gidder
giehl
giehlermoor
giersdo
gies
giesecke
gießen
gifft
gifhorn
gift
giftig
giftige
giftigkeit
gig
giganten
giger
gigi
giglio
gil
gilbert
gilberto
gildemeister
giles
gill
gille
gilles
gillespie
gilmore
gina
ging
gino
gioachino
giordano
giorgio
giovanni
gips
girard
girl
girls
giro
girolamo
gironde
gis
gisela
gitarr
gitarre
gitarrenspeler
gitarrist
gitarristen
gitarrspeler
gitarrspelerin
gitler
giulio
giurgiu
giuseppe
give
givt
gje
gl
gla
glacier
gladbach
glas
glasemaker
glaser
glasgow
glashu
glasmaler
glatt
glauben
gleason
gleedert
gleem
gleich
gleichen
gleis
gleise
glen
glenn
gler
gletscher
gletschers
glich
gliche
glichen
glicherwies
glichkeit
glichkeiten
glichst
gliederung
gliek
gliekbedu
glieke
glieken
glieker
gliekgewicht
gliekmatig
glieknaamig
glieknamig
gliekno
glieks
gliektiedig
gliektietig
gliese
gligoric
glinn
glinst
glo
global
globale
globalisierung
globe
globen
glogau
gloov
glooven
gloria
gloucestershire
gloven
glover
glu
gluck
gm
gmbh
gnaad
gnaagdeerter
gnade
gnarrenborg
gnis
go
god
goddard
goddesdeenst
gode
goden
godendo
godenst
godfather
godfrey
godoy
godshem
goebbels
goerdeler
goes
goethe
gogericht
gogh
goh
gohbeek
goia
going
gold
goldap
goldberg
golden
goldene
goldenen
goldfinger
goldmann
goldmedaille
goldmedaillen
goldpeer
goldschmidt
goldsmidd
goldsmith
goldson
goldwyn
golf
golfplatz
golfspeler
golgi
goll
gollen
golo
golson
goltz
gomes
gomez
gonc
gondwana
gone
gonza
gonzaga
gonzalo
good
goodbye
goode
gooden
goodman
goodsbesitter
goodsherrn
goodshuus
google
goorn
goorner
goorns
goos
goossens
goot
gootachten
gootsche
gor
gora
gorbatschow
gorch
gorda
gorden
gordens
gordon
gore
gorj
gorman
gornich
gossypium
got
goten
gotha
gothenborg
gotik
gotland
gott
gottes
gottfried
gotthard
gottheit
gotthelf
gotthold
gottlieb
gottlob
gottorf
gottorp
gottschalk
gould
gouverneur
gov
government
govt
goya
gp
gr
gra
graad
graaf
graafschop
grab
grabe
grabowski
grace
grad
graduate
grady
graefe
graeme
graf
grafel
grafen
graff
graffiti
graffsta
graffsteen
grafik
grafikdesigner
grafiker
grafikerin
grafschaft
grafschap
graham
grahamland
gramm
grammatik
grammatiker
grammy
gran
granada
grand
grande
granger
granit
granst
grant
granulozyten
granville
granz
graphit
gras
grasbarg
grasdo
grashupper
grass
grau
graubu
graue
grauen
graupner
grave
graven
gravens
graves
gravitatschoon
gravo
gray
graz
gre
great
greater
greatest
greek
greeksch
greeksche
greekschen
green
greene
greenville
greenwich
greenwood
greep
greepen
greer
greev
greg
greger
gregg
gregor
gregoriaanschen
gregorio
gregory
greiner
greis
greiz
greken
grekenland
gremien
gremium
grenada
grenadinen
grenoble
grenz
grenze
grenzen
grenzo
grenzt
grepen
gresig
gresige
gresigen
greta
grete
gretschko
greundiek
greve
greven
grevengericht
grey
grieg
griemshorst
griepen
griepswohld
griepswoold
griept
gries
griese
griffin
griffith
grigori
grigorjewitsch
grill
grimes
grimm
grimme
grinnen
grippt
gris
gro
grode
groden
groff
grohmann
groll
groningen
groode
groot
grootbritannien
grootdeel
groote
grooten
groothartog
groothartogdom
grootkru
grootma
grootmacht
grootmeester
grootmeestertitel
grootmoder
grootmudder
grooto
grootpolen
grootsta
grootstadt
grootvadder
grootvader
grootweurn
gros
gross
grosse
grossman
grosvenor
grot
grote
groten
grotenwe
groth
group
grove
grover
groves
growers
growth
groß
große
großen
großer
großes
gru
grube
gruben
gruber
grund
grundgesett
grundlaag
grundlage
grundlagen
grundleggend
grundlien
grundmann
grundolendo
grundsa
grundsatz
grundsatzprogramm
grundscho
grundscholen
grundschool
grundsteen
grundstu
grundutbillen
grundwater
grundy
grundzentrum
grunnen
grunneng
grupp
gruppe
gruppen
gruyter
gspeler
gste
gsten
gt
gte
gten
gu
guadalupe
guadeloupe
guanaja
guanajuato
guardian
guardiola
guatemala
guayana
gudrun
gue
guernsey
guerra
guerrero
guez
guide
guido
guild
guillaume
guillermo
guinea
guinness
guitar
guldbeek
guldborgsund
gulden
gull
gullen
gun
gundlach
gung
gungen
gunn
gunnar
guns
gunsten
gunter
gunther
gus
gustaf
gustav
gustave
gustavo
gut
gute
guten
gutenberg
guthrie
gutie
guttmann
guverno
guy
guyana
gvbl
gymnasiaallehrer
gymnasien
gymnasium
gyna
gyo
gypten
gypters
gyptisch
gyptische
gyptischen
gyptoloog
gyptschen
gyula
h
ha
haack
haadler
haag
haak
haalt
haar
haare
haaren
haas
haase
hab
habe
haben
habenbeck
habenhusen
habens
haber
habermann
habert
habib
habsborg
hackett
hackl
had
hadde
haddo
hadeln
haden
hades
hadley
hadrian
haeften
hafen
hafnium
haft
hagedorn
hagemann
hagen
hagener
hahl
hahn
hahnenknoop
hai
haie
haig
haile
hain
haines
hainmo
haiti
hajo
hake
hal
haldane
halder
hale
halen
half
halfass
halfeiland
halffinale
halfgo
halfinsel
halfweertstiet
halfweertstieten
halifax
hall
halle
hallen
haller
halley
halogenen
hals
halsmo
halt
haltern
halv
halve
halven
halvinsel
ham
hamann
hambargen
hambo
hamborg
hamborger
hamburg
hamburger
hamel
hameln
hamelwo
hamer
hamersmieter
hamgyong
hamilton
hamlet
hamlin
hamm
hammah
hammer
hammerschmidt
hammerstein
hammoh
hammond
hampshire
hampton
han
hanau
hancock
hand
handball
handballspeler
handballspelerin
handbook
handbuch
handel
handelsblatt
handlung
hando
handschrift
handschriften
handwark
handwarker
handy
hanevold
hang
hangen
hangt
hanisch
hank
hanke
hann
hanna
hannah
hanne
hannel
hanneln
hannelore
hannelt
hannen
hannes
hannibal
hanno
hannober
hannover
hannovera
hannoversche
hanns
hanover
hans
hansa
hansahlen
hanse
hansen
hanser
hansesta
hansestadt
hansjo
hanson
hanssen
hansson
hanst
hansta
hapag
hapen
happened
happy
har
hara
harald
harbor
harbour
harburg
harcourt
hard
harde
harden
hardenberg
harder
hardin
harding
hardy
harfst
harghita
haring
harlan
harlem
harlesiel
harley
harlingerland
harlow
harm
harmonie
harms
harndorp
harold
harp
harper
harpspelerin
harr
harren
harrer
harriet
harris
harrison
harrn
harrt
harry
harseim
harsfeld
hart
hartbo
harte
harten
hartford
hartinfarkt
hartl
hartley
hartman
hartmann
hartmut
harto
hartog
hartogdo
hartogdom
hartung
hartwig
harvard
harvey
harvst
harwood
harz
has
hase
hasen
haskell
hass
hassan
hassbossel
hasse
hassel
hasselhoff
hasselmann
hasselwarder
hassendo
hast
hastedt
hastings
hat
hatch
hatfield
hatje
hatt
hatte
hattieville
hatz
hau
hauch
hauen
hauer
haug
haugduitsk
haumea
haun
haupeer
haupeerd
haupt
hauptamt
hauptamtlichen
hauptbahnhoff
hauptdiek
hauptmann
hauptmanns
hauptmannschop
hauptoort
hauptschool
hauptstraat
haus
hauschild
hausen
hauser
hauswald
haut
haute
hautes
havanna
have
havel
havemann
haven
havens
havenstadt
havre
hawaii
hawass
hawk
hawkins
hawley
haworth
hawthorne
haydn
haye
hayes
haynes
hays
hayward
haßel
hcl
hd
hdt
he
head
health
healy
heaney
heard
heart
heat
heath
heather
heaven
heavy
hebb
hebben
hebbt
heben
hebra
hebriden
hebt
hecht
heck
heckmann
heckthusen
hector
hedmark
hedwig
hee
heel
heelmiddel
heelmiddels
heemken
heemlich
heemsbu
heendo
heer
heerenveen
heeresgrupp
heerfo
heerst
heerstraat
heesdo
heesters
heet
heeten
heevschruver
heeßel
heff
hefft
heft
heger
hegle
hei
heid
heidbahn
heidbarg
heide
heidegger
heidelbarg
heidelbarger
heidelberg
heidemann
heiden
heidenau
heidi
heidkamp
heidkreis
heidkroog
heien
heights
heike
heikki
heiko
heil
heilbronn
heiligen
heilmann
heilshoorn
heim
heimaatdichter
heimaatforscher
heimann
heimat
heimatbund
heimatforscher
heimatland
heimatmuseum
heimatstadt
heimatvereen
heimatverein
heimfeld
hein
heinbockel
heine
heinemann
heiner
heino
heinrich
heins
heinsberg
heinz
heinze
heiraadt
heiraat
heiraden
heirat
heiraten
heis
heise
heisenberg
heit
heitmann
heißenbuttel
heken
hektar
hektor
helbig
held
helden
hele
helen
helena
helene
helga
helge
helgoland
helium
heliumbrennen
hell
helle
hellen
hellenismus
heller
helleu
helligkeit
helljes
hellmut
hellmuth
hello
hellste
hellweeg
helm
helmst
helmstidde
helmut
helmuth
helmworth
help
helpen
helpsmann
helpt
helsch
helsinki
hem
hembus
hemd
hemel
hemeln
hemendo
hemingway
hemm
hemmoor
hempel
hemslingen
hen
henblick
henderson
hendricks
hendrik
hendrix
hendu
hengahn
henk
henkamen
henkel
henkreegen
henkregen
henn
hennig
henning
henri
henrich
henricht
henrichten
henricus
henrietta
henriette
henrik
henrique
henry
henryk
henschel
hensicht
henstellt
henstu
hentagen
hento
hentokriegen
henwies
henwiesen
henwiest
henze
heparin
hepatitis
hepburn
hepst
her
hera
heraldik
heraldiker
herausgeber
herausgegeben
herb
herberger
herbert
herbie
herbig
herbst
herder
here
heredia
heren
heribert
hering
heritage
herkamen
herku
herkummt
herkumst
herkunft
herman
hermann
hermeneutik
hermes
hermine
herna
herne
hero
herodes
heroes
herpetoloog
herr
herred
herren
herrenhuus
herrera
herring
herrlichkeit
herrmann
herrn
herrschaft
herrschap
herrschen
herrscher
herrschers
herrschop
herrscht
herrschup
herschel
herstellen
hersteller
herstellt
herstellung
herta
hertel
hertfordshire
hertha
herto
hertog
hertogdom
hertostellen
hertz
herut
herutbrocht
herutforderer
herutgeven
herutgever
herutragen
herutragend
hervo
herwig
herz
herzberg
herzegowienschen
herzegowina
herzen
herzfeld
herzog
herzogthu
hese
hesel
hesiod
hess
hesse
hessen
hessisch
hest
heston
het
hetaneo
heten
hett
hettdictionary
hetzweeg
heu
heudorp
heuer
heumann
heuss
heute
heven
hey
heyer
heymann
heyne
heß
hg
hger
hgere
hgeschichte
hi
hiarwede
hickey
hickman
hicks
hickstead
hidalgo
hidden
hiddingen
hie
hier
hierbi
hieronymus
hig
higgins
higgs
high
higher
highland
highlander
highlands
highschool
highway
higkeit
higkeiten
hilaire
hilary
hilbert
hilda
hilde
hildebrand
hildebrandt
hildegard
hildesheim
hilfe
hilger
hill
hillary
hille
hillen
hiller
hillge
hillig
hillige
hilligen
hilliger
hills
hillsborough
hilmar
hilmessen
hilmssen
hilton
him
himalaya
himantopus
himmel
himmelfohrt
himmelpoorten
himmelsko
himmler
hin
hind
hindenburg
hindi
hinds
hinduismus
hines
hingis
hingst
hinnebeck
hinnerk
hinnern
hinnert
hinrich
hinrichs
hinrichsen
hinstorff
hinter
hinton
hintze
hintzendo
hinz
hip
hiphop
hippolyte
hipst
hiram
hiroshima
hirsch
hirschfeld
hirt
hirzel
his
hispanist
histoire
histoorsch
histoorsche
histoorschen
historia
historical
historie
historiker
historikerin
historikers
historisch
historische
historischen
historischer
historisches
historsch
historsche
historschen
history
hit
hitchcock
hitler
hitlers
hitparade
hits
hitt
hitte
hitten
hittfeld
hiv
hjahr
hjohr
hl
hlau
hldorf
hle
hlen
hlenbeek
hlendiek
hlendoor
hlener
hlenrad
hlenreeg
hler
hlers
hlich
hlig
hligkeit
hling
hlingen
hlke
hlmann
hlmeyer
hln
hlspriete
hlt
hlte
hlten
hlung
hlungen
hm
hmann
hme
hmen
hmer
hmermann
hms
hmsch
hmschen
hmt
hmte
hmten
hmteste
hmung
hn
hndokter
hne
hnen
hnenbillner
hner
hnke
hnlich
hnliche
hnlichen
hnmediziner
hns
hnt
hnung
ho
hob
hobart
hobby
hoben
hobu
hoch
hochdeutsch
hochdu
hochfilzen
hochkant
hochschule
hochtied
hochtiet
hochzeit
hockeyspeler
hockeyspelerin
hockmo
hodge
hodges
hoepner
hof
hofer
hoff
hoffbeamten
hoffbesitter
hoffman
hoffmann
hoffmeister
hoffnung
hofmann
hofstetter
hoge
hogen
hogenabargen
hogenmoor
hogenoh
hogenwedel
hogg
hogwarts
hohe
hohenzollern
hohl
hohmann
hokkaido
holbm
holbrook
hold
holding
hole
holen
holger
holiday
holl
holla
holland
hollande
hollander
hollandsch
holle
holleman
hollen
hollenbeek
holley
hollingshead
hollis
hollmann
hollow
hollru
hollt
holly
hollywood
holm
holman
holmberg
holmenkollen
holmes
holocaust
holoza
holpen
holsseln
holst
holsteen
holsteener
holsteensch
holsteenschen
holstein
holsten
holt
holte
holten
holthusen
holto
holtsnittjer
holv
holy
holzapfel
holzmann
homann
homburg
home
homepage
homer
homersen
hommage
hommel
homo
homosexualita
hondo
honduras
honegger
honey
hong
hongkong
honnef
honolulu
honor
honore
honorius
hooch
hoochdu
hoochhuus
hoochland
hoochscholen
hoochschool
hoochschoollehrer
hoochspringer
hoochspringerin
hoochsuerlandkreis
hoochwater
hood
hoog
hoogdu
hooge
hooker
hoolt
hoop
hooper
hoopt
hoor
hoorn
hoornspeler
hoot
hoov
hoover
hop
hope
hopen
hopkins
hoppe
hopper
horace
horatio
horbo
horborg
horchler
hordaland
horizon
horizont
hormon
hormonen
horn
hornborg
horne
horner
hornig
horowitz
horror
horrorfilm
horse
horsens
horst
horstmann
hort
horvat
horwitz
horß
hospital
host
hot
hotame
hotel
hotelier
hotels
hotspot
houghton
hour
house
houston
houten
how
howard
howe
howell
hoy
hoya
hr
hrdung
hre
hren
hrend
hrende
hrenden
hrer
hrers
hrig
hrige
hrigen
hring
hringer
hrlich
hrliche
hrlichen
hrmann
hrn
hrnsen
hrr
hrs
hrschipp
hrsg
hrst
hrt
hrte
hrten
hrung
hrungen
hstu
hsv
ht
htm
html
http
https
hu
hubbard
hubble
huber
hubert
hubertus
hudson
hugenotten
hugh
hughes
hugo
huh
huhn
hull
hullen
hullern
hullnst
hulp
hulpen
hulse
human
humanismus
humanist
humanisten
humanistisch
humanita
humberto
humblot
humboldt
hume
hummel
hummingbird
humor
humphrey
hund
hunedoara
hung
hungen
hunger
hunnen
hunnenrass
hunnert
hunnerte
hunt
hunte
hunter
huntford
hunziker
hur
hurley
huron
hurricane
hurrikan
hurst
hus
hussein
huston
husum
hut
hutchinson
hutchison
huttbargen
hutten
huttenbusch
huttendorp
hutton
huud
huus
huusappel
huusbrook
huusholt
huuslehrer
huusvaagdie
huut
huxfeld
huxley
huygens
hyde
hydra
hygiene
hymne
hymnen
hypothees
hypozentrum
i
ia
iaeo
iain
ialomit
ian
ias
iata
iau
iba
ibn
ibrahim
ibu
ic
ica
ice
ich
ichi
ichiro
ichthyoloog
ick
iclicki
id
ida
idaho
ideal
ideale
idealen
idee
ideen
identifizeeren
identifizeert
identita
ideoi
ideologie
ie
iemecken
ieper
ierz
ierzen
ies
iesen
iesenack
iesenbahn
iesenbahnbru
iesenbahnen
iesenbahninscheno
iesenbahnlien
iesentiet
iesern
iesflinklo
iesflinkloop
ieshockeyspeler
ieshockeyspelerin
ieshockeytrainer
ieskunstlo
ieskunstloop
iesla
iesland
ieslandschen
iestied
iestiet
if
ig
iga
ige
igg
ignacio
ignatius
ignaz
igor
iguana
ihlbeek
ihlpohl
ihm
ihn
ihnen
ihr
ihre
ihren
ihrer
ii
iii
ik
ike
il
ila
ilfeld
ilfov
ilhe
ilias
ilja
iljitsch
ilka
ille
illegal
illinois
illusion
illustrated
illustrater
illustratersche
illustrierte
ilm
ilmenau
ilsdo
ilse
im
image
imagemap
images
imagines
imbeek
imdb
imhof
imhoff
immanuel
immen
immer
immerhen
immunantwoort
immunologie
immunoloog
immunsystem
imperial
imperium
impressionismus
impressionisten
impuls
impulse
imre
imßen
in
ina
inaten
inbaut
inberopen
inbo
inboet
inboot
inbreken
inbringen
inbro
inbroch
inbrocht
inbunnen
inc
indeelen
indeelt
indelen
indem
independence
independent
inders
index
india
indiaansch
indian
indiana
indianapolis
indianer
indianers
indianerstamm
indians
indiekt
indien
indies
indirekt
indisch
indische
indischen
indium
individuell
individuelle
indoloog
indonesien
indra
indrag
indragen
indrapen
indre
indringen
indru
indruck
industrial
industrie
industriehavens
industriell
industrielle
industriellen
industriemanager
industries
ine
inen
ines
infall
infallen
infallend
infangen
infanterie
infekschonen
infekschoon
inferior
inflatschoon
infloot
inflooten
inflootriek
influss
info
infobox
informatik
informatiker
informatikerin
information
informationen
informatschonen
informatschoon
informeert
infos
infrastruktur
infu
infungen
ing
inga
ingahn
ingang
inge
ingeborg
ingelsch
ingelsche
ingenieur
ingo
ingolstadt
ingreep
ingrepen
ingrid
ingriepen
inhalt
inheemsche
inheemschen
inhollen
inholt
initiative
inka
inkamen
inkamensgrenz
inkommen
inlaaden
inlaadt
inladen
inlagert
inlaten
inleggt
inleiden
inleidt
inleit
inlet
inmarsch
inmarscheert
inmu
inn
innahm
innahmen
inne
innehmen
innen
inner
innere
innkreis
innommen
innozenz
innsbruck
inoffiziell
inoffiziellen
inorden
inordent
inquart
inricht
inrichten
inrichtung
inrichtungen
inru
ins
insa
insatz
insatzen
insatzgruppen
insbesu
inscha
inscheno
inschra
inschreven
inschrift
insecta
insehn
insekt
insekten
insel
inselgrupp
inseln
inselstaat
insett
insetten
insgesamt
insicht
insichten
inside
inslag
inslahn
inslaten
inslooten
insluutend
insorteert
insparrt
inspeelt
inspekter
inspireert
inst
installeert
instellen
instellt
institut
institute
institution
instituts
institutschonen
institutschoon
instrument
instrumente
instrumenten
instrumentenboer
instuuft
inszeneeren
inszeneert
int
intagen
integratschoon
integreert
intehn
intellektuellen
intelligenz
intendant
intensita
intensiv
intensive
inter
interessant
interesse
interesseert
interessen
interna
internacional
internat
international
internationale
internationalen
internationales
internatschonaal
internatschonal
internatschonale
internatschonalen
internatschonaler
internet
internett
internist
interpret
interpretatschoon
interpreteert
interpreten
interview
interviews
interzonenturnier
into
intogen
intonehmen
intoog
intorichten
intosetten
intra
intrecken
intreden
intreeden
intressant
intressante
intresse
intresseert
intressen
introduction
intrucken
intschen
intu
intwu
inuit
invasion
inverstahn
investeert
investigation
inw
inwahner
inwahners
inwahnertall
inwahnertallen
inwannerers
inwannern
inwannert
inwarken
inwarkt
inweeht
inweiht
inwesselt
inwieht
inwirken
inwohners
inzmo
io
ioc
ion
ionen
ioniseeren
iowa
ipa
ippens
ir
ira
iraansch
iraansche
iraanschen
irak
iran
ireland
irene
irina
iris
irisch
irische
irischen
irish
irland
irma
irmgard
irokesen
iron
irvine
irving
irwin
is
isa
isaac
isaak
isabel
isabella
isabelle
isbn
isch
ische
ischen
ischer
isdictionary
ise
isensee
isheim
isidor
isidro
isla
islaamsche
islaamschen
islam
islamwetenschopper
island
islands
islas
islay
isle
iso
isoleeren
isoleert
isonzo
isotop
isotopen
israeelsch
israeelsche
israeelschen
israel
iss
issell
issendo
issn
issue
ist
istanbul
istva
it
italia
italiana
italieensch
italieensche
italieenschen
italien
italiener
italieners
italiensch
italienschen
itf
ithaca
its
itzwo
iucn
iulius
iupac
iut
iv
iva
ivan
ivar
iver
iversen
ives
ivo
iwan
iwanowitsch
iwanowna
ix
izabal
j
ja
jaagt
jacek
jacinto
jack
jackie
jackson
jacksonville
jacob
jacobi
jacobs
jacobsen
jacobus
jacqueline
jacques
jacquet
jade
jaeger
jaffe
jagd
jagdfleger
jagdslott
jagen
jager
jahn
jahr
jahrbuch
jahre
jahren
jahres
jahrgang
jahrhundert
jahrhunderts
jahrhunnert
jaime
jake
jakob
jakobi
jakobus
jakub
jalapa
jalisco
jallow
jam
jamaica
jamaika
jamaikaansche
jamaikaanschen
james
jameson
jamestown
jamie
jan
jana
jane
janeiro
janet
jankovic
jann
jans
jansen
janssen
januar
january
janusz
janßen
japaansch
japaansche
japaanschen
japan
japaner
japaners
jardin
jarl
jaroslav
jarre
jarrett
jarvis
jasmin
jason
jasper
java
javier
jay
jazz
jazzlexikon
jazzmusik
jazzmusiker
jazzszene
jazztet
je
jean
jeanette
jeanne
jeddingen
jede
jedeen
jeden
jedenfalls
jeder
jedereen
jedes
jedet
jedoch
jeed
jeedeen
jeem
jeersdo
jef
jeff
jefferson
jeffery
jeffrey
jegorow
jehova
jekaterina
jelena
jelly
jelusich
jem
jemals
jemehr
jemehrn
jemen
jemols
jena
jenkins
jennifer
jennings
jenny
jens
jenseits
jensen
jeremy
jero
jerome
jerry
jersey
jerusalem
jerzy
jesborg
jesper
jesse
jessen
jessica
jessie
jesu
jesuit
jesuiten
jesus
jet
jetzt
jever
jeweilig
jeweils
jewgeni
jewiels
jg
jh
ji
jiddens
jilbern
jill
jillhorn
jim
jime
jimmie
jimmy
jin
jir
jjen
jo
joa
joachim
joan
joanna
joanne
joaqui
joaquim
joaquin
job
jobs
jobst
jochen
jockey
jod
joden
jodendom
joe
joel
joey
joh
johan
johann
johanna
johanne
johannes
johannis
johansen
john
johnny
johns
johnson
johnston
johnstone
johr
johrdusend
johre
johrelang
johren
johrenlang
johresenn
johreswessel
johrgang
johrhunnert
johrhunnerte
johrhunnerten
johrig
johrige
johrigen
johrn
johrteihnten
johrteinten
joly
jon
jonas
jonathan
jones
jong
jonny
jonsson
joos
joost
jordan
jordanien
jorge
jorhunnert
jos
jose
josef
josep
joseph
josephine
josh
joshua
jost
journal
journalist
journalisten
journalistin
journey
joy
joyce
jozef
jpg
jr
ju
jua
juan
jubila
juda
judas
juden
judgment
judith
judoka
judy
jugend
jugoslaawsch
jugoslaawsche
jugoslaawschen
jugoslawien
jugurtha
jules
juli
julia
julian
juliane
julie
julien
juliet
julio
julius
jullien
july
jumfer
jumfern
jummerlos
jummers
jump
jun
junction
june
jung
jungblut
junge
jungen
jungle
jungs
juni
junior
junioren
juniorenweltmeesterschapen
junker
juno
jupiter
jur
jura
juri
jurist
juristen
juristeree
juristin
juristisch
juristische
jury
juskowiak
just
justice
justin
justine
justiz
justizkanzlie
justizminister
justizraad
justizreform
justus
jutiapa
jutta
juventus
jørgen
k
ka
kaak
kaaken
kaakpunkt
kaakt
kaamt
kaart
kabarettist
kabarettistin
kabel
kabinett
kader
kaffee
kafka
kahl
kahle
kahn
kahnweiler
kai
kaidiek
kairo
kaisa
kaisen
kaiser
kaiserin
kaiserlich
kaiserliche
kaiserlichen
kaiserriek
kaisers
kaiserslautern
kaken
kakensto
kalf
kalif
kalifornien
kaliningrad
kalispel
kalium
kalk
kalksteen
kallisto
kalmar
kam
kamara
kambodscha
kambrium
kamen
kamer
kamera
kameraden
kameramann
kameras
kamerherr
kamermusik
kamern
kamerun
kaminsky
kamm
kammann
kammer
kammermusik
kamp
kampagne
kampala
kampen
kampf
kamt
kan
kanaadsch
kanaadsche
kanaadschen
kanaal
kanada
kanadagoos
kanal
kandel
kandidat
kandidaten
kandidatenturnier
kandidatur
kandideeren
kandideert
kane
kaneel
kann
kannedaat
kannedaten
kannst
kanon
kanonen
kansa
kansas
kant
kantate
kantaten
kante
kanten
kanter
kanton
kantons
kanufohrer
kanufohrerin
kanzel
kanzlei
kanzler
kanzlie
kap
kapazita
kapell
kapelle
kapellen
kapellmeester
kapillaren
kapita
kapitel
kapitol
kapitulatschoon
kapituleert
kaplan
kapsel
kapstadt
kaptein
kaputt
kapverden
kapverdische
kara
karasek
kardina
kardinaal
kardinal
karel
karen
kariben
karibik
karibische
karikaturist
karin
kark
karken
karkengemeen
karkengemeend
karkengemenen
karkenhistoriker
karkenkreis
karkenleeddichter
karkenmusik
karkenmusiker
karkenstaat
karkgellsen
karkho
karkhoff
karkhoffstraat
karklich
karktimk
karkwals
karkwist
karl
karlheinz
karls
karlsruhe
karlsruher
karn
karnfusion
karnkraftwark
karnoort
karnphysik
karns
karnstadt
karol
karoline
karoxbossel
karrer
karrier
karriere
karsten
karte
karteert
karthago
kartograaf
kartuffeln
kasachschen
kasachstan
kaschott
kasern
kaserne
kaspar
kasparow
kaspel
kaspels
kaspelsgericht
kass
kassbrook
kassel
kassen
kasten
kastilien
katalaansch
katalaanschen
katalog
katalonien
kataloog
katalysater
katar
katastraalgemeen
katastrooph
katastrophe
katastrophen
kate
katechissen
kategorie
kategorien
kater
katharina
katharine
katharinen
kathedraal
kathedrale
katherine
kathleen
katholiken
katholische
kathoolsch
kathoolsche
kathoolschen
kathrin
kathryn
kathy
kati
katie
kationen
katja
katrin
katt
katte
katten
kattwiek
katz
katzer
kauffmann
kaufmann
kauh
kaukasus
kavallerie
kay
kayser
kaysers
kb
kdo
ke
keanu
kear
keck
keden
kedenborg
kedenbrook
kedener
keed
keegan
keek
keem
keemen
keen
keene
keeneen
keerl
kees
kehr
kehrt
kein
keine
keiner
keitel
keith
keitum
kekchi
keken
kel
kelfeld
kelhusen
keller
kellermann
kellerswiene
kelley
kellner
kelly
kelnaam
kelsey
kelten
kelvin
kemen
kemm
kemp
kempe
kempen
kempf
ken
kendall
kene
kener
kenia
kenmoor
kenn
kennedy
kennen
kennenlehrt
kenner
kenneth
kennis
kennt
kennteken
kenntekent
kenntnis
kenny
kent
kentucky
kepler
ker
keramik
keramiker
kerber
keree
keres
kerk
kerkboitzen
kerke
kerken
kerklinneln
kerl
kern
kerr
kerry
kers
kershaw
kerstin
kert
kerte
kerteminde
kessel
ketzendo
kevin
key
keyboard
keyboarder
keyser
kg
khan
ki
kia
kicker
kickers
kickt
kid
kidder
kiefer
kiek
kieken
kieker
kiekt
kiel
kieler
kien
kienzle
kiepenheuer
kier
kies
kieselsu
kiesewetter
kiesinger
kiesow
kiew
kill
killer
kilogramm
kilometer
kilometern
kilometers
kim
kind
kinder
kindermann
kindersley
kindheit
kindler
king
kingdom
kings
kingsley
kingston
kinner
kinnerdokter
kinnergoorn
kinnero
kinners
kinnertied
kinnertiet
kino
kinofilm
kinofilmen
kinos
kinsey
kiowa
kippt
kirby
kirche
kirchen
kirchengeschichte
kirchenlexikon
kirchner
kiribati
kirk
kirke
kirkpatrick
kirsten
kiss
kit
kita
kittel
kitts
kitty
kius
kißling
kj
kla
klaag
klaagt
klaar
klaas
kladdert
klammern
klan
klang
klapp
klappen
klappt
klar
klara
klarinett
klarinette
klarinetten
klarinettist
klarinettisten
klarinettspeler
klartext
klass
klasse
klassen
klassifikatschoon
klassifizeert
klassik
klassiker
klassikers
klassisch
klassische
klassischen
klassizismus
klatten
klauen
klaus
klaut
klaveer
klaveerkonzert
klaveeru
klaveerwarken
klavier
klecken
kledaasch
kledaaschmaker
klee
kleed
kleedasch
kleen
klein
kleine
kleinen
kleiner
kleines
kleinschmidt
kleist
klemmt
klenkendo
klenner
kleopatra
klethen
klett
kleve
klever
kliff
klima
klimatoloog
klindworth
kline
klingen
klinger
klingt
klinik
klinische
klint
klinten
klischees
klitoris
klo
klock
klocken
klockengeter
klockenmaker
klockenspeel
klockentoorn
klonen
klook
kloonsche
kloor
klooster
kloosters
klopstock
klor
klore
kloss
kloster
klu
klub
klug
kluge
km
kmaq
kna
knaken
knakenmark
knapp
knappen
knauer
knaur
knee
knick
knickt
knight
knill
kno
knoop
knorre
know
knowles
knox
knu
knud
knudsen
knut
knuth
ko
koalitschoon
koalitschoonskriege
kobalt
kobbe
kobben
koblenz
koch
kocher
kock
koffein
koffie
kofi
kogge
koh
kohl
kohlenfo
kohlenhusen
kohlenstoff
kohlenstoffatom
kohlenstoffatomen
kohlenstoffdioxid
kohlenstoffmonoxid
kohlensu
kohlenwaterstoffen
kohlhammer
kohlschreiber
koine
kokain
kokerbeek
koks
kolbe
kole
kolen
kolleeg
kolleg
kollegen
kollen
koller
kollision
kollmann
kologie
koloniaalbeamten
koloniaalguverno
kolonie
kolonien
kolonisten
koloog
kolt
kolumbiaansch
kolumbiaansche
kolumbiaanschen
kolumbien
kolumbus
kolumnist
koma
kombinatschoon
kombineert
kombinerer
komen
komet
kometen
komiker
komikerin
komische
komitee
komm
kommandant
kommandanten
kommandeur
kommando
kommen
kommend
kommentar
kommenteert
kommerbusch
kommerziell
kommerzielle
kommerziellen
kommissar
kommissarsch
kommission
kommt
kommun
kommunaalreform
kommunale
kommunalen
kommunalpolitiker
kommunalreform
kommunalwahl
kommunalwahlen
kommune
kommunen
kommunikatschoon
kommunikatschoonswetenschopper
kommunismus
kommunist
kommunisten
kommunistisch
kommunistische
kommunistischen
komo
kompanie
kompendium
komplett
komplex
komplexe
komplexen
komponeer
komponeeren
komponeert
komponenten
komponist
komponisten
komponistin
kompositschonen
kompositschoon
kompromiss
kondensatschoon
kondenseert
kondo
kone
konferenz
konflikt
konflikten
konfo
konformatschoon
kong
kongo
kongress
konitz
konklave
konkurrenten
konkurrenz
konn
konnen
konnt
konnte
konom
konomie
konomin
kononenko
konoom
konrad
konservativ
konservative
konservativen
konservatorium
konsonanten
konstant
konstantin
konstantinopel
konstantinowitsch
konstanz
konstrueert
konsul
konsuln
kontakt
kontext
kontinent
kontinentale
kontinenten
kontiolahti
kontrabass
kontrast
kontroll
kontrolle
kontrolleeren
kontrolleert
konvekschoon
konzentratschoon
konzentreeren
konzentreert
konzept
konzepte
konzern
konzert
konzerte
konzerten
konzil
kood
kool
koolt
koop
koopen
kooperatschoon
koophuus
kooplu
koopma
koopmann
koordinaten
koordinatensystem
koorn
koornmo
koort
koorten
kopen
kopenhagen
kopernikus
kopf
kopff
kopie
kopien
kopp
koppel
koppeln
koppels
koppelt
koppenn
kopper
koppersteker
koppfo
kopplung
koppweh
koptein
koran
korea
koreaansch
koreaansche
koreakrieg
korinth
korl
korlsho
korn
kornberg
korps
korrekt
korrosion
korsika
kort
kortbahn
korte
korten
kortfilm
kortfilmen
kortform
kortgeschicht
kortgeschichten
kortschnoi
kos
koschnick
kosmologie
kosmonaut
kosmonauten
kosmos
kosovo
kosten
koster
kostu
kott
kova
kovac
kovalente
kowal
kp
kpd
kr
kra
kraam
kraan
kraansmoor
krafft
kraft
kraftwark
kraftwerk
krahmer
krakau
kraken
kramer
krank
kranke
kranken
krankenhu
krankenhuus
krankensu
krankenswester
krankheit
krankheiten
krankheitsbild
krankmakers
kranz
krater
kraters
kraus
krause
kraut
krebs
kreeft
kreefte
kreeften
kreeg
kreegen
kreepm
krefeld
kregen
kreis
kreisbahn
kreisdag
kreise
kreisen
kreisfre
kreisfree
kreishauptmann
kreisloop
kreisreform
kreisspoorkass
kreisstadt
kreisstraat
kreisstraten
kreist
kreisverband
kreisvo
kremer
kreolen
kreta
kreuzer
krick
kricke
kried
krieg
kriege
kriegen
krieger
kriegerdenkmaal
kriegs
kriegsdeenst
kriegsenn
kriegsfilm
kriegsmarine
kriegsschipp
kriegsverbreker
kriegsverkloren
kriegt
kriggt
krim
krimi
kriminalfilm
kriminellen
kriminoloog
krimireeg
kring
krink
krinken
krischan
krise
kristall
kristallen
kristallin
kristalline
kristalliseert
kristallstruktur
kristallsystem
kristen
kristian
kristiansen
kristin
kristina
kriterien
kritik
kritiken
kritiker
kritikers
kritisch
kritische
kritischen
kritiseer
kritiseert
kro
kroaatsch
kroaatsche
kroaatschen
kroatien
krogmann
kronberg
krone
kronen
kronenborg
kroog
kroon
kroonblo
kroonprinz
kropp
krosigk
kru
krug
krumeich
krumm
krummendiek
krupa
krupp
kruse
kruupt
kruutsand
krypton
krzysztof
kt
ku
kuba
kubaansch
kubaansche
kubaanschen
kubassow
kubikmeter
kubismus
kubrick
kufferath
kugel
kugeln
kugelsmieter
kugler
kuhl
kuhla
kuhlen
kuhlmann
kuhn
kuhs
kuhstermoor
kuiper
kuipergo
kujawien
kulenkampff
kulmbach
kult
kultiveert
kultur
kulturell
kulturelle
kulturellen
kulturen
kulturgeschichte
kulturhistoriker
kulturmanager
kulturpries
kulturwetenschopper
kultuur
kumbarg
kummandant
kummando
kummedie
kummedien
kummer
kummt
kumplett
kumplette
kumplex
kumplexe
kumponenten
kumponist
kumponistin
kund
kunert
kunflikt
kungress
kunkel
kunn
kunne
kunnen
kunnig
kunnt
kuno
kunquistador
kunsel
kunst
kunstakademie
kunstant
kunstgeschichte
kunstha
kunsthistoriker
kunsthistorikerin
kunstkritiker
kunstmann
kunstmuseum
kunstpa
kunstrukto
kunstsammler
kunststoff
kunstwarken
kuntakt
kuntakte
kuntakten
kunteradmiraal
kuntrabassist
kuntrei
kuntreien
kuntrull
kunz
kunzentratschonen
kunzentratschoon
kunzentreert
kunzept
kunzern
kunzert
kunzerten
kunzler
kurater
kuratersche
kurfo
kurfu
kurie
kurier
kurs
kurse
kurt
kurz
kurze
kusch
kutenhult
kutschera
kuubsch
kuum
kuzorra
kv
kw
kyle
kyo
kz
l
la
laaber
laadt
laag
laak
laat
laaten
laatwark
lab
label
labiau
labor
laboratory
labour
labrador
lac
lacey
lachen
lacht
lacy
laden
ladens
ladung
lady
ladyville
lafayette
lafontaine
lage
lagen
lager
lagern
lagers
lagersteden
lagert
lago
lagoon
lagos
lagrange
laguna
laguun
lahm
lahmen
lahn
lahti
laine
laing
laird
laj
lajos
lake
lakota
lamar
lamaze
lamb
lambda
lambert
lamberti
lamont
lampe
lancashire
lancaster
lance
lanchester
land
landa
landau
landdag
landdagsafordnete
landdagsafordneter
landdagswahl
landdagswahlen
landdrost
landdrostie
lande
landen
landes
landesamt
landesbibliothek
landeskunde
landeslist
landesmuseum
landgemeen
landgericht
landgraaf
landgraf
landing
landis
landkreis
landkreise
landkreisen
landmark
landra
landraad
landraadsamt
lands
landsberg
landschaft
landschap
landschapen
landschapsmaler
landschop
landschoppen
landschopsarchitekt
landsgrenz
landsho
landshut
landskark
landslist
landsmann
landsmeester
landspitz
landsraad
landsstraat
landsstraten
landstraat
landstreek
landstreken
landsverba
landsverband
landsvo
landtag
landung
landweertschap
landweertschop
landwehr
landwertschap
landwertschaplich
landwo
lane
lang
lange
langeland
langeln
langen
langendammsmoor
langenfeld
langenhusen
langenmoor
langer
langhans
langjohrig
langjohrigen
langley
langloh
langobarden
langs
langsam
langsflu
langslo
langslopen
langsom
langsome
langsomer
langt
language
languages
langwedel
langwedelermoor
lanhusen
lanka
lann
lannen
lannsregeern
lannt
lansing
lanz
laos
lara
large
largo
lari
larissa
larry
lars
larsen
larus
larve
larven
las
lasch
laser
lasius
lasker
lasky
lasse
lassen
last
lasten
lat
late
laten
later
latere
lateren
laterhen
laterhenn
latern
latien
latienamerika
latiensch
latiensche
latienschen
latienschool
latin
latour
latreille
lau
laue
lauenbru
lauer
laughlin
laughton
laura
laureate
laureates
laurel
lauren
laurence
laurent
laurentius
laurie
lausanne
laut
lava
laval
laven
laver
law
lawei
lawrence
laws
lawson
layton
lazarett
lb
lbe
lben
lbige
lc
lcar
lcea
ld
lde
lden
lder
lderlin
ldst
ldste
ldsten
le
lea
leach
leader
league
leal
leander
leandro
leave
lebber
leben
lebennig
lebens
leber
leberecht
leblanc
lebt
lebus
lech
lecture
leda
leddanlaag
ledder
leddig
leden
leder
ledermaker
lee
leech
leed
leeden
leeder
leeds
leedtexter
leef
leefern
leefert
leefste
leefsten
leeft
leeg
leegen
leeger
leegt
leendaal
leendaler
leep
leer
leerhaaf
leernst
leessem
leest
leet
leeten
leev
leevde
leeven
leevfroon
leevste
leevsten
leevt
leevtieden
leevwesen
leferung
left
legacy
legal
legeeren
legen
legend
legenda
legende
legenden
legenn
legeren
legg
leggen
leggt
legion
legislative
legislativversammlung
legrand
leh
lehe
leherheid
lehman
lehmann
lehmbruck
lehn
lehnert
lehnt
lehnwo
lehr
lehramt
lehrbo
lehrbook
lehrbuch
lehre
lehren
lehrer
lehrers
lehrerseminar
lehrn
lehrstohl
lehrt
leibniz
leid
leiden
leider
leidt
leif
leifig
leigh
leinemann
leipzig
leipziger
leist
leisten
leistung
leistungen
leit
leiten
leiter
leitung
lek
lektor
leland
lemaire
lemge
lemke
lemmermann
lemy
len
lena
lenape
lengen
lengenbossel
lenglen
leni
lenin
leningrad
lenk
lenken
lennart
lenni
lennie
lennon
lennox
lenoir
lent
lentz
lenz
leo
leon
leonard
leonardo
leone
leonhard
leoni
leonid
leopold
leopoldina
lepidoptera
lepidopteroloog
leptonen
ler
lern
lernen
lerner
lernt
leroy
lers
les
lesen
leser
lesley
leslie
lesotho
lesser
lessing
lest
leste
lesten
lester
lesum
let
leten
leto
lett
letter
letters
lettland
lettres
lettsch
lettschen
letzt
letzte
letzten
letzter
letztere
letztlich
leuka
leukozyten
leuschner
leute
leutnant
leve
level
leven
levend
levensduer
levensgefa
levensjohr
levensjohren
levenslang
levensloop
levensmiddel
levensruum
levensu
levenswark
levenswies
lever
leverkusen
levern
levert
levi
levin
levinson
levitt
levy
lew
lewandowski
lewen
lewis
lex
lexikograaf
lexikon
lexington
lez
lf
lfa
lft
lfte
lften
lg
lgen
lgenbalken
lgenla
li
lia
liam
libanon
libe
liberal
liberale
liberalen
liberia
libertad
liberty
liborius
library
librettist
libretto
libuda
libyen
lice
lich
licht
lichtathlet
lichtathletik
lichtathletin
lichte
lichten
lichtenberg
lichter
lichtere
lichtjohren
lichtsta
licinius
lidd
liddfo
liddmaat
liddmaaten
liddmaatschap
liddmaten
lidmaat
lie
liebe
lieben
liebermann
liechtensteen
lied
lieden
lieder
liedtke
lief
liegt
liek
lieke
lieken
lieker
liekers
liekup
lien
lienen
lienwand
lies
liest
lieth
lieutenant
liev
lieven
life
lifetime
lig
liga
ligamentum
ligapokal
liggen
liggend
liggt
light
like
lili
lilienthal
lille
lillehammer
lilly
lily
lima
limborg
limburg
limited
limo
lin
lina
linares
lincoln
lincolnshire
linda
lindau
linde
lindemann
linden
lindhost
lindley
lindo
lindsay
lindsey
lindstro
line
linear
lineare
lines
lingen
lingua
linguist
linguistik
linie
link
linke
linken
links
linn
linnaeus
linne
linneln
linnen
lins
lintel
lintig
lintler
linus
linux
linz
lio
lion
lionel
lippe
lippen
lippmann
lipscomb
lisa
lisch
lische
lise
liselotte
lissabon
list
liste
listen
liszt
liszts
lit
litauen
litauschen
liter
literarisch
literarische
literarischen
literatur
literature
literaturhistoriker
literaturkritiker
literaturpries
literaturwetenschopper
literaturwetenschopperin
literatuur
lithium
lithograaf
lithospha
little
littleton
liu
liut
liv
live
liverpool
lives
living
livingston
livland
lix
liz
lizenz
lk
lkau
lke
lken
lker
lkerbund
lkersen
lkerung
lkw
ll
llano
lle
llen
ller
llerdom
llere
lleren
llerich
llern
llernhuus
llers
llewelyn
llig
llige
lling
llmann
lln
llner
lloyd
llste
llsten
llt
lm
lmehr
lms
ln
lner
lo
lob
local
loch
lock
locke
locker
lockhart
lockheed
lockt
lockwood
lodge
lodi
loeb
logan
loge
logik
logiker
logis
logistik
logo
loh
lohbargen
lohmann
lohmo
lohn
lohner
lohnt
lohse
loir
loire
loiret
lois
lokal
lokale
lokalen
loki
lola
lolland
lombard
lombardei
lombardi
london
londoner
lone
long
longrightarrow
lonnie
loodkup
loof
loog
look
lookout
loomis
loomst
loonborg
loop
loopbahn
loopen
loopka
loopt
looptiet
loos
loov
loovt
lopen
lopes
lopez
lord
loren
lorenz
lorenzo
loriot
lorne
lorraine
los
lose
losgahn
losgeiht
losgu
lossow
lost
lot
lothar
lothringen
lotte
lotto
lou
louis
louisa
louise
louisiana
louisville
loup
louvre
love
lovell
low
lowe
lowell
lower
lowndes
lox
loy
loyola
lozano
loze
lp
lpe
lpen
lpnagel
lps
lpsarbeider
lpt
lpvo
ls
lsbarg
lsch
lsche
lschen
lscher
lsdo
lsen
lst
lt
ltall
ltd
lte
lten
lter
ltig
ltige
ltigen
ltnis
ltnisse
ltnissen
ltpunkt
lu
lublin
luc
luca
lucas
lucca
lucht
luchterhand
luci
lucia
luciano
lucie
lucien
lucius
luck
lucke
lucky
lucy
lude
luden
ludendorff
luder
ludewig
ludger
ludium
ludlow
ludolf
ludolph
ludvig
ludwig
ludwigs
ludwigshafen
ludwigslust
luft
luftangreep
luftbild
luftdruck
luftfuchtigkeit
luftopnahmen
luftschipp
luftstrietkra
luftstroom
luftwaffe
luftwapen
luftwappen
luh
luhdo
luhmo
luhn
lui
luigi
luis
luisa
luise
luiz
luka
lukas
luke
lully
lumen
luna
lund
lune
lung
lungen
lungenentzu
lunke
lunsen
lust
lustig
lustige
lustspiel
luth
luther
lutherisch
luthersch
luthersche
lutherschen
lutten
lutz
luud
luun
luunst
luut
lux
luxembo
luxemborg
luxemborgsch
luxemborgschen
luxemburg
luzern
lv
lvarez
lvaro
lve
lven
lver
lvermedaille
lvern
lverne
lvig
lvige
lvigen
lvs
lvst
lvsta
lvstmoord
lvststa
lvstverlag
lvstversta
lvsverlag
lwv
ly
lydia
lyell
lyle
lymphozyten
lynch
lyndon
lynn
lynx
lyon
lyrik
lyriker
lyrikerin
lz
lzel
lzen
lzer
m
ma
maack
maak
maaken
maakt
maakte
maal
maalt
maand
maandag
maande
maanden
maandkrater
maar
maarten
maas
maastricht
maat
maateenheit
maateenheiten
maatgevend
maatnahmen
mabel
mac
macal
macarthur
macaulay
macdonald
macfarlane
macgregor
mach
machen
machine
macht
machtgriepen
machto
mack
mackay
macke
mackenzie
macker
mackers
mackinnon
mackintosh
maclean
macleod
macmillan
macnee
macon
mad
madagaskar
madame
made
madeira
madeleine
madigan
madison
madonna
madre
madrid
madsen
mafia
mafioso
mag
magazin
magazine
magda
magdalena
magdalene
magee
magellan
magen
maggie
magic
magister
magma
magne
magnesium
magnetfeld
magnetospha
magnificent
magnitude
magnus
maher
mahlen
mahler
mahlt
mahndo
mahnke
mai
maier
maik
maika
maike
mail
mailand
main
maine
mainstream
mainz
mainzer
maio
mair
maire
mairie
mairien
mais
maja
major
make
makedonien
maken
making
makt
mal
malaria
malawi
malaysia
malcolm
male
malen
malentschenko
maler
maleree
malerei
malerin
malers
malerschool
mali
mallet
mallorca
malmo
malo
malone
maloney
mals
malst
malt
malta
malte
malts
malus
man
mana
management
manager
managerin
manatee
mance
manche
manchester
manchmol
mandaat
mandan
mandat
mandaten
mandela
mandl
manet
manets
manfred
mang
mangan
mangel
mango
manhattan
manifest
manila
manitoba
mank
manley
mann
manne
mannheim
mannheimer
manning
mannlu
manns
mannschaft
mannschap
mannschapen
mannschapseuropameesterschapen
mannschapstietfohren
mannschop
mannschoppen
mannslu
mano
manoir
manor
mansfeld
mansfield
mansijsk
mantel
mantua
manual
manuel
manuela
manufacturing
manuskript
many
mao
map
mar
mara
maramures
marathon
marathonlo
marborg
marburg
marc
marcel
marcello
marcelo
march
marchand
marco
marconi
marcos
marcus
mare
marek
maren
margaret
margareta
margarete
margaretha
margarethe
margarethen
margarita
margot
margret
marguerite
mari
maria
marian
marianne
mariano
maribo
marie
marien
marienkark
marietta
marija
marilyn
marin
marina
marine
mariner
marino
marinus
mario
marion
maritime
maritimes
marius
marjorie
mark
markant
markanten
marke
markeert
marken
markennaam
markenteken
market
marketing
markgraaf
markham
markmalen
markmol
markmolen
marko
marks
markt
marktgemeen
marktplatz
markus
marlene
marley
marlies
marlon
marmeling
marmsdo
marn
marne
marokko
marot
marple
marquardt
marquess
marquis
marr
mars
marsalis
marsch
marschalck
marschall
marscheert
marsden
marseille
marsh
marshal
marshall
marskrater
marston
marta
marte
martell
marten
martens
martha
marti
martial
martin
martina
martinelli
martinez
martini
martinique
martino
martins
martinskark
marty
marvin
marx
marxen
mary
maryland
mas
masch
maschen
maschien
maschinen
maschinenboinscheno
maschinenfabrik
mash
masikota
maske
masken
maskenbillner
maskulin
mason
masowien
mass
massachusetts
massaker
masse
massen
massenstart
massenstartrennen
massimo
massiv
mast
master
masters
masuren
match
mate
maten
mateo
mateos
material
materialen
materialien
materie
mathbb
mathemaatsch
mathemaatsche
mathematik
mathematiker
mathematikerin
mathematisch
mathematische
mather
matheson
mathias
mathieu
mathilde
mathis
mathrm
mati
matisse
matit
mato
matrix
matt
matteo
matter
mattfeld
mattha
matthes
matthew
matthias
matthies
matti
mattingly
mau
mauch
maud
mauer
maureen
mauren
maurer
mauretanien
mauri
maurice
mauricio
maurismaur
mauritius
mauro
maury
maus
mausoleum
mawson
max
maxim
maximal
maxime
maximilian
maximilians
maximum
maximus
maxwell
may
maya
mayas
mayenne
mayer
maynard
mayo
mayor
mayr
mayrhofer
mays
mb
mbillner
mbillnerin
mbo
mboot
mborg
mborger
mbovit
mbringen
mbro
mbrocht
mbu
mc
mcarthur
mcbride
mccain
mccarthy
mccartney
mcclelland
mcclure
mcconnell
mccoy
mcdonald
mcfadden
mcfarland
mcfarlane
mcgee
mcghee
mcgill
mcgovern
mcgrath
mcgregor
mcintosh
mcintyre
mckay
mckee
mckenna
mckenzie
mckinley
mclane
mclean
mcleod
mcmahon
mcmillan
mcmurdo
mcnair
mcnamara
mcpartland
mcpherson
mcqueen
mcrae
md
mdat
mde
mden
mdsprakig
mdwo
me
meade
meadows
mechaansch
mechaansche
mechanik
mechaniker
mechanisch
mechanismen
mechanismus
mechthild
meckelnborg
meckels
meckelst
mecklenburg
med
medaille
medaillen
medal
medalljo
medeloller
media
medical
medici
medicine
medien
medienmanager
medienwetenschopper
medikamenten
medina
medium
medizin
mediziner
medizinerin
medizinhistoriker
medizinisch
medizinische
medizinischen
medizinsche
medizinstudium
meen
meenen
meent
meenung
meer
meere
meeschfatt
meest
meeste
meesten
meestens
meester
meesterin
meesters
meesterschap
meesterschapen
meesterschoppen
meestertitel
meet
meetarbeiden
meeten
meeting
megan
meh
mehdo
mehedint
mehl
mehm
mehnert
mehr
mehrere
mehreren
mehrfach
mehrfack
mehrfak
mehrheit
mehrkamp
mehrmals
mehrmols
mehrst
mehrsten
mehrstendeels
mehrsttiets
mehrtall
meideborg
meideborger
meier
meijer
meilsen
mein
meine
meinel
meinem
meinen
meiner
meiners
meines
meinst
meisner
meist
meiste
meisten
meister
meitner
meißen
meißner
meji
mekelbo
mekelborg
mekelnborg
mel
melanchthon
melanie
melbourne
melcher
melchers
melchior
melchor
meld
meldo
meldung
meldungen
mele
melinda
melissa
melk
melkstraat
melle
mellt
melodie
melodien
melody
melolontha
melville
melvin
member
members
membran
memel
memoiren
memorial
memory
memphis
men
mena
mende
mendel
mendelssohn
mendoza
menen
mengde
mengden
menge
mengen
menke
mennig
mennoniten
mensch
menschen
menschheit
mensing
menstruatschoon
ment
mentor
mentzel
menzel
menzies
meppen
mer
mercedes
mercer
mercia
mercier
merckx
mercosur
mercury
mercy
meredith
merkel
merkur
merrick
merrill
merritt
merrn
mers
merteler
mertens
merton
mertz
mervyn
merz
mes
mesa
mesborg
mescalero
meschacht
mesonen
mesopotamia
mesopotamien
mess
messe
messen
messenger
messengers
messias
messier
messner
mestizen
met
meta
metal
metall
metallen
metallsch
metallsche
metallurg
metaphysik
metcalf
metcalfe
meten
meteorit
meteoriten
meteorologie
meteoroloog
meter
metern
meters
meth
methan
methode
methoden
methodisten
methood
metro
metropolitan
metropolregion
metz
metzendo
metzger
metzler
metzner
meurthe
meuse
mev
mevenst
mex
mexico
mexikaansch
mexikaansche
mexikaanschen
mexiko
meyenborg
meyer
meyerbeer
meyerhoff
meyers
meyn
mez
mezger
mfaat
mfang
mfaten
mfeld
mg
mgahn
mgang
mgangsspraak
mgegend
mgeiht
mgeven
mgm
mi
mia
miami
mich
michael
michaela
michaelis
michaels
michaelskark
michail
michailowitsch
michal
michalski
michel
michelangelo
michele
michelle
michels
michigan
michoaca
mick
mickey
microsoft
mid
midd
midde
middel
middelamerika
middeldo
middeldu
middeleuropa
middelfart
middelfeld
middelfeldspeler
middelfranken
middellannsche
middelma
middelmeer
middelnedderdu
middelo
middeloller
middelozeaanschen
middelpunkt
middels
middelschool
middelsdo
middelste
middelzentrum
midden
midderwielen
middfu
middju
middle
middlere
middleren
middlesex
middleton
middletown
midi
midnight
midway
mie
miegro
miegsu
miel
mielen
mielke
mien
miene
mienenbu
miesbach
miet
mieten
mifflin
mig
miguel
miha
mikael
mike
miklo
mikrobiologie
mikrobioloog
mikronesien
mila
milan
mild
milde
mildred
mile
miles
milford
milieu
milita
military
mill
millard
millbu
miller
millet
milliarden
millimeter
millimeters
million
milliona
millionen
milljonen
millm
mills
milner
milos
milt
milton
min
minas
mind
mindelo
minden
mindst
mine
mineral
mineralen
mineralien
mineralogie
mineraloog
minerva
ming
mingus
mini
miniatur
minimum
minireeg
minister
ministeriaalbeamten
ministerien
ministerium
ministerpra
ministers
minn
minna
minne
minneapolis
minnen
minner
minnerheit
minnerheiten
minnern
minnert
minneseeren
minneseert
minnesota
minor
minsch
minschen
minschenapen
minschenleven
minschenrechte
minschenrechten
minschenrechtsaktivist
minschheit
minschlich
minschliche
minschlichen
minsk
minsken
minst
minu
minuten
minuut
minuuten
mio
mioza
mir
mira
miranda
miriam
mirko
miro
miroslav
misch
mische
mischen
mischt
mischung
miss
missa
misschoon
misselwarden
mission
missionar
missionen
missionsspezialist
missionsspezialisten
mississippi
missouri
mister
mit
mitarbeider
mitarbeiders
mitarbeit
mitarbeiter
mitarbeiters
mitbegru
mitbro
mitbrocht
mitch
mitchell
mitdeelt
miteens
mitenanner
mitfu
mitglieder
mitgru
mitkregen
mitmaakt
mitmaken
mitnahmen
mitnanner
mitochondern
mitspeelt
mitspelen
mitt
mittag
mitte
mitteilungen
mittel
mittelalter
mittelalters
mitteleuropas
mittelskark
mittelsnohn
mittlere
mittleren
mittlerwiel
mitu
mitwarken
mitwarkt
mix
mixed
mixtape
mizuki
mk
mkamen
mkehrt
ml
mlich
mliche
mlo
mloop
mloopbahn
mloopbahnen
mlooptiet
mlpd
mm
mme
mmel
mmen
mmer
mmerer
mmerhoff
mmern
mmers
mmerspelen
mmert
mmingen
mms
mmt
mmte
mmten
mno
mo
mobile
mode
model
modell
modelle
modellen
models
moder
moderater
moderator
moderatorin
modereert
modern
moderne
modernen
moderner
modersohn
moderspraak
modervader
modifikatschonen
modifikatschoon
modul
moe
moglobin
mohamed
mohammed
mohawk
moho
mohr
moi
moin
moires
moken
mokt
mol
moldau
moldawien
mole
molecular
moleku
molekularbioloog
molekulare
molen
moler
molie
molina
moll
molly
molna
molt
molteree
moltke
momang
moment
mon
mona
monaco
monarchie
monarkie
mond
monde
monet
money
mongolei
monica
monika
monk
monkey
monks
monod
monographien
monroe
mons
monster
mont
montagne
montague
montan
montana
montclos
monte
monteiro
montenegro
monterey
montero
monteverdi
montevideo
montfort
montgomery
montigny
montreal
monty
monument
mood
moody
mookt
mool
moon
mooney
moor
moorborg
moord
moordo
moore
moorenn
moorexpress
moorhusen
mooringen
moorkolonie
moorliek
moorvaagdie
moot
mopan
mora
moral
morales
moran
morave
moravec
moray
moraza
morbihan
mord
more
moreau
morelos
moreno
moretti
morey
morgan
morgen
morgens
morgenstern
morisot
moritz
morley
morlock
morning
moro
morphologie
morphy
morris
morrison
morrow
morsen
morten
morton
mosaik
mosambik
moschee
mose
mosel
moseley
moselle
moser
moses
moskau
moskauer
moslems
mosler
moss
most
mostaas
mot
mother
motian
motion
motiv
motive
motiven
motor
motorrad
motorradrennfohrer
motors
mott
motte
motten
motto
moulin
moulton
mound
mount
mountain
mountains
mouse
mouth
movement
movie
movies
mower
moya
moyer
mozart
mp
mpe
mpel
mpen
mper
mpfe
mpfen
mpfer
mpferin
mpt
mr
mrd
mrebeed
mreken
mrs
ms
msatz
msch
msche
mschen
msen
msett
msetten
mso
msta
mstand
mstellt
mstreden
mt
mtagen
mtdictionary
mte
mten
mter
mtlich
mtliche
mto
mtobringen
mtogen
mtosetten
mtv
mu
mubarak
much
mudder
mudders
mudderspraak
mueller
muer
muern
muggen
muhammad
mulberry
mulder
mull
mullen
mulligan
mullins
mulmshoorn
mulsen
multiple
mun
mund
mundart
mundarten
mundell
mundo
mundstu
mundwarktu
munici
municipio
municipios
munitschoon
munro
munsee
munste
munster
munteanu
munthe
munzinger
murad
murder
mures
murillo
murmansk
murphy
murray
mus
musa
musculus
muse
museen
musen
museo
museum
museums
museumsbaas
museumsdirekter
music
musical
musicaldorsteller
musik
musikaalsch
musikaalsche
musikaalschen
musikalbum
musikalisch
musikalische
musikalischen
musikdirekter
musiker
musikerin
musikern
musikers
musikfilm
musikgrupp
musikinstrumenten
musikjournalist
musikkritiker
musiklehrer
musikoloog
musikpa
musikproduzent
musikschriever
musikstil
musikstu
musiktheoretiker
musikverlag
musikverleger
musikwetenschopper
musikwetenschopperin
musil
musique
muskanten
muskeln
muskogee
muskulatur
muslimen
muss
musseln
mussen
mussolini
musst
must
mustafa
muster
mut
mutiny
mutt
mutter
muus
muß
mv
mw
mwanneln
mwannelt
mwelt
mweltschu
my
myanmar
myers
mykoloog
myon
myrtle
mystery
mythen
mythologie
mythos
mærsk
møller
møre
n
na
naam
naamen
naamgever
naamhafte
naams
naamt
naberspraken
nableven
nach
nachrichten
nacht
nachts
nacional
nacken
nad
nadeel
nadem
nadia
nadine
nadja
nafolgen
nafolgend
nafolger
nafolgers
nafraag
nagano
nagel
nah
nahbers
nahdem
nahderhen
nahderhenn
nahdruck
nahe
naher
nahfolge
nahfolgen
nahfolgend
nahfolger
nahkommen
nahkriegstiet
nahmen
nahnanner
nahricht
nahrichten
nahroop
nahst
nahwies
nahwiesen
nahwiest
nairobi
nakamen
nakeken
nakelte
nakieksel
naklapp
nalaten
naleest
nam
namaakt
name
namen
namens
names
namibia
namiddags
nancy
nanner
nansen
nao
napier
napole
napoleon
naranjo
narbn
narciso
nargens
naricht
narichten
narichtenspreker
narms
naroop
naru
narvik
nasa
nash
nashville
nassau
nast
nat
natal
natalie
natalja
nate
nathalie
nathan
nathaniel
nation
national
nationalbibliothek
nationalbu
nationale
nationalsozialismus
nationen
nations
native
nato
natowiesen
natrium
natriumchlorid
natschonaalpark
natschonaalversammlung
natschonal
natschonalbo
natschonale
natschonalen
natschonalfierdag
natschonalflagg
natschonalhymne
natschonalliberale
natschonalmannschap
natschonalmannschop
natschonalpark
natschonalsozialismus
natschonalsozialisten
natschonalsozialistisch
natschonalsozialistische
natschonalsozialistischen
natschonalspeler
natschonaltrainer
natschonalversammlung
natschonen
natschoon
natt
natu
natur
natural
naturbahnrodler
naturbuch
nature
naturforscher
naturpark
naturschu
naturschutz
naturschuul
naturschuulrebeed
naturwetenschoppen
naturwetenschopper
natuur
nau
naue
nauen
nauer
nauigkeit
naumann
navajo
naval
navarra
navarro
naver
navergemenen
navero
navers
navigatschoonsliest
navra
navy
nawahl
nawies
nawiesen
nawiest
nazareth
nazi
nazis
nbc
nberg
nbeudel
nborg
nbr
nchen
nchener
nchengladbach
nchez
nchhausen
nchmeyer
nchner
nd
ndb
nde
ndel
ndels
nden
nder
ndern
ndert
nderung
nderungen
ndeten
ndez
ndig
ndige
ndigen
ndigkeit
ndigung
ndin
ndisch
ndische
ndischen
ndler
ndlerin
ndlich
ndliche
ndlichen
ndnis
ndnisse
ndorf
ndr
nds
ndsch
ndschop
ndt
ndung
ne
nea
neal
neamt
neander
neanderdaler
neapel
near
nebeck
nebel
neben
nebenbi
nebraska
nebst
neburg
neckar
necke
ned
nedderbayern
nedderdu
nedderelv
nedderelvbahn
nedderenn
nedderla
nedderlaag
nedderlagen
nedderlandsch
nedderlandsche
nedderlandschen
nedderlannen
nedderlannsch
nedderlannsche
nedderlannschen
nedderrhien
neddersassen
neddersassenhuus
neddersassisch
neddersassische
neddersassischen
nedderschlesien
neddersla
nedderslag
nedderstreek
nedderwerserbahn
nederland
nederlandse
nedersaksisch
nee
neebau
neebo
neebruunswiek
needorsteller
neefeld
neefundland
neeg
neegd
neegen
neegraven
neegste
neegsten
neegt
neeguinea
neehoff
neehuus
neejohr
neekark
neeklooster
neeland
neelannermoor
neem
neemlich
neemo
neen
neenborg
neendamm
neendiek
neenfeld
neenhusen
neenkarken
neenkerken
neenkroog
neenlann
neenlannermoor
neenslu
neer
neernabargen
nees
neeschottland
neeseela
neeseeland
neeseelandsche
neeseelandschen
neespanien
neestadt
neet
neetiet
neetral
neetz
neeuplaag
neeutgaav
neff
neffe
neffen
negativ
negative
negen
negente
negenten
neger
negri
negro
neher
nehm
nehmen
nehmt
nehren
nehrmiddel
nehrstoffen
nehrt
neiht
neil
neiße
nelson
nemann
nemark
nemo
nen
nengraff
nennen
nennt
nenr
neo
neogen
neon
nepal
nepomuk
neptun
neptune
neptunium
ner
neren
nero
nerven
nervensystem
nervus
nerz
nes
ness
nest
nester
net
nett
netten
nettflunken
nettwark
network
netzer
neu
neuber
neue
neuen
neuer
neues
neugebauer
neuhaus
neuimin
neukirch
neukirchen
neuland
neumann
neumarkt
neumayer
neuner
neunkirchen
neureuther
neurobioloog
neurologie
neuroloog
neuroloogsche
neurowetenschopper
neuss
neustadt
neustrien
neutral
neutrale
neutralita
neutrino
neutrinos
neutron
neutronen
neuville
neuwied
neuwirth
neuzeit
nevada
nevel
neven
nevendorsteller
nevendorstellerin
nevendorstellersche
nevenklo
nevenrull
nevenrullen
nevenwirken
never
neville
nevis
new
newark
newcastle
newell
newman
newport
news
newton
next
nez
nf
nfeld
nfte
nftig
nftige
ng
ngc
ngde
nge
ngel
ngen
nger
ngere
ngeren
ngerer
ngerin
ngern
ngers
ngert
ngerung
ngig
ngige
ngigen
ngigkeit
ngigkeitskrieg
ngjang
nglich
ngliche
nglichen
ngnis
ngs
ngst
ngste
ngsten
ngt
nh
nheit
nhuber
nhusen
ni
nia
nic
nica
nicaragua
niccolo
nice
nich
nicholas
nicholls
nichols
nicholson
nicht
nichte
nichts
nick
nickel
nico
nicola
nicolai
nicolas
nicolaus
nicole
nie
niederdeutsch
niederdeutsche
niederdeutschen
niederdeutsches
niederelbe
niedero
niedersa
niedersachsen
nieg
niege
niegen
niegseeland
niels
nielsen
niemals
niemann
niemeyer
niemo
niemu
nien
nienborg
niendo
nienich
niestadt
nietzsche
niewohl
nig
nige
nigel
nigen
niger
nigeria
night
nights
nigin
niglich
nigliche
niglichen
nigreich
nigriek
nigrieken
nigs
nigsbarg
nigshoff
nigshuus
nigslutter
nigsmarck
nigsmoor
nik
niklas
nikola
nikolai
nikolajew
nikolajewitsch
nikolaus
nikolic
nil
nils
nilsson
nimmt
nimo
nimoy
nimrod
nimzowitsch
nin
nina
nincop
nindo
nine
ning
ningh
ninndo
nino
nio
nip
nipp
nis
nisch
nissen
nita
nitsche
nitz
niveau
nix
nixon
nizza
nj
njeshusen
nk
nkarken
nke
nken
nker
nko
nksche
nkt
nl
nland
nlandschen
nlich
nliche
nlichen
nlichkeit
nlichkeiten
nlp
nm
nmark
nn
nnavend
nnd
nndag
nndu
nne
nnen
nnenku
nner
nnerbraken
nnerbreeken
nnerbreken
nnerbro
nnerbrocht
nnerbroken
nnerdeelt
nnerdelen
nnerdoma
nnerdru
nnere
nnerelv
nneren
nnerenanner
nnerfranken
nnergahn
nnergang
nnergrund
nnerhalv
nnerheit
nnerheiten
nnerhollen
nnerholt
nnerhuus
nnericht
nnerin
nnerkamen
nnerkregen
nnerlagen
nnerleegen
nnerlich
nnerliche
nnerlichen
nnern
nnernehm
nnernehmen
nnernehmens
nnernehmensberader
nnernehmensgrupp
nnernehmer
nnernehmerin
nnernommen
nnerpries
nnerricht
nnerrichten
nners
nnerscheden
nnerscheed
nnerscheeden
nnerscheedlich
nnerscheedliche
nnerscheedlichen
nnerscheedt
nnerscheidlik
nnerschreeven
nnerschreven
nnerschrieven
nnerschrift
nnerseggt
nnersett
nnersiet
nnerso
nnersocht
nnerspeel
nnerspelen
nnerst
nnersta
nnerste
nnerstellt
nnersto
nnerstu
nnert
nnerte
nnertekent
nnerwegens
nnerwelt
nnhusen
nnich
nnichkeit
nnies
nnig
nnige
nnigen
nniger
nnigkeit
nnigt
nnlich
nnliche
nnlichen
nnlicht
nnmassen
nnsch
nnsche
nnschen
nnsystem
nnt
nntamtliches
nnte
nnten
nnwind
no
noah
nobel
nobelpreis
nobelpries
nobelpriesdra
nobelpriesen
nobelprize
noble
noch
nochmal
nochmals
nochmol
noe
noel
noh
noir
nolte
nombre
nomen
nomenklatur
nomineeren
nomineert
nomineerte
nommen
non
noog
noord
noordafrika
noordamerika
noordamerikaansche
noordamerikaanschen
noorddu
noordeirschen
noorden
noordenn
noorderenn
noordeuropa
noordfreesch
noordfreesland
noordfu
noordholt
noordirland
noordkeden
noordkorea
noordku
noordo
noordoost
noordoosten
noordosten
noordpool
noordrand
noordrhien
noordschen
noordsee
noordseeku
noordsied
noordsood
noordwest
noordwesten
noordwestlich
noordwestmekelborg
noorweegsch
noorweegsche
noorweegschen
noorwegen
noorwegsch
noot
nor
nora
norbert
nord
nordafrika
nordahn
nordamerika
norddu
norden
nordenham
norderstedt
nordflo
nordhausen
nordischen
nordland
nordosten
nordrhein
nordrhien
nordsee
nordwand
nordwest
nordwesten
nordwestlich
norfolk
norm
norma
normaal
normal
normalbedingen
normaldruck
normale
normalen
normalerwies
normalfall
norman
normandie
normannen
normen
normolerwiese
norrbotten
norris
norte
north
northampton
northern
northrop
northumberland
northumbria
northwest
norton
norvo
norweegsch
norweegsche
norweegschen
norwegen
norweger
nos
not
notar
note
noteert
noten
notes
notiz
notizen
notorious
notre
nottensdo
nottingham
notwennig
nov
nova
novalis
nove
novelle
novellen
november
novo
novotny
now
nowak
nowgorod
np
npd
nr
nrw
ns
nsch
nsche
nschen
nscht
nsdap
nse
nst
nste
nsten
nster
nsterla
nsterland
nstig
nstler
nstlerin
nstlerisch
nstlerische
nstlerischen
nstlernaam
nstlers
nstlich
nstliche
nstlichen
nsto
nt
nte
nten
nter
ntgen
ntgenstrahlen
nther
ntida
ntjes
nto
ntsc
ntsied
ntu
nu
nuclear
nueva
nuevo
nuklid
null
nullpunkt
number
numismatiker
nummer
nummern
numms
nun
nunatak
nunatakker
nunavut
nung
nur
nuremberg
nutied
nutiet
nutzen
nuurten
ny
nyborg
nymph
nymphe
nymphen
nynorsk
nytimes
nz
nze
nzen
nzer
nzt
nzz
nørre
o
oak
oakland
oakley
oaks
oara
oates
oaveriessel
oaxaca
ob
obama
obbens
oben
ober
oberallga
oberamtmann
oberbergschen
obergericht
oberhausen
oberhof
oberhofer
oberlandsgericht
oberliga
oberndorf
obero
oberon
oberpfalz
obers
oberschool
oberst
oberstleutnant
obie
objekt
objekte
objekten
oblast
oboe
oboenspeler
obrego
observatorium
observatory
obsidian
ocampo
ocean
oceanic
och
ochenhusen
ochlerotatus
ochoa
ock
octave
octavian
october
octopus
oddingen
ode
odell
odense
oder
odersen
odessa
odeweg
odoaker
odore
odyssee
oe
oertzen
oeste
of
ofb
off
offenbach
offensive
offenwarden
office
officer
official
offizeer
offiziell
offizielle
offiziellen
offizier
offiziere
offshore
offzeer
ofschons
ofschoons
ofschoonst
oft
og
ogden
ogen
ogenblick
ogendokter
ogg
oglala
oh
ohb
ohio
ohlendo
ohlendorf
ohlenst
ohlers
ohm
ohn
ohne
ohnsorg
ohr
ohrel
ohren
ohrens
ohrensmoor
ohrenswohl
ohrsen
oi
oilsto
ois
oise
ojc
ok
oklahoma
okres
oktober
ol
ola
olaf
olanchito
olancho
olav
olbers
olbricht
old
olde
olden
oldenbourg
oldenburg
oldenburger
oldfield
ole
oleg
olen
olenbrook
olenbu
olendiek
olendo
olenwoold
olga
olimpbase
olive
oliveira
oliver
olivia
olivier
oll
olle
ollen
ollenborger
ollendo
oller
ollern
ollnbo
ollnborg
ollnborger
ollste
olms
olndo
olof
ologen
ologie
ologin
ologisch
ologische
oloog
oloogsche
olpe
olsen
olt
oltmanns
oltstadt
olympia
olympiadeelnehmer
olympiasieger
olympiasiegerin
olympic
olympisch
olympische
olympischen
olympsche
olympschen
olympus
om
omaha
oman
omar
omega
omer
omloop
omoa
on
once
ondr
one
ones
onkel
online
onlineprojekt
only
onno
ono
ons
onslow
ontario
ontologie
ontoloog
oog
oogen
ook
ool
oold
ooldfreesch
ooldgr
ooldhistoriker
ooldkeden
ooldklooster
ooldphiloloog
ooldsassische
ooldstadt
ooldwist
oolland
oollanner
oolluunbarg
oolstadt
oolt
ooltgreeksch
ooltgreeksche
ooltstadt
oolwarder
oor
oord
oordeel
oorden
oorknall
oorkundlich
oorkunn
oorkunnen
oorntlich
ooropfo
oorsaak
oorsaken
oorspru
oorsprung
oorssen
oort
oorten
oortsbo
oortschap
oortschapen
oortschop
oortschoppen
oortsdeel
oortsdeelen
oortsdelen
oortskarn
oortsnaam
oortsnaams
oortsraad
oortsschild
oortsschiller
oortsvo
oorupfu
oorwoold
oost
oostafrika
oostantarktika
oostbru
oostdu
oosten
oostendo
oostenn
ooster
oosterbrook
oostereis
oosterenn
oosterholt
oosterholter
oostern
oosterndo
oostersood
oosterstood
oostertimk
oostervees
oosterwannen
oosterweed
oosteuropa
oostfr
oostfreesch
oostfreesche
oostfreeschen
oostfreeske
oostfreesland
oostfresen
oostfront
oostgo
oostholsteen
oostku
oostpreußen
oostpru
oostrand
oostro
oostsee
oostsied
oosttimor
oostvaagdie
op
opa
opbo
opboet
opboot
opbro
opdecken
opdecker
opdeckt
opdeckte
opdeelt
opdrag
opduken
opduukt
ope
open
openanner
oper
opera
operation
operations
operatorname
operatschonen
operatschoon
opereert
operette
opern
opernhuus
opernsa
opfaat
opfallen
opfer
opfo
opfohrt
opfohrten
opfu
opfunnen
opgaav
opgahn
opgaven
opgeven
opgrepen
ophitten
opho
ophollen
ophollt
opkamen
opkla
opko
opl
oplaag
opladen
opletzt
oplo
opmaakt
opnahm
opnahmen
opnehmen
opp
oppeln
oppenheimer
opper
oppermann
oppers
oppland
oppositschoon
oprecht
opricht
opropen
opschreven
opsetters
opsicht
opsichtsraad
opslag
opslahn
opsmo
opsta
opstand
opstaut
opstegen
opsteiht
opstellen
opstellt
opstiegen
opstunns
opteken
optekent
optical
optik
optiker
optisch
optische
optischen
optonehmen
optreckwetenschopper
optreden
optritt
opus
opwa
opwand
opwassen
opwiesen
opwiest
opwossen
opwussen
or
oral
orange
oranien
oranje
oratorien
oratorium
orbit
orbital
orbitalen
orbiter
orchester
orchesterbaas
orchesterwarken
orchestra
ord
ordeel
orden
ordensgeistlichen
ordensgru
ordentlich
order
orders
ordnung
oregon
orf
org
orgaansch
orgaansche
orgaanschen
organ
organe
organellen
organen
organisation
organisatschonen
organisatschoon
organische
organiseeren
organiseert
organismen
organismus
organist
organistin
organization
orgasmus
orgel
orgelbau
orgeln
orgelspeler
orient
oriental
orientales
orientalist
orienteeren
orienteert
orientwetenschopper
orig
origin
original
originaldreihbook
originalgeschicht
originaltitel
orion
orkneyeilannen
orlando
orle
orleans
orlow
orne
ornen
ornette
ornitholoog
oro
orozco
ort
orte
ortega
orthodoxe
orthodoxen
orthopa
orthoptera
ortiz
ortschaften
ortschronisten
ortsteilen
ortsverzeichnis
orville
os
osage
osborne
oscar
oscars
oscarvergaav
osenhorst
oskar
oslo
osmaansch
osmaansche
osmanen
osmium
osnabru
osning
osrblie
ossen
ossenbru
ost
ostallga
oste
osten
oster
ostermann
osterwe
osteuropa
ostfa
ostfriesen
ostfriesische
ostfriesischen
ostfriesland
ostfrieslands
ostgoten
ostpreußen
ostrom
ostsee
oswald
ot
oterndo
other
otis
ott
ottawa
otten
ottenbeek
ottendo
ottens
otter
otterbarg
otterst
ottilie
ottmar
otto
ou
ouen
our
out
ouvertu
ov
ova
oval
over
overbeck
overeen
overhen
overnahmen
oversett
oversetten
overton
owen
owens
own
ox
oxford
oxfordshire
oxid
oxidatschoon
oxidatschoonsmiddel
oxidatschoonsstoop
oxidatschoonsstopen
oxidatschoonstall
oxideert
oxiden
oz
ozeaansche
ozean
ozeanen
ozeanograaf
ozon
p
pa
paane
paapst
paar
paare
paart
paarung
paavst
pablo
pac
pacheco
pacific
padd
paddy
paderborn
padilla
padingbu
padua
paganini
page
pagenstecher
pages
paget
paigc
paige
pakistan
pakt
pal
pala
palace
palacio
palacios
palais
palast
palazzo
palermo
palin
palisa
palladium
pallas
palm
palma
palmare
palmer
palmerland
palo
palz
pamela
pan
panama
panamax
panik
pankratius
panne
panorama
pantheon
panzer
paolo
papa
pape
papeer
papeeren
papen
paper
papers
papier
pappenheim
papst
papua
par
para
parade
paradies
paradise
paraguay
paraguayschen
parai
parallel
parameter
parameters
paramount
parana
parasiten
parchen
pardo
paredes
parey
paris
pariser
parish
parisi
park
parker
parkinson
parks
parlament
parlamentaarsche
parlamentarier
parlamenten
parlamentswahl
parlamentswahlen
parma
parnell
parodie
parra
parrns
pars
parsons
part
partei
parteibaas
parteidag
parteien
parteifunkschona
partein
parteivo
partement
partenkirchen
parthers
partial
particle
partido
partie
partien
partikels
partisanen
partner
partners
partnerschop
partnerschoppen
partnersta
partnerstadt
party
pas
pasadena
pascal
pascha
pass
passage
passageerschipp
passau
passeer
passeeren
passeern
passeert
passen
passert
passion
passiv
passt
paster
pasteur
pastoor
pastoorn
pastor
pastoren
pat
pate
patent
pater
paterson
patholoog
patient
patienten
patmos
paton
patriarch
patrice
patricia
patrick
patrimonialgericht
patriot
patt
patten
patterbuorn
patterbuorner
patterson
patti
patton
patty
pauer
paul
paula
pauli
pauline
paulo
pauls
paulsen
paulus
pauly
paus
pavel
pavillon
pavlovic
pawel
pawlowitsch
pawnee
payne
paz
pazifik
pb
pd
pdf
pe
peace
peacock
peak
peaks
pearce
pearl
pearson
pech
pechstein
peck
pedal
peden
pedersen
pedra
pedro
pee
peebles
peel
peer
peerd
peerko
peeters
pegel
peggy
pehmworth
peiffer
peine
peking
pel
pelham
pelle
pellegrini
peloponnes
pembroke
pen
penelope
penguin
penis
penn
penner
pennig
pennigbu
pennington
pennsylvania
penny
penrose
pensacola
pension
people
pepper
per
peralta
percival
percy
perdomo
pereira
peres
perfect
perfekt
perfesser
perfessers
performance
perho
perihel
perin
period
perioden
periodensystem
periood
perkins
perkussionist
perl
perm
pero
perrin
perry
pers
perserriek
persers
perseus
persien
persisch
persischen
perso
person
personal
personalities
personalunion
personen
personenlexikon
personennaamdatei
personenverkehr
persoon
perspektive
perspektiven
perth
perthes
peru
peruaansch
peruaansche
peruaanschen
perzent
perzess
peschel
peschke
pest
pet
petar
pete
peter
peters
petersborg
petersburg
petersen
peterson
petit
petite
petkovic
petr
petra
petri
petrosjan
petrovic
petrowitsch
petrus
petter
pettiford
petzold
pez
pf
pfalz
pfeiffer
pfeil
pfer
pflug
pfner
pforzheim
pforzheimer
pfung
pg
pgpa
ph
pha
phaas
phane
pharao
pharmakologie
pharmakoloog
pharmazeut
pharmazie
phase
phasen
phd
phelps
phi
phil
philadelphia
philanthroop
philanthropin
philharmonic
philibert
philip
philipp
philippe
philippiensche
philippienschen
philippinen
philipps
philippus
philips
phillip
phillips
philologie
philologin
philoloog
philosofin
philosoof
philosoph
philosophen
philosophical
philosophie
philosophisch
philosophische
philosophischen
philosophy
pho
phobos
phoenix
phonetik
phosphor
photon
photonen
php
phyllis
phylogeny
phys
physical
physics
physik
physikaalsch
physikaalsche
physikaalschen
physikalisch
physikalische
physikalsch
physiker
physikerin
physikochemiker
physiologie
physioloog
pi
pia
piaf
pianist
pianisten
pianistin
piano
piazza
picard
picasso
picassos
pichler
pickering
pickert
pickstock
pico
picture
pictures
pie
piekałkiewicz
piel
pieldintenfische
pielen
pielliek
pielsteert
piemont
pien
piep
piepen
pier
pierce
piero
pierre
piet
pieter
pietro
pietsch
pietzmoor
pig
pige
pigment
pike
pilatus
piloot
pilot
piloten
pimage
pimentel
pin
pine
ping
pingsten
pinheiro
pink
pinnbarg
pint
pinter
pio
pioneer
pionier
piotr
pipe
pipeline
piper
pippens
pippin
piraten
piratenpartei
pires
pisa
pistool
pitt
pitts
pittsburgh
pius
pizarro
pjo
pjotr
pke
pkw
pl
pla
plaan
plaans
plaant
plaante
plaanten
plaaster
plaat
place
placencia
placid
plack
placken
plains
plan
planck
planen
planet
planetary
planeten
plank
plankton
plant
plantaaschen
plantagen
plantagenet
planten
plantennaams
planung
plasma
plastiden
plastik
plastisch
plata
plate
plateau
platen
platentektonik
platin
plato
platon
platt
plattdeutsch
plattdeutsche
plattdeutschen
plattdeutsches
plattdu
plattduitske
plattduitsken
platte
platten
plattenfirma
plattenupnahmen
plattform
plattwo
platz
platzeeren
platzen
plautdietsch
play
playa
playboy
player
playing
plays
plaza
pleasant
please
pleeg
pleegt
plegen
pleistoza
plejaden
plicht
plichten
plichtfu
plioza
plo
ploog
plu
plummer
plunkett
plural
plus
pluto
plutonium
plymouth
pm
pmid
png
po
podest
podestplatz
podium
podiumsplatzeeren
poe
poesie
poet
poggensto
poggmo
pogue
pohl
pohle
pohlmann
point
poire
pokal
pokalsieger
pokalwinner
pokerspeler
pokljuka
pol
polar
polare
polarforscher
pole
polen
police
policy
polidori
polietsch
polietsche
polietschen
polillo
political
politics
politik
politiker
politikerin
politikers
politikersche
politikwetenschopper
politikwetenschopperin
politisch
politische
politischen
politischer
politoloog
polizei
polizeibeamten
polizeipra
polizist
polizisten
polk
poll
pollack
pollard
pollen
pollock
polonium
polydor
pommern
pommersche
pomona
pompeius
pond
pons
pont
pontiac
pontifikat
pool
poolbillardspeler
poolsch
poolsche
poolschen
poor
pop
pope
popescu
popmusik
popowitsch
popp
poppe
poppen
poppenspeler
popper
popula
popular
popularita
population
populatschonen
populatschoon
por
porcellio
poren
pornodorsteller
pornodorstellerin
poro
port
porta
portage
portal
porten
porter
porto
portra
portrait
portsmouth
portugal
portugeesch
portugeesche
portugeeschen
porvenir
porzellan
pos
posaunspeler
posch
poseidon
posen
position
positiv
positive
positiven
positron
positschonen
positschoon
post
postdo
posten
posterior
posthum
posthusen
postum
potential
potosi
potsdam
pott
potter
poul
poulsen
pour
powell
power
powers
powiat
pozzi
pp
ppe
ppel
ppelkonkurrenz
ppelt
ppeltitel
ppen
pper
ppers
ppig
ppm
ppner
ppt
ppwark
pr
pra
praat
praetorius
prag
prager
prahova
praia
prairie
praktisch
praktische
praktischen
praktizeert
pratt
praxis
pre
precht
preddiger
prediger
predigt
predigten
preester
preesters
preis
premier
premiere
premierminister
prescott
presidency
president
presidential
presidents
presley
presque
press
presse
pressekonferenz
pressemitdeelen
pressen
presst
prestige
preston
prestrud
preuß
preußen
preußisch
preußische
preußischen
previn
preyer
pri
price
pride
pries
priesdra
priesen
priesgeld
priest
priester
priestley
prignitz
prima
primary
primaten
prime
primus
prince
princess
princeton
principles
prins
print
prinz
prinzen
prinzessin
prinzip
prinzipien
prior
prisma
pritchard
privaat
privat
private
privaten
privates
privatleven
privilegien
prix
prize
pro
proben
problem
probleme
problemen
probst
proceedings
prochnow
proctor
production
productions
products
produkschonen
produkschoon
produkschoonsfirma
produkt
produkte
produkten
produktion
produktschonen
produktschoon
produzeer
produzeeren
produzeert
produzeerten
produzent
produzenten
produzentin
prof
professer
professionell
professor
professur
profi
profil
profile
profis
program
programm
programme
programmen
progreso
progressive
progresso
project
projekschoon
projekt
projekte
projekten
prokaryoten
prokop
prolog
prometheus
prominente
promotschoon
promoveert
proov
proovst
proovstie
propaganda
properties
prophet
propheten
proportschonal
proportschoon
propyla
prosa
prosper
protagonist
protagonisten
protein
proteine
proteinen
protektorat
protest
protestanten
protestantismus
protestantsche
protestantschen
proteste
protesten
protokoll
proton
protonen
protour
proven
provence
providence
provinz
provinzen
provinziallanddag
prozent
prozess
prozesse
prozessen
pru
ps
psalm
psalmen
psalter
psen
pseudonym
psi
pste
pstlich
pstliche
pstlichen
psyche
psychiater
psychiatrie
psychisch
psycho
psychoanalytiker
psychoanalytikerin
psychologie
psychologin
psycholoog
psychotherapeut
pt
ptolema
ptolemaios
pu
puberta
public
publications
publiek
publikationen
publikatschonen
publikatschoon
publikum
publishers
publishing
publius
publizeert
publizist
publizistin
puebla
pueblo
puente
puerto
puget
pulaski
pulitzer
pulver
pulvermo
pumpt
pund
punk
punkt
punkte
punkten
punktera
punktewertung
punta
pup
puppen
purcell
pure
purple
putin
putnam
putsch
puunsen
puy
px
pyeongchang
pyongan
pyramid
pyre
pyrena
pyrit
pyrmont
python
q
qua
quad
quadrat
quadratkilometer
qualifikatschoon
qualifizeeren
qualifizeert
qualita
qualitativ
quantenmechanik
quantenphysik
quantum
quark
quarks
quarta
quartet
quartett
quartier
quarz
quasi
quast
quater
quatre
que
quebrada
quechua
quecksu
queen
queens
queensland
quelkhoorn
quelle
quellen
quentin
quere
quest
quez
qui
quick
quickborn
quiet
quinault
quincy
quinn
quintana
quintero
quintet
quintett
quirnheim
quiroga
r
ra
raab
raabe
raad
raadhuus
raadsherr
raakt
raasch
raass
raat
raatgever
raathuus
raatsliddmaten
raaß
rabbiner
rabbit
rabe
raben
race
raceid
rachel
racine
rad
radar
radcliffe
rade
rademacher
raderer
radford
radiation
radikal
radikale
radikalen
radio
radioaktiv
radioaktive
radioaktiven
radioaktivita
radioloog
radiosenner
radium
radius
radon
radrennen
radrennfohrer
radrennfohrerin
radsport
radsportler
radsportlerin
radsportseiten
radweg
radziwill
rae
raf
rafael
raffaele
rag
ragnar
rahden
rahmen
rahmenlos
rahn
rai
railway
raimund
rain
rainbow
rainer
rajon
rakete
raketen
ralf
rallyefohrer
ralph
ramels
rami
ramirez
ramm
ramo
ramon
ramos
ramsay
ramsey
ramus
ramßel
ran
rana
ranch
ranchito
rancho
rand
randall
randolph
random
randy
rang
rangahn
range
rangeiht
ranges
rankamen
ranking
rankings
ranlo
ransom
raoul
rap
raphae
raphael
rapids
rapper
rard
rarzbisdom
ras
rasch
rasmus
rasmussen
rass
rassen
rassentrennung
rassismus
rastafari
rat
ratcliffe
rate
rath
ratifizeert
rau
rauch
rault
raum
raumschiff
rauscher
rautenberg
rave
ravelin
raven
ravenna
ravensberger
ravensburg
ray
raymond
rb
rbara
rbehollen
rbel
rben
rbereit
rbereiten
rbereitung
rbern
rbi
rbiflagen
rbild
rbiller
rbisdom
rblo
rbo
rbook
rbro
rbrocht
rbrook
rca
rch
rchen
rcher
rd
rde
rdeel
rdeenst
rdel
rdem
rden
rdenas
rder
rdere
rderen
rderer
rdergrund
rdern
rders
rdert
rderung
rdig
rdigt
rdigung
rdiktatur
rdlich
rdliche
rdlichen
rdoba
rdra
rdrag
rdragen
rdringen
re
rea
read
reader
reading
reagan
reageer
reageeren
reageert
reakschonen
reakschoon
reakter
reaktschonen
reaktschoon
real
reale
realismus
realistisch
realita
realschool
rebecca
rebeden
rebeed
rebeeden
rebeedsreform
rebeet
rebeetsverband
rebel
rebell
rebellen
reber
rebro
rebsoort
recht
rechte
rechtebe
rechten
rechtenfleth
rechtlich
rechts
rechtshistoriker
rechtswetenschapen
rechtswetenschopper
rechtswetenschopperin
rechttietig
reck
recken
reckt
reclam
reclams
record
recordings
records
red
redakschoon
redakteur
redakto
redaktschoon
redden
reddt
rede
reden
redirects
redschoppen
redukschoon
reduzeert
reed
reeden
reeder
reederee
reedschop
reedschoppen
reef
reeg
reege
reekner
reep
reepen
reerst
rees
reese
reet
reeten
reeves
reeßen
ref
reference
referendar
referendum
referent
reflekschonen
reflekteert
reform
reforma
reformater
reformation
reformator
reformatschoon
reformeert
reformeerte
reformeerten
reformen
regeer
regeeren
regeerenstiet
regeern
regeert
regeerung
regel
regelmaatig
regelmatig
regelmatige
regeln
regelt
regen
regensborg
regensburg
regent
regentied
regenwoold
regeren
regerung
regerungsassesser
regerungsbeamten
regerungsbezirk
regerungspra
regerungsraad
reggae
regie
regierung
regime
regiment
regina
reginald
regio
region
regional
regionale
regionalen
regionalliga
regionen
regions
regisseur
register
registers
registreerten
regula
reguleeren
rehder
rei
reich
reichelt
reichert
reiches
reichs
reid
reido
reihe
reimen
reimer
reimers
reims
rein
reinbek
reindo
reine
reinen
reiner
reiners
reinert
reinhard
reinhardt
reinheit
reinhold
reinigt
reinmuth
reinsa
reis
reisch
reise
reisen
reisetaschenbuch
reisinger
reist
reiter
reitgoos
reith
reitz
reiz
reken
rekent
rekord
rekorde
rekter
rektor
rel
relations
relativ
relative
relativita
relatschoon
relay
release
relief
religio
religion
religionen
religionspa
religionswetenschopper
remake
rembrandt
remember
remis
remnoh
remo
ren
renaissance
renanner
renate
renato
rend
rendsborg
rene
reni
rennen
renner
rennfohrer
rennrodler
rennrodlerin
reno
renoir
renoveert
renreiter
rente
renz
renzi
rep
repertoire
report
reporter
repra
reprint
reptilien
republic
republiek
republiekaners
republik
republikaansch
republikaansche
republikaner
republikaners
requiem
rer
rers
res
resbossel
resch
research
resen
reservat
reservation
reservatschoon
reserve
reservoir
residenz
residenzstadt
resonanz
resources
respekt
ressourcen
rest
restaurant
restaurants
restaurater
restaureert
reste
resten
restlich
restliche
restlichen
resultat
resultate
resultaten
results
reten
rethen
retriever
rett
retten
return
reuben
reuchlin
reuss
reuter
reuters
reuther
reuß
rev
revel
revideert
review
reviews
revision
revolution
revolutiona
revolutschona
revolutschoon
revue
rex
rey
reyes
reykjavi
reynolds
rez
rezension
rezepters
rezeptschoon
rf
rfall
rfatten
rfe
rfeld
rfen
rfer
rflunken
rfo
rfohren
rfu
rfunk
rg
rga
rgahn
rgahns
rgang
rgb
rgeiht
rgel
rgelboer
rgen
rgens
rger
rgerkrieg
rgerlich
rgerliche
rgerlichen
rgermeester
rgermeesters
rgermeestersche
rgermeister
rgermester
rgerrecht
rgerrechtler
rgerrechtlerin
rgers
rgerschap
rgerschop
rgerschopswahl
rgerschup
rgert
rgeschicht
rgeven
rgsch
rgsche
rgschen
rgt
rgv
rgy
rhaar
rhand
rhannen
rhea
rheiderland
rhein
rheinische
rher
rherige
rherigen
rherrschen
rhesus
rhetorik
rhien
rhienland
rhiensch
rhin
rhistoriker
rho
rhode
rhodes
rhoff
rhollen
rhuut
rhythm
rhythmisch
rhythmus
ri
ria
ribbentrop
ribeira
ric
rica
ricardo
riccardo
ricco
rice
rich
richard
richards
richardson
richey
richie
richland
richmond
richt
richten
richter
richters
richtig
richtige
richtigen
richtlienen
richtung
rick
rickman
ricky
rico
ridder
ridderkru
ridders
ridderschop
ride
rider
ridge
ridgeway
ridley
rie
rieck
ried
riedel
rieden
rieder
rieders
riedl
rieg
rieger
riek
riekdom
rieke
rieken
riekenbossel
rieksdag
rieksdagswahl
rieksdaler
rieksgerichtsraad
riekskanzler
riekspra
riekswehr
riemann
riemels
riemer
riep
riepen
riepholm
riepshoff
rier
ries
rietberg
rieten
rieven
riff
riffenburgh
rig
riga
rige
rigen
rigg
right
rightarrow
rights
rigkeit
rijn
rik
riley
rin
rinaldi
rinco
ring
ringahn
ringe
ringen
ringer
ringers
ringo
rings
ringst
ringsystem
rinkamen
rinn
rio
rioja
ripley
ris
risch
rische
rischen
rise
risiko
risius
rist
rita
ritchey
ritchie
rite
rito
ritsch
ritscher
ritschermoor
ritt
ritter
rittner
ritz
ritzbu
rium
riut
rivas
river
rivera
rivers
riverside
rivie
rizzo
rjohr
rk
rkaamt
rkamen
rkamt
rke
rkeem
rkei
rken
rkens
rker
rkie
rkisch
rkischen
rklich
rklichkeit
rko
rkommen
rkreis
rksch
rksche
rkschen
rkt
rkte
rkummt
rl
rla
rlaag
rlagen
rland
rleggt
rlesen
rlesungen
rlich
rliche
rlichen
rliggen
rliggt
rliteratur
rlitz
rlo
rlopen
rm
rmals
rmann
rmarsch
rme
rmediziner
rmen
rmer
rmeter
rmeters
rmig
rmige
rmigen
rmland
rmlich
rmolige
rmoligen
rmols
rmt
rn
rna
rnaam
rnaams
rnahmen
rnanner
rnbarg
rnbarger
rnberg
rnberger
rnehmlich
rnen
rner
rnig
rnommen
rns
rnt
rnten
ro
roach
road
roald
roaring
roata
rob
robben
robbie
robert
roberta
roberto
roberts
robertson
robin
robinson
robson
roca
rocco
roche
rochefort
rochelle
rochester
rochow
rock
rockband
rockefeller
rockford
rockmusik
rockmusiker
rocks
rockst
rockville
rocky
rod
roddenberry
rode
roden
rodenborg
roder
roderer
rodererin
roderick
rodgers
rodham
rodney
rodolfo
rodri
rodrigo
rodrigues
rodriguez
rogaland
roger
rogers
rogge
rogier
roh
rohde
rohlfs
rohr
rohreis
rohstand
rohstoff
rohstoffe
rohstoffen
roi
roland
rolando
role
rolf
roll
rolle
rolling
rollins
roloff
rom
roma
romaan
romaansche
romain
roman
romane
romanen
romanist
romano
romans
romantik
romantisch
romantische
romanus
romanze
rome
romeo
romer
romero
rommel
romney
romsdal
ron
ronald
ronde
rondo
ronne
ronnie
ronny
roo
rood
roof
rook
room
rooney
roonkarken
roop
roor
roort
roos
roosbrook
roosevelt
root
roov
roovt
rop
ropen
roper
roque
rore
roren
ros
rosa
rosalind
rosario
roscher
roscoe
rose
rosemarie
rosemary
rosen
rosenberg
rosenberger
rosenfeld
rosengoorn
rosenheim
rosenkranz
rosenthal
rosenweid
roses
roseville
ross
rossi
rossini
rostock
rot
rotatschoon
rotatschoonsass
rote
roteert
roten
rotenburg
roter
roth
rothschild
rott
rottal
rotten
rotter
rotterdam
rotto
roubaix
rouen
rouge
rough
round
rouse
rousseau
route
routledge
rover
row
rowe
rowland
rowohlt
roxy
roy
royal
royale
royaume
royce
rp
rpdaal
rpdo
rpel
rpen
rper
rperdamm
rperlich
rpermoor
rpers
rperschop
rpgemeenschopshuus
rphagen
rpm
rpmark
rpmer
rpommern
rpschool
rpstraat
rquez
rr
rra
rrez
rrn
rrt
rru
rrunn
rs
rsch
rsche
rschen
rschreven
rschriften
rsdo
rsehn
rsen
rsett
rsetten
rshavn
rsichtig
rsitt
rsitter
rsitterin
rsitters
rsittersche
rsla
rslag
rslahn
rsmeeten
rsmeten
rsneden
rsnitt
rsnittlich
rsnittliche
rso
rsorg
rspann
rspeel
rspeelspreker
rspelen
rsprung
rst
rsta
rstadt
rstahn
rstand
rstandsvo
rstbischop
rste
rsteed
rsteher
rsteiher
rsteihers
rstellen
rstellt
rstellung
rstellungen
rsten
rstenberg
rstendom
rster
rstin
rsto
rsu
rt
rtbiografie
rtbiographie
rte
rteihn
rtel
rteln
rten
rter
rterbuch
rtere
rth
rtig
rtige
rtigen
rtigjohrigen
rtl
rtlich
rtliche
rtlichen
rtner
rtogen
rtosetten
rtrucken
rts
rttemberg
rttembergs
rtyrer
ru
ruanda
rube
ruben
rubens
rubin
rubinstein
ruby
ruch
ruchweg
ruck
rudd
ruden
rudi
rudolf
rudolph
rudy
rue
rufus
rugby
rugbyspeler
ruge
ruggen
ruh
ruhe
ruhestand
ruhig
ruhm
ruhpolding
ruhr
ruhrrebeet
rui
ruin
ruinen
ruiz
rulfsen
rull
rullen
rullstohl
rum
ruma
rump
run
rund
rundfohrt
rundfohrten
rundfunk
rundschau
rundu
rung
runge
rungen
runn
runne
runnen
running
rup
rupert
ruprecht
ruschwedel
rush
russ
russch
russel
russell
russen
russia
russisch
russische
russischen
russland
rust
rut
ruta
rutbillt
rutbro
rutbrocht
ruten
rutendorp
rutenmo
rutfinnen
rutfunnen
rutg
rutgahn
rutgeven
rutgever
rutgeverin
rutgevers
ruth
rutherford
rutkamen
rutkeem
rutkommen
rutkummt
rutland
rutnahmen
rutragen
rutschke
rutseggt
rutsetten
rutsmeten
rutstellt
ruttofinnen
ruum
ruumfa
ruumfloog
ruumflu
ruumfohrer
ruumfohrt
ruumfohrtu
ruumordnungsprogramm
ruumscheep
ruumschipp
ruumsond
ruumsonden
ruumstatschoon
ruumtemperatur
ruup
ruupen
ruut
rv
rven
rwahl
rwahlen
rwand
rwark
rweg
rwehr
rwehren
rwetenschopper
rwo
rwoort
ry
ryan
ryder
rye
ryn
rz
rzborg
rzburg
rzen
rzte
rður
s
sa
saag
saak
saaken
saal
saale
saamsch
saans
saar
saarbru
saarland
saat
saavedra
saba
sabatini
sabbat
sabina
sabine
sabrina
sacco
sachs
sachsen
sack
sackt
sacramento
sacred
sadler
saga
sagan
sage
sagen
sager
sahara
sahlenborg
said
sailer
saint
sainte
saison
saisonenn
saisons
sake
saken
sal
salas
salazar
saldivar
salem
salgado
salieri
saline
salinger
salish
saljut
sall
salle
salles
sally
salminen
salomon
salomonen
salon
salpeter
salpetersu
salt
salta
salvador
salvatore
salzburg
sam
samantha
sambia
samen
sammel
sammeln
sammelt
sammler
sammlung
sammlungen
sammy
samniten
samnitenkrieg
samoa
sampras
sampson
samson
samt
samtgemeen
samtgemeenbo
samtgemeend
samtgemeende
samtgemeendirekter
samtgemeendirekters
samtgemeenraad
samtgemeenraat
samtgemenen
samtla
samuel
samuels
samuelson
samuelsson
samurai
samy
san
sanchez
sanctuary
sand
sandbossel
sande
sander
sanders
sandhusen
sandoval
sandra
sandro
sandsteen
sandy
saneert
sangensta
sanger
sanita
sankt
sanremo
sansibar
sanskrit
sant
santa
santana
santander
santiago
santo
santos
sao
sapiens
sapporo
sar
sara
sarah
sarajevo
saratoga
sarazenen
sardinien
sarg
sargent
sarkozy
sarnighausen
sarrazin
sars
sarstoon
sarthe
sartre
sas
sascha
saskatchewan
saskia
sass
sassaniden
sassen
sassisch
sassische
sassischen
sat
satb
satellit
satellite
satelliten
satellitenstaat
saterdag
saterland
satire
satiriker
satu
saturn
satz
satzen
satzung
sau
saudi
sauer
sauk
saul
saunders
saur
saust
sauvage
sauveur
savannah
savas
save
savic
savigny
savoie
savoy
savoyen
sawyer
sax
saxofonspeler
saxofoonspeler
saxophon
saxophonist
saxophonisten
say
sayid
sb
sc
scala
scandium
scar
sch
scha
schaaf
schaal
schaamhoor
schaamlippen
schaap
schaaphusen
schaaten
schach
schachbund
schachgrootmeester
schachkumponist
schachmeester
schacholympiade
schacholympiaden
schachpartien
schachspeel
schachspeler
schachspelerin
schacht
schachweltmeester
schachzeitung
schadden
schade
schaden
schadens
schaefer
schaff
schaffen
schaffer
schaffner
schafft
schalen
schalke
schall
schallplatten
schaltjohr
schaltjohren
schandaal
schanz
schanzendo
schapen
schaper
schapp
schapt
scharf
scharmba
scharmbeck
scharmbeek
scharmbeekstotel
scharnhors
scharnhorst
scharp
scharpe
scharper
schatalow
schaten
schatt
schatten
schatz
schau
schaumborg
schaumburg
schauspeel
schauspeelhuus
schauspeelschool
schauspeler
schauspeleree
schauspelerin
schauspelers
schauspelersche
schauspiel
schauspieler
schauspielhaus
schaven
sche
scheden
scheed
scheeden
scheedt
scheef
scheel
scheep
scheepe
scheer
scheert
scheeten
scheetfehler
scheetstand
scheeßl
scheitern
scheitert
schelfies
schell
scheller
schelling
schema
schemaatsch
schempp
schen
schenck
schendo
schenfall
schenk
schenkt
schentiet
scheperhund
schepinkel
scher
scheren
scherf
scherrer
scherzer
scherzo
scheten
schett
scheuermann
schiaparelli
schicht
schichten
schick
schickard
schicken
schicksal
schickt
schiedsrichter
schien
schienbor
schienbore
schienen
schient
schier
schiere
schierhoorn
schiet
schiev
schieven
schiff
schild
schilddru
schildfoot
schill
schillen
schiller
schilling
schindler
schinkel
schipp
schippdo
schipper
schipperee
schippfohrt
schipulin
schirmer
schirra
schla
schlacht
schlecht
schlechter
schledden
schlegel
schlesien
schlesinger
schleswig
schlichting
schlo
schloss
schlott
schloß
schlu
schmetterling
schmetterlinge
schmid
schmidt
schmitt
schmitz
schmu
schnabel
schnee
schneider
schnell
schneller
schnitger
schnittberichte
schnitzler
schnyder
scho
schobert
schoch
schock
schockemo
schoh
scholen
scholes
scholl
schollen
scholten
scholz
schon
schonen
schoof
school
schoolbaas
schoolen
schoolhuus
schooljohr
schoolmeester
schoolmeesterin
schoolmeesters
schoolmeestersche
schools
schooltiet
schoolzentrum
schoon
schopenhauer
schossee
schott
schotten
schottisch
schottische
schottischen
schottland
schottsch
schottsche
schottschen
schra
schraag
schrader
schramm
schreben
schreev
schreeven
schreiben
schreiber
schreiner
schreven
schrieven
schriever
schrieveree
schrieverin
schrievers
schrieversche
schrievnorm
schrievt
schrievwies
schrievwiesen
schrifft
schrift
schriften
schriftenreihe
schriftlich
schriftliche
schriftspraak
schriftsteller
schriftteken
schritt
schro
schroeder
schroth
scht
schu
schuba
schubart
schubert
schuld
schulden
schuldig
schule
schulen
schulenburg
schuler
schull
schullen
schuller
schullig
schult
schulte
schulten
schultz
schultze
schulz
schulze
schumacher
schumann
schunken
schuppen
schuster
schutt
schutz
schuul
schuulen
schuult
schuven
schwa
schwaben
schwandorf
schwartz
schwarz
schwarze
schwarzkopf
schwassmann
schweden
schweiger
schweiz
schweizer
schwerin
schwierigkeiten
schwitschen
schworgen
sci
science
sciences
scientific
score
scotia
scotland
scott
scotti
scottish
scotts
screen
sd
se
sea
seal
sean
search
sears
seaton
seattle
sebarg
sebastia
sebastian
sec
seca
sechs
seckendorff
second
secret
section
security
sed
seddon
sedgwick
sedimenten
see
seeaant
seebad
seebargen
seebodden
seech
seedo
seefohrer
seefohrt
seeg
seeger
seego
seehaven
seehofer
seehusen
seel
seeland
seele
seeler
seelmann
seeltersk
seelu
seemann
seen
seenplatt
seeslacht
seet
seeten
seev
seevagels
seevdaal
seewater
seeweg
segal
segel
segen
seger
segg
seggen
seggt
segler
segment
segmente
segmenten
segovia
segura
seh
sehen
sehn
sehr
sehren
sehrt
seht
sei
seidel
seidler
seifert
seiffert
seiler
seilerin
seilt
sein
seine
seinem
seinen
seiner
seines
seismische
seismologie
seismoloog
seit
seite
seiten
sejm
seken
seker
sekerheit
sekern
sekerstellt
sekert
sekret
sekreta
sektschoon
sekunda
sekunn
sekunnen
sel
selassie
selbst
selen
selena
seles
seleukidenriek
self
selina
selle
sellers
sellhorn
sells
sellschap
sellschop
sellschopp
sellschoppen
sellst
selma
selten
seltener
selznick
semester
seminar
semper
sen
senaat
senat
senate
senater
senator
senators
send
sendung
seneca
senegal
sener
senfleet
senior
senioren
senn
sennen
senner
sennt
sens
sentant
sentanten
sentantenhuus
sentatschoon
senteert
sentinel
senz
seoul
separate
sepp
seppens
september
sequenz
ser
serbien
serbisch
serbsch
serbsche
serbschen
serebrow
serena
serenade
serge
sergeant
sergei
sergej
sergejewitsch
sergio
serie
serien
series
serra
serre
sert
sertoli
serum
server
service
services
ses
sess
session
sessions
set
seten
seth
sethlerhemm
sett
setten
seu
seven
sever
severin
severus
sevilla
sewell
sex
sextett
sexualita
sexuell
sexuelle
seychellen
seymour
seyß
sf
sg
sh
shackleton
shadow
shaka
shakespeare
shane
shanghai
shankar
shannon
sharon
sharp
sharpless
shatner
shaughnessy
shavers
shaw
shawn
shawnee
she
shearer
sheila
shelby
sheldon
shelley
shelly
shelton
shepard
shepherd
sheppard
sheridan
sheriff
sherman
sherpas
shetlandeilannen
shift
shire
shirley
sho
shoemaker
shoman
shop
short
shorter
shoshone
shot
should
show
showalter
showdown
shows
shriver
shropshire
shu
shuttle
shuttles
si
sibirien
sibiu
sibley
sibun
sibylle
sic
sich
sicht
sichtbor
sichtbore
sick
sid
side
sideman
sident
sidenten
sidentenamt
sidentenwahlen
sidentin
sidentschap
sidentschapskandidat
sidentschapswahl
sidium
sidney
sido
sie
sieben
sieber
siebert
sied
siede
siedeln
siedelt
sieden
siedenstraat
siedenverha
siedland
siedler
siedlers
siedlung
siedlungen
siefkes
sieg
siegbert
siege
siegel
siegen
sieger
siegerin
siegerlist
siegert
siegfried
siegmund
siehe
siek
siel
siemens
sien
siena
siene
sienen
sierra
siet
sietas
sietdem
siete
sieten
sieter
sietere
sieteren
siether
sietland
sietwenn
sievern
sievers
sig
sigel
sigfrid
sigismund
sigmaringen
sigmund
signal
signalen
sigrid
sik
silas
silcher
siletz
silikat
silikaten
silizium
silke
silva
silver
silvester
silvestri
silvia
silvio
sima
simbabwe
simejis
simeon
simmonds
simmons
simms
simo
simon
simone
simple
simpson
sims
sin
sinai
sinaloa
sinatra
sinclair
sind
sine
sinfonie
sinfonien
sinfonische
sing
singapur
singen
singer
singerin
singers
singersche
singh
single
singles
singleton
sings
singstimm
singstimme
singt
singular
sinn
sinnbild
sinne
sinnen
sinoloog
sinsdo
sint
sio
sion
sioux
sir
sire
sirius
sische
sischen
sisley
sit
sitcom
site
sitt
sitte
sittee
sitten
situation
situatschonen
situatschoon
sitzung
sium
six
sixtus
sizilien
sjo
sk
ska
skala
skanderborg
skandinavien
skateresults
skeletonfohrer
skelett
skelton
sken
ski
skier
skierin
skifohrer
skilanglo
skilangloop
skinner
skirennlo
skispringer
skizzen
skn
sko
skrivt
skulptur
skulpturen
sky
skye
skylab
sla
slaan
slaap
slacht
slachten
slag
slaganfall
slager
slagtu
slahn
slaht
slam
slang
slank
slapen
slaten
slaven
slaveree
slawen
slawist
slecht
slechte
slechten
slechter
sleiht
sler
slesien
sleswig
sleßel
slich
sliche
slicht
slichten
slim
slo
sloan
sloot
slooten
sloten
slott
slottkapell
slottpark
slovenia
slowaaksch
slowaakschen
slowakei
sloweensch
sloweensche
sloweenschen
slowenien
slu
slumpt
sluss
slusslo
sluten
slutt
sluut
sluuten
sluutend
sm
sma
smack
small
smalle
smallen
smeckt
smeten
smidt
smiet
smieten
smit
smith
smithfield
smithson
smithsonian
smitt
smo
sms
smu
smuck
smucke
smunt
smusenaam
smyslow
smyth
sna
snaaksch
snaaksche
snaakschen
snack
snacken
snackers
snackt
snake
snavel
sneden
snee
sneegoos
snell
snelligkeit
snelligkeiten
sneren
snevern
snieden
snieder
sniggen
snitt
snittfaten
sno
snookerspeler
snow
snowboarder
snowboarderin
snyder
so
soc
socht
social
socie
society
sodat
sodennig
sofia
sofort
software
sogar
sogn
sogneportalen
sogor
sogors
sohn
sojus
sokrates
sol
sola
solang
solano
solar
solberg
soldaat
soldat
soldaten
soldier
soldiers
solemdal
soli
solid
solingen
solist
solisten
solke
soll
sollte
solo
solomon
solowjow
solt
soltau
soltborg
solten
soltsu
soltwater
soltwedel
solzhusen
somali
somalia
some
somerset
somerville
something
somit
somme
sommer
sommersell
sommerspelen
son
sonate
sonaten
sond
sonden
sondern
song
songs
songschriever
songschrieverin
songwriter
songwriterin
sonja
sonne
sonnenschein
sonner
sonnern
sonntag
sonny
sonora
sons
sonst
sonstiges
sony
soort
soorten
soosdo
sootel
sophia
sophie
sopran
sopranistin
sorbschen
sorg
sorgen
sorgt
sort
sorteert
sorten
sosa
sotoseggen
sotschi
sott
sotto
soul
sound
sounds
soundtrack
sounsiek
source
sous
sousa
south
southampton
southern
souvera
souza
soveel
sowat
sowie
sowiet
sowjeetsch
sowjeetschen
sowjets
sowjetsch
sowjetsche
sowjetschen
sowjetunion
sowohl
soziaalpa
soziaalwetenschopper
sozial
sozialdemokraatsche
sozialdemokraten
soziale
sozialen
sozialismus
sozialist
sozialisten
sozialistisch
sozialistische
sozialpolitik
soziologie
soziologin
sozioloog
sp
spa
spaansch
spaansche
spaanschen
spaaß
space
spacefacts
spacelab
spaden
spain
spalding
spang
spangen
spaniel
spanien
spanier
spaniers
spanish
spannt
spannung
spannungen
sparks
sparrt
sparrwark
sparta
spartacus
spartaners
spasski
spaulding
spd
specht
special
species
speck
specken
speckenbu
spee
speed
speedskatingnews
speel
speelbaas
speelbaasfro
speelbasen
speeldag
speeldeel
speelen
speelfeld
speelfilm
speelfilmen
speelklass
speelkreis
speeloort
speelsta
speelt
speeltied
speeltiet
speeltu
speelwies
speer
speersmieter
speersmieterin
spegel
speidel
speken
spektakula
spektralklass
spektroskopie
spektrum
spel
spelen
speler
spelerin
spelers
spence
spencer
spengler
spennen
sperma
spermien
sperry
speyer
speyside
speziaaleffektku
spezialiseert
spezialita
speziell
spezielle
speziellen
spezies
spezifisch
spezifische
spha
spider
spiegel
spiek
spieker
spiekern
spiekert
spiel
spielberg
spiele
spielen
spieler
spielfilm
spielmann
spielt
spier
spiest
spill
spin
spindler
spinnen
spinoza
spirit
spitta
spitz
spitze
spitzen
spitzer
spleten
splitt
splitten
spo
spock
spohr
sponser
spontan
spood
spoodriek
spoodrieke
spoodrieken
spoodriekst
spoodriekste
spoodrieksten
spoor
spoorkass
sporen
sport
sportfunkschona
sportjournalist
sportler
sportlerin
sportlich
sportliche
sportoort
sports
sportschu
sportsreference
sportvereen
sportverlag
sportwetenschopper
spot
spoto
spraak
spraaken
spraakfamilie
spraakforscher
spraakgrenz
spraakgrupp
spraaklich
spraakrebeet
spraakruum
spraakvarieta
spraakwetenschop
spraakwetenschopper
spraakwetenschopperin
sprach
sprache
sprague
sprake
spraken
spreckelsen
spreddig
spree
spreken
sprekens
spreker
sprekerin
sprekers
spremberg
spreng
sprengel
sprengt
spring
springen
springer
springfield
springrieder
springriederin
springs
springt
sprint
sprinter
sprinterin
sprintrennen
sprintweltcup
spro
sproke
sproken
spru
sprung
spur
spuren
sqrt
square
squashspeler
squashspelerin
squez
sr
sri
ss
ssch
ssd
sse
ssel
sseldo
sseldorf
sseldorfer
sseldorp
sselentscheidungen
ssen
sser
sserung
ssig
ssigkeit
ssisch
ssler
sslich
ssmal
ssner
ssr
sst
sste
ssteihn
ssten
sstig
st
sta
staat
staaten
staatlich
staatliche
staatlichen
staats
staatsarchiv
staatsbaas
staatsbeamten
staatsbo
staatsdeenst
staatsexamen
staatsform
staatsgrenz
staatsmann
staatsminister
staatspra
staatsraad
staatssekreta
staatstheater
stabil
stabilita
stacey
stad
stade
stader
stadion
stadium
stadler
stadt
stadtarchiv
stadtbezirk
stadtbild
stadtbo
stadtdeel
stadtdeelen
stadtdelen
stadtentwa
stadtgemeen
stadtgeschichte
stadtkark
stadtkarn
stadtkreis
stadtmu
stadtplaner
stadtraad
stadtraat
stadtrebeet
stadtrecht
stadtrechte
stadtrechten
stadttheater
stadtverwalten
stadtwarken
stadtzentrum
staff
staffel
staffeln
staffelrennen
staffhoochspringer
stafford
staffordshire
stage
stahl
stahn
staht
stalin
stalingrad
stall
stamm
stammen
stammspeler
stammt
stammzellen
stan
stand
standard
standardmodell
standards
standardspraak
standing
stando
standoort
standpunkt
stanford
stangl
stanisław
stanley
stann
stanton
stapel
stapleton
star
stargard
stark
starke
starken
starker
starkere
starkste
starksten
starr
stars
starsbeek
start
starten
starv
starven
starvt
state
staten
states
station
statistical
statistics
statistik
statistiken
statistiker
statistisch
statistische
statistisches
statschona
statschoneert
statschonen
statschoon
statt
stattdessen
stattfinnen
stattfinnt
stattfunnen
stattho
stattholler
statue
status
staudamm
staudinger
stauffenberg
stausee
staut
stavenhagen
ste
stearns
steddo
steden
steder
stedinger
steed
steeg
steegen
steek
steekt
steel
steele
steen
steenau
steenbarg
steenbeek
steenborg
steenfeld
steenkark
steentiet
steern
steernbarg
steernbild
steernbiller
steernflott
steernhopen
steernhopens
steerns
steernwacht
steert
stefan
stefanie
stefano
steffen
steffens
steffi
stegemann
stegen
stehen
steht
steidl
steiermark
steiht
steil
stein
steiner
steininger
steinitz
steinman
steinmann
steken
stell
stella
stellar
stellen
stellich
stellsfellen
stellt
stellung
stellvertreden
stellvertredend
stellvertreder
stellvertreeden
stemmen
stemmermo
stemmert
stempel
sten
stendal
stendo
stenen
stenho
stenzel
step
stephan
stephanie
stephen
steps
ster
sterben
sterbotten
stere
steren
sterer
sterling
stern
sterna
sterne
sternis
sterreich
sterreichischen
sterriek
sterrieker
sterriekers
sterrieksch
sterrieksche
sterriekschen
sters
stersund
stert
stets
stettin
steuben
steve
steven
stevens
stevenson
stewart
sthetik
stickenbu
stickstoff
stickt
stief
stiegen
stiegern
stiegt
stift
stiften
stifter
stifterin
stiftung
stig
stiggt
stiglitz
stil
stilistisch
still
stille
stillen
stiller
stillkens
stillleggt
stills
stillstand
stimbeck
stimm
stimme
stimmen
stimmt
stimmung
stina
stinst
stipendium
stitt
stlich
stliche
stlichen
stmanland
stner
sto
stock
stockholm
stockwarken
stoder
stodermoor
stodersand
stoff
stoffblo
stoffe
stoffen
stoffgrupp
stoffwessel
stohl
stoht
stojanovic
stokes
stolberg
stolle
stollen
stollfakters
stolp
stolpe
stolt
stoltenberg
stone
stood
stoop
stoov
stop
stopen
stoppt
stor
stories
storm
stormarn
stormflood
stormfloot
stormvagel
stormvagels
storstrøm
storven
story
stotel
stout
stra
straaf
straat
straaten
straatenrennen
strachan
stracks
strafen
strahlen
strahlt
stralsund
strand
strandvolleyball
strange
strasser
strategie
strategisch
straten
stratenbahn
stratendo
stratennett
stratenverkehr
stratigraphische
stratton
straubing
straus
strauss
strauß
straßburg
straße
stream
streck
strecken
streckenbeschrieven
strecker
streckt
streden
streek
streeken
street
streit
streken
streng
strenge
stresemann
streven
strickland
stried
strieden
striedereen
strieker
striekquartett
striepen
striepens
striet
strietkra
strikt
stringen
stringer
stringtown
stro
strobel
strobl
stroh
strom
strong
stroom
strow
stru
structure
struktur
strukturen
strunz
struuk
struve
sts
stso
stu
stuart
stubben
stuck
stuckato
stuckenbossel
studeer
studeeren
studeern
studeert
student
studenten
studentenschap
studeren
studie
studien
studies
studio
studioalben
studioalbum
studiomusiker
studios
studium
study
stuhlfauth
stummfilm
stumpf
stunde
stunden
stung
stunn
stunnen
stuntman
sturben
sturm
sturv
sturven
stuttgart
stuttgarter
stuur
stvo
style
su
sua
sub
substanzen
subtribus
subtropen
suceava
suche
sucht
sucker
sucre
sud
sudan
sue
sueddeutsche
suer
suerland
suerstoff
suffix
suffolk
sugar
suhr
suhrkamp
suisse
suite
sul
sula
suldat
suldaten
sulfat
sulingen
sull
sulla
sullen
sullivan
sully
sulpice
sultan
sulzbach
sulzer
sum
summ
summenformel
summer
summit
sumner
sump
sun
sund
sunday
sunde
sung
sungen
sunn
sunne
sunner
sunnerlich
sunnerliche
sunnerlichen
sunniten
sunset
sunst
super
superior
supermarkt
supernova
supperndent
supreme
sur
sure
surinam
surrey
survey
sus
susan
susanna
susanne
suspense
susquehanna
sussex
suster
sutherland
sutton
suugt
suur
suurheid
suutje
suzanne
sv
sven
svendborg
svendsen
svg
swa
swaak
swaan
swaar
swaart
swaarten
swaben
swack
swacke
swacken
swan
swann
swans
swanson
swarm
swarms
swart
swarte
swarten
swartenho
swartwitt
swasey
swasiland
swatt
swatte
swatten
swayze
sweden
sweedsch
sweedsche
sweedschen
sweelinck
sweeney
sweer
sweert
sweet
sweevfa
swegen
swellko
swemmaanten
swemmbad
swemmen
swemmer
swemmerin
swemmsportler
swemmsportlerin
swemmt
sweren
swerin
swetlana
swevel
sweveldioxid
swevelsu
swicht
swiegerso
swien
swiez
swiezer
swiezersch
swift
swing
swingen
swinn
swo
swoboda
swonewebel
swoor
swooren
swoorkraft
swoorpunkt
swor
swore
sworen
sworer
sworere
swr
swrlch
sy
sydney
sydow
syke
sylt
sylter
sylvain
sylvester
sylvestre
sylvia
symbol
symbole
symbool
sympetrum
symphonie
symptomen
syn
synagoge
synagoog
synchronisatschoon
synchroonsnacker
synchroonsnackerin
synchroonspreker
synchroonsprekerin
syndikus
syndrom
synode
synonym
synood
synthees
synthese
synthesis
synthesizer
synthesizers
syphilis
syrakus
syrien
system
systemaatsche
systematik
systematisch
systeme
systemen
systems
sz
szeen
szene
szenen
szenenbild
szenenbillner
szenenfragmente
szlo
sønder
t
ta
taaken
taal
tabak
tabasco
tabell
tabelle
tabellen
table
tabu
tacitus
tadeusz
tadorna
taeo
tafel
tafeln
taft
tag
tage
tageblatt
tagebu
tagebuch
tagen
tagesschau
tagesspiegel
tahiti
tahl
tahlen
taimanow
taiwan
taize
take
takt
taktik
taktisch
tal
tale
talent
talk
tall
tallen
tallinn
tallriek
tallrieke
tallsystem
tama
tamara
tamaulipas
tamm
tammann
tan
taneo
tang
tanja
tank
tanner
tansania
tant
tante
tanz
tara
tarija
tarjei
tarms
tarmst
tarn
taro
tarrafal
tarrasch
tartakower
tasch
taschen
taschenbook
taschenbuch
tasmanien
tass
tasting
tat
tate
taten
tatjana
tatort
tatsa
tatum
tau
taube
taurus
tausend
tavares
taxa
taxeert
taxi
taxon
taxonomie
taylor
taz
tb
tc
tcken
te
tea
teagarden
team
teams
teatro
teau
teauneuf
teborg
technical
technik
techniken
techniker
technisch
technische
technischen
technologie
technology
ted
teddy
tee
teeblo
teek
teeken
teekner
teeknerin
teeknung
teel
teelen
teemlich
teen
tegelee
tegen
tegeno
teheran
tehn
teht
teichmann
teihn
teihnka
teihnte
teihnten
teil
tein
teixeira
teken
tekens
tekent
tekentrickreeg
tekner
teknungen
tel
telefon
telegraph
telekommunikatschoon
telemann
telemark
telen
teleorman
teleschach
telescope
teleskop
teleskopen
television
tell
tellen
teller
tellt
tellur
teln
tels
telschow
telt
temelk
temlich
temmen
tempel
temperatur
temperaturen
temple
tempo
ten
tendenz
tennessee
tennis
tennismeesterschapen
tennisspeler
tennisspelerin
tenno
tenor
tenorsaxophon
tensack
tenspeler
teo
ter
tera
tere
terence
teresa
term
termin
terminal
terminator
tern
terra
terre
terrier
territorien
territorium
territory
terror
terroransla
terrorismus
terrorist
terroristen
terry
ters
tersloh
tert
tertia
tes
tesp
tessin
test
testament
testaments
testis
testosteron
testpilot
tests
tet
tettigonia
teu
teubner
teufel
tex
texas
text
textcolor
texte
texten
texter
textilindustrie
textilu
th
tha
thailand
thalberg
thaler
thalia
thallium
thames
than
that
thatcher
the
theater
theaterbaas
theaterdirekter
theatergrupp
theaterintendant
theaterkritiker
theaters
theaterschauspeler
theaterschriever
theaterstu
theaterwetenschopper
theatre
theben
theil
their
theisbru
theißen
thelma
thelonious
thema
themen
themse
then
theo
theoderich
theoderik
theodor
theodore
theodosius
theologen
theologie
theologin
theologisch
theologische
theoloog
theoreetsch
theoretisch
theoretische
theorie
theorien
theory
ther
therapie
there
theresa
therese
theresia
thermische
thermodynamik
these
thesen
thessaloniki
theta
they
thief
thiel
thiele
thieme
thierry
thies
thieshoop
thilo
thing
thingnes
things
think
thiopien
third
this
tho
thom
thomas
thompson
thomsen
thomson
thorbecke
thorium
thorn
thorne
thornhill
thornton
thorpe
thorsten
thrakien
three
thriller
thrombozyten
thrombus
thron
throon
through
thu
thumb
thun
thunder
thurau
thurston
thyssen
ti
tiberius
tibet
tichonow
tie
tied
tiedemann
tieden
tiedlang
tiedo
tiedschrift
tiemann
tien
tienne
tiere
tiet
tietduer
tieten
tietgeno
tietgenossen
tietgliek
tietje
tietjen
tietlevens
tieto
tietpunkt
tietru
tietruum
tietschrift
tietschriften
tietskala
tietwies
tig
tige
tigen
tiger
tight
tigkeit
tigkeiten
tigran
tigre
tigt
tilden
till
tillon
tilly
tilova
tim
timberlake
time
times
timis
timm
timmel
timmermann
timo
timothy
tin
tina
tingo
tinn
tiny
tiomkin
tipp
tirol
tis
tiss
titan
titania
titanic
titel
titelleed
titeln
titelrull
titels
title
tito
titula
titus
tivoli
tjader
tje
tjen
tke
tland
tld
tlich
tliche
tlichen
tlicher
tm
tma
to
tobago
tobias
tobin
tobro
tobrocht
tochter
tod
todacht
today
todd
todeelt
todem
todes
todtshoorn
toeerst
toenn
toenne
toepfer
tofa
tofall
tofallig
tofo
tofra
tofreden
tofu
tog
toga
togaav
togang
togange
togeho
togen
together
togeven
togliek
toglieks
togo
togreep
togrepen
togunsten
toho
tohoop
tohoopdaan
tohoopfaat
tohoopfleten
tohoopgahn
tohoopleggt
tohoopsett
tohoopslaten
tohoopwussen
tohopen
tohopenfaat
tohopenkamen
tohopensett
tohopensetten
tohopenslaten
tohopenstellt
tohopensto
tohuse
tohuus
tokamen
tokieker
tokiekers
tokio
tokommen
tokregen
toku
tokumst
tokunft
tokyo
tolaaten
tolaten
toledo
tolest
toletzt
tolkien
toll
tollboom
toloop
tolstoi
tom
toma
tomal
tomas
tomasz
tomatoes
tome
tomeest
tomehrst
tomeist
tomindst
tominnst
tominst
tomlinson
tommy
tomo
tomorrow
ton
tona
tonaam
tonaams
tonahmen
tonehmen
tonehmend
toni
tonicht
tonichten
tony
too
toog
toole
tools
toon
toondra
tooninscheno
toonsch
toontechniker
toordent
toordnet
toorn
toorns
top
topp
toppen
toppensta
topplevel
tor
tora
torecht
torekent
torn
toronto
torre
torres
torsten
toru
tos
tosa
tosamen
tosamenarbeit
tosamenfaat
tosamenfaten
tosamenha
tosamenhang
tosamenhangt
tosamensett
tosamensetten
tosamenslaten
tosamenspeel
tosamenstellt
tosamensto
tosammen
tosatz
toschannen
toschreven
toseggen
toseggt
tosett
toskana
tosommen
tosommenarbeit
tosommenbro
tosommenfaat
tosommenhang
tosommensett
tosommensetten
tospeel
tospraaken
tospraken
tosta
tostand
tostandsgro
tostann
tostanne
tostannen
tostannenkamen
tostimmen
tostimmt
tostu
tot
total
toten
totrucken
touch
toulouse
tour
touren
tourismus
touristen
tournee
tourneen
tours
toveel
tovo
towendt
tower
towielen
towiest
town
townes
township
tr
tra
tracey
tracy
trade
tradition
traditschonell
traditschonelle
traditschonellen
traditschonen
traditschoon
tragedy
trago
trail
train
traineer
traineeren
traineert
trainer
trainerin
training
trakt
trallen
trans
transantarktischen
transport
transporteeren
transporteert
transtro
transvaal
trapp
traugott
traum
traunstein
trautmann
travis
tre
trech
treck
trecken
treckt
treden
tree
treed
treeden
treffen
trek
trend
trennen
trennt
trennung
trentino
tres
tresckow
trett
trevor
trial
trials
trianon
trias
triathlet
triathletin
tribe
tribes
tribus
tribute
trick
trickeffekt
trickeffekten
trient
trier
trikolore
trikot
trill
triller
trilogie
trimble
trinidad
trinity
trio
tripelpunkt
triploidie
tristan
tristano
tritium
triton
tritt
trittin
triumph
triumvirat
trivia
tro
trock
trocken
trois
trompete
trompeter
troms
trondheim
tropen
tropical
tropisch
tropischen
trotz
troy
tru
truck
trucken
true
truffaut
trujillo
truman
trumbull
trump
trumpeter
truncus
trupermoor
trupp
truppe
truppen
trust
truth
truup
trøndelag
ts
tsbarg
tsbibliothek
tsch
tschad
tschbaltschen
tsche
tschechien
tschechisch
tschechischen
tschechoslowaaksch
tschechoslowaakschen
tschechoslowakei
tschechsch
tschechsche
tschechschen
tschen
tscher
tschigorin
tschland
tschspraakig
tschsprakigen
tse
tsel
tsen
tsk
tske
tsstadt
tste
tstheorie
tsunami
tsv
tt
ttasien
ttcher
ttdamm
tte
ttel
tten
ttendo
ttenhuus
ttenverband
ttenvereen
tter
ttere
tteren
ttern
ttert
ttgen
ttger
ttgere
tthoff
ttich
ttin
tting
ttingen
ttinger
ttir
ttje
ttjen
ttjer
ttjere
ttjeren
ttjet
ttler
ttmer
ttner
ttodaags
ttpunkt
ttsch
ttst
ttste
ttsten
ttstendeels
ttwo
tu
tucht
tucker
tudor
tumor
tumoren
tun
tunesien
tung
tungen
tunica
tunnel
tunnen
turin
turku
turn
turnbull
turneer
turnen
turner
turneren
turnerin
turnhall
turnier
turniere
turnieren
turniersiege
tus
tuttle
tuun
tuusch
tuuscht
tuvalu
tv
twaars
twalf
twater
twe
twee
tweede
tweeden
tweeflunken
tweegleisigkeit
tweekamp
tweemal
tweemol
tweeschen
tweesprakige
tweet
tweete
tweeten
tweetgro
tweetho
twei
tweibroken
tweigahn
twete
tweten
twiefel
twieg
twiege
twiegen
twiegt
twielenfleet
twievel
twilight
twin
twintig
twischen
two
twolf
twu
twuschen
tycho
tyler
tyner
typ
type
typen
typisch
typische
typischen
tyree
tyrone
tyson
tyyp
tyypsch
tyypsche
tyypschen
tyypscherwies
tz
tzassenholt
tzdo
tze
tzel
tzen
tzendo
tzenfest
tzenvereen
tzer
tzfleet
tzfleter
tzfletermoor
tzfletersand
tzlich
tzliche
tzlichen
tzt
tzung
u
ua
ub
ubad
uber
uble
uci
uck
ud
ude
udo
udp
udssr
ueber
ueberscha
uefa
uelzen
uer
ufer
uganda
uhde
uhl
uhlig
uhlmann
uhr
uk
ukraine
ukrainsch
ukrainsche
ukrainschen
ule
ulein
ulen
ulf
uli
ulla
ullmann
ullrich
ullstein
ulm
ulmer
ulrich
ulrike
ultimatum
ulu
ulysses
um
umbau
umbaut
umberto
umbrocht
ume
umen
umer
umfaat
umfaaten
umfaatend
umfang
umfangriek
umfeld
umfragen
umgang
umgebung
umgeven
umkamen
umloopbahn
ummuddelt
umno
umsett
umsta
umstreeden
umto
umwannelt
umwelt
un
una
unafha
unafhangig
unafhangige
unafhangigkeit
unami
unbannig
unbannige
unbannigen
unbedingt
unbekannt
unbekannte
unbekannten
unbesta
und
unde
under
underground
understanding
underwood
une
unentscheeden
unesco
unfa
unfall
ungaarsch
ungaarsche
ungaarschen
ungarn
ungarsch
ungefa
unger
ungewo
unglu
ungu
uni
uniform
unio
union
unit
united
univ
universal
universe
universita
universities
university
universum
unkel
unmo
unna
unnel
unnen
unner
unneraard
unneraarden
unnerbrocht
unnerdeelt
unnerfamilie
unnerfamilien
unnergahn
unnergrund
unnernehmen
unnerornen
unnerricht
unnerscheden
unnerscheed
unnerscheedlich
unnerscheedliche
unnerschreven
unnerso
unnersocht
unnerwegens
uno
unrecht
unregelmatig
unregelmatige
unruhen
uns
unseker
unser
unsere
unserer
unseres
unter
untergang
unternehmen
unterstu
untersuchung
untersuchungen
untu
unvera
unvermodens
unverwacht
unvullsta
unzicker
up
upbau
upbaut
upbereiten
upbo
upboot
upbraken
updeelt
updra
updrag
updu
upenholt
upfaaten
upfallen
upfo
upfu
upgaav
upgahn
upgave
upgaven
upgeeven
upgeven
upgrund
uphaben
uphollen
uphusen
upkamen
upkla
upkommen
upl
uplaag
uplage
upleggt
uplo
upmaakt
upmarksom
upmarksomkeit
upnahm
upnahmen
upnehmen
upnommen
upon
upper
uppsala
upricht
uprichten
upright
uproop
uproopen
upropen
upru
upsatz
upschreven
upsehn
upsicht
upsichtsraat
upspleten
upsta
upstahn
upstand
upstellen
upstellt
upsternaatsch
upsternaatschen
upstieg
upswung
uptagen
uptakt
uptogeven
uptonehmen
uptra
uptreden
uptreeden
upwa
upwiesen
upwiest
upwussen
ur
ural
uran
urania
uranus
urauffu
urban
urbana
urbina
urdu
urin
urkunn
urkunnen
url
urlaub
urn
urologie
uropfu
urs
ursachen
urspru
ursprung
ursula
urteil
uruguay
uruguayisch
uruguaysche
uruguayschen
us
usa
usbekistan
uschi
use
user
usher
uss
usw
ut
uta
utah
utarbeit
utarbeiten
utb
utbau
utbaut
utbenahmen
utbildt
utbildung
utbillen
utbilln
utbillt
utbo
utboet
utboot
utbraken
utbreden
utbreeden
utbreedt
utbreken
utbro
utbu
utdacht
utdehnen
utdehnt
utdragen
utdro
utdru
utdruck
utdu
ute
utenanner
uteneen
utermatig
utfa
utfallen
utfinnen
utfinner
utfo
utforschen
utforscht
utfu
utfunnen
utgaav
utgahn
utgang
utgangspunkt
utgave
utgaven
utgeiht
utgeven
utgleeken
utgleken
utgliek
utglieken
utgraven
uthleer
uthollen
utklamu
utkniepen
utkrapen
utkunft
utkunnt
utla
utlaaten
utland
utleggen
utleggt
utlehnt
utlevert
utlo
utlopen
utmaakt
utmaat
utmaken
utmeten
utnahm
utnahmen
utnanner
utnannersetten
utneihn
utneiht
utnu
uto
utopie
utpeddt
utplu
utpra
utprobeert
utrecht
utrecken
utreckend
utreken
utrekent
utricht
utrichten
utropen
utru
utsaag
utschalten
utscheden
utscheeden
utscheedt
utschu
utschuss
utseggen
utsehn
utseht
utsett
utsetten
utsicht
utsichten
utslag
utslaten
utslooten
utsmu
utsnackt
utso
utspeelt
utspraak
utspraaken
utspraken
utspunnen
utstaffeert
utstarven
utstatt
utstellen
utstellt
utstellung
utstellungen
utsto
utstorven
utstrahlen
utstrahlt
utstro
utstu
utsu
utteken
uttekend
uttekent
utteknung
utteknungen
uttofo
uttoog
uttreden
uttuusch
uttuuscht
utwa
utwahl
utwannern
utwannert
utwassen
utwiesen
utwiest
utwiet
utwieten
utwirken
utwirkungen
utwussen
uut
uv
uwe
uwg
v
va
vaagdie
vaagdiegericht
vaca
vaccinium
vadder
vader
vaders
vadersnaam
vaderstadt
vagel
vagelnaams
vagels
vagina
vahl
vahlzen
vakuum
val
valde
vale
valea
valencia
valentin
valentine
valentinian
valerie
valerius
valle
valley
valois
value
valverde
van
vanadium
vance
vancouver
vandaag
vandag
vandage
vandagen
vandenhoeck
vane
vanessa
var
varel
varela
vargas
variante
varianten
variatschonen
varieta
varrel
vasallenstaat
vasco
vasconcelos
vaslui
vater
vaterla
vatikan
vaucluse
vaughan
vaughn
vaux
vch
vd
vdlien
vdstadt
ve
vec
vechte
vedder
veeh
veehtucht
veel
veele
veelen
veelzellers
veen
veer
veerdel
veerho
veerhusen
veermal
veermol
veern
veerner
veernermoor
veers
veert
veerte
veerteihn
veertel
veertelfinale
veerten
veertgro
veertig
vega
vegas
vegetatschoon
veh
vehicle
veit
vejle
vekter
vel
vela
velasco
vele
velen
velgu
velsmoor
ven
vena
vende
venedig
venen
venera
venezuela
venter
ventura
venus
ver
vera
veracruz
verafscheed
verafscheedt
verall
veranstalt
veranstalten
veranstaltung
veranstaltungen
verantwoortlich
verantwortlich
verantwortung
verapaz
verapenlicht
verapenlichung
verarbeidt
verarbeit
verarbeiten
verarvt
verb
verba
verbaden
verband
verbandsfunkschona
verbannt
verbayern
verbeden
verbeetern
verbefehlshebber
verben
verbetern
verbetert
verbindung
verbinnen
verbinnt
verbleeven
verbleven
verblick
verbo
verboden
verbot
verboten
verbrechen
verbreden
verbreeden
verbreedt
verbreken
verbreker
verbrekers
verbrennen
verbrennt
verbroch
verbrocht
verbruuk
verbruukt
verbu
verbund
verbunn
verbunnen
verda
verdacht
verdammt
verdampen
verdampt
verdanken
verdauen
verde
verdeckt
verdeelen
verdeelt
verdeenen
verdeenst
verdeenste
verdeensten
verdeenstkru
verdeenstorden
verdeent
verdeffendeert
verdeffenderen
verdelen
verden
verdenen
verdi
verdra
verdrag
verdragen
verdrapen
verdreeven
verdregen
verdreven
verdrieven
verdu
verdun
verdunsten
vere
vereen
vereene
vereenen
vereenigen
vereenigt
vereenigte
vereenigten
vereenigung
vereens
vereent
vereente
vereenten
verehrt
verein
vereinigung
vereins
veren
verena
verenen
verer
verfa
verfaat
verfaaten
verfahren
verfall
verfallen
verfallt
verfamilie
verfassung
verfaten
verfilmen
verfilmt
verflach
verflachen
verfo
verfohren
verfolgen
verfolgt
verfolgung
verfolgungsrennen
verfolgungsweltcup
verfranken
verfu
verga
vergaav
vergahn
vergahnd
vergang
vergangen
vergangenheit
vergeeten
vergeeven
vergeevs
vergeiht
vergeten
vergeven
vergevens
vergifft
vergiften
vergleeken
vergleken
vergliek
vergliekbor
vergliekbore
verglieken
vergliekswies
vergno
vergrellt
vergro
verha
verhaalt
verhaft
verhalen
verhalv
verhand
verhandlungen
verhanneln
verhannelt
verhaupt
verheiraadt
verheiraat
verhinnern
verhinnert
verho
verhollen
verhollt
verhoopt
verhu
verkehr
verkehrt
verkehrte
verkehrten
verkeken
verkieken
verkiekt
verklaart
verklamen
verklaren
verkleedt
verkloort
verkloren
verklort
verknu
verko
verkoop
verkoopen
verkopen
verkreisdirekter
verku
verl
verla
verlaat
verlaaten
verlag
verlagert
verlags
verlagsbuchhandlung
verlagsgesellschaft
verlang
verlangen
verlangt
verlaren
verlaten
verlauf
verleden
verleefern
verleefert
verleeft
verleegen
verleehn
verleeht
verleep
verleert
verleesen
verleevt
verleger
verlegerin
verleggen
verlegger
verleggt
verlehen
verlehnt
verleht
verleren
verlett
verletzt
verletzung
verleven
verlevende
verlevenden
verlevert
verlevertdictionary
verliga
verlo
verloop
verloopen
verloopt
verlopen
verlor
verloren
verlorene
verlorengahn
verlu
verlust
verluste
verlusten
verma
vermeentlich
vermehren
vermehrt
vermeschacht
vermeten
vermiddeln
vermiddelt
vermischt
vermisst
vermissthttp
vermittlung
vermo
vermoden
vermodt
vermont
vermoodt
vermoot
vermootlich
vern
vernahm
vernahmen
verne
verneeland
verneelt
vernehm
vernehmen
vernehmt
vernicht
vernichtung
vernimmt
vernommen
vernon
vernu
vernunft
vero
verona
veronica
veronika
veroordeelt
veroorsaakt
verordeelt
verordnung
verordnungen
verornt
verpalz
verpass
verpasst
verplicht
verpru
verraat
verraden
verraschen
verraschend
verrascht
verrat
verregional
verresten
verrier
verru
verrund
vers
versailler
versailles
versammeln
versammelt
versammlung
verschaven
versche
verscheden
verschedene
verschedenen
verscheeden
verscheedene
verscheel
verscheelt
verschelen
verschen
verschollen
verschreeden
verschu
verschullen
verschuss
verschuven
verschwo
verse
versee
verseggt
versehen
versehn
versen
versenkt
versett
versetten
versetter
versetterin
versicht
versiedelt
versiet
version
versionen
versmo
verso
versoch
versocht
versorgen
versorgt
versorgung
verspraken
verspreken
verst
versta
verstahn
verstaht
verstand
verste
versteek
verstehen
versteiht
versteken
versten
versto
verstu
verstunn
versu
versuch
verswinnen
verswo
verswunnen
vert
verteidigen
verteidiger
verteidigt
verteidigung
vertell
vertellen
verteller
vertelln
vertellsel
vertellsels
vertellt
vertigo
verto
vertogen
vertreden
vertreder
vertreders
vertredungswies
vertreeden
vertroot
vertu
verunglu
verunreinigen
verve
verwachen
verwacht
verwachten
verwalt
verwalten
verwalter
verwaltung
verwaltungs
verwaltungsbeamten
verwaltungsdeenst
verwaltungsgemeenschop
verwaltungsgemeinschaften
verwaltungsgeschicht
verwaltungsjurist
verwaltungsrebeed
verwaltungsreform
verwaltungssaken
verwandt
verwandte
verwandten
verwannelt
verweddern
verweegend
verwegend
verwendet
verwennen
verwennt
verwesseln
verwesselt
verwickelt
verwiegert
verwiesen
verwiest
verwinnen
verwintern
verwo
verwunnen
verwunnt
very
verzeichnis
verzicht
verzichten
ves
vesack
vesta
vestre
veterina
vfb
vfl
vfr
vgl
vi
via
viana
viareggio
vibraphon
vic
vicente
vickers
vicomte
victor
victoria
victory
video
videoku
videos
vie
viehland
viejo
viel
vieland
viele
vienna
vienne
vier
vierden
vietnam
vietnamkrieg
vieux
view
viewer
viez
viezadmiraal
viezkanzler
viezko
viezmeester
viezpra
viezweltmeester
vigelett
vigelien
vigelienspeler
vigelienspelerin
vii
viii
viktor
viktoria
viktorialand
viktoriasee
vila
vilaine
villa
village
villanueva
villard
villars
ville
villeneuve
villers
villicht
villiers
vilsen
vin
vince
vincennes
vincent
vincenzo
vinson
vinyl
viola
violine
violinist
violoncello
viren
virgil
virgin
virginia
viroloog
virus
vis
vischer
viscount
vision
viskosita
visselho
visser
vist
vista
visuelle
vita
vitamin
viti
vito
vitro
vittorio
vitus
viva
vivaldi
vivian
vlaanderen
vladimi
vladimir
vn
vo
voda
vogel
vogl
vogt
voice
voigt
voigtding
vokal
vokalen
vol
volk
volkens
volker
volkmar
volkmarst
volks
volksbank
volksgerichtshoff
volksgrupp
volksgruppen
volkskark
volkskundler
volkskunn
volksmusik
volkspartei
volksrepubliek
volksrepublik
volksschool
volkswagen
volksweert
volksweertschopper
voll
vollard
vollerso
volleyball
volleyballspeler
volleyballspelerin
vollmer
vollsta
volltext
volta
voltaire
volume
volumen
vom
von
vondaag
vonwegen
voor
vor
vorarlberg
vorbi
vordem
vorga
vorkamen
vorlage
vorstand
vorwark
vorwesers
vos
vosges
vosloog
voss
vosshusen
voyage
voyager
voß
vrancea
vre
vres
vries
vs
vt
vten
vu
vuelta
vulkaan
vulkaansch
vulkaansche
vulkan
vulkanen
vulkanismus
vull
vulle
vullkamen
vullkommen
vullmaand
vullsta
vun
vund
vundaag
vundagen
vundeswegen
vunenanner
vunn
vunt
vunwegen
vvd
vw
vy
w
wa
waadt
waag
waagrecht
waak
waakhusen
waals
waar
waarn
waart
waarten
waaschen
wab
wabash
wachholt
wachholtz
wacht
wachter
wade
wadsworth
waffen
wagen
wagner
wahl
wahlberechtigten
wahlen
wahlgang
wahlkamp
wahlkreis
wahlkreise
wahlkreisnummer
wahlma
wahlperiood
wahlrecht
wahlsieg
wahlspro
wahn
wahnen
wahnhu
wahnhuus
wahnoort
wahnsitt
wahnsteed
wahnt
wahnung
wahnungen
wahre
wahren
wahrheit
waibel
waigel
wakefield
walcott
wald
walde
waldeck
waldemar
walden
waldhof
waldner
wale
waleri
wales
walk
walker
walku
wall
wallace
wallach
walle
waller
wallho
wallis
wallmann
wallonne
wallraff
wallstein
walnut
walsh
walt
walter
walther
walton
walzer
wand
wanda
wandalen
wandel
wandlu
wandluus
wang
wangersen
wanho
wann
wanneer
wannehr
wannel
wannelt
wannen
wanner
wannern
wannert
want
wapen
wapens
wapenschild
wapenstillstand
wappen
war
warburton
ward
warden
warder
wardt
waren
warf
warft
warften
wark
warke
warken
warkstoff
warkstoffen
warkt
warktu
warm
warme
warmer
warms
warncke
warner
warr
warren
warrior
warriors
warrn
warrt
wars
warschau
warschauer
warstood
wart
warum
warveldeerten
warveldeerter
warvellose
warwick
warwickshire
was
waschen
wash
washburn
washington
wasra
wass
wassdom
wassen
wasser
wassermann
wassili
wassiljewitsch
wasst
wat
watch
water
waterball
waterballspeler
waterboinscheno
waterdamp
waterfa
waterfall
waterford
watergate
waterhouse
wateries
waterige
waterkant
waterkroog
waterlo
waterloo
waterloop
watermo
waterplanten
waters
waterscheed
waterspringer
waterspringerin
waterstoff
waterstoffatomen
waterstoffbrennen
watkins
watson
watt
wattenmeer
watts
wattsche
waugh
wave
wawrinka
way
wayne
wdr
we
weather
weaver
web
webb
weber
weblenk
weblenken
weblenks
weblinks
webpra
webseite
websiet
website
websteden
websteed
webster
wecke
wecken
wedder
weddergeven
wedderhalen
wedderkamen
weddersta
wedderstand
wedderstandska
wedderum
weddervereenigen
wedderwa
wedderwahl
weddewarden
wedel
wedemeier
wedemeyer
weder
wee
weeg
weegt
weeht
week
weekdeerter
weeken
weekenenn
weeks
ween
weener
weer
weerdictionary
weeren
weerm
weern
weersbe
weert
weerten
weertschap
weertschop
weertschopplich
weertschoppliche
weertschops
weertschopshistoriker
weertschopsmanager
weertschopswetenschopper
weertschopswetenschopperin
weet
weeten
weetfro
weevspinnen
weg
wege
wegen
wegener
weger
wegfullen
weggahn
weglaten
weglopen
wegmaakt
wegmaken
wegnahmen
wegner
wegnommen
wehdaag
wehdel
wehden
wehl
wehldo
wehlen
wehling
wehner
wehnsen
wehr
wehrdeenst
wehrmacht
wehrt
weibel
weiblich
weid
weidemann
weiden
weidenho
weidmann
weidner
weigel
weigl
weih
weiher
weiht
weil
weiland
weiler
weilheim
weimar
weimarer
wein
weinberger
weiner
weinheim
weir
weise
weiss
weit
weiter
weitere
weitz
weizsa
weiß
weiße
weißen
weken
wekenenn
wel
welch
welche
welcome
welk
welke
welker
well
welle
wellen
wellenbalken
wellenlien
weller
wellesley
wellington
wellmann
wells
welt
weltall
weltbild
weltcup
weltcuppunkte
weltcuprennen
weltcups
weltcupsaison
weltcupsieg
weltcupsiege
welten
welter
weltfussball
weltgeschichte
weltkrieg
weltkulturarv
weltlich
weltmeester
weltmeesterin
weltmeesterschap
weltmeesterschapen
weltmeesterschapskamp
weltmeesterschop
weltmeesterschoppen
weltmeestertitel
weltpremiere
weltranglist
weltrangliste
weltrekord
weltruum
weltwiet
wen
wend
wendell
wendepunkte
wendland
wendt
wendy
wenig
wenige
wenigen
weniger
wenigsten
wenn
wennen
wennt
wens
wense
wenzel
wer
werde
werdegang
werden
werder
were
weren
werft
werk
werke
werken
werkstatt
werner
werra
werrn
werrt
werschenreeg
wersebe
werser
wersermasch
wersermu
wert
werte
wertschap
wertschaplich
wertschapliche
wertschaps
wertschapspolitik
wertschapswetenschapen
wertschapswetenschapler
wertung
wertvull
wes
wesel
wesen
wesentlich
wesentliche
wesentlichen
weser
weshalb
wesley
wesleyan
wessel
wesseln
wesselnd
wesselt
wesselwirken
wessely
wessen
wessex
wessloh
west
westafrika
westantarktika
westaustralien
westdu
westen
westens
wester
westerbeek
westerbeverst
westercaadwisch
westerenn
westeresch
westerhamm
westerhoff
westerholt
westerland
westermann
western
westersied
westersood
westertimk
westervees
westerwals
westerwannen
westerweed
westerwisch
westeuropa
westfa
westfalen
westfreesch
westfront
westgo
westgoten
westku
westlich
westliche
westlichen
westminster
westo
weston
westphal
westphalie
westpommern
westrand
westro
westsied
weten
wetenmo
wetenschap
wetenschapen
wetenschapler
wetenschaplich
wetenschapliche
wetenschop
wetenschopliche
wetenschoplichen
wetenschoppen
wetenschopper
wetenschoppers
wetenschoppler
wetenschopplers
wetenschopplich
wetenschoppliche
wetenschopplichen
wetenschopshistoriker
weth
wett
wettbewarf
wettbewarfen
wetter
wetterdiek
wettern
wetterndo
wettka
wettkamp
wettstrieden
wettstriet
wetzel
wetzen
wever
weyden
weyerbarg
weyermoor
weyhe
wg
wharton
what
wheeler
whelan
when
where
which
whigs
whipple
whisky
whiskybrenneree
whiskylexikon
whiskymarke
whiskyrebeet
whiskys
whitaker
whitbread
white
whiteman
whiting
whitley
whitman
whitney
whittaker
who
why
wi
wia
wibbelt
wiberg
wichita
wichmann
wichtig
wichtige
wichtigen
wichtiger
wichtigst
wichtigste
wichtigsten
wider
widerstand
widmann
widmet
width
wie
wiebe
wiebelsheim
wiebke
wiechert
wieck
wieczorek
wied
wiedau
wieden
wieder
wiedere
wiederen
wiederfo
wiederfu
wiedergeven
wiederhen
wiederhenn
wiedspringer
wiegand
wiegersen
wiegert
wiehbischop
wiehnachten
wiehnachtsmarkt
wieht
wieken
wiekt
wiel
wieland
wieldat
wieldes
wiels
wien
wiener
wiens
wiepenkathen
wier
wierer
wiersdo
wiertzen
wies
wiesbaden
wiese
wiesen
wiesinger
wiest
wiet
wiete
wieten
wieter
wietere
wieteren
wieterfo
wietergahn
wietergeven
wieterhen
wietermaakt
wietgahnd
wiethen
wietlo
wietsten
wievlich
wife
wight
wiki
wikidata
wikinger
wikingers
wikipedia
wiktor
wiktorowitsch
wilbur
wilczek
wild
wilde
wilden
wilder
wildlife
wildnis
wiley
wilfred
wilfried
wilhadi
wilhelm
wilhelmina
wilhelmine
wilhelms
wilhelmshaven
wilke
wilken
wilkens
wilkes
wilkesland
wilkins
will
willard
wille
willehad
willehadi
willem
willems
willemsborg
willemshaven
willen
willi
william
williams
williamson
willibald
willie
willing
willis
willow
wills
willy
wilmington
wilmot
wilms
wils
wilson
wilst
wiltshire
wim
wimbledon
wimmer
win
winchester
wind
winde
windhuk
winding
windmo
window
windows
windpark
windra
windsor
winfield
winfried
wing
wingfield
wingst
winkel
winkeldo
winkler
winnen
winner
winners
winnipeg
winnt
winona
winsen
winston
wintemaur
winter
winters
wintersemester
winterspelen
winton
winzendo
wir
wirbellose
wird
wirken
wirklich
wirklichkeit
wirkt
wirkung
wirth
wirtschaft
wirtz
wisch
wischen
wischhoben
wischhobener
wisconsin
wise
wiseman
wismer
wismut
wiss
wissen
wissenschaft
wissenschaften
wissenschaftliche
wist
wisting
witali
with
witherspoon
without
witsch
witt
witte
witten
wittenbarg
wittenberg
wittenmoor
wittfru
wittgenstein
wittkopsbossel
wittloh
wittmund
wittmunder
witto
wittruss
wittrussisch
wittrussland
wittst
witz
witzleben
wk
wladimir
wladimirowitsch
wm
wo
woans
wobi
wochenblatt
wodo
wofo
wohl
wohlenbeek
wohlers
wohlstand
wohlthatmassiv
wohltho
wohnen
wohnt
wohr
wohre
wohren
wohrhaftig
wohrheit
wohrnahmen
wohrnehmen
wohrnommen
wohrschau
wohrschienlich
wohrschienlichkeit
wohrt
wohrteken
woiwodschop
wokeen
wolf
wolfe
wolff
wolfgang
wolfram
wolga
wolkow
woll
wollen
woller
wolljes
wollte
wolsbuddel
wolter
woltern
womack
woman
women
womit
won
wona
wonder
wonderland
woneem
wonnehr
woo
wood
woodrow
woods
woodstock
woodville
woodward
woody
woold
woolden
woolf
woonst
woor
woord
woorn
woort
wor
worbi
worcester
word
worde
worden
woren
work
works
workshop
world
worms
worn
worop
worophen
worpheim
worphusen
worpsweed
worr
worraftig
worrn
wort
worte
wortfleet
worth
wortmann
woru
worup
worut
would
woveel
wovun
wp
wrack
wrangel
wrede
wreem
wremen
wrestler
wrestlerin
wright
wrong
wta
wu
wuddel
wuddeln
wuddels
wulf
wulfenbu
wulff
wulfsborg
wulfsen
wulk
wulken
wull
wullen
wulln
wullt
wulmsdo
wulsdo
wunder
wunderlich
wunn
wunnen
wunner
wunsch
wunsdo
wupperdaal
wur
wurd
wurde
wurden
wurn
wurr
wurrd
wurrn
wurrr
wursten
wuss
wussen
wusten
wuster
wuur
www
wyatt
wyler
wyman
wyneken
wynton
wyoming
x
xaver
xavier
xc
xd
xe
xen
xenon
xf
xi
xico
xii
xiii
xiv
xt
xter
xv
xvi
xvii
xx
xxii
xxiii
y
ya
yalbac
yale
yamazaki
yang
yangon
yates
year
years
yellow
yi
yo
yoko
yonne
york
yorker
yorkshire
yoro
you
young
your
youth
youtube
yu
yucata
yukon
yvelines
yves
yvon
yvonne
z
za
zacapa
zacatecas
zach
zacharias
zachary
zagreb
zahlen
zahn
zanne
zapata
zar
zaren
zaro
zdf
ze
zealand
zeche
zedong
zee
zees
zef
zehn
zeichen
zeichnungen
zeigt
zeilinger
zeiss
zeit
zeiten
zeitgeschichte
zeitler
zeitschrift
zeitung
zeitungen
zell
zellbiologie
zellen
zeller
zellkarn
zellmembran
zellstoff
zellula
zellweger
zement
zementwark
zen
zenin
zeno
zensur
zensus
zentimeter
zentraal
zentraalafrikaansche
zentral
zentrale
zentralen
zentralnervensystem
zentren
zentrum
zentrumspartei
zer
zeremonie
zeremonien
zersto
zeus
zeven
zevener
zhang
zie
ziegler
ziel
zikaden
zimmer
zimmerman
zimmermann
zink
zio
zion
zirkon
zist
zit
zitat
zitate
zitaten
ziteert
zitiert
zittens
zivil
zivile
zivilen
zivilisten
zkark
zo
zoarn
zola
zone
zonen
zoo
zoologie
zooloog
zoon
zoot
zoran
zorn
zquez
zt
ztabell
zte
ztog
zu
zucker
zuckerrohr
zug
zugeho
zugleich
zukertort
zukunft
zulu
zum
zung
zur
zuru
zusammen
zusatzzeichen
zwar
zwarte
zweck
zwecke
zwei
zweig
zweite
zweiten
zwickau
zwingli
zwischen
zwo
zwolle
zy
zyklus
zylinder
zypern
{
|
}
~
¢
£
§
«
­
®
°
±
²
³
´
µ
·
¹
º
»
½
×
ß
ße
ßel
ßen
ßer
ßig
ßler
ßsche
ßschen
ßt
ßte
ßten
ßtrupp
æ
ærø
ð
÷
ø
østfold
þ
ı
ło
ɛ
ʁ
ʃ
ʒ
ʰ
ʷ
ʻ
ʼ
ʾ
ʿ
ˈ
ˌ
ː
̀
́
̂
̃
̄
̆
̇
̈
̉
̊
̋
̌
̓
̔
̛
̣
̥
̦
̧
̨
̯
̱
͂
͡
α
β
γ
δ
ε
ζ
η
θ
ι
λ
μ
ν
ξ
ο
π
ρ
ς
σ
τ
υ
φ
χ
ω
а
в
е
и
м
о
с
у
і
ا
ّ
ٔ
ा
া
্
​
‎
–
—
‘
’
‚
“
”
„
†
•
…
‪
′
″
‹
›
‿
⁠
€
→
↔
↷
⇒
−
∙
∞
≈
≡
③
④
⑦
─
┌
└
├
◄
♂
⚭
⺀
⺄
⺆
⺈
⺊
⺌
⺕
⺝
⺸
⺼
⿰
⿱
⿲
⿳
⿴
⿵
⿶
⿷
⿸
⿹
⿺
⿻
〢
い
し
た
て
の
゙
ア
ク
コ
シ
ス
ト
ニ
ヘ
ユ
ル
ン
・
ー
㇁
㇂
㇄
㇇
㇈
㇉
㇓
㐁
㐄
㐅
㐌
㐫
㐬
㐭
㐮
㐱
㑒
㒵
㒸
㒼
㓁
㓞
㔾
㕛
㕣
㖾
㘝
㚅
㚇
㚔
㚘
㝉
㝡
㝴
㝵
㞋
㞢
㞷
㠩
㠭
㠯
㡀
㡭
㡿
㢲
㢴
㣇
㣺
㥯
㪅
㫄
㫐
㫒
㫺
㬅
㬎
㬥
㬰
㲋
㳄
㷠
㸒
㸚
㸦
㼌
㼲
㽞
㿟
䀠
䂞
䍃
䏍
䒑
䖍
䖒
䖝
䖵
䙴
䚻
䜌
䝿
䡛
䧹
䪞
一
丁
丂
七
丄
丅
丆
万
丈
三
上
下
丌
不
与
丏
丐
丑
专
且
丕
世
丘
丙
业
东
丞
丢
丣
两
严
並
丨
丩
个
丫
丬
中
丮
丰
丱
串
丵
丶
丷
丸
丹
为
主
丽
丿
乀
乂
乃
久
乆
乇
么
义
之
乌
乍
乎
乏
乐
乑
乔
乖
乗
乘
乙
乚
乛
乜
九
乞
也
习
乡
乳
乾
亀
亅
了
亇
予
争
事
二
亍
于
亏
亐
云
互
亓
五
井
亘
亚
亜
亞
亟
亠
亡
亢
交
亥
亦
产
亨
亩
享
京
亭
亮
亯
亰
亲
亳
亶
亷
人
亻
亼
亾
仁
今
介
仌
从
仐
仑
仒
仓
仕
他
付
仝
代
令
以
任
企
伊
伏
伐
休
会
伯
但
位
何
佘
余
作
佥
使
來
侈
侌
侖
侯
侵
便
保
俞
信
修
倉
倍
候
倠
備
僉
僕
儿
兀
允
兂
元
兄
充
兆
兇
先
光
兊
克
兌
免
兑
兒
兓
兔
党
兜
兟
入
全
兩
兪
八
公
六
兮
兰
共
关
兵
其
具
典
兹
兼
冀
冂
冃
冄
内
冈
冉
冊
冋
册
再
冎
冏
冐
冒
冓
冖
冗
冘
军
农
冝
冡
冥
冫
冬
冷
几
凡
凢
凵
凶
凷
凸
凹
出
函
凾
刀
刁
刂
刃
刄
刅
分
切
刍
刑
刕
刖
列
刘
则
初
別
利
别
到
制
刺
則
削
剌
前
剡
剽
劉
力
功
加
劦
助
劫
劳
劵
勃
勇
勉
勒
動
務
勞
勤
勹
勺
勻
勾
勿
匀
匂
包
匆
匈
匊
匋
匍
匕
化
北
匚
匝
匡
匪
匱
匸
匹
区
医
匽
匿
區
十
卂
千
卄
卅
卆
升
午
卉
半
卌
华
卑
卒
卓
单
卖
南
卜
卝
卞
占
卡
卢
卣
卤
卦
卩
卪
卬
卯
印
危
即
却
卵
卷
卸
卻
厂
厃
厄
历
厈
厉
厌
厓
厘
厚
原
厤
厥
厨
厭
厲
厶
厷
厸
去
厼
厽
叀
参
參
叅
又
叉
及
友
双
反
叐
发
叒
叔
叕
取
受
叚
叜
叟
口
古
句
另
叩
只
召
可
台
叱
史
右
叵
号
司
叹
吂
各
吅
合
吉
吊
吋
同
名
后
吏
向
吕
君
吝
吞
否
含
启
吳
吴
吹
吾
呂
呆
呈
告
员
呙
周
命
咅
和
咎
咠
咢
咨
咸
咼
哀
品
哉
員
哥
哲
唐
商
啇
問
啚
啬
啻
善
喜
喬
單
喿
嗇
噩
嚴
囊
囗
囘
囙
囚
四
回
囟
因
囧
囬
困
囱
囷
固
国
圂
圅
國
圍
圓
土
圡
圣
圥
在
圭
地
圶
圼
坐
坒
坚
坴
垂
垔
垚
埀
埋
城
域
埶
執
基
堂
堅
堆
堇
堯
塞
墨
壘
士
壬
壯
声
壳
壴
壹
壺
壽
夂
处
夅
夆
备
夊
夋
夌
复
夏
夒
夕
外
夗
夘
多
夜
夢
大
夨
天
太
夫
夬
夭
央
失
夲
头
夷
夸
夹
夻
夾
奂
奄
奇
奈
奉
奎
奏
奐
契
奓
奔
奚
奞
奠
奢
奥
奭
女
奴
奻
好
如
妄
妙
妟
妥
妻
妾
姑
委
姜
威
娄
婁
婴
嬰
嬴
子
孑
孔
孕
孖
字
存
孚
孛
孝
孟
季
孤
学
孫
孱
學
宀
宁
宂
它
宅
宇
守
安
宋
完
宏
宓
宗
官
定
宛
宜
宝
客
宣
室
宮
宰
害
家
容
宾
宿
寄
寅
密
富
寒
察
寧
審
寫
寬
寮
寸
对
寺
寻
寽
対
寿
封
尃
射
将
將
專
尉
尊
尋
尌
對
小
少
尒
尓
尔
尖
尗
尚
尞
尢
尣
尤
尧
尨
尭
就
尸
尹
尺
尻
尼
尽
尾
尿
局
居
屈
屋
屎
屏
屑
展
屖
屚
属
屠
屡
屬
屮
屯
屰
山
屵
屾
岁
岂
岑
岡
岩
岳
岸
峯
島
崇
崎
崑
崔
崖
崙
崩
嵬
嶲
巂
巛
川
州
巟
巠
巢
巤
工
左
巧
巨
巩
巫
差
己
已
巳
巴
巷
巸
巽
巾
巿
帀
市
布
希
帚
帛
帝
带
師
席
帶
常
干
平
年
幵
并
幷
幸
幹
幺
幻
幼
幽
幾
广
広
庄
床
底
店
庚
府
度
庫
庭
庶
康
庸
廉
廌
廛
廣
廩
廴
延
廷
建
廾
廿
开
弁
弃
弄
弇
弋
式
弓
弔
引
弗
弘
弜
弟
弥
弦
弱
張
強
强
彊
彌
彎
彐
彑
当
彔
录
彖
彗
彡
形
彥
彦
彧
彭
彳
役
彼
往
待
律
徒
得
徙
從
復
微
徵
德
心
忄
必
忌
忍
志
忝
忠
忩
快
念
忽
忿
思
怠
急
怱
恆
恒
恩
恭
息
悉
患
悤
悲
悶
惠
惡
惢
愁
愈
意
愛
感
慈
慧
慮
憂
憲
應
戀
戈
戉
戊
戋
戌
戍
戎
成
我
戒
戔
或
戚
戠
戢
截
戲
戶
户
戹
戼
戾
房
所
扁
扇
手
扌
才
打
托
执
承
折
拉
拜
拿
掌
推
提
摩
支
攴
攵
收
攸
改
放
政
敄
敏
敕
敖
敗
敝
敞
敢
散
敦
敫
敬
数
敷
數
斂
文
斉
斊
斗
斤
斥
斩
斬
斯
新
方
於
施
斿
旁
旅
旋
族
无
旡
既
旣
日
旦
旧
旨
早
旬
旱
旲
时
旾
昆
昇
昌
昍
明
昏
易
昔
昗
昜
星
春
昬
是
昱
昴
昷
時
晃
晋
晏
普
景
晶
智
暑
暴
曇
曩
曰
曲
曳
更
曷
書
曹
曼
曾
替
最
朁
會
月
有
朋
服
朔
朕
朗
望
朝
木
朩
未
末
本
札
朮
术
朱
朵
朶
朿
杀
杏
杜
束
条
来
東
杲
杳
松
析
林
枚
果
枝
枲
枼
柏
某
柔
查
柬
柰
柴
栗
桀
桑
桼
梁
條
梟
梨
棘
棠
棥
森
楚
業
楽
榮
樂
樊
欠
次
欣
欮
欲
欶
欽
款
歆
歇
歛
止
正
此
步
武
歨
歪
歮
歯
歰
歲
歴
歷
歸
歹
歺
死
殳
段
殷
殸
殹
殺
殻
殿
毋
毌
母
每
毒
比
毕
毚
毛
毳
氏
氐
民
气
氣
水
氵
氶
氷
永
氺
氾
求
汝
汞
江
沃
沓
沙
沝
泉
法
波
泣
泥
泰
泽
洛
洞
津
洪
活
派
流
浦
浪
浮
海
淡
淮
清
渚
渠
湯
滿
漸
火
灬
灭
灰
灵
灷
炅
炎
炏
炗
炙
炭
為
烈
烏
烝
焉
無
焦
焱
然
煞
熊
熏
燕
營
燮
爪
爫
爭
爯
爰
爱
爲
爵
父
爻
爽
爾
爿
片
牙
牚
牛
牜
牟
牢
牧
牪
牽
犀
犬
犭
犮
狂
狄
狊
独
狺
猋
猒
猪
献
獻
玄
率
玉
王
玟
玨
珎
班
琴
瑟
瑩
瓜
瓦
甘
甚
生
産
用
甫
甬
田
由
甲
申
电
甶
男
甸
甹
画
甾
畀
界
畏
畐
留
畜
畟
畢
畧
畨
番
畫
異
畱
當
畺
畾
疊
疋
疌
疑
疒
疾
癶
癸
癹
登
發
白
百
皀
皃
的
皆
皇
皋
皐
皕
皮
皷
皿
盃
盆
盇
盈
益
盍
盎
监
盒
盖
盛
盡
監
盤
盧
目
直
相
盾
省
眇
眉
看
眔
眞
真
眷
眼
眾
着
睘
睪
睿
瞏
瞢
瞿
矍
矛
矞
矢
矣
知
矦
短
石
破
碎
磊
磐
磨
示
礻
礼
社
祟
票
祭
禀
禁
禸
禹
禺
离
禽
禾
禿
秀
秃
秉
秋
科
秝
秦
移
稟
穀
穌
穴
究
穹
空
穿
突
窄
窒
立
竒
竜
竝
竟
章
童
竹
笑
笠
筆
等
答
箕
算
箴
節
篤
篭
米
粉
粛
粟
粤
粦
粲
糞
糸
糹
系
約
納
素
索
紫
累
細
絜
絫
絲
維
綿
線
縣
繇
纍
纟
缶
网
罒
罔
罕
罗
罙
罡
罢
罪
署
罷
羅
羊
羌
羍
美
羔
羕
羗
羞
羡
羣
群
義
羲
羸
羽
翁
翏
習
翕
翟
翠
翼
老
耂
考
者
耆
而
耎
耑
耒
耳
耴
耶
耷
聂
聊
聖
聚
聶
聿
肀
肃
肅
肉
肖
肙
肥
肩
肯
育
肴
胃
背
胡
胥
能
脊
脩
膚
臣
臤
臧
自
臬
臭
臯
臱
至
致
臺
臼
臽
臾
臿
舀
舂
舄
與
興
舉
舌
舍
舛
舜
舞
舟
般
艮
良
色
艸
艹
艾
芒
芔
芬
芮
花
芳
芺
芻
苔
苗
苟
若
苦
英
茶
茸
荅
草
荒
荣
荼
莆
莧
莫
莽
菆
菊
菐
華
萬
落
葉
著
葛
董
葵
蒙
蒦
蒼
蓋
蓬
蓺
蔑
蔡
蕉
蕭
薄
薛
薦
薰
藍
藏
藥
蘭
虍
虎
虐
虒
虔
處
虖
虗
虘
虚
虛
虜
虞
虫
虽
蚤
蚩
蜀
蜜
蟲
蠡
血
行
衍
衛
衣
衤
表
衮
衰
袁
袞
褭
褱
襄
襾
西
覀
要
覃
見
規
覓
覧
親
覽
见
角
解
言
訁
訇
計
詹
誩
諸
讠
谷
豆
豈
豊
豐
豕
豖
豙
象
豦
豩
豪
豸
貇
貝
貞
貟
負
貢
貧
貪
貫
責
貳
貴
買
費
賁
資
賈
賏
賓
賔
賛
賞
賢
賣
質
賴
贊
贝
贡
责
贯
贲
贵
赖
赞
赤
赦
走
越
足
路
蹇
身
躬
車
軍
軎
軟
輦
车
辛
辜
辟
辥
辰
辱
農
辵
辶
边
达
过
近
连
迷
追
退
送
逆
逐
通
速
造
逢
連
逮
進
遀
遂
過
道
達
遣
適
遷
遺
邊
邑
邕
那
邦
邪
郎
郡
部
郭
都
鄉
酉
酋
配
酓
釆
采
里
重
野
量
金
釒
錢
钅
镇
長
镸
长
門
閃
閉
開
閏
閑
閒
間
閔
閵
閻
闌
门
间
闷
阑
阜
阝
阿
降
陳
隆
隊
隋
隡
隨
隱
隶
隹
隺
隻
隼
隽
难
雀
雁
集
雈
雋
雍
雐
雔
雙
雚
雜
雝
離
難
雨
雩
雪
雲
零
雷
需
霍
霜
霝
霞
霸
靈
靑
青
非
靡
面
靣
革
韋
韦
韭
韯
韱
音
頁
頃
項
須
頗
頡
頻
顛
页
風
风
飛
飞
食
飠
養
饣
首
香
馬
馮
駦
马
骨
高
髟
鬥
鬯
鬲
鬼
魚
魯
鮮
鱼
鲁
鳥
鳳
鸟
鹵
鹿
麃
麗
麥
麦
麻
黃
黄
黍
黎
黑
黒
黨
黹
黽
黾
鼎
鼓
鼠
鼻
齊
齋
齐
齒
齿
龍
龙
龜
龟
龠
龰
龱
龴
龵
龶
龷
龸
龹
者
艹
？
𠀁
𠀃
𠀆
𠀉
𠀎
𠀐
𠁁
𠁣
𠂆
𠂇
𠂈
𠂉
𠂊
𠂋
𠂎
𠂒
𠂔
𠂛
𠂡
𠂢
𠂤
𠂬
𠂭
𠂹
𠃊
𠃋
𠃌
𠃍
𠃎
𠃑
𠃓
𠃔
𠃜
𠄌
𠄎
𠄠
𠄢
𠆢
𠆥
𠇍
𠈌
𠌵
𠓜
𠔉
𠔥
𠔼
𠔽
𠔿
𠕀
𠕁
𠕋
𠘧
𠘨
𠙻
𠙼
𠚏
𠚒
𠚤
𠚪
𠣏
𠤎
𠤕
𠥓
𠦄
𠦑
𠦝
𠧒
𠧗
𠧪
𠩺
𠪚
𠫓
𠫔
𠫤
𠬛
𠬝
𠬞
𠬢
𠬤
𠬶
𠮛
𠮦
𠮷
𠯑
𠱠
𠳮
𠷎
𡈼
𡉀
𡉵
𡌥
𡍮
𡏳
𡕒
𡕩
𡕰
𡖅
𡗗
𡗜
𡘆
𡘤
𡧱
𡨄
𡩧
𡬠
𡭽
𡰣
𡰥
𡰪
𡰯
𡰱
𡷈
𡸁
𡿨
𡿩
𡿪
𡿺
𢀖
𢀛
𢀩
𢁙
𢆉
𢆰
𢆶
𢇁
𢇇
𢉖
𢌬
𢌿
𢏚
𢑑
𢑚
𢖻
𢙣
𢛳
𢦏
𢦒
𢧵
𢼄
𢾕
𣁋
𣄼
𣅀
𣅽
𣍘
𣎳
𣎵
𣏋
𣏼
𣗥
𣥂
𣥖
𣦵
𣦼
𣧄
𣪊
𣪠
𣬉
𣳾
𣶒
𤇾
𤊽
𤐫
𤓰
𤔔
𤕨
𤣩
𤰇
𤰔
𤰞
𤴓
𤴔
𤽄
𥁑
𥁕
𥃦
𥃩
𥃭
𥇡
𥑟
𥘅
𥘈
𥝢
𥫗
𥱡
𦈢
𦉪
𦉬
𦉼
𦍌
𦍒
𦎧
𦐇
𦓔
𦔮
𦘒
𦙃
𦚏
𦣝
𦣞
𦣻
𦥑
𦥔
𦥯
𦨉
𦭝
𦰩
𧆞
𧈧
𧘇
𧰨
𧴪
𧴮
𧵩
𧾷
𨸏
𨾴
𩙿
𩠐
𩫏
𩵋
𪉷
𪜀
𪟽
𪠲
𪩲
𫇦
𫔭
𫜸
𫝀
𫠣
𫠩
𫢉
𫥞
𫩏
𫩠
𫪡
𫲽
𫶧
𬀷
𬐘
𬗌
𬙙
𬛸
𬜯
𬟩
𬯁
𬴘
𬺻
𬼉
𬼖
𭀰
𭁈
𭁨
𭅰
𭑈
𭕄
𭗼
𭤨
𭥫
𭻾
𮅕
𮊿
𮍌
𮍏
𮓗
𮥼
𮧮
廾
𰀁
𰀄
𰀈
𰀉
𰀕
𰀠
𰀡
𰀢
𰀪
𰁜
𰃮
𰆊
𰆘
𰋙
𰕎
𰢴
𰧭
𰯲
000--
01--
010--
017--
019--
02--
03--
04--
05--
06--
07--
08--
09--
136--
53--
71--
79--
81--
82--
83--
85--
86--
87--
88--
89--
90--
92--
923--
929--
93--
930--
935--
936--
937--
94--
980--
a--
aa--
aadl--
aaft--
aal--
ab--
abe--
abend--
abra--
abs--
absol--
ac--
acce--
ace--
ach--
acht--
achter--
acker--
act--
action--
ad--
adams--
adapt--
addit--
ade--
adel--
adje--
admini--
ae--
aemi--
af--
afd--
afer--
aff--
affu--
afghaans--
afha--
afk--
afro--
afsch--
afto--
aftos--
afwi--
ag--
agre--
ah--
ahe--
ahl--
ahn--
ai--
aig--
aimb--
air--
ak--
akade--
akko--
akkret--
al--
ala--
alb--
alde--
alek--
alem--
ales--
alf--
alger--
algo--
ali--
alka--
alkohol--
all--
aller--
alma--
alpen--
alpha--
alpin--
als--
alt--
alten--
am--
amateur--
amaz--
ambit--
ame--
ami--
amphi--
amt--
amtsin--
an--
ana--
analy--
anbau--
anc--
and--
ander--
anek--
anfangs--
anfo--
ang--
ange--
anhy--
ani--
anima--
aniso--
anla--
ann--
anne--
anom--
ans--
ant--
anth--
anti--
antisemit--
anto--
ao--
apen--
api--
apo--
apostool--
app--
apparte--
appen--
applicat--
apt--
apu--
aqua--
ar--
ara--
arc--
archi--
are--
arent--
argu--
ari--
aristok--
arka--
arm--
armbru--
armee--
arnh--
arns--
ars--
arsen--
art--
artikulat--
arv--
arz--
as--
asch--
asche--
ash--
asiaat--
asp--
ass--
assistenz--
assozie--
assy--
astro--
at--
aten--
atmosp--
atom--
atten--
attrak--
attrakt--
au--
audio--
auf--
auk--
aus--
ausge--
auto--
außen--
außer--
av--
ax--
ay--
aya--
ayth--
az--
aß--
b--
ba--
baad--
baas--
bab--
bac--
bach--
back--
bad--
bag--
bagen--
bahn--
bail--
bakt--
bal--
ball--
bam--
ban--
band--
bank--
bar--
barg--
bargbo--
barium--
bark--
barnk--
barock--
bart--
bas--
base--
basis--
bask--
baski--
bass--
bat--
bata--
batten--
bau--
baum--
bay--
baz--
bb--
bbe--
bc--
be--
bean--
beau--
bec--
beck--
bede--
bedro--
bee--
beek--
been--
beer--
beg--
begl--
beha--
behinnerten--
bei--
beinflu--
beinh--
bek--
bel--
belg--
bell--
belle--
ben--
benah--
bent--
ber--
berg--
bern--
bes--
beschi--
beset--
besich--
beso--
bess--
best--
bestra--
besu--
bet--
beta--
betei--
beton--
betra--
beu--
beut--
bewa--
beweg--
bewer--
bey--
bezeich--
bi--
biathlon--
bibel--
bibl--
biblio--
bick--
bidd--
bie--
bier--
big--
bild--
bill--
biller--
bin--
binnen--
binner--
bio--
biograf--
bird--
birk--
bis--
bit--
bito--
bja--
bje--
bjø--
bl--
bla--
blatt--
blau--
ble--
blei--
bles--
blick--
blie--
blitz--
blo--
blog--
blood--
bloot--
blu--
blue--
blues--
blume--
blut--
bly--
bn--
bo--
boa--
boarb--
bob--
bock--
bod--
bodden--
boden--
bohr--
bok--
bol--
boll--
bomb--
bomben--
bon--
bonn--
boo--
book--
boom--
boot--
bop--
bor--
borch--
bord--
borg--
borger--
born--
bos--
boss--
bost--
botan--
botsch--
bott--
bou--
bow--
box--
boy--
boß--
br--
bra--
bram--
brand--
brau--
bre--
breef--
bregen--
breit--
breiten--
brems--
brenn--
brett--
bri--
brig--
briga--
bro--
brod--
brom--
brook--
bru--
bruch--
brun--
bruun--
bry--
brø--
bs--
bu--
buch--
buck--
bud--
buena--
buer--
buern--
bug--
buko--
bul--
bulg--
bull--
bun--
bund--
bundes--
bunds--
bundsg--
bundsver--
bunt--
bur--
burck--
burg--
burk--
bus--
but--
buten--
butenir--
butt--
buuk--
buur--
buurn--
buy--
by--
c--
ca--
cag--
cal--
calab--
camb--
camp--
can--
cap--
car--
carac--
carl--
cas--
cass--
cat--
cau--
ce--
cer--
ch--
cha--
cham--
chan--
charl--
chd--
che--
chef--
chemie--
chen--
cher--
chi--
chlor--
cho--
chor--
chpe--
chr--
christ--
chron--
chrono--
chry--
chryso--
chst--
cht--
chu--
ci--
ck--
cken--
cker--
cl--
cla--
cle--
clear--
clit--
clo--
clu--
cn--
co--
cocc--
coel--
cog--
col--
cold--
cole--
com--
commo--
commun--
compag--
compo--
compu--
computer--
con--
constitut--
contr--
coord--
cord--
corn--
cos--
cosco--
cou--
coud--
cour--
cow--
cr--
cra--
cre--
crim--
cro--
cron--
crone--
cru--
cs--
cu--
cum--
cut--
cuya--
cy--
cya--
cycl--
d--
da--
daak--
daal--
dack--
dae--
dag--
dage--
dagog--
dahl--
dal--
dallm--
dam--
damen--
damp--
dan--
danck--
dank--
dann--
dans--
danz--
dar--
darm--
dart--
das--
date--
daten--
daug--
daup--
day--
db--
dd--
dder--
de--
dece--
deck--
dee--
deel--
deenst--
deep--
deer--
defi--
definit--
dehn--
dei--
deko--
dekorat--
del--
deleg--
delegat--
dem--
demo--
demokrat--
demons--
den--
denk--
depen--
der--
des--
det--
detek--
deter--
deu--
dev--
di--
dia--
diag--
dialekt--
dic--
dick--
did--
die--
diek--
diff--
dig--
dill--
dim--
din--
dio--
diph--
dir--
direkt--
disc--
disk--
disp--
dist--
distribut--
dit--
divis--
dj--
dk--
dl--
[...]
