!
"
#
##0
##1
##10
##11
##12
##13
##14
##15
##16
##17
##18
##19
##2
##20
##21
##22
##23
##24
##25
##26
##27
##28
##29
##3
##30
##31
##32
##33
##34
##35
##36
##37
##38
##39
##4
##40
##41
##42
##43
##44
##45
##46
##47
##48
##49
##5
##50
##51
##52
##53
##54
##55
##56
##57
##58
##59
##6
##60
##61
##62
##63
##64
##65
##66
##67
##68
##69
##7
##70
##71
##72
##73
##74
##75
##76
##77
##78
##79
##8
##80
##81
##82
##83
##84
##85
##86
##87
##88
##89
##9
##90
##91
##92
##93
##94
##95
##96
##97
##98
##99
$
%
&
'
(
)
*
+
,
-
.
/
0
00
000
0000
000000
0001
0002
0003
0004
0005
0006
0007
0008
001
002
01
02
03
04
05
06
07
08
09
1
10
100
1000
101
1016
102
103
104
105
106
107
108
109
11
110
111
112
113
114
115
116
117
118
119
12
120
121
122
123
1234
124
125
126
127
128
129
13
130
131
132
133
134
135
136
1360
137
138
1386
1387
1388
1389
139
1390
1391
1392
1393
1394
1395
1396
1397
1398
1399
14
140
1400
141
142
143
144
145
146
147
148
149
15
150
151
152
153
154
155
156
157
158
159
16
160
161
1615
162
163
164
165
166
167
168
169
17
170
171
172
173
174
175
176
177
178
179
18
180
181
182
183
184
185
186
187
188
189
1897
19
190
1900
1901
1905
1908
191
1910
1911
1912
1913
1914
1915
1917
1918
1919
192
1920
1921
1922
1923
1924
1925
1926
1928
1929
193
1930
1931
1932
1933
1934
1935
1936
1937
1938
1939
194
1940
1941
1942
1943
1944
1945
1946
1947
1948
1949
195
1950
1951
1952
1953
1954
1955
1956
1957
1958
1959
196
1960
1961
1962
1963
1964
1965
1966
1967
1968
1969
197
1970
1971
1972
1973
1974
1975
1976
1977
1978
1979
198
1980
1981
1982
1983
1984
1985
1986
1987
1988
1989
199
1990
1991
1992
1993
1994
1995
1996
1997
1998
1999
2
20
200
2000
2001
2002
2003
2004
2005
2006
2007
2008
2009
201
2010
2011
2012
2013
2014
2015
2016
2017
2018
2019
202
2020
2021
2022
203
204
205
206
207
208
209
21
210
211
212
213
214
215
216
217
218
219
22
220
221
222
223
224
225
226
227
228
229
23
230
231
232
233
234
235
236
237
238
239
24
240
241
242
243
244
245
246
247
248
249
25
250
251
252
253
254
255
256
257
258
259
26
260
261
262
263
264
265
266
267
268
269
27
270
271
272
273
274
275
276
277
278
279
28
280
281
282
283
284
285
286
287
288
289
29
290
291
292
293
294
295
296
297
298
299
3
30
300
3000
301
302
303
304
305
306
307
308
309
31
310
311
312
313
314
315
316
317
318
319
32
320
321
322
323
324
325
326
327
328
329
33
330
331
332
333
334
335
336
337
338
339
34
340
342
343
344
345
346
347
348
349
35
350
351
352
353
354
355
356
357
358
359
36
360
361
362
363
364
365
367
368
369
37
370
371
372
373
374
375
376
377
378
379
38
380
381
382
383
384
385
386
387
388
389
39
390
391
392
393
394
395
397
398
399
4
40
400
401
402
403
404
405
406
407
408
409
41
410
411
412
413
414
415
416
417
418
419
42
420
422
423
424
426
427
43
430
431
432
436
437
438
439
44
440
441
443
447
448
449
45
450
453
454
455
456
46
461
464
465
467
469
47
48
49
5
50
500
51
52
53
54
55
56
57
58
59
6
60
600
61
62
63
639
64
65
66
67
68
69
7
70
700
71
72
73
74
75
76
77
7798
78
79
8
80
800
81
82
83
84
85
86
87
88
89
9
90
900
91
92
93
94
95
96
964
97
978
98
99
:
;
<
=
>
?
@
\
^
_
`
a
aa
aaa
ab
abbas
abbr
abbrev
abc
about
above
abs
abstract
abu
ac
academic
academy
access
accessed
according
account
ace
acid
acm
act
action
active
actor
actress
ad
adam
adams
add
addclass
added
adding
additional
address
adds
adler
administration
administrative
advanced
ae
af
afc
affairs
afghanistan
africa
african
after
ag
again
against
age
aged
agency
agreement
ah
ahmad
ai
air
aircraft
airlines
airport
airports
ak
al
alabama
alan
albert
alborz
alborzagros
album
alex
alexander
alfred
algorithm
ali
alias
aliases
align
alireza
all
allen
alliance
allipour
allows
almabeta
along
alpha
already
also
alt
alternate
alternative
altnames
always
am
amazon
america
american
amin
amir
amirali
among
amper
an
analysis
anatomy
anchor
ancient
and
anderson
andre
andrew
angeles
animal
animation
ann
anna
anne
annual
annular
another
answers
anthony
anti
antonio
anu
anujuno
anvar
any
ap
aparhizi
api
app
appear
appears
append
appendchild
apple
application
applications
applied
approach
appropriate
approx
apr
april
ar
arab
arabia
arabic
arash
architecture
archive
archived
archives
are
area
areas
arefkabi
arena
arfar
arg
argentina
args
argument
arguments
arian
ariobarzan
arkansas
arm
armenia
armenian
arms
army
around
array
art
arthur
article
articles
artist
artists
arts
artsakhlib
as
asia
asian
asp
aspx
assembly
assessment
associated
association
at
atheist
atlantic
atlas
atp
attack
attention
attr
au
audio
aug
august
aus
austin
australia
australian
austria
author
authority
authors
auto
automatically
aux
av
available
aviation
avoid
award
awards
away
ax
az
azerbaijan
azərbaycan
b
ba
babooneh
bach
back
background
bad
baha
baker
bakı
ball
band
bank
banner
bar
bas
base
baseball
based
basic
basketball
battle
bay
bb
bbb
bbc
bc
bd
be
beach
because
been
before
begin
beginning
behavior
behind
behnam
behzad
being
bell
below
ben
benjamin
benyamin
berkeley
berlin
bernard
best
beta
better
between
beyond
bf
bg
bi
bible
big
bill
bin
bio
biographical
biography
biology
bird
birth
bishop
bit
bkouhi
bl
black
blackwell
blank
block
blog
blood
blue
blueriver
bmatrix
bmw
bn
bo
board
bob
body
bold
boldsymbol
book
books
boolean
border
born
borough
boston
bot
both
bottom
box
boy
br
brain
branch
brazil
break
brian
bridge
brief
brill
britain
britannica
british
brown
bruce
bs
bu
build
building
bulgaria
bulletin
bus
business
but
button
bx
by
bz
c
ca
cache
calendar
california
call
callback
called
cambridge
camp
campaign
can
canada
canadian
cancer
cannot
canton
cap
cape
capital
caption
car
carbon
care
carl
carlos
carolina
case
cases
caspian
castle
cat
categories
category
cathedral
catholic
cats
cause
cb
cc
cd
cdot
cdots
ce
cell
cells
census
center
central
centre
century
cf
cfg
cgi
ch
cha
championship
championships
change
changed
changes
channel
chapter
char
character
characters
charles
chart
che
check
checked
chemical
chemistry
chi
chicago
chief
child
children
chile
china
chinese
chris
christian
christopher
church
ci
cia
cinema
circle
citation
cite
cited
cities
city
civil
cl
claims
clark
class
classes
classical
classification
clear
click
clinical
close
club
cm
cmt
cn
cnn
co
coast
coat
code
codes
coins
col
cold
cole
collection
college
collins
colombia
color
colorado
colors
colour
columbia
column
columns
com
combination
combinations
come
comics
command
comment
comments
commission
committee
common
commons
communication
communist
community
companies
companion
company
competition
complete
complex
component
computer
computing
con
concat
concept
confederate
conference
config
conflict
congo
congress
congressional
const
constitution
construction
contain
container
containing
contains
contemporary
content
contest
context
continue
contributors
control
convention
convert
cooper
coord
coordinates
copy
copyright
core
corporation
correct
cos
cost
costa
could
council
count
countries
country
county
course
court
cover
covid
cp
cpu
cq
cr
crater
crc
create
created
creation
creek
crisis
critical
cropped
cross
crystal
cs
css
ct
ctx
cu
cultural
culture
cup
current
currently
custom
cut
cv
cz
d
da
daily
dakota
dalba
dam
dan
dance
daniel
dans
darafsh
dark
das
data
database
databases
datavalue
date
dates
david
davis
day
days
db
dc
dd
de
dead
death
deaths
debate
dec
december
decimal
deep
def
default
defaults
defense
define
defined
definition
del
delete
deletion
della
delta
democracy
democratic
den
denmark
department
deprecated
der
des
description
design
detail
details
determination
deutsche
development
df
di
diagram
dictionary
did
die
diego
dies
diff
different
digit
digital
digits
din
direct
direction
director
directory
disambiguation
discovery
discussion
disease
display
displayed
displays
displaystyle
distribution
district
districts
div
division
dl
dna
do
doc
document
documentation
documents
does
doesn
dog
doi
domain
don
donald
done
dos
dot
dots
double
douglas
down
download
dp
dq
dr
dream
drug
ds
dt
du
due
duke
dur
during
dutch
dvd
dw
dx
dy
dynasty
dz
e
ea
each
early
earth
east
eastern
eb
ebi
ec
eclipse
economic
economics
economy
ed
edge
edit
edited
editing
edition
editor
editors
edits
eds
edu
education
edward
ee
ef
effect
effects
eg
egypt
ei
either
el
election
elections
electric
electronic
element
elements
elizabeth
ell
elph
else
elseif
em
embassy
emperor
empire
empty
emrna
en
enabled
encyclopaedia
encyclopedia
encyclopædia
end
energy
eng
engine
engineering
england
english
enter
entertainment
entity
entries
entry
environment
environmental
ep
epicenters
episode
epsilon
equiv
er
era
eric
err
error
errors
es
esp
essays
est
et
eta
etc
ethnic
eu
europe
european
eurovision
ev
even
event
events
every
evidence
evil
evolution
ex
example
examples
except
exist
existing
exists
exp
experience
expiry
express
expression
extended
extension
external
extra
eye
f
fa
faa
face
facebook
fact
factor
facts
fair
faith
fajr
fall
fallah
falls
false
family
far
farsnews
farvartish
fast
fatemi
father
fawiki
fb
fc
fda
fe
feature
features
feb
february
federal
federation
fee
female
festival
ff
fff
ffffff
fi
fiction
field
fields
fifa
figure
file
files
film
films
final
financial
find
finland
fire
first
five
fix
fl
flag
flags
flight
flights
float
floor
florida
flow
flying
fm
fn
fo
focus
follow
following
font
fontsize
foo
food
football
footballer
for
force
forces
ford
foreign
forest
form
format
former
fort
forum
forward
foto
found
foundation
four
fourth
fox
fr
frac
frame
framework
franc
france
francis
francisco
frank
franklin
frederick
free
freedom
french
freshman
friedrich
from
front
ft
fu
full
fully
function
functions
further
future
g
ga
gadget
gallery
gam
game
games
gamma
garden
gary
gas
gate
gay
gb
ge
gen
gender
gene
general
generally
generate
generation
genocide
genus
geograph
geographic
geography
geometry
george
georgia
geq
german
germany
get
getargs
getelementbyid
gharouni
gi
gif
gire
girl
girls
give
given
gives
glass
global
gm
gmina
gnosis
gnu
go
goal
god
godney
gold
golden
good
google
gordon
gov
government
gr
grand
grande
grant
graph
gray
great
greater
greece
greek
green
grey
ground
group
groups
grove
growth
gsub
gt
gu
guardian
guide
guidelines
guinea
gulf
h
ha
had
hadi
half
hall
hamedvahid
hamid
hamilton
hand
handbook
handler
hanooz
hans
hard
harper
harris
harrison
harry
harvard
has
hassani
hat
have
hd
he
head
header
heading
health
heart
height
held
hello
help
henry
her
here
heritage
hi
hidden
hide
high
higher
highway
hill
him
his
histoire
historic
historical
history
hiv
hl
ho
hollywood
holocaust
holy
home
honarsaz
hong
hootandolati
hope
horse
hospital
host
hot
hotel
hours
house
how
howard
however
hp
hr
htm
html
http
https
hu
huji
human
hungary
hy
i
ia
ian
iata
ibm
ibn
ic
ice
icon
id
identifier
identity
ie
iec
ieee
if
ii
iii
ij
il
illinois
illustrated
im
image
images
imanfakhritalk
imdb
img
impact
imperial
import
important
in
inactivated
inbox
inc
include
included
includes
including
independence
independent
index
india
indian
indiana
individual
indonesia
industrial
industry
info
infobox
information
infty
initial
inline
input
insert
inside
instance
instead
institute
int
integer
intel
intelligence
interactive
interface
interior
internal
international
internet
interview
interwiki
into
introduction
invalid
io
ios
iowa
ip
ipa
ipairs
ipv
ir
ira
iran
iranian
iranica
iranicaonline
iraq
ireland
irna
iron
iroony
is
isbn
islam
islamic
island
islands
isna
iso
isoname
isonames
israel
israeli
issn
issue
issues
it
italian
italic
italy
item
itemid
items
its
itself
iucn
iv
ix
j
ja
jack
jackson
jacques
james
jan
jane
january
japan
japanese
java
javadi
javascript
je
jean
jeeputer
jersey
jerusalem
jet
jewish
jews
ji
jim
jo
joe
john
johnson
join
jonathan
jones
jordan
jose
joseph
journal
jp
jpeg
jpg
jr
js
json
jstor
ju
juan
jul
july
jump
jun
june
just
justice
k
ka
kansas
karl
kasir
kazemita
kb
ke
keep
kentucky
kevin
key
kg
khabarnegar
khan
ki
killed
kim
king
kingdom
km
know
knowledge
known
ko
koli
kong
korea
korean
kr
ku
kurdish
l
la
label
labour
ladsgroup
lady
lake
lambda
land
lang
langle
language
languages
large
las
last
lat
late
later
latest
latin
law
lawrence
layer
lb
lc
ldots
le
lead
leader
leading
league
learning
least
leave
led
lee
left
legacy
legal
legend
len
length
leo
leq
les
less
let
letter
letters
level
lewis
lg
li
liberal
liberty
library
license
life
light
like
lim
limit
limited
lincoln
line
linear
lines
link
linked
links
linux
list
listed
lists
literary
literature
little
live
living
ll
ln
lo
load
loc
local
localidades
localized
location
log
logic
logo
london
long
look
looking
loop
lord
los
loss
lost
lot
louis
love
low
lower
lt
ltd
lu
lua
luckie
luke
lyzoarium
m
ma
mac
machine
macmillan
made
madrid
mag
magazine
magic
mahan
mahdi
mahdiz
mail
main
maint
major
make
makes
making
male
man
management
mancini
manual
many
map
maps
mar
march
mardetanha
margaret
margin
maria
marie
marine
mark
marker
market
marksize
markup
mars
marshall
martin
marvel
marx
mary
mask
mass
massachusetts
master
match
matches
material
materials
math
mathbb
mathbf
mathcal
mathematical
mathematics
mathrm
matrix
matter
matthew
max
may
mb
mbox
mc
mcgraw
md
me
meaning
means
med
medal
media
mediawiki
medical
medicine
medieval
meeting
mehdi
mehditalk
mehran
mehrnews
mem
member
members
memorial
memory
men
mensis
message
messages
met
meta
metal
method
methods
metro
metropolitan
mexico
mf
mg
mhhossein
mi
michael
michel
michigan
microsoft
mid
middle
might
mike
military
miller
million
min
mind
minister
ministers
ministry
minnesota
minor
minutes
mirabilis
miss
missing
mission
missouri
mit
mj
mk
ml
mm
mn
mo
mobile
mod
mode
model
models
modern
module
modules
mohammad
mojtaba
mol
molecular
money
monobook
month
months
monument
moon
moore
more
morebits
morris
moscow
mosior
mosque
most
mother
motion
mount
mountain
mountains
mousavi
mouse
move
movement
movie
movies
mp
mpj
mr
mri
mrna
ms
mses
msg
mt
mu
much
muhammad
multi
multiple
municipal
municipality
murray
muse
museum
music
musical
muslim
must
mw
my
n
na
nabla
name
named
names
namespace
nami
nasa
nation
national
nations
native
natural
nature
naval
navbox
navy
nb
nba
nbsp
nc
nd
ne
near
necessary
need
needed
needing
needs
nelson
nerve
net
netherlands
network
networks
never
new
news
newspaper
next
ng
ngc
nh
ni
nicholas
night
nightd
nih
nil
nj
nl
nm
nn
no
node
noindex
non
none
nor
normal
norman
north
northern
norway
not
note
notes
nothing
notice
notoc
nov
nova
novel
november
now
np
nr
ns
nt
nu
nuclear
null
num
number
numbers
numeric
ny
o
obituary
obj
object
objects
oblast
ocean
oct
october
of
off
office
official
offset
often
og
oh
ohio
oil
ois
ok
ol
old
oldid
olympic
olympics
omega
omitted
on
once
one
online
only
op
opac
open
opera
operation
operations
operatorname
opp
opt
option
optional
options
or
orange
order
oregon
org
organization
oriental
origin
original
origins
os
other
others
otherwise
ottoman
our
out
output
outside
over
overline
override
overview
owen
own
oxford
oyakmohsen
p
pa
pacific
padding
page
pagename
pageobj
pages
painting
pairs
pakistan
palace
palestine
pan
panoramio
paper
papers
par
para
param
parameter
parameters
params
parent
pargs
paris
parish
park
parliament
parms
parser
part
partial
particular
parts
party
pas
pass
passed
past
path
patricia
patrick
pattern
patterns
paul
pc
pd
pdb
pde
pdf
pe
peace
pedro
penguin
pennsylvania
people
peoples
per
percent
performance
period
perry
persia
persian
person
personal
perspective
peru
pet
peter
pg
ph
phase
phcap
phi
philadelphia
philip
philippines
philosophy
phobia
photo
photographs
photos
php
physical
physics
pi
pich
picture
pictures
pierre
pirhayati
pl
place
placed
places
plain
plan
planet
plant
plants
plate
platform
play
player
players
please
plus
pm
pmatrix
pmc
pmid
png
po
point
points
poland
police
policy
political
politics
poly
pop
popular
population
port
portal
portrait
portugal
pos
position
positive
possible
post
power
poya
pp
pr
practice
pre
precision
prefix
preliminary
present
president
presidential
press
preview
previous
price
primary
prime
prince
princeton
principles
print
private
prize
pro
problem
problems
proceedings
process
processing
prod
produced
produces
product
production
professional
professor
profile
program
programming
progress
project
projects
prop
properties
property
props
protected
protection
protein
provide
provided
provides
province
ps
psi
psychology
pt
pub
public
publication
publications
published
publisher
publishers
publishing
puerto
purpose
push
put
px
py
python
q
qi
qid
qp
qquad
quad
quality
quantum
que
queen
query
question
questions
quote
quoted
r
ra
raamin
race
radio
radmanesh
rail
railway
ram
random
range
rangle
rank
ranking
rat
rate
rather
raw
ray
rc
rd
re
read
reader
reading
real
reason
received
recent
record
records
rect
red
redirect
ref
reference
references
regex
region
regional
regions
register
regular
related
relations
relative
release
relief
religion
religious
remove
removed
render
replace
report
reports
republic
republican
request
requested
require
required
res
research
reserve
resolution
resource
resources
response
respublikası
respublikasının
result
results
ret
retrieved
return
returns
reuters
rev
reverse
review
reviews
revised
revolution
rez
reza
rf
rfc
rgb
rho
ri
rich
richard
right
rightarrow
rights
ring
rio
riobarzan
rise
risk
river
rm
rmashhadi
rna
ro
road
robert
roberts
robinson
robot
rock
roger
role
roman
rome
ronald
room
root
roozitaa
rose
round
route
routledge
row
rows
royal
rs
rt
ru
rule
rules
run
russell
russia
russian
ryan
s
sa
saeidpourbabak
safety
sahand
sahehco
said
saint
salarabdolmohamadian
salmanz
salome
sam
same
sample
samuel
samək
san
sandbox
santa
sarah
saros
sato
saudi
save
say
sayenevisande
says
sb
sc
scale
scheme
scholar
school
science
sciences
scientific
score
scotland
scott
screen
script
sd
sdf
se
sea
search
season
sec
second
secret
section
sections
security
see
seen
select
selected
selection
self
senators
sep
separate
separator
september
sequence
series
server
service
services
set
setting
seven
several
sex
sexual
sh
sha
shah
shawarsh
she
sheet
shiasun
shield
shift
ship
shobhe
short
shortname
should
show
showing
shown
shows
shtml
shy
si
sicaspi
side
sigma
sign
silver
sim
similar
simon
simple
sin
since
single
sio
sir
site
sites
six
size
sk
skin
sky
sl
slide
sm
small
smith
smt
sn
so
soccer
social
socialist
society
software
solar
solid
solution
some
something
son
song
sons
sort
sound
source
sources
south
southern
soviet
soyuz
sp
space
spaces
spain
span
spanish
special
species
specific
specified
specify
speech
speed
spirit
split
sport
sports
spring
springer
sql
sqrt
squad
square
sr
sri
ss
st
sta
stable
stadion
stadium
staff
stage
standard
stanford
star
stars
start
state
statement
states
static
station
statistics
statue
status
std
steel
step
stephen
steve
steven
still
stone
stop
store
stories
story
str
strategy
street
string
strip
structure
studies
studio
study
style
styles
su
sub
subject
success
such
suffix
suggested
suite
sum
summary
summer
sun
sunfyre
sunfyret
super
support
supported
sur
sure
surface
survey
sv
svg
sweden
switch
switzerland
sydney
symbol
symbols
syntax
syria
syrian
system
systems
t
ta
tab
table
tables
taddah
taeedxy
tag
tags
take
taken
takes
talk
tan
taranet
target
task
tau
taxon
taylor
tc
tcp
td
te
team
teams
tech
technical
technology
tehran
telegraph
television
tell
telluride
temperature
template
templates
temple
ten
tennis
term
terminal
terminus
terms
test
testing
texas
text
textbf
texts
tfrac
th
than
that
the
theatre
their
them
then
theory
there
these
theta
they
things
think
third
this
thomas
those
thought
three
through
thumb
thumbnail
thus
ti
tig
till
tim
time
timeline
times
tipb
tipe
tisfoon
titb
tite
title
titles
tl
tm
to
toc
today
together
tokyo
tom
tomb
tonumber
tony
too
tool
tools
tooltip
top
topic
toronto
tostring
total
tour
towards
tower
town
township
tr
track
tracking
trade
tradition
traffic
train
training
trans
translate
translated
translation
transport
tre
treatment
tree
trim
true
trump
truth
try
ts
tt
tu
turkey
turkish
tv
twinkle
two
tx
txt
ty
type
typeof
types
u
ud
uefa
ui
uk
ukraine
ukrainian
ul
un
und
undefined
under
understanding
une
unesco
unicode
union
unit
united
units
universal
universe
university
unknown
unnamed
until
up
update
updated
upload
upon
upper
upright
ur
urban
uri
url
us
usa
usage
usb
use
used
useful
user
userbox
userboxes
username
userpage
users
uses
using
ustring
usually
ut
utc
utf
util
utilities
utype
uv
uw
v
va
vaccinated
vaccines
vahid
val
valid
valley
value
values
van
var
varepsilon
variable
various
varphi
ve
vec
vector
venezuela
verlag
version
vertical
very
vi
via
victor
victoria
video
vietnam
view
vii
village
vincent
violence
virginia
virtual
virus
vision
vista
visual
vizinhanc
voice
void
voivodeship
vol
volume
von
vote
vs
vu
w
wa
wales
walker
wall
walter
wang
want
war
ward
warn
warning
wars
was
washington
watch
water
way
wayiran
we
web
website
week
weekly
weight
welcome
well
were
west
western
what
when
where
whether
which
while
white
who
whole
why
wi
wid
wide
width
wiki
wikibase
wikidata
wikilink
wikimedia
wikimostafa
wikipedia
wikiproject
wikis
wikisource
wikitext
wild
wiley
will
william
williams
wilson
win
window
windows
winner
wins
winter
wisconsin
with
within
without
wizard
woman
women
won
wood
word
words
work
workflow
working
works
world
would
wp
wpnewtitlens
wpreason
wright
write
writer
writers
writing
written
ws
wu
wwe
www
x
xi
xml
xoxoxo
xs
xx
xy
y
ya
yahoo
yale
yamaha
ye
year
years
yellow
yerevan
yes
yesno
yet
yi
york
you
young
your
youth
youtube
yu
yyyy
z
za
zealand
zero
zh
zone
zu
zur
{
|
}
~

¡
£
¤
§
¨
©
«
¬
­
®
¯
°
±
²
³
´
µ
·
¹
º
»
½
×
ß
æ
ð
÷
ø
ħ
ı
ƒ
ə
ʘ
ʻ
ʼ
ʾ
ʿ
ˈ
ː
˓
˚
̀
́
̂
̃
̄
̆
̇
̈
̉
̊
̋
̌
̓
̔
̛
̣
̦
̧
̨
̮
̱
̲
̶
̸
͂
α
β
γ
δ
ε
η
θ
ι
κ
λ
μ
ν
ο
π
ρ
ς
σ
συζη
τ
τηση
φ
χ
ψ
ω
а
в
г
д
е
и
к
краи
красноярскии
л
м
н
на
о
область
п
раи
с
свердловская
т
у
я
՝
է
լղհ
հ
միավո
վարչատարածքային
տեղեկատու
և
։
ְ
ִ
ַ
ָ
ֹ
ּ
ר
،
؛
؟
ء
ا
اء
اب
ابتدا
ابتداي
ابتدای
ابتدایی
ابتلا
ابتلای
ابتهاج
ابتکار
ابتکاری
ابد
ابدا
ابداع
ابدی
ابدیت
ابر
ابرابزار
ابراز
ابرانسانی
ابراهیم
ابراهیمب
ابراهیمی
ابرشرکت
ابرقهرمان
ابرقهرمانی
ابرها
ابرهای
ابرو
ابرکوه
ابری
ابریشم
ابریشمی
ابزار
ابزارها
ابزارهای
ابزارهایی
ابزاری
ابطال
ابعاد
ابعادی
ابلاغ
ابلیس
ابن
ابنیه
ابهام
ابهامات
ابهر
ابو
ابوالحسن
ابوالفتح
ابوالفضل
ابوالقاسم
ابوبکر
ابوت
ابوذر
ابوریحان
ابوسعید
ابوطالب
ابوظبی
ابوعبدالله
ابوعلی
ابومسلم
ابوموسی
ابونصر
ابی
ابیات
ابیطالب
ات
اتابک
اتابکان
اتاق
اتاقک
اتاقی
اتانول
اتاوا
اتباع
اتحاد
اتحادیه
اتخاذ
اتر
اترشهر
اترنت
اترها
اترهای
اتری
اتریش
اتریشی
اتصال
اتصالات
اتفاق
اتفاقا
اتفاقات
اتفاقاتی
اتفاقی
اتلاف
اتلتیک
اتلتیکو
اتم
اتمام
اتمسفر
اتمی
اتهام
اتهامات
اتهاماتی
اتهامی
اتو
اتوبان
اتوبوس
اتوبوسرانی
اتوماتیک
اتوماسیون
اتومبیل
اتکا
اتیل
اتیلن
اتین
اتیوپی
اثبات
اثر
اثرات
اثربخشی
اثرش
اثرگذار
اثرگذاری
اثری
اثنا
اثنی
اثیر
اج
اجابت
اجاره
اجازه
اجاق
اجبار
اجباری
اجتماع
اجتماعات
اجتماعی
اجتناب
اجتهاد
اجداد
اجدادی
اجرا
اجراء
اجرام
اجراها
اجراهای
اجراي
اجراکنندگان
اجرای
اجرایی
اجرت
اجزا
اجزاء
اجزای
اجساد
اجسام
اجلاس
اجماع
اجماعی
اجمالی
اجناس
اح
احادیث
احاطه
احتراق
احترام
احتراما
احترامی
احتساب
احتمال
احتمالا
احتمالات
احتمالی
احتیاج
احتیاجات
احتیاجی
احتیاط
احتیاطی
احد
احداث
احدی
احراز
احزاب
احساس
احساسات
احساساتی
احساسی
احسان
احسن
احسنت
احضار
احقاق
احمد
احمدا
احمدخان
احمدرضا
احمدشاه
احمدگفتگو
احمدی
احمر
احمق
احمقانه
احوال
احکام
احیا
احیاء
احیانا
احیای
اخبار
اخباری
اختتامیه
اختر
اختراع
اختراعات
اخترشناسان
اخترشناسی
اخترفیزیک
اختصار
اختصاری
اختصاص
اختصاصی
اختلاس
اختلاط
اختلاف
اختلافات
اختلافاتی
اختلافی
اختلال
اختلالات
اخته
اختیار
اختیارات
اختیاری
اخذ
اخراج
اخطار
اخلاق
اخلاقی
اخلاقیات
اخلال
اخلالگری
اخوان
اخگر
اخیر
اخیرا
اد
ادا
ادارات
اداره
اداری
ادامه
ادای
ادب
ادبی
ادبیات
ادرار
ادراری
ادراک
ادراکی
ادریس
ادسا
ادعا
ادعاها
ادعاهای
ادعای
ادعایی
ادغام
ادل
ادلانته
ادله
ادم
ادمونتون
ادموند
ادو
ادوات
ادوار
ادوارد
ادواردز
ادواردو
ادوبی
ادوین
ادویه
ادگار
ادی
ادیان
ادیب
ادیبان
ادیت
ادیسه
ادیسون
ادینبرو
ادینبورگ
اذان
اذعان
اذن
اذهان
اذیت
ار
ارابه
ارادت
ارادتمند
اراده
اراضی
ارامنه
اران
اراي
اراک
ارایه
ارباب
اربابان
اربابی
اربعه
اربعین
اربیل
ارت
ارتباط
ارتباطات
ارتباطی
ارتداد
ارتدوکس
ارتدکس
ارتش
ارتشبد
ارتشی
ارتعاش
ارتعاشات
ارتفاع
ارتفاعات
ارتفاعی
ارتقا
ارتقاء
ارتقای
ارتوپدی
ارتکاب
ارث
ارثی
ارج
ارجاع
ارجاعات
ارجح
ارجحیت
ارجمند
اردبیل
اردبیلی
اردستان
اردشیر
اردل
اردلان
اردن
اردو
اردوان
اردوغان
اردوگاه
اردوی
اردک
اردکان
اردکانی
اردیبهشت
ارز
ارزان
ارزانی
ارزروم
ارزش
ارزشمند
ارزشمندی
ارزشی
ارزشیابی
ارزنده
ارزهای
ارزوي
ارزی
ارزیابی
ارس
ارسال
ارسالی
ارسطو
ارسلان
ارسنجان
ارشاد
ارشد
ارضی
ارعاب
ارغوانی
ارفورت
ارقام
ارل
ارم
ارمغان
ارمنستان
ارمنستانی
ارمنی
ارمنیان
ارنست
اره
ارو
ارواح
اروتیک
ارومیه
اروپا
اروپاي
اروپای
اروپایی
اروپاییان
اروگوي
اروین
ارژنـگ
ارژنگ
ارک
ارکان
ارکستر
ارکیده
ارگ
ارگان
ارگانیسم
ارگانیک
اری
اریتره
اریش
اریک
اریکسون
از
ازا
ازای
ازاین
ازبک
ازبکستان
ازبکی
ازبین
ازجمله
ازدحام
ازدست
ازدواج
ازدیاد
ازش
ازل
ازلی
ازمیر
ازنا
ازهم
ازو
ازین
اس
اساتید
اسارت
اساس
اساسا
اساسنامه
اساسی
اساطیر
اساطیری
اسامه
اسامی
اسب
اسباب
اسبق
اسبی
است
استات
استاتیک
استاد
استادان
استادش
استادی
استادیار
استادیوم
استار
استارت
استارک
استالین
استان
استانبول
استانبولی
استاندار
استانداران
استاندارد
استانداردسازی
استانداردها
استانداردهای
استانداردی
استانداری
استانهای
استانی
استاپ
استایل
استایلز
استبداد
استبدادی
استتار
استثمار
استثنا
استثناء
استثناي
استثنای
استثنایی
استحکام
استحکامات
استخدام
استخدامی
استخر
استخراج
استخوان
استخوانی
استدعا
استدلال
استدلالی
استر
استرا
استرابون
استراتژی
استراتژیک
استراحت
استراسبورگ
استرالیا
استرالیای
استرالیایی
استرداد
استرس
استرلینگ
استرها
استروي
استروژن
استریت
استریم
استریپ
استطبق
استعاره
استعداد
استعدادهای
استعفا
استعفاء
استعفای
استعلام
استعمار
استعماری
استعمال
استفاده
استفان
استفانو
استفانی
استفراغ
استفن
استقامت
استقبال
استقرار
استقلال
استماع
استمرار
استن
استناد
استنباط
استنتاج
استندا
استنفورد
استنلی
استهبان
استهلاک
استوا
استوار
استوارت
استوانه
استوایی
استودیو
استودیوز
استودیوهای
استودیوی
استودیویی
استور
استوری
استون
استونی
استونیایی
استوک
استوکس
استي
استپ
استکهلم
استیت
استیشن
استیضاح
استیل
استیلای
استین
استیناف
استینگ
استیو
استیون
استیونز
استیک
اسحاق
اسد
اسدا
اسدالله
اسدی
اسرا
اسرار
اسرارا
اسراي
اسرای
اسراییل
اسرع
اسطوره
اسعد
اسفار
اسفراین
اسفنج
اسفنجی
اسفند
اسفندماه
اسفندیار
اسفندیاری
اسقف
اسقفان
اسقفی
اسلام
اسلامشهر
اسلامی
اسلامیه
اسلاو
اسلاوی
اسلحه
اسلشر
اسلم
اسلو
اسلواکی
اسلوب
اسلوونی
اسلوپ
اسم
اسمارت
اسماعیل
اسماعیلی
اسماعیلیان
اسماعیلیه
اسمال
اسمبلی
اسمش
اسمولنسک
اسمک
اسمی
اسمیت
اسن
اسناد
اسنادی
اسنایدر
اسنودن
اسهال
اسپارت
اسپارتا
اسپارتاک
اسپال
اسپانیا
اسپانیای
اسپانیایی
اسپانیول
اسپاگتی
اسپرانتو
اسپرت
اسپرز
اسپرم
اسپری
اسپرینگ
اسپرینگز
اسپرینگفیلد
اسپلیت
اسپم
اسپنسر
اسپهبد
اسپور
اسپورت
اسپورتینگ
اسپیرز
اسپیریت
اسپیس
اسپیلبرگ
اسپین
اسکات
اسکاتلند
اسکاتلندی
اسکادران
اسکار
اسکارلت
اسکان
اسکانتورپ
اسکاندیناوی
اسکای
اسکرین
اسکریپت
اسکس
اسکلت
اسکلتی
اسکله
اسکن
اسکناس
اسکندر
اسکندری
اسکندریه
اسکنر
اسکو
اسکورت
اسکورسیزی
اسکوشیا
اسکوي
اسکی
اسکیت
اسکیزوفرنی
اسید
اسیدها
اسیدهای
اسیدی
اسیر
اسیران
اش
اشارات
اشاراتی
اشاره
اشاعه
اشباح
اشباع
اشتات
اشتاین
اشتباه
اشتباهات
اشتباهی
اشتراوس
اشتراک
اشتراکی
اشتعال
اشتغال
اشتوتگارت
اشتیاق
اشخاص
اشخاصی
اشراف
اشرافی
اشراق
اشراقی
اشرف
اشرفی
اشعار
اشعارش
اشعاری
اشعری
اشعه
اشغال
اشغالی
اشلی
اشمیت
اشنایدر
اشنویه
اشک
اشکال
اشکالات
اشکالی
اشکان
اشکانی
اشکانیان
اشکنازی
اشیا
اشیاء
اشیای
اشیایی
اصابت
اصالت
اصالتا
اصحاب
اصرار
اصراری
اصطلاح
اصطلاحا
اصطلاحات
اصطلاحی
اصطکاک
اصغر
اصفهان
اصفهانی
اصل
اصلا
اصلاح
اصلاحات
اصلاحاتی
اصلاحی
اصلاحیه
اصلان
اصلانی
اصلی
اصلیت
اصناف
اصوات
اصول
اصولا
اصولگرایان
اصولی
اصیل
اضافه
اضافی
اضطراب
اضطراری
اضلاع
اطاعت
اطاق
اطراف
اطرافش
اطرافیان
اطفال
اطلاع
اطلاعات
اطلاعاتی
اطلاعی
اطلاعیه
اطلاق
اطلس
اطمینان
اظهار
اظهارات
اظهارنامه
اظهارنظر
اعاده
اعتبار
اعتبارات
اعتبارسنجی
اعتبارنامه
اعتباری
اعتدال
اعتراض
اعتراضات
اعتراضی
اعتراف
اعترافات
اعتصاب
اعتصابات
اعتصامی
اعتقاد
اعتقادات
اعتقادی
اعتماد
اعتمادی
اعتنا
اعتنایی
اعتیاد
اعداد
اعدام
اعراب
اعزام
اعزامی
اعشاری
اعصاب
اعضا
اعضاء
اعضای
اعطا
اعطاء
اعطای
اعظم
اعظمی
اعلام
اعلامیه
اعلان
اعلانات
اعلی
اعلیحضرت
اعم
اعماق
اعمال
اعمالی
اعوجاج
اعیاد
اعیان
اغتشاش
اغراق
اغلب
اف
افت
افتاد
افتادن
افتادند
افتاده
افتادگی
افتتاح
افتتاحیه
افتخار
افتخارات
افتخاری
افتد
افترا
افتند
افرا
افراد
افرادی
افراز
افراسیاب
افراط
افراطی
افزار
افزارها
افزارهای
افزارهایی
افزاری
افزاید
افزایش
افزایشی
افزود
افزودم
افزودن
افزودنی
افزوده
افزون
افزونه
افسانه
افسر
افسران
افسرده
افسردگی
افسری
افسوس
افسون
افشا
افشار
افشاری
افشاریان
افشاریه
افشان
افشانی
افشاگری
افشای
افشین
افضل
افعال
افغان
افغانستان
افغانستانی
افغانی
افق
افقی
افلاطون
افلاطونی
افندی
افول
افکار
افکاری
افکن
افکند
افیون
اقامت
اقامتگاه
اقامتی
اقامه
اقای
اقبال
اقتباس
اقتباسی
اقتدار
اقتداری
اقتصاد
اقتصاددان
اقتصاددانان
اقتصادهای
اقتصادی
اقدام
اقدامات
اقداماتی
اقدامی
اقدس
اقرار
اقسام
اقصی
اقلا
اقلام
اقلیت
اقلید
اقلیدس
اقلیدسی
اقلیم
اقلیمی
اقماری
اقوال
اقوام
اقیانوس
اقیانوسی
اقیانوسیه
ال
الا
الات
الاتحاد
الاجرا
الارض
الاستیک
الاسلام
الاسلامی
الاصل
الاصول
الاغ
الان
الاهلی
الاول
البته
البدل
البرز
البلاغه
البلدان
البیان
التاریخ
التحصیل
التحصیلان
التحصیلی
التزام
التماس
التهاب
التهابی
التواریخ
التیام
الثانی
الجزایر
الجزایری
الجزیره
الحاق
الحاقی
الحجه
الحدیث
الحسن
الحسین
الحق
الحمایه
الحکمة
الخصوص
الخطاب
الد
الدوله
الدین
الذکر
الذی
الر
الرحمن
الرحیم
الرشید
الرضا
الریان
الزام
الزاما
الزامات
الزامی
الزمان
الزهرا
الس
السالوادور
الساندرو
السد
السلام
السلطان
السلطنه
السیر
الشباب
الشیخ
الشیعه
الص
الطارق
العابدین
العاده
العالم
العدل
العرب
العربی
العربیة
العظمی
العمر
العمل
العین
الغای
الف
الفاظ
الفبا
الفبای
الفبایی
الفت
الق
القا
القاب
القاعده
القای
القایی
القدس
القرا
الل
الله
اللهی
الم
الماس
المال
المان
المثل
المسلمین
المعارف
المقحفی
المقدس
الملل
المللی
الملوک
الملک
الممالک
المنافع
المهدی
المو
الموت
المپ
المپیا
المپیاد
المپیاکوس
المپیک
المیزان
الن
النا
الناس
النبی
النصر
النهار
النهرین
النور
اله
الهام
الهدی
الهلال
الهه
الهی
الهیات
الواح
الوار
الوحده
الوصف
الوقوع
الوند
الویس
الچه
الک
الکامل
الکتاب
الکترو
الکترود
الکتروشیمیایی
الکترولیت
الکترومغناطیس
الکترومغناطیسی
الکترون
الکترونی
الکترونیک
الکترونیکی
الکتریسیته
الکتریک
الکتریکی
الکس
الکساندر
الکساندرا
الکسی
الکل
الکلی
الگو
الگوریتم
الگوریتمی
الگوها
الگوهای
الگوهایی
الگوی
الگویی
الی
الیاس
الیاف
الیزابت
الیس
الیسم
الیسون
الین
الیه
الیوت
الیور
الیویه
الیکایی
الیگودرز
ام
اما
امارات
امارت
امام
امامان
امامت
امامزاده
امامی
امامیه
امان
امانت
امانوي
اماکن
امبروز
امت
امتحان
امتحانات
امتداد
امتناع
امتیاز
امتیازات
امتیازی
امثال
امداد
امدادی
امر
امرا
امرار
امراض
امرای
امرداد
امرسون
امروز
امروزه
امروزی
امروزین
امری
امریکا
امریکایی
امریکن
امسال
امشب
امضا
امضاء
امضانشده
امضاکنندگان
امضای
امل
املاک
املای
املایی
املش
امن
امنای
امنی
امنیت
امنیتی
امواج
اموال
امور
امورخارجه
اموری
اموی
امویان
امپایر
امپدانس
امپراتریس
امپراتور
امپراتوران
امپراتوری
امپراطور
امپراطوری
امپریالیسم
امپولی
امکان
امکانات
امکاناتی
امکانش
امگا
امی
امید
امیدوار
امیدوارم
امیدواری
امیدی
امیر
امیرا
امیرالمو
امیران
امیرحسین
امیررضا
امیرعباس
امیرکبیر
امیری
امیل
امیلی
امیلیا
امین
امینم
امینی
امیه
ان
انا
انار
انبار
انبارها
انبارهای
انباری
انباشت
انباشته
انبساط
انبوه
انبوهی
انتاریو
انتحاری
انتخاب
انتخابات
انتخاباتی
انتخابی
انتخابیه
انترتینمنت
انتزاع
انتزاعی
انتساب
انتشار
انتشارات
انتشاراتی
انتصاب
انتصابات
انتظار
انتظارات
انتظاری
انتظام
انتظامی
انتفاع
انتفاعی
انتقاد
انتقادات
انتقاداتی
انتقادها
انتقادهای
انتقادی
انتقال
انتقالات
انتقالی
انتقام
انتها
انتهای
انتهایی
انتگرال
انجا
انجام
انجامد
انجامش
انجامید
انجامیده
انجماد
انجمن
انجمنهای
انجمنی
انجیر
انجیل
انجیلی
انحراف
انحرافی
انحصار
انحصاری
انحطاط
انحلال
اند
انداخت
انداختن
انداختند
انداخته
انداز
اندازد
اندازند
اندازه
اندازهای
اندازی
اندام
اندر
اندرز
اندرسن
اندرسون
اندرو
اندروز
اندرونی
اندروید
اندرکاران
اندلس
اندوخته
اندود
اندونزی
اندونزیایی
اندوه
اندک
اندکی
اندی
اندیس
اندیشمندان
اندیشه
اندیشی
اندیمشک
اندیکا
انرژی
انریکه
انریکو
انزلی
انزوا
انزوای
انس
انسان
انسانها
انسانی
انسانیت
انستیتو
انستیتوی
انسجام
انسداد
انسولین
انشا
انشاء
انشعاب
انصار
انصاری
انصاف
انصراف
انضباط
انضباطی
انضمام
انطاکیه
انطباق
انعطاف
انعقاد
انعکاس
انفجار
انفجاری
انفرادی
انفعالات
انفورماتیک
انفی
انقباض
انقدر
انقراض
انقضای
انقلاب
انقلابی
انقلابیون
انه
انها
انهدام
انوار
انواع
انواعی
انور
انوری
انوشیروان
انکار
انگ
انگار
انگاری
انگاشته
انگشت
انگشتان
انگشتدان
انگشتی
انگل
انگلس
انگلستان
انگلستانی
انگلند
انگلی
انگلیس
انگلیسی
انگلیکان
انگور
انگیز
انگیزه
انگیزی
انی
انیس
انیشتین
انیمه
انیمیشن
انیمیشنی
اه
اهالی
اهانت
اهتمام
اهدا
اهداف
اهدافی
اهدای
اهر
اهرام
اهرم
اهری
اهریمن
اهل
اهلی
اهم
اهمیت
اهمیتی
اهواز
اهورا
اهورامزدا
او
اوا
اواخر
اواس
اواسط
اوان
اواي
اوایل
اوباش
اوباما
اوبلاست
اوبونتو
اوت
اوتار
اوترخت
اوتو
اوتیسم
اوج
اوجی
اوحدی
اودا
اودسا
اودینزه
اور
اورا
اورارتو
اوراسیا
اوراق
اورال
اورانوس
اورانیوم
اوراکل
اوربیتال
اورت
اورتن
اورتون
اورست
اورشلیم
اورفه
اورلاندو
اورلي
اورنج
اورنگ
اوره
اورژانس
اورگن
اورینت
اوز
اوزان
اوزاکا
اوزون
اوساسونا
اوساکا
اوست
اوستا
اوستایی
اوستیای
اوسر
اوشن
اوصاف
اوضاع
اوغلو
اوقات
اوقاف
اول
اولا
اولاد
اولاف
اولد
اولدهام
اولدوز
اولریش
اولش
اولویت
اولگا
اولی
اولیای
اولیس
اولین
اولیه
اولیور
اولیویا
اون
اونا
اونو
اونیل
اوه
اوهایو
اوون
اوي
اوپسالا
اوپن
اوژن
اوک
اوکراین
اوکراینی
اوکلند
اوکی
اوکیناوا
اوگاندا
اویل
اویلر
اوین
اي
ايران
ايشان
اين
اپ
اپتیک
اپتیکی
اپرا
اپراتور
اپراتورهای
اپراهای
اپرای
اپل
اپلیکیشن
اپن
اپوزیسیون
اپوس
اپی
اپیزود
اپیک
اچ
اژدر
اژدها
اژدهای
اژه
اک
اکانت
اکباتان
اکبر
اکبری
اکتاو
اکتبر
اکتساب
اکتشاف
اکتشافات
اکتشافی
اکتفا
اکثر
اکثرا
اکثریت
اکدی
اکران
اکراه
اکرم
اکس
اکسایش
اکستر
اکستروژن
اکسل
اکسپرس
اکسپلورر
اکسی
اکسید
اکسیداسیون
اکسیدان
اکسیدهای
اکسیژن
اکشن
اکلاهما
اکنون
اکو
اکوادور
اکوسیستم
اگر
اگرچه
اگه
اگوست
ای
ایا
ایالات
ایالت
ایالتی
ایام
ایان
ایبار
ایبری
ایتالیا
ایتالیایی
ایتن
ایثار
ایجاب
ایجاد
ایجادشده
ایجادکننده
ایجادگر
اید
ایدا
ایدز
ایده
ایدي
ایذه
ایر
ایراد
ایرادات
ایرادی
ایران
ایرانشهر
ایرانی
ایرانیان
ایرانیکا
ایرباس
ایرج
ایرلاینز
ایرلند
ایرلندی
ایرنا
ایروان
ایرویز
ایروینگ
ایری
ایزابل
ایزابلا
ایزاک
ایزد
ایزدان
ایزدبانوان
ایزدبانوی
ایزدی
ایزو
ایزوتوپ
ایست
ایستا
ایستاد
ایستادن
ایستاده
ایستادگی
ایستد
ایستوود
ایستگاه
ایسلند
ایسلندی
ایسمین
ایسنا
ایشان
ایشون
ایضا
ایفا
ایفای
ایفل
ایل
ایلات
ایلام
ایلامی
ایلخانان
ایلخانی
ایلخانیان
ایلنا
ایلی
ایلیا
ایلینوی
ایم
ایمان
ایمانی
ایمن
ایمنی
ایمپلنت
ایمی
ایمیل
ایمیلی
این
اینا
اینان
اینبار
اینباره
اینتر
اینتراخت
اینتراکتیو
اینترتینمنت
اینترسکوپ
اینترناسیونال
اینترنت
اینترنتی
اینترنشنال
اینتل
اینجا
اینجاست
اینجانب
اینجور
اینحال
ایندپندینته
ایندی
ایندیانا
ایندیاناپولیس
ایندیپندنت
اینرو
اینست
اینستاگرام
اینشتین
اینصورت
اینطور
اینطوری
اینقدر
اینه
اینها
اینهمه
اینو
اینچ
اینچنین
اینچنینی
اینچي
اینچی
اینک
اینکار
اینکه
اینگرید
اینگونه
ایه
ایو
ایوان
ایوانز
ایوانی
ایوب
ایوبی
ایوبیان
ایول
ایپسویچ
ایچ
ایکاي
ایکس
ایگل
ایگور
ایی
ب
با
باارزش
بااین
باب
بابا
باباجانی
بابایی
بابت
بابر
بابسلد
بابل
بابلسر
بابلی
بابویه
بابک
بابکان
بابی
بابیان
بات
باتجربه
باتری
باتشکر
باتلاق
باتلاقی
باتلر
باتوجه
باتیستا
باج
باخ
باخبر
باخت
باختر
باختری
باختند
باخته
باختگان
باخرز
باد
بادام
بادان
بادانی
بادبان
بادبانی
بادن
باده
بادهای
بادگیر
بادی
بادیه
بار
باران
بارانی
باراک
باربادوس
باربارا
بارباروسا
باربد
باربر
باربری
باربودا
بارت
بارتون
بارد
باردار
بارداری
بارز
بارزانی
بارسا
بارسلون
بارسلونا
بارش
بارفروش
بارنت
بارندگی
بارنز
بارنزلی
باره
بارها
بارهای
بارو
باروت
بارور
باروری
بارون
باروک
بارکشر
بارگاه
بارگذاری
بارگیری
باری
باریتون
باریسال
باریک
باریکه
باز
بازا
بازار
بازارها
بازارهای
بازارچه
بازاری
بازاریابی
بازان
بازبینی
بازتاب
بازتابی
بازجویی
بازخلق
بازخوانی
بازخورد
بازدارنده
بازداشت
بازداشتگاه
بازده
بازدهی
بازدید
بازدیدکننده
بازدیدکنندگان
بازرس
بازرسان
بازرسی
بازرگان
بازرگانان
بازرگانی
بازسازی
بازسانان
بازشدن
بازشده
بازشناسی
بازل
بازماند
بازمانده
بازماندگان
بازمی
بازنده
بازنشر
بازنشسته
بازنشستگان
بازنشستگی
بازنمایی
بازنویسی
بازنگری
بازه
بازهم
بازو
بازوی
بازپرداخت
بازپرس
بازپس
بازکردن
بازگرداند
بازگرداندن
بازگردانده
بازگردانی
بازگردد
بازگردند
بازگشایی
بازگشت
بازگشتند
بازگشته
بازگشتی
بازگو
بازی
بازیابی
بازیافت
بازیها
بازیهای
بازیکن
بازیکنان
بازیکنانی
بازیکنی
بازیگر
بازیگران
بازیگرانی
بازیگری
باس
باسابقه
باستان
باستانی
باستیا
باسواد
باسک
باسیل
باش
باشد
باشم
باشند
باشه
باشکوه
باشگاه
باشگاهی
باشی
باشید
باشیم
باصری
باطل
باطن
باطنی
باعث
باغ
باغات
باغبان
باغبانی
باغداری
باغستان
باغچه
باغی
بافت
بافته
بافتی
بافر
بافق
بافندگی
بافی
باقر
باقری
باقی
باقیمانده
بال
بالا
بالاتر
بالاتری
بالاترین
بالاخانواده
بالاخره
بالادست
بالادهای
بالاست
بالان
بالای
بالایی
بالتیمور
بالتیک
بالدار
بالدوین
بالستیک
بالعکس
بالغ
بالقوه
بالله
باله
بالون
بالکان
بالگرد
بالگردهای
بالی
بالینی
بالیوود
بام
باماست
بامداد
بامیان
بان
بانان
باند
باندهای
باندی
بانه
بانو
بانوان
بانوی
بانک
بانکدار
بانکداران
بانکداری
بانکوک
بانکی
بانگ
بانی
باهاما
باهم
باهنر
باهوش
باهیا
باو
باواریا
باوجود
باور
باورند
باورها
باورهای
باوری
باي
بايد
باپتیست
باک
باکتری
باکتریایی
باکره
باکس
باکو
باکیفیت
باکینگهام
باگ
بای
بایاس
بایت
باید
بایدن
بایر
بایرن
بایزید
بایست
بایستی
بایشان
باین
باینری
بایگانی
ببخشد
ببخشید
ببر
ببرد
ببرند
ببرید
ببریم
ببندد
ببندند
ببندید
ببین
ببیند
ببینم
ببینند
ببینید
ببینیم
بت
بتا
بتدریج
بتل
بتمن
بتن
بتنی
بتهوون
بتوان
بتواند
بتوانم
بتوانند
بتوانید
بتوانیم
بتی
بتیس
بتین
بث
بجا
بجای
بجز
بجنورد
بجهة
بجو
بحال
بحث
بحثتان
بحثش
بحثشان
بحثم
بحثمشارکت
بحثی
بحر
بحران
بحرانی
بحرین
بحساب
بخار
بخارا
بخارست
بخاری
بخاز
بخاطر
بخانه
بخت
بختیار
بختیاری
بخرد
بخش
بخشد
بخشدار
بخشداری
بخشش
بخشنامه
بخشند
بخشهای
بخشی
بخشید
بخشیدن
بخشیده
بخصوص
بخوان
بخواند
بخوانم
بخوانند
بخوانید
بخواهد
بخواهم
بخواهند
بخواهید
بخواهیم
بخود
بخور
بخورد
بخورند
بخوست
بخیر
بد
بدار
بدارد
بدافزار
بدان
بداند
بدانم
بدانند
بدانید
بدانیم
بداهه
بدبخت
بدبختی
بدبینی
بدتر
بدترین
بدخشان
بدخیم
بدر
بدرفتاری
بدره
بدرود
بدست
بدعت
بدفورد
بدفوردشر
بدل
بدلیل
بدم
بدمینتون
بدن
بدنام
بدنبال
بدنسازی
بدنش
بدنه
بدنی
بده
بدهد
بدهم
بدهند
بدهکار
بدهی
بدهید
بدهیم
بدو
بدولت
بدون
بدوی
بدی
بدید
بدیع
بدیعی
بدیل
بدین
بدینسان
بدیهی
بذر
بر
برا
برابانت
برابر
برابری
برات
براتیسلاوا
برادر
برادران
برادرانش
برادرز
برادرزاده
برادرش
برادری
برادفورد
برادوی
براساس
براق
برام
برامس
بران
براندازی
براندنبورگ
برانکس
برانگیخت
برانگیخته
برانگیز
براه
براهام
براهامیان
براهه
براون
براي
براک
براگا
برای
برایان
برایانت
برایتان
برایتون
برایش
برایشان
برایم
براین
بربر
برت
برتر
برتراند
برتری
برترین
برتون
برج
برجام
برجای
برجسته
برجستگی
برجک
برجی
برحسب
برخاست
برخاستن
برخاستند
برخاسته
برخط
برخلاف
برخورد
برخوردار
برخوردارند
برخورداری
برخوردهای
برخوردی
برخی
برد
بردار
برداران
بردارد
بردارند
بردارهای
برداری
بردارید
برداشت
برداشتم
برداشتن
برداشتند
برداشته
برداشتی
بردسکن
بردسیر
بردلی
بردم
بردن
بردند
برده
بردگان
بردگی
بردی
بردیا
بردین
بررسی
برروی
برزیل
برزیلی
برس
برساند
برسانم
برسانند
برسد
برسند
برسید
برسیم
برش
برشا
برشمرد
برشمرده
برشی
برطبق
برطرف
برعهده
برعکس
برف
برفی
برق
برقرار
برقراری
برقی
برلین
برم
برمبنای
برمن
برمه
برمودا
برمی
برمیگردد
برن
برنارد
برناردینو
برنامه
برنت
برنتفورد
برنج
برنجی
برند
برنده
برندهای
برندگان
برنز
برنزی
برنلی
برنمی
برنو
برنگ
برنی
بره
برهان
برهانی
برهم
برهمکنش
برهنه
برهنگی
برهه
برو
بروجرد
بروجردی
بروجن
برود
بروز
بروزرسانی
بروس
بروسیا
بروم
برومند
برومویچ
برون
بروند
برونو
بروني
بروژ
بروک
بروکس
بروکسل
بروکلین
بروی
بروید
برویم
برپا
برپایه
برپایی
برچسب
برچیده
برک
برکت
برکلی
برکنار
برکناری
برکه
برگ
برگامو
برگر
برگردان
برگرداند
برگرداندن
برگردانده
برگردد
برگرفته
برگزار
برگزاری
برگزید
برگزیدند
برگزیده
برگزیدگان
برگزیدگی
برگشت
برگشته
برگشتی
برگمان
برگن
برگه
برگی
برگیرنده
بری
بریت
بریتانیا
بریتانیای
بریتانیایی
بریتانیکا
بریتنی
بریتیش
بریج
برید
بریدن
بریده
بریز
بریزبن
بریستول
بریل
بریم
برین
برینز
بریک
بز
بزبان
بزرگ
بزرگان
بزرگتر
بزرگترش
بزرگتری
بزرگترین
بزرگداشت
بزرگراه
بزرگسال
بزرگسالان
بزرگسالی
بزرگش
بزرگمهر
بزرگنمایی
بزرگوار
بزرگی
بزم
بزمجه
بزن
بزند
بزنم
بزنند
بزنید
بزنیم
بزودی
بزی
بزیان
بس
بسا
بسازد
بسازم
بسازند
بسازید
بسازیم
بساط
بسامد
بسبب
بست
بستان
بستر
بسترهای
بستری
بستم
بستن
بستند
بستنی
بسته
بستک
بستکی
بستگان
بستگی
بسر
بسزایی
بسط
بسطامی
بسم
بسنده
بسوی
بسکتبال
بسی
بسیار
بسیاری
بسیج
بسیجی
بش
بشار
بشارت
بشارها
بشارهای
بشاری
بشدت
بشر
بشرح
بشردوستان
بشردوستانه
بشرویه
بشری
بشریت
بشقاب
بشمار
بشناسد
بشه
بشود
بشوم
بشوند
بشکند
بشکه
بشیر
بصره
بصری
بصورت
بصیرت
بطرف
بطری
بطلان
بطلمیوس
بطن
بطور
بطوری
بطوریکه
بعث
بعثت
بعد
بعدا
بعدازظهر
بعدتر
بعدش
بعدها
بعدی
بعرض
بعض
بعضا
بعضی
بعلاوه
بعلت
بعمل
بعنوان
بعهده
بعید
بغداد
بغدادی
بغل
بغلان
بفتا
بفتای
بفرستد
بفرستند
بفرماي
بفرمایند
بفرمایید
بفروشد
بفهمد
بقا
بقاي
بقای
بقایای
بقایی
بقتل
بقره
بقعه
بقول
بقیه
بل
بلا
بلاد
بلاروس
بلاش
بلاغ
بلاغت
بلاغی
بلافاصله
بلال
بلامانع
بلاک
بلاگ
بلای
بلایای
بلبل
بلخ
بلخی
بلد
بلدرچین
بلدیه
بلر
بلشویک
بلعمی
بلغارستان
بلغاری
بلفاست
بلقیس
بلند
بلندای
بلندتر
بلندترین
بلندمدت
بلندپایه
بلندی
بله
بلو
بلوار
بلوتوث
بلور
بلورهای
بلوری
بلورین
بلوز
بلوط
بلوغ
بلوم
بلومبرگ
بلوچ
بلوچستان
بلوچی
بلوک
بلوکی
بلژیک
بلژیکی
بلک
بلکبرن
بلکه
بلکپول
بلگراد
بلی
بلیت
بلیز
بلیط
بلیک
بم
بما
بماند
بمانند
بمب
بمباران
بمبي
بمجلس
بمعنی
بمل
بمن
بموجب
بمپور
بمیرد
بن
بنا
بناب
بنابر
بنابراین
بنابرین
بنادر
بنام
بناها
بناهای
بناپارت
بنای
بنایی
بنت
بنتون
بنجامین
بند
بندان
بندانگشتی
بندایش
بندد
بندر
بندرعباس
بندرها
بندرگاه
بندری
بندند
بنده
بندها
بندهای
بندپایان
بندپی
بندگان
بندی
بندیکت
بنر
بنز
بنزن
بنزین
بنزینی
بنشیند
بنظر
بنظرم
بنفش
بنفشه
بنفیکا
بنماید
بنه
بنو
بنونتو
بنویسد
بنویسم
بنویسند
بنویسید
بنویسیم
بنک
بنکس
بنگ
بنگال
بنگالی
بنگاه
بنگرید
بنگلادش
بنی
بنیاد
بنیادهای
بنیادی
بنیادین
بنیامین
بنیان
بنیانگذار
بنیانگذاران
بنیانگذاری
بنیتو
بنین
به
بها
بهاءالدین
بهاءالله
بهادار
بهادر
بهادری
بهار
بهارستان
بهاره
بهاری
بهانه
بهاي
بهای
بهایی
بهبهان
بهبهانی
بهبود
بهبودی
بهتر
بهتره
بهتری
بهترین
بهجت
بهداری
بهداشت
بهداشتی
بهر
بهرام
بهرامی
بهرحال
بهره
بهروز
بهزاد
بهزادی
بهزیستی
بهسازی
بهش
بهشت
بهشتی
بهشهر
بهم
بهمان
بهمراه
بهمن
بهمنی
بهمي
بهمین
بهنام
بهینه
بو
بوا
بواسطه
بوانات
بوبکر
بوت
بوتافوگو
بوتان
بوتسوانا
بوته
بوجود
بوخوم
بود
بودا
بوداپست
بوداگرایی
بودایی
بوداییان
بودجه
بودم
بودن
بودند
بودنش
بودنشان
بوده
بودی
بودید
بودیسم
بودیم
بور
بورد
بوردو
بورس
بورسیه
بورلی
بورن
بورنموث
بورني
بورو
بوروندی
بوروکراسی
بورژوازی
بورکینافاسو
بورکینافاسوی
بورگ
بورگاس
بورگس
بورگوندی
بوریس
بوس
بوسان
بوستان
بوستون
بوسنی
بوسنیایی
بوسه
بوسیله
بوش
بوشهر
بوعلی
بوف
بوفالو
بوق
بول
بولتن
بولتون
بولدر
بولز
بولونیا
بولی
بولیوار
بولیوی
بوم
بومی
بومیان
بون
بوندس
بوندستاگ
بوندسلیگا
بوهم
بوي
بوک
بوکا
بوکان
بوکانی
بوکر
بوکس
بوکسور
بوکسورها
بوکسورهای
بوکسینگ
بوگوتا
بوی
بویایی
بوید
بویراحمد
بویز
بویل
بویه
بویژه
بویی
بي
بپذیرد
بپذیرند
بپردازد
بپردازند
بپردازید
بپرسید
بپیوندد
بپیوندند
بچه
بک
بکار
بکارگیری
بکاری
بکت
بکر
بکش
بکشد
بکشند
بکشید
بکلی
بکند
بکنم
بکنند
بکنید
بکنیم
بکی
بگ
بگذار
بگذارد
بگذارم
بگذارند
بگذارید
بگذاریم
بگذرد
بگذریم
بگرم
بگریزد
بگم
بگو
بگونه
بگوي
بگوید
بگویم
بگویند
بگویید
بگوییم
بگیر
بگیرد
بگیرم
بگیرند
بگیری
بگیرید
بگیریم
بی
بیا
بیابان
بیابانی
بیابد
بیابند
بیابید
بیات
بیاد
بیار
بیاری
بیاموزد
بیان
بیانات
بیاندازید
بیانسه
بیانگر
بیانی
بیانیه
بیاورد
بیاورم
بیاورند
بیاورید
بیاوریم
بیاید
بیایند
بیایید
بیبر
بیبی
بیت
بیتس
بیتلز
بیتی
بیجار
بید
بیداد
بیدار
بیداری
بیدل
بیدگل
بیر
بیرانوند
بیرجند
بیرمنگام
بیروت
بیرون
بیرونی
بیزانس
بیزانسی
بیس
بیساي
بیسبال
بیست
بیستم
بیستمین
بیستون
بیسمارک
بیسیک
بیش
بیشتر
بیشترشان
بیشتری
بیشترین
بیشماری
بیشه
بیشینه
بیضا
بیضایی
بیضه
بیضوی
بیضی
بیطرف
بیطرفی
بیع
بیعت
بیفتد
بیفزایید
بیل
بیلا
بیلباي
بیلبورد
بیله
بیلی
بیم
بیمار
بیماران
بیمارانی
بیمارستان
بیمارستانی
بیماری
بیماریهای
بیمه
بین
بینا
بینالود
بینانه
بینایی
بینجامد
بیند
بیندازد
بیندازند
بیندازید
بینش
بینم
بینند
بیننده
بینندگان
بینهایت
بینوایان
بینی
بینید
بینیم
بیه
بیهار
بیهق
بیهقی
بیهوده
بیهوش
بیهوشی
بیو
بیوتکنولوژی
بیوتیک
بیوشیمی
بیولوژیک
بیولوژیکی
بیوه
بیوک
بیوگرافی
بیچ
بیچاره
بیژن
بیک
بیکار
بیکاری
بیکر
بیکن
بیکینی
بیگ
بیگانه
بیگانگان
بیگدلی
بیگم
بیگی
ة
ت
تا
تاب
تابستان
تابستانی
تابش
تابشی
تابع
تابعه
تابعی
تابعیت
تابلو
تابلوهای
تابلوی
تابناک
تابه
تابو
تابوت
تابیده
تات
تاتا
تاتار
تاتنهام
تاتی
تاثیر
تاثیری
تاج
تاجر
تاجران
تاجگذاری
تاجی
تاجیک
تاجیکستان
تاجیکی
تاخت
تاخیر
تاد
تار
تارا
تاراج
تاراگونا
تارتو
تارخ
تارنمای
تاری
تاریخ
تاریخچه
تاریخی
تاریک
تاریکی
تاز
تازه
تازگی
تازی
تاس
تاسف
تاسمانی
تاسیس
تاسیسات
تاش
تاشو
تاشکند
تاق
تال
تالاب
تالار
تالارهای
تالانتا
تالش
تالشی
تالکین
تالیف
تالیفات
تالین
تام
تامس
تامسون
تامل
تامپسون
تامی
تامیل
تامیلی
تامین
تان
تاندون
تانزانیا
تانک
تانگ
تاو
تاون
تاي
تاپ
تاچ
تاچر
تاک
تاکتیک
تاکتیکی
تاکدا
تاکستان
تاکسی
تاکنون
تاکی
تاکید
تای
تایباد
تایتان
تایتانیک
تایر
تایرا
تایلر
تایلند
تایلندی
تایم
تایمز
تاین
تایوان
تایوانی
تایپ
تایپه
تایی
تایید
تاییدشده
تب
تبادل
تبار
تباران
تبارها
تبارهای
تبانی
تبت
تبتی
تبخیر
تبدیل
تبر
تبري
تبری
تبریز
تبریزی
تبریک
تبصره
تبع
تبعات
تبعه
تبعیت
تبعید
تبعیدشدگان
تبعیدی
تبعیض
تبلت
تبلور
تبلیغ
تبلیغات
تبلیغاتی
تبلیغی
تبهکار
تبیان
تبیین
تثبیت
تثلیث
تجار
تجارب
تجارت
تجارتی
تجاری
تجاوز
تجدد
تجدید
تجدیدناپذیر
تجدیدنظر
تجدیدپذیر
تجربه
تجربی
تجربیات
تجریش
تجزیه
تجسم
تجسمی
تجلی
تجلیل
تجمع
تجمعات
تجمعی
تجمیع
تجهیز
تجهیزات
تجویز
تحت
تحتانی
تحدید
تحرک
تحرکات
تحریر
تحریریه
تحریف
تحریم
تحریک
تحسین
تحصن
تحصیل
تحصیلات
تحصیلاتش
تحصیلی
تحفه
تحقق
تحقیر
تحقیرا
تحقیق
تحقیقات
تحقیقاتی
تحقیقی
تحلیف
تحلیل
تحلیلگر
تحلیلگران
تحلیلی
تحمل
تحمیل
تحمیلی
تحول
تحولات
تحولی
تحویل
تحکیم
تخت
تخته
تختی
تخریب
تخصص
تخصصی
تخصیص
تخطی
تخفیف
تخلخل
تخلص
تخلف
تخلفات
تخلیه
تخم
تخمدان
تخمک
تخمیر
تخمین
تخمینی
تخیل
تخیلی
تد
تدابیر
تداخل
تدارک
تدارکات
تدارکاتی
تداعی
تدافعی
تداوم
تدبیر
تدریج
تدریجا
تدریجی
تدریس
تدفین
تدوین
تذهیب
تذکر
تذکرات
تذکره
تذکری
تر
ترا
ترابری
ترابی
تراجنسی
تراجنسیتی
تراز
ترازنامه
تراس
تراست
تراش
تراشه
تراشی
تراشیده
ترافیک
ترافیکی
تراموا
ترامپ
ترانزیت
ترانزیستور
ترانس
ترانسفورماتور
ترانمره
ترانه
تراژدی
تراکتور
تراکتورسازی
تراکم
تراکنش
تراکیه
تراگنجایش
تربت
تربیت
تربیتی
ترتیب
ترتیبات
ترتیبی
ترجمه
ترجمە
ترجیح
ترجیحا
ترجیحات
ترجیحی
ترد
تردد
تردید
تردیدی
ترزا
ترس
ترسم
ترسناک
ترسید
ترسیم
ترش
ترشح
ترشحات
ترشی
ترغیب
ترفیع
ترقی
ترم
ترمز
ترمودینامیک
ترمودینامیکی
ترمیم
ترمینال
ترن
ترنت
ترنتینو
ترند
ترنر
ترنس
تره
تروا
تروجان
ترور
ترورشده
تروریست
تروریستی
تروریسم
ترول
ترومن
ترومپت
ترون
تروي
تروی
ترویج
ترک
ترکان
ترکستان
ترکمان
ترکمن
ترکمنستان
ترکمنی
ترکه
ترکی
ترکیب
ترکیبات
ترکیبی
ترکیه
تری
تریاس
تریاک
تریبون
تریسی
تریل
تریلر
تریلیون
ترین
ترینیتی
ترینیداد
تریپل
تریک
تز
تزار
تزاری
تزریق
تزریقی
تزي
تزیین
تزیینات
تزیینی
تساوی
تست
تستوسترون
تسخیر
تسریع
تسلا
تسلط
تسلیت
تسلیحات
تسلیحاتی
تسلیم
تسمه
تسمیه
تسنن
تسنیم
تسه
تسهیل
تسهیلات
تسویه
تسکین
تش
تشابه
تشبیه
تشخیص
تشخیصی
تشدید
تشریح
تشریف
تشریفات
تشریفاتی
تشعشع
تشفشان
تشفشانی
تشنج
تشنه
تشنگی
تشویش
تشویق
تشک
تشکده
تشکر
تشکل
تشکیل
تشکیلات
تشکیلاتی
تشگاه
تشی
تشیع
تشین
تشییع
تصاحب
تصادف
تصادفی
تصاویر
تصاویری
تصحیح
تصدی
تصدیق
تصرف
تصریح
تصفیه
تصمیم
تصمیمات
تصمیمی
تصنیف
تصور
تصورات
تصوف
تصویب
تصویر
تصویربرداری
تصویرسازی
تصویرگر
تصویرگران
تصویرگری
تصویری
تضاد
تضعیف
تضمین
تضمینی
تطابق
تطبیق
تطبیقی
تطهیر
تظاهر
تظاهرات
تظاهراتی
تظاهرکنندگان
تعادل
تعادلی
تعارض
تعارف
تعاریف
تعالی
تعالیم
تعامل
تعاملات
تعاملی
تعاون
تعاونی
تعبیر
تعبیه
تعجب
تعداد
تعدادشان
تعدادی
تعدد
تعدیل
تعرض
تعرفه
تعریف
تعریفی
تعزیری
تعزیه
تعصب
تعطیل
تعطیلات
تعطیلی
تعظیم
تعقیب
تعلق
تعلیق
تعلیم
تعلیمات
تعمید
تعمیر
تعمیرات
تعمیم
تعهد
تعهدات
تعویض
تعویضی
تعویق
تعیین
تغذیه
تغیر
تغییر
تغییرات
تغییراتی
تغییرمسیر
تغییری
تفاسیر
تفاضل
تفاهم
تفاوت
تفاوتی
تفت
تفتان
تفتیش
تفحص
تفرجگاه
تفرش
تفرقه
تفریح
تفریحی
تفسیر
تفسیرهای
تفسیری
تفصیل
تفصیلی
تفلیس
تفنگ
تفنگدار
تفنگداران
تفویض
تفکر
تفکرات
تفکیک
تقابل
تقارن
تقاضا
تقاضای
تقاطع
تقدم
تقدیر
تقدیم
تقریب
تقریبا
تقریبی
تقریر
تقسیم
تقسیمات
تقصیر
تقطیر
تقلب
تقلبی
تقلید
تقلیدی
تقلیل
تقوی
تقویت
تقویم
تقی
تقیه
تل
تلاش
تلاشی
تلاف
تلافی
تلاقی
تلانتا
تلانتیس
تلانتیک
تلاوت
تلتیکو
تلخ
تلخی
تلسکوپ
تلف
تلفات
تلفظ
تلفن
تلفنی
تلفه
تلفیق
تلفیقی
تلقی
تلمبه
تلمود
تله
تلوگو
تلویزیون
تلویزیونی
تلگراف
تلگرافی
تلگرام
تم
تماس
تماسی
تماشا
تماشاخانه
تماشاچیان
تماشاگر
تماشاگران
تماشای
تمام
تماما
تمامی
تمامیت
تمایز
تمایل
تمایلات
تمایلی
تمبر
تمثیل
تمجید
تمدن
تمدنی
تمدید
تمرکز
تمرین
تمرینات
تمرینی
تمساح
تمسخر
تمشک
تملک
تمکین
تمیز
تمیزکاری
تن
تنا
تناسب
تناسبی
تناسخ
تناسلی
تناقض
تنان
تناوب
تناوبی
تنباکو
تنبل
تنبور
تنبک
تنبیه
تند
تندر
تندرستی
تندرو
تندی
تندیس
تنریف
تنزل
تنسور
تنسی
تنش
تنظیم
تنظیمات
تنفر
تنفس
تنفسی
تنه
تنها
تنهایی
تنور
تنوع
تنکابن
تنکابنی
تنگ
تنگستان
تنگستن
تنگه
تنگی
تنی
تنیده
تنیس
ته
تهاجم
تهاجمی
تهدید
تهدیدات
تهدیدهای
تهدیدی
تهذیب
تهران
تهرانی
تهماسب
تهمت
تهوع
تهویه
تهی
تهیه
تو
توا
توابع
تواریخ
توازن
توافق
توافقنامه
توافقی
توالت
توالی
توان
توانا
توانایی
توانبخشی
تواند
توانست
توانستم
توانستند
توانسته
توانم
توانمند
توانمندسازی
توانمندی
توانند
توانی
توانید
توانیم
توباگو
توبه
توبی
توت
توتال
توتون
توج
توجه
توجهی
توجیه
توجیهی
توحید
توحیدی
توخالی
توده
تور
تورات
توران
توربو
توربین
تورج
تورس
تورم
تورنتو
تورنمنت
توره
تورهای
تورو
تورکی
توری
توریست
توریستی
تورین
تورینو
تورینگ
تورینگن
توزیع
توس
توسا
توست
توسط
توسعه
توسل
توسلی
توسو
توسکانی
توشیح
توصیف
توصیفی
توصیه
توضیح
توضیحات
توضیحاتی
توضیحی
توطي
توفان
توفند
توفیق
توفیقی
توقع
توقف
توقیف
تول
تولد
تولدش
تولدو
تولستوی
توله
تولوز
تولیت
تولید
تولیدات
تولیدشده
تولیدمثل
تولیدکننده
تولیدکنندگان
تولیدی
توماس
تومان
تومانی
تومور
تومورهای
تومیتوز
تون
تونس
تونسی
تونل
تونم
تونه
تونگا
تونی
توهم
توهین
توي
توپ
توپخانه
توپولف
توپولوژی
توپوگرافی
توپی
توچیگی
توکل
توکلی
توکن
توکوگاوا
توکیو
توگو
توی
تویسرکان
توینکل
تویوتا
تویوتومی
توییت
توییتر
تي
تپ
تپانچه
تپش
تپه
تپوری
تک
تکاب
تکالیف
تکامل
تکاملی
تکان
تکانه
تکثیر
تکذیب
تکرار
تکرارشونده
تکراری
تکفیر
تکلم
تکلیف
تکمیل
تکمیلی
تکن
تکنسین
تکنولوژی
تکنیک
تکنیکی
تکه
تکواندو
تکواندوکار
تکواندوکاران
تکوین
تکی
تکیه
تگ
تگزاس
تی
تیان
تیت
تیتان
تیتانیوم
تیتر
تیتراژ
تیتوس
تیر
تیرانا
تیرانداز
تیراندازان
تیراندازی
تیراژ
تیرباران
تیرداد
تیرماه
تیره
تیرهای
تیرول
تیروي
تیرگی
تیری
تیز
تیسفون
تیش
تیغ
تیغه
تیغی
تیل
تیلا
تیلور
تیم
تیمز
تیمسار
تیمش
تیمهای
تیموتی
تیمور
تیمورتاش
تیموری
تیموریان
تیمچه
تیمی
تین
تینا
تیه
تیول
تیپ
تیک
تیگران
ث
ثابت
ثابتی
ثار
ثارش
ثارشان
ثاری
ثالث
ثانوی
ثانویه
ثانی
ثانیا
ثانیه
ثبات
ثباتی
ثبت
ثبتی
ثر
ثروت
ثروتمند
ثروتمندان
ثروتمندترین
ثری
ثریا
ثقفی
ثلاث
ثلث
ثم
ثمر
ثمره
ثواب
ثور
ثیر
ثیرات
ثیرگذار
ثیرگذارترین
ثیرگذاری
ثیری
ج
جا
جابجا
جابجایی
جابر
جابز
جابه
جات
جاجرم
جاده
جادو
جادوگر
جادوگران
جادوگری
جادوی
جادویی
جاذب
جاذبه
جار
جارزنی
جارو
جاری
جاز
جاسازی
جاست
جاستین
جاسوس
جاسوسان
جاسوسی
جاسک
جاش
جاشوا
جالب
جالبی
جام
جاماي
جامد
جامدات
جامع
جامعه
جامعی
جامه
جامو
جامی
جان
جاناتان
جانب
جانبازان
جانبدارانه
جانبداری
جانبه
جانبی
جاندار
جانداران
جانز
جانستون
جانسون
جانش
جانشین
جانشینان
جانشینی
جانم
جانور
جانوران
جانورانی
جانورشناسان
جانورشناسی
جانوری
جانگ
جانی
جاه
جاها
جاهای
جاهایی
جاوا
جاوااسکریپت
جاودان
جاودانه
جاودانگی
جاوه
جاوید
جاویدان
جاي
جاکارتا
جای
جایز
جایزه
جایش
جایگاه
جایگاهی
جایگزین
جایگزینی
جایگشت
جایی
جاییکه
جبار
جباری
جبال
جبر
جبران
جبري
جبری
جبل
جبهه
جت
جثه
جد
جدا
جداره
جداسازی
جدال
جداول
جداکننده
جداگانه
جدای
جدایی
جدل
جده
جدول
جدولی
جدی
جدیت
جدید
جدیدا
جدیدتر
جدیدترین
جدیدش
جدیدی
جذاب
جذابیت
جذب
جر
جرا
جرات
جراح
جراحات
جراحان
جراحت
جراحی
جرارد
جرالد
جراي
جراید
جرایم
جرثقیل
جرج
جرح
جردن
جرزی
جرقه
جرم
جرمی
جرهای
جروم
جري
جرگه
جری
جریان
جریانات
جریانی
جریب
جریر
جریمه
جریکو
جز
جزء
جزا
جزای
جزایر
جزایری
جزایی
جزر
جزو
جزوه
جزي
جزیره
جزیی
جزییات
جسارت
جست
جستار
جستارنویسان
جستارهای
جستجو
جستجوگر
جستجوی
جسته
جسد
جسم
جسمانی
جسمی
جسور
جسی
جسیکا
جشن
جشنواره
جشنی
جعبه
جعفر
جعفرا
جعفری
جعفریان
جعل
جعلی
جغتای
جغد
جغرافی
جغرافیا
جغرافیای
جغرافیایی
جـیپیوتر
جف
جفت
جفرسون
جفری
جل
جلا
جلال
جلالی
جلب
جلبک
جلد
جلدی
جلسات
جلسه
جلفا
جلو
جلوتر
جلوس
جلوه
جلوگیری
جلوی
جلویی
جلگه
جلیل
جلیلی
جم
جمادی
جماعت
جماعتی
جمال
جمالی
جماهیر
جمجمه
جمشید
جمشیدی
جمع
جمعا
جمعه
جمعی
جمعیت
جمعیتی
جملات
جملاتی
جمله
جمهور
جمهورهای
جمهوری
جمهوریخواه
جمیع
جمیل
جن
جناب
جنابعالی
جناح
جنازه
جنایات
جنایت
جنایتکار
جنایی
جنب
جنبش
جنبشی
جنبه
جنت
جنتی
جنجال
جنجالی
جندی
جنرال
جنس
جنسی
جنسیت
جنسیتی
جنسیس
جنوا
جنوب
جنوبگان
جنوبی
جنون
جنگ
جنگجو
جنگجوی
جنگجویان
جنگل
جنگلی
جنگنده
جنگهای
جنگی
جنگید
جنگیدن
جنگیدند
جنی
جنید
جنیفر
جنین
جنینی
جه
جهات
جهاد
جهادی
جهان
جهانگرد
جهانگردان
جهانگردی
جهانگیر
جهانگیری
جهانی
جهانیان
جهت
جهتی
جهرم
جهرمی
جهش
جهل
جهنم
جو
جوا
جواب
جوابی
جواد
جوادی
جوار
جواز
جوامع
جوان
جوانا
جوانان
جوانب
جوانبخت
جوانترین
جوانرود
جوانمرد
جوانمردی
جوانه
جوانی
جواهر
جواهرات
جوایز
جوایزی
جوجه
جوخه
جود
جودو
جودوکار
جودوکاران
جودی
جودیت
جور
جوراب
جورج
جورجو
جورجیا
جوری
جوزف
جوزپه
جوش
جوشکاری
جوشی
جولان
جولای
جولی
جولیا
جولیان
جون
جوندگان
جونز
جونو
جونگ
جونیور
جونیورز
جوهر
جوهری
جووانی
جوي
جوکر
جوی
جویا
جویان
جویانه
جویبار
جویباری
جویس
جویم
جوین
جوینی
جویی
جي
جک
جکسون
جکی
جگر
جگوار
جی
جیانگ
جیب
جیبوتی
جیبی
جیحون
جیرجیرک
جیرفت
جیره
جیرو
جیسون
جیغ
جیل
جیم
جیمز
جیمی
جین
جینا
جینی
جیوه
جیووانی
جیپ
جیپیـــوتر
جیک
جیکوب
ح
حاتم
حاتمی
حاج
حاجب
حاجت
حاجی
حاد
حادثه
حارث
حاره
حاشیه
حاصل
حاصلخیز
حاصله
حاضر
حاضران
حافظ
حافظه
حال
حالا
حالات
حالت
حالتی
حالی
حالیکه
حامد
حامل
حاملگی
حامی
حامیان
حاوی
حاي
حاکم
حاکمان
حاکمیت
حاکی
حب
حباب
حبس
حبوبات
حبیب
حبیبی
حت
حتا
حتما
حتمی
حتی
حج
حجاب
حجاج
حجاری
حجاز
حجازی
حجت
حجر
حجره
حجم
حجمی
حجیم
حد
حداد
حداقل
حداقلی
حداکثر
حداکثری
حدس
حدود
حدودا
حدودی
حدی
حدیث
حدیثی
حذف
حذفش
حذفی
حر
حراج
حرارت
حرارتی
حراست
حرام
حرب
حرص
حرف
حرفه
حرفها
حرفهای
حرفی
حرم
حرمت
حروف
حرکات
حرکت
حرکتی
حریری
حریف
حریفان
حریق
حریم
حزب
حزبی
حس
حساب
حسابدار
حسابداران
حسابداری
حسابرسی
حسابهای
حسابی
حسادت
حساس
حساسیت
حسام
حسب
حسرت
حسن
حسنعلی
حسنی
حسگر
حسگرها
حسگرهای
حسی
حسیبی
حسین
حسینعلی
حسینقلی
حسینی
حسینیه
حشرات
حشره
حشمت
حصار
حصر
حصول
حضار
حضانت
حضرت
حضور
حضورش
حضوری
حفاری
حفاظت
حفاظتی
حفر
حفره
حفظ
حق
حقانی
حقایق
حقه
حقوق
حقوقدان
حقوقی
حقی
حقیر
حقیقت
حقیقتا
حقیقی
حل
حلال
حلب
حلزون
حلق
حلقه
حلقوی
حلوا
حلی
حماس
حماسه
حماسی
حمام
حمایت
حمایتی
حمد
حمدالله
حمزه
حمص
حمل
حملات
حمله
حموی
حمید
حمیدرضا
حمیده
حمیدی
حمیدیه
حنا
حنایی
حنجره
حنفی
حوا
حوادث
حوادثی
حواری
حواریون
حواس
حواشی
حواله
حوالی
حوثی
حوزه
حوزوی
حوصله
حوض
حوضه
حوضچه
حول
حومه
حک
حکام
حکاکی
حکایت
حکم
حکمت
حکمران
حکمرانان
حکمرانی
حکمی
حکمیت
حکومت
حکومتش
حکومتی
حکیم
حکیمی
حی
حیا
حیات
حیاتی
حیاط
حیث
حیثیت
حیدر
حیدرا
حیدری
حیدریه
حیران
حیرت
حیطه
حیف
حیفا
حیله
حین
حیوان
حیوانات
حیواناتی
حیوانی
خ
خاتم
خاتمه
خاتمی
خاتون
خاخام
خادم
خار
خارج
خارجه
خارجی
خاردار
خارش
خارق
خارک
خارکوف
خازن
خازنی
خاستگاه
خاش
خاص
خاصه
خاصی
خاصیت
خاطر
خاطرات
خاطراتش
خاطرنشان
خاطره
خاطی
خاقان
خاقانی
خال
خالد
خالدار
خالص
خالصه
خالق
خالقی
خاله
خالکوبی
خالی
خام
خامنه
خامه
خاموش
خاموشی
خامی
خان
خانات
خاندان
خانقاه
خانلری
خانم
خانمان
خانه
خانواده
خانوادگی
خانوار
خانگی
خانی
خاور
خاوران
خاورشناسان
خاورمیانه
خاوری
خاویر
خاي
خاچی
خاچیکیان
خاک
خاکستر
خاکستری
خاکسپاری
خاکی
خب
خبر
خبرا
خبرنامه
خبرنگار
خبرنگاران
خبرنگاری
خبره
خبرها
خبرهای
خبرگان
خبرگزاری
خبری
ختم
ختنه
خجالت
خجسته
خدا
خداا
خدابنده
خداحافظ
خداحافظی
خداداد
خداست
خداوند
خدای
خدایان
خدایی
خدشه
خدمات
خدماتی
خدمت
خدمتکار
خدمتی
خدمه
خدیجه
خذ
خر
خراب
خرابه
خرابکار
خرابکاران
خرابکارانه
خرابکاری
خرابی
خراج
خراسان
خراسانی
خراش
خرافات
خرالزمان
خرالزمانی
خربزه
خرت
خرج
خرد
خرداد
خردادماه
خردسال
خردمند
خرده
خرس
خرسندی
خرش
خرم
خرما
خرمشهر
خرمن
خروج
خروجی
خروس
خروشچف
خرونینگن
خرچنگ
خرگوش
خری
خرید
خریدار
خریداران
خریداری
خریده
خرین
خز
خزان
خزانه
خزایی
خزر
خزش
خزنده
خزندگان
خزه
خس
خسارات
خسارت
خسته
خستگی
خسرو
خسروانی
خسروی
خشایار
خشایارشا
خشت
خشتی
خشخاش
خشم
خشمگین
خشن
خشنود
خشونت
خشک
خشکسالی
خشکی
خصلت
خصمانه
خصوص
خصوصا
خصوصی
خصوصیات
خصوصیت
خصومت
خصیصه
خضر
خط
خطا
خطاب
خطابه
خطاها
خطاهای
خطای
خطایی
خطبه
خطر
خطرات
خطرناک
خطرناکی
خطری
خطه
خطوط
خطی
خطیب
خطیبی
خفاش
خفته
خفه
خفگی
خفیف
خلا
خلاء
خلاص
خلاصه
خلاف
خلافت
خلاق
خلاقانه
خلاقیت
خلال
خلبان
خلبانان
خلبانی
خلج
خلخال
خلخالی
خلدرلاند
خلدون
خلط
خلع
خلف
خلفا
خلفای
خلفی
خلق
خلقت
خلقی
خلوت
خلوص
خلیج
خلیفه
خلیل
خلیلی
خم
خمس
خمسه
خمش
خمپاره
خمیده
خمیر
خمین
خمینی
خن
خنثی
خنج
خنجر
خندان
خندق
خنده
خنک
خه
خو
خوا
خواب
خوابگاه
خوابی
خوابیدن
خوابیده
خواجه
خواجوی
خوار
خواران
خوارج
خوارزم
خوارزمشاه
خوارزمشاهیان
خوارزمی
خوارهای
خواری
خواست
خواستار
خواستم
خواستند
خواسته
خواستگاری
خواستید
خواستیم
خواص
خواف
خوام
خوان
خواند
خواندم
خواندن
خواندند
خواندنی
خوانده
خوانسار
خوانساری
خوانش
خوانم
خوانند
خواننده
خوانندگان
خوانندگی
خوانی
خوانیم
خوانین
خواه
خواهان
خواهانه
خواهد
خواهدبود
خواهدشد
خواهر
خواهران
خواهرخوانده
خواهرزاده
خواهرش
خواهش
خواهشمند
خواهشمندم
خواهم
خواهند
خواهی
خواهید
خواهیم
خوب
خوبه
خوبی
خوبیده
خوبیدگی
خود
خودا
خودارضایی
خودت
خودتان
خودتون
خودداری
خودرا
خودرو
خودروسازی
خودروها
خودروهای
خودروی
خودرویی
خودزندگی
خودسرانه
خودش
خودشان
خودم
خودمان
خودمختار
خودمختاری
خودنمایی
خودکار
خودکشی
خودگردان
خودی
خور
خوراک
خوراکی
خورخه
خورد
خوردن
خوردند
خورده
خوردگی
خورش
خورشید
خورشیدگرفتگی
خورشیدی
خورناتسی
خورند
خورک
خوری
خوزستان
خوزه
خوسف
خوش
خوشاب
خوشامد
خوشامدگویی
خوشایند
خوشبختانه
خوشبختی
خوشحال
خوشحالم
خوشحالی
خوشش
خوشنویس
خوشنویسان
خوشنویسی
خوشه
خوشی
خوف
خون
خوند
خونریزی
خونه
خونی
خونین
خوي
خوک
خوی
خویش
خویشاوند
خویشاوندان
خویشاوندی
خویشتن
خویی
خی
خیابان
خیابانی
خیار
خیاط
خیاطی
خیال
خیالی
خیام
خیانت
خیبر
خیر
خیرا
خیره
خیری
خیریه
خیز
خیزد
خیزش
خیزی
خیس
خیل
خیلی
خیم
خیمه
د
دا
داب
دابلیو
دات
داخل
داخله
داخلی
داد
دادخواست
دادخواهی
دادرس
دادرسی
دادستان
دادستانی
دادسرای
دادم
دادن
دادند
داده
دادگان
دادگاه
دادگاهی
دادگستری
دادی
دادید
دادیم
دار
دارا
داراب
داراست
دارالفنون
داران
داراي
دارای
دارایی
دارد
دارسی
دارلینگتون
دارم
دارمشتات
دارن
دارند
دارنده
دارندگان
داره
دارها
دارو
داروخانه
داروسازی
داروها
داروهای
داروهایی
داروی
داروین
دارویی
دارک
دارکوب
داری
دارید
داریم
داریوش
داس
داستان
داستانهای
داستانی
داش
داشت
داشتم
داشتن
داشتند
داشتنی
داشته
داشتید
داشتیم
داعش
داعی
داغ
داغستان
داغی
دال
دالاس
دالان
دالاهو
دالبا
دالتون
دالی
دام
داماد
داماش
دامان
دامداری
دامز
دامغان
دامغانی
دامن
دامنه
دامپروری
دامپزشکی
دامی
دان
دانا
دانان
دانایی
دانته
داند
داندی
دانست
دانستم
دانستن
دانستند
دانسته
دانستید
دانش
دانشجو
دانشجوی
دانشجویان
دانشجویی
دانشسرای
دانشمند
دانشمندان
دانشمندی
دانشنامه
دانشور
دانشوران
دانشکده
دانشگاه
دانشگاهی
دانشگاهیان
دانشی
دانشیار
دانقولا
دانل
دانلد
دانلود
دانم
دانمارک
دانمارکی
دانند
دانه
دانوب
دانکرک
دانکن
دانگ
دانی
دانیال
دانید
دانیل
دانیم
داو
داود
داور
داوران
داوری
داوطلب
داوطلبان
داوطلبانه
داون
داوود
داوودی
داوکینز
داوید
داي
داک
داکا
داکوتا
داکوتای
داگ
داگلاس
دای
دایان
دایانا
دایر
دایرةالمعارف
دایره
دایرکتوری
دایم
دایمی
دایناسور
دایناسورها
دایناسورهای
دایی
دب
دبستان
دبستانی
دبلیو
دبلیودبلیوي
دبی
دبیر
دبیران
دبیرخانه
دبیرستان
دبیرستانی
دبیره
دبیرکل
دبیری
دث
دجله
دخالت
دخانیات
دخت
دختر
دختران
دخترانه
دخترش
دخترها
دختری
دخل
دخمه
دخول
دخیل
دده
در
درا
دراز
درازا
درازای
درازمدت
درازی
درام
دراما
دراماتیک
درامر
درامز
دران
درانی
دراویش
دراپر
دراکولا
دراگون
دراین
درایو
درایور
درب
درباب
دربار
درباره
درباری
درباریان
دربارە
دربر
دربرابر
دربردارد
دربردارنده
دربرمی
دربرگیرنده
دربند
دربی
درج
درجا
درجات
درجه
درحال
درحالی
درحالیکه
درخت
درختان
درختچه
درختی
درخشان
درخشانی
درخشش
درخشندگی
درخشید
درخصوص
درخواست
درخواستی
درخور
درد
دردسر
دردناک
دردهای
دردی
درز
درس
درسال
درست
درستش
درسته
درستی
درسدن
درسی
درش
درشت
درصد
درصدد
درصدی
درصورت
درصورتی
درضمن
درفش
درم
درمان
درمانگاه
درمانی
درمورد
درمی
درمیان
درنتیجه
درنرژیک
درنظر
درنقش
درنهایت
درنگ
دره
درها
درهای
درهم
درو
دروازه
درواقع
درود
دروس
دروغ
دروغین
درون
درونمایه
درونی
درویش
درویشان
درویشی
درپی
درک
درگاه
درگذشت
درگذشته
درگذشتگان
درگرفت
درگز
درگیر
درگیری
دری
دریا
دریابیگی
دریاسالار
دریافت
دریافتند
دریافته
دریافتی
دریان
دریانوردان
دریانوردی
دریاها
دریاهای
دریاچه
دریای
دریایی
دریغ
دریم
درین
دریچه
دریک
دز
دزد
دزدان
دزدی
دزدیده
دزفول
دسامبر
دست
دستان
دستاورد
دستاوردها
دستاوردهای
دستبرد
دستخوش
دسترس
دسترسی
دستش
دستغیب
دستم
دستمال
دستمزد
دسته
دستور
دستورات
دستورالعمل
دستورها
دستورهای
دستوری
دستکاری
دستکش
دستکم
دستگاه
دستگاههای
دستگاهی
دستگیر
دستگیری
دستی
دستیابی
دستیار
دستیاران
دستیاری
دسکتاپ
دسیسه
دشت
دشتستان
دشتی
دشمن
دشمنان
دشمنی
دشنام
دشوار
دشوارتر
دشواری
دعا
دعاوی
دعای
دعوا
دعوای
دعوت
دعوی
دغدغه
دف
دفاتر
دفاع
دفاعی
دفتر
دفترچه
دفتری
دفع
دفعات
دفعه
دفن
دقایق
دقایقی
دقت
دقتی
دقیق
دقیقا
دقیقه
دقیقی
دل
دلا
دلار
دلارام
دلاری
دلال
دلالت
دلاور
دلاوری
دلاویر
دلاي
دلاید
دلایل
دلایلی
دلبر
دلبستگی
دلتا
دلتای
دلخواه
دلر
دلسرد
دلسوز
دلش
دلفان
دلفی
دلفین
دلفینو
دلقک
دلم
دلهره
دلو
دلپذیر
دلکش
دلگان
دلی
دلیجان
دلیر
دلیری
دلیل
دلیلش
دلیلی
دم
دما
دماغ
دماغه
دماهای
دماوند
دمای
دمایی
دمش
دمشق
دموکرات
دموکراتیک
دموکراسی
دمکرات
دمکراتیک
دمکراسی
دمی
دمیان
دن
دنا
دنبال
دنبالش
دنباله
دندان
دندانه
دندانپزشکی
دندانی
دنده
دنس
دنور
دنگ
دنی
دنیا
دنیاست
دنیاگیری
دنیای
دنیایی
دنیس
دنیل
دنیوی
دنیپر
دنیپرو
ده
دهات
دهان
دهانه
دهانی
دهخدا
دهد
دهستان
دهستانی
دهقان
دهقانان
دهقانی
دهلران
دهلوی
دهلی
دهلیز
دهم
دهمین
دهن
دهند
دهنده
دهندگان
دهنه
دهه
دهکده
دهگلان
دهی
دهیاری
دهید
دهیم
دو
دوا
دوار
دوازده
دوازدهم
دوازدهمین
دوام
دوانی
دوایت
دوبار
دوباره
دوباله
دوبعدی
دوبلاژ
دوبله
دوبلور
دوبلین
دوتا
دوتایی
دوج
دوجانبه
دوجنس
دوحه
دوخت
دوخته
دود
دودمان
دودویی
دودکش
دودی
دور
دورا
دورافتاده
دوران
دورانت
دورانی
دوربین
دورتر
دورترین
دورتموند
دوردست
دورست
دوره
دورهام
دوروتی
دورود
دورگه
دوری
دورە
دوز
دوزخ
دوزی
دوزیستان
دوس
دوسالانه
دوست
دوستان
دوستانش
دوستانه
دوستانی
دوستت
دوستدار
دوستداران
دوستش
دوستم
دوستی
دوسلدورف
دوش
دوشس
دوشنبه
دوشیزه
دوطرفه
دوغ
دوقطبی
دوقلو
دوقلوها
دوقلوهای
دوقلوی
دول
دولت
دولتشاه
دولتشاهی
دولتمردان
دولتها
دولتهای
دولتی
دولف
دوم
دوما
دومش
دوموتوره
دومی
دومین
دومینیک
دومینیکا
دومینیکن
دون
دونا
دوناتلو
دونالد
دونتسک
دونده
دوندگان
دونفره
دونم
دونور
دونکستر
دونگ
دوو
دوور
دوون
دوي
دوپامین
دوپینگ
دوچرخه
دوک
دوگان
دوگانه
دوگانگی
دوی
دویدن
دویسبورگ
دویست
دویل
دویچه
دي
ديگر
دپ
دپارتمان
دپورتیوو
دچار
دژ
دژهای
دکارت
دکان
دکتر
دکترا
دکترای
دکتری
دکترین
دکستر
دکل
دکمه
دگذاری
دگر
دگرباشان
دگرجنس
دگرگون
دگرگونی
دی
دیابت
دیابتی
دیار
دیاربکر
دیاز
دیافراگم
دیالوگ
دیالکتیک
دیان
دیانا
دیانت
دیاکو
دیبا
دیباچه
دیبی
دیتا
دیتابیس
دیتالیا
دیترویت
دیجیتال
دیجیتالی
دید
دیدار
دیدارهای
دیداری
دیدبان
دیدم
دیدن
دیدند
دیدنی
دیده
دیدگان
دیدگاه
دیدگاهی
دیدگی
دیدی
دیدید
دیدیم
دیر
دیرباز
دیرتر
دیره
دیروز
دیری
دیرین
دیرینه
دیرینگی
دیز
دیزل
دیزلی
دیزنی
دیزی
دیس
دیسک
دیسکو
دیشب
دیفرانسیل
دیل
دیلم
دیلمان
دیلمی
دیلمیان
دیلن
دیلی
دیم
دیمون
دیمیتری
دین
دینا
دینار
دینامو
دینامیک
دینامیکی
دینه
دینور
دینی
دیه
دیهیم
دیو
دیوار
دیواره
دیوارها
دیوارهای
دیواری
دیوان
دیواندره
دیوانسالار
دیوانسالاران
دیوانسالاری
دیوانه
دیوانگی
دیوانی
دیود
دیور
دیون
دیوی
دیوید
دیویس
دیویسیون
دیویژن
دیپ
دیپلم
دیپلمات
دیپلماتیک
دیپلماسی
دیک
دیکتاتور
دیکتاتوری
دیکسون
دیکشنری
دیکنز
دیگ
دیگر
دیگران
دیگرش
دیگری
دیگه
دیگو
ذ
ذا
ذات
ذاتا
ذاتی
ذبیح
ذخایر
ذخیره
ذر
ذرات
ذربایجان
ذربایجانی
ذرت
ذرخش
ذرماه
ذره
ذری
ذرین
ذلک
ذن
ذهاب
ذهن
ذهنم
ذهنی
ذهنیت
ذوالفقار
ذوالفقاری
ذوب
ذوق
ذوقه
ذکر
ذکرشده
ذی
ذیل
ذین
ر
را
راء
راب
رابر
رابرت
رابرتز
رابرتس
رابرتسون
رابط
رابطه
رابه
رابی
رابین
رابینسون
راتن
راج
راجر
راجرز
راجستان
راجع
راجعه
راحت
راحتی
راد
رادار
راداری
رادان
رادرفورد
رادیو
رادیواکتیو
رادیولوژی
رادیوی
رادیویی
رادیکال
رارات
راز
رازی
راس
راست
راستا
راستای
راستش
راسته
راستی
راستین
راسخ
راسل
راسک
راسینگ
راش
راشد
راشدین
راشل
راضی
راف
رافاي
رال
رالف
رالی
رالینز
رام
رامبل
رامستان
رامسر
رامش
رامهرمز
راموس
رامون
رامگاه
رامی
رامین
ران
رانان
راند
راندبی
راندمان
راندن
راندند
رانده
رانش
راننده
رانندگان
رانندگی
رانی
راه
راهب
راهبان
راهبرد
راهبردی
راهبری
راهبه
راهرو
راهش
راهم
راهنما
راهنمای
راهنمایی
راهپیمایی
راهکار
راهکارهای
راهی
راهیابی
راو
راور
راورز
راوی
راویان
راي
راک
راکت
راکتور
راکفلر
راکه
راکول
راکی
راگاتسوتن
راگبی
راگون
رای
رایان
رایانش
رایانه
رایت
رایج
رایدر
رایزنی
رایس
رایش
رایشی
رایلی
راین
راینلاند
رایه
رایو
رایگان
رایی
رب
ربا
ربات
رباتی
رباتیک
رباط
رباعی
رباعیات
ربانی
ربایی
ربط
ربطی
ربع
ربودن
ربوده
ربکا
ربی
ربیع
ربیعی
رة
رةالمعارف
رت
رتا
رتبه
رتریت
رتزو
رتس
رتساخ
رتمیس
رتور
رتی
رتیستس
رج
رجال
رجانا
رجایی
رجب
رجبی
رجعت
رجل
رجوع
رجوی
رجیستر
رجینا
رحم
رحمان
رحمانه
رحمانی
رحمت
رحمتی
رحمی
رحیم
رحیمی
رخ
رخت
رخداد
رخدادها
رخدادهای
رخنه
رد
ردا
ردبول
ردتن
ردن
رده
ردپای
ردی
ردیاب
ردیابی
ردیف
ردینگ
رز
رزا
رزرو
رزم
رزمندگان
رزمی
رزن
رزو
رزولوشن
رزومه
رزوهای
رزوی
رزی
رزیدنت
رزین
رس
رسا
رسالة
رسالت
رساله
رسان
رسانا
رسانای
رسانایی
رساند
رساندن
رساندند
رسانده
رسانند
رسانه
رسانی
رسانید
رسانیده
رساي
رستاخیز
رستاق
رستم
رستمدار
رستمی
رسته
رستوران
رستگاری
رسد
رسلمانیا
رسم
رسما
رسمی
رسمیت
رسن
رسنال
رسند
رسنیک
رسوایی
رسوب
رسوبات
رسوبی
رسول
رسولان
رسولی
رسوم
رسی
رسید
رسیدم
رسیدن
رسیدند
رسیده
رسیدگی
رسیدیم
رسیم
رش
رشت
رشته
رشتی
رشد
رشدی
رشوه
رشید
رشیدی
رشیو
رصد
رصدخانه
رض
رضا
رضاخان
رضاشاه
رضاقلی
رضای
رضایت
رضایی
رضوان
رضوانشهر
رضوی
رضی
رطوبت
رعایا
رعایت
رعد
رعنا
رعیت
رغبت
رغم
رف
رفاه
رفاهی
رفت
رفتار
رفتارها
رفتارهای
رفتاری
رفتم
رفتن
رفتند
رفته
رفتیم
رفراندوم
رفرنس
رفسنجان
رفسنجانی
رفع
رفقای
رفیع
رفیعی
رفیق
رقابت
رقابتی
رقاص
رقبا
رقبای
رقص
رقصنده
رقصندگان
رقم
رقمی
رقیب
رقیبان
رقیق
رقیه
رله
رلینگتون
رم
رمان
رمانب
رمانتیک
رمانی
رماویر
رمز
رمزنگاری
رمزگذاری
رمزگشایی
رمزی
رمسترانگ
رمضان
رمضانی
رمن
رمی
رمین
رن
رنا
رنت
رنج
رنجبر
رنجرز
رند
رندی
رنس
رنسانس
رنه
رنو
رنولد
رنگ
رنگارنگ
رنگدانه
رنگرزی
رنگهای
رنگی
رنگین
ره
رها
رهاشده
رهایی
رهبر
رهبران
رهبری
رهسپار
رهنما
رهنمود
رهنمودها
رهنمودهای
رهگذر
رهگیری
رو
روا
روابط
رواج
روادید
رواره
رواق
روال
روان
رواندا
روانسر
روانشناختی
روانشناس
روانشناسان
روانشناسی
روانه
روانپزشکی
روانکاوی
روانی
روایات
روایاتی
روایت
روایتی
روایی
روب
روبات
روباز
روبان
روباه
روبر
روبرت
روبرتو
روبرو
روبروی
روبن
روبه
روبی
روبین
روت
روتردام
روترهام
روتور
روث
روح
روحانی
روحانیان
روحانیت
روحانیون
روحی
روحیه
رود
رودان
رودبار
رودخانه
رودریگز
رودریگو
رودز
رودس
رودسر
رودلف
روده
رودها
رودهای
رودولف
رودکی
رودی
رور
روز
روزا
روزافزون
روزانه
روزبه
روزرسانی
روزمره
روزن
روزنامه
روزنه
روزه
روزها
روزهای
روزولت
روزگار
روزگاری
روزی
روس
روساریو
روسای
روستا
روستاها
روستاهای
روستاي
روستای
روستایی
روستاییان
روستوف
روستوک
روسری
روسها
روسو
روسپی
روسی
روسیه
روش
روشن
روشنایی
روشنفکر
روشنفکران
روشنفکری
روشنگری
روشنی
روشهای
روشی
روضه
روغن
روغنی
رول
رولز
رولینگ
روم
روماتیک
رومانتیک
رومانی
رومانیا
رومانیایی
رومل
رومن
رومي
رومی
رومیان
رومیزی
رون
رونالد
رونالدو
روند
رونده
روندهای
روندی
رونق
رونقی
رونمایی
رونوشت
رونویسی
رونی
روهای
روي
روپرت
روچ
روچدیل
روژ
روکش
روی
رویا
رویارویی
رویال
رویان
رویاهای
رویای
رویت
رویترز
روید
رویداد
رویدادها
رویدادهای
رویدادهایی
رویدادی
رویس
رویش
رویم
رویه
رویکرد
رویکردهای
رویکردی
رویی
ري
رپ
رپر
رپی
رژانتین
رژانتینی
رژه
رژیم
رک
رکاب
رکانزاس
رکس
رکعت
رکن
رکود
رکورد
رکورددار
رکوردداران
رکوردز
رکوردها
رکوردهای
رکی
رکید
رگ
رگرسیون
رگه
رگومان
رگون
رگی
رگیل
رگیونالیگا
ری
ریا
ریاحی
ریاست
ریاض
ریاضت
ریاضی
ریاضیات
ریاضیاتی
ریاضیدان
ریال
ریالی
ریامهر
ریان
ریانا
ریایی
ریتا
ریتم
ریتمی
ریتمیک
ریج
ریحان
ریحانه
ریخت
ریختان
ریختن
ریختند
ریخته
رید
ریدینگ
ریز
ریزابه
ریزد
ریزش
ریزشگاه
ریزند
ریزه
ریزونا
ریزپردازنده
ریزی
ریس
ریسمان
ریسه
ریسک
ریسینگ
ریش
ریشارد
ریشتر
ریشه
ریف
ریل
ریلی
ریم
ریمون
ریموند
ریمیکس
رین
رینز
رینولدز
رینگ
ریه
ریو
ریور
ریورساید
ریوز
ریوند
ریوی
ریپابلیک
ریچ
ریچارد
ریچاردز
ریچاردسون
ریچل
ریچموند
ریچی
ریک
ریکاردو
ریکی
ریگ
ریگا
ریگان
ریگی
رییس
ز
زا
زابل
زاد
زادانه
زادراه
زادروز
زادروزها
زادروزهای
زادسازی
زاده
زادگان
زادگاه
زادگاهش
زادگی
زادی
زادیبخش
زادیخواهان
زار
زارع
زارعی
زارعین
زارهای
زاری
زاغ
زاغه
زال
زالتسبورگ
زامبی
زامبیا
زان
زانو
زاهد
زاهدان
زاهدی
زاویه
زاي
زاپاس
زاکانی
زاکسن
زاگرب
زاگرس
زای
زاید
زایش
زایمان
زاینده
زایی
زباله
زبان
زبانان
زبانشناسی
زبانه
زبانها
زبانهای
زبانی
زبر
زبورن
زبیر
زتک
زحل
زحمات
زحمت
زخم
زخمی
زد
زدایی
زدم
زدن
زدند
زده
زدودن
زدوده
زدگی
زدید
زر
زرا
زراعت
زراعتی
زراعی
زرافه
زرتشت
زرتشتی
زرتشتیان
زرد
زردا
زردشت
زرده
زرشک
زرند
زرندیه
زره
زرهی
زری
زرین
زسکا
زشت
زشتی
زعفران
زعم
زغال
زلزله
زلف
زم
زمام
زمامداری
زمان
زمانبندی
زماندار
زمانه
زمانی
زمانیکه
زمایش
زمایشگاه
زمایشگاهی
زمایشی
زمایی
زمره
زمزمه
زمستان
زمستانی
زموده
زمون
زمین
زمینه
زمینهای
زمینی
زن
زنا
زناشویی
زنان
زنانه
زنانی
زنای
زنبق
زنبور
زنبورهای
زنجان
زنجانی
زنجیر
زنجیره
زند
زندان
زندانی
زندانیان
زنده
زندگان
زندگانی
زندگی
زندگیش
زندگینامه
زندی
زندیان
زندیه
زنش
زنم
زنند
زننده
زنگ
زنگبار
زنگنه
زنگی
زنی
زنید
زنیم
زه
زهد
زهر
زهرا
زهره
زهری
زهک
زهکشی
زهی
زو
زوال
زوایای
زوج
زوجه
زود
زودتر
زودرس
زودهنگام
زودی
زور
زورخانه
زوریخ
زول
زوم
زون
زوي
زي
زک
زکریا
زکی
زی
زیاد
زیادتر
زیاده
زیادی
زیارت
زیارتگاه
زیارتی
زیاری
زیان
زیاگان
زیب
زیبا
زیباتر
زیباترین
زیباست
زیبای
زیبایی
زیتون
زید
زیدان
زیدی
زیدیه
زیر
زیرا
زیربخش
زیربنای
زیربنایی
زیرخانواده
زیردریایی
زیرراسته
زیررده
زیرزمین
زیرزمینی
زیرساخت
زیرشاخه
زیرصفحه
زیرمجموعه
زیرنظر
زیرنویس
زیره
زیرک
زیرگروه
زیرگونه
زیرین
زیست
زیستن
زیستند
زیسته
زیستگاه
زیستی
زیمبابوه
زیمنس
زین
زینب
زینت
زینتی
زیواگان
زیگموند
س
سا
ساب
سابق
سابقا
سابقش
سابقه
ساتراپ
ساتراپی
ساترن
ساحل
ساحلی
ساخت
ساختار
ساختارها
ساختارهای
ساختاری
ساختم
ساختمان
ساختمانهای
ساختمانی
ساختن
ساختند
ساخته
ساختگی
ساختی
سادات
ساده
سادگی
سار
سارا
ساراگوسا
سارایوو
سارتر
ساردنی
ساردینیا
ساره
ساروج
ساری
ساز
سازان
سازد
سازش
سازم
سازمان
سازماندهی
سازمانهای
سازمانی
سازند
سازنده
سازندگان
سازندگی
سازه
سازها
سازهای
سازوکار
سازوکارهای
سازگار
سازگاری
سازی
سازیم
ساسان
ساسانی
ساسانیان
ساسکاچوان
ساسکس
ساشا
ساطع
ساعات
ساعاتی
ساعت
ساعته
ساعتی
ساعد
ساعی
ساغر
سافت
سافک
ساق
ساقط
ساقه
ساقی
سال
سالاد
سالار
سالاران
سالاری
سالانه
سالت
سالخورده
سالرنو
سالرنیتانا
سالروز
سالم
سالمندان
سالن
سالنامه
ساله
سالها
سالهای
سالوادور
سالک
سالگرد
سالگی
سالی
سالیان
سالیانه
سالیوان
سام
سامان
سامانتا
ساماندهی
سامانه
سامانی
سامانیان
سامر
سامرا
سامرست
سامسونگ
ساموا
سامورایی
ساموي
سامی
سان
سانان
سانت
سانتا
سانتاندر
سانتر
سانتو
سانتوس
سانتی
سانتیاگو
سانتیمتر
سانتیگراد
سانحه
ساندرا
ساندرلند
ساندنس
ساندویچ
سانسور
سانسکریت
سانفرانسیسکو
سانچز
سانگ
سانی
ساواک
ساوت
ساوتند
ساوجبلاغ
ساوجی
ساوه
ساي
ساپورو
ساچمه
ساکت
ساکرامنتو
ساکس
ساکسوفون
ساکن
ساکنان
ساکنین
ساکورا
ساکی
ساگان
سای
سایبان
سایبری
سایت
سایتاما
سایتهای
سایتی
ساید
سایر
سایرس
سایرین
سایز
سایش
سایشگاه
سایمون
ساینده
ساینس
سایه
سایوز
سایپا
سبا
سباستین
سبب
سبحان
سبحانی
سبد
سبز
سبزه
سبزوار
سبزواری
سبزی
سبزیجات
سبقت
سبلان
سبک
سبکی
سبیل
ست
ستاد
ستار
ستارا
ستارخان
ستاره
ستارگان
ستاری
ستان
ستانه
ستایش
ستد
ستر
ستراخان
ستم
سته
ستوان
ستود
ستوده
ستوریاس
ستون
ستونی
ستیز
ستیزه
ستیزی
ستین
سجاد
سجادی
سجده
سحابی
سحر
سخت
سختگیرانه
سختگیری
سختی
سخن
سخنان
سخنانی
سخنران
سخنرانی
سخنگو
سخنگوی
سخنی
سد
سدان
سده
سدها
سدهای
سدی
سدیم
سر
سرا
سراب
سراج
سرازیر
سراسر
سراسری
سراغ
سرامیک
سرامیکی
سران
سرانجام
سرانه
سراهای
سراوان
سرای
سرایان
سرایت
سرایی
سرب
سرباز
سربازان
سربازانش
سربازی
سربداران
سربی
سربیشه
سرت
سرتاسر
سرتیپ
سرجیو
سرحد
سرحدی
سرخ
سرخرگ
سرخس
سرخه
سرخپوستان
سرخی
سرد
سردار
سرداران
سرداری
سردبیر
سردبیران
سردبیری
سردر
سردرد
سردرگمی
سردسیر
سردشت
سرده
سردی
سرریز
سرزمین
سرزمینی
سرزنش
سرزو
سرسبز
سرسخت
سرش
سرشار
سرشت
سرشماری
سرشناس
سرشناسی
سرطان
سرطانی
سرعت
سرعته
سرعتی
سرفه
سرقت
سرلشکر
سرم
سرما
سرماخوردگی
سرمای
سرمایش
سرمایه
سرمربی
سرمربیگری
سرمقاله
سرمه
سرنا
سرنشین
سرنشینان
سرنوشت
سرنگون
سرنگونی
سرنیزه
سره
سرهم
سرهنگ
سرو
سروان
سرواژه
سروتونین
سرود
سرودن
سروده
سرودهای
سرور
سرورها
سرورهای
سروری
سروستان
سروش
سروکار
سرویس
سرپرست
سرپرستی
سرپل
سرپوش
سرپوشیده
سرپیچی
سرچ
سرچشمه
سرژ
سرکار
سرکش
سرکشی
سرکنسولگری
سرکه
سرکوب
سرکوبی
سرگذشت
سرگرد
سرگردان
سرگرم
سرگرمی
سرگشاده
سرگي
سرگیجه
سری
سریا
سریال
سریالی
سریانی
سریر
سریع
سریعا
سریعتر
سریلانکا
سزار
سزاوار
سزایی
سس
سسات
سسان
سست
سستی
سسه
سسک
سطح
سطحی
سطر
سطل
سطوح
سعادت
سعد
سعدا
سعدی
سعود
سعودی
سعی
سعید
سعیدی
سغد
سغدی
سف
سفارت
سفارتخانه
سفارش
سفارشی
سفال
سفالت
سفالته
سفالگری
سفالی
سفانه
سفت
سفتی
سفر
سفرش
سفرنامه
سفره
سفرها
سفرهای
سفری
سفلی
سفید
سفیدپوست
سفیدپوستان
سفیدی
سفیر
سفیران
سفینه
سقراط
سقز
سقط
سقف
سقفی
سقوط
سل
سلاجقه
سلاح
سلاطین
سلام
سلامت
سلامتی
سلامی
سلب
سلبریتی
سلتاویگو
سلتی
سلتیک
سلجوقی
سلجوقیان
سلسله
سلسیوس
سلطان
سلطانی
سلطانیه
سلطنت
سلطنتی
سلطه
سلف
سلفی
سلم
سلما
سلماس
سلمان
سلنا
سلول
سلولز
سلولهای
سلولی
سلوک
سلوکی
سلوکیان
سلیقه
سلیم
سلیمان
سلیمانی
سلیمانیه
سلیمی
سم
سماع
سمان
سمانی
سمبل
سمت
سمتی
سمرقند
سمفونی
سمفونیک
سملقان
سمنان
سمندر
سمنگان
سموم
سمپدوریا
سمی
سمیت
سمیرم
سمیعی
سمینار
سن
سنا
سناتور
سناتورهای
سناریو
سنان
سنای
سنایی
سنبل
سنبله
سنة
سنت
سنتا
سنتر
سنترال
سنتز
سنتور
سنتی
سنج
سنجاب
سنجابی
سنجاق
سنجر
سنجش
سنجی
سنجیده
سند
سندباد
سندرز
سندرم
سندروم
سندی
سندیکای
سنسور
سنسورهای
سنقر
سنن
سنندج
سنه
سنگ
سنگال
سنگاپور
سنگر
سنگسار
سنگهای
سنگواره
سنگوکو
سنگی
سنگین
سنگینی
سنی
سنین
سه
سهام
سهامداران
سهامی
سهراب
سهره
سهروردی
سهل
سهم
سهمی
سهمیه
سهند
سهولت
سهیل
سهیلا
سهیلی
سهیم
سو
سوء
سوءاستفاده
سوءتفاهم
سوا
سوابق
سواحل
سواد
سوادکوه
سوار
سواران
سوارز
سواره
سوارکار
سوارکاران
سوارکاری
سواری
سواستفاده
سوال
سوالات
سوالی
سوان
سوانح
سوانزی
سوت
سوتا
سوخت
سوختن
سوخته
سوختگی
سوختی
سوخو
سود
سودا
سودان
سودای
سودمند
سودمندی
سوده
سودی
سور
سوراخ
سوران
سورانی
سوربن
سورس
سورن
سورنا
سوره
سوروس
سوری
سورینام
سوریه
سوز
سوزا
سوزان
سوزاندن
سوزانده
سوزد
سوزش
سوزن
سوزنی
سوزوکی
سوزی
سوسمار
سوسن
سوسک
سوسکچه
سوسیال
سوسیالیست
سوسیالیستی
سوسیالیسم
سوسیداد
سوسیس
سوشو
سوشی
سوغات
سوف
سوفی
سوفیا
سوق
سول
سولا
سولفات
سولفوریک
سولفید
سولو
سوم
سوماترا
سومالی
سومر
سومری
سومی
سومین
سون
سونات
سونامی
سونوگرافی
سونگ
سونی
سونیا
سونیک
سوي
سوپ
سوپاپ
سوپر
سوپرانو
سوپرجام
سوپرمارکت
سوپرمن
سوژه
سوک
سوگ
سوگند
سوگواری
سوگیری
سوی
سویا
سویه
سویی
سوییس
سي
سپاری
سپاس
سپاسگزارم
سپاسی
سپاه
سپاهان
سپاهی
سپاهیان
سپتامبر
سپر
سپرد
سپردن
سپردند
سپرده
سپری
سپس
سپه
سپهبد
سپهر
سپهرنوش
سپهری
سپهسالار
سپید
سپیدان
سپیدرود
سپیده
سک
سکا
سکان
سکانس
سکاها
سکایی
سکته
سکس
سکسی
سکنه
سکنی
سکه
سکو
سکوت
سکولار
سکولاریسم
سکولی
سکون
سکونت
سکونتگاه
سکوهای
سکوی
سکینه
سگ
سگا
سگوندا
سگی
سی
سیا
سیاب
سیاتل
سیاح
سیار
سیارات
سیاره
سیارک
سیاست
سیاستمدار
سیاستمداران
سیاستها
سیاستهای
سیاستگذاری
سیاستی
سیاسی
سیاق
سیال
سیالات
سیامک
سیاه
سیاهان
سیاهرگ
سیاهه
سیاهپوستان
سیاهچاله
سیاهکل
سیاهی
سیاوش
سیای
سیایی
سیب
سیبری
سیبی
سیتروي
سیتی
سید
سیدا
سیدجوادی
سیدعلی
سیدمحمد
سیدمرتضا
سیدنی
سیده
سیدی
سیر
سیرا
سیرالي
سیرجان
سیره
سیروان
سیروس
سیرک
سیری
سیریلیک
سیزده
سیزدهم
سیزدهمین
سیس
سیسات
سیستان
سیستانی
سیستم
سیستماتیک
سیستمهای
سیستمی
سیستمیک
سیسیل
سیسیلی
سیشل
سیصد
سیطره
سیف
سیل
سیلاب
سیلزی
سیلندر
سیلوا
سیلور
سیلوستر
سیلویا
سیلک
سیلی
سیلیس
سیلیسیم
سیلین
سیلیکات
سیلیکون
سیم
سیما
سیمان
سیمای
سیمرغ
سیمور
سیمون
سیمپسون
سیمی
سیمین
سین
سینا
سیناپسی
سینت
سینث
سیندرلا
سینما
سینماها
سینماهای
سینمای
سینمایی
سینه
سینوس
سینوسی
سینگ
سینی
سیه
سیواس
سیوند
سیونیک
سیک
سیکس
سیکل
سیگار
سیگما
سیگنال
ش
شا
شابک
شات
شاتل
شاخ
شاختار
شاخص
شاخصه
شاخه
شاخک
شاد
شادمانی
شادگان
شادی
شار
شارجه
شارل
شارلوت
شارون
شارپ
شارژ
شازند
شاسی
شاعر
شاعران
شاعرانه
شاعری
شاغل
شافعی
شال
شالوده
شالکه
شام
شامل
شاملو
شامپانزه
شامپاین
شامگاه
شامی
شامیدنی
شان
شاندونگ
شانزده
شانزدهم
شانزدهمین
شانس
شانسی
شانه
شانون
شانگ
شانگهای
شاه
شاهان
شاهد
شاهدان
شاهدخت
شاهدی
شاهراه
شاهرخ
شاهرود
شاهرودی
شاهزاده
شاهزادگان
شاهسون
شاهنامه
شاهنشاه
شاهنشاهی
شاهپور
شاهکار
شاهکارهای
شاهی
شاهین
شاو
شاي
شاپ
شاپرک
شاپور
شاکی
شاگرد
شاگردان
شاگردانش
شاگردی
شایان
شایانی
شاید
شایر
شایسته
شایستگی
شایع
شایعات
شایعاتی
شایعه
شایگان
شب
شبانه
شباهت
شبح
شبستان
شبستر
شبستری
شبنم
شبه
شبهه
شبکه
شبکیه
شبی
شبیه
شت
شتاب
شتافت
شتر
شتم
شتی
شتیان
شتیانی
شجاع
شجاعت
شجاعی
شجره
شجریان
شخص
شخصا
شخصه
شخصی
شخصیت
شخصیتهای
شخصیتی
شد
شدت
شدم
شدن
شدند
شدنش
شدنی
شده
شدگان
شدگی
شدی
شدید
شدیدا
شدیدتر
شدیدترین
شدیدی
شدیم
شر
شراب
شراره
شرافت
شراکت
شرایط
شرایطی
شرب
شربت
شرح
شرحی
شرط
شرطی
شرع
شرعی
شرف
شرق
شرقی
شرلوک
شرلی
شرم
شرمن
شرمنده
شروان
شرور
شروزبری
شروط
شروع
شروین
شرک
شرکا
شرکاء
شرکای
شرکت
شرکتها
شرکتهای
شرکتی
شری
شریان
شریعت
شریعتمداری
شریعتی
شریف
شریفی
شریک
شست
شستشو
شستشوی
شستن
شسته
شش
ششصد
ششم
ششمین
شصت
شطرنج
شعار
شعارهای
شعارهایی
شعاع
شعاعی
شعب
شعبان
شعبده
شعبه
شعر
شعرا
شعرای
شعرها
شعرهای
شعری
شعله
شعور
شغال
شغل
شغلی
شفا
شفاعت
شفاف
شفافیت
شفاهی
شفت
شفته
شفتگی
شفق
شفیع
شفیعی
شفیلد
شق
شقایق
شل
شلاق
شلسویگ
شلوار
شلوغ
شلوغی
شلی
شلیک
شم
شما
شمار
شمارد
شمارش
شمارنده
شماره
شماری
شمارە
شماست
شمال
شمالگان
شمالی
شمایل
شمرد
شمردن
شمرده
شمس
شمسی
شمش
شمشیر
شمشیرباز
شمشیربازان
شمشیربازی
شمشیری
شمع
شمول
شمیران
شمیرانات
شن
شنا
شناخت
شناختن
شناختند
شناخته
شناختی
شناس
شناسان
شناساندن
شناسانه
شناسایی
شناسد
شناسم
شناسنامه
شناسند
شناسه
شناسی
شناسیم
شناور
شناورهای
شناگر
شناگران
شنای
شنایان
شنایی
شنبه
شنل
شنوایی
شنود
شنونده
شنوندگان
شنی
شنید
شنیداری
شنیدم
شنیدن
شنیده
شه
شهاب
شهابی
شهادت
شهباز
شهبازی
شهبانو
شهد
شهدا
شهدای
شهر
شهرا
شهرام
شهربابک
شهربازی
شهربانی
شهرت
شهرتی
شهردار
شهرداران
شهرداری
شهرزاد
شهرسازی
شهرستان
شهرستانها
شهرستانهای
شهرستانی
شهرضا
شهرنشینی
شهره
شهرها
شهرهای
شهرهایی
شهروند
شهروندان
شهروندی
شهرک
شهرکرد
شهرکی
شهری
شهریار
شهریاری
شهریه
شهریور
شهلا
شهناز
شهنام
شهوانی
شهوت
شهود
شهودی
شهید
شهیدان
شهیدی
شهیر
شو
شوال
شوالیه
شواهد
شواهدی
شوب
شوت
شوخ
شوخی
شود
شور
شورا
شوراها
شوراهای
شورای
شورایی
شورت
شورش
شورشی
شورشیان
شورلت
شوروی
شوری
شوریان
شوش
شوشتر
شوشتری
شوشی
شوق
شوقی
شوم
شوماخر
شون
شوند
شونده
شوهر
شوهرش
شوي
شوک
شوکت
شوکه
شوگون
شوی
شویتس
شوید
شویم
شویی
شي
شپرد
شپز
شپزخانه
شپزی
شک
شکار
شکارا
شکارساز
شکارسازی
شکارچی
شکارچیان
شکاری
شکاف
شکافت
شکافی
شکایات
شکایت
شکایتی
شکر
شکست
شکستن
شکسته
شکستگی
شکستی
شکسپیر
شکل
شکلات
شکلی
شکم
شکمی
شکن
شکنجه
شکند
شکننده
شکنی
شکوفا
شکوفایی
شکوفه
شکوه
شکی
شکیرا
شگرف
شگفت
شگفتی
شی
شیء
شیار
شیاطین
شیان
شیانه
شیاي
شیب
شیبانی
شیت
شیخ
شیخی
شیدا
شیدایی
شیر
شیراز
شیرازی
شیراک
شیرجه
شیردهی
شیره
شیرها
شیرهای
شیروان
شیروانی
شیری
شیرین
شیرینی
شیزوي
شیشه
شیطان
شیطانی
شیعه
شیعی
شیعیان
شیفت
شیفته
شیل
شیلا
شیلات
شیلد
شیلی
شیلیایی
شیمی
شیمیایی
شیمیدان
شیمیزو
شین
شینتو
شیوا
شیوع
شیوه
شیي
شیک
شیکاگو
ص
صابر
صابری
صابون
صاحب
صاحبان
صادر
صادرات
صادراتی
صادره
صادرکننده
صادق
صادقانه
صادقی
صاریغ
صاعقه
صاف
صافی
صالح
صالحی
صامت
صانعی
صاي
صبا
صباح
صبح
صبحانه
صبر
صحابه
صحبت
صحبتی
صحت
صحرا
صحرانوردی
صحرای
صحرایی
صحن
صحنه
صحیح
صحیحی
صحیفه
صخره
صد
صدا
صدارت
صداقت
صدام
صداها
صداهای
صداوسیما
صداپیشه
صداپیشگان
صداپیشگی
صداگذاری
صدای
صدایی
صدد
صدر
صدرا
صدراعظم
صدرالدین
صدری
صدساله
صدف
صدق
صدقه
صدمات
صدمه
صدمین
صدها
صدور
صدوق
صدیق
صدیقی
صراحت
صراحتا
صرب
صربستان
صربی
صرع
صرف
صرفا
صرفنظر
صرفه
صریح
صریحا
صص
صعب
صعود
صعودی
صغیر
صف
صفا
صفات
صفار
صفاری
صفاریان
صفایی
صفت
صفحات
صفحاتی
صفحه
صفحە
صفر
صفرا
صفری
صفه
صفوف
صفوی
صفویان
صفویه
صفی
صلاح
صلاحدید
صلاحیت
صلب
صلح
صلحی
صلوات
صلی
صلیب
صلیبی
صلیبیون
صمد
صمدی
صمیمانه
صمیمی
صمیمیت
صنایع
صندلی
صندوق
صنعا
صنعاء
صنعت
صنعتگران
صنعتی
صنف
صنفی
صنیع
صهیونیست
صهیونیستی
صهیونیسم
صوت
صوتی
صور
صورت
صورتش
صورتی
صورتیکه
صوری
صوفی
صوفیان
صوفیه
صومعه
صیاد
صیانت
صید
صیغه
صیفی
صیقل
ض
ضامن
ضایع
ضایعات
ضایعه
ضبط
ضحاک
ضخامت
ضخیم
ضد
ضدا
ضدعفونی
ضدهوایی
ضرایب
ضرب
ضربات
ضربان
ضربت
ضربه
ضربی
ضرر
ضرری
ضرورت
ضروری
ضریب
ضریح
ضعف
ضعیف
ضعیفی
ضلع
ضلعی
ضمانت
ضمن
ضمنا
ضمنی
ضمیر
ضمیمه
ضوابط
ضیاء
ضیاءالدین
ضیافت
ط
طارق
طارم
طاعت
طاعون
طاق
طاقت
طالب
طالبان
طالبی
طالع
طالقان
طالقانی
طاها
طاهر
طاهره
طاهری
طاهریان
طاووس
طاي
طایفه
طب
طبابت
طباطباي
طباطبایی
طبخ
طبرستان
طبرسی
طبری
طبس
طبع
طبعا
طبعی
طبق
طبقات
طبقاتی
طبقه
طبل
طبی
طبیب
طبیعت
طبیعتا
طبیعی
طرابلس
طراح
طراحان
طراحی
طراز
طرح
طرحهای
طرحی
طرد
طرز
طرف
طرفانه
طرفدار
طرفداران
طرفداری
طرفه
طرفهای
طرفی
طرفین
طرق
طریق
طریقت
طریقه
طریقی
طعام
طعم
طعمه
طعن
طعنه
طغرل
طغیان
طفره
طفل
طلا
طلاب
طلاق
طلاي
طلای
طلایی
طلب
طلبان
طلبانه
طلبد
طلبه
طلبی
طلحه
طلسم
طلوع
طمع
طناب
طنز
طنزا
طنین
طه
طهران
طهرانی
طهماسب
طهماسبی
طوالش
طوایف
طور
طوری
طوریکه
طوس
طوسی
طوطی
طوفان
طوفانی
طول
طولانی
طولی
طومار
طویل
طی
طیب
طیف
طیفی
طیور
ظ
ظالم
ظاهر
ظاهرا
ظاهری
ظرافت
ظرف
ظرفیت
ظرفیتی
ظروف
ظریف
ظفر
ظل
ظلم
ظن
ظهر
ظهور
ظهیری
ظهیریبحث
ع
عابدی
عاج
عاجز
عادات
عادت
عادل
عادلانه
عادی
عارضه
عارف
عارفان
عاری
عازم
عاشق
عاشقان
عاشقانه
عاشقی
عاشورا
عاشیق
عاطفه
عاطفی
عاقبت
عاقل
عالم
عالمان
عالمی
عالی
عالیه
عام
عامر
عامری
عامل
عاملان
عاملی
عامه
عامیانه
عاي
عایشه
عایق
عب
عبادت
عبادی
عبارات
عباراتی
عبارت
عبارتست
عبارتند
عبارتی
عباس
عباسعلی
عباسی
عباسیان
عبد
عبدالبهاء
عبدالحسین
عبدالحمید
عبدالرحمان
عبدالرحمن
عبدالرحیم
عبدالرزاق
عبدالرضا
عبدالعزیز
عبدالعظیم
عبدالعلی
عبدالقادر
عبدالله
عبداللهی
عبدالمجید
عبدالملک
عبدالناصر
عبدالوهاب
عبدالکریم
عبده
عبدی
عبرت
عبری
عبور
عبوری
عبید
عبیدالله
عتیق
عتیقه
عثمان
عثمانی
عثمانیان
عج
عجایب
عجب
عجز
عجله
عجم
عجیب
عجیبی
عد
عدالت
عدالتی
عدد
عددی
عدس
عدسی
عدل
عدلیه
عدم
عدن
عدنان
عده
عدی
عذاب
عذر
عذرخواهی
عراده
عراق
عراقی
عرایض
عرب
عربستان
عربی
عرشه
عرصه
عرض
عرضه
عرضی
عرف
عرفات
عرفان
عرفانی
عرفی
عرق
عروس
عروسک
عروسکی
عروسی
عروضی
عروق
عروقی
عریان
عریض
عز
عزاداری
عزالدین
عزت
عزل
عزم
عزیز
عزیزالله
عزیزان
عزیزم
عزیزی
عزیمت
عسل
عسلویه
عسکری
عسگری
عشاق
عشایر
عشایری
عشر
عشق
عشقی
عصاره
عصب
عصبانی
عصبانیت
عصبی
عصر
عصمت
عصیان
عضدالدوله
عضلات
عضلانی
عضله
عضو
عضوی
عضویت
عطا
عطار
عطاران
عطارد
عطایی
عطر
عطف
عطفی
عظمت
عظیم
عظیمی
عفت
عفو
عفونت
عفونی
عقاب
عقاید
عقب
عقبه
عقبی
عقد
عقده
عقرب
عقربه
عقل
عقلانی
عقلانیت
عقلی
عقیدتی
عقیده
عقیل
عقیلی
عقیم
عل
علاء
علاءالدین
علاقمند
علاقه
علامت
علامه
علاوه
علاي
علایق
علایم
علت
علف
علفی
علل
علم
علما
علماء
علمای
علمجو
علمی
علمیه
علنا
علنی
علوفه
علوم
علوی
علویان
علی
علیا
علیت
علیرضا
علیرغم
علیزاده
علیشاه
علیقلی
علینقی
علیه
علیهم
عماد
عمادالدین
عمار
عمارت
عمال
عمامه
عمان
عمد
عمدا
عمدتا
عمده
عمدی
عمر
عمران
عمرانی
عمرش
عمرو
عمری
عمق
عمقی
عمل
عملا
عملکرد
عملکردهای
عملکردی
عملگر
عملگرهای
عملی
عملیات
عملیاتی
عمه
عمو
عمود
عمودی
عموم
عموما
عمومی
عموی
عمویش
عمید
عمیق
عمیقا
عمیقی
عن
عناصر
عناصری
عنان
عناوین
عناوینی
عنایت
عنبرا
عند
عنصر
عنصرهای
عنصری
عنه
عنوان
عنوانش
عنوانی
عنکبوت
عنکبوتی
عهد
عهدنامه
عهده
عوارض
عوارضی
عواطف
عواقب
عوام
عوامل
عواملی
عواید
عود
عوض
عکا
عکاس
عکاسان
عکاسی
عکس
عکسی
عیار
عیان
عیب
عید
عیسی
عیش
عیلامی
عین
عینا
عینک
عینی
عیوب
غ
غا
غار
غارت
غارها
غارهای
غاری
غاز
غازان
غازشده
غازهای
غازگر
غازی
غازین
غافل
غافلگیر
غالب
غالبا
غاي
غایب
غایت
غبار
غدد
غده
غدیر
غذا
غذاخوری
غذاها
غذاهای
غذای
غذایی
غرامت
غرب
غربالگری
غربت
غربی
غرض
غرفه
غرق
غروب
غرور
غروی
غریب
غریبه
غریبی
غزال
غزالی
غزل
غزلیات
غزنوی
غزنویان
غزنی
غزه
غزوه
غسل
غشا
غشاء
غشای
غشایی
غشته
غصب
غضب
غضروف
غفاری
غفلت
غفوری
غلات
غلاف
غلام
غلامان
غلامحسین
غلامرضا
غلامعلی
غلامی
غلبه
غلتک
غلط
غلظت
غله
غلیظ
غم
غمگین
غنا
غناي
غنای
غنایی
غنچه
غنی
غنیمت
غواص
غواصی
غور
غوش
غوطه
غول
غیاب
غیابی
غیاث
غیب
غیبت
غیر
غیرا
غیراخلاقی
غیرانتفاعی
غیرانسانی
غیرت
غیرخطی
غیرداستانی
غیردولتی
غیررسمی
غیرضروری
غیرطبیعی
غیرعادی
غیرفعال
غیرفلزی
غیرقابل
غیرقانونی
غیرمجاز
غیرمستقیم
غیرمعمول
غیرممکن
غیرمنتظره
غیرمنقول
غیرنظامی
غیرنظامیان
غیره
غیرواقعی
ـ
ــ
ف
فا
فابیو
فات
فاتح
فاجعه
فاحش
فاحشه
فاخر
فارابی
فارس
فارسان
فارست
فارسی
فارغ
فارل
فارنهایت
فارو
فاروج
فاروق
فاریاب
فاز
فازهای
فازی
فاستر
فاسد
فاش
فاشیست
فاشیستی
فاشیسم
فاصل
فاصله
فاضل
فاضلاب
فاضلی
فاطمه
فاطمی
فاطمیان
فاعل
فاق
فاقد
فال
فالتس
فالز
فالکلند
فالکون
فام
فامیل
فامیلی
فان
فانتزی
فانتوم
فانوس
فانک
فانی
فاي
فاکتور
فاکتورهای
فاکس
فای
فایت
فایده
فایر
فایرفاکس
فایل
فاینال
فایو
فب
فت
فتاب
فتابگردان
فتابی
فتح
فتحعلی
فتحی
فتق
فتنه
فتوا
فتوای
فتوحات
فتوسنتز
فجر
فحاشی
فحش
فحن
فخر
فخرالدین
فخری
فداي
فداکاری
فدای
فدایی
فدراتیو
فدراسیون
فدرال
فدرالی
فدرالیست
فدریکو
فر
فرا
فرابنفش
فرات
فراتر
فراخوان
فراخواند
فراخوانده
فراخوانی
فراخورشیدی
فرادریایی
فرار
فراری
فراریان
فراز
فرازمینی
فراست
فراصوت
فراطبیعی
فراغت
فراماسون
فراماسونری
فرامرز
فرامرزی
فراموش
فراموشی
فرامین
فرانتس
فرانس
فرانسه
فرانسوا
فرانسوی
فرانسویان
فرانسیس
فرانسیسکو
فرانچسکو
فرانک
فرانکفورت
فرانکلین
فرانکو
فرانکی
فراهان
فراهانی
فراهم
فراواقع
فراوان
فراوانی
فراورده
فراکسیون
فراگرفت
فراگیر
فراگیری
فرای
فرایبورگ
فرایند
فرایندها
فرایندهای
فرایندی
فرج
فرجام
فرجی
فرح
فرخ
فرخزاد
فرخنده
فرخی
فرد
فردا
فردای
فردریش
فردریک
فردوس
فردوسی
فردی
فردین
فردیناند
فرزاد
فرزان
فرزانه
فرزند
فرزندان
فرزندانش
فرزندانشان
فرزندخواندگی
فرزندش
فرزندی
فرزین
فرسایش
فرسایشی
فرست
فرستاد
فرستادن
فرستادند
فرستاده
فرستد
فرستند
فرستنده
فرسخ
فرسنگ
فرسوده
فرسودگی
فرش
فرشاد
فرشته
فرشتگان
فرشید
فرصت
فرصتی
فرض
فرضی
فرضیات
فرضیه
فرعون
فرعی
فرغانه
فرق
فرقه
فرقی
فرم
فرما
فرمان
فرماندار
فرمانداران
فرمانداری
فرمانده
فرماندهان
فرماندهی
فرمانروا
فرمانروای
فرمانروایان
فرمانروایی
فرمانفرما
فرمانی
فرماي
فرماید
فرمایش
فرمایند
فرمایید
فرمت
فرمود
فرمودند
فرموده
فرمودید
فرمول
فرمی
فرناندز
فرناندو
فرنچایز
فرنگ
فرنگی
فره
فرهاد
فرهادی
فرهنگ
فرهنگستان
فرهنگسرای
فرهنگی
فرهنگیان
فرو
فروتن
فروخت
فروخته
فرود
فرودگاه
فرودگاهی
فروردین
فرورفتگی
فروزان
فروزینونه
فروسرخ
فروش
فروشان
فروشنده
فروشندگان
فروشگاه
فروشی
فروغ
فروغی
فروم
فرومی
فروند
فروهر
فروپاشی
فروید
فرکانس
فرکانسی
فرگشت
فرگشتی
فرگوسن
فری
فریاد
فریب
فریبا
فریبرز
فریت
فریتس
فرید
فریدریش
فریدمن
فریدن
فریده
فریدون
فریزر
فریسلاند
فریقا
فریقای
فریقایی
فریم
فریمان
فریمن
فرین
فرینان
فرینش
فرینی
فزاینده
فزونی
فسا
فساد
فست
فستیوال
فسخ
فسفات
فسفر
فسیل
فسیلی
فشار
فشارها
فشارهای
فشاری
فشان
فشردن
فشرده
فشنگ
فصل
فصلنامه
فصلی
فصول
فضا
فضانورد
فضانوردان
فضانوردی
فضاها
فضاهای
فضاي
فضاپیما
فضاپیماهای
فضاپیمای
فضای
فضایل
فضایی
فضل
فضولی
فضیلت
فطر
فطرت
فع
فعال
فعالان
فعالانه
فعالی
فعالیت
فعالیتش
فعالیتهای
فعالیتی
فعالین
فعل
فعلا
فعلی
فقال
فقد
فقدان
فقر
فقرا
فقرات
فقره
فقط
فقه
فقها
فقهای
فقهی
فقید
فقیر
فقیه
فقیهان
فقیهی
فلات
فلاح
فلاسفه
فلاش
فلامینگو
فلان
فلاندر
فلاندری
فلانی
فلاین
فلج
فلد
فلز
فلزات
فلزکاری
فلزی
فلس
فلسطین
فلسطینی
فلسطینیان
فلسفه
فلسفی
فلش
فلفل
فلمستید
فلمینگ
فله
فلوت
فلور
فلورا
فلورانس
فلوریدا
فلوي
فلوید
فلچر
فلک
فلکه
فلکی
فلین
فلیکس
فمینیست
فمینیستی
فمینیسم
فن
فنا
فناوری
فنجان
فندق
فنر
فنلاند
فنلاندی
فنوج
فنول
فنون
فنگ
فنی
فنیقی
فنیل
فه
فهد
فهرج
فهرست
فهرستی
فهم
فهمد
فهمم
فهمند
فهمید
فهمیدم
فهمیدن
فهمیده
فو
فواره
فواصل
فواید
فوت
فوتبال
فوتبالی
فوتبالیست
فوتسال
فوتون
فوج
فوجی
فور
فورا
فوران
فوربز
فورت
فورتونا
فورد
فورس
فوروارد
فورپومرن
فوری
فوریت
فوریه
فوق
فوقانی
فول
فولاد
فولادهای
فولادوند
فولادی
فولام
فولبرایت
فولر
فولهام
فولک
فولکس
فولکلور
فوم
فومن
فون
فونت
فوي
فوکر
فوکو
فوکوس
فوکوشیما
فوکوي
فوگ
في
فک
فکت
فکر
فکری
فی
فیات
فیاض
فیبر
فیبرهای
فیت
فیتزجرالد
فیجی
فیر
فیروز
فیروزا
فیروزه
فیروزکوه
فیزیوتراپی
فیزیولوژی
فیزیولوژیکی
فیزیک
فیزیکدان
فیزیکی
فیس
فیسبوک
فیش
فیشر
فیصل
فیض
فیفا
فیل
فیلادلفیا
فیلارمونیک
فیلتر
فیلترهای
فیلترینگ
فیلد
فیلسوف
فیلسوفان
فیلم
فیلمبردار
فیلمبرداری
فیلمز
فیلمساز
فیلمسازان
فیلمسازی
فیلمش
فیلمشناسی
فیلمنامه
فیلمهای
فیلمی
فیلی
فیلیپ
فیلیپس
فیلیپین
فیلیپینی
فین
فینال
فینالیست
فینیکس
فیه
فیورنتینا
فیوری
ق
قا
قاب
قابل
قابلیت
قابوس
قاتل
قاتلان
قاجار
قاجاری
قاجاریان
قاجاریه
قاخان
قادر
قادرند
قادری
قاره
قارونی
قارچ
قارچی
قاری
قاسم
قاسمی
قاسی
قاشق
قاضی
قاطع
قاطعانه
قاطعیت
قاعدتا
قاعده
قاعدگی
قافیه
قال
قالب
قالبی
قالی
قالیباف
قامت
قامحمدخان
قانع
قانون
قانونا
قانونگذاری
قانونی
قاهره
قاي
قاچاق
قاچاقچیان
قای
قایان
قایانی
قایق
قایقران
قایقرانان
قایقرانی
قایل
قایی
قباد
قبال
قبایل
قبر
قبرس
قبرستان
قبض
قبضه
قبطی
قبل
قبلا
قبله
قبلی
قبه
قبول
قبولی
قبیل
قبیله
قتل
قحطی
قد
قدامی
قدر
قدرت
قدرتمند
قدرتمندترین
قدرتمندی
قدرتی
قدردانی
قدری
قدس
قدسی
قدم
قدمت
قدمتی
قدمگاه
قدمی
قدیس
قدیسان
قدیم
قدیمی
قذافی
قرا
قرابت
قرار
قرارداد
قراردادش
قراردادن
قراردادها
قراردادهای
قراردادی
قراردارد
قرارند
قرارگاه
قرارگرفته
قرارگیری
قراری
قران
قراي
قربان
قربانی
قربانیان
قرص
قرض
قرضه
قرضی
قرعه
قرقیزستان
قرمز
قرمزی
قرن
قرنطینه
قرنیه
قره
قرون
قروه
قریب
قریش
قرینه
قریه
قزاق
قزاقستان
قزل
قزلباش
قزوین
قزوینی
قسطنطنیه
قسم
قسمت
قسمتهای
قسمتی
قشر
قشقایی
قشلاق
قشم
قشنگ
قشون
قصاب
قصاص
قصبه
قصد
قصر
قصران
قصه
قصور
قصیده
قضا
قضات
قضاوت
قضاي
قضایا
قضایای
قضایی
قضاییه
قضیه
قطار
قطارهای
قطب
قطبش
قطبی
قطر
قطرات
قطره
قطری
قطع
قطعا
قطعات
قطعاتی
قطعنامه
قطعه
قطعی
قطعیت
قفس
قفسه
قفقاز
قفقازی
قفل
ققنوس
قل
قلا
قلاب
قلب
قلبی
قلت
قلدری
قلع
قلعه
قلم
قلمداد
قلمرو
قلمروهای
قلمروی
قلمی
قله
قلی
قلیان
قلیایی
قم
قمار
قمر
قمرهای
قمری
قمی
قنات
قناتی
قناری
قناعت
قنبری
قند
قندهار
قندی
قه
قهر
قهرمان
قهرمانان
قهرمانی
قهوه
قو
قوا
قواعد
قوام
قوانین
قوانینی
قوای
قوت
قورباغه
قوس
قوسی
قوطی
قول
قوله
قولی
قوم
قومس
قومی
قومیت
قومیتی
قونیه
قوه
قوچ
قوچان
قوی
قویا
قویونلو
قیاس
قیافه
قیام
قیامت
قید
قیر
قیس
قیصر
قیصریه
قیم
قیمت
قیمتی
قیمومت
قیچی
ك
كار
كتاب
كرد
كرده
كند
كه
ل
لا
لااقل
لاباما
لابد
لابرادور
لابی
لات
لاتزیو
لاتین
لاتینی
لاجوردی
لادن
لار
لارا
لارس
لارستان
لارن
لارنس
لارو
لاری
لاریجان
لاریجانی
لازم
لازمه
لاس
لاست
لاستیک
لاستیکی
لاسکا
لاشه
لاغر
لال
لاله
لالی
لالیگا
لام
لاما
لامبورگینی
لامرد
لامپ
لان
لانا
لاند
لانس
لانه
لانکا
لانکاشر
لانگ
لاهه
لاهوتی
لاهور
لاهیجان
لاهیجی
لاو
لاوی
لاي
لاک
لاکرونیا
لاکهید
لاکی
لاگوس
لای
لایت
لایحه
لایف
لایق
لاین
لاینده
لایه
لایو
لایپزیگ
لایی
لب
لباتروس
لباس
لباسته
لباسی
لبالو
لبانی
لبانیایی
لبخند
لبر
لبرت
لبرتا
لبرتو
لبنان
لبنانی
لبنی
لبنیات
لبه
لبوم
لبومی
لبیون
لت
لتا
لتای
لترناتیو
لترنتیو
لتو
لتونی
لثه
لجستیک
لجن
لحاظ
لحظات
لحظه
لحن
لحنی
لحیم
لخت
لخته
لد
لذا
لذت
لر
لرد
لردگان
لرزش
لرزه
لرستان
لرژی
لری
لزایمر
لزلی
لزنر
لزوم
لزوما
لزومی
لس
لساندریا
لست
لستر
لسلی
لسوتو
لشکر
لشکرهای
لشکرکشی
لشکری
لشکریان
لطف
لطفا
لطفعلی
لطفی
لطمه
لطیف
لطیفی
لعاب
لعل
لعنت
لغات
لغت
لغتنامه
لغزش
لغو
لغوی
لف
لفا
لفان
لفرد
لفردو
لفظ
لفظی
لفه
لفونسو
لقاح
لقب
لقمان
لقمه
لل
للطباعة
للنشر
لله
لم
لما
لماتی
لمان
لمانی
لمباردی
لمریا
لمس
لمسی
لن
لنا
لند
لندن
لنده
لنز
لنزهای
لنفاوی
لنفوسیت
لنفوم
لنون
لنکران
لنکستر
لنگ
لنگر
لنگرود
لنگرگاه
لنگه
لنی
لنین
لنینگراد
له
لهجه
لهذا
لهستان
لهستانی
لو
لوا
لوازم
لواسان
لوانته
لوایح
لوب
لوبلین
لوبیا
لوت
لوتر
لوتری
لوتوس
لوتون
لوح
لود
لوده
لودویگ
لودگی
لور
لورا
لوران
لورل
لورن
لورنزو
لورنس
لورکوزن
لوری
لوریان
لوز
لوزالمعده
لوزان
لوزی
لوس
لوسی
لوسیا
لوسیفر
لوسین
لوسیوس
لوفت
لوقا
لولا
لوله
لوموند
لومینا
لومینیم
لومینیوم
لومینیومی
لون
لونا
لونسو
لوهانسک
لوور
لوون
لوي
لوپز
لوک
لوکا
لوکاس
لوکزامبورگ
لوکس
لوکوموتیو
لوکوموتیوهای
لوکی
لوکیشن
لوگان
لوگو
لوگوی
لوی
لوید
لویس
لوین
لویو
لویی
لوییس
لي
لپ
لپاین
لچه
لژ
لژسواران
لژیون
لک
لکالوي
لکان
لکس
لکساندر
لکساندرا
لکسی
لکسیوس
لکن
لکه
لکی
لکیل
لگاریتم
لگد
لگن
لگو
لی
لیا
لیاقت
لیام
لیان
لیانگ
لیاي
لیاژ
لیاژها
لیاژهای
لیاژی
لیبرال
لیبرالیسم
لیبرترین
لیبرتی
لیبریا
لیبل
لیبی
لیت
لیتر
لیتری
لیتل
لیتوانی
لیتوانیایی
لیتون
لیتیم
لیتیوم
لیث
لیختن
لید
لیدز
لیدن
لیدی
لیر
لیره
لیز
لیزا
لیزر
لیزرهای
لیزری
لیس
لیسا
لیسانس
لیسبون
لیست
لیستر
لیستی
لیسه
لیسون
لیف
لیفات
لیفت
لیل
لیلا
لیلی
لیما
لیمو
لین
لینا
لیندا
لیندسی
لینه
لینوکس
لینچ
لینک
لینکلن
لینکولن
لینکی
لیه
لیو
لیوان
لیورنو
لیورپول
لیون
لیونل
لیوینگستون
لیژ
لیک
لیکانته
لیکرز
لیکس
لیکن
لیگ
لیگا
لیگای
م
ما
مابقی
مابین
مات
ماتریس
ماتریکس
ماتور
ماتي
ماتیاس
ماجرا
ماجراجویی
ماجراهای
ماجرای
ماجرایی
ماخ
ماد
مادام
مادامی
ماداگاسکار
مادر
مادران
مادربزرگ
مادرزادی
مادرش
مادرشان
مادرم
مادری
مادرید
مادلونگ
ماده
مادها
مادون
مادي
مادگی
مادی
مار
مارا
ماراتن
مارادونا
مارت
مارتا
مارتن
مارتی
مارتین
مارتینز
مارتینیک
مارد
ماردها
مارس
مارسل
مارسی
مارش
مارشال
مارمولک
مارن
ماره
مارها
مارهای
مارو
مارول
مارون
ماروین
مارپیچ
مارپیچی
مارچ
مارک
مارکت
مارکز
مارکس
مارکسیست
مارکسیستی
مارکسیسم
مارکو
مارکوس
مارکوف
مارگارت
مارگیری
ماری
ماریا
ماریان
مارین
مارینا
مارینه
مارینو
ماریو
ماریوس
ماریون
مازاد
مازندران
مازندرانی
مازون
مازیار
ماس
ماساچوست
ماساژ
ماست
ماسه
ماسوله
ماسوویان
ماسک
ماشه
ماشین
ماشینی
ماضی
مافوق
مافیا
مافیای
ماقبل
مال
مالاریا
مالاوی
مالاگا
مالایی
مالت
مالتی
مالدیو
مالر
مالزی
مالزیایی
مالمو
مالک
مالکان
مالکوم
مالکی
مالکیت
مالکین
مالی
مالیات
مالیاتی
مالیه
مام
مامان
مامایی
مامور
ماموران
ماموریت
مامورین
مان
مانا
ماند
ماندا
ماندارین
ماندلا
ماندن
ماندند
ماندنی
مانده
ماندگار
ماندگاری
ماندگی
مانش
مانشتاین
مانع
مانعی
مانند
مانندی
مانه
مانور
مانوي
مانوی
ماني
مانکن
مانگا
مانگای
مانی
مانیتور
مانیفست
مانیل
ماه
ماهان
ماهانه
ماهر
ماهشهر
ماهنامه
ماهه
ماهواره
ماهور
ماهون
ماهی
ماهیان
ماهیانه
ماهیت
ماهیچه
ماهیگیری
ماوراء
ماوراءالنهر
ماورای
ماوس
ماي
ماژور
ماژول
ماکاي
ماکت
ماکرو
ماکس
ماکسول
ماکسیم
ماکسیمیلیان
ماکو
ماکی
ماکیان
ماگدالنا
ماگدبورگ
مای
مایا
مایر
مایرز
مایع
مایعات
مایل
مایلز
مایلی
ماین
ماینتس
مایه
مایو
مایورکا
مایک
مایکروسافت
مایکروویو
مایکل
مباحث
مباحثه
مباحثی
مبادا
مبادرت
مبادلات
مبادله
مبارز
مبارزات
مبارزان
مبارزه
مبارک
مبارکه
مبالغ
مبانی
مبتلا
مبتلایان
مبتنی
مبحث
مبدا
مبدل
مبرلا
مبرلند
مبل
مبلغ
مبلغان
مبلغی
مبلمان
مبنا
مبنای
مبنایی
مبنی
مبهم
مبولانس
مبین
مة
مت
متا
متابولیت
متابولیسم
متابولیک
متاخر
متاسفانه
متاسفم
متافیزیک
متال
متالورژی
متان
متاکریتیک
متجاوز
متحد
متحدان
متحده
متحدین
متحرک
متحمل
متحول
متخاصم
متخصص
متخصصان
متخصصین
متخلخل
متخلص
متخلف
متد
متداول
متدیست
متذکر
متر
مترادف
متراکم
مترجم
مترجمان
مترقی
مترمربع
مترمکعب
مترو
متروپولیتن
متروک
متروکه
متروی
متری
متریک
متز
متزلزل
متشکرم
متشکل
متصدی
متصرف
متصل
متصور
متضاد
متضمن
متعادل
متعارف
متعاقب
متعاقبا
متعال
متعالی
متعدد
متعددی
متعصب
متعلق
متعلقات
متعهد
متغیر
متغیرها
متغیرهای
متفاوت
متفاوتی
متفرق
متفرقه
متفق
متفقین
متفکر
متفکران
متقابل
متقارن
متقاضی
متقاضیان
متقاطع
متقاعد
متل
متلاشی
متمادی
متمایز
متمایل
متمرکز
متمم
متن
متناسب
متناظر
متناقض
متناهی
متناوب
متنفر
متنوع
متنوعی
متنی
مته
متهم
متهمان
متوازن
متوالی
متوجه
متوسط
متوسطه
متوسل
متوفی
متوقف
متولد
متولی
متون
متوکل
متکی
متی
متیل
متین
متیو
مثابه
مثال
مثالی
مثانه
مثبت
مثبتی
مثل
مثلا
مثلث
مثلثاتی
مثلثی
مثنوی
مجادله
مجار
مجارستان
مجارستانی
مجاری
مجاز
مجازات
مجازی
مجال
مجالس
مجامع
مجانی
مجاهد
مجاهدان
مجاهدین
مجاور
مجاورت
مجبور
مجتبی
مجتمع
مجتهد
مجتهدی
مجد
مجدد
مجددا
مجذوب
مجرای
مجرب
مجرد
مجرم
مجرمان
مجرمانه
مجروح
مجری
مجریان
مجریه
مجزا
مجسمه
مجلات
مجلد
مجلس
مجلسی
مجلسین
مجلل
مجله
مجمع
مجموع
مجموعا
مجموعه
مجنون
مجهز
مجهول
مجوز
مجوزهای
مجید
مجیدی
محاربه
محارم
محاسبات
محاسباتی
محاسبه
محاصره
محافظ
محافظان
محافظت
محافظه
محافل
محال
محاوره
محاکم
محاکمه
محبت
محبوب
محبوبه
محبوبیت
محبوس
محتاج
محترم
محترمانه
محتشم
محتمل
محتوا
محتواهای
محتوای
محتوایی
محتوی
محتویات
محدب
محدث
محدثان
محدود
محدوده
محدودکننده
محدودی
محدودیت
محدودیتی
محراب
محرز
محرم
محرمانه
محرمانگی
محروم
محرومیت
محرک
محرکه
محسن
محسنی
محسوب
محسوس
محصنه
محصور
محصول
محصولات
محصولاتی
محصولی
محض
محضر
محفظه
محفل
محفوظ
محقق
محققان
محققین
محل
محلات
محلاتی
محله
محلول
محلی
محم
محمد
محمدا
محمدابراهیم
محمدامین
محمدباقر
محمدبن
محمدتقی
محمدجعفر
محمدجواد
محمدحسن
محمدحسین
محمدخان
محمدرضا
محمدزاده
محمدشاه
محمدصادق
محمدعلی
محمدمهدی
محمدهادی
محمدکاظم
محمدی
محمدیان
محمود
محمودا
محمودی
محموله
محو
محور
محورهای
محوری
محوریت
محوطه
محول
محک
محکم
محکمه
محکمی
محکوم
محکومان
محکومیت
محیط
محیطی
مخ
مخابرات
مخابراتی
مخابره
مخارج
مخازن
مخاط
مخاطب
مخاطبان
مخاطبین
مخاطرات
مخاطره
مخاطی
مخالف
مخالفان
مخالفت
مخالفتی
مخالفم
مخالفی
مخالفین
مخبر
مختار
مختاری
مخترع
مخترعان
مختص
مختصات
مختصر
مختصری
مختل
مختلط
مختلف
مختلفی
مخدر
مخدوش
مخرب
مخروط
مخروطی
مخزن
مخصوص
مخصوصا
مخصوصی
مخفف
مخفی
مخفیانه
مخلوط
مخلوطی
مخلوق
مخمر
مخوف
مخچه
مد
مداخلات
مداخله
مداد
مدار
مدارا
مداران
مدارس
مدارهای
مدارک
مدارکی
مداری
مدافع
مدافعان
مدال
مدام
مداوم
مدت
مدترین
مدتها
مدتی
مدح
مدخل
مدد
مدرس
مدرسه
مدرسی
مدرسین
مدرن
مدرنیته
مدرنیسم
مدرک
مدرکی
مدعا
مدعو
مدعی
مدعیان
مدفن
مدفوع
مدفون
مدفونان
مدل
مدلسازی
مدلهای
مدلی
مدلینگ
مدم
مدن
مدند
مدنظر
مدنی
مده
مدها
مدهای
مدور
مدول
مدولاسیون
مدون
مدونا
مدگی
مدی
مدیا
مدیاویکی
مدیترانه
مدید
مدیر
مدیران
مدیرانی
مدیرعامل
مدیره
مدیرکل
مدیری
مدیریت
مدیریتی
مدیسن
مدیسون
مدیم
مدینه
مدیون
مدیچی
مذاب
مذاهب
مذاکرات
مذاکراتی
مذاکره
مذهب
مذهبی
مذکر
مذکور
مذکوره
مر
مرا
مراتب
مراتبی
مراتع
مراجع
مراجعت
مراجعه
مراحل
مراد
مرادی
مراسم
مراسمی
مراعات
مراغه
مراقب
مراقبت
مرام
مراکز
مراکش
مراکشی
مربع
مربعی
مربوط
مربوطه
مربی
مربیان
مربیگری
مرتب
مرتبا
مرتبط
مرتبه
مرتد
مرتضا
مرتضوی
مرتضی
مرتفع
مرتکب
مرثیه
مرج
مرجان
مرجانی
مرجع
مرجعی
مرجعیت
مرحله
مرحوم
مرخص
مرخصی
مرد
مرداب
مرداد
مردان
مردانه
مردانی
مرداویج
مردتنها
مردم
مردمان
مردمانی
مردمش
مردمک
مردمی
مردن
مرده
مردها
مردود
مردوک
مردگان
مردی
مرز
مرزبان
مرزها
مرزهای
مرزی
مرسدس
مرسر
مرسوم
مرسی
مرشد
مرض
مرضیه
مرطوب
مرعشی
مرغ
مرغابی
مرغان
مرغوب
مرغی
مرفه
مرقد
مرلین
مرمت
مرمر
مرموز
مرند
مره
مرو
مروارید
مروان
مروج
مرودشت
مرور
مرورگر
مرورگرهای
مروری
مروی
مري
مرکب
مرکبات
مرکز
مرکزی
مرکزیت
مرکل
مرکوری
مرگ
مرگبار
مرگش
مری
مریت
مریخ
مرید
مریدان
مریض
مریل
مریلند
مریلین
مریم
مریوان
مریکا
مریکاست
مریکای
مریکایی
مریکن
مزاج
مزاحم
مزاحمت
مزار
مزارع
مزایا
مزایای
مزایده
مزبور
مزد
مزدا
مزدوج
مزدور
مزدوران
مزدک
مزدیسنا
مزرعه
مزمن
مزه
مزیت
مزین
مس
مسا
مسابقات
مسابقاتی
مسابقه
مساجد
مساحت
مساحتی
مساعد
مساعدت
مسافت
مسافر
مسافران
مسافربری
مسافرت
مسافرتی
مسافری
مسالمت
مساله
مساوات
مساوی
مساي
مسایل
مسبب
مست
مستا
مستثنی
مستحق
مستحکم
مستخدم
مستخدمین
مستر
مسترد
مستردام
مستضعفان
مستطیل
مستطیلی
مستعار
مستعد
مستعمرات
مستعمره
مستغلات
مستقر
مستقل
مستقلا
مستقلی
مستقیم
مستقیما
مستقیمی
مستلزم
مستمر
مستمری
مستند
مستندات
مستندساز
مستندسازان
مستندسازی
مستندی
مستوفی
مستی
مسجد
مسجدسلیمان
مسجدهای
مسجدی
مسخره
مسدود
مسطح
مسعود
مسعودی
مسقط
مسلح
مسلحانه
مسلسل
مسلط
مسلم
مسلما
مسلمان
مسلمانان
مسلمانی
مسلمین
مسموم
مسمومیت
مسن
مسند
مسو
مسوول
مسوولیت
مسي
مسکن
مسکو
مسکونی
مسی
مسیح
مسیحی
مسیحیان
مسیحیت
مسیر
مسیرها
مسیرهای
مسیری
مسیریابی
مسینا
مسیو
مش
مشابه
مشابهی
مشاجره
مشارکت
مشارکتی
مشاغل
مشاهدات
مشاهده
مشاهیر
مشاور
مشاوران
مشاوره
مشایخ
مشایخی
مشایی
مشبک
مشت
مشتاق
مشترک
مشترکا
مشترکی
مشتری
مشتریان
مشتق
مشتقات
مشتمل
مشتی
مشخص
مشخصا
مشخصات
مشخصه
مشخصی
مشرف
مشرق
مشروب
مشروبات
مشروح
مشروط
مشروطه
مشروطیت
مشروع
مشروعیت
مشعل
مشغله
مشغول
مشق
مشمول
مشهد
مشهدی
مشهود
مشهور
مشهورترین
مشهوری
مشورت
مشورتی
مشوق
مشک
مشکاتیان
مشکل
مشکلات
مشکلاتی
مشکلی
مشکوک
مشکی
مشکین
مشگین
مشی
مشیرالدوله
مصاحبه
مصادره
مصادف
مصادیق
مصارف
مصاف
مصالح
مصالحه
مصاي
مصباح
مصداق
مصداقی
مصدر
مصدق
مصدوم
مصدومیت
مصر
مصراع
مصرف
مصرفی
مصری
مصریان
مصطفوی
مصطفی
مصلح
مصلحت
مصلی
مصمم
مصنوعات
مصنوعی
مصو
مصوب
مصوبات
مصوبه
مصوت
مصور
مصون
مصونیت
مصیبت
مضاعف
مضاف
مضامین
مضحک
مضر
مضمون
مطابق
مطابقت
مطالب
مطالبات
مطالبه
مطالبی
مطالعات
مطالعاتی
مطالعه
مطبوع
مطبوعات
مطبوعاتی
مطرح
مطلب
مطلبی
مطلع
مطلق
مطلقا
مطلقه
مطلوب
مطلوبی
مطلوبیت
مطمي
مطهر
مطهری
مطیع
مظاهر
مظفر
مظفرالدین
مظفری
مظلوم
مظلومی
مظنه
مظنون
مظهر
مع
معابد
معابر
معادل
معادلات
معادله
معادن
معارف
معاش
معاشرت
معاصر
معاف
معافیت
معالجه
معاملات
معاملاتی
معامله
معانی
معاهدات
معاهده
معاون
معاونان
معاونت
معاویه
معایب
معاینه
معبد
معتاد
معتبر
معتبرترین
معتبری
معتدل
معترض
معترضان
معترضین
معتزله
معتصم
معتقد
معتقدم
معتقدند
معتمد
معتمدی
معجزات
معجزه
معجم
معدل
معدن
معدنچیان
معدنی
معده
معدود
معدودی
معذرت
معراج
معرب
معرض
معرف
معرفت
معرفی
معرق
معروف
معروفترین
معروفی
معروفیت
معرکه
معس
معشوق
معشوقه
معصوم
معصومه
معصومی
معضل
معضلات
معطر
معطوف
معظم
معظمی
معقول
معلق
معلم
معلمان
معلمی
معلول
معلولان
معلولیت
معلولین
معلوم
معلومات
معما
معمار
معماران
معماری
معمای
معمایی
معمر
معمول
معمولا
معمولی
معنا
معناست
معنای
معنایی
معنوی
معنویت
معنی
معکوس
معیار
معیارها
معیارهای
معیاری
معیشت
معین
معینی
معیوب
مغ
مغازه
مغالطه
مغان
مغایر
مغایرت
مغذی
مغرب
مغربی
مغرور
مغز
مغزی
مغلوب
مغناطیس
مغناطیسی
مغول
مغولان
مغولستان
مغولی
مـاهـان
مـهـران
مفاخر
مفاد
مفاصل
مفاهیم
مفاهیمی
مفتامین
مفتخر
مفرد
مفرط
مفرغ
مفسر
مفسران
مفصل
مفصلی
مفعول
مفقود
مفهوم
مفهومی
مفی
مفید
مفیدی
مقابل
مقابله
مقادیر
مقادیری
مقارن
مقاصد
مقاطع
مقالات
مقالاتی
مقاله
مقالە
مقام
مقامات
مقامی
مقاوم
مقاومت
مقاومتی
مقایسه
مقبره
مقبول
مقبولیت
مقتدر
مقتضی
مقتول
مقد
مقدار
مقداری
مقدس
مقدسات
مقدسی
مقدم
مقدمات
مقدماتی
مقدمه
مقدور
مقدونی
مقدونیه
مقر
مقرر
مقررات
مقرراتی
مقرنس
مقرون
مقصد
مقصدهای
مقصر
مقصود
مقطع
مقطعی
مقعد
مقعدی
مقلد
مقننه
مقوله
مقیاس
مقید
مقیم
مل
ملا
ملات
ملاحظات
ملاحظه
ملاصدرا
ملاقات
ملانی
ملاک
ملایر
ملایم
ملبورن
ملت
ملتی
ملحق
ملخ
ملزم
ملزومات
ملغی
ملقب
ملل
ملموس
ملوان
ملوانان
ملودی
ملون
ملوک
ملک
ملکان
ملکشاه
ملکشاهی
ملکم
ملکه
ملکی
ملی
ملیت
ملیتی
ملیسا
مماس
ممالک
ممالیک
ممانعت
ممتاز
ممتنع
ممسنی
ممفیس
مملو
مملکت
مملکتی
ممنوع
ممنوعه
ممنوعیت
ممنون
ممنونم
مموریال
ممکن
ممکنه
ممیز
ممیزی
من
منا
منابع
منابعی
مناجات
منار
مناره
منازعات
منازعه
منازل
مناسب
مناسبات
مناسبت
مناسبتی
مناسبی
مناسک
مناصب
مناطق
مناطقی
مناظر
مناظره
منافذ
منافع
مناقب
مناقشات
مناقشه
مناقصه
منان
منبت
منبر
منبع
منبعی
منت
منتج
منتخب
منتسب
منتشر
منتشرشده
منتشره
منتظر
منتظری
منتظم
منتفی
منتقد
منتقدان
منتقدین
منتقل
منتها
منتهی
منثور
منجر
منجم
منجمد
منجمله
منجی
منحرف
منحصر
منحصرا
منحصربه
منحل
منحنی
مند
مندان
مندرج
مندز
مندی
منزفیلد
منزل
منزلت
منزله
منزوی
منسجم
منسوب
منسوجات
منسوخ
منش
منشا
منشاء
منشعب
منشور
منشورات
منشی
منصب
منصبان
منصرف
منصف
منصفانه
منصفه
منصوب
منصور
منصوره
منصوری
منطبق
منطق
منطقه
منطقی
منظر
منظره
منظم
منظور
منظورتان
منظورم
منظوره
منظوم
منظومه
منع
منعقد
منعکس
منفجر
منفجره
منفرد
منفعت
منفعل
منفی
منقار
منقرض
منقضی
منقول
منم
منه
منهای
منهتن
منهدم
منهم
منو
منوط
منوچهر
منوچهری
منوی
منچستر
منچوری
منکر
منگنز
منی
منیتوبا
منیزیم
منین
منیژه
مه
مهاباد
مهاجر
مهاجران
مهاجرانی
مهاجرت
مهاجرین
مهاجم
مهاجمان
مهار
مهاراشترا
مهارت
مهارکننده
مهتاب
مهد
مهدوی
مهدویت
مهدی
مهر
مهرا
مهرافزون
مهران
مهربان
مهربانی
مهرجویی
مهرداد
مهرستان
مهرماه
مهرنگار
مهره
مهرگان
مهری
مهریز
مهریه
مهسا
مهستی
مهلت
مهم
مهمات
مهمان
مهمانان
مهمانی
مهمتر
مهمترین
مهمی
مهناز
مهندس
مهندسان
مهندسی
مهندسین
مهیا
مهیج
مهین
مو
مواجه
مواجهه
مواد
موادی
موارد
مواردی
موازات
موازنه
موازی
موازین
مواضع
موافق
موافقان
موافقت
موافقتنامه
موافقم
موافقند
موافقید
مواقع
مواقعی
موانع
موبایل
موبد
موبدان
موبیل
موت
موتسارت
موتور
موتورز
موتورسواری
موتورسیکلت
موتوره
موتورها
موتورهای
موتوری
موتوریزه
موتیف
موث
موثر
موثق
موج
موجب
موجبات
موجه
موجود
موجودات
موجوداتی
موجودی
موجودیت
موجی
موحد
موخت
موختن
موخته
موختگان
مود
مودت
مودریا
مودم
مودنا
مودی
مور
موران
مورب
مورتال
مورتون
مورخ
مورخان
مورخین
مورد
موردش
موردنظر
موردنیاز
موردی
مورسیا
مورف
مورفی
مورو
موروثی
مورچه
مورگان
موری
موریت
موریتانی
موریتی
موریس
موریسون
مورین
مورینیو
موریکونه
موز
موزامبیک
موزان
موزاي
موزد
موزش
موزشگاه
موزشی
موزل
موزه
موزون
موزگار
موزگاران
موزی
موزیک
موزیکال
موس
موساد
موسس
موسسات
موسسه
موسولینی
موسوم
موسوی
موسی
موسیقایی
موسیقی
موسیقیدان
موش
موشن
موشک
موشکی
موشی
موصل
موضع
موضعی
موضوع
موضوعات
موضوعاتی
موضوعی
موظف
موظفند
موعد
موعظه
موعود
موفق
موفقی
موفقیت
موفقیتی
موقت
موقتا
موقتی
موقع
موقعی
موقعیت
موقعیتی
موقوف
موقوفات
موقوفه
مول
مولانا
مولتی
مولد
مولداوی
مولر
مولف
مولفه
مولن
مولوی
مولکول
مولکولی
مولی
مولیبدن
موم
مومیایی
مون
مونا
موناکو
مونت
مونتانا
مونتاژ
مونترا
مونترال
مونتری
مونتسا
مونته
مونتگومری
مونرو
مونشن
مونه
مونو
مونیاک
مونیخ
مونیوم
مونیکا
موهای
موومان
موي
موکل
موکول
موی
موید
مى
مي
مپ
مپر
مچ
مژده
مژه
مژگان
مک
مکابی
مکاتب
مکاتبات
مکاتبه
مکارم
مکاشفه
مکالمات
مکالمه
مکان
مکانهای
مکانی
مکانیزم
مکانیزه
مکانیسم
مکانیک
مکانیکی
مکتب
مکتبی
مکتشفان
مکتوب
مکر
مکران
مکرر
مکررا
مکری
مکزیک
مکزیکو
مکزیکوسیتی
مکزیکی
مکس
مکش
مکعب
مکعبی
مکلف
مکلفند
مکلنبورگ
مکمل
مکن
مکنزی
مکه
مکی
مکینتاش
مگ
مگا
مگابایت
مگان
مگاهرتز
مگاوات
مگر
مگس
مگی
می
میا
میابد
میاد
میادین
میازاکی
میامی
میان
میانجی
میانجیگری
میاندوا
میانرودان
میانمار
میانه
میانگین
میانی
میباشد
میباشند
میبد
میبود
میت
میترا
میتسوبیشی
میتوان
میتواند
میتوانند
میتوانید
میتوکندری
میثاق
میثم
میجی
میخ
میخانه
میخاي
میخته
میخواستم
میخواهد
میخواهم
میخی
مید
میداد
میدان
میداند
میدانم
میدانند
میدانی
میدانید
میدلزبورو
میدلسکس
میدلند
میدن
میده
میدهد
میدهم
میدهند
میر
میرا
میراث
میراشرافی
میراندا
میرجاوه
میرحسین
میرد
میرزا
میرزای
میرزایی
میرسد
میرفت
میرند
میرود
میری
میز
میزان
میزانی
میزبان
میزبانی
میزد
میزش
میزند
میزه
میزوری
میزی
میس
میسر
میسوری
میسون
میسیسیپی
میش
میشاي
میشد
میشده
میشل
میشم
میشه
میشود
میشوند
میشیگان
میل
میلاد
میلادی
میلان
میلانی
میلتون
میلر
میلز
میله
میلوال
میلواکی
میلی
میلیارد
میلیاردرهای
میلیمتر
میلیمتری
میلینگ
میلیون
میلیونی
میم
میمه
میمون
مین
مینا
میناب
میناموتو
مینستر
مینسک
مینماید
مینه
مینو
مینودشت
مینور
مینوی
مینویسد
مینگ
مینی
مینیاتور
مینیاپولیس
میه
میهمان
میهمانان
میهن
میهنی
میوزیک
میوسن
میونگ
میوه
میچل
میک
میکا
میکاي
میکرد
میکردم
میکردند
میکرو
میکروارگانیسم
میکروب
میکروبی
میکروبیولوژی
میکروسکوپ
میکروسکوپی
میکروفون
میکرومتر
میکرون
میکرونزی
میکس
میکل
میکند
میکنم
میکنند
میکنه
میکنید
میکنیم
میکی
میگ
میگا
میگردد
میگرن
میگل
میگو
میگوي
میگوید
میگویم
میگویند
میگیرد
ن
نا
ناا
ناامنی
ناامید
ناامیدی
ناب
نابجایی
نابرابر
نابرابری
نابغه
نابود
نابودگر
نابودی
نابینا
نابینایان
نات
ناتالی
ناتالیا
ناتان
ناتل
ناتمام
ناتنی
ناتو
ناتوان
ناتوانی
ناتولی
ناتومی
ناتینگهام
ناجی
ناحیه
ناخالص
ناخالصی
ناخدا
ناخن
ناخواسته
ناخودا
ناخوشایند
ناد
نادر
نادرست
نادرستی
نادرشاه
نادری
نادو
نادیا
نادیده
نار
نارا
ناراحت
ناراحتی
ناراضی
نارسایی
نارشیست
نارشیسم
نارضایتی
نارنج
نارنجک
نارنجی
ناروا
نارگیل
ناز
نازل
نازنین
نازک
نازی
نازیسم
ناس
ناسا
ناسازگار
ناسازگاری
ناساو
ناسرشناس
ناسودبر
ناسیونال
ناسیونالیسم
ناشر
ناشران
ناشناخته
ناشناس
ناشنوایان
ناشی
ناصر
ناصرالدین
ناصری
ناطق
ناظر
ناظران
ناظرزاده
ناظری
ناظم
ناعادلانه
ناف
نافذ
نافرجام
نافرمانی
ناقص
ناقض
ناقل
ناقوس
ناله
نالوگ
نالیز
نام
نامبرده
نامتقارن
نامتناهی
نامجو
نامحدود
نامحسوس
نامد
نامدار
نامربوط
نامرتبط
نامري
نامزد
نامزدان
نامزدها
نامزدهای
نامزدکننده
نامزدی
نامش
نامشان
نامشخص
نامشروع
نامطلوب
نامعتبر
نامعلوم
نامعلومی
نامفهوم
ناملموس
ناممکن
نامناسب
نامند
نامنظم
نامه
نامهای
ناموجود
ناموس
ناموفق
نامگذاری
نامی
نامیبیا
نامید
نامیدن
نامیدند
نامیده
نامیم
نان
نانت
ناند
نانسی
نانو
نانوذرات
نانولوله
نانومتر
نانی
ناهار
ناهموار
ناهمواری
ناهمگن
ناهنجاری
ناهیتا
ناهید
ناو
ناوبری
ناوشکن
ناوهای
ناوچه
ناوگان
ناي
ناپایدار
ناپایداری
ناپدید
ناپذیر
ناپذیری
ناپسند
ناپل
ناپلي
ناپولی
ناپیوسته
ناچار
ناچیز
ناچیزی
ناک
ناکارا
ناکافی
ناکام
ناکامی
ناکس
ناگاساکی
ناگاه
ناگزیر
ناگفته
ناگهان
ناگهانی
ناگوار
ناگویا
نای
نایب
نایت
نایجل
نایروبی
نایل
نبات
نباتات
نباتی
نباشد
نباشند
نباشید
نباید
نبح
نبراسکا
نبرد
نبردناو
نبردناوهای
نبرده
نبردها
نبردهای
نبردی
نبش
نبشته
نبوت
نبود
نبودم
نبودن
نبودند
نبوده
نبوغ
نبوی
نبی
نت
نتالیا
نتانیاهو
نتاگونیست
نتایج
نتایجی
نتروپی
نتس
نتفلیکس
نتن
نته
نتوان
نتواند
نتوانست
نتوانستم
نتوانستند
نتوانسته
نتوانند
نتورپ
نتون
نتونوف
نتونی
نتونیو
نتی
نتیجتا
نتیجه
نتیل
نتیوخوس
نتیگوا
نث
نثر
نجا
نجات
نجار
نجاست
نجایی
نجف
نجفی
نجلا
نجلس
نجلو
نجم
نجوم
نجومی
نجیب
نحو
نحوه
نحوی
نخ
نخاع
نخاعی
نخبه
نخبگان
نخجوان
نخست
نخستی
نخستین
نخل
نخلستان
نخوانده
نخواهد
نخواهم
نخواهند
نخواهیم
نخود
نخورد
نخورده
ند
ندا
نداد
ندادم
ندادن
ندادند
نداده
ندارد
ندارم
ندارند
نداره
نداری
ندارید
نداریم
نداشت
نداشتم
نداشتن
نداشتند
نداشته
نداشتیم
ندانسته
ندانم
ندای
ندر
ندرا
ندرت
ندرتیکر
ندرس
ندره
ندری
ندریا
ندریاس
نده
ندهد
ندهند
ندهید
ندورا
ندی
ندید
ندیدم
ندیده
ندیم
نذر
نر
نرا
نراقی
نرخ
نردبان
نرده
نرساند
نرسد
نرسه
نرسی
نرسید
نرسیده
نرفت
نرفته
نرم
نرماشیر
نرمال
نرماندی
نرمی
نرها
نرود
نروز
نرون
نروژ
نروژی
نرگس
نری
نریمان
نزاع
نزاکت
نزاکتی
نزد
نزده
نزدک
نزدیک
نزدیکان
نزدیکتر
نزدیکترین
نزدیکی
نزن
نزول
نزولی
نزی
نزیم
نزیمی
نس
نسا
نساجی
نسب
نسبت
نسبتا
نسبتی
نسبی
نسبیت
نست
نستعلیق
نسخ
نسخه
نسرین
نسل
نسلی
نسوز
نسوی
نسیان
نسیم
نش
نشا
نشات
نشاسته
نشاط
نشان
نشاند
نشانده
نشانه
نشانگان
نشانگر
نشانی
نشت
نشد
نشدم
نشدن
نشدند
نشدنی
نشده
نشر
نشریات
نشریه
نشست
نشستن
نشستند
نشسته
نشستی
نشنال
نشنیده
نشود
نشون
نشوند
نشوید
نشویل
نشیب
نشیمن
نشین
نشینان
نشیند
نشینی
نص
نصاب
نصب
نصر
نصرا
نصرالله
نصرت
نصف
نصیب
نصیحت
نصیر
نصیرالدین
نصیری
نطق
نطنز
نطور
نظارت
نظارتی
نظاره
نظافت
نظام
نظامنامه
نظامی
نظامیان
نظایر
نظر
نظرا
نظرات
نظراتی
نظران
نظرتان
نظرخواهی
نظرسنجی
نظرش
نظرشان
نظرم
نظرها
نظرهای
نظری
نظریات
نظریه
نظم
نظمی
نظمیه
نظیر
نظیری
نعل
نعمان
نعمت
نعمتی
نغمه
نفاق
نفت
نفتی
نفر
نفرات
نفربر
نفرت
نفره
نفری
نفرین
نفس
نفسی
نفع
نفقه
نفلوانزا
نفهمیدم
نفوذ
نفوذپذیری
نفوذی
نفوس
نفی
نفیس
نفیسی
نقاب
نقاره
نقاش
نقاشان
نقاشی
نقاط
نقاطی
نقد
نقدر
نقده
نقدها
نقدهای
نقدی
نقدینگی
نقره
نقش
نقشه
نقشی
نقص
نقصان
نقض
نقطه
نقل
نقلی
نقلیه
نقوش
نقی
نقیض
نقیضه
نلاین
نلسون
نم
نما
نماد
نمادها
نمادهای
نمادی
نمادین
نماز
نمازخانه
نمازی
نماند
نمانده
نماها
نماهای
نماهنگ
نماي
نمای
نمایان
نمایانگر
نماید
نمایش
نمایشنامه
نمایشگاه
نمایشگاهی
نمایشگر
نمایشی
نمایم
نمایند
نماینده
نمایندگان
نمایندگانی
نمایندگی
نمایه
نمایی
نمایید
نماییم
نمرات
نمره
نمو
نمود
نمودار
نمودارهای
نمودم
نمودن
نمودند
نموده
نمونه
نمک
نمکی
نمی
نمیتوان
نمیتواند
نمیدانم
نمیشه
نمیشود
نمین
نمیکند
نمیکنم
ننماید
ننموده
ننه
ننوشته
ننگ
ننگرهار
نه
نها
نهاد
نهادن
نهادند
نهاده
نهادها
نهادهای
نهادی
نهاست
نهال
نهالت
نهان
نهاوند
نهاي
نهایت
نهایتا
نهایی
نهبندان
نهج
نهد
نهر
نهصد
نهضت
نهفته
نهم
نهمین
نهنگ
نهی
نو
نوا
نواب
نواحی
نواخت
نواختن
نواخته
نوادا
نواده
نوادگان
نوار
نوارهای
نواری
نواز
نوازان
نوازنده
نوازندگان
نوازندگی
نوازی
نواقص
نوامبر
نوای
نوایی
نوبت
نوبتی
نوبل
نوبه
نوبوناگا
نوت
نوترون
نوتس
نوجوان
نوجوانان
نوجوانانه
نوجوانی
نوح
نود
نور
نورا
نورالدین
نورالله
نورانی
نوربخش
نورت
نورتون
نورث
نورد
نوردراین
نوردی
نوردیک
نورس
نورعلی
نورفک
نورماندی
نورمن
نورنبرگ
نوروز
نوروزی
نورون
نورپردازی
نوری
نوریچ
نوزاد
نوزادان
نوزادی
نوزده
نوزدهم
نوزدهمین
نوس
نوسازی
نوسان
نوسانات
نوسنگی
نوش
نوشابه
نوشت
نوشتار
نوشتارها
نوشتارهای
نوشتارهایی
نوشتاری
نوشتم
نوشتن
نوشتند
نوشته
نوشتید
نوشتە
نوشهر
نوشیدن
نوشیدنی
نوشین
نوظهور
نوع
نوعی
نوقت
نولان
نون
نوه
نوو
نووا
نووارا
نووگورود
نووی
نوي
نوژن
نوک
نوکلي
نوکیا
نوکیشان
نوگرا
نوی
نوید
نویز
نویس
نویسان
نویسد
نویسم
نویسند
نویسنده
نویسندگان
نویسندگانی
نویسندگی
نویسه
نویسی
نویسیم
نویل
نوین
نوینی
نویی
ني
نيز
نيست
نپال
نپتون
نپذیرفت
نپرداخته
نچنان
نچه
نژ
نژاد
نژادهای
نژادپرستانه
نژادپرستی
نژادی
نژه
نک
نکا
نکات
نکاتی
نکاح
نکارا
نکته
نکرد
نکردم
نکردن
نکردند
نکرده
نکردید
نکشید
نکن
نکند
نکنم
نکنند
نکنید
نکنیم
نکه
نکونا
نکونام
نکوهش
نگ
نگار
نگاران
نگارخانه
نگارش
نگارشی
نگارنده
نگاره
نگارگری
نگاری
نگاشت
نگاشته
نگاه
نگاهداری
نگاهی
نگذاشته
نگذشته
نگر
نگران
نگرانی
نگردد
نگردید
نگرش
نگرشی
نگرفت
نگرفته
نگرو
نگری
نگفتم
نگفته
نگلوساکسون
نگه
نگهبان
نگهبانان
نگهبانی
نگهدارنده
نگهداری
نگو
نگولا
نگونه
نگیرد
نگیرید
نگین
نی
نیا
نیابت
نیاز
نیازمند
نیازمندی
نیازها
نیازهای
نیازی
نیافت
نیافتم
نیافته
نیامد
نیامده
نیاوران
نیاورد
نیاورده
نیاکان
نیای
نیاید
نیایش
نیایشگاه
نیت
نیتا
نیترات
نیتروژن
نیترید
نیجر
نیجریه
نیدراسترایش
نیدرزاکسن
نیر
نیرنگ
نیرو
نیروانا
نیرومند
نیروها
نیروهای
نیروهایش
نیروهایی
نیروگاه
نیروی
نیرویی
نیز
نیزه
نیس
نیسان
نیست
نیستم
نیستند
نیستی
نیستید
نیستیم
نیش
نیشابور
نیشابوری
نیشکر
نیل
نیلوفر
نیلی
نیم
نیما
نیمروز
نیمه
نیمکت
نیمکره
نیمی
نین
نینا
نینتندو
نینجا
نینوا
نیو
نیوا
نیواورلي
نیوبرانزویک
نیوتن
نیوتون
نیوجرسی
نیوز
نیوزلند
نیوزیلند
نیوزیلندی
نیوفاندلند
نیومن
نیومکزیکو
نیون
نیوهمپشایر
نیوپورت
نیوکاسل
نیویورک
نیویورکر
نیي
نیپون
نیچه
نیک
نیکا
نیکاراگوي
نیکسون
نیکل
نیکلاس
نیکلای
نیکلسون
نیکو
نیکول
نیکولا
نیکولاس
نیکولای
نیکولز
نیکوکار
نیکوکاران
نیکی
نیگاتا
ه
ها
هاب
هابسبورگ
هابل
هابیت
هات
هاتسپر
هادرزفیلد
هادسون
هادی
هارا
هاربر
هارت
هارتفورد
هارتل
هارد
هاردی
هارلم
هارمونی
هارمونیک
هاروارد
هارولد
هارون
هاروی
هارپر
هاری
هاس
هاست
هاش
هاشم
هاشمی
هافبک
هافمن
هال
هالند
هاله
هالووین
هالک
هالی
هالیوود
هام
هامبورگ
هامون
هان
هانا
هانت
هانتر
هانری
هانس
هانسن
هانوفر
هانی
هانیبال
هاو
هاوارد
هاوانا
هاوایی
هاوس
هاوک
هاي
هاپ
هاپر
هاپکینز
هاچ
هاک
هاکی
هاگ
های
هایتان
هایتس
هاید
هایدلبرگ
هایدن
هایده
هایدگر
هایش
هایشان
هایم
هاینریش
هایک
هایی
هت
هتل
هجده
هجدهم
هجدهمین
هجرت
هجری
هجوم
هجومی
هخامنش
هخامنشی
هخامنشیان
هد
هدایای
هدایت
هدایتی
هدر
هدف
هدفش
هدفمند
هدفهای
هدفی
هدی
هدیه
هذا
هذه
هر
هرا
هرات
هراتی
هرادتس
هراز
هراس
هراسی
هراکلیتوس
هراکلیوس
هربار
هربرت
هرتابرلین
هرتز
هرتفوردشر
هرج
هرجا
هرحال
هرد
هردو
هردوی
هرز
هرزنامه
هرزه
هرزگوین
هرساله
هرسین
هرم
هرمان
هرمز
هرمزگان
هرمس
هرمی
هرودوت
هروي
هروی
هرچند
هرچه
هرکدام
هرکس
هرکسی
هرکه
هرکول
هرکولس
هرگاه
هرگز
هرگونه
هری
هریس
هریسون
هریوا
هریک
هزار
هزاران
هزاره
هزینه
هست
هستش
هستم
هستن
هستند
هسته
هستی
هستید
هستیم
هسن
هش
هشام
هشت
هشتاد
هشترود
هشتصد
هشتم
هشتمین
هشتگ
هشتی
هشدار
هشدارهای
هضم
هـ
هفت
هفتاد
هفتصد
هفتم
هفتمین
هفته
هفتگی
هفده
هفدهم
هفدهمین
هل
هلاس
هلال
هلالی
هلاک
هلدینگ
هلسینکی
هلمز
هلمند
هلموت
هلن
هلنا
هلند
هلندی
هلنیستی
هلو
هلی
هلیم
هلیوم
هلیکوپتر
هم
هما
همان
همانا
همانجا
همانطور
همانند
همانندی
همانگونه
همانی
هماهنگ
هماهنگی
همایش
همایون
همایونی
همبازی
همبستگی
همبند
همت
همتا
همتای
همتایان
همتی
همجنس
همجنسگرا
همجنسگرایان
همجنسگرایی
همجوار
همجوشی
همخوان
همخوانی
همدان
همدانی
همدردی
همدست
همدستی
همدلی
همدیگر
همراه
همراهان
همراهانش
همراهی
همزاد
همزمان
همزه
همزیستی
همسان
همسایه
همسایگان
همسایگی
همسر
همسران
همسرش
همسری
همسنگ
همسو
همسود
همشهری
هملت
همنام
همه
همهمه
هموار
همواره
همون
هموگلوبین
همپتون
همپشر
همپوشانی
همچنان
همچنین
همچو
همچون
همچین
همکار
همکاران
همکارانش
همکارش
همکاری
همکلاسی
همگام
همگان
همگانی
همگرا
همگرایی
همگن
همگی
همی
همیاری
همیشه
همیشگی
همیلتون
همین
همینجا
همینطور
همینکه
همینگوی
همە
هن
هنج
هنجارهای
هند
هندبال
هندرسون
هندسه
هندسی
هندو
هندواروپایی
هندوانه
هندوراس
هندوستان
هندوها
هندوي
هندوچین
هندوکش
هندی
هنر
هنرستان
هنرمند
هنرمندان
هنرمندانی
هنرمندی
هنرنمایی
هنرها
هنرهای
هنرپیشه
هنری
هنریک
هنوز
هنک
هنگ
هنگام
هنگامه
هنگامی
هنگامیکه
هنگر
هنگری
هنگساز
هنگسازان
هنگسازی
هنگه
هنگی
هنی
هنین
هه
هو
هوا
هوابرد
هوادار
هواداران
هوارد
هوازی
هواشناسی
هوافضا
هوافضای
هوان
هوانوردان
هوانوردی
هوانگ
هواپیما
هواپیمابر
هواپیماها
هواپیماهای
هواپیمای
هواپیمایی
هواگرد
هواگردها
هواگردهای
هوای
هوایی
هوت
هوتن
هوجو
هود
هور
هورمون
هورمونی
هورن
هوس
هوستون
هوش
هوشمند
هوشمندانه
هوشنگ
هوشی
هوشیار
هوشیاری
هولشتاین
هولمز
هولوکاست
هوم
هومبولت
هومر
هومن
هون
هوندا
هونولولو
هونگ
هوو
هوور
هوي
هوپ
هوک
هوکایدو
هوگو
هوی
هویت
هویتی
هویج
هویدا
هپاتیت
هک
هکتار
هکتور
هکر
هکی
هگل
هگمتانه
هی
هیا
هیات
هیبریدی
هیت
هیتلر
هیتی
هیج
هیجان
هیجانی
هیدرولیز
هیدرولیک
هیدرولیکی
هیدروژن
هیدروژنی
هیدروکربن
هیدروکسی
هیدروکسید
هیده
هیرمند
هیرو
هیروشیما
هیرکانی
هیز
هیزم
هیستامین
هیسپانیک
هیل
هیلاری
هیلبرت
هیلتون
هیلز
هیلی
هیمالیا
هیملر
هیو
هیوز
هیوستون
هیولا
هیولاها
هیولای
هیولایی
هیوم
هیون
هیوندای
هیوگو
هیي
هیپ
هیچ
هیچوقت
هیچکاک
هیچکدام
هیچکس
هیچگاه
هیچگونه
هیچیک
هیکل
و
وا
وابسته
وابستگی
وات
واتار
واتر
واترز
واترپلو
واتس
واتسون
واتفورد
واتیکان
واج
واجب
واجد
واحد
واحده
واحدها
واحدهای
واحدی
وادار
واداشت
وادی
وار
واران
وارث
وارد
واردات
وارداتی
واردان
وارده
وارزه
وارن
وارنر
واره
وارون
وارونه
وارگان
واری
واریانس
واریز
واریک
واز
وازخوان
وازه
وازهای
وازی
واسط
واسطه
واسکو
واسیلی
واش
واشنگتن
واشینگتن
واضح
واضحی
واعظ
وافه
واقع
واقعا
واقعه
واقعی
واقعیات
واقعیت
واقف
وال
والا
والاس
والت
والتر
والتوزیع
والتون
والد
والدین
والدینش
والری
والس
والسال
والش
والفجر
والله
والنسیا
والنشر
واله
والی
والیان
والیبال
والیس
وام
وامی
وان
وانت
وانتشار
واندررز
وانمود
وانواتو
وانگ
وانگارد
وانگاری
واو
واي
واپاشی
واپسین
واژن
واژه
واژگان
واژگانی
واژگون
واک
واکر
واکسن
واکسیناسیون
واکنش
واکنشی
واکه
واگذار
واگذاری
واگردان
واگردانی
واگن
واگنر
وای
وایادولید
وایت
وایس
وایلد
وایمار
واین
وایومینگ
وایکانو
وایکینگ
وایی
وب
وبا
وبر
وبسایت
وبستر
وبلاگ
وبه
وبگاه
وت
وتخت
وتو
وتومه
وتید
وثوق
وثیقه
وج
وجدان
وجه
وجهه
وجهی
وجو
وجود
وجودش
وجودی
وجوه
وجوهی
وحدت
وحش
وحشت
وحشتناک
وحشی
وحشیانه
وحی
وحید
وخ
وخامت
وخیم
ود
ودا
وداع
ودالی
ودر
ودور
ودی
ور
ورا
وراث
وراثت
ورامین
وران
ورانه
ورای
ورایتی
ورت
ورث
ورثه
ورد
وردر
وردم
وردن
وردند
ورده
وردها
وردهای
وردی
وردید
ورز
ورزد
ورزش
ورزشکار
ورزشکاران
ورزشگاه
ورزشی
ورزقان
ورزی
ورزید
ورزیده
ورسای
ورشو
ورشکسته
ورشکستگی
ورق
ورقه
ورلد
ورم
ورماخت
ورمانت
ورن
ورند
ورنده
ورندگان
ورنر
وره
ورو
ورود
ورودی
ورون
ورونا
ورونیکا
ورژن
ورک
ورکس
ورگ
ورگی
وری
ورید
وریدی
وریل
وریم
وریک
وز
وزارت
وزارتخانه
وزرا
وزراء
وزرای
وزش
وزغ
وزن
وزنه
وزنی
وزیر
وزیران
وزیری
وس
وساز
وساطت
وساي
وسایل
وسایلی
وست
وستا
وسترن
وستفالن
وستهام
وسط
وسطایی
وسطی
وسعت
وسفید
وسن
وسواس
وسوسه
وسیع
وسیعی
وسیله
وش
وشمگیر
وصال
وصف
وصل
وصلت
وصله
وصول
وصیت
وضع
وضعی
وضعیت
وضعیتی
وضوح
وطن
وظاي
وظایف
وظایفی
وظیفه
وعده
وعن
وف
وفا
وفات
وفادار
وفاداری
وفایی
وفق
وفور
وفی
وفیزیک
وقاحت
وقال
وقایع
وقت
وقتی
وقتیکه
وقف
وقفه
وقوع
ول
ولا
ولادت
ولادیمیر
ولان
ولایات
ولایت
ولایتعهدی
ولایتی
ولت
ولتاژ
ولد
ولز
ولزی
ولسوالی
ولف
ولفگانگ
ولنتاین
وله
ولو
ولورهمپتون
ولوو
ولوژی
ولوژیک
ولگا
ولگرد
ولی
ولیت
ولیتی
ولید
ولیعصر
ولیعهد
ولین
ولینو
ولینگتون
ولیکن
وم
وما
ومبلی
ومن
ومورفولوژی
ومی
ون
ونارد
وناردو
ونتزیا
ونتو
وند
وندی
ونزدی
ونزوي
ونسا
ونسان
ونقل
ونه
ونوس
ونکوور
ونگ
ونی
ونید
ونیز
ونیزی
وه
وها
وهاب
وهای
وهله
وهم
وهمن
وهو
وهوا
وهوای
وهوایی
وو
ووتسکی
وود
وودز
وودویل
وودی
وورتمبرگ
وورث
ووستر
ووشو
وولف
وولفسبورگ
وون
ووهان
ووي
وویل
وویوودینا
وي
ويكي
وپ
وپاترا
وپاي
وپولد
وژن
وک
وکا
وکار
وکالت
وکتور
وکلا
وکلاسیک
وکلای
وکیل
وکیلان
وکیلی
وگاس
وگرنه
وگو
وی
ویا
ویاري
ویت
ویتامین
ویتنام
ویتنامی
ویتنی
ویتوریا
ویتوریو
ویخته
وید
ویدي
ویدیو
ویدیوی
ویدیویی
ویر
ویراست
ویراستار
ویراستاران
ویراستاری
ویران
ویرانه
ویرانگر
ویرانی
ویرایش
ویرایشات
ویرایشهای
ویرایشگر
ویرایشگران
ویرایشی
ویرجین
ویرجینیا
ویرجینیای
ویروس
ویروسی
ویرگول
ویز
ویزا
ویزان
ویزای
ویس
ویستا
ویسنته
ویسکانسین
ویسکوزیته
ویسکی
ویل
ویلا
ویلز
ویلسون
ویلفرد
ویلم
ویلن
ویلنیوس
ویلهلم
ویلی
ویلیام
ویلیامز
ویلیس
ویمبلدون
وین
ویندوز
وینس
وینستون
وینسلت
وینسنت
وینچستر
وینگ
وینی
وینیل
ویو
ویولا
ویولن
ویولون
ویچ
ویچنزا
ویژن
ویژه
ویژوال
ویژگی
ویژگیهای
ویک
ویکتور
ویکتوریا
ویکتوریایی
ویکس
ویکی
ویکیفا
ویکیپدیا
ویکیپدیای
ویگ
ویگان
ویی
ى
ي
يا
يك
يک
ً
ٌ
ٍ
َ
ُ
ِ
ّ
ْ
ٓ
ٔ
ٕ
٠
١
٢
٣
٤
٥
٦
٧
٨
٩
٪
٫
٬
٭
ٰ
پ
پا
پاب
پابرجا
پابرجاست
پابلو
پاتر
پاتریشیا
پاتریک
پاد
پادا
پاداش
پادتن
پادشاه
پادشاهان
پادشاهی
پادوا
پادکست
پادکمونیست
پادگان
پارا
پارات
پارادایم
پارادوکس
پارالمپیک
پارامتر
پارامترها
پارامترهای
پارامتری
پارامونت
پارانا
پارانژهای
پاراژنز
پاراگراف
پاراگوي
پارت
پارتاید
پارتمان
پارتمانی
پارتی
پارتیزان
پارس
پارسا
پارسه
پارسونز
پارسی
پارسیان
پارلمان
پارلمانی
پارما
پاره
پارچ
پارچه
پارک
پارکر
پارکینسون
پارکینگ
پارگی
پاری
پاریس
پارینه
پازل
پاس
پاسارگاد
پاستور
پاسخ
پاسخگو
پاسخگوی
پاسخگویی
پاسخی
پاسدار
پاسداران
پاسداری
پاسپورت
پاسکال
پاسگاه
پاسیفیک
پاشا
پاشایی
پاشنه
پاشید
پاشیده
پافشاری
پال
پالاس
پالاشیا
پالاي
پالایش
پالایشگاه
پالایه
پالت
پالرمو
پالس
پالم
پالماس
پالمر
پالمیراس
پالي
پام
پان
پاناما
پانتي
پانزده
پانزدهم
پانزدهمین
پانصد
پانل
پانویس
پانچ
پانک
پاها
پاهای
پاور
پاورقی
پاول
پاوه
پاویا
پاي
پاپ
پاپوا
پاپی
پاپیروس
پاچی
پاچینو
پاک
پاکت
پاکسازی
پاکستان
پاکستانی
پاکی
پاکیزه
پای
پایا
پایان
پایانه
پایانی
پایبند
پایبندی
پایتخت
پایتختی
پایتون
پایدار
پایداری
پایش
پاین
پاینده
پایه
پایور
پایک
پایگاه
پایی
پاییز
پایین
پایینی
پت
پتاسیم
پتانسیل
پتر
پترزبورگ
پترسون
پتروشیمی
پتی
پخت
پختن
پخته
پختونخوا
پخش
پد
پدافند
پدال
پدر
پدرام
پدران
پدربزرگ
پدربزرگش
پدرخوانده
پدرش
پدرشان
پدرم
پدرو
پدری
پدیا
پدیاست
پدیاها
پدیای
پدیایی
پدید
پدیدا
پدیدار
پدیده
پذیر
پذیرای
پذیرایی
پذیرد
پذیرش
پذیرفت
پذیرفتن
پذیرفتند
پذیرفته
پذیرند
پذیرنده
پذیره
پذیری
پر
پرا
پرادش
پراش
پرافتخارترین
پرانتز
پرانرژی
پراویدنس
پراکسی
پراکنده
پراکندگی
پراکنش
پراکنی
پراگ
پراگرسیو
پراید
پرایس
پربازدید
پربیننده
پرت
پرتاب
پرتابگر
پرتال
پرتره
پرتغال
پرتغالی
پرتقال
پرتو
پرتوهای
پرتوی
پرجمعیت
پرخاشگری
پرداخت
پرداختن
پرداختند
پرداخته
پرداختی
پرداز
پردازان
پردازد
پردازش
پردازند
پردازنده
پردازی
پردازیم
پرده
پردیس
پررنگ
پرز
پرزیدنت
پرس
پرست
پرستار
پرستاران
پرستاری
پرستان
پرستش
پرستشگاه
پرستو
پرستون
پرستی
پرسد
پرسش
پرسشنامه
پرسشی
پرسمان
پرسنل
پرسه
پرسپولیس
پرسی
پرسید
پرسیدم
پرسیدند
پرسیده
پرش
پرشور
پرشیا
پرطرفدار
پرفروش
پرقدرت
پرل
پرنده
پرندگان
پرنس
پرنسس
پرنسیپ
پره
پرهای
پرهزینه
پرهیز
پرو
پروا
پرواز
پروازش
پروازهای
پروازگاه
پروازی
پروانس
پروانه
پروتستان
پروتون
پروتي
پروتکل
پروجا
پروداکشنز
پرور
پروردگار
پرورش
پرورشی
پروری
پروس
پروستات
پروسه
پروفایل
پروفسور
پرونده
پروپاگاندا
پروپیلن
پروژه
پروکسی
پرویز
پروین
پرچم
پرچمی
پرکار
پرکاربرد
پرکاربردترین
پری
پریان
پرید
پریدن
پریده
پریسا
پریش
پریشان
پریشانی
پریشی
پرینس
پرینستون
پز
پزشک
پزشکان
پزشکی
پس
پسا
پست
پستان
پستانداران
پسته
پستی
پسر
پسران
پسرانش
پسرانه
پسرش
پسرها
پسری
پسماند
پسند
پسندیده
پسوریازیس
پسوند
پسکارا
پسین
پشت
پشته
پشتو
پشتوانه
پشتون
پشتکوه
پشتی
پشتیبان
پشتیبانی
پشم
پشمی
پشه
پشیمان
پشیمانی
پطرس
پل
پلاتا
پلاته
پلاتین
پلازا
پلاس
پلاستیک
پلاستیکی
پلاسما
پلاسمای
پلان
پلانک
پلاژ
پلاک
پلاکت
پلت
پلتفرم
پلدختر
پلزن
پلنگ
پله
پلو
پلوتو
پلود
پلک
پلکان
پلکانی
پلی
پلیس
پلیستوسن
پلیسی
پلیمر
پلیمراز
پلیمرها
پلیمرهای
پلیمری
پلیمریزاسیون
پلیموث
پلیه
پمپ
پمپاژ
پن
پنالتی
پنانگ
پناه
پناهجویان
پناهنده
پناهندگان
پناهندگی
پناهگاه
پناهی
پنبه
پنتاگون
پنج
پنجاب
پنجابی
پنجاه
پنجاهمین
پنجره
پنجشنبه
پنجشیر
پنجم
پنجمین
پنجه
پند
پندار
پنداشت
پنداشتند
پنداشته
پنسیلوانیا
پنل
پنهان
پنهانی
پنگوي
پنی
پنیر
په
پهلو
پهلوان
پهلوانان
پهلوانی
پهلوی
پهن
پهناور
پهنای
پهنه
پهپاد
پو
پوا
پوتسدام
پوتین
پودر
پودلاسکی
پودمان
پور
پوران
پورت
پورتال
پورتر
پورتسموث
پورتلند
پورتو
پورتوریکو
پورشه
پورن
پورنو
پورنوگرافی
پوری
پوریا
پوزش
پوزه
پوزیشن
پوست
پوستان
پوستر
پوسترهای
پوسته
پوستی
پوسیدگی
پوش
پوشان
پوشاند
پوشاندن
پوشانده
پوشاک
پوشش
پوششی
پوشند
پوشه
پوشی
پوشید
پوشیدن
پوشیده
پول
پولاک
پولس
پولو
پولون
پولک
پولی
پولیا
پولیتزر
پولیس
پومرانی
پومپیي
پون
پوند
پونه
پوي
پوپ
پوچ
پویا
پویان
پویانماهای
پویانمایی
پویایی
پویش
پوینت
پچ
پژمان
پژو
پژواک
پژوه
پژوهان
پژوهش
پژوهشهای
پژوهشکده
پژوهشگاه
پژوهشگر
پژوهشگران
پژوهشی
پژوهی
پک
پکن
پگاه
پی
پیاده
پیاز
پیام
پیامبر
پیامبران
پیامبری
پیامد
پیامدهای
پیامک
پیامی
پیانو
پیانوی
پیانیست
پیاپی
پیاچنزا
پیت
پیتر
پیتربورو
پیترو
پیتزا
پیتسبرگ
پیتسبورگ
پیج
پیدا
پیداست
پیدایش
پیر
پیرامون
پیرامونی
پیران
پیرانشهر
پیراهن
پیرایش
پیرحیاتی
پیرزن
پیرس
پیرمرد
پیرنه
پیرنیا
پیرو
پیروان
پیروانش
پیروز
پیروزی
پیروی
پیری
پیزا
پیس
پیست
پیستون
پیش
پیشا
پیشاتاریخ
پیشامد
پیشانی
پیشاور
پیشاپیش
پیشبرد
پیشبینی
پیشتاز
پیشتازان
پیشتر
پیشخدمت
پیشرانه
پیشرفت
پیشرفته
پیشرو
پیشروی
پیشنهاد
پیشنهادات
پیشنهادم
پیشنهادها
پیشنهادهای
پیشنهادهایی
پیشنهادی
پیشه
پیشوا
پیشوای
پیشوند
پیشکسوت
پیشکسوتان
پیشکش
پیشگام
پیشگامان
پیشگاه
پیشگفتار
پیشگویی
پیشگیرانه
پیشگیری
پیشی
پیشین
پیشینه
پیشینیان
پیغام
پیغمبر
پیل
پیله
پیما
پیمان
پیمانه
پیمانکار
پیمانکاران
پیمانی
پیمایش
پیمایی
پیمونت
پین
پینک
پینگ
پیو
پیوتر
پیوس
پیوست
پیوستن
پیوستند
پیوسته
پیوستگی
پیوند
پیوندد
پیوندند
پیوندها
پیوندهای
پیوندهایی
پیوندی
پیونگ
پیچ
پیچیده
پیچیدگی
پیک
پیکار
پیکاسو
پیکان
پیکر
پیکربندی
پیکره
پیکسار
پیکسل
پیکچرز
پیگرد
پیگیر
پیگیری
چ
چا
چابهار
چابک
چاد
چادر
چار
چاراویماق
چارت
چارلتون
چارلز
چارلستون
چارلی
چاره
چارچوب
چاشنی
چاق
چاقو
چاقی
چال
چالاک
چالدران
چالش
چاله
چالوس
چامسکی
چان
چانه
چانگ
چاه
چاهی
چاوز
چاي
چاپ
چاپخانه
چاپلین
چاپگر
چاپی
چاک
چای
چت
چتر
چتری
چخوف
چدن
چرا
چراغ
چرام
چراکه
چرایی
چرب
چربی
چرخ
چرخان
چرخد
چرخش
چرخشی
چرخند
چرخه
چرداول
چرم
چرمی
چروکی
چرچ
چرچیل
چرکس
چری
چریک
چریکی
چزنا
چسب
چسبندگی
چسبیده
چستر
چسترفیلد
چشر
چشم
چشمان
چشمش
چشمم
چشمه
چشمگیر
چشمگیری
چشمی
چطور
چغندر
چقدر
چلتنهام
چلسی
چله
چلچله
چم
چماق
چمدان
چمران
چمن
چن
چنار
چناران
چنان
چنانچه
چنانکه
چنای
چند
چندا
چندان
چندانی
چندبار
چندتا
چندجمله
چندرسانه
چندزبانه
چندضلعی
چندلر
چندملیتی
چندمنظوره
چندنفره
چندوجهی
چندورزشی
چندگانه
چندی
چندین
چنگ
چنگال
چنگیز
چنین
چنینی
چه
چهار
چهارباغ
چهارده
چهاردهم
چهاردهمین
چهارراه
چهارشنبه
چهارصد
چهارم
چهارمحال
چهارمین
چهارچوب
چهارگانه
چهارگاه
چهارگوش
چهره
چهرهای
چهل
چهلم
چهلمین
چو
چوب
چوبی
چوبین
چوسان
چول
چون
چونکه
چونگ
چوپان
چوگان
چوی
چپ
چچن
چک
چکار
چکاوک
چکسلواکی
چکش
چکمه
چکی
چکیده
چگال
چگالی
چگونه
چگونگی
چی
چیان
چیبا
چیدمان
چیدن
چیده
چیره
چیرگی
چیز
چیزها
چیزهای
چیزهایی
چیزی
چیس
چیست
چین
چینش
چینه
چینگ
چینی
چیه
چیپ
چیپس
ژ
ژاله
ژان
ژاندارمری
ژانر
ژانرهای
ژانس
ژانویه
ژانگ
ژانیرو
ژاي
ژاپن
ژاپنی
ژاک
ژاکس
ژرایس
ژرف
ژرفای
ژرمن
ژرمنی
ژرژ
ژست
ژل
ژن
ژنتیک
ژنتیکی
ژنراتور
ژنرال
ژنریک
ژنو
ژنوم
ژنی
ژو
ژوراسیک
ژورنال
ژوزف
ژوزه
ژول
ژولیت
ژولیوس
ژوهانسبورگ
ژوي
ژي
ژی
ژیل
ژیمناست
ژیمناستیک
ک
کا
کاباره
کابل
کابلی
کابوس
کابین
کابینه
کات
کاتارینا
کاتالان
کاتالونیا
کاتالوگ
کاتالیز
کاتالیزور
کاتالیست
کاتانیا
کاتب
کاتد
کاترین
کاترینا
کاتلین
کاتوزیان
کاتولیک
کاتیون
کاج
کاخ
کادر
کادمی
کادمیک
کادیس
کاذب
کار
کارا
کاراته
کاران
کارانه
کاراي
کاراکاس
کاراکتر
کاراکترهای
کاراگاهی
کارایی
کاربر
کاربران
کاربرانی
کاربرد
کاربردها
کاربردهای
کاربردهایی
کاربردی
کاربرها
کاربرهای
کاربری
کاربید
کارت
کارتان
کارتاژ
کارتر
کارتل
کارتون
کارتونی
کارتی
کارخانجات
کارخانه
کارد
کاردان
کاردانی
کاردیف
کاردینال
کارزار
کارساز
کارسون
کارش
کارشان
کارشناس
کارشناسان
کارشناسی
کارفرما
کارفرمایان
کارل
کارلایل
کارلسروهه
کارلو
کارلوس
کارم
کارمن
کارمند
کارمندان
کارن
کارناتاکا
کارنامه
کارناوال
کارنگی
کاره
کارها
کارهای
کارهایش
کارهایی
کارو
کاروان
کاروانسرا
کاروانسرای
کارول
کارولین
کارولینای
کارون
کارکرد
کارکردهای
کارکردی
کارکنان
کارگاه
کارگر
کارگران
کارگردان
کارگردانان
کارگردانی
کارگروه
کارگری
کارگزار
کارگزاران
کارگیری
کاری
کاریکاتور
کاریکاتوریست
کازابلانکا
کازان
کازرون
کازینو
کاس
کاست
کاستاریکا
کاسترو
کاستن
کاسته
کاستی
کاستیا
کاسه
کاسپین
کاش
کاشاتاق
کاشان
کاشانی
کاشت
کاشته
کاشف
کاشمر
کاشی
کاشیما
کاظم
کاظمی
کاغذ
کاغذی
کافر
کافران
کافه
کافکا
کافی
کافیست
کال
کالا
کالابریا
کالاها
کالاهای
کالاهایی
کالای
کالایی
کالبد
کالبدشناسی
کالج
کالدونیای
کالری
کالسکه
کاله
کالو
کالچو
کالی
کالیاری
کالیبر
کالیفرنیا
کالیفرنیای
کالین
کالینز
کام
کاما
کامبرلند
کامبریا
کامبوج
کامبیز
کامران
کامرون
کامل
کاملا
کاملی
کامنت
کامو
کامپانیا
کامپایل
کامپایلر
کامپوزیت
کامپکت
کامپیوتر
کامپیوترها
کامپیوترهای
کامپیوتری
کامکار
کامی
کامیابی
کامیار
کامیاران
کامیون
کامیک
کامیکس
کان
کانادا
کانادایی
کانال
کاناگاوا
کانبرا
کانت
کانتری
کانتور
کانتون
کانتی
کاندی
کاندید
کاندیدا
کاندیداتوری
کاندیدای
کانر
کانزاس
کانن
کانو
کانون
کانونی
کانوی
کانگ
کانی
کاه
کاهد
کاهش
کاهشی
کاهن
کاهنده
کاوازاکی
کاور
کاوش
کاوشگر
کاونتری
کاوه
کاووس
کاوی
کاویانی
کاي
کاپ
کاپا
کاپور
کاپیتان
کاپیتانی
کاکا
کاکاوند
کاکاي
کاکایی
کاکتوس
کاکس
کاکل
کاکلی
کاگوشیما
کای
کایزرسلاوترن
کایل
کباب
کبالت
کبد
کبدی
کبرا
کبری
کبریت
کبوتر
کبود
کبودرا
کبک
کبیر
کبیسه
کت
کتاب
کتابت
کتابخانه
کتابدار
کتابداری
کتابش
کتابشناسی
کتابفروشی
کتابها
کتابهای
کتابچه
کتابی
کتان
کتب
کتبا
کتبی
کتور
کتورهای
کتون
کتک
کتی
کتیبه
کثرت
کثیر
کثیری
کثیف
کج
کجا
کجاست
کجای
کجور
کخ
کد
کدام
کدخدا
کدر
کدها
کدهای
کدو
کدگذاری
کدی
کذب
کر
کرات
کراس
کراسنودار
کرافورد
کرال
کرالا
کرامت
کران
کرانه
کراولی
کراچی
کراکوف
کرای
کرایسلر
کرایه
کربلا
کربلایی
کربن
کربنات
کربنی
کربوهیدرات
کربوکسیلیک
کربی
کرت
کرتاسه
کرتیر
کرتیس
کرج
کرخه
کرد
کردار
کردان
کردستان
کردم
کردن
کردند
کردنش
کردنشین
کرده
کردها
کردهای
کردی
کردید
کردیم
کرزی
کرس
کرسی
کرلینگ
کرم
کرمان
کرمانجی
کرمانشاه
کرمانشاهی
کرمانی
کرملین
کرمونزه
کرمی
کرن
کرنش
کرنل
کره
کرو
کروات
کرواتی
کرواسی
کروبی
کروز
کروزیرو
کروس
کرول
کروم
کروماتوگرافی
کروموزوم
کرون
کرونا
کروناویروس
کروی
کرک
کرکس
کرکوک
کرگدن
کری
کریتوس
کرید
کریس
کریستال
کریستالی
کریستف
کریستن
کریستوف
کریستوفر
کریستی
کریستیان
کریستیانو
کریستین
کریستینا
کریسمس
کریم
کریمه
کریمی
کرین
کریک
کریکت
کریگ
کز
کس
کسان
کسانی
کسانیکه
کسب
کست
کسر
کسروی
کسری
کسفورد
کسفوردشر
کسل
کسوت
کسی
کش
کشاند
کشانده
کشاورز
کشاورزان
کشاورزی
کشت
کشتار
کشتارها
کشتارهای
کشتن
کشتند
کشته
کشتگان
کشتی
کشتیرانی
کشد
کشش
کششی
کشف
کشم
کشمش
کشمکش
کشمیر
کشمیری
کشند
کشنده
کشور
کشورش
کشورشان
کشورمان
کشورها
کشورهای
کشورهایی
کشوری
کشک
کشی
کشید
کشیدن
کشیدند
کشیده
کشیش
کشیشان
کشیم
کعب
کعبه
کف
کفار
کفایت
کفتار
کفر
کفش
کفن
کفیل
کل
کلا
کلاب
کلات
کلاته
کلاد
کلار
کلارا
کلاردشت
کلارستاق
کلارک
کلارینت
کلاس
کلاسی
کلاسیک
کلاغ
کلاله
کلام
کلامی
کلان
کلانتر
کلانتری
کلانشهر
کلانی
کلاه
کلاهبرداری
کلاهک
کلاوس
کلاژن
کلاید
کلاین
کلاینت
کلبه
کلر
کلرادو
کلرمون
کلرید
کلسترول
کلسیم
کلفت
کلم
کلمات
کلماتی
کلمب
کلمبو
کلمبوس
کلمبیا
کلمبیایی
کلمن
کلمنت
کلمه
کلن
کلنل
کلنگ
کلنی
کله
کلهر
کلوب
کلود
کلون
کلونی
کلوي
کلوپ
کلوین
کلي
کلک
کلکته
کلکسیون
کلگری
کلی
کلیات
کلیبر
کلیت
کلید
کلیدها
کلیدهای
کلیدی
کلیر
کلیسا
کلیساها
کلیساهای
کلیسای
کلیسایی
کلیشه
کلیف
کلین
کلینت
کلینتون
کلینیک
کلیه
کلیولند
کلیوی
کلیپ
کلیک
کم
کما
کمابیش
کمال
کمالی
کمان
کمانداران
کمانچه
کمانی
کماکان
کمبریج
کمبل
کمبوجیه
کمبود
کمتر
کمتری
کمترین
کمدن
کمدی
کمدین
کمر
کمربند
کمربندی
کمرنگ
کمری
کمودور
کمون
کمونیست
کمونیستی
کمونیسم
کمپ
کمپانی
کمپبل
کمپرسور
کمپلکس
کمپین
کمک
کمکهای
کمکی
کمی
کمیاب
کمیت
کمیته
کمیجان
کمیساریای
کمیسر
کمیسیون
کمیسیونهای
کمیسیونی
کمیل
کمین
کمینه
کمیک
کن
کنار
کنارش
کناره
کنارک
کناری
کنان
کنایه
کنت
کنتاکی
کنترا
کنتراست
کنترل
کنترلی
کنتس
کنتیکت
کنج
کنجکاوی
کند
کندتر
کندن
کنده
کندو
کندی
کنراد
کنست
کنستانتین
کنستانس
کنسرت
کنسرتو
کنسرتی
کنسرسیوم
کنسرواتوار
کنسول
کنسولگری
کنسولی
کنش
کنشگر
کنشگران
کنعان
کنفدراسیون
کنفرانس
کنفوسیوس
کنم
کنن
کنند
کننده
کنندگان
کنندگی
کنه
کنوانسیون
کنون
کنونی
کنکور
کنگ
کنگان
کنگاور
کنگره
کنگو
کنگی
کنی
کنیا
کنید
کنیز
کنیسه
کنیم
کنیه
که
کهبد
کهریزک
کهن
کهنسال
کهنه
کهنوج
کهکشان
کهکشانی
کهگیلویه
کهیر
کو
کوا
کوارتت
کوارتز
کوارک
کواریوم
کوالالامپور
کوان
کوانتوم
کوانتومی
کوب
کوبا
کوبایی
کوبه
کوبی
کوبیدن
کوبیده
کوت
کوتاه
کوتاهی
کوتبوس
کوته
کوتوله
کوثر
کوثری
کوخرد
کوخردی
کود
کودتا
کودتای
کودک
کودکان
کودکانه
کودکانی
کودکی
کور
کورا
کورت
کورتیس
کورد
کوردوبا
کورس
کورش
کورن
کورنلیوس
کورنوال
کوره
کوروش
کورپوریشن
کوری
کورین
کورینتیانس
کوزه
کوزوو
کوستا
کوستیک
کوسه
کوش
کوشا
کوشان
کوشد
کوشش
کوشک
کوشی
کوشید
کوشیدند
کوشیده
کوفه
کوفی
کول
کولا
کوله
کولون
کولچستر
کولی
کولین
کومار
کوماموتو
کومو
کومون
کومونه
کون
کونکاکاف
کونگ
کونیو
کوه
کوهدشت
کوهرنگ
کوهستان
کوهستانی
کوهن
کوهنوردان
کوهنوردی
کوهپایه
کوهی
کووالانسی
کووید
کوي
کوپا
کوپر
کوپن
کوپه
کوچ
کوچه
کوچولو
کوچک
کوچکتر
کوچکتری
کوچکترین
کوچکی
کوچی
کوک
کوکاي
کوکو
کوکی
کوی
کویت
کویر
کویری
کویل
کوین
کویین
کویینز
کپ
کپسول
کپلر
کپنهاگ
کپی
کپیتال
کچل
کک
کی
کیا
کیارستمی
کیان
کیانوش
کیانگ
کیانی
کیبورد
کیت
کیتا
کیتس
کیتن
کیتو
کیتی
کیج
کیخسرو
کید
کیرا
کیریباتی
کیس
کیست
کیسه
کیسی
کیش
کیشوت
کیف
کیفر
کیفری
کیفی
کیفیت
کیفیتی
کیل
کیلو
کیلوبایت
کیلومتر
کیلومترمربع
کیلومتری
کیلووات
کیلوگرم
کیلیکیه
کیم
کیمیا
کیمیایی
کین
کیناز
کینز
کینزی
کینه
کینگ
کینگز
کینگستون
کیه
کیهان
کیهانی
کیو
کیوان
کیوب
کیوتو
کیومرث
کیونگ
کیپ
کیک
کیکاووس
کیکرز
گ
گابریل
گابن
گات
گاتا
گاتهام
گار
گارد
گاردن
گاردنر
گاردین
گارسیا
گارفیلد
گاری
گاز
گازها
گازهای
گازی
گاس
گال
گالاتاسرای
گالری
گالن
گالی
گالیا
گالیسیا
گالیله
گام
گاما
گامبا
گامبیا
گامی
گان
گاندی
گانه
گاه
گاهان
گاهانه
گاهشمار
گاهشماری
گاهی
گاو
گاومیش
گاوی
گاي
گاگا
گای
گتسبی
گتو
گجرات
گدار
گدازه
گذار
گذاران
گذارد
گذارده
گذارم
گذارند
گذاری
گذاریم
گذاشت
گذاشتم
گذاشتن
گذاشتند
گذاشته
گذاشتید
گذر
گذرا
گذران
گذراند
گذراندن
گذرانده
گذرانند
گذرد
گذرنامه
گذرواژه
گذرگاه
گذشت
گذشتن
گذشتند
گذشته
گذشتگان
گر
گرا
گراتس
گراد
گرادیان
گراز
گراس
گراش
گراف
گرافی
گرافیت
گرافیتی
گرافیک
گرافیکی
گرالت
گرامافون
گرامر
گرامی
گران
گرانادا
گرانبها
گرانت
گراند
گرانده
گرانش
گرانشی
گرانی
گرانیت
گراهام
گراوبوندن
گرای
گرایان
گرایانه
گرایش
گرایی
گربه
گرت
گرجستان
گرجی
گرد
گردا
گرداب
گردان
گرداند
گردانند
گرداننده
گردانی
گردانید
گردد
گردش
گردشگر
گردشگران
گردشگری
گردشی
گردم
گردن
گردند
گردنه
گرده
گردهم
گردهمایی
گردو
گردون
گردونه
گردی
گردید
گردیدند
گردیده
گرسنه
گرسنگی
گرفت
گرفتار
گرفتاری
گرفتم
گرفتن
گرفتند
گرفته
گرفتگی
گرفتید
گرفتیم
گرلز
گرم
گرما
گرمابه
گرمای
گرمایش
گرمایی
گرمسار
گرمسیر
گرمسیری
گرمی
گرنادا
گرنت
گرند
گره
گرهارد
گرهای
گرو
گروس
گروه
گروهان
گروهبان
گروهش
گروههای
گروهی
گروو
گروپ
گروگان
گرچه
گرگ
گرگان
گرگانی
گرگور
گرگوری
گری
گریبان
گریت
گریخت
گریختند
گریخته
گرید
گریز
گریزد
گریزی
گریس
گریم
گرین
گرینلند
گرینویچ
گریه
گریگور
گریگوری
گریگوریان
گز
گزارش
گزارشگر
گزارشگران
گزارشی
گزاره
گزاری
گزید
گزیدن
گزیدند
گزیده
گزینش
گزینشی
گزینه
گزینی
گستر
گسترده
گستردگی
گسترش
گستره
گسسته
گسل
گسیخته
گسیل
گشاد
گشایش
گشت
گشتاسپ
گشتاور
گشتم
گشتن
گشتند
گشته
گشتی
گشود
گشودن
گشوده
گـپ
گفت
گفتار
گفتاری
گفتاورد
گفتم
گفتمان
گفتن
گفتند
گفتنی
گفته
گفتگو
گفتگوها
گفتگوهای
گفتگوی
گفتگویی
گفتی
گفتید
گفتیم
گل
گلاب
گلابی
گلادباخ
گلاسترشر
گلاسگو
گلبرگ
گلبول
گلخانه
گلد
گلدار
گلدان
گلدمن
گلدن
گلدوین
گلزار
گلزن
گلزنان
گلزنی
گلستان
گلشن
گلشیری
گلف
گلن
گله
گلهای
گلو
گلوب
گلوبال
گلوریا
گلوله
گلوکز
گلوگاه
گلپایگان
گلپایگانی
گلچین
گلکسی
گلی
گلیم
گم
گماشت
گماشته
گمان
گمانم
گمانه
گمب
گمخ
گمر
گمراه
گمرک
گمرکی
گمشده
گمنام
گمینا
گمیناهای
گناباد
گنابادی
گناه
گناهان
گناهکار
گناهی
گناوه
گنبد
گنبدی
گنج
گنجاندن
گنجانده
گنجایش
گنجشک
گنجه
گنجوی
گنجی
گنجینه
گندالف
گندم
گنو
گنگ
گه
گهر
گهواره
گهگاه
گهی
گو
گوا
گواتمالا
گوادلوپ
گوارا
گوارش
گوارشی
گوانگ
گواه
گواهی
گواهینامه
گوت
گوتلاند
گوتنبرگ
گوته
گوتینگن
گوتیک
گوجه
گود
گودال
گودرزی
گودریان
گور
گورا
گوران
گورباچف
گورجیف
گوردون
گورستان
گورو
گورکانی
گورکانیان
گورکی
گوری
گوریل
گوزن
گوساله
گوست
گوستا
گوستاو
گوستوس
گوستین
گوسفند
گوسفندان
گوش
گوشت
گوشتی
گوشزد
گوشه
گوشواره
گوشی
گول
گولد
گومز
گون
گوناگون
گوناگونی
گونتر
گونزالس
گونما
گونه
گونگ
گونی
گونیست
گوهر
گوهرشاد
گوي
گوک
گوگ
گوگرد
گوگل
گوگنهایم
گوگوریو
گوگوش
گوی
گویا
گویان
گویای
گوید
گویش
گویشور
گویشوران
گویشی
گویم
گویند
گوینده
گویندگان
گویندگی
گویی
گویید
گوییم
گي
گپ
گچ
گچساران
گچی
گی
گیاه
گیاهان
گیاهانی
گیاهی
گیاگان
گیبسون
گیت
گیتار
گیتارنوازان
گیتاریست
گیتاشناسی
گیتس
گیتی
گیج
گیر
گیران
گیرانه
گیربکس
گیرد
گیرم
گیرند
گیرنده
گیرندگان
گیره
گیری
گیرید
گیریم
گیشه
گیفو
گیل
گیلاس
گیلان
گیلانغرب
گیلانی
گیلبرت
گیلمور
گیلکی
گیلگمش
گیم
گیمز
گین
گینس
گینه
گیو
گیوم
گیومری
گیگابایت
ی
یا
یاب
یابد
یابند
یابی
یابیم
یات
یاتا
یاتی
یاخته
یاد
یادا
یادبود
یادبودها
یادبودهای
یادبودی
یادداشت
یادداشتی
یادشده
یادم
یادمان
یادواره
یادکرد
یادکردهای
یادگار
یادگاری
یادگیری
یادی
یار
یاران
یارانش
یارانه
یارد
یارسان
یارشاطر
یاری
یازده
یازدهم
یازدهمین
یاس
یاسر
یاسو
یاسوج
یاسین
یاشار
یاغی
یافا
یافت
یافتم
یافتن
یافتند
یافته
یافتگان
یاقوت
یال
یام
یاما
یاماها
یاماگاتا
یان
یانگ
یانی
یاها
یاهو
یاور
یاوری
یاي
یاکوب
یای
یایی
یب
یبوست
یة
یت
یتر
یتم
یتی
یتیم
یجی
یحیی
یخ
یخبندان
یخچال
یخی
ید
یدا
یدالله
یداهو
یدل
یده
یدها
یدهای
یدک
یدی
یدین
یر
یرس
یز
یزاک
یزد
یزدان
یزدانی
یزدگرد
یزدی
یزنهاور
یزیانا
یزید
یس
یسان
یست
یسم
یسه
یسی
یش
یشت
یعقوب
یعقوبی
یعنی
یغما
یف
یفت
یفون
یقه
یقول
یقین
یقینا
یل
یلدا
یلند
یلی
یم
یمن
یمنی
یمین
ین
ینا
ینات
ینتراخت
یند
ینده
یندهای
یندهوون
یندون
یندگان
یندی
ینز
ینزاتس
ینزلند
ینسی
ینه
ینگ
ینی
یه
یهود
یهودا
یهودستیزی
یهودی
یهودیان
یهودیت
یهوه
یو
یوا
یواس
یوان
یوبوت
یوبی
یوتا
یوتبری
یوتی
یوتیوب
یوتیوبرهای
یوجی
یوجین
یوحنا
یورش
یورو
یوروویژن
یورک
یورگن
یوری
یوزف
یوزپلنگ
یوس
یوسف
یوسفی
یوسی
یوشی
یوشیج
یوفا
یول
یوم
یون
یونان
یونانی
یونانیان
یونایتد
یونجه
یونس
یونسکو
یونگ
یونی
یونیسف
یونیورسال
یونیورسیاد
یونیون
یونیکس
یوهان
یوهانس
یووا
یوونتوس
یووه
یووی
یوي
یوکاریوت
یوکان
یوکوهاما
یوکی
یوگا
یوگسلاوی
یوی
یي
یپی
یچ
یچی
یک
یکا
یکان
یکاهای
یکای
یکایی
یکبار
یکباره
یکتا
یکجا
یکدست
یکدیگر
یکسال
یکسان
یکسانی
یکسره
یکسری
یکشنبه
یکصد
یکم
یکمین
یکن
یکنفر
یکنواخت
یکنواختی
یکه
یکون
یکپارچه
یکپارچگی
یکی
یگان
یگانه
یگانگی
یی
یید
ییدشده
ییل
ییلاق
ییلاقی
یین
یینه
یینی
۔
ە
۩
۰
۰۰
۰۰۰
۰۱
۰۲
۰۳
۰۴
۰۵
۰۶
۰۷
۰۸
۰۹
۱
۱۰
۱۰۰
۱۰۰۰
۱۰۰۰۰
۱۰۰۰۰۰
۱۰۱
۱۰۲
۱۰۳
۱۰۴
۱۰۵
۱۰۶
۱۰۷
۱۰۸
۱۰۸۰
۱۰۹
۱۱
۱۱۰
۱۱۰۰
۱۱۱
۱۱۲
۱۱۳
۱۱۴
۱۱۵
۱۱۶
۱۱۷
۱۱۸
۱۱۸۰
۱۱۹
۱۲
۱۲۰
۱۲۰۰
۱۲۱
۱۲۲
۱۲۲۰
۱۲۳
۱۲۳۰
۱۲۴
۱۲۴۰
۱۲۵
۱۲۵۰
۱۲۶
۱۲۶۰
۱۲۷
۱۲۷۰
۱۲۷۵
۱۲۸
۱۲۸۰
۱۲۸۴
۱۲۸۵
۱۲۸۶
۱۲۸۷
۱۲۸۸
۱۲۸۹
۱۲۹
۱۲۹۰
۱۲۹۱
۱۲۹۲
۱۲۹۳
۱۲۹۴
۱۲۹۵
۱۲۹۶
۱۲۹۷
۱۲۹۸
۱۲۹۹
۱۳
۱۳۰
۱۳۰۰
۱۳۰۱
۱۳۰۲
۱۳۰۳
۱۳۰۴
۱۳۰۵
۱۳۰۶
۱۳۰۷
۱۳۰۸
۱۳۰۹
۱۳۱
۱۳۱۰
۱۳۱۱
۱۳۱۲
۱۳۱۳
۱۳۱۴
۱۳۱۵
۱۳۱۶
۱۳۱۷
۱۳۱۸
۱۳۱۹
۱۳۲
۱۳۲۰
۱۳۲۱
۱۳۲۲
۱۳۲۳
۱۳۲۴
۱۳۲۵
۱۳۲۶
۱۳۲۷
۱۳۲۸
۱۳۲۹
۱۳۳
۱۳۳۰
۱۳۳۱
۱۳۳۲
۱۳۳۳
۱۳۳۴
۱۳۳۵
۱۳۳۶
۱۳۳۷
۱۳۳۸
۱۳۳۹
۱۳۴
۱۳۴۰
۱۳۴۱
۱۳۴۲
۱۳۴۳
۱۳۴۴
۱۳۴۵
۱۳۴۶
۱۳۴۷
۱۳۴۸
۱۳۴۹
۱۳۵
۱۳۵۰
۱۳۵۱
۱۳۵۲
۱۳۵۳
۱۳۵۴
۱۳۵۵
۱۳۵۶
۱۳۵۷
۱۳۵۸
۱۳۵۹
۱۳۶
۱۳۶۰
۱۳۶۱
۱۳۶۲
۱۳۶۳
۱۳۶۴
۱۳۶۵
۱۳۶۶
۱۳۶۷
۱۳۶۸
۱۳۶۹
۱۳۷
۱۳۷۰
۱۳۷۱
۱۳۷۲
۱۳۷۳
۱۳۷۴
۱۳۷۵
۱۳۷۶
۱۳۷۷
۱۳۷۸
۱۳۷۹
۱۳۸
۱۳۸۰
۱۳۸۱
۱۳۸۲
۱۳۸۳
۱۳۸۴
۱۳۸۵
۱۳۸۶
۱۳۸۷
۱۳۸۸
۱۳۸۹
۱۳۹
۱۳۹۰
۱۳۹۱
۱۳۹۲
۱۳۹۳
۱۳۹۴
۱۳۹۵
۱۳۹۶
۱۳۹۷
۱۳۹۸
۱۳۹۹
۱۴
۱۴۰
۱۴۰۰
۱۴۰۱
۱۴۱
۱۴۲
۱۴۳
۱۴۴
۱۴۵
۱۴۵۰
۱۴۶
۱۴۷
۱۴۸
۱۴۹
۱۵
۱۵۰
۱۵۰۰
۱۵۱
۱۵۱۰
۱۵۲
۱۵۲۰
۱۵۳
۱۵۳۰
۱۵۴
۱۵۴۰
۱۵۵
۱۵۵۰
۱۵۶
۱۵۶۰
۱۵۷
۱۵۷۰
۱۵۸
۱۵۸۰
۱۵۹
۱۵۹۰
۱۵۹۲
۱۵۹۸
۱۶
۱۶۰
۱۶۰۰
۱۶۰۳
۱۶۱
۱۶۱۰
۱۶۱۵
۱۶۲
۱۶۲۰
۱۶۳
۱۶۳۰
۱۶۴
۱۶۴۰
۱۶۵
۱۶۵۰
۱۶۶
۱۶۶۰
۱۶۷
۱۶۷۰
۱۶۸
۱۶۸۰
۱۶۹
۱۶۹۰
۱۷
۱۷۰
۱۷۰۰
۱۷۱
۱۷۱۰
۱۷۲
۱۷۲۰
۱۷۳
۱۷۳۰
۱۷۴
۱۷۴۰
۱۷۴۷
۱۷۵
۱۷۵۰
۱۷۵۳
۱۷۵۴
۱۷۵۷
۱۷۵۸
۱۷۵۹
۱۷۶
۱۷۶۰
۱۷۶۲
۱۷۶۳
۱۷۶۵
۱۷۶۶
۱۷۶۸
۱۷۶۹
۱۷۷
۱۷۷۰
۱۷۷۱
۱۷۷۲
۱۷۷۳
۱۷۷۴
۱۷۷۵
۱۷۷۶
۱۷۷۷
۱۷۷۸
۱۷۷۹
۱۷۸
۱۷۸۰
۱۷۸۱
۱۷۸۲
۱۷۸۳
۱۷۸۴
۱۷۸۵
۱۷۸۶
۱۷۸۷
۱۷۸۸
۱۷۸۹
۱۷۹
۱۷۹۰
۱۷۹۱
۱۷۹۲
۱۷۹۳
۱۷۹۴
۱۷۹۵
۱۷۹۶
۱۷۹۷
۱۷۹۸
۱۷۹۹
۱۸
۱۸۰
۱۸۰۰
۱۸۰۱
۱۸۰۲
۱۸۰۳
۱۸۰۴
۱۸۰۵
۱۸۰۶
۱۸۰۷
۱۸۰۸
۱۸۰۹
۱۸۱
۱۸۱۰
۱۸۱۱
۱۸۱۲
۱۸۱۳
۱۸۱۴
۱۸۱۵
۱۸۱۶
۱۸۱۷
۱۸۱۸
۱۸۱۹
۱۸۲
۱۸۲۰
۱۸۲۱
۱۸۲۲
۱۸۲۳
۱۸۲۴
۱۸۲۵
۱۸۲۶
۱۸۲۷
۱۸۲۸
۱۸۲۹
۱۸۳
۱۸۳۰
۱۸۳۱
۱۸۳۲
۱۸۳۳
۱۸۳۴
۱۸۳۵
۱۸۳۶
۱۸۳۷
۱۸۳۸
۱۸۳۹
۱۸۴
۱۸۴۰
۱۸۴۱
۱۸۴۲
۱۸۴۳
۱۸۴۴
۱۸۴۵
۱۸۴۶
۱۸۴۷
۱۸۴۸
۱۸۴۹
۱۸۵
۱۸۵۰
۱۸۵۱
۱۸۵۲
۱۸۵۳
۱۸۵۴
۱۸۵۵
۱۸۵۶
۱۸۵۷
۱۸۵۸
۱۸۵۹
۱۸۶
۱۸۶۰
۱۸۶۱
۱۸۶۲
۱۸۶۳
۱۸۶۴
۱۸۶۵
۱۸۶۶
۱۸۶۷
۱۸۶۸
۱۸۶۹
۱۸۷
۱۸۷۰
۱۸۷۱
۱۸۷۲
۱۸۷۳
۱۸۷۴
۱۸۷۵
۱۸۷۶
۱۸۷۷
۱۸۷۸
۱۸۷۹
۱۸۸
۱۸۸۰
۱۸۸۱
۱۸۸۲
۱۸۸۳
۱۸۸۴
۱۸۸۵
۱۸۸۶
۱۸۸۷
۱۸۸۸
۱۸۸۹
۱۸۹
۱۸۹۰
۱۸۹۱
۱۸۹۲
۱۸۹۳
۱۸۹۴
۱۸۹۵
۱۸۹۶
۱۸۹۷
۱۸۹۸
۱۸۹۹
۱۹
۱۹۰
۱۹۰۰
۱۹۰۱
۱۹۰۲
۱۹۰۳
۱۹۰۴
۱۹۰۵
۱۹۰۶
۱۹۰۷
۱۹۰۸
۱۹۰۹
۱۹۱
۱۹۱۰
۱۹۱۱
۱۹۱۲
۱۹۱۳
۱۹۱۴
۱۹۱۵
۱۹۱۶
۱۹۱۷
۱۹۱۸
۱۹۱۹
۱۹۲
۱۹۲۰
۱۹۲۱
۱۹۲۲
۱۹۲۳
۱۹۲۴
۱۹۲۵
۱۹۲۶
۱۹۲۷
۱۹۲۸
۱۹۲۹
۱۹۳
۱۹۳۰
۱۹۳۱
۱۹۳۲
۱۹۳۳
۱۹۳۴
۱۹۳۵
۱۹۳۶
۱۹۳۷
۱۹۳۸
۱۹۳۹
۱۹۴
۱۹۴۰
۱۹۴۱
۱۹۴۲
۱۹۴۳
۱۹۴۴
۱۹۴۵
۱۹۴۶
۱۹۴۷
۱۹۴۸
۱۹۴۹
۱۹۵
۱۹۵۰
۱۹۵۱
۱۹۵۲
۱۹۵۳
۱۹۵۴
۱۹۵۵
۱۹۵۶
۱۹۵۷
۱۹۵۸
۱۹۵۹
۱۹۶
۱۹۶۰
۱۹۶۱
۱۹۶۲
۱۹۶۳
۱۹۶۴
۱۹۶۵
۱۹۶۶
۱۹۶۷
۱۹۶۸
۱۹۶۹
۱۹۷
۱۹۷۰
۱۹۷۱
۱۹۷۲
۱۹۷۳
۱۹۷۴
۱۹۷۵
۱۹۷۶
۱۹۷۷
۱۹۷۸
۱۹۷۹
۱۹۸
۱۹۸۰
۱۹۸۱
۱۹۸۲
۱۹۸۳
۱۹۸۴
۱۹۸۵
۱۹۸۶
۱۹۸۷
۱۹۸۸
۱۹۸۹
۱۹۹
۱۹۹۰
۱۹۹۱
۱۹۹۲
۱۹۹۳
۱۹۹۴
۱۹۹۵
۱۹۹۶
۱۹۹۷
۱۹۹۸
۱۹۹۹
۲
۲۰
۲۰۰
۲۰۰۰
۲۰۰۰۰
۲۰۰۱
۲۰۰۲
۲۰۰۳
۲۰۰۴
۲۰۰۵
۲۰۰۶
۲۰۰۷
۲۰۰۸
۲۰۰۹
۲۰۱
۲۰۱۰
۲۰۱۱
۲۰۱۲
۲۰۱۳
۲۰۱۴
۲۰۱۵
۲۰۱۶
۲۰۱۷
۲۰۱۸
۲۰۱۹
۲۰۲
۲۰۲۰
۲۰۲۱
۲۰۲۲
۲۰۲۳
۲۰۳
۲۰۳۰
۲۰۴
۲۰۵
۲۰۶
۲۰۷
۲۰۸
۲۰۹
۲۱
۲۱۰
۲۱۱
۲۱۲
۲۱۳
۲۱۴
۲۱۵
۲۱۶
۲۱۷
۲۱۸
۲۱۹
۲۲
۲۲۰
۲۲۱
۲۲۲
۲۲۳
۲۲۴
۲۲۵
۲۲۶
۲۲۷
۲۲۸
۲۲۹
۲۳
۲۳۰
۲۳۱
۲۳۲
۲۳۳
۲۳۴
۲۳۵
۲۳۶
۲۳۷
۲۳۸
۲۳۹
۲۴
۲۴۰
۲۴۱
۲۴۲
۲۴۳
۲۴۴
۲۴۵
۲۴۶
۲۴۷
۲۴۸
۲۴۹
۲۵
۲۵۰
۲۵۰۰
۲۵۱
۲۵۲
۲۵۳
۲۵۳۶
۲۵۴
۲۵۵
۲۵۶
۲۵۷
۲۵۸
۲۵۹
۲۶
۲۶۰
۲۶۱
۲۶۲
۲۶۳
۲۶۴
۲۶۵
۲۶۶
۲۶۷
۲۶۸
۲۶۹
۲۷
۲۷۰
۲۷۱
۲۷۲
۲۷۳
۲۷۴
۲۷۵
۲۷۶
۲۷۷
۲۷۸
۲۷۹
۲۸
۲۸۰
۲۸۱
۲۸۲
۲۸۳
۲۸۴
۲۸۵
۲۸۶
۲۸۷
۲۸۸
۲۸۹
۲۹
۲۹۰
۲۹۱
۲۹۲
۲۹۳
۲۹۴
۲۹۵
۲۹۶
۲۹۷
۲۹۸
۲۹۹
۳
۳۰
۳۰۰
۳۰۰۰
۳۰۱
۳۰۲
۳۰۳
۳۰۴
۳۰۵
۳۰۶
۳۰۷
۳۰۸
۳۰۹
۳۱
۳۱۰
۳۱۱
۳۱۲
۳۱۳
۳۱۴
۳۱۵
۳۱۶
۳۱۶۶
۳۱۷
۳۱۸
۳۱۹
۳۲
۳۲۰
۳۲۱
۳۲۲
۳۲۳
۳۲۴
۳۲۵
۳۲۶
۳۲۷
۳۲۸
۳۲۹
۳۳
۳۳۰
۳۳۱
۳۳۲
۳۳۳
۳۳۴
۳۳۵
۳۳۶
۳۳۷
۳۳۸
۳۳۹
۳۴
۳۴۰
۳۴۱
۳۴۲
۳۴۳
۳۴۵
۳۴۶
۳۴۷
۳۴۸
۳۵
۳۵۰
۳۵۰۰
۳۵۲
۳۵۳
۳۵۴
۳۵۵
۳۵۶
۳۵۸
۳۵۹
۳۶
۳۶۰
۳۶۲
۳۶۳
۳۶۴
۳۶۵
۳۶۶
۳۶۷
۳۶۹
۳۷
۳۷۰
۳۷۲
۳۷۵
۳۷۶
۳۷۸
۳۷۹
۳۸
۳۸۰
۳۸۱
۳۸۴
۳۸۵
۳۸۶
۳۸۷
۳۸۸
۳۹
۳۹۰
۳۹۵
۴
۴۰
۴۰۰
۴۰۰۰
۴۰۱
۴۰۴
۴۰۵
۴۰۶
۴۰۷
۴۰۸
۴۱
۴۱۰
۴۱۱
۴۱۵
۴۲
۴۲۰
۴۲۱
۴۲۵
۴۲۷
۴۳
۴۳۰
۴۳۵
۴۴
۴۴۰
۴۵
۴۵۰
۴۵۱
۴۵۵
۴۶
۴۶۰
۴۶۵
۴۷
۴۷۰
۴۷۵
۴۸
۴۸۰
۴۸۴
۴۸۵
۴۹
۴۹۰
۵
۵۰
۵۰۰
۵۰۰۰
۵۰۱
۵۱
۵۱۰
۵۱۲
۵۲
۵۲۰
۵۲۵
۵۳
۵۳۰
۵۴
۵۴۰
۵۵
۵۵۰
۵۵۵
۵۶
۵۶۰
۵۷
۵۷۰
۵۸
۵۸۰
۵۹
۵۹۰
۵۹۸
۶
۶۰
۶۰۰
۶۰۰۰
۶۱
۶۱۰
۶۱۸
۶۲
۶۲۰
۶۲۸
۶۳
۶۳۰
۶۳۲
۶۳۹
۶۴
۶۴۰
۶۵
۶۵۰
۶۶
۶۶۰
۶۶۱
۶۷
۶۷۰
۶۸
۶۸۰
۶۹
۶۹۰
۷
۷۰
۷۰۰
۷۰۰۰
۷۰۷
۷۱
۷۱۰
۷۲
۷۲۰
۷۳
۷۳۰
۷۳۷
۷۴
۷۴۰
۷۴۷
۷۵
۷۵۰
۷۶
۷۶۰
۷۷
۷۷۷
۷۸
۷۸۰
۷۹
۸
۸۰
۸۰۰
۸۰۰۰
۸۰۲
۸۱
۸۲
۸۲۰
۸۳
۸۴
۸۴۰
۸۵
۸۵۰
۸۶
۸۷
۸۷۰
۸۸
۸۸۰
۸۹
۹
۹۰
۹۰۰
۹۱
۹۱۱
۹۲
۹۳
۹۴
۹۵
۹۵۰
۹۶
۹۶۰
۹۶۴
۹۷
۹۷۸
۹۸
۹۹
۹۹۹
ं
क
त
द
न
म
य
र
व
स
ा
ि
ी
ु
े
ो
्
া
্
இ
்
്
ั
ิ
ี
ุ
่
้
​
‌
‍
‎
‏
‐
‑
–
—
‘
’
‚
“
”
„
†
‡
•
…
‪
‫
‬
‭
‮
′
″
‹
›
‿
⁯
€
№
ℜ
™
←
↑
→
↓
↔
↵
↷
∆
∈
−
∗
√
∞
∪
≈
≡
≤
≥
⊕
⌂
⎘
③
④
⑦
─
━
│
└
├
▒
■
▪
▬
►
◄
◉
◎
●
◙
★
☆
☎
☔
☘
☚
☛
☜
☞
☢
☪
☺
☻
☼
♀
♁
♂
♔
♚
♠
♣
♥
♦
♪
♫
⚡
✉
✍
✓
✡
❎
❤
❯
❴
❵
⟸
⺀
⺄
⺆
⺈
⺊
⺌
⺕
⺝
⺸
⺼
⿰
⿱
⿲
⿳
⿴
⿵
⿶
⿷
⿸
⿹
⿺
⿻
、
。
《
》
『
』
〢
い
か
し
た
て
と
に
の
る
゙
゚
ア
ィ
イ
ウ
カ
ク
コ
サ
シ
ス
タ
ッ
ツ
テ
ト
ハ
フ
ヘ
ユ
ラ
リ
ル
レ
ン
・
ー
㇁
㇂
㇄
㇇
㇈
㇉
㇓
㋡
㐁
㐄
㐅
㐌
㐫
㐬
㐭
㐮
㐱
㑒
㒵
㒸
㒼
㓁
㓞
㔾
㕛
㕣
㖾
㘝
㚅
㚇
㚔
㚘
㝉
㝡
㝴
㝵
㞋
㞢
㞷
㠩
㠭
㠯
㡀
㡭
㡿
㢲
㢴
㣇
㣺
㥯
㪅
㫄
㫐
㫒
㫺
㬅
㬎
㬥
㬰
㲋
㳄
㷠
㸒
㸚
㸦
㼌
㼲
㽞
㿟
䀠
䂞
䍃
䏍
䒑
䖍
䖒
䖝
䖵
䙴
䚻
䜌
䝿
䡛
䧹
䪞
一
丁
丂
七
丄
丅
丆
万
丈
三
上
下
丌
不
与
丏
丐
丑
专
且
丕
世
丘
丙
业
东
丞
丢
丣
两
严
並
丨
丩
个
丫
丬
中
丮
丰
丱
串
丵
丶
丷
丸
丹
为
主
丽
丿
乀
乂
乃
久
乆
乇
么
义
之
乌
乍
乎
乏
乐
乑
乔
乖
乗
乘
乙
乚
乛
乜
九
乞
也
习
乡
乳
乾
亀
亅
了
亇
予
争
事
二
亍
于
亏
亐
云
互
亓
五
井
亘
亚
亜
亞
亟
亠
亡
亢
交
亥
亦
产
亨
亩
享
京
亭
亮
亯
亰
亲
亳
亶
亷
人
亻
亼
亾
仁
今
介
仌
从
仐
仑
仒
仓
仕
他
付
仝
代
令
以
任
企
伊
伏
伐
休
会
伯
但
位
何
佘
余
作
佥
使
來
侈
侌
侖
侯
侵
便
保
俞
信
修
倉
倍
候
倠
備
僉
僕
儿
兀
允
兂
元
兄
充
兆
兇
先
光
兊
克
兌
免
兑
兒
兓
兔
党
兜
兟
入
全
兩
兪
八
公
六
兮
兰
共
关
兵
其
具
典
兹
兼
冀
冂
冃
冄
内
冈
冉
冊
冋
册
再
冎
冏
冐
冒
冓
冖
冗
冘
军
农
冝
冡
冥
冫
冬
冷
几
凡
凢
凵
凶
凷
凸
凹
出
函
凾
刀
刁
刂
刃
刄
刅
分
切
刍
刑
刕
刖
列
刘
则
初
別
利
别
到
制
刺
則
削
剌
前
剡
剽
劉
力
功
加
劦
助
劫
劳
劵
勃
勇
勉
勒
動
務
勞
勤
勹
勺
勻
勾
勿
匀
匂
包
匆
匈
匊
匋
匍
匕
化
北
匚
匝
匡
匪
匱
匸
匹
区
医
匽
匿
區
十
卂
千
卄
卅
卆
升
午
卉
半
卌
华
卑
卒
卓
单
卖
南
卜
卝
卞
占
卡
卢
卣
卤
卦
卩
卪
卬
卯
印
危
即
却
卵
卷
卸
卻
厂
厃
厄
历
厈
厉
厌
厓
厘
厚
原
厤
厥
厨
厭
厲
厶
厷
厸
去
厼
厽
叀
参
參
叅
又
叉
及
友
双
反
叐
发
叒
叔
叕
取
受
叚
叜
叟
口
古
句
另
叩
只
召
可
台
叱
史
右
叵
号
司
叹
吂
各
吅
合
吉
吊
吋
同
名
后
吏
向
吕
君
吝
吞
否
含
启
吳
吴
吹
吾
呂
呆
呈
告
员
呙
周
命
咅
和
咎
咠
咢
咨
咸
咼
哀
品
哉
員
哥
哲
唐
商
啇
問
啚
啬
啻
善
喜
喬
單
喿
嗇
噩
嚴
囊
囗
囘
囙
囚
四
回
囟
因
囧
囬
困
囱
囷
固
国
圂
圅
國
圍
圓
土
圡
圣
圥
在
圭
地
圶
圼
坐
坒
坚
坴
垂
垔
垚
埀
埋
埶
執
基
堂
堅
堆
堇
堯
場
塞
墨
壘
士
壬
壯
声
壳
壴
壹
壺
壽
夂
处
夅
夆
备
夊
夋
夌
复
夏
夒
夕
外
夗
夘
多
夜
夢
大
夨
天
太
夫
夬
夭
央
失
夲
头
夷
夸
夹
夻
夾
奂
奄
奇
奈
奉
奎
奏
奐
契
奓
奔
奚
奞
奠
奢
奥
奭
女
奴
奻
好
如
妄
妙
妟
妥
妻
妾
姑
委
姜
威
娄
婁
婴
嬰
嬴
子
孑
孔
孕
孖
字
存
孚
孛
孝
孟
季
孤
学
孫
孱
學
宀
宁
宂
它
宅
宇
守
安
宋
完
宏
宓
宗
官
定
宛
宜
宝
客
宣
室
宮
宰
害
家
容
宾
宿
寄
寅
密
富
寒
察
寧
審
寫
寬
寮
寸
对
寺
寻
寽
対
寿
封
尃
射
将
將
專
尉
尊
尋
尌
對
小
少
尒
尓
尔
尖
尗
尚
尞
尢
尣
尤
尧
尨
尭
就
尸
尹
尺
尻
尼
尽
尾
尿
局
居
屈
屋
屎
屏
屑
展
屖
屚
属
屠
屡
屬
屮
屯
屰
山
屵
屾
岁
岂
岑
岡
岩
岳
岸
峯
島
崇
崑
崔
崖
崙
崩
嵬
嶲
巂
巛
川
州
巟
巠
巢
巤
工
左
巧
巨
巩
巫
差
己
已
巳
巴
巷
巸
巽
巾
巿
帀
市
布
希
帚
帛
帝
带
師
席
帶
常
干
平
年
幵
并
幷
幸
幺
幻
幼
幽
幾
广
広
庄
床
底
店
庚
府
度
庫
庭
庶
康
庸
廉
廌
廛
廣
廩
廴
延
廷
建
廾
廿
开
弁
弃
弄
弇
弋
式
弓
弔
引
弗
弘
弜
弟
弥
弦
弱
張
強
强
彊
彌
彎
彐
彑
当
彔
录
彖
彗
彡
形
彥
彦
彧
彭
彳
役
彼
往
待
律
徒
得
徙
從
復
微
徵
心
忄
必
忌
忍
志
忝
忠
忩
快
念
忽
忿
思
怠
急
怱
恆
恒
恩
恭
息
悉
患
悤
悲
悶
惠
惡
惢
愁
愈
意
愛
感
慈
慧
慮
憂
憲
應
戀
戈
戉
戊
戋
戌
戍
戎
成
我
戒
戔
或
戚
戠
戢
截
戲
戶
户
戹
戼
戾
房
所
扁
扇
手
扌
才
打
托
执
承
折
拉
拜
拿
掌
推
提
摩
支
攴
攵
收
攸
改
放
政
敄
敏
敕
敖
敗
敝
敞
敢
散
敦
敫
敬
数
敷
數
斂
文
斉
斊
斗
斤
斥
斩
斬
斯
新
方
於
施
斿
旁
旋
族
无
旡
既
旣
日
旦
旧
旨
早
旬
旱
旲
时
旾
昆
昇
昌
昍
明
昏
易
昔
昗
昜
星
春
昬
是
昱
昴
昷
時
晃
晋
晏
普
景
晶
智
暑
暴
曇
曩
曰
曲
曳
更
曷
書
曹
曼
曾
替
最
朁
會
月
有
朋
服
朔
朕
朗
望
朝
木
朩
未
末
本
札
朮
术
朱
朵
朶
朿
杀
杏
杜
束
条
来
東
杲
杳
松
析
林
枚
果
枝
枲
枼
某
柔
查
柬
柰
柴
栗
桀
桑
桼
梁
條
梟
梨
棘
棠
棥
森
楚
業
楽
榮
樂
樊
欠
次
欣
欮
欲
欶
欽
款
歆
歇
歛
止
正
此
步
武
歨
歪
歮
歯
歰
歲
歴
歷
歸
歹
歺
死
殳
段
殷
殸
殹
殺
殻
殿
毋
毌
母
每
毒
比
毕
毚
毛
毳
氏
氐
民
气
氣
水
氵
氶
氷
永
氺
氾
求
汝
汞
江
沃
沓
沙
沝
泉
法
波
泣
泥
泰
洛
洪
活
派
流
浦
浪
浮
海
淡
淮
清
渚
渠
湯
満
滿
漸
火
灬
灭
灰
灵
灷
炅
炎
炏
炗
炙
炭
為
烈
烏
烝
焉
無
焦
焱
然
煞
熊
熏
燕
營
燮
爪
爫
爭
爯
爰
爱
爲
爵
父
爻
爽
爾
爿
片
牙
牚
牛
牜
牟
牢
牧
牪
牽
犀
犬
犭
犮
狂
狄
狊
独
狺
猋
猒
猪
献
獻
玄
率
玉
王
玟
玨
珎
班
琴
瑟
瑩
瓜
瓦
甘
甚
生
産
用
甫
甬
田
由
甲
申
电
甶
男
甸
甹
画
甾
畀
界
畏
畐
留
畜
畟
畢
畧
畨
番
畫
異
畱
當
畺
畾
疊
疋
疌
疑
疒
疾
癶
癸
癹
登
發
白
百
皀
皃
的
皆
皇
皋
皐
皕
皮
皷
皿
盃
盆
盇
盈
益
盍
盎
监
盒
盖
盛
盡
監
盤
盧
目
直
相
盾
省
眇
眉
看
県
眔
眞
真
眷
眼
眾
着
睘
睪
睿
瞏
瞢
瞿
矍
矛
矞
矢
矣
知
矦
短
石
破
碎
磊
磨
示
礻
礼
社
神
祟
票
祭
禀
禁
禸
禹
禺
离
禽
禾
禿
秀
秃
秉
秋
科
秝
秦
移
稟
穀
穌
穴
究
穹
空
穿
突
窄
窒
立
竒
竜
竝
竟
章
童
竹
笑
笠
筆
等
答
箕
算
箴
節
篤
篭
米
粉
粛
粟
粤
粦
粲
糞
糸
糹
系
約
納
素
索
紫
累
細
絜
絫
絲
維
綿
縣
繇
纍
纟
缶
网
罒
罔
罕
罗
罙
罡
罢
罪
署
罷
羅
羊
羌
羍
美
羔
羕
羗
羞
羡
羣
群
義
羲
羸
羽
翁
翏
習
翕
翟
翠
翼
老
耂
考
者
耆
而
耎
耑
耒
耳
耴
耶
耷
聂
聊
聖
聚
聶
聿
肀
肃
肅
肉
肖
肙
肥
肩
肯
育
肴
胃
背
胡
胥
能
脊
脩
膚
臣
臤
臧
自
臬
臭
臯
臱
至
致
臺
臼
臽
臾
臿
舀
舂
舄
與
興
舉
舌
舍
舛
舜
舞
舟
般
艮
良
色
艸
艹
艾
芒
芔
芬
芮
花
芳
芺
芻
苔
苗
苟
若
苦
英
茶
茸
荅
草
荒
荣
荼
莆
莧
莫
莽
菆
菊
菐
華
萬
落
葉
著
葛
董
葵
蒙
蒦
蒼
蓋
蓬
蓺
蔑
蔡
蕉
蕭
薄
薛
薦
薰
藍
藏
藤
藥
蘭
虍
虎
虐
虒
虔
處
虖
虗
虘
虚
虛
虜
虞
虫
虽
蚤
蚩
蜀
蜜
蟲
蠡
血
行
衍
衛
衣
衤
表
衮
衰
袁
袞
褭
褱
襄
襾
西
覀
要
覃
見
規
覓
覧
親
覽
见
角
解
言
訁
訇
計
記
試
話
詹
誩
諸
讠
谷
豆
豈
豊
豐
豕
豖
豙
象
豦
豩
豪
豸
豺
貇
貝
貞
貟
負
貢
貧
貪
貫
責
貳
貴
買
費
賁
資
賈
賏
賓
賔
賛
賞
賢
賣
質
賴
贊
贝
贡
责
贯
贲
贵
赖
赞
赤
赦
走
越
足
路
蹇
身
躬
車
軍
軎
軟
輦
车
辛
辜
辟
辥
辰
辱
農
辵
辶
边
达
过
近
连
迷
追
退
送
逆
逐
通
速
造
逢
連
逮
進
遀
遂
過
道
達
遣
適
遷
遺
邊
邑
邕
那
邦
邪
郎
部
郭
都
鄉
酉
酋
配
酓
釆
采
里
重
野
量
金
釒
錢
録
钅
長
镸
长
門
閃
閉
開
閏
閑
閒
間
閔
閵
閻
闌
门
间
闷
阑
阜
阝
阿
降
陳
隆
隊
隋
隡
隨
隱
隶
隹
隺
隻
隼
隽
难
雀
雁
集
雈
雋
雍
雐
雔
雙
雚
雜
雝
離
難
雨
雩
雪
雲
零
雷
需
霍
霜
霝
霞
霸
靈
靑
青
非
靡
面
靣
革
韋
韦
韭
韯
韱
音
頁
頃
項
須
頗
頡
頻
顛
页
風
风
飛
飞
食
飠
養
饣
首
香
馬
馮
駦
駱
马
骨
高
髟
鬥
鬯
鬲
鬼
魚
魯
鮮
鱼
鲁
鳥
鳳
鸟
鹵
鹿
麃
麗
麥
麦
麻
黃
黄
黍
黎
黑
黒
黨
黹
黽
黾
鼎
鼓
鼠
鼻
齊
齋
齐
齒
齿
龍
龙
龜
龟
龠
龰
龱
龴
龵
龶
龷
龸
龹


者
艹
ﭘ
ﭼ
ﮐ
ﮑ
ﮔ
ﮕ
ﯼ
ﯽ
ﯾ
ﯿ
﴾
ﷲ
️
ﺀ
ﺁ
ﺍ
ﺎ
ﺑ
ﺒ
ﺖ
ﺗ
ﺘ
ﺟ
ﺣ
ﺧ
ﺩ
ﺪ
ﺭ
ﺮ
ﺯ
ﺰ
ﺳ
ﺴ
ﺶ
ﺷ
ﺸ
ﻋ
ﻌ
ﻓ
ﻔ
ﻗ
ﻞ
ﻟ
ﻠ
ﻡ
ﻢ
ﻣ
ﻤ
ﻥ
ﻦ
ﻧ
ﻨ
ﻩ
ﻪ
ﻫ
ﻬ
ﻭ
ﻮ
ﻳ
ﻴ
﻿
（
）
，
：
？
￼
𐬀
🌹
🌼
🍁
🐍
💬
📝
📞
🙏
𠀁
𠀃
𠀆
𠀉
𠀎
𠀐
𠁁
𠁣
𠂆
𠂇
𠂈
𠂉
𠂊
𠂋
𠂎
𠂒
𠂔
𠂛
𠂡
𠂢
𠂤
𠂬
𠂭
𠂹
𠃊
𠃋
𠃌
𠃍
𠃎
𠃑
𠃓
𠃔
𠃜
𠄌
𠄎
𠄠
𠄢
𠆢
𠆥
𠇍
𠈌
𠌵
𠓜
𠔉
𠔥
𠔼
𠔽
𠔿
𠕀
𠕁
𠕋
𠘧
𠘨
𠙻
𠙼
𠚏
𠚒
𠚤
𠚪
𠣏
𠤎
𠤕
𠥓
𠦄
𠦑
𠦝
𠧒
𠧗
𠧪
𠩺
𠪚
𠫓
𠫔
𠫤
𠬛
𠬝
𠬞
𠬢
𠬤
𠬶
𠮛
𠮦
𠮷
𠯑
𠱠
𠳮
𠷎
𡈼
𡉀
𡉵
𡌥
𡍮
𡏳
𡕒
𡕩
𡕰
𡖅
𡗗
𡗜
𡘆
𡘤
𡧱
𡨄
𡩧
𡬠
𡭽
𡰣
𡰥
𡰪
𡰯
𡰱
𡷈
𡸁
𡿨
𡿩
𡿪
𡿺
𢀖
𢀛
𢀩
𢁙
𢆉
𢆰
𢆶
𢇁
𢇇
𢉖
𢌬
𢌿
𢏚
𢑑
𢑚
𢖻
𢙣
𢛳
𢦏
𢦒
𢧵
𢼄
𢾕
𣁋
𣄼
𣅀
𣅽
𣍘
𣎳
𣎵
𣏋
𣏼
𣗥
𣥂
𣥖
𣦵
𣦼
𣧄
𣪊
𣪠
𣬉
𣳾
𣶒
𤇾
𤊽
𤐫
𤓰
𤔔
𤕨
𤣩
𤰇
𤰔
𤰞
𤴓
𤴔
𤽄
𥁑
𥁕
𥃦
𥃩
𥃭
𥇡
𥑟
𥘅
𥘈
𥝢
𥫗
𥱡
𦈢
𦉪
𦉬
𦉼
𦍌
𦍒
𦎧
𦐇
𦓔
𦔮
𦘒
𦙃
𦚏
𦣝
𦣞
𦣻
𦥑
𦥔
𦥯
𦨉
𦭝
𦰩
𧆞
𧈧
𧘇
𧰨
𧴪
𧴮
𧵩
𧾷
𨸏
𨾴
𩙿
𩠐
𩫏
𩵋
𪉷
𪜀
𪟽
𪠲
𪩲
𫇦
𫔭
𫜸
𫝀
𫠣
𫠩
𫢉
𫥞
𫩏
𫩠
𫪡
𫲽
𫶧
𬀷
𬐘
𬗌
𬙙
𬛸
𬜯
𬟩
𬯁
𬴘
𬺻
𬼉
𬼖
𭀰
𭁈
𭁨
𭅰
𭑈
𭕄
𭗼
𭤨
𭥫
𭻾
𮅕
𮊿
𮍌
𮍏
𮓗
𮥼
𮧮
廾
𰀁
𰀄
𰀈
𰀉
𰀕
𰀠
𰀡
𰀢
𰀪
𰁜
𰃮
𰆊
𰆘
𰋙
𰕎
𰢴
𰧭
𰯲
00--
01--
02--
03--
04--
05--
06--
07--
08--
09--
100--
42--
44--
45--
46--
47--
48--
49--
50--
51--
52--
53--
54--
55--
56--
57--
58--
59--
60--
61--
62--
63--
64--
65--
66--
67--
68--
69--
70--
71--
72--
73--
74--
75--
76--
77--
78--
79--
80--
81--
82--
83--
84--
85--
86--
87--
88--
89--
90--
91--
92--
93--
94--
95--
96--
97--
98--
99--
a--
aa--
ab--
ac--
acce--
ad--
add--
adve--
ae--
aero--
af--
afg--
ag--
agri--
ah--
ai--
air--
ak--
al--
ali--
all--
alt--
alu--
am--
an--
ang--
ante--
any--
ap--
ar--
as--
ash--
asse--
astr--
at--
athl--
ato--
au--
auto--
av--
ax--
ay--
az--
b--
ba--
back--
bact--
bag--
bal--
bar--
bas--
be--
beau--
bel--
ben--
ber--
bi--
biblio--
bio--
bl--
bloo--
bo--
bor--
br--
brac--
bro--
broad--
bu--
bur--
by--
c--
ca--
cal--
calc--
camp--
can--
car--
cast--
cat--
cau--
cc--
cd--
ce--
cele--
cent--
cer--
cere--
cf--
ch--
cha--
chall--
che--
cho--
chro--
chrono--
ci--
circ--
cl--
clo--
cm--
cn--
co--
col--
colla--
com--
con--
contr--
contri--
cor--
cr--
crea--
create--
crim--
crit--
cro--
cs--
ct--
cu--
cur--
cy--
cycl--
cypr--
cz--
d--
da--
dar--
data--
date--
dc--
dd--
de--
decla--
def--
demo--
depe--
des--
dete--
deve--
df--
di--
diag--
dimen--
diplo--
disa--
disc--
diso--
disp--
dist--
distri--
do--
dr--
dra--
ds--
du--
dupl--
dw--
dy--
e--
ea--
eag--
ear--
eb--
ec--
econo--
ed--
edit--
ee--
ef--
eg--
ei--
el--
elec--
em--
emer--
en--
end--
entr--
ep--
equ--
equat--
equi--
er--
es--
esp--
establish--
et--
ethno--
eu--
euro--
ev--
evalu--
ex--
excl--
exec--
exhi--
exp--
expla--
explo--
f--
fa--
fami--
far--
fe--
fer--
ff--
fi--
figh--
file--
fl--
flor--
fm--
fo--
foot--
for--
fr--
frag--
fre--
fu--
full--
fund--
g--
ga--
gall--
gar--
gaz--
ge--
geo--
ger--
get--
gha--
gi--
gio--
gla--
glo--
gm--
go--
gon--
gor--
gover--
gr--
gram--
gro--
gu--
guil--
gy--
h--
ha--
har--
has--
hat--
haw--
hay--
he--
hein--
hel--
heli--
her--
hi--
high--
hl--
ho--
hol--
holl--
home--
hor--
horiz--
hr--
html--
hu--
hurri--
hy--
hydr--
i--
ia--
ic--
ice--
id--
iden--
if--
ig--
il--
illu--
im--
impl--
implem--
in--
incre--
indi--
indu--
infe--
infi--
influ--
init--
inst--
instru--
int--
integ--
inter--
inv--
inve--
investi--
io--
ip--
ir--
is--
iso--
it--
iv--
j--
ja--
je--
ji--
jo--
ju--
jul--
k--
ka--
kar--
ke--
ker--
key--
kha--
kho--
ki--
kle--
ko--
kr--
ku--
ky--
l--
la--
labo--
lan--
lang--
last--
lat--
lc--
le--
leba--
legi--
li--
libe--
libert--
libr--
ling--
link--
ll--
lo--
lu--
ly--
m--
ma--
mac--
mag--
mah--
make--
mal--
man--
manu--
map--
mar--
marri--
mary--
max--
maz--
mb--
mc--
me--
meas--
men--
mer--
merc--
meta--
mi--
micr--
micro--
mid--
mill--
min--
mir--
mit--
mix--
mm--
mo--
moha--
mona--
mono--
mont--
mor--
mp--
mr--
ms--
mt--
mu--
multi--
my--
n--
na--
nar--
nav--
navi--
nc--
nd--
ne--
nega--
neu--
new--
news--
ng--
ni--
nl--
no--
non--
nr--
ns--
nt--
nu--
num--
ny--
o--
obs--
obser--
occ--
og--
oh--
ok--
ol--
old--
on--
one--
op--
open--
or--
orie--
os--
ou--
out--
over--
p--
pa--
pac--
page--
pal--
pan--
par--
para--
patr--
pay--
pc--
pe--
per--
ph--
phi--
pho--
photo--
phy--
pi--
pl--
plo--
po--
poli--
post--
pr--
pre--
prim--
pro--
ps--
psy--
pt--
pu--
pul--
pun--
pur--
py--
q--
qi--
qu--
qui--
r--
ra--
rc--
re--
rece--
recog--
recom--
red--
ref--
regi--
regu--
rele--
reli--
res--
resto--
ret--
rf--
ri--
ro--
rou--
row--
rs--
rt--
ru--
s--
sa--
sal--
sam--
san--
sar--
sara--
sc--
sch--
sche--
schu--
scie--
se--
sel--
semi--
sent--
ser--
set--
sey--
sh--
sha--
sho--
show--
si--
sil--
situ--
sk--
sky--
sl--
slo--
sm--
sn--
so--
soci--
sol--
some--
sp--
spea--
spec--
spo--
sr--
ss--
st--
ste--
stor--
str--
stu--
su--
sub--
sum--
sun--
super--
supp--
supple--
sur--
susp--
sv--
swa--
swe--
swi--
sy--
symp--
synd--
synt--
t--
ta--
tai--
te--
teac--
tele--
temp--
ter--
terri--
terro--
test--
text--
th--
the--
tho--
ti--
tm--
to--
tor--
tou--
tour--
toyo--
tr--
trans--
tri--
tro--
trop--
ts--
tt--
tu--
tur--
twe--
twi--
ty--
u--
ud--
ul--
un--
under--
uni--
univ--
univer--
up--
ur--
us--
use--
user--
ut--
v--
va--
val--
van--
var--
ve--
ver--
vi--
vill--
vir--
vl--
vla--
vo--
vol--
vu--
w--
wa--
wal--
war--
we--
web--
wel--
west--
wg--
whe--
wi--
wiki--
wil--
wo--
wol--
wor--
wp--
wra--
wro--
wu--
x--
xi--
xx--
y--
ya--
ye--
yi--
yu--
z--
za--
zh--
zo--
zu--
ə--
α--
о--
п--
с--
ا--
اب--
ابا--
ابر--
ابو--
ابوال--
ابی--
ات--
اتو--
اث--
اثر--
اج--
اح--
احمد--
اخ--
اخت--
اختر--
اد--
ادو--
ار--
ارت--
ارس--
ارض--
ارغ--
ارل--
ارم--
ارو--
ارگ--
اری--
از--
ازا--
اس--
است--
استاف--
استاک--
اسم--
اسن--
اسنوبرد--
اسپو--
اسپک--
اسکو--
اش--
اشت--
اشته--
اشک--
اص--
اصط--
اض--
اط--
اع--
اعتماد--
اعج--
اعل--
اغ--
اف--
اق--
اقتض--
ال--
الا--
الت--
الث--
الح--
الد--
الر--
الس--
الص--
الط--
الع--
الغ--
الف--
الق--
الم--
الن--
اله--
الک--
الکترو--
الگو--
الی--
ام--
اما--
امشاس--
امپری--
امیر--
ان--
انا--
انت--
انتر--
اند--
انس--
انگ--
انی--
اه--
او--
اوا--
اوت--
اور--
اوز--
اوغ--
اول--
اوم--
اون--
اوه--
اوک--
اوکلا--
اوگ--
اوی--
اي--
اپ--
اپی--
اچ--
اک--
اکتی--
اکس--
اکسید--
اکو--
اگ--
اگر--
اگز--
اگزیستانس--
ای--
ایا--
ایر--
ایران--
ایزد--
ایزو--
ایشت--
ایل--
ایم--
این--
ایو--
ایگ--
ب--
با--
باب--
بابا--
بات--
باج--
باد--
بار--
باز--
باس--
باش--
باغ--
بال--
بالا--
بام--
بان--
باو--
باور--
باک--
باگ--
بای--
بت--
بتا--
بجو--
بحث--
بد--
بدر--
بدل--
بدی--
بذر--
بر--
برا--
براز--
برت--
برد--
برز--
برس--
برف--
برق--
برم--
برن--
برو--
برک--
برگ--
بری--
بز--
بس--
بسا--
بش--
بص--
بط--
بغ--
بق--
بل--
بلا--
بلند--
بلو--
بلک--
بلی--
بم--
بما--
بمب--
بن--
بنا--
بند--
بندر--
بنز--
بنو--
بنگ--
بنیاد--
به--
بها--
بهر--
بهیچ--
بو--
بوت--
بود--
بور--
بوس--
بول--
بوم--
بون--
بوک--
بوی--
بي--
بچ--
بک--
بکار--
بکش--
بگ--
بگذر--
بی--
بیا--
بیاف--
بیت--
بید--
بیر--
بیس--
بیش--
بیف--
بیل--
بیم--
بین--
بینا--
بیو--
بیک--
بیگ--
بیگلر--
ت--
تا--
تاب--
تات--
تاج--
تار--
تاس--
تال--
تام--
تان--
تاو--
تاک--
تای--
تب--
تبار--
تبر--
تترا--
تح--
تخت--
تد--
تر--
ترا--
ترس--
ترم--
ترن--
تروم--
تری--
تز--
تس--
تش--
تص--
تصویر--
تض--
تط--
تع--
تعز--
تغ--
تغییر--
تق--
تل--
تم--
تمهی--
تن--
تنا--
تند--
تنگ--
ته--
تهی--
تو--
توت--
تور--
توس--
تول--
تون--
توپ--
توی--
تپ--
تک--
تکن--
تگ--
تی--
تیر--
تیز--
تیل--
تیم--
تین--
ث--
ثار--
ثر--
ثم--
ثیر--
ج--
جا--
جار--
جام--
جان--
جاه--
جای--
جبر--
جدا--
جر--
جز--
جف--
جل--
جلو--
جم--
جمع--
جن--
جنگ--
جنگل--
جه--
جهان--
جو--
جور--
جوز--
جوش--
جک--
جی--
جیل--
جیم--
جین--
ح--
حا--
حب--
حج--
حد--
حر--
حرف--
حرم--
حس--
حص--
حض--
حق--
حل--
حن--
حک--
حی--
خ--
خار--
خان--
خاو--
خاور--
خاچ--
خاک--
خب--
خبر--
خدا--
خر--
خرد--
خرط--
خرم--
خز--
خس--
خسرو--
خشک--
خص--
خط--
خطر--
خم--
خن--
خو--
خوا--
خوار--
خود--
خودرو--
خور--
خوش--
خون--
خی--
خیر--
د--
دا--
داب--
داد--
دار--
دارال--
دارو--
داس--
داش--
دال--
دام--
دان--
داو--
داک--
داگ--
دای--
دب--
دبلیو--
دبیر--
در--
درا--
دراز--
درب--
دربر--
درج--
درد--
درز--
درس--
درم--
درو--
درک--
دریا--
دز--
دست--
دشت--
دعا--
دف--
دفتر--
دل--
دلا--
دلگ--
دم--
دما--
دمی--
دن--
ده--
دو--
دوا--
دود--
دور--
دوز--
دوس--
دول--
دوم--
دون--
دوو--
دوک--
دي--
دپ--
دژ--
دکتر--
دگر--
دی--
دیام--
دیر--
دیز--
دیس--
دیم--
دین--
دیو--
دیپ--
دیک--
دیگر--
ذ--
ذا--
ذر--
ذوال--
ذی--
ر--
را--
راب--
راج--
راد--
رادیو--
راز--
راس--
رام--
ران--
راه--
راو--
راک--
رای--
راین--
رب--
ربا--
رت--
رتا--
رتی--
رج--
رخ--
رد--
رز--
رزم--
رزو--
رس--
رسلم--
رش--
رشت--
رشید--
رضا--
رف--
رفتار--
رق--
رم--
رمز--
رن--
رنج--
رند--
ره--
رها--
رو--
روا--
روان--
روت--
رود--
روز--
روس--
رول--
روم--
روی--
رپ--
رک--
رکس--
رگ--
ری--
ریا--
ریبو--
ریز--
ریس--
ریف--
ریم--
رین--
ریو--
ریک--
ز--
زا--
زاد--
زادی--
زار--
زال--
زان--
زای--
زبر--
زد--
زر--
زرد--
زم--
زن--
زنگ--
زه--
زو--
زود--
زور--
زي--
زک--
زی--
زیبا--
زیر--
زین--
س--
سا--
ساب--
سار--
ساز--
سال--
سام--
سان--
ساوت--
سای--
سب--
سباست--
سبز--
سبک--
ست--
ستر--
ستم--
سح--
سحر--
سخ--
سخن--
سد--
سر--
سرا--
سرب--
سرخ--
سرد--
سرم--
سرو--
سری--
سس--
سف--
سفید--
سل--
سلح--
سم--
سن--
سنا--
سنت--
سند--
سنگ--
سه--
سهم--
سو--
سوء--
سوا--
سود--
سور--
سول--
سوم--
سون--
سوپر--
سوک--
سوگ--
سوی--
سي--
سپا--
سپاس--
سپر--
سپن--
سپه--
سک--
سکس--
سکو--
سگ--
سی--
سیا--
سیاه--
سیب--
سیتو--
سیتوپ--
سیح--
سید--
سیر--
سیس--
سیف--
سیل--
سیم--
سین--
سیک--
ش--
شا--
شاخ--
شاد--
شار--
شام--
شان--
شاه--
شب--
شت--
شتر--
شد--
شر--
شرف--
شرم--
شش--
شعر--
شفا--
شل--
شم--
شما--
شن--
شه--
شهر--
شو--
شوت--
شود--
شور--
شوم--
شون--
شوک--
شوی--
شک--
شکار--
شکر--
شکی--
شی--
شیب--
شیر--
شین--
ص--
صاحب--
صبح--
صح--
صد--
صدا--
صدد--
صدر--
صف--
صفر--
صمص--
صنو--
صورت--
ض--
ضاب--
ضد--
ضدا--
ط--
طب--
طل--
طلا--
طلب--
طنز--
طه--
طو--
طور--
طی--
ظ--
ظهر--
ظهیرال--
ع--
عا--
عاف--
عالی--
عام--
عب--
عبد--
عبدال--
عج--
عد--
عدد--
عرب--
عز--
عص--
عصر--
عضو--
عط--
عطا--
عظ--
عق--
عل--
علاء--
علف--
علی--
عمل--
عمو--
عن--
عکس--
عیس--
عیل--
غ--
غا--
غار--
غض--
غم--
غو--
غور--
غیر--
غیرا--
ـ--
ف--
فا--
فال--
فام--
فان--
فای--
فب--
فت--
فتوو--
فخر--
فر--
فرا--
فرح--
فرد--
فرزند--
فرش--
فره--
فرو--
فری--
فسف--
فص--
فض--
فضا--
فقیر--
فلا--
فلز--
فلو--
فلی--
فن--
فنا--
فنر--
فه--
فو--
فوت--
فور--
فول--
فون--
فک--
فکر--
فی--
فیثا--
فیر--
فیل--
فین--
ق--
قا--
قبر--
قد--
قر--
قرا--
قرار--
قرق--
قرقا--
قشق--
قص--
قصر--
قط--
قل--
قلم--
قم--
قمار--
قن--
قه--
قو--
قور--
ك--
كار--
كن--
ل--
لا--
لات--
لال--
لام--
لان--
لاو--
لاک--
لای--
لب--
لت--
لد--
لر--
لز--
لس--
لش--
لط--
لغ--
لف--
لل--
لم--
لن--
لند--
له--
لو--
لوب--
لوت--
لود--
لوس--
لوم--
لون--
لوک--
لوی--
لپ--
لژ--
لک--
لی--
لیت--
لید--
لیس--
لیم--
لین--
لیو--
لیک--
لیگ--
م--
ما--
مات--
ماد--
مادر--
مار--
ماس--
ماست--
مال--
مام--
مان--
ماه--
ماکی--
ماگ--
مای--
مبا--
مبت--
مت--
متا--
متد--
متر--
متع--
مث--
مجد--
مح--
محج--
محمد--
مخ--
مخبر--
مد--
مدد--
مدي--
مدی--
مدیر--
مذ--
مر--
مرح--
مرد--
مرز--
مرغ--
مری--
مز--
مزو--
مس--
مست--
مسو--
مش--
مشار--
مص--
مصر--
مض--
مط--
مع--
معنا--
مغ--
مف--
مفت--
مق--
مقا--
مل--
ملا--
ملت--
ملک--
ملی--
مم--
من--
منا--
مند--
منو--
منی--
مه--
مهد--
مهر--
مو--
مواد--
موافق--
موت--
مود--
مور--
مورد--
مورف--
موز--
موس--
موص--
مول--
موم--
مون--
مونو--
موگ--
موی--
مي--
مپ--
مک--
مگ--
مگا--
می--
میا--
میان--
میت--
میخ--
میخوا--
مید--
میر--
میرزا--
میز--
میس--
میش--
میع--
میل--
میم--
مین--
مینو--
میک--
میکرو--
میگ--
ن--
نا--
ناب--
نات--
ناد--
نار--
ناز--
ناس--
ناصر--
نام--
نان--
نانو--
ناهم--
ناو--
ناک--
نای--
نت--
نتی--
نث--
نج--
نجل--
نخ--
نخوا--
ند--
ندا--
ندر--
نر--
نس--
نش--
نص--
نط--
نظ--
نظر--
نع--
نف--
نفت--
نفر--
نق--
نقا--
نقش--
نم--
نما--
نماد--
نمی--
نه--
نها--
نهر--
نو--
نوا--
نوت--
نود--
نور--
نورد--
نوس--
نوش--
نون--
نوو--
نوک--
نوی--
ني--
نژ--
نژاد--
نک--
نگ--
نگار--
نگذ--
نگذا--
نگه--
نگو--
نی--
نیا--
نیت--
نیز--
نیش--
نیل--
نیم--
نین--
نیو--
نیک--
ه--
ها--
هاب--
هات--
هار--
هاس--
هال--
هالی--
هام--
هان--
هاو--
هاپ--
هاک--
هاگ--
های--
هت--
هد--
هذی--
هر--
هرا--
هرت--
هرز--
هرم--
هری--
هزار--
هش--
هفت--
هفش--
هل--
هلی--
هم--
هما--
هن--
هنج--
هند--
هندو--
هنر--
هو--
هوا--
هود--
هور--
هوس--
هوف--
هولد--
هوم--
هون--
هوو--
هپت--
هژ--
هک--
هگز--
هی--
هیا--
هیج--
هیدرو--
هیست--
هیل--
هیو--
هیپ--
و--
وا--
وات--
واتر--
وار--
وارد--
واز--
واش--
وال--
والا--
وام--
وان--
واک--
وای--
وب--
وت--
وج--
وخ--
ود--
ودا--
ودر--
ودی--
ور--
ورا--
ورت--
ورد--
ورم--
ورو--
وری--
وز--
وزیر--
وس--
وست--
وش--
وص--
وف--
وقت--
ول--
ولا--
ولد--
ولو--
ولی--
وم--
ون--
وند--
وه--
وهم--
وو--
وود--
وي--
وپ--
وک--
وی--
ویا--
ویت--
وید--
ویر--
ویس--
ویل--
وین--
ویو--
ویک--
ویکی--
ي--
يا--
١--
١٣--
١٩--
٢--
٢٠--
پ--
پا--
پاد--
پادوس--
پارا--
پاس--
پال--
پام--
پان--
پاپ--
پاک--
پای--
پت--
پتر--
پد--
پدر--
پر--
پرا--
پرت--
پرتو--
پرس--
پرش--
پرو--
پری--
پز--
پس--
پسا--
پسر--
پشت--
پل--
پلو--
پلی--
پم--
پن--
پنج--
په--
پو--
پوا--
پور--
پوش--
پول--
پون--
پوپ--
پي--
پچ--
پژ--
پک--
پی--
پیت--
پیدا--
پیر--
پیرو--
پیس--
پیش--
پیشا--
پیل--
پین--
پیو--
پیچ--
پیک--
چ--
چا--
چار--
چان--
چاپ--
چاک--
چای--
چت--
چتر--
چرا--
چرن--
چرنو--
چسب--
چغا--
چقرم--
چلی--
چم--
چمن--
چن--
چند--
چه--
چهار--
چو--
چپ--
چک--
چی--
چیز--
ژ--
ژان--
ژاک--
ژل--
ژن--
ژو--
ژول--
ژی--
ژیل--
ک--
کا--
کات--
کار--
کارا--
کارد--
کاس--
کاغذ--
کاف--
کال--
کام--
کاما--
کان--
کاه--
کاپ--
کاپیت--
کای--
کت--
کتاب--
کد--
کر--
کرد--
کرو--
کرک--
کری--
کز--
کس--
کسر--
کش--
کشت--
کشف--
کشور--
کف--
کل--
کلا--
کلر--
کلو--
کلک--
کلی--
کم--
کمر--
کمپ--
کن--
کنار--
کنت--
کنترپ--
کند--
که--
کو--
کوا--
کوب--
کوت--
کود--
کور--
کول--
کوم--
کون--
کوه--
کوچ--
کوک--
کوی--
کپ--
کژ--
کی--
کیا--
کید--
کیس--
کیش--
کیل--
کیلو--
کیم--
کین--
کیو--
گ--
گاب--
گاد--
گار--
گاز--
گاس--
گال--
گام--
گان--
گاه--
گاو--
گای--
گر--
گرا--
گران--
گرد--
گرم--
گرو--
گرگ--
گری--
گز--
گشا--
گشت--
گل--
گلادی--
گلد--
گلن--
گلو--
گلی--
گم--
گن--
گنج--
گند--
گو--
گوا--
گوت--
گود--
گور--
گوش--
گول--
گون--
گي--
گچ--
گی--
گیاه--
گیج--
گیر--
گیل--
گیم--
گیو--
ی--
یا--
یاب--
یاد--
یار--
یاس--
یال--
یان--
یب--
یت--
یخ--
ید--
یر--
یرودی--
یز--
یس--
یش--
یل--
یم--
ین--
یه--
یو--
یوا--
یورو--
یوس--
یول--
یون--
یک--
یکتا--
یی--
یید--
۳۹--
۴۱--
۴۳--
۴۴--
۴۶--
۴۹--
۵۰--
۵۱--
۵۲--
۵۳--
۵۴--
۵۵--
۵۶--
۵۷--
۵۸--
۶۰--
۶۱--
۶۲--
۶۴--
۶۵--
۶۷--
۶۹--
۸۰--
۸۱--
۸۳--
۸۵--
۸۶--
۸۸--
۹۰--
۹۱--
۹۲--
۹۴--
--0
--00
--01
--02
--03
--04
--05
--06
--07
--08
--09
--1
--10
--11
--12
--13
--14
--15
--16
--17
--18
--19
--2
--20
--21
--22
--23
--24
--25
--26
--27
--28
--29
--3
--30
--31
--32
--33
--34
--35
--36
--37
--38
--39
--4
--40
--41
--42
--43
--44
--45
--46
--47
--48
--49
--5
--50
--51
--52
--53
--54
--55
--56
--57
--58
--59
--6
--60
--61
--62
--63
--64
--65
--66
--67
--68
--69
--7
--70
--71
--72
--73
--74
--75
--76
--77
--78
--79
--8
--80
--81
--82
--83
--84
--85
--86
--87
--88
--89
--9
--91
--92
--93
--94
--95
--96
--97
--98
--99
--a
--ab
--able
--ac
--ach
--ad
--ada
--ade
--ae
--age
--ah
--ai
--ain
--ak
--al
--ala
--ale
--all
--ally
--als
--am
--ama
--an
--ana
--ance
--ane
--ang
--ani
--anic
--ano
--ans
--ant
--ao
--ap
--ar
--ara
--ard
--args
--ari
--ars
--ary
--as
--at
--ata
--ate
--ated
--ater
--ates
--ating
--ation
--ations
--ative
--ator
--ats
--au
--avi
--aw
--ay
--az
--b
--ba
--bar
--bat
--be
--ber
--berg
--bert
--bes
--bet
--bi
--ble
--bo
--bot
--box
--bs
--bt
--burg
--by
--c
--ca
--cal
--cat
--cco
--ce
--ces
--ch
--ci
--cio
--cise
--ck
--cks
--cle
--co
--cs
--ct
--ction
--cus
--cy
--d
--da
--dae
--data
--date
--day
--dback
--de
--ded
--di
--dia
--do
--dor
--ds
--dt
--dy
--e
--ea
--east
--eau
--ec
--ect
--ection
--ed
--ee
--ees
--eh
--ei
--ein
--ek
--el
--els
--em
--ement
--en
--ena
--ence
--ens
--ensis
--ensive
--ent
--ents
--eo
--eq
--er
--erg
--eri
--erly
--ero
--ers
--ert
--ery
--es
--ese
--esh
--ess
--est
--et
--ete
--eth
--ets
--ett
--eur
--eus
--ever
--ew
--ews
--ex
--ey
--ez
--f
--fa
--fer
--ff
--fied
--form
--fs
--ft
--ful
--g
--ga
--gapore
--ge
--ged
--ger
--ges
--gh
--ght
--gi
--ging
--gle
--go
--gs
--gton
--h
--ha
--ham
--han
--he
--hed
--hen
--hes
--hi
--hip
--hn
--ho
--ht
--hy
--i
--ia
--ial
--ian
--ias
--ib
--ible
--ibute
--ic
--ica
--ical
--ich
--ick
--ico
--ics
--id
--ida
--idae
--ide
--ido
--ie
--ied
--iel
--ien
--ier
--ies
--ification
--ified
--ify
--ig
--ight
--ii
--ik
--ike
--il
--ila
--ile
--ill
--im
--ima
--imum
--in
--ina
--ine
--ing
--ings
--ini
--ino
--ins
--io
--ion
--ional
--ions
--ior
--ir
--ire
--is
--ise
--ish
--ision
--ism
--ist
--ists
--it
--ita
--ite
--ities
--ition
--itude
--ity
--ium
--ius
--ive
--ivity
--ix
--iya
--iz
--ization
--ize
--ized
--j
--ja
--ji
--k
--ka
--ke
--ker
--ket
--key
--kh
--ki
--kin
--ko
--ks
--ku
--ky
--l
--la
--lan
--land
--lar
--ld
--le
--led
--ler
--ley
--lf
--li
--lia
--lie
--lin
--line
--ling
--link
--lis
--list
--lity
--lk
--ll
--lla
--lle
--llo
--lm
--lo
--lon
--ls
--lty
--lu
--lus
--ly
--m
--ma
--man
--map
--mas
--matic
--me
--ment
--mer
--mi
--mic
--mir
--mo
--mon
--mond
--mp
--mpt
--ms
--my
--n
--na
--nal
--name
--nard
--nce
--ncy
--nd
--nda
--ndo
--nds
--ne
--ned
--ner
--nes
--ness
--ney
--ng
--ni
--nia
--nic
--nics
--nie
--ning
--nis
--nk
--nn
--nne
--no
--node
--ns
--nsis
--nt
--nta
--nte
--nto
--nts
--num
--nus
--ny
--o
--oa
--obj
--oc
--ock
--od
--ode
--oe
--of
--og
--ogy
--oi
--ol
--ola
--ology
--om
--ome
--omy
--on
--ond
--one
--ong
--onia
--ons
--ont
--oo
--oon
--op
--or
--ora
--ord
--ore
--ories
--orm
--ors
--ort
--ory
--os
--ose
--ot
--ou
--ough
--ous
--out
--ov
--ova
--ow
--oy
--oyd
--p
--pa
--page
--pe
--ped
--ping
--ply
--po
--ps
--pt
--pur
--q
--r
--ra
--ral
--ran
--ration
--rb
--rd
--re
--red
--ren
--rey
--rg
--ri
--ria
--ric
--rie
--ries
--ris
--rk
--rl
--rn
--ro
--ron
--ros
--rp
--rr
--rry
--rs
--rt
--ru
--rum
--rus
--ry
--s
--sa
--scape
--sch
--se
--sed
--sen
--ser
--servation
--ses
--set
--sh
--shi
--ship
--shire
--si
--sia
--sian
--sis
--sity
--sk
--ski
--sm
--so
--son
--ss
--st
--stein
--ster
--stic
--stics
--ston
--sts
--su
--sus
--sy
--t
--ta
--tal
--tamp
--tation
--te
--tect
--ted
--ter
--tes
--text
--tf
--th
--thing
--ti
--tia
--tial
--tian
--tic
--tics
--ties
--tin
--ting
--tion
--tions
--tis
--title
--tive
--tle
--tling
--to
--ton
--tor
--tory
--tos
--tra
--ts
--tt
--tta
--tte
--tum
--ture
--tus
--ty
--tyle
--type
--tz
--u
--ua
--ual
--ub
--uce
--uck
--ud
--ue
--uel
--ug
--ugh
--uit
--ul
--ula
--ult
--um
--un
--ung
--up
--ur
--ura
--uration
--ure
--ures
--urg
--url
--ury
--us
--ut
--ute
--ution
--ux
--uz
--v
--va
--vb
--ve
--ved
--ver
--vi
--vier
--ville
--vo
--vy
--w
--wa
--way
--west
--wn
--wood
--word
--x
--xy
--y
--ya
--yan
--ye
--yn
--yo
--ys
--z
--za
--zadeh
--ze
--zen
--zer
--zi
--zo
--zz
--ı
--ə
--ς
--а
--е
--и
--ии
--кии
--н
--я
--ء
--ا
--اء
--اب
--ابا
--ابه
--ابی
--ات
--اتا
--اتان
--اتس
--اته
--اتی
--اتیک
--اث
--اج
--اجی
--اح
--اخ
--اخه
--اد
--اده
--ادی
--ار
--ارا
--ارت
--ارد
--اری
--از
--ازد
--ازه
--ازپین
--ازی
--اس
--اسا
--است
--اسپ
--اسپی
--اسی
--اسیون
--اش
--اشت
--اشی
--اض
--اط
--اع
--اعه
--اعی
--اغ
--اغی
--اف
--افته
--افی
--اق
--اقی
--ال
--الا
--الله
--الو
--الی
--ام
--امه
--ان
--انا
--انت
--انتس
--اند
--انس
--انش
--انند
--انه
--انو
--انوس
--انک
--انگ
--انی
--اه
--اها
--اهای
--اهی
--او
--اوری
--اوی
--اي
--اپ
--اپو
--اپور
--اچی
--اژ
--اک
--اکا
--اکان
--اکی
--اگ
--اگا
--ای
--ایت
--اید
--ایس
--ایش
--ایف
--ایم
--این
--ایه
--ایک
--ایی
--ب
--با
--باد
--بار
--باز
--باف
--بال
--بان
--بة
--بت
--بحث
--بخش
--بد
--بر
--برگ
--بری
--بس
--بط
--بع
--بل
--بن
--بند
--به
--بو
--بوز
--بک
--بی
--بین
--ة
--ت
--تا
--تال
--تان
--تب
--تت
--تد
--تر
--ترا
--تری
--ترین
--تز
--تزو
--تس
--تسا
--تسه
--تسو
--تسکی
--تسی
--تش
--تشر
--تع
--تل
--تم
--تن
--ته
--تو
--تور
--توز
--توس
--توم
--تون
--توک
--تي
--تک
--تی
--تیا
--تید
--تیس
--تیسم
--تیم
--تین
--تیو
--تیک
--ث
--ثر
--ثی
--ج
--جا
--جات
--جان
--جت
--جر
--جرد
--جس
--جل
--جلس
--جه
--جو
--جی
--جین
--ح
--حا
--حم
--حمد
--حه
--حی
--خ
--خا
--خان
--خانه
--خت
--خته
--ختی
--ختیار
--خر
--خس
--خش
--خص
--خط
--خو
--خی
--د
--دا
--داد
--دار
--دارد
--داری
--داز
--داشت
--دان
--دت
--دد
--در
--دز
--دس
--دشت
--دل
--دم
--دن
--دند
--ده
--دها
--دهای
--دهی
--دو
--دوز
--دوست
--دون
--دک
--دگان
--دگی
--دی
--دیا
--دیم
--دین
--ذ
--ذهب
--ذی
--ر
--را
--رات
--راس
--ران
--رانی
--ربری
--رة
--رت
--رتز
--رث
--رج
--رجان
--رخ
--رد
--ردو
--رر
--رز
--رس
--رسون
--رش
--رضا
--رعت
--رق
--رل
--رلی
--رم
--رن
--رنگ
--ره
--رها
--رهای
--رو
--رود
--روف
--رون
--روپ
--روک
--روی
--ري
--رژیک
--رک
--رگ
--ری
--ریا
--ریت
--ریس
--رین
--ریک
--رە
--ز
--زا
--زاده
--زاسیون
--زبی
--زد
--زده
--زر
--زش
--زع
--زل
--زلی
--زم
--زمن
--زن
--زنی
--زه
--زو
--زویل
--زگیت
--زی
--زیا
--زیت
--زین
--س
--سا
--ساز
--سازی
--سال
--سان
--سب
--سبی
--ست
--ستا
--ستان
--ستر
--ستم
--ستن
--ستند
--سته
--ستو
--ستگی
--ستی
--سر
--سرا
--سس
--سف
--سفیلد
--سل
--سلاو
--سلم
--سلی
--سم
--سن
--سنت
--سنجی
--سنس
--سه
--سو
--سور
--سول
--سون
--سپ
--سک
--سکا
--سکو
--سکی
--سی
--سیا
--سیان
--سیت
--سیتی
--سین
--سیو
--سیون
--ش
--شا
--شان
--شاه
--شت
--شتات
--شته
--شد
--شدن
--شده
--شر
--شم
--شن
--شناس
--شناسی
--شه
--شهر
--شو
--شون
--شک
--شکن
--شی
--شیر
--ص
--صب
--صد
--صر
--صل
--صیل
--ض
--ضا
--ضات
--ضع
--ضه
--ضی
--ط
--طان
--طر
--طف
--طلب
--طی
--ظ
--ظر
--ظور
--ع
--عا
--عات
--عة
--عت
--علی
--عه
--عی
--غ
--غه
--غی
--ـ
--ف
--فا
--فت
--فتد
--فتند
--فته
--فتی
--فر
--فس
--فسک
--فسکی
--فع
--فق
--فل
--فن
--فه
--فو
--فوس
--فی
--فیل
--ق
--قا
--قان
--قت
--قدر
--قع
--قلی
--قه
--قی
--قین
--قیه
--ك
--ل
--لا
--لار
--لاس
--لام
--لاو
--لت
--لج
--لح
--لد
--لدین
--لر
--لز
--لس
--لسون
--لش
--لق
--لله
--لم
--لمون
--لمی
--لن
--لند
--له
--لو
--لوژی
--لوگ
--لي
--لک
--لی
--لیا
--لیز
--لین
--م
--ما
--مان
--ماه
--مت
--مد
--مر
--مز
--مس
--مل
--مم
--من
--مند
--مه
--مو
--موتو
--موس
--مون
--مپ
--مپوس
--مک
--می
--میر
--مین
--ن
--نا
--ناس
--نال
--نامه
--نان
--نب
--نبرگ
--نة
--نت
--نتال
--نتر
--نتو
--نتینو
--نج
--نجر
--ند
--نده
--ندو
--ندورف
--ندگان
--ندگی
--ندی
--نر
--نز
--نزه
--نس
--نسون
--نسکی
--نسیا
--نسین
--نش
--نف
--نل
--نلو
--نم
--نما
--نن
--نند
--نه
--نو
--نوس
--نوف
--نول
--نچ
--نژ
--نک
--نکو
--نگ
--نگا
--نگام
--نگان
--نگتون
--نگر
--نگز
--نگن
--نگهام
--نگی
--نی
--نیا
--نیان
--نید
--نیم
--نین
--نیه
--نیک
--ه
--ها
--هام
--هاي
--های
--هایش
--هایی
--هد
--هر
--هرست
--هم
--هه
--هو
--هی
--هید
--و
--وا
--وار
--وارا
--وال
--وان
--وب
--وبی
--وت
--وتا
--وتس
--وتو
--وتی
--وث
--وح
--وحه
--وخ
--ود
--ودشت
--وده
--ور
--ورا
--ورد
--ورس
--ورف
--وره
--ورو
--ورگ
--وری
--وز
--وزا
--وزی
--وس
--وسا
--وسور
--وسکی
--وسی
--وش
--وشی
--وط
--وع
--وعی
--وف
--وفسکی
--وق
--وقع
--ول
--ولا
--ولی
--وم
--ومتر
--ومه
--ون
--ونا
--ونت
--وند
--ونه
--ونو
--ونگ
--ونی
--ونیک
--وه
--وها
--وو
--ووا
--وود
--وور
--ووه
--ووو
--ووی
--وویتسه
--وویچ
--وي
--وپ
--وپاتی
--وپل
--وچ
--وچی
--وژ
--وژی
--وک
--وکا
--وکس
--وکه
--وکو
--وکی
--وگ
--وگا
--وی
--ویل
--ویه
--ویچ
--ویک
--ویی
--ى
--ي
--يان
--يت
--يد
--ير
--يل
--يم
--ين
--يه
--٠
--١
--٧
--٨
--٩
--پ
--پا
--پات
--پاتی
--پار
--پت
--پتون
--پذیر
--پر
--پس
--پل
--په
--پو
--پور
--پوس
--پول
--پی
--چ
--چا
--چای
--چر
--چن
--چه
--چو
--چی
--چیا
--ژ
--ژن
--ژه
--ژو
--ژک
--ژی
--ژیک
--ژە
--ک
--کا
--کات
--کار
--کاری
--کان
--کاو
--کت
--کتر
--کتریک
--کد
--کده
--کر
--کرد
--کردن
--کرده
--کرفت
--کس
--کش
--کشان
--کشن
--کشی
--کف
--کل
--کلا
--کلس
--کم
--کن
--کننده
--که
--کو
--کوت
--کور
--کوز
--کوس
--کوف
--کوفسکی
--کوم
--کوه
--کوپ
--کی
--گ
--گا
--گار
--گان
--گاه
--گت
--گتون
--گذار
--گر
--گرا
--گران
--گرانه
--گرایی
--گرد
--گری
--گز
--گزار
--گس
--گشا
--گل
--گم
--گن
--گه
--گو
--گون
--گوی
--گی
--گیر
--گیری
--ی
--یا
--یار
--یان
--یب
--یة
--یت
--یتا
--یتس
--یتسا
--یتسه
--یته
--یتو
--یتی
--یث
--یج
--یح
--یخته
--ید
--یدس
--یدن
--یدند
--یده
--یدو
--یر
--یرا
--یران
--یرو
--یری
--یز
--یزم
--یزه
--یزی
--یس
--یسا
--یست
--یستی
--یسم
--یش
--یف
--یق
--یل
--یلا
--یلد
--یلو
--یم
--یما
--یمو
--یمی
--ین
--ینا
--ینز
--ینو
--ینوس
--ینگ
--ینگتون
--ینگز
--ینی
--یه
--یها
--یو
--یور
--یوس
--یوم
--یون
--یوو
--یپ
--یچ
--یک
--یکا
--یکر
--یکس
--یکه
--یکو
--یکول
--یگ
--یگو
--یی
--ییان
--ییم
--ە
--۰
--۰۰
--۰۱
--۱
--۲
--۳
--۴
--۵
--۶
--۷
--۸
--۹
