!
"
#
##0
##1
##10
##11
##12
##13
##14
##15
##16
##17
##18
##19
##2
##20
##21
##22
##23
##24
##25
##26
##27
##28
##29
##3
##30
##31
##32
##33
##34
##35
##36
##37
##38
##39
##4
##40
##41
##42
##43
##44
##45
##46
##47
##48
##49
##5
##50
##51
##52
##53
##54
##55
##56
##57
##58
##59
##6
##60
##61
##62
##63
##64
##65
##66
##67
##68
##69
##7
##70
##71
##72
##73
##74
##75
##76
##77
##78
##79
##8
##80
##81
##82
##83
##84
##85
##86
##87
##88
##89
##9
##90
##91
##92
##93
##94
##95
##96
##97
##98
##99
$
%
&
'
(
)
*
+
,
-
.
/
0
00
000
0002
0003
0004
0006
001
002
0021
0022
00265
003
004
005
006
007
008
009
01
010
011
013
0140
018
02
0261
03
0362
04
05
06
07
08
09
1
10
100
1000
1001
1002
1006
1007
101
1016
1017
102
1021
103
1037
1038
1039
104
1046
105
1056
106
1063
107
1073
1074
108
1080
1086
1088
109
1093
1097
1098
11
110
1101
1103
1109
111
1111
112
1126
1128
113
1136
114
1145
1146
115
116
117
1177
118
1186
119
12
120
121
122
123
124
125
126
127
128
129
13
130
131
132
133
134
135
1351
136
1365
137
1371
138
1383
1384
1385
1386
1387
1388
1389
139
1390
1391
1392
1393
1394
1395
1396
1397
1398
1399
14
140
1400
1401
141
142
143
144
145
146
14651858
147
148
149
15
150
1500
151
152
153
154
155
156
157
158
159
16
160
1600
161
162
163
164
165
166
167
168
169
17
170
171
172
173
174
175
176
177
178
1789
179
18
180
1800
181
182
183
184
185
186
1861
1862
1863
1864
187
1870
1872
188
1880
1881
1885
1887
1888
1889
189
1890
1892
1893
1894
1895
1896
1897
1898
1899
19
190
1900
1901
1902
1903
1904
1905
1906
1907
1908
1909
191
1910
1911
1912
1913
1914
1915
1916
1917
1918
1919
192
1920
1921
1922
1923
1924
1925
1926
1927
1928
1929
193
1930
1931
1932
1933
1934
1935
1936
1937
1938
1939
194
1940
1941
1942
1943
1944
1945
1946
1947
1948
1949
195
1950
1951
1952
1953
1954
1955
1956
1957
1958
1959
196
1960
1961
1962
1963
1964
1965
1966
1967
1968
1969
197
1970
1971
1972
1973
1974
1975
1976
1977
1978
1979
198
1980
1981
1982
1983
1984
1985
1986
1987
1988
1989
199
1990
1991
1992
1993
1994
1995
1996
1997
1998
1999
2
20
200
2000
2001
2002
2003
2004
2005
2006
2007
2008
2009
201
2010
2011
2012
2013
2014
2015
2016
2017
2018
2019
202
2020
2021
2022
203
204
205
206
207
208
209
21
210
211
212
213
214
215
216
217
218
219
22
220
221
222
223
224
225
226
227
228
229
23
230
2305
2307
231
232
233
234
235
236
237
238
239
24
240
241
242
243
244
245
246
247
248
249
25
250
251
252
253
254
255
256
257
258
259
26
260
261
262
263
264
265
266
267
268
269
27
270
271
272
273
274
275
276
277
278
279
28
280
281
282
283
284
285
286
287
288
289
29
290
291
292
293
294
295
296
297
298
299
3
30
300
301
302
303
304
305
306
307
3077
308
309
31
310
311
312
313
314
315
316
317
318
319
32
320
321
322
323
324
325
326
327
328
329
33
330
331
332
333
334
335
336
337
338
339
34
340
341
342
343
345
346
347
349
35
350
351
353
355
356
357
359
36
360
361
362
363
365
37
370
371
373
375
38
380
385
387
39
391
393
395
397
4
40
400
401
404
405
41
410
412
415
419
42
420
425
429
43
4331
44
443
445
45
450
46
465
47
470
471
474
48
486
49
5
50
500
51
512
52
520
521
527
53
54
540
55
550
56
57
58
59
6
60
600
601
61
62
629
63
64
642
65
66
67
6736
674
68
69
691
7
70
700
71
72
729
73
74
75
76
77
78
7864
79
8
80
800
802
81
8108
82
83
84
84596
8493
85
85291
86
87
88
89
9
90
900
91
92
93
94
95
96
964
97
978
9781568593029
98
99
:
;
<
=
>
?
@
[
\
]
^
_
`
a
aa
aaron
ab
abbas
abbott
abc
abd
abdul
abdullah
abgerufen
abi
about
above
abprs
abraham
abs
abstract
abu
abuse
ac
acad
academic
academy
access
accessdate
accessed
accident
according
account
accounts
ace
acid
acids
acm
across
act
acta
acting
action
activation
active
activist
activities
activity
actor
actors
actress
acts
acute
ad
ada
adam
adams
adaptation
add
added
addison
additional
address
adds
adjusted
administration
administrative
adolf
adrian
adult
adults
advance
advanced
advances
adventure
adventures
ae
aero
aerodrome
aeronautics
aerospace
af
afc
affaires
affairs
afghan
afghanistan
afp
africa
african
afs
after
ag
again
against
age
aged
agency
agent
agents
ages
ago
agr
agreement
agricultural
agriculture
ah
ahead
ahmad
ahmed
ai
aid
aids
ain
air
aircraft
airline
airlineroute
airlines
airport
airports
airways
ais
aj
ak
aka
al
ala
alabama
alain
alan
alaska
albany
albert
alberta
alberto
album
albums
alcohol
alejandro
alessandro
alex
alexa
alexander
alexandra
alexandre
alexis
alfred
algebra
algeria
algorithm
algorithms
ali
alice
alien
aligned
alison
alive
aljazeera
all
alla
allan
alle
allen
alliance
allison
allmovie
allmusic
allowed
almost
alone
along
alpha
alpine
already
als
also
alt
altai
alternative
although
always
am
amanda
amar
amazing
amazon
ambassador
amber
amc
amd
ame
america
american
americans
amid
amino
amir
ammad
amnesty
among
amp
amsterdam
amt
amy
an
ana
analysis
analytical
anatomy
ancestry
ancient
and
anders
anderson
andre
andrea
andreas
andreeva
andrew
andrews
android
andy
angel
angela
angeles
angelo
angle
anglo
angola
animal
animals
animated
animation
anime
anita
ankara
ann
anna
annals
anne
annie
anniversary
announce
announced
announcement
announces
annual
annurev
another
ans
answer
answers
anthologie
anthony
anthropology
anti
antiquity
antoine
anton
antonio
any
ao
ap
apa
apache
api
apj
apollo
app
appear
appearance
appearances
appendix
apple
application
applications
applied
appointed
approach
approaches
approx
apps
apr
april
ar
ara
arab
arabia
arabian
arabic
aragatsotn
ararat
arc
arch
archaeological
archaeology
architect
architectural
architecture
archive
archived
archivedate
archives
are
area
areas
arena
argentina
aria
arizona
arkansas
arm
armavir
armed
armenia
armenian
armenians
arms
armstrong
army
arnold
around
array
arrested
arrondissement
ars
arsenal
art
arthur
article
articles
artificial
artist
artists
arts
artsakhlib
arxiv
as
ashley
asia
asian
ask
asked
asp
aspects
aspx
asriran
assassin
assault
assembly
assessment
associated
associates
association
associations
astm
aston
astro
astronomical
astronomy
astrophysical
astrophysics
at
atc
atheism
atheist
athens
athlete
athletes
athletic
athletics
atlanta
atlantic
atlas
atomic
atp
attack
attacks
attempt
attention
au
audi
audio
auf
aug
august
aus
austin
australia
australian
austria
austrian
auteurs
author
authority
authors
autism
auto
automobile
autonomous
aux
av
available
ave
avengers
avenue
average
aviation
avn
avproduction
award
awarded
awards
away
ax
az
azerbaijan
azerbaijani
azərbaycan
b
ba
baba
baby
bach
back
background
bad
baden
bafta
bag
baghdad
baha
bahrain
bailey
baker
baku
bakı
balance
baldwin
ball
baltimore
ban
band
bang
bangladesh
bank
banks
bar
barbara
barcelona
barclays
barker
barnes
baron
barrett
barry
bartlett
barton
bas
base
baseball
based
basic
basis
basketball
bat
batman
battery
battle
bauer
bay
bayerisches
bayern
bb
bbc
bc
bd
be
beach
bear
beast
beat
beautiful
beauty
bec
became
because
beck
becker
become
becomes
bed
bee
been
beer
beethoven
before
begin
beginning
begins
behavior
behavioral
behaviour
behind
behnegarsoft
bei
beijing
being
belediyye
belgian
belgium
believe
bell
belle
bello
belt
ben
benedict
benefits
benjamin
bennett
benz
ber
berg
berger
berkeley
berlin
berlinale
bernard
berry
bert
best
beta
better
between
beverly
bevo
beyond
bf
bh
bi
bibcode
bible
biblical
bibliography
bibliotheca
bid
biden
big
biggest
bill
billboard
billion
billy
bin
binary
binding
bio
biochem
biochemical
biochemistry
biographical
biographies
biography
biol
biological
biology
biotechnology
bir
bird
birdlife
birds
birmingham
birth
birthday
bis
bishop
bit
biz
bj
bl
black
blackpink
blackwell
blade
blair
blake
blast
blind
block
blog
blogs
blood
bloody
bloomberg
bloomsbury
bloustein
blu
blue
blues
blvd
bmatrix
bmc
bmj
bmw
bn
bo
board
boat
bob
bobby
boca
bodies
body
boeing
bold
boldsymbol
bollywood
bomb
bombing
bond
bone
book
books
bordas
border
boris
born
borough
borys
boss
boston
bosworth
both
bound
bowie
box
boxing
boxofficemojo
boxrec
boy
boyd
boys
bp
br
brad
bradley
brady
brain
branch
brand
brandenburg
brandon
brazil
brazilian
brca
break
breaking
breaks
breast
brent
brett
brian
bridge
brief
brien
bright
brill
bring
brings
brinkster
bristol
britain
britannica
british
britney
broadcast
broadcasting
broadway
broken
bronze
brooklyn
brooks
bros
brother
brothers
brown
browne
bruce
bruno
brunswick
bryan
bryant
bs
bts
bu
buchanan
budget
buffalo
build
building
buildings
built
bulgaria
bull
bulletin
bund
bundesamt
bundesliga
bureau
burke
burns
burton
bus
bush
business
businessweek
but
butler
buy
bx
by
byzantine
c
ca
cabinet
cable
cache
caesar
cafe
cairo
calendar
calibrating
california
call
called
calls
cambridge
came
camera
cameras
cameron
camp
campaign
campbell
campus
can
canada
canadian
canal
cancer
candidate
cannes
canon
canton
cao
cap
capacity
cape
capital
captain
capture
car
carbon
card
care
career
carey
cargo
caribbean
carl
carlo
carlos
carmen
carol
carolina
caroline
carr
carrier
carroll
cars
carter
case
cases
cash
caspian
cast
casting
castle
castro
cat
catalog
catalogue
category
cathedral
catherine
catholic
cats
caucasus
cause
causes
cave
cb
cbc
cbs
cc
cd
cdc
cdna
cdot
cdots
cdp
ce
celebrity
cell
cells
cellular
censos
census
center
centers
central
centre
centuries
century
ceo
ceremony
certain
certifications
cf
cg
cgi
ch
cha
chain
chairman
challenge
challenges
chamber
chambers
champion
champions
championship
championships
chan
chance
chang
change
changed
changes
changing
channel
chaos
chapman
chapter
char
character
characteristics
characterization
characters
charge
charles
charlie
charlotte
chart
charter
charts
chase
che
check
checksum
chelsea
chem
chemical
chemistry
chen
cheng
chess
chester
chi
chicago
chicken
chief
child
childhood
children
chile
china
chinese
chip
chisholm
cho
choi
choice
choose
chosun
chris
christ
christian
christianity
christie
christina
christine
christmas
christoph
christophe
christopher
chromosome
chronic
chronicle
chronology
chu
chung
church
ci
cia
cid
cine
cinema
circ
circle
circuit
cis
citation
cite
cited
citeseerx
cities
citizen
citizens
city
civil
civilization
cj
ck
cl
claim
claims
claire
clark
clarke
clash
class
classic
classical
classics
classification
claude
claudia
claudio
clay
clayton
cle
clean
clear
cleveland
click
clifford
climate
clin
clinical
clinton
clio
clock
cloning
close
closed
cloud
club
clubs
cluster
cm
cmt
cn
cnbc
cnet
cnn
co
coach
coalition
coast
coauthors
cochrane
code
codes
coding
coffee
cognitive
cohen
col
cold
cole
coleman
colin
collaboration
collapse
collected
collection
collections
college
collider
collins
colombia
colonial
color
colorado
columbia
column
com
combat
combinations
combined
come
comedy
comes
comic
comics
coming
comingsoon
command
commander
comment
commentary
commerce
commercial
commission
commissioner
committee
common
commons
commonwealth
communication
communications
communist
communities
community
companies
companion
company
comparative
comparison
competition
complete
complex
component
composite
composition
compound
compounds
comprehensive
computational
computer
computers
computing
con
concept
concepts
concert
concise
condition
conditions
confederate
confederation
conference
confirmed
confirms
conflict
congo
congress
congressional
connecticut
connection
connor
conquest
consequences
conservation
considered
conspiracy
constant
constitution
constitutional
construction
consumer
contact
containing
contains
contemporary
content
contest
context
continue
continues
contract
contribution
contributions
contributors
control
controlled
controversy
convention
conversation
conversion
cook
cool
cooper
cooperation
coordination
cop
copa
copper
copy
copyright
core
cornell
corner
coronavirus
corp
corporate
corporation
corps
cos
cost
costa
cot
could
council
count
counter
countries
country
county
coup
course
court
cov
cover
coverage
covid
cox
cp
cpu
cr
craig
crash
crater
crawford
crazy
crc
create
created
creation
creative
creator
credit
credits
creed
creek
crew
crime
crimes
criminal
crisis
critic
critical
critics
critique
croatia
cross
crossing
crown
cruise
cruiser
crusade
crusades
cruz
cry
crystal
cs
css
ct
ctor
cu
cuba
cult
cultural
culture
cultures
cup
cure
currency
current
curtis
cut
cv
cw
cyber
cycle
cycling
cyclingnews
cyclist
cynthia
cyp
cyprus
cyrus
cz
czech
d
da
daily
dakota
dale
dallas
dam
damage
dame
dan
dana
dance
dancing
dane
dangerous
daniel
danish
danny
dans
dar
dark
darwin
das
data
database
databaseolympics
databases
databasesports
date
dated
datei
datenverarbeitung
dates
daughter
dave
david
davidson
davies
davis
dawn
dawson
day
days
db
dc
dd
de
dead
deadline
deadly
deal
dean
death
deaths
debate
deborah
debut
debuts
dec
decade
decay
december
decision
declaration
decline
deep
def
default
defence
defense
definition
definitive
degree
dehydrogenase
dei
del
delaware
delhi
delivery
dell
della
delta
dem
demand
democracy
democratic
demographic
demographics
den
denis
denise
denmark
dennis
density
department
dependent
depp
depression
depth
der
derby
derek
derived
des
description
desert
design
designer
desktop
despite
destroyer
destruction
det
detail
detailed
details
detection
detective
determination
detroit
deutsche
deutschen
deutscher
deutschland
dev
developer
developing
development
developmental
device
devices
devil
dezember
df
dh
di
dia
diabetes
diagnosis
diamond
diana
diane
diary
dick
dictionary
did
didn
die
died
diego
dies
diet
dieter
difference
differences
different
differential
digital
dimensional
din
dio
diplomatic
dir
direct
directed
direction
director
directors
directory
disaster
discography
discogs
discovery
discussion
disease
diseases
disney
disorder
disorders
display
displaystyle
distance
distribution
district
districts
diversity
division
dixon
dj
dk
dl
dm
dna
dns
do
doc
docs
doctor
document
documentary
documentation
documents
does
doesn
dog
dogs
doi
dollar
domain
domestic
dominic
don
donald
done
dong
door
dorothy
dos
dot
dots
double
doug
douglas
dover
down
download
dp
dq
dr
draft
dragon
drama
draw
dream
dreams
drew
drive
driver
drop
drops
drug
drugs
dry
ds
dsm
dt
du
dual
dubai
dublin
due
duke
duncan
during
dutch
duty
dvd
dw
dx
dy
dylan
dynamic
dynamics
dynasty
dz
e
ea
each
eagle
earl
earle
earliest
early
earth
earthquake
east
eastern
easy
eb
ebert
ec
echo
eclipse
ecological
ecology
economic
economics
economist
economy
ed
eddie
edgar
edge
edinburgh
edited
edition
editions
editor
editorial
editors
edmund
eds
edu
eduardo
education
educational
edward
edwards
edwin
ee
eesti
effect
effective
effects
efficacy
egypt
egyptian
ehsan
ei
eight
eighteenth
ein
eine
einstein
ej
ek
el
elected
election
elections
electoral
electric
electrical
electron
electronic
electronics
element
elements
elena
eli
elisabeth
elite
eliteprospects
elizabeth
ell
ellen
elliott
ellis
else
elsevier
em
embassy
emergency
emerging
emil
emily
eminem
emirates
emma
emmanuel
emmy
emperor
empire
empires
emporis
empty
en
encyclopaedia
encyclopedia
encyclopædia
end
ending
ends
energy
eng
engine
engineer
engineering
engineers
england
english
enough
ensembl
ensmusg
entekhab
enter
enterprise
enterprises
entertainment
entitled
entrez
entry
environment
environmental
ep
epa
epic
epicenters
episode
epsilon
equipment
equiv
er
era
erfu
eric
erich
erik
ernest
ernst
error
es
esa
escape
eshia
espan
espenak
espn
essay
essays
essential
est
esta
estadi
estadio
estate
estimate
estimated
estimates
estonia
estonian
et
eta
etc
ethics
ethnic
ethnologue
eu
eugene
eun
eur
euro
eurobasket
eurogamer
eurohockey
euronews
europa
europe
european
ev
eva
evaluation
evan
evans
eve
even
evening
event
events
ever
every
everything
evidence
evil
evolution
evolutionary
ew
ex
example
exchange
exclusive
executive
exhibition
exit
exp
expansion
experience
experiment
experimental
expert
explained
explicit
exploration
explorer
express
expression
extended
extension
external
extra
extragalactic
extreme
eye
eyes
ez
f
fa
faa
faber
face
facebook
faces
fact
factbook
factfinder
factor
factors
factory
facts
faculty
failure
fair
faith
fall
falls
false
fame
families
family
famous
fan
fandango
fans
fantasy
faq
far
fararu
farm
farmer
fars
farsi
farsnews
fasc
fashion
fast
fat
fatality
fate
father
favorite
fbi
fc
fchd
fda
fe
fear
feat
feature
features
feb
february
federal
federation
feed
feel
feet
felix
female
feminism
feminist
ferdinand
ferguson
ferna
fernando
ferrari
festival
fever
few
ff
fi
fiba
fiction
fide
field
fields
fifa
fifth
fifty
fig
fight
fighter
fighters
fighting
figure
figures
file
files
film
filming
films
fina
final
finale
finally
finals
finance
financial
find
finding
finds
fine
finland
finnish
fire
firm
first
fischer
fish
fisher
fitzgerald
fivb
five
fl
flag
flash
fleet
fleming
fletcher
flight
flights
flood
floor
flora
florence
florida
flow
flower
floyd
fluid
fly
flying
fm
fo
focus
follow
following
foo
food
foods
foot
footbalers
football
footballdatabase
footballer
footballers
footballfacts
for
forbes
force
forces
ford
foreign
forest
forestry
forever
forgotten
forkel
form
format
formation
former
formerly
forms
formula
fort
fortschreibung
fortune
forum
forward
foster
found
foundation
foundations
founder
four
fourth
fox
fp
fr
frac
frame
framework
franc
france
frances
francesco
francis
francisco
franco
frank
frankfurt
franklin
franz
fraser
fre
fred
frederick
free
freebsd
freedom
freeman
french
frequency
fresh
friday
friedman
friedrich
friend
friends
fritz
from
front
frontier
frontiers
fruit
frye
ft
fu
fuel
full
fun
function
functional
functions
fund
fundamental
fundamentals
further
fusion
fussballdaten
future
fußball
g
ga
gabriel
gaga
galaxy
gale
gallery
galstyan
game
gamer
games
gamespot
gaming
gamma
gang
gaon
gap
garci
garcia
garde
garden
gardens
gardner
gary
gas
gate
gates
gateway
gay
gaza
gazette
gazetteer
gb
gc
gdp
ge
gear
gebietsstand
gegharkunik
gemeinden
gen
gender
gene
genealogy
general
generation
generic
genes
genesis
genet
genetic
genetics
geneva
genius
genocide
genome
genomics
genus
geo
geoffrey
geographic
geographical
geography
geological
geology
geometry
geonames
georg
george
georges
georgia
georgian
geospatial
geq
ger
gerald
gerard
gerhard
german
germany
geschichte
get
gets
getting
gewog
ghana
ghost
gi
giant
gibson
gil
gilbert
gions
giorgio
giovanni
girl
girls
gitashenasi
github
giuseppe
give
given
gives
gl
glantz
glasgow
glass
glen
glenn
global
globe
glory
glossary
glottolog
gm
gmbh
gmina
gnu
go
goal
goals
god
goddard
gods
goes
going
gold
goldberg
golden
goldman
golf
gomez
gone
gonza
gonzalez
good
google
gordon
got
gouv
gov
governance
government
governor
governors
gp
gps
gr
grace
graduate
graham
grammar
grammy
grand
grande
grands
grant
graph
graphics
grave
gravity
gray
grcm
great
greater
greatest
greece
greek
green
greene
greenwood
greg
gregory
grey
grid
griffin
gross
ground
group
grouped
groups
grove
growing
growth
gruyter
gs
gt
gu
guard
guardian
guest
guez
guide
guidelines
guides
guild
guillaume
guinea
guinness
gulf
gun
guy
gymnast
h
ha
haaretz
habib
had
hai
hair
hal
half
hall
ham
hamburg
hamid
hamilton
hammarstro
hammer
hampshire
hamshahrionline
han
hancinema
hand
handball
handbook
hands
hannah
hans
hansen
happened
happy
haqqında
harald
harbor
hard
hardware
hardy
harold
harper
harpercollins
harris
harrison
harry
hart
harvard
harvey
has
hasan
haspelmath
hassan
hat
have
haven
having
hawaii
hay
hayes
hbo
hd
hdl
he
head
headed
heads
health
heard
heart
hearts
heat
heather
heaven
heavy
hebrew
hee
heidelberg
height
heights
heinrich
heinz
held
helen
hell
hello
help
helsinki
henderson
henri
henry
her
herald
herbert
here
heritage
herman
hermann
herna
hero
heroes
het
hi
hidden
hide
high
higher
highest
highlights
highly
highway
hill
hills
him
himself
hindu
hip
his
histoire
historia
historian
historic
historical
histories
historiography
history
hit
hitler
hits
hiv
hl
hmas
hmcs
hms
ho
hockey
hockeydb
hoffman
hold
holden
holders
holding
holdings
hole
holiday
holland
hollywood
holmes
holocaust
holstein
holt
holy
home
homepage
honda
hong
honor
hood
hoon
hop
hope
hopkins
horizon
hormone
horn
horror
horse
hospital
hossein
host
hot
hotel
hotspur
houghton
hour
hours
house
housing
houston
how
howard
however
hp
hr
ht
htm
html
http
https
hu
huang
hudson
huffington
hugh
hughes
hugman
hugo
hum
human
humans
hundred
hung
hungarian
hungary
hunger
hunt
hunter
hwang
hy
hybrid
hydrogen
hye
hyo
hyun
hyundai
i
ia
iaaf
ian
iata
ibid
ibm
ibn
ibna
ibrahim
ic
icao
ice
icon
id
idaho
ide
idea
ideas
identification
identity
ideology
idol
ie
iec
ieee
if
ifpi
ign
ignored
igor
ii
iii
ij
il
ilbo
illinois
illustrated
im
image
images
imaging
imam
imdb
immigration
immunology
impact
imperial
implementation
implications
important
in
ina
inc
include
included
includes
including
income
incorporated
incorporates
increase
independence
independent
index
india
indian
indiana
indicators
indiewire
individual
indo
indonesia
induced
industrial
industries
industry
inequality
infection
infectious
influence
info
informasiya
information
infrastructure
infty
inhibitor
initial
initiative
injury
inn
inner
innovation
inorganic
input
inquiry
ins
inside
insider
insight
inspired
instagram
institut
institute
institution
institutions
instituto
instruments
int
integrated
integration
intel
intellectual
intelligence
intelligent
inter
interaction
interactions
interactive
interest
interface
interior
internal
international
internationale
internet
interpretation
interview
interviews
into
introduction
invalid
invasion
investigation
investment
involved
io
ioc
ion
ios
iowa
ip
ipac
iphone
ipv
ir
ira
iran
iranian
iranians
iranica
iranicaonline
iranwire
iraq
iraqi
ireland
irib
iris
irish
irna
iron
is
isaac
isbn
isis
islam
islamic
island
islands
isna
iso
israel
israeli
issf
issn
issue
issues
ist
istanbul
it
italia
italian
italiana
italic
italy
ite
item
its
itunes
iucn
iupac
iv
ivan
ix
j
ja
jack
jackie
jackson
jacob
jacobs
jacques
jae
jahresbeginn
jake
jama
james
jamie
jan
jane
janet
jang
january
japan
japanese
jason
java
javascript
javier
jay
jazeera
jazz
jb
jbc
jc
jd
je
jean
jeff
jefferson
jeffrey
jenkins
jennifer
jensen
jeong
jeremy
jerome
jerry
jersey
jerusalem
jesse
jessica
jesus
jet
jewish
jews
jf
jh
ji
jill
jim
jimmy
jin
jj
jl
jm
jo
joan
job
jobs
joe
joel
johan
johann
johannes
john
johnny
johns
johnson
johnston
join
joins
joint
jon
jonathan
jones
jong
joo
joongang
jordan
jorge
jose
josef
joseph
josh
joshua
journal
journalist
journals
journey
joy
joyce
jp
jpg
jr
js
jstor
ju
juan
judge
judith
judo
judoinside
jul
julia
julian
julie
julien
julio
julius
jully
july
jump
jun
junction
june
jung
juni
junior
just
justice
justin
juventus
jw
k
ka
kabul
kai
kane
kang
kansas
kaplan
karabakh
karate
karen
karl
kate
katherine
kathleen
katie
katy
katz
kaufman
kay
kazakhstan
kb
kbs
kd
ke
keep
keith
kelly
ken
kennedy
kenneth
kent
kentucky
kenya
ketab
kevin
kevork
key
kg
khabaronline
khamenei
khan
khomeini
ki
kia
kicker
kid
kids
kiesling
kill
killed
killer
killing
kills
kim
kinase
kind
king
kingdom
kings
kirk
kiss
kit
kj
kl
klaus
klein
km
knight
know
knowledge
known
knox
ko
koch
kojian
komitəsi
kommunikationstechnologie
kong
kora
korea
korean
kosovo
kr
kra
krai
kramer
krause
kroll
ks
ksh
ku
kumar
kurdish
kurdistan
kurds
kurt
kuwait
kyiv
kyle
kyung
l
la
lab
label
labor
laboratory
labour
lac
lady
lagarde
lake
lakes
lambda
lambert
lan
lana
lancet
land
landesamt
landesbetrieb
landing
lands
landscape
lane
lang
langle
language
languages
lanham
lanka
large
largest
larry
lars
las
laser
last
late
later
latest
latin
latvia
launch
launched
launches
laura
lauren
laurence
laurent
law
lawrence
laws
lawyer
lay
layer
lb
lc
ldots
le
lead
leader
leaders
leadership
leading
leads
league
learn
learning
least
leave
leaves
lebanon
lecture
lectures
led
lee
left
legacy
legal
legend
legends
legislative
leiden
leigh
leipzig
length
lens
leo
leon
leonard
leonardo
leq
les
lesbian
leslie
less
lessons
let
lett
letter
letters
level
levels
levy
lewis
lex
lez
lg
lh
li
liam
lib
liberal
liberation
liberty
libraries
library
libya
license
lie
life
liga
light
lights
like
likely
lil
lim
lima
limit
limited
limits
lin
lincoln
linda
lindsay
line
linear
lines
linguistic
linguistics
link
linked
linkedin
links
linux
lion
lippincott
liquid
lisa
list
listed
listen
listing
lists
literary
literature
litte
little
littlefield
liu
live
liver
liverpool
lives
living
lkerung
lkerungsfortschreibung
lkerungsstandes
ll
llc
llenden
ller
lloyd
lm
ln
lo
load
loan
local
localization
located
location
locations
lock
lodge
log
logan
logic
london
lonely
long
longer
look
looking
looks
lookup
loop
lopez
lord
lorenzo
lori
los
loss
lost
lot
lotus
louis
louise
louisiana
love
low
lower
lp
lr
ls
lst
lt
ltd
lu
luca
lucas
lucy
ludwig
luigi
luis
luke
lunar
lung
luxembourg
lynch
lynn
lyon
m
ma
mac
macdonald
machine
machines
mackenzie
macmillan
mad
made
madelung
madison
madrid
mag
magazine
magic
magiran
magnetic
mai
mail
main
maine
mainstream
maint
majlis
major
make
makes
making
malaysia
malcolm
male
mali
malta
mammal
mammalian
mammals
mamrot
man
management
manager
manchester
manga
mann
manual
manuel
manufacturing
many
map
mapping
maps
mar
marano
marc
marcel
march
marco
marcus
margaret
mari
maria
marie
marina
marine
mario
marion
maritime
mark
market
marketing
markets
marks
markup
markus
marriage
married
mars
marshall
martha
marti
martin
marvel
marx
mary
maryland
marz
mason
mass
massachusetts
massacre
massive
master
masters
match
matches
material
materials
math
mathbb
mathbf
mathcal
mathematical
mathematics
mathop
mathrm
mathworld
matrix
matt
matter
matthew
matthews
matthias
maurice
max
maxwell
may
maya
mayer
mayo
mayor
mayors
mazda
mb
mbc
mbox
mc
mccarthy
mcdonald
mcfarland
mcgraw
mclaren
mcnary
md
me
mean
meaning
means
measure
measurement
mechanical
mechanics
mechanism
mechanisms
mecklenburg
med
medal
media
mediated
medical
medicinal
medicine
medicines
medien
medieval
mediterranean
medium
meet
meeting
meets
megan
mehdi
mehr
mehran
mehrnews
melbourne
melissa
melli
member
members
membership
membrane
memoirs
memorial
memories
memory
men
mental
mer
mercedes
merck
mercury
merriam
mesh
message
messi
met
meta
metabolism
metacritic
metal
metals
method
methodology
methods
metro
metropolitan
mexican
mexico
meyer
mez
mf
mg
mi
mia
miami
michael
michard
michel
michele
michelle
michigan
micro
microbiology
microsoft
mid
middle
middleton
midnight
mie
mifflin
might
migration
miguel
mike
mil
milan
milano
mile
miles
military
milk
mill
millennium
miller
million
mills
milton
min
mind
mine
mineral
mini
minimum
mining
ministe
minister
ministry
minneapolis
minnesota
minor
minority
minutes
mirror
miss
missile
missing
mission
mississippi
missouri
mit
mitchell
mix
mixed
mj
mk
ml
mm
mn
mo
mobile
mod
mode
model
modeling
models
modern
module
mohamed
mohammad
mohammed
mojo
mol
molecular
momen
moment
mon
monaco
monday
monde
money
mongabay
monica
monitor
monitoring
monroe
monster
montana
monte
montgomery
month
monthly
months
montreal
monument
monuments
moon
moore
moral
more
morgan
morning
morocco
morris
morrison
mortality
morton
moscow
mosque
most
motel
mother
motion
motor
mount
mountain
mountains
mouse
move
movement
movements
moves
movie
movies
moving
moyen
mp
mr
mri
mrna
mrs
ms
msn
mt
mtv
mu
much
muhammad
muir
multi
multiple
mun
mundo
munich
municipal
municipales
municipalite
municipalities
municipality
munzinger
murder
murphy
murray
muscle
muse
museum
music
musical
muslim
muslims
must
mustafa
mutation
mutations
mv
mw
mx
my
myers
mystery
myth
mythology
myths
n
na
nabla
nach
nacional
nad
nagorno
nakamura
nam
name
named
names
nancy
nas
nasa
nasco
nash
nasr
nat
natalie
nathan
nation
national
nationalism
nations
native
natl
nato
natur
natural
nature
naval
naver
navy
nazi
nb
nba
nbc
nbsp
nc
ncbi
nchen
nchez
nd
ndez
ne
near
nearly
nebraska
ned
nederland
need
needs
negative
neil
nellie
nelson
neo
nepal
nepenthes
neq
nerve
net
netflix
netherlands
network
networks
neural
neurology
neuroscience
nevada
never
new
newman
news
newsen
newspaper
newspapers
newstext
newsweek
newton
next
nez
ng
ngc
ngel
nh
ni
nica
nice
nicholas
nick
nicola
nicolas
nicole
niedersachsen
nielsen
nigel
nigeria
night
nights
nih
nil
nina
nine
nineteenth
nintendo
nist
nj
nk
nl
nlai
nlm
nm
nme
nn
no
noah
nobel
nobelprize
noble
node
noise
nomenclature
nominations
nominees
non
nord
nordhoff
norfolk
normal
norman
north
northern
northwest
norton
norway
norwegian
nos
not
note
notes
nothing
notification
nov
nova
novel
november
now
np
npr
nr
ns
nsa
nt
nu
nuclear
null
number
numbers
numeric
nursing
nutrition
ny
nytimes
nz
o
oak
obama
obituary
object
objects
oblast
observations
observatory
observer
occupation
ocean
och
oclc
oct
october
odyssey
oecd
of
off
offers
office
officer
officers
official
officially
officials
often
og
oh
ohio
oil
ois
ok
oklahoma
ol
old
oldest
oldid
olga
oliver
olivia
olivier
olympedia
olympic
olympics
om
oman
omar
omega
on
once
one
online
only
ontario
op
opac
open
opening
opens
opera
operating
operation
operations
operatorname
opinion
opposition
optical
optimization
option
or
oral
orange
order
orders
oregon
org
organic
organisation
organization
organizations
oricon
orient
oriental
orientation
origin
original
originally
origins
orlando
os
oscar
oscars
osen
osprey
other
others
otto
ottoman
ou
our
out
outlook
output
outside
ov
over
overall
overline
overview
owen
owl
own
oxford
oxide
oz
p
pa
pablo
pac
pacific
package
page
pager
pages
pahlavi
pain
painting
pakistan
palace
palestine
palestinian
palgrave
palm
palmer
pamela
pan
panama
panel
panther
paolo
paper
paperback
papers
par
para
paradise
parallel
parameter
parameters
paris
parish
park
parker
parks
parliament
parliamentary
part
parthian
partial
particle
partido
parties
partner
partners
partnership
parts
party
pas
pascal
pass
passenger
passes
passion
passports
past
pat
patent
path
pathology
patient
patients
patricia
patrick
pattern
patterns
patterson
paul
paula
paulo
pay
payne
pb
pbs
pc
pd
pde
pdf
pe
peace
peak
pearl
pearson
pedro
pen
penguin
peninsula
pennsylvania
people
peoples
per
percent
pereira
perfect
perform
performance
period
permanent
perry
persia
persian
persica
person
personal
personality
personnel
persons
perspective
perspectives
pertoire
peru
pet
pete
peter
peters
peterson
pez
pf
pfa
pg
ph
pharmaceutical
pharmacological
pharmacology
phase
phd
phi
phil
philadelphia
philip
philippe
philippine
philippines
phillips
philosophical
philosophy
phoenix
phone
photo
photography
photos
php
phys
physical
physics
physiology
pi
piano
pic
pick
picture
pictures
pid
pierre
pietro
pilot
pine
pink
pioneer
pipe
pistol
pittsburgh
pizza
pj
pk
pl
place
places
plan
planck
plane
planet
planetary
planning
plans
plant
plants
plasma
plastic
plate
platform
platinum
play
played
player
players
playing
plays
playstation
plaza
plc
please
plos
plot
plus
pm
pmatrix
pmc
pmid
pnas
po
poa
poblacio
pocket
poet
poetry
point
points
poland
pole
police
policies
policy
polish
political
politico
politics
poll
polo
polygon
polymer
pone
poor
pop
pope
popes
popular
population
populations
por
porn
port
portal
porter
portland
portrait
portugal
portuguese
position
positions
positive
possible
post
postal
potential
potter
pour
poverty
powell
power
powerful
powers
pp
pr
practical
practice
practices
prague
pre
pregnancy
prehistoric
preliminary
premier
premiere
prentice
presence
present
presentation
presented
president
presidential
press
presse
pressure
prevention
preview
price
prices
pride
primary
prime
prince
princess
princeton
principle
principles
print
printing
prior
prison
privacy
private
prix
prize
prizes
pro
probe
problem
problems
proc
procedure
proceedings
process
processes
processing
procyclingstats
prod
produced
producer
product
production
productions
products
prof
professional
professor
profil
profile
profiles
program
programme
programming
programs
progress
progressive
project
projects
prometheus
proof
proper
properties
property
prophet
prospects
protection
protein
proteins
protest
protesters
protests
protocol
province
provinces
provincia
provincial
ps
psi
psychiatric
psychiatry
psychological
psychology
pt
pu
pub
public
publication
publications
published
publisher
publishers
publishing
pubmed
puerto
pure
push
put
putin
px
python
q
qa
qaeda
qatar
qc
qi
qquad
qs
quad
quality
quantum
quartal
quarter
quarterly
que
quebec
queen
queensland
query
quest
question
questions
qui
quick
quote
quoted
quotes
qur
r
ra
race
rachel
racing
radar
radiation
radical
radio
radiofarda
radiozamaneh
rafael
raffi
rahman
rail
railway
rain
rainbow
raire
rally
ralph
ram
ramos
ran
rand
random
range
rangle
rank
ranked
ranking
rankings
rant
rap
rape
rapid
rare
ras
rat
rate
rates
ratings
ratio
ration
raton
raw
ray
raymond
rb
rc
rd
re
reach
reaction
reactions
read
reader
reading
ready
real
realgm
reality
really
reason
reasons
rebecca
rebel
rebels
rec
receive
received
receives
recent
receptor
receptors
recognition
reconstruction
record
recorded
recording
records
red
redirect
rediscovering
reduction
reed
ref
reference
references
reform
refugee
refugees
regime
region
regional
regions
register
registered
registration
regular
regulation
regulations
reich
reid
reign
reilly
related
relation
relations
relationship
relationships
relativity
release
released
releases
religion
religions
religious
remains
remember
remix
ren
renaissance
renault
rene
rep
report
reported
reporter
reports
representation
reprint
reprinted
republic
republican
required
requires
res
research
reserve
resident
resistance
resolution
resolutions
resort
resource
resources
response
responses
respublikası
respublikasının
rest
restaurant
result
results
retrieved
return
returns
reuters
rev
reveal
revealed
reveals
revenge
reverse
review
reviews
revised
revolution
revolutionary
rey
reynolds
rez
reza
rf
rfc
rfi
rg
rgen
rh
rho
ri
ria
ric
rica
ricardo
rice
rich
richard
richards
richardson
richmond
rick
rico
ride
ridge
riding
rifle
right
rightarrow
rights
riley
ring
ringer
rings
rio
rise
rises
rising
risk
river
rivers
rj
rk
rl
rlts
rm
rn
rna
ro
road
rob
robert
roberto
roberts
robertson
robin
robinson
robot
rock
rocket
rockwell
rod
rodri
rodrigo
roger
rogers
roland
role
roles
roll
rollin
rolling
rolls
rom
roma
roman
romance
romano
rome
romeo
ron
ronald
room
root
roots
rosa
rose
rosen
ross
roth
rotten
round
route
routes
routesonline
routledge
row
rowman
roy
royal
rp
rpm
rr
rs
rsssf
rt
rttemberg
ru
rubin
ruby
rudolf
rule
rulers
rules
run
runciman
running
rural
rush
russell
russia
russian
ruth
ryan
s
sa
sachsen
sacred
safavid
safe
safety
saga
sage
said
saint
sainte
saints
sale
salem
sales
salmon
salt
salvador
sam
same
sample
samsung
samuel
san
sanctions
sand
sanders
sandra
sang
sankt
sant
santa
santiago
santos
sar
sara
sarah
sasanian
saskatchewan
sat
satellite
saturday
saturn
saudi
saunders
savage
save
saw
say
says
sb
sbs
sc
scale
scarecrow
scene
scenes
schedule
scheduled
schizophrenia
schleswig
schmidt
schmitt
schneider
scho
scholar
scholars
school
schools
schuster
schwartz
sci
science
sciences
scientific
scientist
scientists
sclerosis
score
scores
scotland
scott
scottish
screen
script
sd
se
sea
seal
sean
search
season
seat
seatguru
seattle
sebastian
sec
second
secondary
secret
secretary
secrets
section
secure
security
see
seen
seism
select
selected
selection
selective
self
selling
semi
sen
senate
senators
senior
sense
sentinel
seo
seok
seoul
sep
sept
september
sequel
sequence
sequences
sequencing
serbia
sergio
serial
serie
series
server
service
services
session
set
seth
sets
settlement
settlements
seung
seven
seventh
several
sex
sexual
sexuality
sf
sg
sh
sha
shadow
shah
shanghai
shannon
shape
share
shares
sharghdaily
sharing
sharma
sharon
sharp
shaw
shawn
she
sheet
shell
shi
shield
shift
shin
ship
shirak
shirt
sho
shock
shoot
shooting
shop
short
shot
should
show
shows
shrew
shtml
si
sic
sid
side
sidney
sie
siege
sierra
sigma
sign
signal
signaling
signs
silence
silent
silicon
silk
silva
silver
sim
simon
simone
simple
simpson
simulation
sin
since
sing
singapore
singer
singh
single
singles
sio
sir
siranush
sistemi
sister
site
sites
situation
six
sixth
siyahıyaalınması
size
sj
sk
ska
ski
skin
sky
sl
slate
slave
slavery
sleep
slip
sm
smackdown
small
smart
smith
smithsonian
sms
sn
snake
snl
snow
snyder
so
soc
soccer
soccerbase
soccerway
social
socialism
socialist
societies
society
sociology
sodium
soft
software
soil
solar
sold
soldier
soldiers
solid
solo
solomon
solution
solutions
some
something
son
song
songs
sonic
sons
sony
soo
soon
sophie
sort
soul
sound
soundtrack
source
sources
south
southeast
southern
soviet
soyuz
sp
spa
space
spacefacts
spain
spanish
speak
speaking
spears
special
species
specific
specifications
specified
spectrum
speech
speed
spencer
spider
spiegel
spieler
spin
spirit
spirogyra
split
sport
sports
spot
spread
spring
springer
springs
spy
sql
sqrt
squad
squads
square
sr
sri
ss
st
sta
stability
stable
stack
stade
stadion
stadium
staff
stage
stahel
stan
stand
standard
standards
stanford
stanley
star
starring
stars
start
started
starts
stat
state
statement
states
static
station
statistical
statistics
statistik
statistika
statistikamt
statistisches
statline
statoids
stats
statsf
status
stay
std
ste
steam
steel
stefan
stefano
stein
stem
step
stephanie
stephen
steps
sterling
stern
steve
steven
stevens
stewart
stica
still
stock
stockholm
stone
stop
storage
store
storia
stories
storm
story
str
straight
strange
stranger
strasbourg
strategic
strategies
strategy
stream
streaming
street
strength
stress
strike
strikes
string
strong
structural
structure
structures
struggle
sts
stuart
student
students
studies
studio
studios
study
style
styles
su
sub
subdivision
subject
submarine
subscription
subway
success
succession
such
sudan
sue
sugar
suggested
suicide
suite
suites
sullivan
sultan
sum
summary
summer
summit
sun
sundance
sunday
sung
suny
super
superior
superman
suppl
supplement
supply
support
supreme
sur
surface
surgery
surveillance
survey
survival
susan
sustainable
suzanne
suzuki
sv
sw
sweden
swedish
sweet
swift
swimming
swiss
switch
switzerland
sword
sydney
symbol
symbols
symphony
symposium
symptoms
syndrome
synthesis
syria
syrian
system
systematic
systems
səh
t
ta
tab
table
tables
tabnak
tae
taekwondo
taekwondodata
tag
tailed
taiwan
tajikistan
take
taken
takes
taking
tale
talent
tales
taliban
talk
talking
talks
tan
tanaka
tang
tank
target
targets
tas
task
tasnim
tasnimnews
taste
tau
tauris
tax
taxonomy
taylor
tb
tc
tcp
te
tea
teaching
team
teammelli
teams
teaser
tebyan
tech
techcrunch
technical
techniques
technologies
technology
ted
teen
tehran
tel
telegraph
telescope
television
tell
tells
temperature
templates
temple
ten
tennessee
tennis
ter
term
terminal
terms
territoire
territorial
territories
territory
terror
terrorism
terrorist
terry
test
testament
testing
tests
texas
text
textbf
textbook
texts
textstyle
tf
tfrac
th
thai
thailand
thames
than
that
the
theater
theatre
thefinalball
theft
theguardian
their
them
then
theodore
theorem
theoretical
theories
theory
therapeutic
therapy
there
thermal
these
thesis
thesports
theta
they
thing
things
think
thinking
third
this
thomas
thompson
thomson
thor
those
thought
thousand
thousands
threat
threatened
three
thriller
thrones
through
thu
thursday
ti
tie
ties
tiger
til
tim
timatic
time
timeline
times
timothy
tissue
title
titles
tj
tm
to
today
todd
together
tokyo
told
tolkien
toll
tom
toma
tomatoes
tomb
tommy
tomorrow
tonight
tony
too
took
tool
tools
top
topic
topics
toponymie
tops
tor
toronto
torres
total
tottenham
touch
tour
tourism
touristic
tournament
toward
towards
tower
town
towns
township
toyota
tp
tr
track
trackfield
trade
tradition
traditional
traditions
traffic
trafficking
tragedy
trail
trailer
train
training
trans
transactions
transcription
transfer
transfermarkt
transformation
transit
transition
translated
translation
transmission
transport
transportation
trap
travel
tre
treatment
treaty
tree
trees
trend
trends
trevor
trial
trials
triangle
tribe
tribes
tribune
tribute
trip
triple
troops
tropical
true
trump
trust
truth
try
ts
tt
tu
tube
tucker
tuesday
tumor
tunisia
turkey
turkish
turks
turn
turner
turns
tv
tvn
tweet
twentieth
twenty
twice
twin
twitter
two
txt
tyler
type
types
tyrosine
u
ua
uae
ub
ubuntu
uc
ucla
uefa
ufc
uk
ukraine
ukrainian
ulrich
ultimate
ultra
ultratop
um
un
una
und
under
underground
understanding
une
unesco
union
unique
unit
united
units
unity
univ
universal
universe
universita
universities
university
unknown
until
unveils
up
upazila
upcoming
update
updated
updates
upon
upper
ur
urban
url
uruguay
us
usa
usage
usb
use
used
user
users
uses
usgs
using
usns
uss
ut
utah
utc
utilities
uv
uzbekistan
v
va
vaccine
vaglieri
vajehyab
val
vale
valid
valle
valley
value
values
valve
vampire
van
vancouver
vanessa
var
varepsilon
variable
variation
variety
various
varphi
varzesh
ve
vec
veccia
vector
vegas
vehicle
venezuela
venice
ventures
vera
verge
verlag
version
versus
verwaltungsgemeinschaften
very
vi
via
vice
victims
victor
victoria
victory
video
videos
vie
vienna
vietnam
view
views
vii
viii
viking
villa
village
villages
vincent
violence
virgin
virginia
virtual
virus
visa
vision
visit
vista
visual
vita
vitro
vivo
vixx
vladimir
vlət
vo
voanews
vogue
voice
voices
void
voivodeship
vol
volleyball
vols
volume
volumes
von
vorpommern
vote
voting
vox
voyage
vr
vs
və
w
wa
wagner
wald
wales
walk
walker
walking
wall
wallace
walsh
walt
walter
wan
wang
want
wanted
wants
war
ward
warfare
warner
warning
warren
warrior
wars
was
washington
waste
watch
water
waterfall
waterfalls
watson
watt
wave
way
wayback
wayne
ways
we
weapons
weather
web
webb
weber
website
webster
wedding
wednesday
week
weekend
weekly
weeks
wei
weight
weightlifting
weiss
welch
welcome
welding
well
welle
wells
wendy
went
were
werner
wesley
west
western
what
wheel
wheeler
when
where
which
while
white
whitney
who
whole
whose
why
wi
wide
width
wife
wiki
wikilink
wikimedia
wikipedia
wild
wildlife
wiley
wilhelm
wilkins
wilkinson
will
william
williams
willis
wilson
win
wind
window
windows
wine
wing
winner
winners
winning
wins
winter
wire
wired
wireless
wisconsin
wise
with
within
without
wka
wo
wolf
wolfgang
wolfram
woman
women
won
wonder
wong
woo
wood
woods
word
words
work
workers
workforce
working
works
workshop
world
worldaerodata
worldfootball
worlds
worldwide
worst
worth
would
wp
wrestling
wright
write
writer
writers
writing
writings
written
wrong
wu
ww
wwe
www
x
xbox
xi
xii
xiii
xls
xml
xp
xu
xx
xy
y
ya
yahoo
yale
yan
yang
yarshater
ye
year
yearbook
years
yellow
yemen
yeon
yerevan
yes
yet
yi
yjc
yo
yonhap
yoo
yoon
york
yorker
you
young
your
yourself
youth
youtube
yu
z
za
zack
zealand
zensus
zero
zhang
zhao
zhou
zhu
zip
zone
zu
zum
zur
{
|
}
~

¡
£
§
¨
©
ª
«
¬
­
®
¯
°
±
²
³
´
µ
·
¹
º
»
½
¿
×
æ
ð
÷
ø
ı
œ
ƒ
ɑ
ɔ
ə
əhalisinin
ɛ
ɪ
ʰ
ʲ
ʷ
ʹ
ʻ
ʼ
ʾ
ʿ
ˆ
ˈ
ˌ
ː
˓
˙
˝
̀
́
̂
̃
̄
̆
̇
̈
̉
̊
̋
̌
̎
̓
̔
̛
̣
̥
̦
̧
̨
̩
̮
̯
̱
̲
̶
̸
͂
͡
α
β
γ
δ
ε
ζ
η
θ
ι
κ
λ
μ
ν
ξ
ο
π
ρ
ς
σ
τ
υ
φ
χ
ψ
ω
ϑ
ϕ
ϵ
а
азербаи
б
в
времени
всероссии
г
года
д
е
з
и
интернет
информации
исчислении
к
л
м
муниципальным
н
на
населения
ни
о
об
образованиям
ович
официальныи
п
перепись
по
портал
постоянного
правовои
р
республики
россии
с
ская
скои
т
у
украі
ф
федерации
численность
ю
я
января
і
՝
ա
այվազյան
առաջին
բաժին
բախտիար
բառարան
բնակավայրերի
գ
գառնիկ
եպհ
երկու
երկրորդ
երևան
է
թ
լղհ
խ
ծածկանունների
կենսագրական
հ
համայնքներ
հայաստան
հայաստանի
հայեր
հայկական
հայոց
հանրագիտարան
հանրապետության
հատորով
հովակիմյան
հրատ
հրատարակչություն
մ
միավո
ով
ստեփանյան
վարչատարածքային
տեղեկատու
և
ְ
ִ
ֵ
ֶ
ַ
ָ
ֹ
ּ
ׁ
א
ב
ד
ה
ו
ח
י
כ
ל
מ
ן
נ
ע
ר
ש
ת
،
؛
؟
ء
ا
اء
اب
اباد
ابتدا
ابتداي
ابتدای
ابتدایی
ابتلا
ابتلای
ابتهاج
ابتکار
ابتکارات
ابتکاری
ابد
ابدا
ابداع
ابدی
ابدیت
ابر
ابرار
ابراز
ابراهیم
ابراهیمی
ابرقدرت
ابرقهرمان
ابرقهرمانی
ابرها
ابرهای
ابرو
ابرکوه
ابری
ابریشم
ابریشمی
ابزار
ابزارها
ابزارهای
ابزارهایی
ابزاری
ابطال
ابطحی
ابعاد
ابعادی
ابلاغ
ابله
ابلیس
ابن
ابنیه
ابهام
ابهر
ابو
ابواسحاق
ابوالحسن
ابوالعباس
ابوالفتح
ابوالفضل
ابوالقاسم
ابوبکر
ابوت
ابوذر
ابوریحان
ابوسعید
ابوطالب
ابوظبی
ابوعبدالله
ابوعلی
ابومسلم
ابوموسی
ابونصر
ابی
ابیات
ابیطالب
ات
اتابک
اتابکان
اتاق
اتاقک
اتاقی
اتانول
اتاوا
اتباع
اتحاد
اتحادیه
اتخاذ
اتر
اترنت
اترهای
اتری
اتریش
اتریشی
اتصال
اتصالات
اتفاق
اتفاقا
اتفاقات
اتفاقاتی
اتفاقی
اتلاف
اتلتیک
اتلتیکو
اتم
اتمام
اتمسفر
اتمی
اتنولوگ
اتهام
اتهامات
اتو
اتوبان
اتوبوس
اتوبوسرانی
اتوماتیک
اتوماسیون
اتومبیل
اتکا
اتیل
اتیلن
اتین
اتیوپی
اثبات
اثر
اثرات
اثربخشی
اثرش
اثرگذار
اثرگذاری
اثری
اثنا
اثنی
اثیر
اج
اجابت
اجاره
اجازه
اجاق
اجبار
اجباری
اجتماع
اجتماعات
اجتماعی
اجتناب
اجتهاد
اجداد
اجدادی
اجرا
اجراء
اجرام
اجراهای
اجراي
اجرای
اجرایی
اجزا
اجزاء
اجزای
اجساد
اجسام
اجل
اجلاس
اجماع
اجمالی
اجناس
اح
احادیث
احاطه
احتراق
احترام
احترامی
احتساب
احتمال
احتمالا
احتمالات
احتمالی
احتیاج
احتیاجات
احتیاط
احد
احداث
احدی
احراز
احزاب
احساس
احساسات
احساساتی
احساسی
احسان
احسن
احسنت
احضار
احقاق
احمد
احمدا
احمدخان
احمدرضا
احمدزاده
احمدشاه
احمدی
احمر
احمق
احمقانه
احوال
احکام
احیا
احیاء
احیانا
احیای
اخبار
اخباری
اختتامیه
اختر
اختراع
اختراعات
اختران
اخترشناس
اخترشناسی
اخترفیزیک
اختریان
اختصار
اختصاری
اختصاص
اختصاصی
اختلاس
اختلاط
اختلاف
اختلافات
اختلافاتی
اختلافی
اختلال
اختلالات
اخته
اختیار
اختیارات
اختیاری
اخذ
اخراج
اخراجی
اخطار
اخلاص
اخلاق
اخلاقی
اخلاقیات
اخلال
اخوان
اخگر
اخیر
اخیرا
اد
ادا
ادارات
اداره
اداری
ادامه
ادای
ادب
ادبی
ادبیات
ادرار
ادراری
ادراک
ادراکی
ادریس
ادعا
ادعاها
ادعاهای
ادعای
ادعایی
ادغام
ادل
ادله
ادم
ادموند
ادو
ادوات
ادوار
ادوارد
ادواردز
ادواردو
ادوبی
ادوین
ادویه
ادگار
ادی
ادیان
ادیب
ادیبان
ادیسه
ادیسون
ادینبورگ
ادیک
اذان
اذعان
اذن
اذهان
اذیت
ار
ارابه
ارادت
اراده
اراضی
ارامنه
اران
اراي
اراک
ارایه
ارباب
اربابان
اربابی
اربعه
اربعین
اربیل
ارتباط
ارتباطات
ارتباطی
ارتداد
ارتدوکس
ارتدکس
ارتش
ارتشبد
ارتشی
ارتعاش
ارتعاشات
ارتفاع
ارتفاعات
ارتفاعی
ارتقا
ارتقاء
ارتقای
ارتوپدی
ارتکاب
ارث
ارثی
ارج
ارجاع
ارجمند
ارد
اردبیل
اردبیلی
اردستان
اردشیر
اردل
اردلان
اردن
اردو
اردوان
اردوغان
اردوگاه
اردوی
اردک
اردکان
اردکانی
اردیبهشت
ارز
ارزان
ارزانی
ارزروم
ارزش
ارزشمند
ارزشمندی
ارزشهای
ارزشی
ارزشیابی
ارزنده
ارزهای
ارزی
ارزیابی
ارس
ارسال
ارسالی
ارسباران
ارسطو
ارسلان
ارسنجان
ارشاد
ارشد
ارضی
ارعاب
ارغوان
ارغوانی
ارقام
ارل
ارم
ارمغان
ارمنستان
ارمنی
ارمنیان
ارموی
ارنست
ارنستو
اره
ارو
ارواح
ارومیه
اروپا
اروپاي
اروپای
اروپایی
اروپاییان
اروگوي
اروین
ارکان
ارکستر
ارکیده
ارگ
ارگاسم
ارگان
ارگانیسم
ارگانیک
اری
اریتره
اریش
اریک
اریکا
اریکسون
از
ازا
ازای
ازاین
ازبک
ازبکستان
ازبکی
ازبین
ازجمله
ازدحام
ازدست
ازدواج
ازدیاد
ازطرف
ازطریق
ازل
ازلی
ازمیر
ازنا
ازنظر
ازو
ازین
اس
اساتید
اسارت
اساس
اساسا
اساسنامه
اساسی
اساطیر
اساطیری
اسامه
اسامی
اسانس
اسب
اسباب
اسبق
اسبی
است
استات
استاتیک
استاد
استادان
استادش
استادی
استادیار
استادیوم
استار
استارت
استارک
استالین
استان
استانبول
استانبولی
استاندار
استانداران
استاندارد
استانداردسازی
استانداردها
استانداردهای
استانداردی
استانداری
استانها
استانهای
استانی
استایل
استایلز
استبداد
استبدادی
استثمار
استثنا
استثناء
استثناي
استثنای
استثنایی
استحکام
استحکامات
استخدام
استخدامی
استخر
استخراج
استخوان
استخوانی
استدعا
استدلال
استدلالی
استر
استرا
استرابون
استراتژی
استراتژیک
استراحت
استراسبورگ
استرالیا
استرالیای
استرالیایی
استرداد
استرس
استرلینگ
استرنج
استروي
استروژن
استریت
استریم
استریپ
استعاره
استعداد
استعدادهای
استعفا
استعفاء
استعفای
استعمار
استعماری
استعمال
استفاده
استفان
استفانو
استفانی
استفراغ
استفن
استقامت
استقبال
استقرار
استقلال
استماع
استمرار
استمراری
استن
استناد
استنباط
استنتاج
استنشاق
استنفورد
استنلی
استهبان
استهلاک
استوا
استوار
استوارت
استواری
استوانه
استوایی
استودیو
استودیوز
استودیوهای
استودیوی
استودیویی
استور
استوری
استون
استونی
استونیایی
استوک
استوکس
استي
استپ
استکهلم
استیت
استیشن
استیضاح
استیل
استیلای
استین
استیناف
استیو
استیون
استیونز
استیک
اسحاق
اسد
اسدا
اسدالله
اسدی
اسرا
اسرار
اسرارا
اسراي
اسرای
اسراییل
اسطوره
اسعد
اسفار
اسفراین
اسفناج
اسفنج
اسفنجی
اسفند
اسفندماه
اسفندیار
اسفندیاری
اسقف
اسلام
اسلامشهر
اسلامی
اسلامیه
اسلاوی
اسلحه
اسلم
اسلو
اسلواکی
اسلوب
اسلوونی
اسم
اسماء
اسمارت
اسماعیل
اسماعیلی
اسماعیلیان
اسماعیلیه
اسمبلی
اسمش
اسمک
اسمی
اسمیت
اسن
اسناد
اسنادی
اسنایدر
اسنودن
اسهال
اسپات
اسپارت
اسپارتا
اسپانیا
اسپانیایی
اسپانیول
اسپاگتی
اسپایک
اسپرانتو
اسپرت
اسپرم
اسپری
اسپرینگ
اسپرینگز
اسپنسر
اسپهبد
اسپور
اسپورت
اسپورتینگ
اسپیرز
اسپیس
اسپیلبرگ
اسپین
اسکات
اسکاتلند
اسکاتلندی
اسکادران
اسکار
اسکارلت
اسکالر
اسکان
اسکاندیناوی
اسکای
اسکرین
اسکریپت
اسکس
اسکلت
اسکلتی
اسکله
اسکن
اسکناس
اسکندر
اسکندری
اسکندریه
اسکنر
اسکو
اسکورت
اسکورسیزی
اسکوي
اسکی
اسکیت
اسکیزوفرنی
اسید
اسیدها
اسیدهای
اسیدی
اسیر
اسیران
اش
اشارات
اشارت
اشاره
اشاعه
اشباح
اشباع
اشتاین
اشتباه
اشتباهات
اشتباهی
اشتر
اشتراوس
اشتراک
اشتراکی
اشتعال
اشتغال
اشتفان
اشتها
اشتوتگارت
اشتیاق
اشخاص
اشخاصی
اشراف
اشرافی
اشراق
اشراقی
اشرف
اشرفی
اشعار
اشعارش
اشعاری
اشعری
اشعه
اشغال
اشغالی
اشلی
اشمیت
اشنایدر
اشنویه
اشک
اشکال
اشکالات
اشکالی
اشکان
اشکانی
اشکانیان
اشیا
اشیاء
اشیای
اشیایی
اصابت
اصالت
اصالتا
اصحاب
اصرار
اصطلاح
اصطلاحا
اصطلاحات
اصطلاحی
اصطکاک
اصغر
اصفهان
اصفهانی
اصل
اصلا
اصلاح
اصلاحات
اصلاحاتی
اصلاحی
اصلاحیه
اصلان
اصلانی
اصلی
اصناف
اصوات
اصول
اصولا
اصولگرایان
اصولی
اصیل
اض
اضافه
اضافی
اضطراب
اضطراری
اضلاع
اط
اطاعت
اطاق
اطراف
اطرافش
اطرافیان
اطفال
اطلاع
اطلاعات
اطلاعاتی
اطلاعی
اطلاعیه
اطلاق
اطلس
اطمینان
اظهار
اظهارات
اظهارنامه
اع
اعاده
اعتبار
اعتبارات
اعتبارنامه
اعتباری
اعتدال
اعتراض
اعتراضات
اعتراضی
اعتراف
اعترافات
اعتصاب
اعتصابات
اعتصامی
اعتقاد
اعتقادات
اعتقادی
اعتماد
اعتمادالسلطنه
اعتمادی
اعتنا
اعتنایی
اعتیاد
اعداد
اعدام
اعراب
اعزام
اعزامی
اعشاری
اعصاب
اعصار
اعضا
اعضاء
اعضای
اعطا
اعطاء
اعطای
اعظم
اعظمی
اعلام
اعلامیه
اعلان
اعلای
اعلم
اعلی
اعلیحضرت
اعم
اعماق
اعمال
اعمالی
اعوجاج
اعیان
اغتشاش
اغراق
اغلب
اف
افت
افتاد
افتادن
افتادند
افتاده
افتادگی
افتتاح
افتتاحیه
افتخار
افتخارات
افتخاری
افتد
افترا
افتند
افخمی
افرا
افراد
افرادی
افراز
افراسیاب
افراط
افراطی
افروز
افزار
افزارها
افزارهای
افزاری
افزاید
افزایش
افزایشی
افزود
افزودن
افزودنی
افزوده
افزون
افزونه
افسانه
افسر
افسران
افسرده
افسردگی
افسری
افسوس
افسون
افشا
افشار
افشاری
افشان
افشانی
افشاگری
افشای
افشین
افضل
افعال
افعی
افغان
افغانستان
افغانستانی
افغانی
افق
افقی
افلاطون
افلاطونی
افلاک
افندی
افول
افکار
افکاری
افکن
افکند
افکنده
اق
اقامت
اقامتگاه
اقامتی
اقامه
اقای
اقبال
اقتباس
اقتباسی
اقتدار
اقتداری
اقتصاد
اقتصاددان
اقتصاددانان
اقتصادهای
اقتصادی
اقدام
اقدامات
اقداماتی
اقدامی
اقدس
اقرار
اقسام
اقصی
اقلا
اقلام
اقلیت
اقلید
اقلیدس
اقلیدسی
اقلیم
اقلیمی
اقماری
اقوال
اقوام
اقیانوس
اقیانوسی
اقیانوسیه
اكتبر
ال
الا
الات
الاجرا
الارض
الازهر
الاستیک
الاسرار
الاسلام
الاسلامی
الاصل
الاصول
الاغ
الامام
الان
الانوار
الاهلی
الاول
الاولی
الاي
البته
البدل
البرز
البلاغه
البلدان
البیان
البیت
الت
التاریخ
التحصیل
التحصیلان
التحصیلی
التزام
التماس
التهاب
التهابی
التواریخ
التون
الثالثة
الثانی
الجزایر
الجزایری
الجزیره
الجنان
الحاق
الحاقی
الحجه
الحدیث
الحسن
الحسین
الحق
الحکمة
الخطاب
الد
الدوله
الدین
الذهب
الذکر
الذی
الر
الرجال
الرحمن
الرحیم
الرشید
الرضا
الریان
الزام
الزاما
الزامات
الزامی
الزمان
الزهرا
الس
السالوادور
الساندرو
السلام
السلطان
السلطنه
السیر
الش
الشباب
الشعرا
الشیخ
الشیعه
الص
الطبعة
الع
العابدین
العاده
العالم
العدل
العرب
العربی
العربیة
العربیه
العظمی
العلماء
العمر
العمل
العین
الف
الفاظ
الفبا
الفبای
الفبایی
الفت
الق
القا
القاب
القاعده
القای
القایی
القدس
القرا
الل
الله
اللهی
الم
الماس
المال
المان
المثل
المسلمین
المعارف
المقحفی
المقدس
الملل
المللی
الملوک
الملک
الممالک
المنافع
المهدی
المو
الموت
المپیا
المپیاد
المپیک
المیزان
الن
النا
الناس
النبی
النصر
النهار
النهرین
النور
اله
الهام
الهدی
الهلال
الهه
الهی
الهیات
الواح
الوار
الوقوع
الوند
الویس
الک
الکامل
الکتاب
الکترو
الکترود
الکتروشیمیایی
الکترولیت
الکترومغناطیس
الکترومغناطیسی
الکترون
الکترونی
الکترونیک
الکترونیکی
الکتریسیته
الکتریک
الکتریکی
الکس
الکساندر
الکساندرا
الکسی
الکل
الکلی
الکوخردی
الگو
الگوبرداری
الگوریتم
الگوریتمی
الگوها
الگوهای
الگوی
الگویی
الی
الیاس
الیاف
الیزابت
الیس
الیسم
الیسون
الین
الیه
الیوت
الیور
الیکایی
الیگودرز
ام
اما
امارات
امارت
امام
امامان
امامت
امامزاده
امامی
امامیه
امان
امانت
امانوي
امانی
اماکن
امبروز
امت
امتحان
امتحانات
امتداد
امتناع
امتیاز
امتیازات
امتیازی
امثال
امجد
امداد
امدادی
امر
امرا
امرار
امراض
امرای
امرداد
امرسون
امروز
امروزه
امروزی
امروزین
امری
امریکا
امریکایی
امریکن
امسال
امشب
امضا
امضاء
امضاکنندگان
امضای
امل
املاح
املاک
املش
امن
امنای
امنی
امنیت
امنیتی
امواج
اموال
امور
امورخارجه
اموری
اموی
امویان
امپایر
امپدانس
امپراتریس
امپراتور
امپراتوران
امپراتوری
امپراطور
امپراطوری
امپریالیسم
امکان
امکانات
امکاناتی
امگا
امی
امید
امیدوار
امیدوارم
امیدواری
امیدی
امیر
امیرا
امیرالمو
امیران
امیرحسین
امیرعباس
امیرکبیر
امیری
امیل
امیلی
امیلیا
امین
امینم
امینی
امیه
ان
انا
انار
انبار
انبارها
انبارهای
انباری
انباشت
انباشته
انبساط
انبوه
انبوهی
انبیا
انبیاء
انتاریو
انتحاری
انتخاب
انتخابات
انتخاباتی
انتخابی
انتخابیه
انترتینمنت
انتزاع
انتزاعی
انتساب
انتشار
انتشارات
انتشاراتی
انتشارش
انتصاب
انتصابات
انتظار
انتظارات
انتظاری
انتظام
انتظامی
انتفاعی
انتقاد
انتقادات
انتقاداتی
انتقادهای
انتقادی
انتقال
انتقالات
انتقالی
انتقام
انتها
انتهای
انتهایی
انتگرال
انجام
انجامد
انجامید
انجماد
انجمن
انجمنهای
انجمنی
انجیر
انجیل
انجیلی
انحراف
انحرافی
انحصار
انحصاری
انحطاط
انحلال
انحنای
اند
انداخت
انداختن
انداختند
انداخته
انداز
اندازد
اندازند
اندازه
اندازهای
اندازی
اندام
اندر
اندرز
اندرسن
اندرسون
اندرو
اندروز
اندرونی
اندروید
اندرکاران
اندلس
اندوخته
اندود
اندونزی
اندونزیایی
اندوه
اندک
اندکی
اندی
اندیس
اندیش
اندیشمند
اندیشمندان
اندیشه
اندیشی
اندیشیدن
اندیمشک
اندیکا
انرژی
انریکه
انریکو
انزلی
انزوا
انزوای
انس
انساب
انسان
انسانها
انسانی
انسانیت
انستیتو
انستیتوی
انسجام
انسداد
انسولین
انشاء
انشعاب
انصار
انصاری
انصاریان
انصاف
انصراف
انضباط
انضباطی
انضمام
انطاکیه
انطباق
انعام
انعطاف
انعقاد
انعکاس
انفجار
انفجاری
انفرادی
انفعال
انفعالات
انفورماتیک
انقباض
انقراض
انقضای
انقلاب
انقلابی
انقلابیون
انها
انهدام
انوار
انواع
انواعی
انور
انوری
انوشه
انوشیروان
انکار
انکشاف
انگ
انگار
انگاره
انگاری
انگشت
انگشتان
انگشتی
انگل
انگلس
انگلستان
انگلی
انگلیس
انگلیسی
انگور
انگیز
انگیزه
انگیزی
انی
انیس
انیشتین
انیمه
انیمیشن
انیمیشنی
اه
اهالی
اهانت
اهتمام
اهدا
اهداء
اهداف
اهدافی
اهدای
اهر
اهرم
اهری
اهریمن
اهل
اهلی
اهم
اهمیت
اهمیتی
اهواز
اهورامزدا
او
اوا
اواخر
اواس
اواسط
اوان
اواي
اوایل
اوباش
اوباما
اوبراین
اوبلاست
اوبونتو
اوت
اوتار
اوتو
اوتیسم
اوج
اوجی
اوحدی
اودا
اودسا
اودینزه
اور
اورا
اورارتو
اوراسیا
اوراق
اورال
اورانوس
اورانیوم
اوراکل
اوربیتال
اورت
اورتن
اورتون
اورست
اورشلیم
اورلاندو
اورلي
اورنج
اورنگ
اوره
اورژانس
اورگن
اوری
اورینت
اوز
اوزان
اوزون
اوساکا
اوست
اوستا
اوستایی
اوستیای
اوشن
اوصاف
اوضاع
اوغلو
اوقات
اوقاف
اول
اولا
اولاد
اولاف
اولد
اولریش
اولش
اوله
اولویت
اولگا
اولی
اولیا
اولیاء
اولیای
اولیس
اولین
اولیه
اولیور
اولیویا
اون
اونا
اونو
اونیل
اوه
اوهایو
اوون
اوي
اوپن
اوژن
اوک
اوکراین
اوکراینی
اوکلند
اوکی
اوکیناوا
اوگاندا
اویل
اویلر
اوین
اي
ايران
اين
اپ
اپتیک
اپتیکی
اپرا
اپراتور
اپرای
اپل
اپلیکیشن
اپن
اپوزیسیون
اپوس
اپی
اپیزود
اچ
اژدر
اژدها
اژدهای
اژه
اک
اکباتان
اکبر
اکبری
اکتاو
اکتبر
اکتشاف
اکتشافات
اکتشافی
اکتفا
اکثر
اکثرا
اکثریت
اکدی
اکران
اکراه
اکرم
اکس
اکسایش
اکستر
اکستروژن
اکسل
اکسپرس
اکسپلورر
اکسی
اکسید
اکسیداسیون
اکسیدان
اکسیژن
اکشن
اکلاهما
اکنون
اکو
اکوادور
اکوسیستم
اگر
اگرچه
اگه
اگوست
ای
ایا
ایالات
ایالت
ایالتی
ایام
ایان
ایبری
ایبنا
ایت
ایتالیا
ایتالیایی
ایتالیک
ایثار
ایثارگران
ایجاب
ایجاد
اید
ایدا
ایدز
ایده
ایدي
ایذه
ایر
ایراد
ایران
ایرانشهر
ایرانی
ایرانیان
ایرانیکا
ایرباس
ایرج
ایرلاینز
ایرلند
ایرلندی
ایرن
ایرنا
ایروان
ایرویز
ایروینگ
ایرینا
ایزابل
ایزابلا
ایزاک
ایزد
ایزدان
ایزدبانوی
ایزدی
ایزو
ایزوتوپ
ایست
ایستا
ایستاد
ایستادن
ایستاده
ایستادگی
ایستد
ایستوود
ایستگاه
ایسلند
ایسلندی
ایسنا
ایشان
ایفا
ایفای
ایفل
ایل
ایلات
ایلام
ایلامی
ایلخانان
ایلخانی
ایلنا
ایلی
ایلیا
ایلینوی
ایم
ایمان
ایمانی
ایمن
ایمنا
ایمنی
ایمپلنت
ایمی
ایمیل
این
اینا
اینان
اینبار
اینتر
اینتراکتیو
اینترتینمنت
اینترنت
اینترنتی
اینترنشنال
اینتل
اینجا
اینجاست
اینجانب
اینحال
ایندی
ایندیانا
ایندیپندنت
اینرو
اینست
اینستاگرام
اینشتین
اینصورت
اینطور
اینقدر
اینه
اینها
اینهمه
اینو
اینچ
اینچنین
اینچي
اینچی
اینک
اینکار
اینکه
اینگرید
اینگونه
ایه
ایو
ایوا
ایوان
ایوانز
ایوانی
ایوب
ایوبی
ایوبیان
ایول
ایکاي
ایکس
ایگل
ایگور
ایی
ب
با
باء
باارزش
بااین
باب
بابا
بابایی
بابت
بابر
بابل
بابلسر
بابلی
بابونه
بابویه
بابک
بابکان
بابی
بابیان
بات
باتری
باتلاق
باتلاقی
باتلر
باتوجه
باتیستا
باج
باخ
باخبر
باخت
باختر
باختری
باختند
باخته
باختگان
باد
بادام
بادان
بادانی
بادبان
بادبانی
بادمجان
بادن
باده
بادهای
بادگیر
بادی
بادیه
بار
بارا
باران
بارانی
باراک
باربادوس
باربارا
بارباروسا
باربد
باربر
باربری
باربی
بارت
بارتون
بارد
باردار
بارداری
بارز
بارزانی
بارزترین
بارسلون
بارسلونا
بارش
بارنت
بارندگی
بارنز
باره
بارها
بارهای
بارو
باروت
بارور
باروری
بارون
باروک
باروی
بارگاه
بارگذاری
بارگیری
باری
باریسال
باریک
باریکه
باریکی
باز
بازا
بازار
بازارها
بازارهای
بازارچه
بازاری
بازاریابی
بازاریان
بازان
بازبینی
بازتاب
بازتابی
بازتولید
بازجویی
بازخوانی
بازخورد
بازدارنده
بازداشت
بازداشتگاه
بازداشتی
بازده
بازدهی
بازدید
بازدیدکننده
بازدیدکنندگان
بازرس
بازرسان
بازرسی
بازرگان
بازرگانان
بازرگانی
بازسازی
بازشناسی
بازل
بازماند
بازمانده
بازماندگان
بازمی
بازنده
بازنشر
بازنشسته
بازنشستگان
بازنشستگی
بازنمایی
بازنویسی
بازنگری
بازه
بازهم
بازو
بازوی
بازپرداخت
بازپرس
بازپس
بازکردن
بازگرداند
بازگرداندن
بازگردانده
بازگردد
بازگردند
بازگشایی
بازگشت
بازگشتند
بازگشته
بازگشتی
بازگو
بازی
بازیابی
بازیافت
بازیباز
بازیها
بازیهای
بازیکن
بازیکنان
بازیکنانی
بازیکنی
بازیگر
بازیگران
بازیگرانی
بازیگری
باس
باستان
باستانی
باسواد
باسورث
باسک
باسیل
باش
باشد
باشم
باشند
باشندگان
باشه
باشکوه
باشگاه
باشگاهی
باشی
باشید
باشیم
باطل
باطن
باطنی
باعث
باغ
باغات
باغبان
باغبانی
باغداری
باغداساریان
باغستان
باغهای
باغچه
باغی
بافت
بافته
بافتی
بافر
بافق
بافقی
بافندگی
بافی
باقر
باقری
باقی
باقیمانده
بال
بالا
بالاتر
بالاتری
بالاترین
بالاخانواده
بالاخره
بالادست
بالاست
بالان
بالای
بالایی
بالتیمور
بالتیک
بالدار
بالدوین
بالستیک
بالش
بالعکس
بالغ
بالقوه
بالله
باله
بالون
بالکان
بالکن
بالگرد
بالی
بالین
بالینی
بالیوود
بام
بامداد
بامیان
بان
باند
باندهای
باندی
بانه
بانو
بانوان
بانوی
بانک
بانکدار
بانکداری
بانکوک
بانکی
بانگ
بانی
باهاما
باهم
باهنر
باهوش
باهیا
باو
باواریا
باوجود
باور
باورند
باورنکردنی
باورها
باورهای
باوری
باي
باپتیست
باچان
باک
باکتری
باکتریایی
باکجه
باکره
باکس
باکو
بای
بایت
باید
بایدن
بایر
بایرن
بایرون
بایزید
بایست
بایستد
بایستی
بایشان
باین
باینری
بایگانی
ببخشد
ببر
ببرد
ببرند
ببری
ببرید
ببریم
ببندد
ببین
ببیند
ببینم
ببینند
ببینید
ببینیم
بت
بتا
بتدریج
بتل
بتمن
بتن
بتنی
بته
بتهوون
بتو
بتوان
بتواند
بتوانم
بتوانند
بتوانیم
بتی
بتیس
بتین
بث
بجا
بجای
بجز
بجنورد
بجنوردی
بجهة
بجو
بحال
بحبوحه
بحث
بحثی
بحر
بحران
بحرانی
بحرین
بحساب
بخار
بخارا
بخارست
بخاری
بخاطر
بخانه
بخت
بختیار
بختیاری
بخدمت
بخرد
بخش
بخشد
بخشدار
بخشش
بخشنامه
بخشند
بخشنده
بخشهای
بخشی
بخشید
بخشیدن
بخشیده
بخصوص
بخوان
بخواند
بخوانند
بخوانید
بخواهد
بخواهند
بخواهید
بخواهیم
بخوبی
بخود
بخور
بخورد
بخورند
بخوست
بخیر
بد
بدار
بدارد
بدان
بداند
بدانند
بدانید
بدانیم
بداهه
بدبخت
بدبختی
بدبینی
بدتر
بدترین
بدخشان
بدخیم
بدر
بدرفتاری
بدره
بدرود
بدست
بدعت
بدل
بدلیل
بدمینتون
بدن
بدنام
بدنبال
بدنسازی
بدنش
بدنه
بدنی
بدنیا
بده
بدهد
بدهم
بدهند
بدهکار
بدهی
بدهید
بدهیم
بدو
بدولت
بدون
بدوی
بدی
بدیع
بدیعی
بدیل
بدین
بدینسان
بدیهی
بذر
بر
برا
برابر
برابری
برات
براثر
برادر
برادران
برادرانش
برادرزاده
برادرش
برادرم
برادری
برادفورد
براده
برادوی
براساس
برافراشته
براق
بران
براندازی
براندنبورگ
براندون
برانکو
برانگیخت
برانگیختن
برانگیخته
برانگیختگی
برانگیز
براه
براهام
براهامیان
براهنی
براهه
براون
براي
براک
برای
برایان
برایانت
برایت
برایتون
برایش
برایشان
برایم
براین
بربر
برت
برتر
برتراند
برتری
برترین
برتون
برج
برجا
برجام
برجای
برجسته
برجستگی
برجک
برجی
برحسب
برخاست
برخاستن
برخاستند
برخاسته
برخط
برخلاف
برخورد
برخوردار
برخوردارند
برخورداری
برخوردهای
برخوردی
برخی
برد
بردار
بردارد
بردارند
بردارنده
بردارهای
برداری
بردارید
برداشت
برداشتن
برداشتند
برداشته
برداشتی
بردسکن
بردسیر
بردلی
بردم
بردن
بردند
برده
بردگان
بردگی
بردی
بررسی
برروی
برزخ
برزگر
برزیل
برزیلی
برس
برساند
برسانم
برسانند
برسانی
برسد
برسند
برسیم
برش
برشا
برشمرد
برشمرده
برشی
برطبق
برطرف
برعهده
برعکس
برف
برفت
برفی
برق
برقرار
برقراری
برقعی
برقی
برلین
برم
برمن
برمه
برمی
برمیگردد
برن
برنا
برنارد
برناردو
برنامه
برنت
برنتفورد
برنج
برنجی
برند
برنده
برندهای
برندگان
برنز
برنزی
برنلی
برنمی
برنو
برنگ
برنی
بره
برهان
برهانی
برهم
برهمن
برهمکنش
برهنه
برهنگی
برهه
برو
بروجرد
بروجردی
بروجن
برود
بروز
بروزرسانی
بروس
بروسیا
بروم
برومند
برومویچ
برون
بروند
برونو
بروني
بروک
بروکس
بروکسل
بروکلین
بروی
بروید
برویم
برپا
برپایه
برپایی
برچسب
برچسپ
برچیده
برک
برکت
برکلی
برکنار
برکناری
برکه
برگ
برگر
برگردان
برگرداند
برگرداندن
برگردانده
برگردد
برگرفته
برگزار
برگزاری
برگزید
برگزیدند
برگزیده
برگزیدگان
برگشت
برگشته
برگشتی
برگمان
برگن
برگه
برگی
برگیرنده
بری
بریان
بریت
بریتانیا
بریتانیای
بریتانیایی
بریتانیکا
بریتنی
بریتیش
بریج
برید
بریدن
بریده
بریز
بریزید
بریستول
بریل
بریم
برین
برینز
بریک
بز
بزبان
بزرگ
بزرگان
بزرگتر
بزرگترش
بزرگتری
بزرگترین
بزرگداشت
بزرگراه
بزرگسال
بزرگسالان
بزرگسالی
بزرگش
بزرگمهر
بزرگنمایی
بزرگوار
بزرگی
بزم
بزن
بزند
بزنم
بزنند
بزنید
بزنیم
بزودی
بزی
بزیان
بس
بسا
بسازد
بسازند
بساط
بسامد
بسبب
بست
بستان
بستر
بسترهای
بستری
بستن
بستند
بستنی
بسته
بستک
بستکی
بستگان
بستگی
بسر
بسزایی
بسط
بسطام
بسطامی
بسم
بسنده
بسه
بسوی
بسپار
بسکتبال
بسی
بسیار
بسیاری
بسیج
بسیجی
بش
بشار
بشارت
بشارها
بشارهای
بشاری
بشدت
بشر
بشرح
بشردوستانه
بشرویه
بشری
بشریت
بشقاب
بشمار
بشناسد
بشنود
بشه
بشود
بشوند
بشکند
بشکه
بشیر
بصره
بصری
بصورت
بصیرت
بطرف
بطری
بطلمیوس
بطن
بطور
بطوری
بطوریکه
بعث
بعثت
بعد
بعدا
بعداز
بعدازظهر
بعدتر
بعدها
بعدی
بعرض
بعض
بعضا
بعضی
بعقیده
بعلاوه
بعلت
بعمل
بعنوان
بعهده
بعید
بغداد
بغدادی
بغض
بغل
بغلان
بغیر
بفتا
بفتای
بفرستد
بفرستند
بفرماي
بفرمایند
بفرمایید
بفروشد
بفهمد
بقا
بقاي
بقای
بقایای
بقایی
بقتل
بقره
بقعه
بقول
بقیه
بل
بلا
بلاد
بلاروس
بلاروسی
بلاش
بلاغ
بلاغت
بلاغی
بلافاصله
بلال
بلاک
بلاگ
بلای
بلایای
بلبل
بلخ
بلخی
بلد
بلدرچین
بلده
بلدیه
بلر
بلشویک
بلعمی
بلغارستان
بلغاری
بلفاست
بلقیس
بلند
بلندا
بلندای
بلندتر
بلندترین
بلندمدت
بلندپایه
بلندی
بله
بلو
بلوار
بلوتوث
بلور
بلورهای
بلوری
بلورین
بلوز
بلوط
بلوغ
بلوم
بلومبرگ
بلوچ
بلوچستان
بلوچی
بلوک
بلوکی
بلژیک
بلژیکی
بلک
بلکبرن
بلکه
بلکپول
بلگراد
بلی
بلیت
بلیز
بلیط
بلیک
بم
بما
بماند
بمانند
بمب
بمباران
بمبي
بمجلس
بمدت
بمعنی
بمل
بمن
بمنظور
بموجب
بمپور
بمیرد
بن
بنا
بناب
بنابر
بنابراین
بنابرین
بنادر
بنام
بناها
بناهای
بناپارت
بنای
بنایی
بنت
بنتون
بنجامین
بند
بندان
بندد
بندر
بندرعباس
بندرگاه
بندری
بندند
بنده
بندها
بندهای
بندپی
بندگان
بندگی
بندی
بندیکت
بنر
بنز
بنزن
بنزین
بنزینی
بنسون
بنشیند
بنظر
بنفش
بنفشه
بنفیکا
بنماید
بنه
بنو
بنویسد
بنویسند
بنویسید
بنک
بنکس
بنگ
بنگال
بنگالی
بنگاه
بنگر
بنگرید
بنگلادش
بنی
بنیاد
بنیادی
بنیادین
بنیامین
بنیان
بنیانگذار
بنیانگذاران
بنیانگذاری
بنین
به
بها
بهاء
بهاءالدین
بهاءالله
بهادار
بهادر
بهادری
بهار
بهارستان
بهارلو
بهاره
بهاروند
بهاری
بهانه
بهاي
بهای
بهایی
بهبهان
بهبهانی
بهبود
بهبودی
بهت
بهتر
بهتری
بهترین
بهجت
بهداری
بهداشت
بهداشتی
بهر
بهرام
بهرامی
بهرامیان
بهره
بهروز
بهزاد
بهزادی
بهزیستی
بهسازی
بهش
بهشت
بهشتی
بهشهر
بهم
بهمان
بهمراه
بهمن
بهمنی
بهمي
بهمین
بهنام
بهینه
بهیچوجه
بو
بوا
بواسطه
بوبکر
بوت
بوتان
بوتسوانا
بوته
بوتو
بوجود
بوخوم
بود
بودا
بوداپست
بودایی
بودجه
بودم
بودن
بودند
بودنش
بوده
بودو
بودکه
بودی
بودید
بودیسم
بودیم
بور
بورد
بوردو
بورس
بورسیه
بورلی
بورن
بورنموث
بورو
بوروندی
بورژوازی
بورکینافاسو
بورکینافاسوی
بورگ
بورگوندی
بوریس
بوس
بوستان
بوستون
بوسنی
بوسنیایی
بوسه
بوسیله
بوش
بوشهر
بوشهری
بوعلی
بوف
بوفالو
بوق
بوقلمون
بول
بولتن
بولتون
بولونیا
بولی
بولیوار
بولیوی
بوم
بومی
بومیان
بون
بوندس
بوندسلیگا
بونمان
بوهم
بوي
بوک
بوکا
بوکان
بوکر
بوکس
بوکسور
بوی
بویایی
بوید
بویراحمد
بویز
بویس
بویل
بویه
بویژه
بویی
بي
بين
بپذیرد
بپذیرند
بپردازد
بپردازند
بپزد
بپیوندد
بپیوندند
بچه
بک
بکار
بکارگیری
بکاری
بکت
بکتاش
بکر
بکش
بکشد
بکشند
بکشید
بکلی
بکن
بکند
بکنم
بکنند
بکنید
بکنیم
بکی
بگ
بگذار
بگذارد
بگذارند
بگذارید
بگذاریم
بگذرد
بگرم
بگریزد
بگم
بگو
بگوشت
بگونه
بگوي
بگوید
بگویم
بگویند
بگویید
بگوییم
بگیر
بگیرد
بگیرم
بگیرند
بگیری
بگیرید
بگیریم
بی
بیا
بیابان
بیابانی
بیابد
بیابند
بیات
بیاد
بیار
بیاری
بیاموزد
بیان
بیانات
بیانگر
بیانی
بیانیه
بیاورد
بیاورند
بیاورید
بیاوریم
بیاید
بیایند
بیایید
بیبر
بیبی
بیت
بیتا
بیتس
بیتلز
بیتی
بیجار
بید
بیداد
بیدار
بیداری
بیدل
بیدگل
بیدی
بیر
بیرانوند
بیرجند
بیرمنگام
بیروت
بیرون
بیرونی
بیزار
بیزاری
بیزانس
بیزانسی
بیس
بیساي
بیسبال
بیست
بیستم
بیستمین
بیستون
بیسمارک
بیسیک
بیش
بیشتر
بیشترشان
بیشتری
بیشترین
بیشماری
بیشه
بیشینه
بیضا
بیضایی
بیضه
بیضوی
بیضی
بیع
بیعت
بیفتد
بیل
بیلباي
بیلبورد
بیله
بیلی
بیم
بیمار
بیماران
بیمارانی
بیمارستان
بیمارستانی
بیماری
بیماریهای
بیمه
بین
بینا
بینالود
بینانه
بینایی
بیند
بیندازد
بیندازند
بینش
بینم
بینند
بیننده
بینندگان
بینه
بینهایت
بینوایان
بینی
بینید
بینیم
بیه
بیهق
بیهقی
بیهوده
بیهوش
بیهوشی
بیو
بیوتکنولوژی
بیوتیک
بیورن
بیوشیمی
بیولوژیک
بیولوژیکی
بیوه
بیوک
بیوگرافی
بیچ
بیچاره
بیژن
بیک
بیکار
بیکاری
بیکر
بیکن
بیکینی
بیگ
بیگانه
بیگانگان
بیگدلی
بیگم
بیگی
ة
ت
تا
تاب
تابان
تابستان
تابستانی
تابش
تابشی
تابع
تابعه
تابعی
تابعیت
تابلو
تابلوهای
تابلوی
تابناک
تابه
تابو
تابوت
تابیده
تات
تاتار
تاتنهام
تاتی
تاتیانا
تاثیر
تاج
تاجر
تاجران
تاجگذاری
تاجی
تاجیک
تاجیکستان
تاجیکی
تاخت
تاخیر
تاد
تادي
تار
تارا
تاراج
تارخ
تارزان
تارنمای
تارهای
تاريخ
تاری
تاریخ
تاریخچه
تاریخی
تاریک
تاریکی
تاز
تازه
تازگی
تازی
تازیانه
تاس
تاسف
تاسمانی
تاسیس
تاسیسات
تاش
تاشکند
تاق
تال
تالاب
تالار
تالانتا
تالش
تالشی
تالکین
تالیف
تالین
تام
تامس
تامسون
تامپسون
تامی
تامیل
تامیلی
تامین
تان
تاناکا
تاندون
تانزانیا
تانک
تانگ
تاو
تاون
تاي
تاپ
تاچ
تاک
تاکتیک
تاکتیکی
تاکدا
تاکر
تاکستان
تاکسی
تاکنون
تاکی
تاکید
تای
تایتان
تایتانیک
تایر
تایرا
تایسون
تایلر
تایلند
تایلندی
تایم
تایمز
تایوان
تایوانی
تایپ
تایپه
تایی
تایید
تب
تبادل
تبار
تباران
تبانی
تباه
تباهی
تبت
تبتی
تبحر
تبخیر
تبدیل
تبر
تبرستان
تبري
تبری
تبریز
تبریزی
تبریک
تبصره
تبع
تبعه
تبعیت
تبعید
تبعیدی
تبعیض
تبلت
تبلور
تبلیغ
تبلیغات
تبلیغاتی
تبلیغی
تبیان
تبیین
تثبیت
تثلیث
تجار
تجارب
تجارت
تجارتی
تجاری
تجاوز
تجدد
تجدید
تجدیدنظر
تجدیدپذیر
تجربه
تجربی
تجربیات
تجریش
تجزیه
تجسم
تجسمی
تجلی
تجلیل
تجمع
تجمعات
تجمعی
تجمیع
تجهیز
تجهیزات
تجویدی
تجویز
تحت
تحتانی
تحرک
تحرکات
تحریر
تحریریه
تحریف
تحریم
تحریک
تحسین
تحصن
تحصیل
تحصیلات
تحصیلاتش
تحصیلی
تحفه
تحقق
تحقیر
تحقیرا
تحقیق
تحقیقات
تحقیقاتی
تحقیقی
تحلیف
تحلیل
تحلیلگر
تحلیلگران
تحلیلی
تحمل
تحمیل
تحمیلی
تحول
تحولات
تحولی
تحویل
تحکیم
تخت
تخته
تختی
تخریب
تخصص
تخصصی
تخصیص
تخفیف
تخلخل
تخلص
تخلف
تخلفات
تخلیه
تخم
تخمدان
تخمک
تخمیر
تخمین
تخمینی
تخیل
تخیلی
تد
تدابیر
تداخل
تدارک
تدارکات
تدارکاتی
تداعی
تداوم
تدبیر
تدریج
تدریجا
تدریجی
تدریس
تدفین
تدوین
تدی
تذهیب
تذکر
تذکره
تر
ترا
ترابری
ترابی
تراجنسیتی
تراز
ترازنامه
تراس
تراست
تراش
تراشه
تراشی
تراشیده
ترافیک
ترافیکی
تراموا
ترامپ
ترانزیت
ترانزیستور
ترانس
ترانسفورماتور
ترانه
تراویس
تراژدی
تراکتور
تراکتورسازی
تراکم
تراکنش
تربت
تربیت
تربیتی
ترتیب
ترتیبات
ترتیبی
ترجمان
ترجمه
ترجمە
ترجیح
ترجیحات
ترد
تردد
تردید
تردیدی
ترزا
ترس
ترسد
ترسم
ترسناک
ترسی
ترسید
ترسیم
ترش
ترشح
ترشحات
ترشی
ترغیب
ترفیع
ترقی
ترم
ترمز
ترمودینامیک
ترمودینامیکی
ترمیم
ترمینال
ترن
ترنج
ترند
ترنر
ترنس
ترنسفرمارکت
تره
تروا
تروتسکی
ترور
تروریست
تروریستی
تروریسم
ترومن
ترومپت
ترون
تروی
ترویج
ترک
ترکان
ترکستان
ترکش
ترکمان
ترکمن
ترکمنستان
ترکمنی
ترکه
ترکی
ترکیب
ترکیبات
ترکیباتی
ترکیبی
ترکیه
تری
تریاک
تریبون
تریسی
تریل
تریلر
تریلیون
ترین
ترینیتی
ترینیداد
تریپل
تریک
تز
تزار
تزاری
تزریق
تزریقی
تزي
تزیین
تزیینات
تزیینی
تساوی
تسبیح
تست
تستوسترون
تسخیر
تسریع
تسلا
تسلط
تسلیت
تسلیحات
تسلیحاتی
تسلیم
تسمه
تسمیه
تسنن
تسنیم
تسه
تسهیل
تسهیلات
تسویه
تسکین
تش
تشابه
تشبیه
تشخیص
تشخیصی
تشدید
تشریح
تشریحی
تشریف
تشریفات
تشریفاتی
تشعشع
تشفشان
تشفشانی
تشنج
تشنه
تشنگی
تشویش
تشویق
تشک
تشکده
تشکر
تشکل
تشکیل
تشکیلات
تشکیلاتی
تشگاه
تشی
تشیع
تشین
تشییع
تصاحب
تصادف
تصادفات
تصادفی
تصاویر
تصاویری
تصحیح
تصدی
تصدیق
تصرف
تصریح
تصفیه
تصمیم
تصمیمات
تصمیمی
تصنیف
تصور
تصورات
تصوف
تصویب
تصویبنامه
تصویر
تصویربرداری
تصویرسازی
تصویرگر
تصویرگری
تصویری
تضاد
تضعیف
تضمین
تطابق
تطبیق
تطبیقی
تطهیر
تظاهر
تظاهرات
تظاهراتی
تظاهرکنندگان
تعادل
تعادلی
تعارض
تعاریف
تعالی
تعالیم
تعامل
تعاملات
تعاملی
تعاون
تعاونی
تعبیر
تعبیه
تعجب
تعداد
تعدادی
تعدد
تعدی
تعدیل
تعرض
تعرفه
تعریف
تعریفی
تعزیری
تعزیه
تعصب
تعطیل
تعطیلات
تعطیلی
تعظیم
تعقیب
تعلق
تعلیق
تعلیقات
تعلیم
تعلیمات
تعمید
تعمیر
تعمیرات
تعمیم
تعهد
تعهدات
تعویض
تعویق
تعین
تعیین
تغذیه
تغییر
تغییرات
تغییراتی
تغییری
تف
تفاسیر
تفاضل
تفاهم
تفاوت
تفاوتی
تفت
تفتان
تفتیش
تفحص
تفرجگاه
تفرش
تفرقه
تفریح
تفریحات
تفریحی
تفریق
تفسیر
تفسیرهای
تفسیری
تفصیل
تفصیلی
تفضلی
تفضیلی
تفلیس
تفنگ
تفنگدار
تفنگداران
تفویض
تفکر
تفکرات
تفکیک
تقابل
تقارن
تقاضا
تقاضای
تقاطع
تقدم
تقدیر
تقدیم
تقریب
تقریبا
تقریبی
تقریر
تقسیم
تقسیمات
تقصیر
تقطیر
تقلب
تقلبی
تقلید
تقلیدی
تقلیل
تقوا
تقوایی
تقوی
تقویت
تقویم
تقی
تقیه
تل
تلاش
تلاشی
تلاف
تلافی
تلاقی
تلانتا
تلانتیس
تلانتیک
تلاوت
تلخ
تلخی
تلخیص
تلسکوپ
تلف
تلفات
تلفظ
تلفن
تلفنی
تلفیق
تلفیقی
تلقی
تلمبه
تلمود
تله
تلویزیون
تلویزیونی
تلگراف
تلگرافی
تلگرام
تم
تماس
تماسی
تماشا
تماشاخانه
تماشاچی
تماشاچیان
تماشاگر
تماشاگران
تماشای
تمام
تماما
تمامی
تمامیت
تمایز
تمایل
تمایلات
تمایلی
تمبر
تمثیل
تمجید
تمدن
تمدنی
تمدید
تمرکز
تمرین
تمرینات
تمرینی
تمساح
تمسخر
تمشک
تملک
تمکین
تمیز
تن
تنا
تناسب
تناسبی
تناسخ
تناسلی
تناقض
تنان
تناوب
تناوبی
تنباکو
تنبل
تنبور
تنبک
تنبیه
تند
تندر
تندرستی
تندرو
تندی
تندیس
تنزل
تنسور
تنسی
تنش
تنظیم
تنظیمات
تنفر
تنفس
تنفسی
تنه
تنها
تنهایی
تنور
تنوع
تنکابن
تنکابنی
تنگ
تنگستان
تنگستن
تنگه
تنگی
تنی
تنیده
تنیس
ته
تهاجم
تهاجمی
تهدید
تهدیدات
تهدیدهای
تهدیدی
تهذیب
تهران
تهرانی
تهماسب
تهمت
تهمینه
تهوع
تهویه
تهی
تهیه
تو
توا
توابع
تواریخ
توازن
توافق
توافقنامه
توافقی
توالت
توالی
توام
توان
توانا
توانایی
توانبخشی
تواند
توانست
توانستم
توانستند
توانسته
توانستیم
توانم
توانمند
توانمندسازی
توانمندی
توانند
توانی
توانید
توانیم
توباگو
توبه
توبی
توت
توتون
توج
توجه
توجهی
توجیه
توحید
توحیدی
توخالی
توده
تودی
تودیع
تور
تورات
توران
توربو
توربین
تورج
تورس
تورم
تورن
تورنتو
تورنمنت
توره
تورهای
تورو
توری
توریست
توریستی
تورین
تورینو
تورینگ
تورینگن
توزیع
توس
توسا
توست
توسط
توسعه
توسل
توسلی
توسی
توشیح
توصیف
توصیفی
توصیه
توضیح
توضیحات
توضیحاتی
توضیحی
توطي
توفان
توفیق
توفیقی
توقع
توقف
توقیف
تول
تولد
تولدش
تولستوی
توله
تولوز
تولیت
تولید
تولیدات
تولیدشده
تولیدمثل
تولیدکننده
تولیدکنندگان
تولیدی
توماس
تومان
تومانی
تومور
تومورهای
تومیتوز
تون
تونس
تونل
تونگ
تونی
توهم
توهین
توي
توپ
توپخانه
توپولف
توپولوژی
توپولوژیکی
توپوگرافی
توپی
توکل
توکلی
توکن
توکوگاوا
توکیو
توگو
توی
تویسرکان
تویوتا
تویوتومی
تویی
توییت
توییتر
تي
تپ
تپانچه
تپش
تپه
تپوری
تک
تکاب
تکالیف
تکامل
تکاملی
تکان
تکانه
تکثیر
تکذیب
تکرار
تکراری
تکریم
تکفیر
تکلم
تکلیف
تکمیل
تکمیلی
تکن
تکنسین
تکنوازی
تکنولوژی
تکنیک
تکنیکی
تکه
تکواندو
تکواندوکار
تکوین
تکی
تکیه
تگ
تگزاس
تی
تیان
تیت
تیتانیوم
تیتر
تیتراژ
تیتوس
تیر
تیرانداز
تیراندازی
تیراژ
تیرباران
تیرداد
تیرماه
تیره
تیرهای
تیروي
تیرگی
تیری
تیز
تیزر
تیسفون
تیغ
تیغه
تیغی
تیفانی
تیل
تیلا
تیلور
تیم
تیمسار
تیمش
تیمهای
تیموتی
تیمور
تیمورتاش
تیموری
تیموریان
تیمی
تین
تینا
تیه
تیول
تیپ
تیک
تیگران
ث
ثابت
ثابتی
ثار
ثارش
ثاری
ثالث
ثامن
ثانوی
ثانویه
ثانی
ثانیا
ثانیه
ثبات
ثباتی
ثبت
ثبتی
ثر
ثروت
ثروتمند
ثروتمندان
ثروتمندترین
ثری
ثریا
ثقفی
ثلاث
ثلث
ثم
ثمر
ثمره
ثواب
ثور
ثیر
ثیرات
ثیرگذار
ثیرگذارترین
ثیرگذاری
ثیری
ج
جا
جابجا
جابجایی
جابر
جابز
جابه
جات
جاجرم
جاده
جادو
جادوگر
جادوگران
جادوگری
جادوی
جادویی
جاذب
جاذبه
جارو
جاری
جاز
جازموریان
جاسازی
جاست
جاستین
جاسم
جاسوس
جاسوسی
جاسک
جاش
جاشوا
جالب
جالبی
جام
جاماي
جامد
جامدات
جامع
جامعه
جامعی
جامه
جامی
جان
جاناتان
جانان
جانب
جانبازان
جانبه
جانبی
جاندار
جانداران
جانز
جانستون
جانسون
جانش
جانشین
جانشینان
جانشینی
جانم
جانور
جانوران
جانورانی
جانورشناسی
جانوری
جانگ
جانی
جاه
جاها
جاهای
جاهایی
جاهل
جاوا
جاودان
جاودانه
جاودانگی
جاوه
جاوید
جاویدان
جاي
جاکارتا
جای
جایز
جایزه
جایش
جایگاه
جایگاهی
جایگزین
جایگزینی
جایگشت
جایی
جاییکه
جبار
جباری
جبال
جبر
جبران
جبري
جبری
جبل
جبهه
جت
جثه
جد
جدا
جداره
جداسازی
جدال
جداول
جداکننده
جداگانه
جدای
جدایی
جدل
جده
جدول
جدی
جدیت
جدید
جدیدتر
جدیدترین
جدیدش
جدیدی
جذاب
جذابیت
جذب
جر
جرا
جرات
جراح
جراحات
جراحت
جراحی
جرارد
جرالد
جراي
جراید
جرایم
جرثقیل
جرج
جرح
جردن
جرس
جرقه
جرم
جرمی
جره
جرهای
جروم
جري
جرگه
جری
جریان
جریانات
جریانی
جریب
جریر
جریمه
جریکو
جز
جزء
جزا
جزای
جزایر
جزایری
جزایی
جزر
جزو
جزوه
جزي
جزیره
جزییات
جسارت
جست
جستجو
جستجوگر
جستجوی
جسته
جسد
جسم
جسمانی
جسمی
جسور
جسی
جسیکا
جشن
جشنواره
جشنی
جعبه
جعفر
جعفرا
جعفری
جعفریان
جعل
جعلی
جغتای
جغد
جغرافی
جغرافیا
جغرافیاي
جغرافیای
جغرافیایی
جف
جفت
جفرسون
جفری
جل
جلا
جلال
جلالی
جلب
جلبک
جلد
جلدی
جلسات
جلسه
جلفا
جلو
جلوتر
جلوس
جلوه
جلوگیری
جلوی
جلویی
جلگه
جلیقه
جلیل
جلیلی
جم
جمادی
جماران
جماعت
جماعتی
جمال
جمالی
جماهیر
جمجمه
جمشید
جمشیدی
جمع
جمعا
جمعه
جمعی
جمعیت
جمعیتی
جملات
جمله
جمهور
جمهوری
جمهوریت
جمهوریخواه
جمیع
جمیل
جمیله
جن
جناب
جنابعالی
جناح
جنازه
جنایات
جنایت
جنایتکار
جنایی
جنب
جنبش
جنبشی
جنبه
جنت
جنتی
جنجال
جنجالی
جندی
جنرال
جنس
جنسی
جنسیت
جنسیتی
جنسیس
جنوا
جنوب
جنوبگان
جنوبی
جنون
جنگ
جنگاوری
جنگجو
جنگجوی
جنگجویان
جنگل
جنگلهای
جنگلی
جنگنده
جنگهای
جنگی
جنگید
جنگیدن
جنگیدند
جنی
جنید
جنیفر
جنین
جنینی
جه
جهات
جهاد
جهادی
جهان
جهانبخش
جهانگرد
جهانگردی
جهانگیر
جهانگیری
جهانی
جهانیان
جهت
جهتی
جهد
جهرم
جهرمی
جهش
جهل
جهنم
جهنمی
جو
جوا
جواب
جوابی
جواد
جوادی
جوار
جواز
جوامع
جوان
جوانا
جوانان
جوانب
جوانترین
جوانرود
جوانمرد
جوانمردی
جوانه
جوانی
جواهر
جواهرات
جواهری
جوایز
جوایزی
جوجه
جوخه
جود
جودو
جودوکار
جودی
جودیت
جور
جوراب
جورج
جورجو
جورجیا
جوری
جوزف
جوزپه
جوش
جوشکاری
جوشی
جولان
جولای
جولی
جولیا
جولیان
جولین
جولیوس
جون
جوندگان
جونز
جونگ
جونیور
جونیورز
جوهر
جوهری
جووانی
جوي
جوکر
جوی
جویا
جویان
جویانه
جویبار
جوید
جویس
جویم
جوین
جوینی
جویی
جي
جک
جکسون
جکی
جگر
جگوار
جی
جیانگ
جیب
جیبوتی
جیبی
جیحون
جیرفت
جیره
جیرو
جیسون
جیغ
جیل
جیم
جیمز
جیمی
جین
جینا
جینگ
جینی
جیوه
جیووانی
جیپ
جیک
جیکوب
ح
حاتم
حاتمی
حاج
حاجب
حاجت
حاجی
حاد
حادثه
حاذقی
حارث
حاشیه
حاصل
حاصلخیز
حاصله
حاضر
حاضران
حافظ
حافظه
حال
حالا
حالات
حالت
حالتی
حالی
حالیکه
حامد
حامل
حامله
حاملگی
حامی
حامیان
حاوی
حاي
حاکم
حاکمان
حاکمه
حاکمیت
حاکی
حب
حباب
حبس
حبوبات
حبیب
حبیبی
حت
حتما
حتمی
حتی
حج
حجاب
حجاج
حجاری
حجاز
حجازی
حجت
حجتی
حجر
حجره
حجم
حجمی
حجیم
حد
حداد
حدادعادل
حداقل
حداکثر
حدس
حدود
حدودا
حدودی
حدی
حدیث
حدیثی
حذف
حذفی
حر
حرا
حراج
حرارت
حرارتی
حراست
حرام
حرب
حرص
حرف
حرفه
حرفها
حرفی
حرم
حرمت
حروف
حرکات
حرکت
حرکتی
حریری
حریف
حریفان
حریق
حریم
حزب
حزبی
حس
حساب
حسابدار
حسابداران
حسابداری
حسابرسی
حسابی
حسادت
حساس
حساسیت
حسام
حسب
حسرت
حسن
حسنعلی
حسنه
حسنی
حسگر
حسگرهای
حسی
حسیبی
حسین
حسینعلی
حسینقلی
حسینی
حسینیه
حشرات
حشره
حشمت
حشمتی
حصار
حصاری
حصر
حصول
حضار
حضرت
حضور
حضورش
حضوری
حفاری
حفاظ
حفاظت
حفاظتی
حفر
حفره
حفظ
حق
حقانی
حقایق
حقه
حقوق
حقوقدان
حقوقی
حقی
حقیر
حقیقت
حقیقتا
حقیقی
حل
حلال
حلب
حلبی
حلزون
حلق
حلقه
حلقوی
حلوا
حلی
حماس
حماسه
حماسی
حمام
حمایت
حمایتی
حمد
حمدالله
حمزه
حمص
حمل
حملات
حمله
حموی
حمید
حمیدرضا
حمیده
حمیدی
حمیدیه
حنا
حنایی
حنجره
حنفی
حنیف
حوا
حوادث
حوادثی
حواری
حواریون
حواس
حواشی
حواله
حوالی
حوت
حوثی
حوزه
حوزوی
حوصله
حوض
حوضه
حوضچه
حوقل
حول
حومه
حک
حکام
حکاکی
حکایت
حکم
حکمت
حکمران
حکمرانی
حکمی
حکمیت
حکومت
حکومتش
حکومتی
حکیم
حکیمی
حی
حیا
حیات
حیاتی
حیاط
حیث
حیثیت
حیدر
حیدرا
حیدری
حیدریه
حیران
حیرت
حیطه
حیف
حیفا
حیله
حین
حیوان
حیوانات
حیواناتی
حیوانی
خ
خا
خاتم
خاتمه
خاتمی
خاتون
خاخام
خادم
خار
خارج
خارجه
خارجی
خاردار
خارش
خارق
خارک
خازن
خازنی
خاستگاه
خاش
خاص
خاصه
خاصی
خاصیت
خاطر
خاطرات
خاطراتش
خاطراتی
خاطرنشان
خاطره
خاقان
خاقانی
خال
خالد
خالدار
خالص
خالصه
خالق
خالقی
خاله
خالکوبی
خالی
خام
خامنه
خامه
خاموش
خاموشی
خامی
خان
خانات
خاندان
خانقاه
خانلری
خانم
خانمان
خانه
خانواده
خانوادگی
خانوار
خانگی
خانی
خاور
خاوران
خاورمیانه
خاوری
خاویر
خاي
خاک
خاکستر
خاکستری
خاکسپاری
خاکی
خب
خبر
خبرا
خبرنامه
خبرنگار
خبرنگاران
خبرنگاری
خبره
خبرها
خبرهای
خبرگان
خبرگزاری
خبری
خبیث
ختم
ختنه
خجالت
خجسته
خدا
خدابنده
خداحافظ
خداحافظی
خداداد
خداست
خداوند
خدای
خدایا
خدایان
خدایی
خدشه
خدمات
خدماتی
خدمت
خدمتکار
خدمتی
خدمه
خدیجه
خذ
خر
خراب
خرابه
خرابکاری
خرابی
خراج
خراسان
خراسانی
خراش
خرافات
خرالزمان
خربزه
خرت
خرج
خرد
خرداد
خردادماه
خردسال
خردل
خردمند
خرده
خرس
خرسندی
خرقه
خرم
خرما
خرمشاهی
خرمشهر
خرمن
خرمی
خره
خروج
خروجی
خروس
خروش
خرچنگ
خرگوش
خری
خرید
خریدار
خریداران
خریداری
خریده
خرین
خز
خزاعی
خزان
خزانه
خزر
خزش
خزنده
خزندگان
خزه
خس
خسارات
خسارت
خسته
خستگی
خسرو
خسروانی
خسروشاهی
خسروی
خشایار
خشایارشا
خشت
خشتی
خشم
خشمگین
خشن
خشنود
خشنودی
خشونت
خشک
خشکسالی
خشکی
خصلت
خصمانه
خصوص
خصوصا
خصوصی
خصوصیات
خصوصیت
خصومت
خصیصه
خضر
خضری
خط
خطا
خطاب
خطابه
خطاها
خطاهای
خطای
خطایی
خطبه
خطر
خطرات
خطرناک
خطرناکی
خطری
خطه
خطوط
خطی
خطیب
خطیبی
خفاش
خفته
خفه
خفگی
خفیف
خلا
خلاء
خلاص
خلاصه
خلاف
خلافت
خلاق
خلاقانه
خلاقیت
خلال
خلبان
خلبانان
خلبانی
خلج
خلخال
خلخالی
خلدون
خلط
خلع
خلعتبری
خلف
خلفا
خلفای
خلفی
خلق
خلقت
خلقی
خلوت
خلوص
خليج
خلیج
خلیفه
خلیل
خلیلی
خم
خمس
خمسه
خمش
خمپاره
خمیده
خمیر
خمیری
خمین
خمینی
خن
خنثی
خنج
خنجر
خنجی
خندان
خندق
خنده
خنک
خو
خوا
خواب
خوابگاه
خوابی
خوابیدن
خوابیده
خواجه
خواجوی
خوار
خواران
خوارج
خوارزم
خوارزمشاه
خوارزمشاهیان
خوارزمی
خوارهای
خواری
خواست
خواستار
خواستم
خواستن
خواستند
خواسته
خواستگاری
خواستیم
خواص
خواف
خوام
خوان
خواند
خواندم
خواندن
خواندند
خواندنی
خوانده
خوانسار
خوانساری
خوانش
خوانم
خوانند
خواننده
خوانندگان
خوانندگی
خوانی
خوانیم
خوانین
خواه
خواهان
خواهانه
خواهد
خواهدشد
خواهر
خواهران
خواهرخوانده
خواهرزاده
خواهرش
خواهش
خواهم
خواهند
خواهی
خواهید
خواهیم
خوب
خوبی
خود
خودا
خودارضایی
خودت
خودتان
خودداری
خودرا
خودرو
خودروسازی
خودروها
خودروهای
خودروی
خودرویی
خودسرانه
خودش
خودشان
خودم
خودمان
خودمختار
خودمختاری
خودنمایی
خودکار
خودکشی
خودگردان
خودی
خور
خوراک
خوراکی
خورخه
خورد
خوردن
خوردند
خوردنی
خورده
خوردگی
خورش
خورشید
خورشیدگرفتگی
خورشیدی
خورند
خوری
خوزستان
خوزه
خوسف
خوش
خوشاب
خوشایند
خوشبخت
خوشبختانه
خوشبختی
خوشحال
خوشحالی
خوشش
خوشمزه
خوشنویس
خوشنویسان
خوشنویسی
خوشه
خوشی
خوف
خولیو
خون
خوند
خونریزی
خونه
خونی
خونین
خوي
خوک
خوی
خویش
خویشاوند
خویشاوندان
خویشاوندی
خویشتن
خویی
خی
خیابان
خیابانی
خیار
خیاط
خیاطی
خیال
خیالی
خیام
خیانت
خیبر
خیر
خیرا
خیرالدین
خیراندیش
خیره
خیری
خیریه
خیز
خیزد
خیزش
خیس
خیل
خیلی
خیم
خیمه
د
دا
داب
دابلیو
دات
داخل
داخله
داخلی
داد
دادخواست
دادخواهی
دادرسی
دادستان
دادستانی
دادسرای
دادم
دادن
دادند
داده
دادوستد
دادگان
دادگاه
دادگاهی
دادگستری
دادی
دادیم
دار
دارا
داراب
داراست
دارالعلم
دارالفنون
داران
داراي
دارای
دارایی
داربست
دارت
دارد
دارسی
دارلینگتون
دارم
دارن
دارند
دارنده
دارندگان
داره
دارو
داروخانه
داروسازی
داروها
داروهای
داروهایی
داروی
داروین
دارویی
دارچین
دارک
دارکوب
داری
دارید
داریم
داریوش
داس
داستان
داستانهای
داستانی
داش
داشت
داشتم
داشتن
داشتند
داشتنی
داشته
داشتی
داشتیم
داعش
داعی
داغ
داغستان
داغی
دال
دالاس
دالان
دالاهو
دالتون
دالی
دام
داماد
داماش
دامان
دامداری
دامز
دامغان
دامغانی
دامن
دامنه
دامپروری
دامپزشکی
دامی
دان
دانا
دانان
دانایی
دانته
داند
دانست
دانستم
دانستن
دانستند
دانسته
دانش
دانشجو
دانشجوی
دانشجویان
دانشجویی
دانشسرای
دانشمند
دانشمندان
دانشمندی
دانشنامه
دانشور
دانشکده
دانشگاه
دانشگاهی
دانشگاهیان
دانشی
دانشیار
دانل
دانلد
دانلود
دانم
دانمارک
دانمارکی
دانند
دانه
دانوب
دانکن
دانگ
دانی
دانیال
دانید
دانیل
دانیم
داو
داود
داور
داوران
داوری
داوطلب
داوطلبان
داوطلبانه
داون
داوود
داوودی
داوکینز
داویت
داوید
داي
داک
داکا
داکوتای
داگ
داگلاس
دای
دایان
دایانا
دایر
دایرةالمعارف
دایره
دایرکتوری
دایم
دایمی
دایناسور
دایناسورها
دایه
دایی
دب
دبستان
دبستانی
دبلیو
دبلیودبلیوي
دبورا
دبی
دبیان
دبیر
دبیران
دبیرخانه
دبیرستان
دبیرستانی
دبیره
دبیرکل
دبیری
دث
دجله
دخالت
دخانیات
دخت
دختر
دختران
دخترانه
دخترش
دخترها
دخترک
دختری
دخل
دخمه
دخول
دخیل
ددلاین
در
درا
دراز
درازا
درازای
درازمدت
درازی
درام
دراماتیک
درامر
درامز
دران
درانی
دراویش
دراکولا
دراگون
دراین
درایه
درایو
درایور
درب
دربار
درباره
درباری
درباریان
دربارە
دربر
دربرابر
دربردارد
دربردارنده
دربرمی
دربرگیرنده
دربند
دربی
درج
درجات
درجه
درحال
درحالی
درحالیکه
درخت
درختان
درختچه
درختی
درخشان
درخشانی
درخشش
درخشنده
درخشندگی
درخشید
درخصوص
درخواست
درخواستی
درخور
درد
دردسر
دردناک
دردهای
دردی
درز
درس
درسال
درست
درستی
درسدن
درسی
درشت
درصد
درصدد
درصدی
درصورت
درصورتی
درفش
درم
درمان
درمانگاه
درمانگر
درمانی
درمورد
درمی
درمیان
درنتیجه
درنده
درنظر
درنقش
درنهایت
درنگ
دره
درها
درهای
درهم
درو
دروازه
درواقع
درود
دروس
دروغ
دروغین
درون
درونی
درویش
درویشان
درویشی
درپی
درک
درگاه
درگذشت
درگذشته
درگرفت
درگز
درگیر
درگیری
دری
دریا
دریاسالار
دریافت
دریافتند
دریافته
دریافتی
دریان
دریانورد
دریانوردی
دریاها
دریاهای
دریاچه
دریای
دریایی
دریغ
دریم
درین
دریچه
دریک
دز
دزد
دزدان
دزدی
دزدیده
دزفول
دسامبر
دست
دستان
دستاورد
دستاوردهای
دستخط
دستخوش
دسترس
دسترسی
دستش
دستغیب
دستم
دستمال
دستمزد
دسته
دستور
دستورات
دستورالعمل
دستورها
دستورهای
دستوری
دستکاری
دستکش
دستکم
دستگاه
دستگاههای
دستگاهی
دستگیر
دستگیری
دستی
دستیابی
دستیار
دستیاران
دستیاری
دسر
دسی
دسیسه
دشت
دشتستان
دشتی
دشمن
دشمنان
دشمنی
دشنام
دشوار
دشوارتر
دشواری
دعا
دعاوی
دعای
دعوا
دعوای
دعوت
دعوی
دغدغه
دف
دفاتر
دفاع
دفاعی
دفتر
دفترچه
دفتری
دفع
دفعات
دفعه
دفن
دقایق
دقایقی
دقت
دقیق
دقیقا
دقیقه
دقیقی
دل
دلا
دلار
دلاری
دلال
دلالت
دلاور
دلاوری
دلاویر
دلاي
دلاید
دلایل
دلایلی
دلبر
دلبستگی
دلتا
دلتای
دلخواه
دلدار
دلش
دلفان
دلفی
دلفین
دلقک
دلم
دلمه
دلنشین
دلهره
دلو
دلپذیر
دلکش
دلگان
دلی
دلیجان
دلیر
دلیری
دلیل
دلیلی
دم
دما
دماغ
دماغه
دماهای
دماوند
دمای
دمایی
دمشق
دمنه
دموکرات
دموکراتیک
دموکراسی
دمکرات
دمکراتیک
دمکراسی
دمی
دمیان
دمیت
دمیتری
دن
دنا
دنبال
دنباله
دندان
دندانه
دندانپزشکی
دندانی
دنده
دنس
دنور
دنگ
دنی
دنیا
دنیاست
دنیاگیری
دنیای
دنیایی
دنیس
دنیل
دنیلز
دنیوی
ده
دهات
دهان
دهانه
دهانی
دهباشی
دهخدا
دهد
دهر
دهستان
دهستانی
دهقان
دهقانان
دهقانی
دهقی
دهلران
دهلوی
دهلی
دهلیز
دهلیزی
دهم
دهمین
دهن
دهند
دهنده
دهندگان
دهنه
دهه
دهکده
دهی
دهیاری
دهید
دهیم
دو
دوا
دوار
دوازده
دوازدهم
دوازدهمین
دوام
دوانی
دوایت
دوبار
دوباره
دوبعدی
دوبلاژ
دوبله
دوبلور
دوبلین
دوبی
دوبیتی
دوتا
دوتایی
دوجانبه
دوحه
دوخت
دوخته
دود
دودمان
دودویی
دودکش
دودی
دور
دورا
دورافتاده
دوران
دورانت
دورانی
دوربین
دورتر
دورترین
دورتموند
دوردست
دورف
دورنگار
دوره
دوروتی
دورود
دورگه
دوری
دوریس
دورە
دوز
دوزخ
دوزهای
دوزی
دوزیستان
دوس
دوسالانه
دوست
دوستان
دوستانش
دوستانه
دوستت
دوستدار
دوستداران
دوستش
دوستم
دوستی
دوسلدورف
دوش
دوشان
دوشس
دوشنبه
دوشیزه
دوطرفه
دوغ
دوقطبی
دوقلو
دوقلوی
دول
دولت
دولتشاه
دولتشاهی
دولتمردان
دولتها
دولتهای
دولتی
دولف
دوم
دوما
دومش
دومی
دومین
دومینیک
دومینیکن
دون
دونا
دونالد
دونتسک
دونده
دونفره
دونور
دونگ
دوو
دوور
دوي
دوپامین
دوپینگ
دوچرخه
دوک
دوگان
دوگانه
دوگانگی
دوی
دویدن
دویست
دویل
دویچه
دي
دپ
دپارتمان
دپورتیوو
دچار
دژ
دکارت
دکارتی
دکان
دکتر
دکترا
دکترای
دکتری
دکترین
دکستر
دکل
دکمه
دکن
دگذاری
دگر
دگرباشان
دگرجنس
دگرگون
دگرگونی
دی
دیابت
دیابتی
دیار
دیاربکر
دیاز
دیافراگم
دیالوگ
دیالکتیک
دیان
دیانا
دیانت
دیاکونوف
دیبا
دیباچه
دیبی
دیتا
دیتالیا
دیترویت
دیجی
دیجیتال
دیجیتالی
دید
دیدار
دیدارهای
دیداری
دیدبان
دیدم
دیدن
دیدند
دیدنی
دیده
دیدگان
دیدگاه
دیدگاهی
دیدگی
دیدی
دیدیم
دیر
دیرباز
دیرتر
دیروز
دیری
دیرین
دیرینه
دیرینگی
دیز
دیزل
دیزلی
دیزنی
دیزی
دیس
دیسک
دیسکاگز
دیشب
دیفرانسیل
دیل
دیلم
دیلمان
دیلمی
دیلن
دیلی
دیم
دیماه
دیمون
دیمیتری
دین
دینا
دینار
دینامو
دینامیک
دینامیکی
دینه
دینو
دینور
دینی
دیه
دیهیم
دیو
دیوار
دیواره
دیوارها
دیوارهای
دیواری
دیوان
دیواندره
دیوانه
دیوانگی
دیوانی
دیود
دیون
دیوی
دیوید
دیویس
دیپ
دیپلم
دیپلمات
دیپلماتیک
دیپلماسی
دیک
دیکتاتور
دیکتاتوری
دیکسون
دیکشنری
دیکنز
دیگ
دیگر
دیگران
دیگرش
دیگری
دیگه
دیگو
ذ
ذا
ذات
ذاتا
ذاتی
ذبیح
ذخایر
ذخیره
ذر
ذرات
ذربایجان
ذربایجانی
ذرت
ذرخش
ذرماه
ذره
ذری
ذرین
ذلک
ذن
ذهاب
ذهن
ذهنی
ذهنیت
ذوالفقار
ذوالفقاری
ذوالقرنین
ذوب
ذوق
ذوقه
ذکایی
ذکر
ذی
ذیحجه
ذیقعده
ذیل
ذین
ر
را
راء
راب
رابر
رابرت
رابرتز
رابرتس
رابرتسون
رابط
رابطه
رابه
رابی
رابین
رابینسون
راتن
راتگرز
راج
راجر
راجرز
راجع
راجی
راحت
راحتی
راد
رادار
راداری
رادان
رادی
رادیو
رادیواکتیو
رادیوفردا
رادیولوژی
رادیوی
رادیویی
رادیکال
رارات
راز
رازهای
رازی
راس
راست
راستا
راستای
راستش
راسته
راستی
راستین
راسخ
راسخون
راسل
راسک
راسینگ
راش
راشد
راشل
راضی
راغب
رافاي
رال
رالف
رالی
رالینز
رام
راما
رامبد
رامبل
رامستان
رامسر
رامش
رامهرمز
راموس
رامون
رامگاه
رامی
رامیان
رامین
ران
راند
راندمان
راندن
راندند
رانده
رانش
راننده
رانندگان
رانندگی
رانی
راه
راهب
راهبان
راهبرد
راهبردی
راهبری
راهبه
راهرو
راهش
راهم
راهنما
راهنمای
راهنمایی
راهپیمایی
راهکار
راهکارهای
راهی
راهیابی
راهیان
راو
راور
راورز
راوی
راویان
راي
راک
راکت
راکتور
راکفلر
راکه
راکول
راکی
راگبی
راگون
رای
رایان
رایانش
رایانه
رایت
رایج
رایدر
رایزنی
رایس
رایش
رایشی
رایلی
راین
رایه
رایگان
رایی
رب
ربا
رباب
ربات
رباتیک
رباط
رباعی
رباعیات
ربانی
ربایی
ربط
ربطی
ربع
ربودن
ربوده
ربکا
ربی
ربیع
ربیعی
رة
رةالمعارف
رت
رتبه
رتریت
رتساخ
رتمیس
رتور
رتی
رج
رجال
رجایی
رجب
رجبی
رجعت
رجل
رجوع
رجوی
رجی
رجینا
رحم
رحمان
رحمانه
رحمانی
رحمت
رحمتی
رحمی
رحیم
رحیمی
رخ
رخت
رخداد
رخدادهای
رخنه
رد
ردا
ردبول
ردن
رده
ردها
ردپای
ردی
ردیاب
ردیابی
ردیف
ردینگ
رز
رزا
رزرو
رزم
رزمندگان
رزمی
رزن
رزو
رزولوشن
رزومه
رزوها
رزوهای
رزوی
رزی
رزیدنت
رزین
رس
رسا
رسالة
رسالت
رساله
رسان
رسانا
رسانای
رسانایی
رساند
رساندن
رساندند
رسانده
رسانش
رسانند
رسانه
رسانی
رسانید
رسانیده
رساي
رستاخیز
رستاق
رستم
رستمی
رسته
رستوران
رستگار
رستگاری
رسد
رسلمانیا
رسم
رسما
رسمی
رسمیت
رسن
رسنال
رسند
رسنیک
رسوایی
رسوب
رسوبات
رسوبی
رسول
رسولان
رسولی
رسوم
رسی
رسید
رسیدم
رسیدن
رسیدند
رسیده
رسیدگی
رسیدیم
رسیم
رش
رشت
رشته
رشتی
رشد
رشدی
رشوه
رشک
رشید
رشیدالدین
رشیدی
رشیو
رصد
رصدخانه
رصدی
رض
رضا
رضاخان
رضازاده
رضاشاه
رضاقلی
رضاي
رضای
رضایت
رضایی
رضوان
رضوی
رضي
رضی
رطوبت
رعایا
رعایت
رعد
رعنا
رعیت
رغبت
رغم
رف
رفاه
رفاهی
رفت
رفتار
رفتارها
رفتارهای
رفتاری
رفتم
رفتن
رفتند
رفته
رفتی
رفتیم
رفراندوم
رفسنجان
رفسنجانی
رفع
رفعت
رفقای
رفیع
رفیعی
رفیق
رقابت
رقابتهای
رقابتی
رقاص
رقبا
رقبای
رقص
رقصنده
رقم
رقمی
رقیب
رقیبان
رقیق
رقیه
رله
رم
رمان
رمانتیک
رمانی
رماویر
رمز
رمزنگاری
رمزگذاری
رمزگشایی
رمزی
رمسترانگ
رمضان
رمضانی
رمن
رمه
رمی
رمین
رن
رنا
رنت
رنج
رنجبر
رنجرز
رند
رنده
رندی
رنسانس
رنه
رنو
رنولد
رنگ
رنگارنگ
رنگدانه
رنگرزی
رنگهای
رنگی
رنگین
رنی
ره
رها
رهایی
رهبر
رهبران
رهبری
رهسپار
رهنما
رهگذر
رهگیری
رو
روا
روابط
رواج
روادید
رواره
رواق
روال
روان
رواندا
روانسر
روانشناختی
روانشناس
روانشناسان
روانشناسی
روانه
روانپزشکی
روانکاوی
روانی
روایات
روایاتی
روایت
روایتگر
روایتی
روایی
روبات
روباز
روبان
روباه
روبر
روبرت
روبرتو
روبرو
روبروی
روبن
روبه
روبی
روبین
روت
روتر
روتردام
روتور
روث
روح
روحانی
روحانیان
روحانیت
روحانیون
روحی
روحیه
رود
رودان
رودبار
رودخانه
رودریگز
رودریگو
رودز
رودسر
رودلف
روده
رودها
رودهای
رودولف
رودکی
رودی
روز
روزا
روزافزون
روزانه
روزبه
روزرسانی
روزمره
روزن
روزنامه
روزنه
روزه
روزها
روزهای
روزولت
روزگار
روزگاران
روزگاری
روزی
روس
روسای
روست
روستا
روستاها
روستاهای
روستاي
روستای
روستایی
روستاییان
روسری
روسها
روسو
روسپی
روسی
روسیه
روش
روشن
روشنایی
روشنفکر
روشنفکران
روشنفکری
روشنگری
روشنی
روشهای
روشی
روضه
روغن
روغنی
رول
رولان
رولز
رولینگ
روم
روماتیک
رومان
رومانی
رومانیایی
رومل
رومن
رومي
رومی
رومیان
رومیزی
رون
رونالد
رونالدو
روند
رونده
روندهای
روندی
رونق
رونمایی
رونوشت
رونویسی
رونی
رونین
روورز
روي
روپرت
روپیه
روچ
روژ
روژه
روکش
روی
رویا
رویارویی
رویال
رویان
رویاهای
رویای
رویت
رویترز
روید
رویداد
رویدادها
رویدادهای
رویدادهایی
رویدادی
رویس
رویش
رویم
رویند
رویه
رویکرد
رویکردهای
رویکردی
رویی
ري
رپ
رپر
رژانتین
رژانتینی
رژه
رژیم
رک
رکاب
رکابزن
رکانزاس
رکس
رکعت
رکن
رکود
رکورد
رکورددار
رکوردز
رکوردهای
رکی
رگ
رگبار
رگرسیون
رگه
رگومان
رگون
ری
ریا
ریاحی
ریاست
ریاض
ریاضت
ریاضی
ریاضیات
ریاضیاتی
ریاضیدان
ریاضیدانان
ریال
ریالی
ریان
ریانا
ریایی
ریتا
ریتر
ریتم
ریتمی
ریتمیک
ریج
ریحان
ریحانه
ریخت
ریختن
ریختند
ریخته
رید
ریز
ریزد
ریزش
ریزشگاه
ریزند
ریزه
ریزونا
ریزپردازنده
ریزی
ریزیم
ریس
ریسمان
ریسه
ریسک
ریش
ریشارد
ریشتر
ریشه
ریف
ریل
ریلی
ریم
ریمان
ریمون
ریموند
ریمیکس
رین
رینز
رینولدز
رینگ
ریه
ریو
ریور
ریوز
ریوند
ریوی
ریپورتر
ریچ
ریچارد
ریچاردز
ریچاردسون
ریچل
ریچموند
ریچی
ریک
ریکاردو
ریکو
ریکی
ریگ
ریگا
ریگان
ریگی
رییس
ز
زا
زابل
زاد
زادا
زادانه
زادراه
زادروز
زادسازی
زاده
زادگان
زادگاه
زادگاهش
زادی
زادیبخش
زادیخواهان
زار
زارع
زارعی
زارهای
زاری
زاغ
زاغه
زال
زامبی
زامبیا
زان
زانو
زانکت
زاهد
زاهدان
زاهدی
زاویه
زاي
زاکانی
زاکسن
زاگرب
زاگرس
زای
زاید
زایش
زایمان
زاینده
زایی
زباله
زبان
زبانان
زبانشناسی
زبانه
زبانها
زبانهای
زبانی
زبده
زبر
زبورن
زبیر
زتک
زحل
زحمات
زحمت
زخم
زخمی
زخمیان
زد
زدایی
زدم
زدن
زدند
زده
زدگان
زدگی
زر
زرا
زراعت
زراعتی
زراعی
زرافه
زرتشت
زرتشتی
زرتشتیان
زرد
زردا
زردشت
زرده
زردچوبه
زردی
زرشک
زرند
زره
زرهی
زرکلی
زرگر
زری
زریاب
زرین
زسکا
زشت
زشتی
زعفران
زغال
زلزله
زلف
زم
زمام
زمامداری
زمان
زمانبندی
زمانه
زمانی
زمانیکه
زمایش
زمایشگاه
زمایشگاهی
زمایشی
زمایی
زمرد
زمره
زمزمه
زمستان
زمستانی
زموده
زمون
زمین
زمینه
زمینهای
زمینی
زن
زنا
زناشویی
زنان
زنانه
زنانی
زنبق
زنبور
زنبورهای
زنجان
زنجانی
زنجبیل
زنجیر
زنجیره
زنجیری
زند
زندان
زندانی
زندانیان
زنده
زندگانی
زندگی
زندگیش
زندگینامه
زندی
زندیه
زنش
زنم
زنند
زننده
زنگ
زنگبار
زنگنه
زنگی
زنی
زنیم
زه
زهد
زهر
زهرا
زهره
زهری
زهک
زهکشی
زهی
زو
زوار
زواره
زوال
زوایای
زوج
زوجه
زود
زودتر
زودرس
زودهنگام
زودی
زور
زورخانه
زوریخ
زولا
زوم
زون
زوي
زي
زک
زکات
زکریا
زکی
زی
زیاد
زیادتر
زیاده
زیادی
زیار
زیارت
زیارتگاه
زیارتی
زیاری
زیان
زیب
زیبا
زیباتر
زیباترین
زیباست
زیباکلام
زیبای
زیبایی
زیبد
زیتا
زیتون
زید
زیدان
زیدی
زیدیه
زیر
زیرا
زیربنای
زیربنایی
زیرخانواده
زیردریایی
زیرراسته
زیرزمین
زیرزمینی
زیرساخت
زیرشاخه
زیرقراي
زیرمجموعه
زیرنظر
زیرنویس
زیره
زیرک
زیرگروه
زیرگونه
زیرین
زیست
زیستن
زیستند
زیسته
زیستگاه
زیستی
زیمبابوه
زیمنس
زین
زینب
زینت
زینتی
زیگموند
س
سا
ساب
سابق
سابقا
سابقش
سابقه
ساتراپ
ساتراپی
ساترن
ساتو
ساحل
ساحلی
ساخت
ساختار
ساختارها
ساختارهای
ساختاری
ساختمان
ساختمانهای
ساختمانی
ساختن
ساختند
ساخته
ساختگی
ساختی
سادات
ساده
سادگی
سار
سارا
ساراگوسا
سارایوو
سارتر
ساردوي
سارق
ساره
ساروج
سارگسیان
ساری
ساز
سازان
سازد
سازش
سازم
سازمان
سازماندهی
سازمانهای
سازمانی
سازند
سازنده
سازندگان
سازندگی
سازه
سازها
سازهای
سازوکار
سازگار
سازگاری
سازی
سازیم
ساسان
ساسانی
ساسانیان
ساسکاچوان
ساشا
ساطع
ساعات
ساعاتی
ساعت
ساعته
ساعتی
ساعد
ساعدی
ساعی
ساغر
سافت
ساق
ساقط
ساقه
ساقی
سال
سالاد
سالار
سالاری
سالانه
سالت
سالخورده
سالروز
سالم
سالمندان
سالن
سالنامه
ساله
سالها
سالهای
سالواتوره
سالوادور
سالک
سالگرد
سالگی
سالی
سالیان
سالیانه
سالیوان
سام
سامان
سامانتا
ساماندهی
سامانه
سامانی
سامانیان
سامانە
سامر
سامرا
سامرست
سامسونگ
ساموا
سامورایی
ساموي
سامی
سان
سانان
سانت
سانتا
سانتاندر
سانتر
سانتو
سانتوس
سانتی
سانتیاگو
سانتیمتر
سانتیگراد
سانحه
ساندرا
ساندرز
ساندرلند
ساندنس
ساندویچ
سانسور
سانسکریت
سانفرانسیسکو
سانچز
سانگ
سانی
ساواک
ساوت
ساوجبلاغ
ساوجی
ساوه
ساي
ساچمه
ساک
ساکت
ساکس
ساکسون
ساکن
ساکنان
ساکنین
ساکورا
ساکی
سای
سایبان
سایبری
سایت
سایتو
سایتی
ساید
سایر
سایرین
سایز
سایش
سایشگاه
سایمون
ساینده
ساینس
سایه
سایوز
سایپا
سبا
سباستین
سبب
سبحان
سبحانی
سبد
سبز
سبزه
سبزوار
سبزواری
سبزی
سبزیجات
سبقت
سبلان
سبک
سبکی
سبیل
ست
ستاد
ستار
ستارا
ستارخان
ستاره
ستارگان
ستاری
ستان
ستانه
ستایش
ستد
ستر
ستراخان
ستم
سته
ستوان
ستود
ستوده
ستوریاس
ستون
ستونی
ستی
ستیز
ستیزه
ستیزی
ستین
سجاد
سجادی
سجده
سحابی
سحر
سحرگاه
سخت
سختگیرانه
سختی
سخن
سخنان
سخنانی
سخنران
سخنرانی
سخنوران
سخنگو
سخنگوی
سخنی
سد
سدان
سده
سدها
سدهای
سدی
سدیم
سر
سرا
سراب
سراج
سرازیر
سراسر
سراسری
سراغ
سرافراز
سرامیک
سرامیکی
سران
سرانجام
سرانه
سراوان
سرای
سرایان
سرایت
سرایی
سرب
سرباز
سربازان
سربازی
سربداران
سربی
سربیشه
سرت
سرتاسر
سرتیپ
سرجیو
سرحد
سرحدات
سرحدی
سرخ
سرخرگ
سرخس
سرخه
سرخپوستان
سرخی
سرد
سردار
سرداران
سرداری
سردبیر
سردبیری
سردر
سردرد
سردرگمی
سردسیر
سردشت
سرده
سردی
سرریز
سرزمین
سرزمینی
سرزنش
سرسبز
سرسخت
سرش
سرشار
سرشت
سرشماری
سرشناس
سرشناسی
سرطان
سرطانی
سرعت
سرعته
سرعتی
سرعنوان
سرفه
سرقت
سرلشکر
سرم
سرما
سرماخوردگی
سرمای
سرمایش
سرمایه
سرمربی
سرمربیگری
سرمقاله
سرمه
سرنا
سرنخ
سرنشین
سرنشینان
سرنوشت
سرنگون
سرنگونی
سره
سرهم
سرهنگ
سرو
سروان
سرواژه
سروتونین
سرود
سرودن
سروده
سرودهای
سرور
سرورهای
سروری
سروستان
سروش
سروکار
سرویس
سرپرست
سرپرستی
سرپل
سرپوش
سرپوشیده
سرپیچی
سرچشمه
سرژ
سرکار
سرکرده
سرکش
سرکشی
سرکنسولگری
سرکه
سرکوب
سرکوبی
سرگذشت
سرگرد
سرگردان
سرگرم
سرگرمی
سرگشاده
سرگي
سرگی
سرگیجه
سری
سریال
سریالی
سریانی
سریر
سریع
سریعا
سریعتر
سریلانکا
سزار
سزاوار
سزایی
سس
سسات
سسان
سست
سستی
سسه
سسک
سطح
سطحی
سطر
سطل
سطوح
سعادت
سعد
سعدا
سعدی
سعود
سعودی
سعی
سعید
سعیدی
سغد
سغدی
سف
سفارت
سفارتخانه
سفارش
سفارشی
سفال
سفالت
سفالته
سفالگری
سفالی
سفانه
سفت
سفتی
سفر
سفرش
سفرنامه
سفره
سفرها
سفرهای
سفری
سفلی
سفیان
سفید
سفیده
سفیدپوست
سفیدپوستان
سفیدی
سفیر
سفیران
سفینه
سقراط
سقز
سقط
سقف
سقفی
سقوط
سل
سلاجقه
سلاح
سلاطین
سلام
سلامت
سلامتی
سلامی
سلب
سلبریتی
سلتیک
سلجوقی
سلجوقیان
سلحشور
سلسله
سلسیوس
سلطان
سلطانی
سلطانیه
سلطنت
سلطنتی
سلطه
سلف
سلفی
سلم
سلما
سلماس
سلمان
سلنا
سلول
سلولز
سلولهای
سلولی
سلوک
سلوکی
سلوکیان
سلیقه
سلیم
سلیمان
سلیمانی
سلیمانیه
سلیمی
سم
سماع
سمان
سمانی
سمبل
سمت
سمتی
سمرقند
سمرقندی
سمع
سمفونی
سمفونیک
سملقان
سمنان
سمنانی
سمندر
سمندریان
سمنگان
سموم
سمپدوریا
سمی
سمیت
سمیر
سمیرم
سمیعی
سمینار
سمیه
سن
سنا
سناتور
سناریو
سنان
سنای
سنایی
سنبل
سنبله
سنة
سنت
سنتر
سنترال
سنتز
سنتور
سنتی
سنج
سنجاب
سنجابی
سنجاق
سنجر
سنجش
سنجی
سنجیده
سند
سندرز
سندرم
سندروم
سندی
سندیکای
سنسور
سنسورهای
سنقر
سنن
سنندج
سنه
سنگ
سنگال
سنگاپور
سنگر
سنگسار
سنگسری
سنگفرش
سنگهای
سنگواره
سنگوکو
سنگی
سنگین
سنگینی
سنی
سنین
سه
سهام
سهامداران
سهامی
سهراب
سهرابی
سهره
سهروردی
سهل
سهم
سهمی
سهمیه
سهند
سهولت
سهیل
سهیلا
سهیلی
سهیم
سو
سوء
سوءاستفاده
سوا
سوابق
سواحل
سواد
سوادکوه
سوار
سواران
سوارز
سواره
سوارکار
سوارکاری
سواری
سوال
سوالات
سوان
سوانح
سوت
سوتا
سوخت
سوختن
سوخته
سوختگی
سوختی
سوخو
سود
سودا
سودابه
سودان
سودای
سودمند
سودمندی
سوده
سودی
سور
سوراخ
سوران
سورانی
سوربن
سورس
سورن
سوره
سوروس
سوری
سورینام
سوریه
سوز
سوزا
سوزان
سوزاند
سوزاندن
سوزانده
سوزد
سوزش
سوزن
سوزنی
سوزوکی
سوزی
سوسمار
سوسن
سوسک
سوسکچه
سوسیال
سوسیالیست
سوسیالیستی
سوسیالیسم
سوسیس
سوشی
سوغات
سوفی
سوفیا
سوق
سول
سولا
سولفات
سولفوریک
سولفید
سولو
سوم
سوماترا
سومالی
سومر
سومری
سومی
سومین
سون
سونات
سونامی
سونوگرافی
سونگ
سونی
سونیا
سونیک
سوي
سوپ
سوپاپ
سوپر
سوپرانو
سوپرجام
سوپرمن
سوژه
سوک
سوگ
سوگند
سوگواری
سوگیری
سوی
سویا
سویه
سویی
سوییس
سي
سينماى
سپارد
سپاری
سپاس
سپاه
سپاهان
سپاهی
سپاهیان
سپتامبر
سپتامر
سپر
سپرد
سپردن
سپردند
سپرده
سپری
سپس
سپه
سپهبد
سپهدار
سپهر
سپهری
سپهسالار
سپید
سپیدان
سپیدرود
سپیده
سک
سکا
سکان
سکانس
سکاها
سکایی
سکته
سکس
سکسی
سکندر
سکنه
سکنی
سکه
سکو
سکوت
سکولار
سکولاریسم
سکون
سکونت
سکونتگاه
سکوهای
سکوی
سکینه
سگ
سگا
سگی
سی
سیا
سیاب
سیاتل
سیاح
سیاحت
سیار
سیارات
سیاره
سیارک
سیاست
سیاستمدار
سیاستمداران
سیاستهای
سیاستگذاری
سیاستی
سیاسی
سیاق
سیال
سیالات
سیامک
سیاه
سیاهان
سیاهرگ
سیاهپوست
سیاهچاله
سیاهکل
سیاهی
سیاوش
سیای
سیایی
سیب
سیبری
سیبی
سیتروي
سیتوپلاسم
سیتی
سیحون
سیخ
سید
سیدا
سیدجوادی
سیدحسن
سیدعلی
سیدمحمد
سیدنی
سیده
سیدی
سیر
سیرا
سیرالي
سیرت
سیرجان
سیره
سیروان
سیروس
سیرک
سیری
سیریلیک
سیزده
سیزدهم
سیزدهمین
سیس
سیسات
سیستان
سیستانی
سیستم
سیستماتیک
سیستمهای
سیستمی
سیستمیک
سیسیل
سیسیلی
سیشل
سیصد
سیطره
سیف
سیل
سیلاب
سیلندر
سیلوا
سیلور
سیلوستر
سیلویا
سیلک
سیلی
سیلیس
سیلیسیم
سیلین
سیلیکات
سیلیکون
سیم
سیما
سیمان
سیمانی
سیمای
سیمرغ
سیمور
سیمون
سیمونز
سیمپسون
سیمی
سیمین
سین
سینا
سیناپسی
سینت
سیندرلا
سینما
سینماها
سینماهای
سینماگران
سینمای
سینمایی
سینه
سینوس
سینوسی
سینگ
سینی
سیه
سیوند
سیونیک
سیک
سیکس
سیکل
سیگار
سیگما
سیگنال
ش
شا
شابک
شات
شاتل
شاخ
شاخص
شاخصه
شاخه
شاخک
شاد
شادروان
شادمان
شادمانی
شادمهر
شادگان
شادی
شار
شارجه
شارل
شارلوت
شاره
شارون
شارپ
شارژ
شازده
شازند
شاسی
شاعر
شاعران
شاعرانه
شاعرانی
شاعری
شاغل
شافعی
شال
شالوده
شالکه
شام
شامل
شاملو
شامپانزه
شامگاه
شامی
شامیدنی
شان
شانزده
شانزدهم
شانزدهمین
شانس
شانسی
شانه
شانون
شانگ
شانگهای
شاه
شاهان
شاهانه
شاهد
شاهدان
شاهدخت
شاهدی
شاهراه
شاهرخ
شاهرود
شاهرودی
شاهزاده
شاهزادگان
شاهسون
شاهنامه
شاهنشاه
شاهنشاهی
شاهپور
شاهکار
شاهکارهای
شاهی
شاهین
شاو
شاي
شاپ
شاپا
شاپرک
شاپور
شاکر
شاکی
شاگرد
شاگردان
شاگردانش
شاگردی
شایان
شایانی
شاید
شایر
شایسته
شایستگی
شایع
شایعات
شایعاتی
شایعه
شایگان
شب
شبانه
شباهت
شبح
شبستان
شبستر
شبستری
شبنم
شبه
شبهه
شبکه
شبکیه
شبی
شبیه
شت
شتاب
شتافت
شتر
شتم
شتی
شتیان
شتیانی
شجاع
شجاعت
شجاعی
شجره
شجریان
شخص
شخصا
شخصی
شخصیت
شخصیتی
شد
شدت
شدم
شدن
شدند
شدنش
شدنی
شده
شدگان
شدگی
شدی
شدید
شدیدا
شدیدتر
شدیدترین
شدیدی
شدیم
شر
شراب
شرارت
شراره
شرافت
شراکت
شرایط
شرایطی
شرب
شربت
شرح
شرحی
شرط
شرطی
شرع
شرعی
شرف
شرق
شرقی
شرلوک
شرلی
شرم
شرمن
شروان
شرور
شروط
شروع
شروین
شرک
شرکا
شرکاء
شرکای
شرکت
شرکتها
شرکتهای
شرکتی
شری
شریان
شریعت
شریعتمداری
شریعتی
شریف
شریفی
شریک
شست
شستشو
شستشوی
شستن
شسته
شش
ششصد
ششم
ششمین
شصت
شطرنج
شعار
شعارهای
شعارهایی
شعاع
شعاعی
شعب
شعبان
شعبده
شعبه
شعر
شعرا
شعرای
شعرها
شعرهای
شعری
شعله
شعور
شغال
شغل
شغلی
شفا
شفاعت
شفاف
شفافیت
شفاهی
شفت
شفته
شفتگی
شفق
شفقت
شفیع
شفیعی
شفیلد
شق
شقایق
شل
شلاق
شلوار
شلوغ
شلوغی
شلی
شلیک
شم
شما
شمار
شمارد
شمارش
شمارند
شمارنده
شماره
شماری
شمارە
شماست
شمال
شمالی
شمایل
شمرد
شمردن
شمرده
شمس
شمسی
شمش
شمشیر
شمشیرباز
شمشیربازی
شمشیری
شمع
شمول
شمیران
شمیرانات
شن
شنا
شناخت
شناختن
شناختند
شناخته
شناختی
شناس
شناسان
شناسانه
شناسایی
شناسد
شناسم
شناسنامه
شناسند
شناسه
شناسی
شناسیم
شناور
شناورهای
شناوری
شناگر
شناگران
شنای
شنایان
شنایی
شنبه
شنل
شنوایی
شنود
شنونده
شنوندگان
شنی
شنید
شنیداری
شنیدم
شنیدن
شنیده
شه
شهاب
شهابی
شهادت
شهامت
شهباز
شهبازی
شهبانو
شهد
شهدا
شهداد
شهدای
شهر
شهرا
شهرام
شهربابک
شهربانی
شهرت
شهرتش
شهرتی
شهردار
شهرداری
شهرزاد
شهرسازی
شهرستان
شهرستانها
شهرستانهای
شهرستانی
شهرضا
شهرنشینی
شهره
شهرها
شهرهای
شهرهایی
شهروند
شهروندان
شهروندی
شهرک
شهرکرد
شهرکی
شهری
شهریار
شهریاری
شهریه
شهریور
شهریورماه
شهلا
شهناز
شهوانی
شهوت
شهود
شهودی
شهید
شهیدان
شهیدی
شهیر
شو
شوال
شوالیه
شواهد
شواهدی
شوب
شوت
شوخ
شوخی
شود
شور
شورا
شوراب
شوراها
شوراهای
شورای
شورایی
شورت
شورش
شورشی
شورشیان
شورلت
شوره
شوروی
شوری
شوریان
شوش
شوشتر
شوشتری
شوشی
شوق
شوقی
شوم
شون
شوند
شونده
شوهر
شوهرش
شوي
شوک
شوکت
شوکه
شوگون
شوی
شویتس
شوید
شویم
شویی
شي
شپرد
شپز
شپزخانه
شپزی
شک
شکار
شکارا
شکارساز
شکارسازی
شکارچی
شکارچیان
شکاری
شکاف
شکافت
شکافته
شکافی
شکایات
شکایت
شکایتی
شکر
شکری
شکست
شکستن
شکسته
شکستگی
شکستی
شکسپیر
شکل
شکلات
شکلی
شکم
شکمی
شکن
شکنجه
شکند
شکننده
شکنی
شکوری
شکوفا
شکوفایی
شکوفه
شکوه
شکی
شکیبایی
شگرف
شگفت
شگفتی
شی
شیء
شیار
شیاطین
شیان
شیانه
شیاي
شیب
شیبانی
شیخ
شیخی
شیدا
شیدایی
شیر
شیراز
شیرازی
شیراک
شیرجه
شیردهی
شیره
شیرها
شیرهای
شیروان
شیروانی
شیری
شیرین
شیرینی
شیشه
شیطان
شیطانی
شیعه
شیعی
شیعیان
شیفت
شیفته
شیل
شیلا
شیلات
شیلد
شیلر
شیلی
شیما
شیمی
شیمیایی
شیمیدان
شین
شیوا
شیوع
شیوه
شیي
شیپور
شیک
شیکاگو
ص
صابر
صابری
صابون
صاحب
صاحبان
صادر
صادرات
صادراتی
صادره
صادرکننده
صادق
صادقانه
صادقی
صاریغ
صاعقه
صاف
صافی
صالح
صالحی
صامت
صانعی
صاي
صبا
صباح
صبح
صبحانه
صبر
صبور
صبوری
صحابه
صحبت
صحبتی
صحت
صحرا
صحرانوردی
صحرای
صحرایی
صحن
صحنه
صحیح
صحیحی
صحیفه
صخره
صد
صدا
صدارت
صداقت
صدام
صداها
صداهای
صداوسیما
صداپیشه
صداپیشگی
صداگذاری
صدای
صدایش
صدایی
صدد
صدر
صدرا
صدراعظم
صدرالدین
صدری
صدف
صدفی
صدق
صدقه
صدمات
صدمه
صدمین
صدها
صدور
صدوق
صدی
صدیق
صدیقه
صدیقی
صراحت
صراحتا
صراف
صرافی
صرب
صربستان
صربی
صرع
صرف
صرفا
صرفنظر
صرفه
صریح
صریحا
صص
صعب
صعود
صعودی
صغیر
صف
صفا
صفات
صفاری
صفاریان
صفاي
صفایی
صفت
صفحات
صفحه
صفحە
صفر
صفرا
صفری
صفه
صفوف
صفوی
صفویان
صفویه
صفی
صل
صلاح
صلاحیت
صلب
صلح
صلحی
صلوات
صلی
صلیب
صلیبی
صلیبیون
صمد
صمدی
صمصام
صمغ
صمیمانه
صمیمی
صمیمیت
صنایع
صندلی
صندوق
صنعا
صنعاء
صنعت
صنعتگران
صنعتی
صنف
صنفی
صنیع
صهیونیست
صهیونیستی
صهیونیسم
صوت
صوتی
صور
صورت
صورتش
صورتی
صورتیکه
صوری
صوفی
صوفیان
صوفیه
صومعه
صیاد
صیادی
صیانت
صید
صیغه
صیفی
صیقل
ض
ضامن
ضایع
ضایعات
ضایعه
ضبط
ضحاک
ضخامت
ضخیم
ضد
ضدا
ضدعفونی
ضدهوایی
ضرایب
ضرب
ضربات
ضربان
ضربت
ضربه
ضربی
ضرر
ضرورت
ضروری
ضریب
ضریح
ضعف
ضعیف
ضعیفی
ضلع
ضلعی
ضمانت
ضمن
ضمنا
ضمنی
ضمیر
ضمیمه
ضوابط
ضیا
ضیاء
ضیاءالدین
ضیافت
ضیایی
ط
طارق
طارم
طارمی
طاعت
طاعون
طاق
طاقت
طاقچه
طالب
طالبان
طالبی
طالع
طالقان
طالقانی
طاهر
طاهره
طاهری
طاهریان
طاووس
طاي
طایفه
طب
طبابت
طباطباي
طباطبایی
طبخ
طبرستان
طبرسی
طبری
طبس
طبع
طبعا
طبعی
طبق
طبقات
طبقاتی
طبقه
طبل
طبی
طبیب
طبیعت
طبیعتا
طبیعی
طحال
طرابلس
طراح
طراحان
طراحی
طراز
طرب
طرح
طرحهای
طرحی
طرد
طرز
طرف
طرفدار
طرفداران
طرفداری
طرفه
طرفهای
طرفی
طرفین
طرق
طریق
طریقت
طریقه
طریقی
طعام
طعم
طعمه
طعن
طعنه
طغرل
طغیان
طفل
طقوش
طلا
طلاب
طلاق
طلاي
طلای
طلایی
طلب
طلبان
طلبانه
طلبد
طلبه
طلبی
طلبید
طلحه
طلسم
طلوع
طمع
طناب
طنز
طنزا
طنین
طه
طهران
طهرانی
طهماسب
طهماسبی
طوالش
طوایف
طور
طوری
طوریکه
طوس
طوسی
طوطی
طوفان
طوفانی
طول
طولانی
طولی
طومار
طویل
طی
طیب
طیبی
طیف
طیفی
طیور
ظ
ظالم
ظالمانه
ظاهر
ظاهرا
ظاهری
ظرافت
ظرف
ظرفی
ظرفیت
ظرفیتی
ظروف
ظریف
ظفر
ظل
ظلم
ظلمت
ظن
ظهر
ظهور
ظهیرالدوله
ظهیرالدین
ع
عا
عابد
عابدی
عاج
عاجز
عادات
عادت
عادل
عادلانه
عادی
عارضه
عارف
عارفان
عاری
عازم
عاشق
عاشقان
عاشقانه
عاشقی
عاشورا
عاشیق
عاطفه
عاطفی
عافیت
عاقبت
عاقل
عاقلی
عالم
عالمان
عالمگیر
عالمی
عالی
عالیه
عام
عامر
عامری
عامل
عاملان
عاملی
عامه
عامیانه
عاي
عایشه
عایق
عب
عباد
عبادت
عبادی
عبارات
عبارت
عبارتست
عبارتند
عبارتنداز
عبارتی
عباس
عباسعلی
عباسی
عباسیان
عبد
عبدالبهاء
عبدالحسین
عبدالحمید
عبدالرحمان
عبدالرحمن
عبدالرحیم
عبدالرزاق
عبدالرضا
عبدالسلام
عبدالعزیز
عبدالعظیم
عبدالعلی
عبدالقادر
عبدالله
عبداللهی
عبدالمجید
عبدالمطلب
عبدالملک
عبدالناصر
عبداله
عبدالوهاب
عبدالکریم
عبده
عبدی
عبرت
عبری
عبور
عبوری
عبید
عبیدالله
عتبات
عتیق
عتیقه
عثمان
عثمانی
عثمانیان
عج
عجایب
عجب
عجز
عجله
عجم
عجیب
عجیبی
عد
عدالت
عدالتی
عدد
عددی
عدس
عدسی
عدل
عدلیه
عدم
عدن
عدنان
عده
عدی
عذاب
عذر
عذرخواهی
عراده
عراق
عراقی
عرایض
عرب
عربستان
عربی
عرش
عرشه
عرصه
عرض
عرضه
عرضی
عرف
عرفات
عرفان
عرفانی
عرفی
عرق
عروج
عروس
عروسک
عروسکی
عروسی
عروضی
عروق
عروقی
عریان
عریض
عز
عزاداری
عزالدین
عزای
عزت
عزل
عزم
عزیز
عزیزالله
عزیزم
عزیزی
عزیمت
عسل
عسلویه
عسکر
عسکری
عسگری
عشاق
عشایر
عشایری
عشر
عشرت
عشق
عشقی
عصا
عصاره
عصب
عصبانی
عصبانیت
عصبی
عصر
عصمت
عصیان
عضدالدوله
عضلات
عضلانی
عضله
عضو
عضوی
عضویت
عطا
عطار
عطاران
عطارد
عطایی
عطر
عطف
عطفی
عظمت
عظیم
عظیمی
عفت
عفو
عفونت
عفونی
عقاب
عقاید
عقب
عقبه
عقبی
عقد
عقده
عقرب
عقربه
عقل
عقلانی
عقلانیت
عقلی
عقیدتی
عقیده
عقیل
عقیلی
عقیم
عل
علا
علاء
علاءالدوله
علاءالدین
علاج
علاقمند
علاقه
علام
علامت
علامتی
علامه
علاوه
علاي
علایق
علایم
علت
علف
علفی
علل
علم
علما
علماء
علمای
علمی
علمیه
علنا
علنی
علوفه
علوم
علوی
علویان
علي
علی
علیا
علیرضا
علیرغم
علیزاده
علیشاه
علیقلی
علینقی
علیه
علیهم
علیکم
عم
عماد
عمادالدین
عمادی
عمار
عمارت
عمال
عمامه
عمان
عمد
عمدا
عمدتا
عمده
عمدی
عمر
عمران
عمرانی
عمرش
عمرو
عمری
عمق
عمقی
عمل
عملا
عملکرد
عملکردهای
عملکردی
عملگر
عملگرهای
عملی
عملیات
عملیاتی
عمه
عمو
عمود
عمودی
عموم
عموما
عمومی
عموی
عمویش
عمید
عمیق
عمیقا
عمیقی
عن
عناصر
عناصری
عنان
عناوین
عنایت
عنبر
عنبرا
عند
عنصر
عنصرهای
عنصری
عنه
عنوان
عنوانی
عنکبوت
عنکبوتی
عهد
عهدنامه
عهده
عوارض
عواطف
عواقب
عوام
عوامل
عواملی
عواید
عود
عوض
عکا
عکاس
عکاسان
عکاسی
عکس
عکسی
عیار
عیان
عیب
عید
عیدی
عیسی
عیش
عیلام
عیلامی
عین
عینا
عینک
عینی
عیوب
غ
غا
غاج
غار
غارت
غارها
غارهای
غاری
غاز
غازان
غازگر
غازی
غازین
غافل
غافلگیر
غالب
غالبا
غاي
غایب
غایت
غبار
غداشلو
غدد
غده
غدیر
غذا
غذاخوری
غذاها
غذاهای
غذای
غذایی
غرامت
غرب
غربالگری
غربت
غربی
غرض
غرفه
غرق
غروب
غرور
غروی
غریب
غریبه
غریبی
غریزه
غزال
غزالی
غزل
غزلی
غزلیات
غزنوی
غزنویان
غزنی
غزه
غزوه
غسل
غشا
غشاء
غشای
غشایی
غشته
غصب
غصه
غضب
غضروف
غفاری
غفلت
غفوری
غل
غلات
غلاف
غلام
غلامان
غلامحسین
غلامرضا
غلامعلی
غلامی
غلبه
غلتک
غلط
غلظت
غله
غلیظ
غم
غمگین
غنا
غنای
غنچه
غنی
غنیمت
غواص
غواصی
غور
غوریان
غوش
غوطه
غول
غیاب
غیاث
غیب
غیبت
غیبی
غیر
غیرا
غیراخلاقی
غیرانتفاعی
غیرانسانی
غیرت
غیرخطی
غیردولتی
غیررسمی
غیرضروری
غیرطبیعی
غیرعادی
غیرفعال
غیرفلزی
غیرقابل
غیرقانونی
غیرمجاز
غیرمستقیم
غیرمعمول
غیرممکن
غیرمنتظره
غیرنظامی
غیرنظامیان
غیره
ـ
ــ
ف
فا
فابیو
فات
فاتح
فاجعه
فاحش
فاحشه
فاخر
فارابی
فارس
فارست
فارسی
فارغ
فارل
فارنهایت
فارو
فاروج
فاروق
فاریاب
فاز
فازهای
فازی
فاستر
فاسد
فاش
فاشیست
فاشیستی
فاشیسم
فاصل
فاصله
فاصلە
فاضل
فاضلاب
فاضلی
فاطمه
فاطمی
فاطمیان
فاعل
فاف
فاق
فاقد
فال
فالز
فالکون
فام
فامیل
فامیلی
فان
فانتزی
فانتوم
فانوس
فانی
فاي
فاکتور
فاکتورهای
فاکس
فای
فایده
فایر
فایرفاکس
فایل
فایو
فت
فتاب
فتابگردان
فتابی
فتاحی
فتح
فتحعلی
فتحی
فتق
فتنه
فتوا
فتوای
فتوحات
فتوسنتز
فجر
فحش
فخر
فخرالدین
فخرالدینی
فخری
فدا
فداي
فداکاری
فدای
فدایی
فدراسیون
فدرال
فدریکو
فر
فرا
فرابنفش
فرات
فراتر
فراخ
فراخوان
فراخواند
فراخوانده
فراخوانی
فرار
فرارو
فراری
فراز
فرازمینی
فراست
فراصوت
فراطبیعی
فراغت
فراق
فراماسونری
فرامرز
فرامرزی
فراموش
فراموشی
فرامین
فرانتس
فرانس
فرانسه
فرانسوا
فرانسوی
فرانسویان
فرانسیس
فرانسیسکو
فرانچسکو
فرانک
فرانکفورت
فرانکلین
فرانکو
فرانکی
فراه
فراهان
فراهانی
فراهم
فراوان
فراوانی
فراورده
فراکسیون
فراگرفت
فراگرفته
فراگیر
فراگیری
فرای
فرایبورگ
فرایند
فرایندها
فرایندهای
فرایندی
فرج
فرجام
فرجی
فرح
فرخ
فرخزاد
فرخنده
فرخی
فرد
فردا
فردای
فردریش
فردریک
فردوس
فردوسی
فردی
فردین
فردیناند
فرزاد
فرزان
فرزانه
فرزند
فرزندان
فرزندانش
فرزندانشان
فرزندش
فرزندشان
فرزندی
فرزین
فرسایش
فرست
فرستاد
فرستادن
فرستادند
فرستاده
فرستد
فرستند
فرستنده
فرسخ
فرسنگ
فرسوده
فرسودگی
فرش
فرشاد
فرشته
فرشتگان
فرشید
فرصت
فرصتی
فرض
فرضی
فرضیات
فرضیه
فرعون
فرعی
فرغانه
فرغانی
فرق
فرقه
فرقی
فرم
فرما
فرمان
فرماندار
فرمانداران
فرمانداری
فرمانده
فرماندهان
فرماندهی
فرمانروا
فرمانروای
فرمانروایان
فرمانروایی
فرمانفرما
فرمانی
فرماید
فرمایند
فرمایید
فرمت
فرمود
فرمودند
فرموده
فرمودید
فرمول
فرمی
فرناندز
فرناندو
فرنچایز
فرنگ
فرنگی
فره
فرهاد
فرهادی
فرهمند
فرهنگ
فرهنگستان
فرهنگسرای
فرهنگی
فرهنگیان
فرهیختگان
فرو
فروبست
فروتن
فروخت
فروختند
فروخته
فرود
فرودگاه
فرودگاهی
فروردین
فرورفته
فرورفتگی
فروزان
فروسرخ
فروش
فروشان
فروشد
فروشنده
فروشندگان
فروشگاه
فروشی
فروغ
فروغی
فروم
فرومی
فروند
فروهر
فروپاشی
فروید
فرکانس
فرکانسی
فرگشت
فرگشتی
فرگوسن
فری
فریاد
فریب
فریبا
فریبرز
فریتز
فریتس
فرید
فریدریش
فریدمن
فریدن
فریده
فریدون
فریزر
فریقا
فریقای
فریقایی
فریم
فریمان
فریمن
فرین
فرینان
فرینش
فریننده
فرینی
فزاینده
فزونی
فسا
فساد
فست
فستیوال
فسخ
فسفات
فسفر
فسیل
فسیلی
فشار
فشارها
فشارهای
فشاری
فشردن
فشرده
فشنگ
فصل
فصلنامه
فصلی
فصول
فصیح
فضا
فضانورد
فضانوردان
فضانوردی
فضاها
فضاهای
فضاي
فضاپیما
فضاپیمای
فضای
فضایل
فضایلی
فضایی
فضل
فضلی
فضولی
فضیلت
فطر
فطرت
فع
فعال
فعالان
فعالانه
فعالی
فعالیت
فعالیتش
فعالیتهای
فعالیتی
فعالین
فعل
فعلا
فعلی
فقال
فقاهت
فقدان
فقر
فقرا
فقرات
فقره
فقط
فقه
فقها
فقهای
فقهی
فقید
فقیر
فقیه
فقیهان
فقیهی
فلات
فلاح
فلاسفه
فلاش
فلان
فلاندر
فلاندری
فلج
فلز
فلزات
فلزی
فلزیاب
فلس
فلسطین
فلسطینی
فلسطینیان
فلسفه
فلسفی
فلش
فلفل
فلما
فلمینگ
فلوت
فلور
فلورا
فلورانس
فلوریدا
فلوي
فلوید
فلک
فلکه
فلکی
فلین
فلیکس
فمینیست
فمینیستی
فمینیسم
فن
فنا
فناوری
فنجان
فندق
فنر
فنلاند
فنلاندی
فنون
فنگ
فنی
فنیقی
فنیل
فه
فهد
فهرج
فهرست
فهرستی
فهم
فهمد
فهمند
فهمید
فهمیدم
فهمیدن
فهمیده
فو
فواره
فواصل
فواید
فوت
فوتبال
فوتبالی
فوتبالیست
فوتسال
فوتون
فوج
فوجی
فور
فورا
فوران
فوربز
فورت
فورتونا
فورد
فورس
فوری
فوریت
فوریه
فوق
فوقانی
فول
فولاد
فولادهای
فولادوند
فولادی
فولام
فولر
فولک
فولکس
فولکلور
فوم
فومن
فون
فونت
فوي
فوکو
فوکوس
فوکوشیما
فوکوي
فوگ
في
فک
فکر
فکری
فی
فیات
فیاض
فیبر
فیبرهای
فیت
فیتزجرالد
فیجی
فیر
فیروز
فیروزا
فیروزه
فیروزکوه
فیزیوتراپی
فیزیولوژی
فیزیولوژیکی
فیزیک
فیزیکدان
فیزیکی
فیس
فیسبوک
فیش
فیشر
فیصل
فیض
فیفا
فیل
فیلادلفیا
فیلارمونیک
فیلتر
فیلترهای
فیلترینگ
فیلد
فیلسوف
فیلسوفان
فیلم
فیلمبردار
فیلمبرداری
فیلمز
فیلمساز
فیلمسازان
فیلمسازی
فیلمش
فیلمنامه
فیلمهای
فیلمی
فیلی
فیلیپ
فیلیپس
فیلیپین
فیلیپینی
فین
فینا
فینال
فینالیست
فینیکس
فیه
فیها
فیورنتینا
ق
قا
قاب
قابزرگ
قابل
قابلمه
قابلیت
قابوس
قاتل
قاتلان
قاجار
قاجاری
قاجاریان
قاجاریه
قاخان
قادر
قادرند
قادری
قاره
قارچ
قارچی
قاری
قازاده
قاسم
قاسمی
قاسی
قاشق
قاصد
قاضی
قاطع
قاطعانه
قاعده
قاعدگی
قافله
قافیه
قال
قالب
قالبی
قالی
قالیباف
قالیچه
قامت
قامحمدخان
قاموس
قانع
قانون
قانونگذاری
قانونی
قاهره
قاي
قاچاق
قاچاقچیان
قای
قایان
قایانی
قایق
قایقران
قایقرانی
قایل
قایم
قایی
قباد
قبال
قبایل
قبر
قبرس
قبرستان
قبریاب
قبض
قبضه
قبطی
قبل
قبلا
قبله
قبلی
قبه
قبور
قبول
قبولی
قبیل
قبیله
قتل
قحطی
قد
قدامی
قدر
قدرت
قدرتمند
قدرتمندترین
قدرتمندی
قدرتی
قدردانی
قدری
قدس
قدسی
قدم
قدمت
قدمتی
قدمگاه
قدمی
قدیس
قدیم
قدیمی
قذافی
قرا
قرابت
قرار
قرارداد
قراردادن
قراردادها
قراردادهای
قراردادی
قراردارد
قرارند
قرارگاه
قرارگرفته
قرارگیری
قراری
قران
قراي
قرب
قربان
قربانی
قربانیان
قرشی
قرص
قرض
قرضه
قرضی
قرعه
قرقیزستان
قرمز
قرمزی
قرن
قرنطینه
قرنیه
قره
قرون
قروه
قریب
قریش
قریشی
قرینه
قریه
قزاق
قزاقستان
قزاقی
قزل
قزلباش
قزوین
قزوینی
قسطنطنیه
قسم
قسمت
قسمتهای
قسمتی
قشر
قشرها
قشقایی
قشلاق
قشم
قشنگ
قشون
قصاب
قصاص
قصاید
قصبه
قصد
قصر
قصران
قصه
قصور
قصیده
قضا
قضات
قضاوت
قضاي
قضایا
قضایای
قضایی
قضاییه
قضیه
قطار
قطارهای
قطب
قطبش
قطبی
قطر
قطرات
قطره
قطری
قطع
قطعا
قطعات
قطعاتی
قطعنامه
قطعه
قطعی
قطعیت
قفس
قفسه
قفقاز
قفقازی
قفل
ققنوس
قل
قلا
قلاب
قلب
قلبم
قلبی
قلت
قلع
قلعه
قلم
قلمداد
قلمرو
قلمروهای
قلمروی
قلمی
قله
قلی
قلیان
قلیایی
قلیچ
قم
قمار
قمر
قمری
قمشه
قمی
قنات
قناتی
قناری
قناعت
قنبری
قند
قندهار
قندی
قه
قهر
قهرمان
قهرمانان
قهرمانی
قهستان
قهوه
قو
قوا
قواعد
قوام
قوامی
قوانین
قوانینی
قوای
قوت
قورباغه
قوری
قوس
قوسی
قوطی
قول
قوله
قولی
قوم
قومس
قومی
قومیت
قونیه
قوه
قوچ
قوچان
قوی
قویا
قویونلو
قی
قیاس
قیافه
قیام
قیامت
قید
قیر
قیس
قیصر
قیصریه
قیم
قیمت
قیمتی
قیمومت
قیچی
ك
كار
كتاب
كرد
كرده
كند
كنند
كه
ل
لا
لااقل
لاباما
لابد
لابی
لات
لاتزیو
لاتین
لاتینی
لاجرم
لاجوردی
لادن
لار
لارا
لارس
لارستان
لارن
لارنس
لارو
لاری
لاریجان
لاریجانی
لازاریان
لازم
لازمه
لاس
لاست
لاستیک
لاستیکی
لاسکا
لاشه
لاغر
لاف
لال
لاله
لالی
لالیگا
لام
لاما
لامرد
لامپ
لان
لانا
لاند
لانس
لانه
لانکا
لانگ
لاهه
لاهوتی
لاهور
لاهیجان
لاهیجی
لاو
لاوی
لاي
لاپلاس
لاک
لاکهید
لاکی
لای
لایت
لایحه
لایف
لایق
لاین
لاینده
لایه
لایو
لایپزیگ
لب
لبا
لباتروس
لباس
لباسته
لباسی
لبالو
لبانی
لبانیایی
لبخند
لبر
لبرت
لبرتا
لبرتو
لبنان
لبنانی
لبنی
لبنیات
لبه
لبوم
لبومی
لبیون
لت
لتا
لتای
لترناتیو
لتو
لتونی
لتونیایی
لتی
لثه
لجستیک
لجن
لحاظ
لحظات
لحظاتی
لحظه
لحن
لحیم
لخت
لخته
لد
لدو
لذا
لذت
لر
لرد
لردگان
لرزاند
لرزش
لرزه
لرستان
لرژی
لرژیک
لری
لزایمر
لزلی
لزنر
لزوم
لزوما
لس
لسان
لساندریا
لست
لستر
لسلی
لشکر
لشکرهای
لشکرکشی
لشکری
لشکریان
لطف
لطفا
لطفعلی
لطفی
لطمه
لطیف
لطیفه
لطیفی
لعاب
لعل
لعنت
لعنتی
لغات
لغت
لغتنامه
لغزش
لغو
لغوی
لف
لفا
لفان
لفرد
لفردو
لفظ
لفظی
لفه
لفونسو
لق
لقاح
لقب
لقمان
لقمه
لل
للطباعة
للملایین
للمیلاد
للنشر
لله
لم
لما
لماتی
لمان
لمانی
لمس
لمسی
لن
لنا
لند
لندن
لنده
لنز
لنزهای
لنفاوی
لنفوسیت
لنکران
لنکستر
لنگ
لنگر
لنگرود
لنگرودی
لنگه
لنی
لنین
لنینگراد
له
لهجه
لهذا
لهستان
لهستانی
لو
لوا
لوازم
لواسان
لوایح
لوب
لوبیا
لوت
لوتر
لوتوس
لوتون
لوح
لوحه
لود
لوده
لودویگ
لودگی
لور
لورا
لوران
لورل
لورن
لورنزو
لورنس
لورکوزن
لوری
لوز
لوزالمعده
لوزان
لوزی
لوس
لوسی
لوسیا
لوسیفر
لوسین
لوسیوس
لوفت
لوقا
لول
لولا
لوله
لوموند
لومینیم
لومینیوم
لومینیومی
لون
لونا
لونسو
لوور
لوون
لوي
لوپز
لوک
لوکا
لوکاس
لوکزامبورگ
لوکس
لوکوموتیو
لوکی
لوکیشن
لوگان
لوگو
لوگوی
لوی
لوید
لویس
لوین
لویی
لوییس
لي
لپ
لپاین
لپه
لچه
لژ
لژیون
لک
لکان
لکس
لکساندر
لکسی
لکن
لکه
لکی
لکیپ
لگاریتم
لگد
لگن
لگو
لی
لیا
لیاقت
لیام
لیان
لیانگ
لیاژ
لیاژها
لیاژهای
لیاژی
لیبرال
لیبرالیسم
لیبرترین
لیبرتی
لیبریا
لیبل
لیبی
لیت
لیتر
لیتری
لیتل
لیتوانی
لیتوانیایی
لیتون
لیتیم
لیتیوم
لیث
لیختن
لید
لیدز
لیدن
لیدی
لیدیا
لیر
لیره
لیز
لیزا
لیزر
لیزرهای
لیزری
لیس
لیسا
لیسانس
لیسبون
لیست
لیستی
لیسه
لیسون
لیف
لیفات
لیفت
لیل
لیلا
لیلی
لیما
لیمو
لین
لینا
لیندا
لیندسی
لینوکس
لینچ
لینک
لینکلن
لینکولن
لینگ
لیه
لیو
لیوان
لیورپول
لیون
لیونل
لیوینگستون
لیژ
لیک
لیکرز
لیکس
لیکن
لیگ
لیگا
لیگاند
م
ما
مابقی
مابین
مات
ماتریس
ماتریسی
ماتریکس
ماتور
ماتي
ماتیاس
ماجرا
ماجراجویی
ماجراهای
ماجرای
ماجرایی
ماخ
ماد
مادام
ماداگاسکار
مادر
مادران
مادربزرگ
مادربزرگش
مادرزادی
مادرش
مادرشان
مادرم
مادری
مادرید
مادلونگ
ماده
مادها
مادون
مادي
مادگی
مادی
مادە
مار
مارا
مارات
ماراتن
مارادونا
مارت
مارتا
مارتی
مارتین
مارتینز
ماردها
مارس
مارسل
مارسی
مارش
مارشال
مارمولک
مارن
ماره
مارها
مارهای
مارو
مارول
مارون
ماروین
مارپیچ
مارپیچی
مارچ
مارچلو
مارک
مارکت
مارکریت
مارکز
مارکس
مارکسیست
مارکسیستی
مارکسیسم
مارکو
مارکوس
مارکوف
مارگارت
مارگون
مارگیری
ماری
ماریا
ماریان
مارین
مارینا
مارینو
ماریو
ماریوس
ماریون
مازاد
مازندران
مازندرانی
مازون
مازیار
ماس
ماسال
ماساچوست
ماساژ
ماست
ماسه
ماسوله
ماسک
ماسیمو
ماشین
ماشینی
ماضی
مافوق
مافی
مافیا
مافیای
ماقبل
مال
مالاریا
مالاوی
مالاگا
مالایی
مالت
مالتی
مالدیو
مالزی
مالزیایی
ماله
مالک
مالکان
مالکوم
مالکی
مالکیت
مالکین
مالی
مالیات
مالیاتی
مالیه
مام
ماما
مامان
مامایی
مامور
ماموران
ماموریت
مامورین
مان
مانا
ماند
ماندا
ماندارین
ماندلا
ماندن
ماندند
ماندنی
مانده
ماندگار
ماندگاری
ماندگی
مانع
مانعی
مانند
مانندی
مانه
مانو
مانور
مانوي
مانوی
مانکن
مانگا
مانی
مانیتور
مانیفست
مانیل
ماه
ماهان
ماهانه
ماهر
ماهرانه
ماهشهر
ماهنامه
ماهه
ماهواره
ماهور
ماهون
ماهگی
ماهی
ماهیان
ماهیانه
ماهیت
ماهیچه
ماهیگیری
ماوراء
ماوراءالنهر
ماورای
ماوس
ماي
ماژور
ماژول
ماکان
ماکاي
ماکت
ماکرو
ماکس
ماکسول
ماکسیم
ماکسیمیلیان
ماکو
ماکیان
مای
مایا
مایر
مایرز
مایع
مایعات
مایعی
مایل
مایلز
مایلی
ماین
مایه
مایو
مایورکا
مایک
مایکروسافت
مایکروویو
مایکل
مباحث
مباحثه
مباحثی
مبادا
مبادرت
مبادلات
مبادله
مبارز
مبارزات
مبارزان
مبارزه
مبارک
مبارکه
مباشر
مبالغ
مبالغه
مبانی
مبتلا
مبتلایان
مبتنی
مبتکر
مبحث
مبدا
مبدل
مبرلا
مبل
مبلغ
مبلغان
مبلغی
مبلمان
مبنا
مبنای
مبنی
مبهم
مبولانس
مبین
مة
مت
متا
متابولیت
متابولیسم
متابولیک
متاخر
متاسفانه
متافیزیک
متال
متالورژی
متان
متاکریتیک
متجاوز
متحد
متحدان
متحده
متحدین
متحرک
متحمل
متحول
متخاصم
متخذه
متخصص
متخصصان
متخصصین
متخلخل
متخلص
متد
متداول
متذکر
متر
مترادف
متراکم
مترجم
مترجمان
مترقی
مترمربع
مترمکعب
مترو
متروپولیتن
متروک
متروکه
متروی
متری
متریک
متزلزل
متس
متساوی
متشکل
متصدی
متصرف
متصل
متصور
متضاد
متضمن
متعادل
متعارف
متعاقب
متعاقبا
متعال
متعالی
متعدد
متعددی
متعصب
متعلق
متعهد
متغیر
متغیرها
متغیرهای
متـ
متفاوت
متفاوتی
متفرق
متفرقه
متفق
متفقین
متفکر
متفکران
متقابل
متقارن
متقاضی
متقاضیان
متقاطع
متقاعد
متلاشی
متمادی
متمایز
متمایل
متمدن
متمرکز
متمم
متن
متناسب
متناظر
متناقض
متناهی
متناوب
متنفر
متنوع
متنوعی
متنی
مته
متهم
متهمان
متواری
متوازن
متوازی
متوالی
متوجه
متوسط
متوسطه
متوسطی
متوسل
متوفی
متوقف
متولد
متولی
متولیان
متون
متوکل
متکلم
متکی
متی
متیل
متین
متیو
مثابه
مثال
مثالی
مثانه
مثبت
مثبتی
مثل
مثلا
مثلث
مثلثاتی
مثلثی
مثنوی
مثنویات
مجادله
مجارستان
مجارستانی
مجاری
مجاز
مجازات
مجازی
مجال
مجالس
مجامع
مجانی
مجاهد
مجاهدان
مجاهدین
مجاور
مجاورت
مجبور
مجتبی
مجتمع
مجتهد
مجتهدی
مجد
مجدد
مجددا
مجذوب
مجرای
مجرد
مجرم
مجرمان
مجرمانه
مجروح
مجروحان
مجری
مجریان
مجریه
مجزا
مجسم
مجسمه
مجل
مجلات
مجلد
مجلس
مجلسی
مجلسین
مجلل
مجله
مجمع
مجموع
مجموعا
مجموعه
مجموعە
مجنون
مجهز
مجهول
مجوز
مجوزهای
مجید
مجیدی
محاربه
محارم
محاسبات
محاسباتی
محاسبه
محاصره
محافظ
محافظان
محافظت
محافظه
محافل
محال
محاوره
محاکم
محاکمه
محب
محبت
محبوب
محبوبه
محبوبیت
محبوس
محبی
محتاج
محترم
محتشم
محتمل
محتوا
محتوای
محتوایی
محتوی
محتویات
محجوب
محجوبی
محدب
محدث
محدود
محدوده
محدودکننده
محدودی
محدودیت
محدودیتی
محراب
محرم
محرمانه
محروم
محرومیت
محرک
محرکه
محسن
محسنی
محسوب
محسوس
محصور
محصول
محصولات
محصولاتی
محصولی
محض
محضر
محفظه
محفل
محفوظ
محقق
محققان
محققین
محل
محلات
محلاتی
محله
محلول
محلی
محم
محمد
محمدا
محمدابراهیم
محمدامین
محمدباقر
محمدبن
محمدتقی
محمدجعفر
محمدجواد
محمدحسن
محمدحسین
محمدخان
محمدرضا
محمدزاده
محمدشاه
محمدصادق
محمدعلی
محمدمهدی
محمدهادی
محمدکاظم
محمدی
محمدیان
محمدیه
محمود
محمودا
محمودی
محموله
محو
محور
محورهای
محوری
محوریت
محوطه
محول
محکم
محکمه
محکمی
محکوم
محکومیت
محیط
محیطی
مخابرات
مخابراتی
مخابره
مخارج
مخازن
مخاط
مخاطب
مخاطبان
مخاطبین
مخاطرات
مخاطره
مخاطی
مخالف
مخالفان
مخالفت
مخالفم
مخالفین
مخبر
مختار
مختاری
مخترع
مختص
مختصات
مختصر
مختصری
مختل
مختلط
مختلف
مختلفی
مخدر
مخدوش
مخرب
مخرج
مخروبه
مخروط
مخروطی
مخزن
مخصوص
مخصوصا
مخصوصی
مخفف
مخفی
مخفیانه
مخلوط
مخلوطی
مخلوق
مخمر
مخمل
مخملباف
مخملی
مخوف
مخچه
مد
مداخلات
مداخله
مداد
مدار
مدارا
مداران
مدارس
مدارهای
مدارک
مدارکی
مداری
مدافع
مدافعان
مدال
مدام
مداوم
مدت
مدترین
مدتها
مدتی
مدح
مدخل
مدد
مدرس
مدرسه
مدرسی
مدرسین
مدرن
مدرنیته
مدرنیسم
مدرک
مدرکی
مدعا
مدعو
مدعی
مدعیان
مدفن
مدفوع
مدفون
مدل
مدلسازی
مدلهای
مدلی
مدم
مدن
مدند
مدنظر
مدنی
مده
مدها
مدهای
مدور
مدول
مدولاسیون
مدون
مدونا
مدگی
مدی
مدیا
مدیترانه
مدید
مدیر
مدیران
مدیرعامل
مدیرمسي
مدیره
مدیرکل
مدیری
مدیریت
مدیریتی
مدیسون
مدیم
مدینه
مدیون
مذاب
مذاهب
مذاکرات
مذاکراتی
مذاکره
مذهب
مذهبی
مذکر
مذکور
مذکوره
مر
مرا
مراتب
مراتبی
مراتع
مراجع
مراجعت
مراجعه
مراحل
مراد
مرادی
مراسم
مراسمی
مراعات
مراغه
مراقب
مراقبت
مرام
مراکز
مراکش
مراکشی
مربع
مربعی
مربوط
مربوطه
مربی
مربیان
مربیگری
مرتب
مرتبا
مرتبط
مرتبه
مرتد
مرتضوی
مرتضی
مرتع
مرتفع
مرتکب
مرثیه
مرج
مرجان
مرجانی
مرجع
مرجعی
مرجعیت
مرحله
مرحمت
مرحوم
مرخص
مرخصی
مرد
مرداب
مرداد
مردادماه
مردان
مردانه
مردانگی
مردانی
مرداویج
مردم
مردمان
مردمانی
مردمش
مردمک
مردمی
مردن
مرده
مردها
مردود
مردوک
مردگان
مردی
مرز
مرزبان
مرزش
مرزها
مرزهای
مرزی
مرسدس
مرسوم
مرسی
مرشد
مرض
مرضیه
مرطوب
مرعشی
مرغ
مرغابی
مرغان
مرغوب
مرغی
مرفه
مرقد
مرلین
مرمت
مرمر
مرموز
مرند
مره
مرو
مروارید
مروان
مروج
مرودشت
مرور
مرورگر
مروری
مروی
مري
مرکب
مرکبات
مرکز
مرکزوار
مرکزی
مرکزیت
مرکل
مرکوری
مرگ
مرگبار
مرگش
مری
مریخ
مرید
مریدان
مریض
مریل
مریلند
مریلین
مریم
مریوان
مریکا
مریکاست
مریکای
مریکایی
مریکن
مزاج
مزاحم
مزاحمت
مزار
مزارع
مزایا
مزایای
مزایده
مزبور
مزد
مزدا
مزدوج
مزدور
مزدوران
مزدک
مزدیسنا
مزرعه
مزمن
مزه
مزیت
مزین
مس
مسا
مسابقات
مسابقاتی
مسابقه
مساجد
مساحت
مساحتی
مساعد
مساعدت
مساعی
مسافت
مسافتی
مسافر
مسافران
مسافربری
مسافرت
مسافرتی
مسافرخانه
مسافری
مسافرین
مسالمت
مساله
مساوات
مساوی
مساي
مسایل
مسبب
مست
مستا
مستثنی
مستحق
مستحکم
مستخدم
مستخدمین
مستر
مسترد
مستردام
مستضعفان
مستطیل
مستطیلی
مستعار
مستعد
مستعمرات
مستعمره
مستغلات
مستقر
مستقل
مستقلی
مستقیم
مستقیما
مستقیمی
مستلزم
مستمر
مستمری
مستند
مستندات
مستندساز
مستندسازی
مستندی
مستوفی
مستی
مسجد
مسجدسلیمان
مسجدی
مسخره
مسدود
مسطح
مسعود
مسعودی
مسقط
مسلح
مسلحانه
مسلسل
مسلط
مسلم
مسلما
مسلمان
مسلمانان
مسلمانی
مسلمین
مسلک
مسموم
مسمومیت
مسن
مسند
مسو
مسواک
مسوول
مسوولیت
مسي
مسکن
مسکو
مسکونی
مسی
مسیح
مسیحی
مسیحیان
مسیحیت
مسیر
مسیرها
مسیرهای
مسیری
مسیریابی
مسینا
مسیو
مش
مشابه
مشابهی
مشاجره
مشارکت
مشارکتی
مشاغل
مشاهدات
مشاهده
مشاهیر
مشاور
مشاوران
مشاوره
مشایخ
مشایخی
مشایی
مشبک
مشت
مشتاق
مشترک
مشترکا
مشترکی
مشتری
مشتریان
مشتق
مشتقات
مشتمل
مشتی
مشخص
مشخصا
مشخصات
مشخصه
مشخصی
مشرف
مشرق
مشروب
مشروبات
مشروح
مشروط
مشروطه
مشروطیت
مشروع
مشروعیت
مشعل
مشغول
مشق
مشمول
مشهد
مشهدی
مشهود
مشهور
مشهورترین
مشهوری
مشورت
مشورتی
مشوق
مشک
مشکاتیان
مشکل
مشکلات
مشکلاتی
مشکلی
مشکور
مشکوک
مشکی
مشکین
مشگین
مشی
مشیر
مشیرالدوله
مشیری
مصاحب
مصاحبه
مصادره
مصادف
مصادیق
مصارف
مصاف
مصالح
مصالحه
مصاي
مصباح
مصحح
مصداق
مصدر
مصدق
مصدوم
مصدومیت
مصر
مصراع
مصرف
مصرفی
مصری
مصریان
مصطفوی
مصطفی
مصلح
مصلحت
مصلی
مصمم
مصنوعات
مصنوعی
مصو
مصوب
مصوبات
مصوبه
مصوت
مصور
مصون
مصونیت
مصیبت
مضارع
مضاعف
مضامین
مضر
مضمون
مطابق
مطابقت
مطالب
مطالبات
مطالبه
مطالبی
مطالعات
مطالعاتی
مطالعه
مطالعە
مطبوع
مطبوعات
مطبوعاتی
مطرح
مطلب
مطلبی
مطلع
مطلق
مطلقا
مطلقه
مطلوب
مطلوبی
مطلوبیت
مطمي
مطهر
مطهری
مطیع
مطیعی
مظاهر
مظفر
مظفرالدین
مظفری
مظفریان
مظلوم
مظلومی
مظنون
مظهر
مع
معابد
معابر
معاد
معادل
معادلات
معادله
معادن
معارف
معارفه
معاش
معاشرت
معاصر
معاف
معافیت
معالجه
معاملات
معاملاتی
معامله
معانی
معاهدات
معاهده
معاون
معاونان
معاونت
معاویه
معایب
معاینه
معبد
معبدی
معبر
معتاد
معتبر
معتبرترین
معتبری
معتدل
معترض
معترضان
معترضین
معتزله
معتصم
معتقد
معتقدم
معتقدند
معتمد
معتمدی
معجزات
معجزه
معجم
معدل
معدن
معدنی
معده
معدود
معدودی
معراج
معرب
معرض
معرف
معرفت
معرفی
معرق
معروف
معروفترین
معروفی
معروفیت
معرکه
معزی
معشوق
معشوقه
معصوم
معصومه
معصومی
معضل
معضلات
معطر
معطوف
معظم
معظمی
معقول
معلق
معلم
معلمان
معلمی
معلول
معلولان
معلولیت
معلولین
معلوم
معلومات
معما
معمار
معماران
معماری
معمای
معمایی
معمر
معمول
معمولا
معمولی
معنا
معناست
معنای
معنایی
معنوی
معنویت
معنی
معکوس
معیار
معیارها
معیارهای
معیاری
معیری
معیشت
معین
معینی
معیوب
مغ
مغازه
مغالطه
مغان
مغایر
مغایرت
مغذی
مغرب
مغربی
مغرور
مغز
مغزی
مغلوب
مغناطیس
مغناطیسی
مغول
مغولان
مغولستان
مغولی
مف
مفاتیح
مفاخر
مفاد
مفاصل
مفاهیم
مفاهیمی
مفتخر
مفتی
مفرد
مفرط
مفرغ
مفروض
مفسر
مفسران
مفصل
مفصلی
مفعول
مفقود
مفهوم
مفهومی
مفی
مفید
مفیدی
مقابل
مقابله
مقادیر
مقادیری
مقارن
مقاصد
مقاطع
مقالات
مقالاتی
مقاله
مقام
مقامات
مقامی
مقاوم
مقاومت
مقاومتی
مقایسه
مقبره
مقبول
مقتدر
مقتضی
مقتول
مقد
مقدار
مقداری
مقدس
مقدسات
مقدسی
مقدم
مقدمات
مقدماتی
مقدمه
مقدور
مقدونی
مقدونیه
مقر
مقرر
مقررات
مقرراتی
مقرنس
مقرون
مقصد
مقصر
مقصود
مقطع
مقطعات
مقطعی
مقعد
مقعدی
مقلد
مقننه
مقوله
مقیاس
مقیاسی
مقید
مقیم
مل
ملا
ملات
ملاحظات
ملاحظه
ملازم
ملاصدرا
ملاقات
ملامت
ملانی
ملاک
ملایر
ملایم
ملبورن
ملت
ملتی
ملحق
ملخ
ملزم
ملزومات
ملغی
ملقب
ملل
ملموس
ملوان
ملوانان
ملودی
ملون
ملوک
ملک
ملکان
ملکشاه
ملکشاهی
ملکم
ملکه
ملکوت
ملکی
ملی
ملیت
ملیتی
ملیحه
ملیسا
مماس
ممالک
ممالیک
ممانعت
ممتاز
ممتد
ممتنع
ممسنی
ممفیس
مملو
مملکت
مملکتی
ممنوع
ممنوعه
ممنوعیت
ممکن
ممیز
ممیزی
من
منا
منابع
منابعی
مناجات
منار
مناره
منازعات
منازعه
منازل
مناسب
مناسبات
مناسبت
مناسبی
مناسک
مناصب
مناطق
مناطقی
مناظر
مناظره
منافذ
منافع
مناقب
مناقشه
مناقصه
منان
منبت
منبر
منبع
منبعی
منت
منتج
منتخب
منتسب
منتشر
منتشرشده
منتشره
منتظر
منتظری
منتظم
منتفی
منتقد
منتقدان
منتقدین
منتقل
منتها
منتهی
منثور
منجر
منجم
منجمد
منجمله
منجی
منحرف
منحصر
منحصرا
منحصربه
منحل
منحنی
مند
مندان
مندرج
مندی
منزل
منزلت
منزله
منزوی
منسجم
منسوب
منسوجات
منسوخ
منش
منشا
منشاء
منشعب
منشور
منشورات
منشوری
منشی
منصب
منصبان
منصرف
منصف
منصفانه
منصفه
منصوب
منصور
منصوره
منصوری
منطبق
منطق
منطقه
منطقی
منطقە
منظر
منظره
منظم
منظمی
منظور
منظوره
منظوم
منظومه
منع
منعقد
منعکس
منفجر
منفجره
منفرد
منفعت
منفعل
منفی
منقار
منقبض
منقرض
منقضی
منقول
منم
منه
منهای
منهتن
منهدم
منهم
منو
منوط
منوچهر
منوچهری
منوی
منچستر
منکر
منگنز
منی
منیر
منیزیم
منین
منیژه
مه
مهاباد
مهاجر
مهاجران
مهاجرانی
مهاجرت
مهاجرین
مهاجم
مهاجمان
مهار
مهارت
مهارکننده
مهتاب
مهد
مهدوی
مهدی
مهدیه
مهر
مهرا
مهران
مهربان
مهربانی
مهرجویی
مهرداد
مهرماه
مهره
مهرگان
مهری
مهریز
مهریه
مهسا
مهستی
مهشید
مهلت
مهم
مهمات
مهمان
مهمانان
مهمانی
مهمتر
مهمترین
مهمی
مهناز
مهندس
مهندسان
مهندسی
مهندسین
مهیا
مهیج
مهین
مو
مواجه
مواجهه
مواد
موادی
موارد
مواردی
موازات
موازنه
موازی
موازین
مواضع
موافق
موافقت
موافقتنامه
موافقند
مواقع
مواقعی
موانع
موبایل
موبد
موبدان
موت
موتسارت
موتور
موتورز
موتورسیکلت
موتوره
موتورها
موتورهای
موتوری
موتوریزه
موتیف
موثر
موثق
موج
موجب
موجبات
موجه
موجو
موجود
موجودات
موجوداتی
موجودی
موجودیت
موجی
موحد
موخت
موختن
موخته
موختگان
مود
مودت
مودریا
مودم
مودنا
مودی
مور
مورا
موران
مورب
مورتال
مورتون
مورخ
مورخان
مورخین
مورد
موردنظر
موردنیاز
موردی
مورسیا
مورف
مورفی
مورو
موروثی
مورچه
مورگان
موری
موریت
موریتانی
موریتی
موریس
موریسون
مورین
مورینیو
موز
موزامبیک
موزان
موزد
موزش
موزشگاه
موزشی
موزه
موزون
موزگار
موزگاران
موزی
موزیک
موزیکال
موس
موساد
موسس
موسسات
موسسه
موسمی
موسوعة
موسولینی
موسوم
موسوی
موسی
موسیقایی
موسیقی
موسیقیدان
موش
موشک
موشکی
موشی
موصل
موضع
موضعی
موضوع
موضوعات
موضوعاتی
موضوعه
موضوعی
موظف
موظفند
موعد
موعظه
موعود
موفق
موفقی
موفقیت
موفقیتی
موقت
موقتا
موقتی
موقع
موقعی
موقعیت
موقعیتی
موقوف
موقوفات
موقوفه
مول
مولانا
مولتی
مولد
مولداوی
مولر
مولف
مولفه
مولن
مولوی
مولکول
مولکولی
مولی
مولیبدن
موم
مومن
مومی
مومیایی
مون
مونا
موناکو
مونت
مونتانا
مونتاژ
مونترا
مونترال
مونته
مونتگومری
مونث
مونرو
مونشن
مونه
مونو
مونیاک
مونیخ
مونیوم
مونیکا
موها
موهای
موومان
مووی
موي
موکل
موکول
موی
موید
مى
مي
مپ
مپر
مچ
مژده
مژه
مژگان
مک
مکاتب
مکاتبات
مکاتبه
مکارم
مکاشفه
مکالمات
مکالمه
مکان
مکانهای
مکانی
مکانیزم
مکانیزه
مکانیسم
مکانیک
مکانیکی
مکتب
مکتبی
مکتوب
مکتوم
مکر
مکران
مکرر
مکررا
مکرم
مکری
مکزیک
مکزیکو
مکزیکی
مکس
مکش
مکعب
مکعبی
مکلف
مکلفند
مکمل
مکن
مکنزی
مکه
مکی
مکینتاش
مگ
مگا
مگابایت
مگان
مگاهرتز
مگاوات
مگاواتی
مگر
مگس
مگی
می
میا
میابد
میادین
میازاکی
میامی
میان
میانجی
میانجیگری
میاندوا
میانرودان
میانمار
میانه
میانگین
میانی
میباشد
میباشند
میبد
میبود
میت
میترا
میتسوبیشی
میتوان
میتواند
میتوانند
میتوکندری
میثاق
میثم
میجی
میخ
میخانه
میخاي
میخته
میخواهد
میخی
مید
میداد
میدان
میداند
میدانند
میدانی
میدهد
میدهند
میر
میرا
میراث
میراثی
میراشرافی
میراندا
میرجاوه
میرحسین
میرد
میرزا
میرزاده
میرزای
میرزایی
میرسد
میرشکاری
میرفت
میرند
میرود
میری
میز
میزان
میزانی
میزبان
میزبانی
میزد
میزش
میزند
میزه
میزوری
میزی
میس
میسر
میسوری
میسون
میسیسیپی
میش
میشاي
میشد
میشل
میشه
میشود
میشوند
میشیگان
میل
میلاد
میلادی
میلان
میلانی
میلتون
میلر
میلز
میله
میلی
میلیارد
میلیاردر
میلیاردها
میلیاردی
میلیمتر
میلیمتری
میلیون
میلیونر
میلیونی
میم
میمند
میمون
مین
مینا
میناب
میناسیان
میناموتو
مینای
مینستر
مینسک
مینماید
مینه
مینو
مینور
مینورسکی
مینوی
مینویسد
مینگ
مینی
مینیاتور
مینیاپولیس
میهمان
میهمانان
میهمانی
میهن
میهنی
میو
میوزیک
میونگ
میوه
میچل
میک
میکا
میکاي
میکده
میکرد
میکردند
میکرو
میکروارگانیسم
میکروب
میکروبی
میکروسکوپ
میکروسکوپی
میکروفون
میکرومتر
میکرون
میکرونزی
میکس
میکل
میکند
میکنم
میکنند
میکنیم
میکی
میگ
میگا
میگردد
میگرن
میگل
میگو
میگوي
میگوید
میگویند
میگیرد
ن
نا
ناا
ناامنی
ناامید
ناامیدی
ناب
نابجایی
نابرابر
نابرابری
نابغه
نابود
نابودگر
نابودی
نابینا
نابینایان
نات
ناتاشا
ناتالی
ناتالیا
ناتان
ناتل
ناتمام
ناتنی
ناتو
ناتوان
ناتوانی
ناتولی
ناتومی
ناتینگهام
ناجا
ناجی
ناحیه
ناخالص
ناخالصی
ناخدا
ناخن
ناخواسته
ناخودا
ناخوشایند
ناد
نادان
نادانی
نادر
نادرست
نادرستی
نادرشاه
نادری
نادو
نادیا
نادیده
نار
نارا
ناراحت
ناراحتی
ناراضی
نارسایی
نارشیست
نارشیسم
نارضایتی
نارنج
نارنجک
نارنجی
نارگیل
ناز
نازل
نازنین
نازک
نازکی
نازی
ناس
ناسا
ناسازگار
ناسازگاری
ناستازیا
ناسیونال
ناسیونالیسم
ناشر
ناشران
ناشناخته
ناشناس
ناشی
ناصر
ناصرالدین
ناصرخسرو
ناصری
ناطق
ناظر
ناظران
ناظرزاده
ناظری
ناظم
ناعادلانه
ناف
نافذ
نافرجام
نافرمانی
ناقص
ناقل
ناقوس
ناله
نالوگ
نالیز
نام
نامبرده
نامتقارن
نامتناهی
نامجو
نامحدود
نامحسوس
نامد
نامدار
نامري
نامزد
نامزدان
نامزدها
نامزدهای
نامزدی
نامش
نامشان
نامشخص
نامشروع
نامطلوب
نامعتبر
نامعلوم
نامعلومی
ناملموس
ناممکن
نامناسب
نامند
نامنظم
نامه
نامهای
ناموجود
ناموس
ناموفق
نامگذاری
نامی
نامیبیا
نامید
نامیدن
نامیدند
نامیده
نامیم
نان
نانت
نانسی
نانو
نانوایی
نانوذرات
نانولوله
نانومتر
نانی
ناهار
ناهموار
ناهمواری
ناهمگن
ناهنجاری
ناهیتا
ناهید
ناو
ناوبری
ناوشکن
ناوهای
ناوچه
ناوگان
ناي
ناپایدار
ناپایداری
ناپدید
ناپذیر
ناپذیری
ناپسند
ناپل
ناپلي
ناپولی
ناپیوسته
ناچار
ناچیز
ناچیزی
ناک
ناکارا
ناکافی
ناکام
ناکامورا
ناکامی
ناکس
ناگاه
ناگزیر
ناگفته
ناگهان
ناگهانی
ناگوار
ناگویا
نای
نایب
نایت
نایجل
نایل
نایلون
نبات
نباتات
نباتی
نباشد
نباشند
نباید
نبراسکا
نبرد
نبرده
نبردها
نبردهای
نبردی
نبش
نبشته
نبض
نبوت
نبود
نبودم
نبودن
نبودند
نبوده
نبوغ
نبوی
نبی
نت
نتالیا
نتانیاهو
نتاگونیست
نتایج
نتایجی
نتروپی
نتفلیکس
نتن
نتوان
نتواند
نتوانست
نتوانستند
نتوانسته
نتوانند
نتورپ
نتورک
نتون
نتونی
نتونیو
نتی
نتیجتا
نتیجه
نتیجە
نتیوخوس
نث
نثار
نثر
نج
نجا
نجات
نجار
نجاست
نجایی
نجف
نجفی
نجلا
نجلس
نجلو
نجم
نجوم
نجومی
نجیب
نحضرت
نحو
نحوه
نحوی
نخ
نخاع
نخاعی
نخبه
نخبگان
نخجوان
نخست
نخستین
نخل
نخلستان
نخواهد
نخواهم
نخواهند
نخواهیم
نخود
نخودی
نخورده
ند
ندا
نداد
ندادن
ندادند
نداده
ندارد
ندارم
ندارند
نداره
نداری
ندارید
نداریم
نداشت
نداشتم
نداشتن
نداشتند
نداشته
نداشتیم
نداند
ندانسته
ندانم
ندای
ندر
ندرا
ندرانیک
ندرت
ندرتیکر
ندرس
ندره
ندري
ندری
ندریا
ندریاس
نده
ندهد
ندهند
ندهید
ندورا
ندوشن
ندی
ندید
ندیدم
ندیده
ندیم
نذر
نر
نرا
نراقی
نرخ
نردبان
نرده
نرساند
نرسد
نرسه
نرسید
نرسیده
نرفت
نرفته
نرم
نرمال
نرمی
نرها
نرو
نرود
نروز
نرون
نروژ
نروژی
نرگس
نری
نریمان
نزار
نزاع
نزد
نزدیک
نزدیکان
نزدیکتر
نزدیکترین
نزدیکی
نزن
نزول
نزولی
نزیم
نزیمی
نس
نسا
نساجی
نسب
نسبت
نسبتا
نسبتی
نسبی
نسبیت
نست
نستعلیق
نسخ
نسخه
نسرین
نسل
نسلی
نسوز
نسوی
نسیم
نش
نشا
نشات
نشاسته
نشاط
نشان
نشاند
نشانده
نشانه
نشانگان
نشانگر
نشانی
نشت
نشد
نشدن
نشدند
نشدنی
نشده
نشر
نشریات
نشریه
نشست
نشستن
نشستند
نشسته
نشستی
نشنال
نشو
نشود
نشوند
نشویل
نشي
نشیب
نشیمن
نشین
نشینان
نشیند
نشینند
نشینی
نص
نصاب
نصب
نصر
نصرا
نصرالله
نصرت
نصری
نصف
نصیب
نصیحت
نصیر
نصیرالدین
نصیری
نطفه
نطق
نطنز
نطور
نظارت
نظارتی
نظاره
نظافت
نظام
نظامنامه
نظامی
نظامیان
نظایر
نظر
نظرا
نظرات
نظران
نظرسنجی
نظرش
نظرم
نظرهای
نظری
نظریات
نظریه
نظم
نظمی
نظمیه
نظیر
نظیری
نعل
نعمان
نعمت
نعمتی
نعناع
نعیم
نغمه
نفاق
نفت
نفتکش
نفتی
نفر
نفرات
نفرت
نفره
نفری
نفرین
نفس
نفسی
نفع
نفوذ
نفوذپذیری
نفوذی
نفوس
نفی
نفیس
نفیسی
نقاب
نقاره
نقاش
نقاشان
نقاشی
نقاط
نقاطی
نقد
نقدر
نقده
نقدهای
نقدی
نقدینگی
نقره
نقش
نقشه
نقشی
نقص
نقصان
نقض
نقطه
نقطە
نقل
نقلست
نقلی
نقلیه
نقوش
نقی
نقیب
نقیض
نلاین
نلسون
نم
نما
نماد
نمادها
نمادهای
نمادی
نمادین
نماز
نمازخانه
نمازی
نماند
نمانده
نماها
نماهای
نماهنگ
نماي
نمای
نمایان
نمایانگر
نماید
نمایش
نمایشنامه
نمایشگاه
نمایشگاهی
نمایشگر
نمایشی
نمایم
نمایند
نماینده
نمایندگان
نمایندگانی
نمایندگی
نمایه
نمایی
نمایید
نماییم
نمرات
نمره
نمو
نمود
نمودار
نمودارهای
نمودم
نمودن
نمودند
نموده
نمونه
نمک
نمکی
نمی
نمیشود
نمین
نند
ننماید
ننه
ننگ
ننگرهار
نه
نها
نهاد
نهادن
نهادند
نهاده
نهادها
نهادهای
نهادی
نهادینه
نهاست
نهال
نهان
نهاوند
نهاي
نهایت
نهایتا
نهایی
نهبندان
نهج
نهد
نهر
نهصد
نهضت
نهفته
نهم
نهمین
نهند
نهنگ
نهی
نو
نوا
نواب
نواحی
نواخت
نواختن
نواخته
نوادا
نواده
نوادگان
نوار
نوارهای
نواری
نواز
نوازش
نوازنده
نوازندگان
نوازندگی
نوازی
نواقص
نوامبر
نوای
نوایی
نوبت
نوبتی
نوبل
نوبه
نوبهار
نوبوناگا
نوت
نوترون
نوجوان
نوجوانان
نوجوانی
نوح
نوحه
نود
نوده
نور
نورا
نورالدین
نورالله
نورانی
نوربخش
نورت
نورتون
نورث
نورد
نوردراین
نوردی
نوردیک
نورس
نورعلی
نورمن
نورمگز
نورنبرگ
نوروز
نوروزی
نورون
نورپردازی
نوری
نوریس
نوریچ
نوزاد
نوزادان
نوزادی
نوزده
نوزدهم
نوزدهمین
نوس
نوسازی
نوسان
نوسانات
نوستالژی
نوسنگی
نوش
نوشابه
نوشت
نوشتار
نوشتارهای
نوشتاری
نوشتم
نوشتن
نوشتند
نوشته
نوشتە
نوشهر
نوشیدن
نوشیدنی
نوشین
نوظهور
نوع
نوعی
نوقت
نولان
نون
نوه
نوو
نووا
نووی
نوي
نوک
نوکر
نوکلي
نوکیا
نوی
نوید
نویز
نویس
نویسان
نویسد
نویسند
نویسنده
نویسندگان
نویسندگانی
نویسندگی
نویسه
نویسی
نویل
نوین
نوینی
نویی
ني
نيز
نپال
نپتون
نپذیرفت
نچنان
نچه
نژ
نژاد
نژادهای
نژادپرستانه
نژادپرستی
نژادی
نک
نکا
نکات
نکاتی
نکاح
نکارا
نکته
نکرد
نکردم
نکردن
نکردند
نکرده
نکشید
نکن
نکند
نکنم
نکنند
نکنی
نکنید
نکنیم
نکه
نکوداشت
نکونام
نکوهش
نگ
نگار
نگاران
نگارخانه
نگارش
نگارنده
نگاره
نگارگری
نگاری
نگاشت
نگاشته
نگاه
نگاهداری
نگاهی
نگذاشت
نگذشت
نگر
نگران
نگرانی
نگردد
نگردید
نگرش
نگرشی
نگرفت
نگرفته
نگرو
نگری
نگفته
نگه
نگهبان
نگهبانان
نگهبانی
نگهدارنده
نگهداری
نگو
نگولا
نگونه
نگیرد
نگین
نی
نیا
نیابت
نیاز
نیازمند
نیازمندی
نیازها
نیازهای
نیازی
نیافت
نیافته
نیامد
نیامده
نیاهندوایرانی
نیاوران
نیاورد
نیاورده
نیاکان
نیای
نیاید
نیایش
نیایشگاه
نیت
نیتا
نیترات
نیتروژن
نیترید
نیتریک
نیجر
نیجریه
نیدرزاکسن
نیر
نیرنگ
نیرو
نیرومند
نیروها
نیروهای
نیروهایش
نیروهایی
نیروگاه
نیروی
نیرویی
نیز
نیزه
نیس
نیسان
نیست
نیستم
نیستند
نیستی
نیستیم
نیش
نیشابور
نیشابوری
نیشکر
نیل
نیلسن
نیلوفر
نیلی
نیم
نیما
نیمروز
نیمه
نیمکت
نیمکره
نیمی
نین
نینا
نینتندو
نینجا
نینوا
نیو
نیواورلي
نیوتن
نیوتون
نیوجرسی
نیوز
نیوزلند
نیوزیلند
نیومن
نیومکزیکو
نیون
نیوهمپشایر
نیوپورت
نیوکاسل
نیویورک
نیپون
نیچه
نیک
نیکا
نیکاراگوي
نیکسون
نیکل
نیکلاس
نیکلای
نیکلسون
نیکو
نیکول
نیکولا
نیکولاس
نیکولای
نیکولز
نیکوکار
نیکی
نیکیتا
ه
ها
هاب
هابسبورگ
هابل
هابیت
هات
هاتسپر
هاتف
هاجر
هادسون
هادی
هار
هارا
هارالد
هاربر
هارت
هارد
هاردی
هارلم
هارمونی
هارمونیک
هاروارد
هارولد
هارون
هاروی
هارپر
هاری
هاس
هاست
هاشم
هاشمی
هافبک
هافمن
هال
هالند
هاله
هالووین
هالک
هالی
هالیوود
هالیوودی
هام
هامبورگ
هامون
هان
هانا
هانت
هانتر
هانری
هانزا
هانس
هانسن
هانوفر
هانی
هانیبال
هاو
هاوارد
هاوانا
هاوایی
هاوس
هاوک
هاى
هاي
هاپ
هاپر
هاپکینز
هاک
هاکی
هاگ
های
هایت
هایتس
هاید
هایدلبرگ
هایدن
هایده
هایدگر
هایش
هایشان
هایم
هاینتس
هاینریش
هایک
هایی
هت
هتل
هجده
هجدهم
هجدهمین
هجرت
هجری
هجوم
هجومی
هخامنشی
هخامنشیان
هد
هدایا
هدایای
هدایت
هدایتی
هدر
هدف
هدفش
هدفمند
هدفی
هدی
هدیه
هذا
هذلولی
هذه
هذیان
هر
هرا
هرات
هراتی
هراز
هراس
هراسی
هرالد
هران
هرانا
هراکلیوس
هربرت
هرتز
هرج
هرجا
هرحال
هرد
هردو
هرز
هرزه
هرزگوین
هرساله
هرسین
هرم
هرمان
هرمز
هرمزگان
هرمس
هرمی
هرودوت
هروي
هروی
هرچند
هرچه
هرکدام
هرکس
هرکسی
هرکه
هرکول
هرگاه
هرگز
هرگونه
هری
هریس
هریسون
هریک
هزار
هزاران
هزاره
هزینه
هست
هستم
هستند
هسته
هستی
هستید
هستیم
هسن
هش
هشام
هشت
هشتاد
هشترود
هشتصد
هشتم
هشتمین
هشتگ
هشتی
هشدار
هضم
هـ
هفت
هفتاد
هفتادمین
هفتصد
هفتم
هفتمین
هفته
هفتگانه
هفتگی
هفده
هفدهم
هفدهمین
هل
هلال
هلالی
هلاک
هلدینگ
هلسینکی
هلمز
هلمند
هلموت
هلن
هلنا
هلند
هلندی
هلو
هلی
هلیم
هلیوم
هلیکوپتر
هم
هما
همان
همانا
همانجا
همانطور
همانند
همانندی
همانگونه
همانی
هماهنگ
هماهنگی
همای
همایش
همایون
همایونی
همبازی
همبستگی
همبند
همت
همتا
همتای
همتایان
همتی
همجنس
همجنسگرا
همجنسگرایان
همجوار
همجوشی
همخوان
همخوانی
همدان
همدانی
همدردی
همدست
همدستی
همدلی
همدم
همدیگر
همراه
همراهان
همراهانش
همراهی
همزمان
همزن
همزیستی
همسان
همسایه
همسایگان
همسایگی
همسر
همسران
همسرش
همسری
همسو
همسود
همشهری
هملت
همه
همهمه
هموار
همواره
هموطنان
هموگلوبین
همپتون
همپوشانی
همچنان
همچنین
همچو
همچون
همچین
همکار
همکاران
همکارانش
همکارش
همکاری
همکف
همکلاسی
همگام
همگان
همگانی
همگرا
همگرایی
همگن
همگی
همی
همیشه
همیشگی
همیلتون
همین
همینطور
همینگوی
همە
هن
هنج
هنجارهای
هند
هندبال
هندرسون
هندسه
هندسی
هندو
هندواروپایی
هندوانه
هندوراس
هندوستان
هندوها
هندوي
هندوکش
هندی
هنر
هنرا
هنرستان
هنرمند
هنرمندان
هنرمندانی
هنرمندی
هنرنمایی
هنرها
هنرهای
هنرپیشه
هنری
هنریک
هنوز
هنک
هنگ
هنگام
هنگامه
هنگامی
هنگامیکه
هنگر
هنگری
هنگساز
هنگسازان
هنگسازی
هنگفتی
هنگه
هنگی
هنی
هنین
هه
هو
هوا
هوابرد
هوادار
هواداران
هوارد
هوازی
هواشناسی
هوافضا
هوافضای
هوان
هوانوردی
هوانگ
هواپیما
هواپیمابر
هواپیماها
هواپیماهای
هواپیمای
هواپیمایی
هواگ
هواگرد
هواگردها
هواگردهای
هوای
هوایی
هوجو
هود
هور
هورمون
هورمونی
هورن
هوس
هوش
هوشمند
هوشمندانه
هوشنگ
هوشی
هوشیار
هوشیاری
هول
هولت
هولمز
هولناک
هولوکاست
هوم
هومر
هومن
هون
هوندا
هونگ
هوو
هوي
هوپ
هوک
هوکایدو
هوگو
هوی
هویت
هویتی
هویج
هویدا
هویزه
هپاتیت
هپبورن
هک
هکتار
هکتور
هکر
هکی
هگل
هگمتانه
هی
هیا
هیات
هیبت
هیبریدی
هیت
هیتلر
هیتی
هیجان
هیجانی
هیجده
هیجدهم
هیدرولیز
هیدرولیک
هیدرولیکی
هیدروژن
هیدروژنی
هیدروکربن
هیدروکسی
هیدروکسید
هیده
هیر
هیرمند
هیرو
هیروشیما
هیرکانی
هیز
هیزم
هیستامین
هیل
هیلاری
هیلبرت
هیلتون
هیلز
هیلی
هیمالیا
هیملر
هینتس
هیو
هیوز
هیوستون
هیولا
هیولاها
هیولای
هیوم
هیون
هیوندای
هیي
هیپ
هیپوفیز
هیچ
هیچوقت
هیچکاک
هیچکدام
هیچکس
هیچگاه
هیچگونه
هیچیک
هیکل
و
وا
وابسته
وابستگی
وات
واتار
واتر
واترز
واترپلو
واتس
واتسون
واتفورد
واتیکان
واج
واجب
واجد
واحد
واحده
واحدها
واحدهای
واحدی
وادار
واداشت
وادی
وار
واران
وارث
وارد
واردات
وارداتی
وارده
وارطان
وارن
وارنر
واره
وارون
وارونه
وارگان
واری
واریانس
واریته
واریز
واز
وازخوان
وازه
وازهای
وازی
واسط
واسطه
واسیلی
واش
واشنگتن
واشینگتن
واصل
واضح
واعظ
واعظی
وافه
واقع
واقعا
واقعه
واقعی
واقعیت
واقف
وال
والا
والاس
والت
والتر
والتوزیع
والتون
والد
والدین
والدینش
والری
والس
والش
والفجر
والله
والنتین
والنسیا
والنشر
واله
والی
والیان
والیبال
وام
وامی
وان
وانت
وانتشار
واندررز
وانمود
وانگ
وانگاری
وانیل
واو
واي
واپاشی
واپسین
واژن
واژه
واژگان
واژگانی
واژگون
واژگونی
واک
واکاوی
واکر
واکس
واکسن
واکسیناسیون
واکنش
واکنشی
واکه
واگذار
واگذاری
واگن
واگنر
وای
وایادولید
وایت
وایر
وایس
وایلد
وایمار
واین
وایومینگ
وایکینگ
وایی
وب
وبا
وبر
وبسایت
وبستر
وبلاگ
وبه
وبگاه
وت
وتخت
وتو
وتید
وثوق
وثوقی
وثیقه
وج
وجدان
وجه
وجهه
وجهی
وجود
وجودش
وجودی
وجوه
وجوهی
وحدت
وحش
وحشت
وحشتناک
وحشی
وحشیانه
وحی
وحید
وخ
وخامت
وخیم
ود
ودا
وداع
ودالی
ودر
ودور
ودی
ور
ورا
وراث
وراثت
ورامین
وران
ورانه
ورای
ورایتی
ورت
ورث
ورثه
ورد
وردم
وردن
وردند
ورده
وردهای
وردی
ورز
ورزد
ورزش
ورزشکار
ورزشکاران
ورزشگاه
ورزشی
ورزقان
ورزی
ورزید
ورزیده
ورسای
ورشو
ورشکسته
ورشکستگی
ورق
ورقه
ورلد
ورم
ورماخت
ورمانت
ورن
ورند
ورنده
ورندگان
ورنر
وره
ورو
ورود
ورودی
ورون
ورونا
ورونیکا
ورژن
ورک
ورگ
ورگی
وری
ورید
وریدی
وریل
وریم
وریک
وز
وزارة
وزارت
وزارتخانه
وزد
وزرا
وزراء
وزرای
وزش
وزغ
وزن
وزنه
وزنی
وزیر
وزیران
وزیری
وس
وساز
وساطت
وساي
وسایل
وسایلی
وست
وسترن
وستفالن
وستهام
وسط
وسطایی
وسطی
وسعت
وسلی
وسن
وسواس
وسوسه
وسیع
وسیعی
وسیله
وسیلە
وش
وشمگیر
وصال
وصف
وصل
وصلت
وصله
وصول
وصیت
وضع
وضعی
وضعیت
وضعیتی
وضوح
وطن
وظاي
وظایف
وظایفی
وظیفه
وعده
وعن
وف
وفا
وفات
وفادار
وفاداری
وفایی
وفق
وفور
وفی
وفیزیک
وقال
وقایع
وقت
وقتی
وقتیکه
وقف
وقفه
وقوع
ول
ولا
ولادت
ولادیمیر
ولان
ولایات
ولایت
ولایتی
ولت
ولتاژ
ولتر
ولد
ولز
ولزی
ولسوالی
ولف
ولفگانگ
ولنتاین
وله
ولو
ولورهمپتون
ولوژی
ولوژیک
ولگا
ولگرد
ولی
ولیت
ولید
ولیعصر
ولیعهد
ولین
ولینگتون
ولیکن
وم
وما
ومبلی
ومن
ومورفولوژی
ومی
ون
ونارد
وناردو
وند
وندی
ونزدی
ونزوي
ونسا
ونسان
ونقل
ونه
ونوس
ونک
ونکوور
ونگ
ونی
ونید
ونیز
ونیزی
وه
وهای
وهله
وهم
وهو
وهوای
وهوایی
وو
وود
وودز
وودی
وورتمبرگ
ووشو
وولف
وون
وي
وپاترا
وپاي
وپولد
وچی
وک
وکا
وکار
وکالت
وکان
وکلا
وکلاسیک
وکلای
وکیل
وکیلی
وگاس
وگرنه
وگو
وگوی
وی
ویا
ویت
ویتامین
ویتنام
ویتنامی
ویتنی
ویتوریو
ویخته
وید
ویدا
ویدي
ویدیو
ویدیوی
ویدیویی
ویر
ویرا
ویراست
ویراستار
ویراستاران
ویراستاری
ویران
ویرانه
ویرانگر
ویرانی
ویرایش
ویرایشگر
ویرجین
ویرجینیا
ویرجینیای
ویروس
ویروسی
ویز
ویزا
ویزان
ویزای
ویس
ویستا
ویسکانسین
ویسکوزیته
ویسکی
ویشن
ویل
ویلا
ویلر
ویلسون
ویلفرد
ویلم
ویلن
ویلهلم
ویلی
ویلیام
ویلیامز
ویلیس
ویمبلدون
وین
ویندوز
وینس
وینستون
وینسلت
وینسنت
وینچستر
وینگ
وینی
وینیل
ویو
ویولا
ویولن
ویچ
ویچنزا
ویژن
ویژه
ویژوال
ویژگی
ویژگیهای
ویک
ویکتور
ویکتوریا
ویکس
ویکلی
ویکی
ویگ
ویی
ى
ي
يا
يك
يک
ً
ٌ
ٍ
َ
ُ
ِ
ّ
ْ
ٓ
ٔ
ٕ
٠
١
١٣
٢
٣
٤
٥
٦
٧
٨
٩
٪
٫
٬
ٰ
پ
پا
پاب
پابرجا
پابلو
پاتر
پاتریشیا
پاتریک
پاد
پاداش
پادتن
پادشاه
پادشاهان
پادشاهی
پادوا
پادکست
پادگان
پارا
پارات
پارادایم
پارادوکس
پارالمپیک
پارامتر
پارامترها
پارامترهای
پارامتری
پارامونت
پاراژنز
پاراگراف
پاراگوي
پارت
پارتاید
پارتمان
پارتمانی
پارتی
پارتیزان
پارس
پارسا
پارسه
پارسونز
پارسی
پارسیان
پارلمان
پارلمانی
پارما
پاره
پارچ
پارچه
پارک
پارکر
پارکینسون
پارکینگ
پارگی
پاری
پاریزی
پاریس
پارینه
پازل
پازوکی
پاس
پاسارگاد
پاساژ
پاسبان
پاستور
پاسخ
پاسخگو
پاسخگویی
پاسخی
پاسدار
پاسداران
پاسداری
پاسپورت
پاسکال
پاسگاه
پاسیفیک
پاشا
پاشایی
پاشنه
پاشید
پاشیده
پافشاری
پال
پالاس
پالایش
پالایشگاه
پالت
پالرمو
پالس
پالم
پالمر
پالي
پالی
پاملا
پان
پاناما
پانزده
پانزدهم
پانزدهمین
پانصد
پانل
پانچ
پانک
پاها
پاهای
پاور
پاورقی
پاول
پاوه
پاي
پاپ
پاپوا
پاپی
پاپیروس
پاچی
پاچینو
پاک
پاکت
پاکتچی
پاکسازی
پاکستان
پاکستانی
پاکی
پاکیزه
پای
پایا
پایان
پایانه
پایانی
پایبند
پایبندی
پایتخت
پایتختی
پایتون
پایدار
پایداری
پایش
پاین
پاینده
پایه
پایور
پایک
پایگان
پایگاه
پایی
پاییز
پایین
پایینی
پایە
پت
پتاسیم
پتانسیل
پتر
پترزبورگ
پترسون
پتروشیمی
پتی
پخت
پختن
پخته
پختونخوا
پخش
پد
پدافند
پدال
پدر
پدرام
پدران
پدربزرگ
پدربزرگش
پدرخوانده
پدرش
پدرشان
پدرم
پدرو
پدری
پدیا
پدیای
پدید
پدیدا
پدیدار
پدیدارشناسی
پدیده
پذیر
پذیرای
پذیرایی
پذیرد
پذیرش
پذیرفت
پذیرفتن
پذیرفتند
پذیرفته
پذیرند
پذیرنده
پذیری
پر
پرا
پرادش
پراش
پرافتخارترین
پرانتز
پرانرژی
پراکنده
پراکندگی
پراکنش
پراگ
پراگرسیو
پراید
پرایس
پربیننده
پرت
پرتاب
پرتال
پرتره
پرتغال
پرتغالی
پرتقال
پرتو
پرتوهای
پرتوی
پرتگاه
پرجمعیت
پرداخت
پرداختن
پرداختند
پرداخته
پرداختی
پرداز
پردازان
پردازد
پردازش
پردازند
پردازنده
پردازی
پردازیم
پرده
پردیس
پررنگ
پرز
پرزیدنت
پرس
پرست
پرستار
پرستاران
پرستاری
پرستان
پرستش
پرستشگاه
پرستو
پرستون
پرستی
پرسد
پرسرعت
پرسش
پرسشنامه
پرسنل
پرسه
پرسپولیس
پرسی
پرسید
پرسیدم
پرسیدند
پرسیده
پرش
پرشور
پرطرفدار
پرفروش
پرقدرت
پرل
پرند
پرنده
پرندگان
پرندگانی
پرنس
پرنسس
پره
پرهای
پرهزینه
پرهیز
پرو
پروا
پرواز
پروازش
پروازهای
پروازی
پروانه
پروتستان
پروتون
پروتي
پروتکل
پروجا
پرور
پرورده
پروردگار
پرورش
پرورشی
پروری
پروس
پروستات
پروسه
پروفایل
پروفسور
پرونده
پروژه
پرویز
پروین
پرچم
پرکار
پرکاربرد
پرکاربردترین
پری
پریان
پرید
پریدن
پریده
پریسا
پریش
پریشان
پریشانی
پریشی
پرینس
پرینستون
پز
پزشک
پزشکان
پزشکی
پزی
پس
پسا
پست
پستان
پستاندار
پستانداران
پسته
پستی
پسر
پسران
پسرانش
پسرانه
پسرش
پسرم
پسرها
پسری
پسماند
پسند
پسندیده
پسوند
پسین
پشت
پشته
پشتو
پشتوانه
پشتون
پشتکوه
پشتی
پشتیبان
پشتیبانی
پشم
پشمی
پشه
پشیمان
پشیمانی
پطرس
پل
پلاته
پلاتین
پلازا
پلاس
پلاستیک
پلاستیکی
پلاسما
پلاسمای
پلان
پلانک
پلاژ
پلاک
پلاکت
پلت
پلتفرم
پلدختر
پلنگ
پله
پلو
پلک
پلکان
پلکانی
پلی
پلید
پلیس
پلیسی
پلیمر
پلیمرها
پلیمرهای
پلیمری
پلیمریزاسیون
پلیموث
پلیه
پمپ
پمپاژ
پمپي
پن
پنالتی
پنانگ
پناه
پناهجویان
پناهنده
پناهندگان
پناهندگی
پناهگاه
پناهی
پنبه
پنتاگون
پنج
پنجاب
پنجاه
پنجاهمین
پنجره
پنجشنبه
پنجشیر
پنجم
پنجمین
پنجه
پند
پندار
پندارند
پنداری
پنداشت
پنداشتند
پنداشته
پنسیلوانیا
پنل
پنه
پنهان
پنهانی
پنگوي
پنی
پنیر
په
پهلو
پهلوان
پهلوانان
پهلوانی
پهلوی
پهن
پهنا
پهناور
پهنای
پهنه
پهپاد
پو
پوا
پوتین
پود
پودر
پودمان
پور
پوران
پورت
پورتال
پورتر
پورتسموث
پورتلند
پورتو
پورتوریکو
پورشه
پورن
پورنوگرافی
پوره
پوری
پوریا
پوزه
پوزیشن
پوست
پوستان
پوستر
پوسته
پوستی
پوسیدگی
پوش
پوشان
پوشاند
پوشاندن
پوشانده
پوشاک
پوشد
پوشش
پوششی
پوشند
پوشه
پوشی
پوشید
پوشیدن
پوشیده
پول
پولاک
پولس
پولو
پولک
پولی
پولیتزر
پولیس
پوند
پونه
پوي
پوپ
پوچ
پویا
پویانمایی
پویایی
پویش
پوینت
پچ
پژمان
پژو
پژواک
پژوه
پژوهان
پژوهش
پژوهشنامه
پژوهشها
پژوهشهای
پژوهشکده
پژوهشگاه
پژوهشگر
پژوهشگران
پژوهشی
پژوهی
پک
پکن
پگاه
پی
پیاده
پیاز
پیام
پیامبر
پیامبران
پیامبری
پیامد
پیامدهای
پیامک
پیامی
پیانو
پیانیست
پیاپی
پیت
پیتر
پیترو
پیتزا
پیج
پیدا
پیداست
پیدایش
پیر
پیرامون
پیرامونی
پیران
پیرانشهر
پیراهن
پیرزن
پیرس
پیرسون
پیرمرد
پیرنیا
پیرو
پیروان
پیروانش
پیروز
پیروزی
پیروی
پیری
پیز
پیزا
پیس
پیست
پیستون
پیش
پیشامد
پیشانی
پیشاور
پیشبرد
پیشتاز
پیشتازان
پیشتر
پیشخدمت
پیشران
پیشرانه
پیشرفت
پیشرفته
پیشرو
پیشروی
پیشنهاد
پیشنهادات
پیشنهادها
پیشنهادهای
پیشنهادی
پیشه
پیشوا
پیشوای
پیشوایان
پیشوند
پیشکسوت
پیشکسوتان
پیشکش
پیشگام
پیشگامان
پیشگاه
پیشگفتار
پیشگویی
پیشگیرانه
پیشگیری
پیشی
پیشین
پیشینه
پیشینیان
پیغام
پیغامبر
پیغمبر
پیل
پیله
پیما
پیمان
پیمانه
پیمانکار
پیمانکاران
پیمانی
پیمایش
پیمایی
پین
پینک
پینگ
پیو
پیوتر
پیوست
پیوستن
پیوستند
پیوسته
پیوستگی
پیوند
پیوندد
پیوندند
پیوندهای
پیوندهایی
پیوندی
پیونگ
پیپ
پیچ
پیچی
پیچیده
پیچیدگی
پیک
پیکار
پیکاسو
پیکان
پیکر
پیکربندی
پیکره
پیکسار
پیکسل
پیکچرز
پیگرد
پیگیر
پیگیری
چ
چا
چابهار
چابک
چاد
چادر
چار
چاراویماق
چارت
چارلتون
چارلز
چارلی
چاره
چارچوب
چاشنی
چاق
چاقو
چاقوی
چاقی
چال
چالدران
چالش
چاله
چالوس
چامسکی
چان
چانه
چانگ
چاه
چاهی
چاوز
چاوشی
چاووش
چاي
چاپ
چاپخانه
چاپلین
چاپگر
چاپی
چاک
چای
چایخوری
چت
چتر
چخوف
چدن
چرا
چراغ
چراغی
چرام
چراکه
چراگاه
چرای
چرایی
چرب
چربی
چرخ
چرخان
چرخاندن
چرخد
چرخش
چرخشی
چرخند
چرخه
چرداول
چرم
چرمی
چرچ
چرچیل
چرکس
چری
چریک
چریکی
چسب
چسبد
چسبنده
چسبندگی
چسبیده
چستر
چشم
چشمان
چشمانش
چشمش
چشمه
چشمک
چشمگیر
چشمگیری
چشمی
چطور
چغندر
چقدر
چلبی
چلسی
چله
چم
چمدان
چمران
چمن
چن
چنار
چناران
چنان
چنانچه
چنانکه
چند
چندا
چندان
چندانی
چندجمله
چندرسانه
چندضلعی
چندلر
چندملیتی
چندمنظوره
چندوجهی
چندگانه
چندی
چندین
چنگ
چنگال
چنگیز
چنین
چه
چهار
چهارباغ
چهاردانگه
چهارده
چهاردهم
چهاردهمین
چهارراه
چهارشنبه
چهارصد
چهارم
چهارمحال
چهارمین
چهارچوب
چهارگانه
چهارگاه
چهارگوش
چهره
چهل
چهلم
چهلمین
چو
چوب
چوبی
چوبین
چوسان
چول
چون
چونگ
چوپان
چوپرا
چوگان
چوی
چپ
چچن
چک
چکاوک
چکسلواکی
چکش
چکمه
چکی
چکیده
چگال
چگالی
چگنی
چگونه
چگونگی
چی
چیان
چیبا
چیدمان
چیدن
چیده
چیره
چیرگی
چیز
چیزها
چیزهای
چیزهایی
چیزی
چیس
چیست
چین
چینه
چینگ
چینی
چیه
چیپ
ژ
ژاله
ژان
ژانت
ژاندارم
ژاندارمری
ژانر
ژانرهای
ژانس
ژانویه
ژانگ
ژانیرو
ژاي
ژاپن
ژاپنی
ژاک
ژاکس
ژاکلین
ژرف
ژرفای
ژرمن
ژرمنی
ژرژ
ژست
ژل
ژن
ژنتیک
ژنتیکی
ژنراتور
ژنرال
ژنریک
ژنو
ژنوم
ژنی
ژو
ژوراسیک
ژورنال
ژوزف
ژوزه
ژول
ژولیت
ژولیوس
ژوي
ژوپیتر
ژي
ژی
ژیزمان
ژیل
ژیمناست
ژیمناستیک
ک
کا
کاباره
کابل
کابلی
کابوس
کابین
کابینه
کات
کاتالان
کاتالونیا
کاتالوگ
کاتالیز
کاتالیزور
کاتالیست
کاتب
کاتد
کاترین
کاترینا
کاتلین
کاتن
کاتوزیان
کاتولیک
کاتیون
کاج
کاخ
کادر
کادمی
کادمیک
کاذب
کار
کارا
کاراته
کاران
کارانه
کاراي
کاراکاس
کاراکتر
کاراکترهای
کارایی
کاربر
کاربران
کاربرد
کاربردها
کاربردهای
کاربردهایی
کاربردی
کاربری
کاربید
کارت
کارتاژ
کارتر
کارتل
کارتون
کارتونی
کارتوگرافی
کارتی
کارخانجات
کارخانه
کارد
کاردار
کاردان
کاردانی
کاردی
کاردیف
کاردینال
کارزار
کارساز
کارسون
کارش
کارشان
کارشناس
کارشناسان
کارشناسی
کارفرما
کارفرمایان
کارل
کارلا
کارلایل
کارلسروهه
کارلو
کارلوس
کارم
کارمن
کارمند
کارمندان
کارن
کارناتاکا
کارنامه
کارناوال
کارنگی
کاره
کارها
کارهای
کارهایش
کارهایی
کارو
کاروان
کاروانسرا
کاروانسرای
کارول
کارولین
کارولینا
کارولینای
کارون
کارکرد
کارکردهای
کارکردی
کارکنان
کارگاه
کارگر
کارگران
کارگردان
کارگردانان
کارگردانی
کارگروه
کارگری
کارگزار
کارگزاران
کارگیری
کاری
کاریز
کارین
کاریکاتور
کاریکاتوریست
کازابلانکا
کازان
کازرون
کازرونی
کازینو
کاس
کاست
کاستاریکا
کاسترو
کاستن
کاسته
کاستی
کاستیا
کاسه
کاسپین
کاسی
کاش
کاشان
کاشانی
کاشت
کاشته
کاشف
کاشفی
کاشمر
کاشی
کاظم
کاظمی
کاغذ
کاغذی
کافر
کافران
کافمن
کافه
کافکا
کافی
کال
کالا
کالاها
کالاهای
کالاهایی
کالای
کالایی
کالبد
کالبدشناسی
کالج
کالری
کالسکه
کاله
کالچو
کالی
کالیاری
کالیبر
کالیفرنیا
کالیفرنیای
کالین
کالینز
کام
کامبوج
کامبیز
کامران
کامرون
کامل
کاملا
کاملی
کامو
کامپایل
کامپایلر
کامپوزیت
کامپکت
کامپیوتر
کامپیوترها
کامپیوترهای
کامپیوتری
کامکار
کامی
کامیابی
کامیاران
کامیل
کامین
کامیون
کامیک
کامیکس
کان
کانادا
کانادایی
کانال
کانبرا
کانت
کانتری
کانتور
کانتون
کانتی
کاندید
کاندیدا
کاندیداتوری
کاندیداهای
کاندیدای
کانر
کانزاس
کانن
کانو
کانون
کانونی
کانگ
کانی
کاه
کاهش
کاهشی
کاهن
کاهنده
کاو
کاور
کاوش
کاوشگر
کاونتری
کاوه
کاووس
کاوی
کاویانی
کاي
کاپ
کاپور
کاپیتان
کاکاوند
کاکاي
کاکایی
کاکتوس
کاکس
کاکل
کاکلی
کای
کایت
کایل
کباب
کبالت
کبد
کبدی
کبر
کبرا
کبری
کبریت
کبوتر
کبود
کبودرا
کبک
کبیر
کبیسه
کت
کتاب
کتابت
کتابخانه
کتابدار
کتابداری
کتابش
کتابشناسی
کتابفروشی
کتابها
کتابهای
کتابچه
کتابی
کتان
کتایون
کتب
کتبا
کتبی
کتف
کتور
کتون
کتک
کتی
کتیبه
کثرت
کثیر
کثیری
کثیف
کج
کجا
کجاست
کجور
کخ
کد
کدام
کدخدا
کدر
کدها
کدهای
کدو
کدکنی
کدگذاری
کدی
کذب
کر
کرات
کراس
کرافورد
کرال
کرالا
کرامت
کرامتی
کران
کرانه
کراولی
کراچی
کراکوف
کرای
کرایسلر
کرایه
کربلا
کربلای
کربلایی
کربن
کربنات
کربنی
کربوهیدرات
کربوکسیلیک
کربی
کرت
کرتاسه
کرتیر
کرتیس
کرج
کرخه
کرد
کردار
کردان
کردستان
کردم
کردن
کردند
کردنشین
کرده
کردها
کردهای
کردی
کردید
کردیم
کرزی
کرسی
کرلی
کرم
کرمان
کرمانجی
کرمانشاه
کرمانشاهان
کرمانشاهی
کرمانی
کرملین
کرمی
کرن
کرنش
کرنل
کره
کرو
کروات
کرواتی
کرواسی
کروبی
کروز
کروس
کرول
کروم
کروماتوگرافی
کروموزوم
کرومیت
کرون
کرونا
کروناویروس
کروگر
کروی
کرک
کرکس
کرکوک
کرگدن
کری
کریتوس
کرید
کریس
کریستال
کریستالی
کریستف
کریستن
کریستنسن
کریستوف
کریستوفر
کریستی
کریستیان
کریستیانو
کریستین
کریستینا
کریسمس
کریشنا
کریم
کریمه
کریمی
کرین
کریک
کریکت
کریگ
کز
کس
کسان
کسانی
کسانیکه
کسایی
کسب
کسر
کسروی
کسری
کسفورد
کسل
کسوت
کسی
کش
کشان
کشاند
کشانده
کشاورز
کشاورزان
کشاورزی
کشاکش
کشت
کشتار
کشتن
کشتند
کشته
کشتگان
کشتی
کشتیرانی
کشد
کشش
کششی
کشف
کشم
کشمش
کشمکش
کشمیر
کشمیری
کشند
کشنده
کشور
کشورش
کشورشان
کشورمان
کشورها
کشورهای
کشورهایی
کشوری
کشک
کشی
کشید
کشیدن
کشیدند
کشیده
کشیش
کشیم
کعب
کعبه
کف
کفار
کفایت
کفتار
کفر
کفش
کفن
کفیل
کل
کلا
کلاب
کلات
کلاته
کلاد
کلار
کلارا
کلاردشت
کلارنس
کلارک
کلارینت
کلاس
کلاسی
کلاسیک
کلاغ
کلاله
کلام
کلامی
کلان
کلانتر
کلانتری
کلانشهر
کلاه
کلاهبرداری
کلاهک
کلاوس
کلاژن
کلاید
کلاین
کلاینت
کلبه
کلر
کلرادو
کلرید
کلسترول
کلسیم
کلفت
کلم
کلمات
کلماتی
کلمب
کلمبوس
کلمبیا
کلمبیایی
کلمن
کلمنت
کلمه
کلن
کلنل
کلنگ
کلنی
کله
کلهر
کلوب
کلود
کلون
کلونی
کلوي
کلوپ
کلوچه
کلوین
کلي
کلک
کلکته
کلکسیون
کلی
کلیات
کلیبر
کلیت
کلید
کلیدها
کلیدهای
کلیدی
کلیر
کلیسا
کلیساها
کلیساهای
کلیسای
کلیسایی
کلیشه
کلیف
کلیفورد
کلین
کلینت
کلینتون
کلینیک
کلیه
کلیولند
کلیوی
کلیپ
کلیک
کم
کما
کمابیش
کمال
کمالی
کمان
کماندار
کمانچه
کمانی
کماکان
کمبریج
کمبل
کمبوجیه
کمبود
کمتر
کمتری
کمترین
کمدی
کمدین
کمر
کمربند
کمربندی
کمرنگ
کمری
کمودور
کمون
کمونیست
کمونیستی
کمونیسم
کمپ
کمپانی
کمپبل
کمپرسور
کمپلکس
کمپین
کمک
کمکهای
کمکی
کمی
کمیاب
کمیت
کمیته
کمیجان
کمیساریای
کمیسر
کمیسیون
کمیسیونهای
کمیسیونی
کمیل
کمین
کمینه
کمیک
کن
کنار
کناره
کناری
کنان
کنایه
کنت
کنتاکی
کنتراست
کنترل
کنترلی
کنتیکت
کنج
کنجد
کنجکاوی
کند
کندتر
کندن
کنده
کندو
کندوان
کندی
کنراد
کنستانتین
کنسرت
کنسرتو
کنسرتی
کنسرسیوم
کنسرواتوار
کنسول
کنسولگری
کنسولی
کنش
کنشگر
کنعان
کنفدراسیون
کنفرانس
کنفوسیوس
کنم
کنن
کنند
کننده
کنندگان
کنندگی
کنه
کنوانسیون
کنون
کنونی
کنکور
کنگ
کنگان
کنگاور
کنگره
کنگو
کنگی
کنی
کنیا
کنید
کنیز
کنیسه
کنیم
کنیه
که
کهبد
کهریزک
کهن
کهنسال
کهنه
کهنوج
کهولت
کهکشان
کهکشانی
کهگیلویه
کهیر
کو
کوا
کوارتت
کوارتز
کوارک
کواریوم
کوان
کوانتوم
کوانتومی
کوب
کوبا
کوبایی
کوبه
کوبی
کوبیدن
کوبیده
کوت
کوتاه
کوتاهی
کوته
کوتوله
کوثر
کوثری
کوخرد
کوخردی
کود
کودتا
کودتای
کودک
کودکان
کودکانه
کودکانی
کودکی
کور
کورا
کورت
کورتنی
کورتیس
کورد
کوردوبا
کورس
کورش
کورن
کوره
کوروش
کورپوریشن
کوری
کورین
کوزه
کوزوو
کوستا
کوستیک
کوسه
کوش
کوشان
کوشد
کوشش
کوشک
کوشی
کوشید
کوشیدند
کوشیده
کوفته
کوفه
کوفی
کول
کولا
کوله
کولی
کولین
کومار
کومله
کومه
کومو
کومونه
کون
کونگ
کوه
کوهدشت
کوهرنگ
کوهسار
کوهستان
کوهستانی
کوهن
کوهنورد
کوهنوردان
کوهنوردی
کوههای
کوهپایه
کوهی
کووالانسی
کووید
کوي
کوپا
کوپر
کوپن
کوپه
کوچ
کوچه
کوچولو
کوچک
کوچکتر
کوچکترش
کوچکتری
کوچکترین
کوچکش
کوچکی
کوچی
کوک
کوکاي
کوکو
کوکی
کوی
کویت
کویر
کویرها
کویری
کویل
کوین
کویین
کویینز
کي
کپ
کپسول
کپلر
کپنهاگ
کپه
کپی
کک
کی
کیا
کیارستمی
کیان
کیانوش
کیانگ
کیانی
کیانیان
کیبورد
کیت
کیتا
کیتن
کیتو
کیتی
کیث
کیج
کیخسرو
کید
کیرا
کیس
کیست
کیسه
کیسی
کیش
کیف
کیفر
کیفری
کیفی
کیفیت
کیل
کیلو
کیلومتر
کیلومترمربع
کیلومتری
کیلووات
کیلوگرم
کیلی
کیلیکیه
کیم
کیمیا
کیمیایی
کین
کیناز
کینز
کینزی
کینه
کینگ
کینگز
کینگستون
کیه
کیهان
کیهانی
کیو
کیوان
کیوانی
کیوتو
کیومرث
کیونگ
کیپ
کیک
کیکاووس
گ
گابریل
گابن
گات
گاتا
گاتهام
گار
گاراژ
گارد
گاردن
گاردنر
گاردین
گارسیا
گارفیلد
گاری
گاز
گازها
گازهای
گازی
گاس
گال
گالری
گالن
گالیله
گام
گاما
گامبیا
گامی
گان
گاندی
گانه
گاه
گاهان
گاهانه
گاهشماری
گاهی
گاو
گاومیش
گاوی
گاي
گاگا
گای
گایا
گتسبی
گتو
گجرات
گدا
گدار
گدازه
گذار
گذاران
گذارد
گذارده
گذارند
گذاری
گذاریم
گذاشت
گذاشتم
گذاشتن
گذاشتند
گذاشته
گذر
گذرا
گذران
گذراند
گذراندن
گذرانده
گذرانند
گذرد
گذرنامه
گذرگاه
گذری
گذشت
گذشتن
گذشتند
گذشته
گذشتگان
گر
گرا
گراد
گرادیان
گراز
گراس
گراش
گراف
گرافی
گرافیت
گرافیتی
گرافیک
گرافیکی
گرامر
گرامی
گرامیداشت
گران
گرانادا
گرانبها
گرانت
گراند
گرانده
گرانش
گرانشی
گرانی
گرانیت
گراهام
گرای
گرایان
گرایانه
گرایش
گرایی
گربه
گرت
گرجستان
گرجستانی
گرجی
گرد
گردا
گرداب
گردان
گرداند
گردانند
گرداننده
گردانی
گردانید
گردانیده
گرداگرد
گردد
گردش
گردشگر
گردشگران
گردشگری
گردشی
گردم
گردن
گردنبند
گردند
گردنه
گردنی
گرده
گردهم
گردهمایی
گردو
گردون
گردونه
گردی
گردید
گردیدند
گردیده
گرسنه
گرسنگی
گرشاسپ
گرفت
گرفتار
گرفتاری
گرفتم
گرفتن
گرفتند
گرفته
گرفتگی
گرفتیم
گرلز
گرم
گرما
گرمابه
گرمای
گرمایش
گرمایی
گرمسار
گرمسیر
گرمسیری
گرمه
گرمی
گرن
گرنت
گرند
گره
گرهارد
گرو
گروس
گروه
گروهان
گروهبان
گروهش
گروهی
گروو
گروپ
گروگان
گروید
گرچه
گرگ
گرگان
گرگانی
گرگور
گرگوری
گرگین
گری
گریبان
گریت
گریخت
گریختند
گریخته
گرید
گریز
گریزد
گریزی
گریس
گریم
گریمزبی
گرین
گرینلند
گرینویچ
گریه
گریگور
گریگوری
گریگوریان
گز
گزارش
گزارشگر
گزارشگران
گزارشی
گزاره
گزاری
گزید
گزیدند
گزیده
گزیند
گزینش
گزینشی
گزینه
گزینی
گس
گستر
گسترده
گستردگی
گسترش
گستره
گسسته
گسل
گسیل
گشاد
گشاده
گشایش
گشت
گشتاسپ
گشتاور
گشتن
گشتند
گشته
گشتی
گشنیز
گشود
گشودن
گشوده
گفت
گفتار
گفتاری
گفتاورد
گفتم
گفتمان
گفتن
گفتند
گفتنی
گفته
گفتگو
گفتگوها
گفتگوهای
گفتگوی
گفتگویی
گفتی
گفتیم
گل
گلاب
گلابی
گلادباخ
گلاسگو
گلبرگ
گلبهار
گلبول
گلخانه
گلد
گلدار
گلدان
گلدبرگ
گلدسته
گلدمن
گلدن
گلزار
گلزن
گلزنی
گلستان
گلشن
گلشیری
گلف
گلن
گله
گلها
گلهای
گلو
گلوب
گلوبال
گلوریا
گلوله
گلوکز
گلوگاه
گلوی
گلپایگان
گلپایگانی
گلچین
گلکسی
گلی
گلیم
گم
گماشت
گماشته
گمان
گمانه
گمراه
گمرک
گمرکی
گمشده
گمنام
گمینا
گمیناهای
گناباد
گنابادی
گناه
گناهان
گناهکار
گناهی
گناوه
گنبد
گنبدی
گنج
گنجانده
گنجایش
گنجشک
گنجه
گنجوی
گنجی
گنجینه
گندم
گنو
گنگ
گه
گهر
گهواره
گهگاه
گهی
گو
گوا
گواتمالا
گوارا
گوارش
گوارشی
گوانگ
گواه
گواهی
گواهینامه
گوت
گوتنبرگ
گوته
گوتینگن
گوتیک
گوجه
گود
گودال
گودرز
گودرزی
گودریان
گودی
گور
گورا
گوران
گورباچف
گورجیف
گوردون
گورستان
گورهای
گورو
گورکانی
گورکانیان
گوری
گوریل
گوزن
گوساله
گوست
گوستا
گوستاو
گوستوس
گوستین
گوسفند
گوسفندان
گوش
گوشت
گوشتی
گوشه
گوشواره
گوشی
گول
گولد
گومز
گون
گوناگون
گوناگونی
گونتر
گونزالس
گونه
گونگ
گونی
گونیست
گوهر
گوهرشاد
گوي
گوک
گوگ
گوگرد
گوگل
گوگنهایم
گوگوریو
گوگوش
گوی
گویا
گویان
گویای
گوید
گویش
گویشور
گویشوران
گویشی
گویم
گویند
گوینده
گویندگان
گویندگی
گویی
گویید
گوییم
گي
گپ
گچ
گچساران
گچی
گی
گیاه
گیاهان
گیاهانی
گیاهی
گیبسون
گیت
گیتار
گیتاریست
گیتاشناسی
گیتس
گیتی
گیج
گیر
گیران
گیرانه
گیربکس
گیرد
گیرم
گیرند
گیرنده
گیره
گیری
گیرید
گیریم
گیشه
گیل
گیلاس
گیلان
گیلانغرب
گیلانی
گیلبرت
گیلمور
گیلکی
گیلگمش
گیم
گیمز
گین
گینس
گینه
گیو
گیوم
گیومری
گیوه
گیگابایت
ی
یا
یاب
یابد
یابند
یابی
یابیم
یات
یاتا
یاتی
یاخته
یاد
یادا
یادبود
یادبودی
یادداشت
یادداشتی
یادشده
یادم
یادمان
یادنامه
یادکرد
یادکردهای
یادگار
یادگاری
یادگیری
یادی
یار
یاران
یارانش
یارانه
یارد
یارسان
یارشاطر
یاری
یازده
یازدهم
یازدهمین
یاس
یاسر
یاسمی
یاسمین
یاسو
یاسوج
یاسین
یاشار
یاغی
یافا
یافت
یافتم
یافتن
یافتند
یافته
یاقوت
یال
یام
یاما
یاماگوچی
یان
یانوش
یانگ
یانی
یاها
یاهو
یاور
یاوری
یاي
یاکوب
یای
یایی
یب
یبوست
یة
یت
یتر
یتم
یتی
یتیم
یجی
یحیی
یخ
یخبندان
یخچال
یخی
ید
یدا
یدالله
یداهو
یدل
یده
یدها
یدک
یدی
یدین
یر
یرس
یرواند
یری
یز
یزاک
یزد
یزدان
یزدانی
یزدگرد
یزدی
یزیانا
یزید
یس
یست
یسم
یسه
یسی
یش
یشت
یعقوب
یعقوبی
یعنی
یغما
یغمایی
یف
یفت
یفون
یقه
یقول
یقین
یل
یلدا
یلند
یلی
یلین
یم
یمن
یمنی
یمین
ین
ینا
ینات
ینتراخت
یند
ینده
یندهای
یندگان
یندی
ینزلند
ینه
ینگ
ینی
یه
یهود
یهودا
یهودی
یهودیان
یهودیت
یهوه
یو
یوا
یواخیم
یواس
یوان
یوبی
یوتا
یوتی
یوتیوب
یوجین
یوحنا
یورش
یورو
یورونیوز
یوروویژن
یورک
یورگن
یوری
یوز
یوزف
یوزپلنگ
یوس
یوسف
یوسفی
یوسی
یوشی
یوشیج
یوفا
یول
یولیا
یوم
یون
یونان
یونانی
یونانیان
یونایتد
یونجه
یونس
یونسکو
یونسی
یونگ
یونی
یونیسف
یونیورسال
یونیون
یونیکس
یوهان
یوهانس
یووا
یوونتوس
یوي
یوکوهاما
یوکی
یوگا
یوگسلاوی
یوی
یي
یپا
یچ
یچی
یک
یکا
یکان
یکانی
یکای
یکبار
یکباره
یکتا
یکجا
یکدست
یکدیگر
یکساعت
یکسال
یکسان
یکسانی
یکسره
یکسو
یکشنبه
یکصد
یکم
یکمین
یکن
یکنفر
یکنواخت
یکنواختی
یکه
یکون
یکپارچه
یکپارچگی
یکی
یگان
یگانه
یگانگی
یی
یید
ییل
ییلاق
ییلاقی
یین
یینه
یینی
۔
ە
ۖ
ۚ
۰
۰۰
۰۰۰
۰۰۱
۰۱
۰۲
۰۳
۰۴
۰۵
۰۶
۰۷
۰۷۴۲
۰۸
۰۹
۱
۱۰
۱۰۰
۱۰۰۰
۱۰۰۰۰
۱۰۰۰۰۰
۱۰۱
۱۰۲
۱۰۳
۱۰۴
۱۰۵
۱۰۶
۱۰۷
۱۰۸
۱۰۹
۱۱
۱۱۰
۱۱۰۰
۱۱۱
۱۱۲
۱۱۳
۱۱۴
۱۱۵
۱۱۶
۱۱۷
۱۱۸
۱۱۹
۱۲
۱۲۰
۱۲۰۰
۱۲۱
۱۲۲
۱۲۳
۱۲۴
۱۲۵
۱۲۵۰
۱۲۶
۱۲۶۰
۱۲۷
۱۲۷۰
۱۲۷۵
۱۲۸
۱۲۸۰
۱۲۸۴
۱۲۸۵
۱۲۸۶
۱۲۸۷
۱۲۸۸
۱۲۸۹
۱۲۹
۱۲۹۰
۱۲۹۱
۱۲۹۲
۱۲۹۳
۱۲۹۴
۱۲۹۵
۱۲۹۶
۱۲۹۷
۱۲۹۸
۱۲۹۹
۱۳
۱۳۰
۱۳۰۰
۱۳۰۱
۱۳۰۲
۱۳۰۳
۱۳۰۴
۱۳۰۵
۱۳۰۶
۱۳۰۷
۱۳۰۸
۱۳۰۹
۱۳۱
۱۳۱۰
۱۳۱۱
۱۳۱۲
۱۳۱۳
۱۳۱۴
۱۳۱۵
۱۳۱۶
۱۳۱۷
۱۳۱۸
۱۳۱۹
۱۳۲
۱۳۲۰
۱۳۲۱
۱۳۲۲
۱۳۲۳
۱۳۲۴
۱۳۲۵
۱۳۲۶
۱۳۲۷
۱۳۲۸
۱۳۲۹
۱۳۳
۱۳۳۰
۱۳۳۱
۱۳۳۲
۱۳۳۳
۱۳۳۴
۱۳۳۵
۱۳۳۶
۱۳۳۷
۱۳۳۸
۱۳۳۹
۱۳۴
۱۳۴۰
۱۳۴۱
۱۳۴۲
۱۳۴۳
۱۳۴۴
۱۳۴۵
۱۳۴۶
۱۳۴۷
۱۳۴۸
۱۳۴۹
۱۳۵
۱۳۵۰
۱۳۵۱
۱۳۵۲
۱۳۵۳
۱۳۵۴
۱۳۵۵
۱۳۵۶
۱۳۵۷
۱۳۵۸
۱۳۵۹
۱۳۶
۱۳۶۰
۱۳۶۱
۱۳۶۲
۱۳۶۳
۱۳۶۴
۱۳۶۵
۱۳۶۶
۱۳۶۷
۱۳۶۸
۱۳۶۹
۱۳۷
۱۳۷۰
۱۳۷۱
۱۳۷۲
۱۳۷۳
۱۳۷۴
۱۳۷۵
۱۳۷۶
۱۳۷۷
۱۳۷۸
۱۳۷۹
۱۳۸
۱۳۸۰
۱۳۸۱
۱۳۸۲
۱۳۸۳
۱۳۸۴
۱۳۸۵
۱۳۸۶
۱۳۸۷
۱۳۸۸
۱۳۸۹
۱۳۹
۱۳۹۰
۱۳۹۱
۱۳۹۲
۱۳۹۳
۱۳۹۴
۱۳۹۵
۱۳۹۶
۱۳۹۷
۱۳۹۸
۱۳۹۹
۱۴
۱۴۰
۱۴۰۰
۱۴۰۱
۱۴۱
۱۴۲
۱۴۳
۱۴۴
۱۴۵
۱۴۶
۱۴۷
۱۴۸
۱۴۹
۱۵
۱۵۰
۱۵۰۰
۱۵۰۰۰
۱۵۱
۱۵۲
۱۵۳
۱۵۴
۱۵۵
۱۵۶
۱۵۷
۱۵۸
۱۵۹
۱۶
۱۶۰
۱۶۰۰
۱۶۱
۱۶۲
۱۶۳
۱۶۴
۱۶۵
۱۶۵۰
۱۶۶
۱۶۷
۱۶۸
۱۶۹
۱۷
۱۷۰
۱۷۰۰
۱۷۱
۱۷۲
۱۷۳
۱۷۴
۱۷۴۷
۱۷۵
۱۷۵۰
۱۷۶
۱۷۷
۱۷۷۰
۱۷۷۴
۱۷۷۵
۱۷۷۶
۱۷۷۷
۱۷۷۸
۱۷۸
۱۷۸۰
۱۷۸۱
۱۷۸۳
۱۷۸۴
۱۷۸۵
۱۷۸۶
۱۷۸۷
۱۷۸۸
۱۷۸۹
۱۷۹
۱۷۹۰
۱۷۹۱
۱۷۹۲
۱۷۹۳
۱۷۹۴
۱۷۹۵
۱۷۹۶
۱۷۹۷
۱۷۹۸
۱۷۹۹
۱۸
۱۸۰
۱۸۰۰
۱۸۰۱
۱۸۰۲
۱۸۰۳
۱۸۰۴
۱۸۰۵
۱۸۰۶
۱۸۰۷
۱۸۰۸
۱۸۰۹
۱۸۱
۱۸۱۰
۱۸۱۱
۱۸۱۲
۱۸۱۳
۱۸۱۴
۱۸۱۵
۱۸۱۶
۱۸۱۷
۱۸۱۸
۱۸۱۹
۱۸۲
۱۸۲۰
۱۸۲۱
۱۸۲۲
۱۸۲۳
۱۸۲۴
۱۸۲۵
۱۸۲۶
۱۸۲۷
۱۸۲۸
۱۸۲۹
۱۸۳
۱۸۳۰
۱۸۳۱
۱۸۳۲
۱۸۳۳
۱۸۳۴
۱۸۳۵
۱۸۳۶
۱۸۳۷
۱۸۳۸
۱۸۳۹
۱۸۴
۱۸۴۰
۱۸۴۱
۱۸۴۲
۱۸۴۳
۱۸۴۴
۱۸۴۵
۱۸۴۶
۱۸۴۷
۱۸۴۸
۱۸۴۹
۱۸۵
۱۸۵۰
۱۸۵۱
۱۸۵۲
۱۸۵۳
۱۸۵۴
۱۸۵۵
۱۸۵۶
۱۸۵۷
۱۸۵۸
۱۸۵۹
۱۸۶
۱۸۶۰
۱۸۶۱
۱۸۶۲
۱۸۶۳
۱۸۶۴
۱۸۶۵
۱۸۶۶
۱۸۶۷
۱۸۶۸
۱۸۶۹
۱۸۷
۱۸۷۰
۱۸۷۱
۱۸۷۲
۱۸۷۳
۱۸۷۴
۱۸۷۵
۱۸۷۶
۱۸۷۷
۱۸۷۸
۱۸۷۹
۱۸۸
۱۸۸۰
۱۸۸۱
۱۸۸۲
۱۸۸۳
۱۸۸۴
۱۸۸۵
۱۸۸۶
۱۸۸۷
۱۸۸۸
۱۸۸۹
۱۸۹
۱۸۹۰
۱۸۹۱
۱۸۹۲
۱۸۹۳
۱۸۹۴
۱۸۹۵
۱۸۹۶
۱۸۹۷
۱۸۹۸
۱۸۹۹
۱۹
۱۹۰
۱۹۰۰
۱۹۰۱
۱۹۰۲
۱۹۰۳
۱۹۰۴
۱۹۰۵
۱۹۰۶
۱۹۰۷
۱۹۰۸
۱۹۰۹
۱۹۱
۱۹۱۰
۱۹۱۱
۱۹۱۲
۱۹۱۳
۱۹۱۴
۱۹۱۵
۱۹۱۶
۱۹۱۷
۱۹۱۸
۱۹۱۹
۱۹۲
۱۹۲۰
۱۹۲۱
۱۹۲۲
۱۹۲۳
۱۹۲۴
۱۹۲۵
۱۹۲۶
۱۹۲۷
۱۹۲۸
۱۹۲۹
۱۹۳
۱۹۳۰
۱۹۳۱
۱۹۳۲
۱۹۳۳
۱۹۳۴
۱۹۳۵
۱۹۳۶
۱۹۳۷
۱۹۳۸
۱۹۳۹
۱۹۴
۱۹۴۰
۱۹۴۱
۱۹۴۲
۱۹۴۳
۱۹۴۴
۱۹۴۵
۱۹۴۶
۱۹۴۷
۱۹۴۸
۱۹۴۹
۱۹۵
۱۹۵۰
۱۹۵۱
۱۹۵۲
۱۹۵۳
۱۹۵۴
۱۹۵۵
۱۹۵۶
۱۹۵۷
۱۹۵۸
۱۹۵۹
۱۹۶
۱۹۶۰
۱۹۶۱
۱۹۶۲
۱۹۶۳
۱۹۶۴
۱۹۶۵
۱۹۶۶
۱۹۶۷
۱۹۶۸
۱۹۶۹
۱۹۷
۱۹۷۰
۱۹۷۱
۱۹۷۲
۱۹۷۳
۱۹۷۴
۱۹۷۵
۱۹۷۶
۱۹۷۷
۱۹۷۸
۱۹۷۹
۱۹۸
۱۹۸۰
۱۹۸۱
۱۹۸۲
۱۹۸۳
۱۹۸۴
۱۹۸۵
۱۹۸۶
۱۹۸۷
۱۹۸۸
۱۹۸۹
۱۹۹
۱۹۹۰
۱۹۹۱
۱۹۹۲
۱۹۹۳
۱۹۹۴
۱۹۹۵
۱۹۹۶
۱۹۹۷
۱۹۹۸
۱۹۹۹
۲
۲۰
۲۰۰
۲۰۰۰
۲۰۰۰۰
۲۰۰۱
۲۰۰۲
۲۰۰۳
۲۰۰۴
۲۰۰۵
۲۰۰۶
۲۰۰۷
۲۰۰۸
۲۰۰۹
۲۰۱
۲۰۱۰
۲۰۱۱
۲۰۱۲
۲۰۱۳
۲۰۱۴
۲۰۱۵
۲۰۱۶
۲۰۱۷
۲۰۱۸
۲۰۱۹
۲۰۲
۲۰۲۰
۲۰۲۱
۲۰۲۲
۲۰۲۳
۲۰۳
۲۰۳۰
۲۰۴
۲۰۵
۲۰۶
۲۰۷
۲۰۸
۲۰۹
۲۱
۲۱۰
۲۱۰۰
۲۱۱
۲۱۲
۲۱۳
۲۱۴
۲۱۵
۲۱۶
۲۱۷
۲۱۸
۲۱۹
۲۲
۲۲۰
۲۲۰۰
۲۲۱
۲۲۲
۲۲۳
۲۲۴
۲۲۵
۲۲۶
۲۲۷
۲۲۸
۲۲۹
۲۳
۲۳۰
۲۳۱
۲۳۲
۲۳۳
۲۳۴
۲۳۵
۲۳۶
۲۳۷
۲۳۸
۲۳۹
۲۴
۲۴۰
۲۴۱
۲۴۲
۲۴۳
۲۴۴
۲۴۵
۲۴۶
۲۴۷
۲۴۸
۲۴۹
۲۵
۲۵۰
۲۵۰۰
۲۵۱
۲۵۲
۲۵۳
۲۵۳۶
۲۵۴
۲۵۵
۲۵۶
۲۵۷
۲۵۸
۲۵۹
۲۶
۲۶۰
۲۶۱
۲۶۲
۲۶۳
۲۶۴
۲۶۵
۲۶۶
۲۶۷
۲۶۸
۲۶۹
۲۷
۲۷۰
۲۷۱
۲۷۲
۲۷۳
۲۷۴
۲۷۵
۲۷۶
۲۷۷
۲۷۸
۲۷۹
۲۸
۲۸۰
۲۸۱
۲۸۲
۲۸۳
۲۸۴
۲۸۵
۲۸۶
۲۸۷
۲۸۸
۲۸۹
۲۹
۲۹۰
۲۹۱
۲۹۲
۲۹۳
۲۹۴
۲۹۵
۲۹۶
۲۹۷
۲۹۸
۲۹۹
۳
۳۰
۳۰۰
۳۰۰۰
۳۰۱
۳۰۲
۳۰۳
۳۰۴
۳۰۵
۳۰۶
۳۰۷
۳۰۸
۳۰۹
۳۱
۳۱۰
۳۱۱
۳۱۲
۳۱۳
۳۱۴
۳۱۵
۳۱۶
۳۱۶۶
۳۱۷
۳۱۸
۳۱۹
۳۲
۳۲۰
۳۲۱
۳۲۲
۳۲۳
۳۲۴
۳۲۵
۳۲۶
۳۲۷
۳۲۸
۳۲۹
۳۳
۳۳۰
۳۳۱
۳۳۲
۳۳۳
۳۳۴
۳۳۵
۳۳۶
۳۳۷
۳۳۸
۳۳۹
۳۴
۳۴۰
۳۴۱
۳۴۲
۳۴۳
۳۴۴
۳۴۵
۳۴۶
۳۴۷
۳۴۸
۳۴۹
۳۵
۳۵۰
۳۵۰۰
۳۵۱
۳۵۲
۳۵۳
۳۵۴
۳۵۵
۳۵۶
۳۵۷
۳۵۸
۳۵۹
۳۶
۳۶۰
۳۶۱
۳۶۲
۳۶۳
۳۶۴
۳۶۵
۳۶۶
۳۶۷
۳۶۸
۳۶۹
۳۷
۳۷۰
۳۷۱
۳۷۲
۳۷۳
۳۷۴
۳۷۵
۳۷۶
۳۷۷
۳۷۸
۳۷۹
۳۸
۳۸۰
۳۸۱
۳۸۲
۳۸۳
۳۸۴
۳۸۵
۳۸۶
۳۸۷
۳۸۸
۳۸۹
۳۹
۳۹۰
۳۹۱
۳۹۲
۳۹۳
۳۹۴
۳۹۵
۳۹۶
۳۹۷
۳۹۸
۳۹۹
۴
۴۰
۴۰۰
۴۰۰۰
۴۰۱
۴۰۲
۴۰۳
۴۰۴
۴۰۵
۴۰۶
۴۰۷
۴۰۸
۴۰۹
۴۱
۴۱۰
۴۱۱
۴۱۲
۴۱۳
۴۱۴
۴۱۵
۴۱۶
۴۱۷
۴۱۸
۴۱۹
۴۲
۴۲۰
۴۲۱
۴۲۲
۴۲۳
۴۲۴
۴۲۵
۴۲۶
۴۲۷
۴۲۸
۴۲۹
۴۳
۴۳۰
۴۳۱
۴۳۲
۴۳۳
۴۳۴
۴۳۵
۴۳۶
۴۳۷
۴۳۸
۴۳۹
۴۴
۴۴۰
۴۴۱
۴۴۲
۴۴۳
۴۴۴
۴۴۵
۴۴۶
۴۴۷
۴۴۸
۴۴۹
۴۵
۴۵۰
۴۵۱
۴۵۲
۴۵۳
۴۵۴
۴۵۵
۴۵۶
۴۵۷
۴۵۸
۴۵۹
۴۶
۴۶۰
۴۶۱
۴۶۲
۴۶۳
۴۶۴
۴۶۵
۴۶۶
۴۶۷
۴۶۸
۴۶۹
۴۷
۴۷۰
۴۷۱
۴۷۲
۴۷۳
۴۷۴
۴۷۵
۴۷۶
۴۷۷
۴۷۸
۴۷۹
۴۸
۴۸۰
۴۸۱
۴۸۲
۴۸۳
۴۸۴
۴۸۵
۴۸۶
۴۸۷
۴۸۸
۴۸۹
۴۹
۴۹۰
۴۹۱
۴۹۲
۴۹۳
۴۹۴
۴۹۵
۴۹۶
۴۹۷
۴۹۸
۴۹۹
۵
۵۰
۵۰۰
۵۰۰۰
۵۰۱
۵۰۲
۵۰۳
۵۰۴
۵۰۵
۵۰۶
۵۰۷
۵۰۸
۵۰۹
۵۰۹۶
۵۱
۵۱۰
۵۱۱
۵۱۲
۵۱۳
۵۱۵
۵۱۷
۵۱۸
۵۲
۵۲۰
۵۲۱
۵۲۲
۵۲۳
۵۲۴
۵۲۵
۵۲۷
۵۲۸
۵۲۹
۵۳
۵۳۰
۵۳۱
۵۳۲
۵۳۳
۵۳۴
۵۳۵
۵۳۶
۵۳۸
۵۳۹
۵۴
۵۴۰
۵۴۱
۵۴۲
۵۴۵
۵۴۷
۵۴۸
۵۴۹
۵۵
۵۵۰
۵۵۱
۵۵۲
۵۵۳
۵۵۴۵
۵۵۵
۵۵۸
۵۵۹
۵۶
۵۶۰
۵۶۲
۵۶۵
۵۷
۵۷۰
۵۷۱
۵۷۲
۵۷۳
۵۷۴
۵۷۵
۵۸
۵۸۰
۵۸۲
۵۸۵
۵۸۸
۵۸۹
۵۹
۵۹۰
۵۹۱
۵۹۸
۶
۶۰
۶۰۰
۶۰۰۰
۶۰۱
۶۰۲
۶۰۳
۶۰۵
۶۰۶
۶۰۹
۶۱
۶۱۰
۶۱۲
۶۱۳
۶۱۴
۶۱۴۳
۶۱۵
۶۱۶
۶۱۷
۶۱۸
۶۲
۶۲۰
۶۲۲
۶۲۵
۶۲۶
۶۲۷
۶۲۸
۶۳
۶۳۰
۶۳۲
۶۳۴
۶۳۵
۶۳۶
۶۳۹
۶۴
۶۴۰
۶۴۱
۶۴۲
۶۴۵
۶۵
۶۵۰
۶۵۱
۶۵۲
۶۵۴
۶۵۵
۶۵۶
۶۶
۶۶۰
۶۶۱
۶۷
۶۷۰
۶۷۲
۶۷۴
۶۷۵
۶۷۸
۶۸
۶۸۰
۶۹
۶۹۰
۶۹۱
۷
۷۰
۷۰۰
۷۰۰۰
۷۰۱
۷۰۷
۷۱
۷۱۰
۷۱۴
۷۲
۷۲۰
۷۲۷
۷۳
۷۳۰
۷۳۱
۷۳۲
۷۳۷
۷۴
۷۴۰
۷۴۷
۷۵
۷۵۰
۷۵۲
۷۵۳۱
۷۶
۷۶۰
۷۷
۷۷۰
۷۷۷
۷۸
۷۸۰
۷۹
۸
۸۰
۸۰۰
۸۰۰۰
۸۰۱
۸۰۲
۸۰۵
۸۰۶
۸۱
۸۱۰
۸۱۲
۸۲
۸۲۰
۸۳
۸۳۰
۸۴
۸۴۰
۸۵
۸۵۰
۸۶
۸۶۰
۸۷
۸۷۰
۸۸
۸۸۰
۸۹
۹
۹۰
۹۰۰
۹۱
۹۱۱
۹۱۴
۹۲
۹۲۰
۹۲۵
۹۳
۹۳۰
۹۴
۹۴۰
۹۵
۹۵۰
۹۶
۹۶۰
۹۶۴
۹۷
۹۷۸
۹۸
۹۸۰
۹۹
۹۹۹
ं
क
ग
ज
ट
ड
त
द
न
प
ब
म
य
र
ल
व
श
ष
स
ह
़
ा
ि
ी
ु
ू
े
ो
्
ক
ত
দ
ন
প
ব
ম
য
র
ল
স
়
া
ি
ী
ু
ে
্
ா
ி
ு
்
్
ാ
ി
്
น
ร
ว
ส
ั
ิ
ี
ื
ุ
ู
่
้
์
་
ာ
ေ
း
်
공개
공식
년
단독
월
일
출연
캐스팅
호흡
확정
​
‌
‍
‎
‏
‐
‑
–
—
―
‖
‘
’
‚
“
”
„
†
‡
•
…
‧
‪
‫
‬
‭
‮
′
″
‹
›
⁄
⁡
⁣
⁭
⁯
₂
€
ℏ
ℓ
№
™
←
↑
→
↔
↦
↷
⇌
⇒
∀
∂
∃
∅
∆
∇
∈
∏
∑
−
∖
∗
∘
∙
√
∝
∞
∠
∣
∧
∨
∩
∪
∫
∮
∼
≈
≡
≤
≥
⊂
⊃
⊆
⊕
⊤
⊥
⋃
⋅
⋆
⋮
⋯
⋱
⌊
⌋
③
④
⑦
─
━
│
╱
■
▪
△
◉
○
◎
●
◻
★
☆
☎
♠
♥
♦
♭
❎
⟨
⟩
⟶
⟹
⟺
⩽
⺀
⺄
⺆
⺈
⺊
⺌
⺕
⺝
⺸
⺼
⿰
⿱
⿲
⿳
⿴
⿵
⿶
⿷
⿸
⿹
⿺
⿻
、
。
《
》
「
」
『
』
【
】
〢
あ
い
う
え
お
か
き
く
け
こ
さ
し
す
せ
そ
た
ち
っ
つ
て
と
な
に
の
は
ひ
ふ
へ
ほ
ま
み
め
も
や
ょ
よ
ら
り
る
れ
ろ
わ
を
ん
゙
゚
ァ
ア
ィ
イ
ウ
ェ
エ
オ
カ
キ
ク
ケ
コ
サ
シ
ス
セ
ソ
タ
チ
ッ
ツ
テ
ト
ナ
ニ
ネ
ノ
ハ
ヒ
フ
ヘ
ホ
マ
ミ
ム
メ
モ
ャ
ヤ
ュ
ユ
ョ
ヨ
ラ
リ
ル
レ
ロ
ワ
ン
ヶ
・
ー
㇁
㇂
㇄
㇇
㇈
㇉
㇓
㐁
㐄
㐅
㐌
㐫
㐬
㐭
㐮
㐱
㑒
㒵
㒸
㒼
㓁
㓞
㔾
㕛
㕣
㖾
㘝
㚅
㚇
㚔
㚘
㝉
㝡
㝴
㝵
㞋
㞢
㞷
㠩
㠭
㠯
㡀
㡭
㡿
㢲
㢴
㣇
㣺
㥯
㪅
㫄
㫐
㫒
㫺
㬅
㬎
㬥
㬰
㲋
㳄
㷠
㸒
㸚
㸦
㼌
㼲
㽞
㿟
䀠
䂞
䍃
䏍
䒑
䖍
䖒
䖝
䖵
䙴
䚻
䜌
䝿
䡛
䧹
䪞
一
丁
丂
七
丄
丅
丆
万
丈
三
上
下
丌
不
与
丏
丐
丑
专
且
丕
世
丘
丙
业
东
丞
丢
丣
两
严
並
丨
丩
个
丫
丬
中
丮
丰
丱
串
丵
丶
丷
丸
丹
为
主
丽
丿
乀
乂
乃
久
乆
乇
么
义
之
乌
乍
乎
乏
乐
乑
乔
乖
乗
乘
乙
乚
乛
乜
九
乞
也
习
乡
乱
乳
乾
亀
亅
了
亇
予
争
事
二
亍
于
亏
亐
云
互
亓
五
井
亘
亚
亜
亞
亟
亠
亡
亢
交
亥
亦
产
亨
亩
享
京
亭
亮
亯
亰
亲
亳
亶
亷
人
亻
亼
亾
仁
今
介
仌
从
仐
仑
仒
仓
仕
他
付
仝
代
令
以
件
任
企
伊
伏
伐
休
会
伯
但
位
佐
体
何
佘
余
作
佥
佩
使
來
侈
侌
侖
侯
侵
便
俊
保
俞
信
修
倉
倍
候
倠
健
備
僉
僕
優
儿
兀
允
兂
元
兄
充
兆
兇
先
光
兊
克
兌
免
兑
兒
兓
兔
党
兜
兟
入
全
兩
兪
八
公
六
兮
兰
共
关
兵
其
具
典
兹
兼
冀
冂
冃
冄
内
冈
冉
冊
冋
册
再
冎
冏
冐
冒
冓
冖
冗
冘
军
农
冝
冡
冥
冫
冬
冷
几
凡
凢
凵
凶
凷
凸
凹
出
函
凾
刀
刁
刂
刃
刄
刅
分
切
刍
刑
刕
刖
列
刘
则
初
別
利
别
到
制
刺
則
削
剌
前
剡
剽
劉
力
功
加
劦
助
劫
劳
劵
勃
勇
勉
勒
動
務
勝
勞
勤
勹
勺
勻
勾
勿
匀
匂
包
匆
匈
匊
匋
匍
匕
化
北
匚
匝
匡
匪
匱
匸
匹
区
医
匽
匿
區
十
卂
千
卄
卅
卆
升
午
卉
半
卌
华
卑
卒
卓
協
单
卖
南
単
博
卜
卝
卞
占
卡
卢
卣
卤
卦
卩
卪
卬
卯
印
危
即
却
卵
卷
卸
卻
厂
厃
厄
历
厈
厉
厌
厓
厘
厚
原
厤
厥
厨
厭
厲
厶
厷
厸
去
厼
厽
叀
参
參
叅
又
叉
及
友
双
反
叐
发
叒
叔
叕
取
受
叚
叜
叟
口
古
句
另
叩
只
召
可
台
叱
史
右
叵
号
司
叹
吂
各
吅
合
吉
吊
吋
同
名
后
吏
向
吕
君
吝
吞
否
含
启
吳
吴
吹
吾
呂
呆
呈
告
员
呙
周
命
咅
和
咎
咠
咢
咨
咸
咼
哀
品
哉
員
哥
哲
唐
商
啇
問
啚
啬
啻
善
喜
喬
單
喿
嗇
噩
嚴
囊
囗
囘
囙
囚
四
回
囟
因
団
囧
囬
困
囱
図
囷
固
国
图
圂
圅
國
圍
園
圓
土
圡
圣
圥
在
圭
地
圶
圼
坂
坐
坒
坚
坴
垂
型
垔
垚
埀
埋
城
埶
執
基
堂
堅
堆
堇
堯
報
場
塞
墨
壘
士
壬
壯
声
売
壳
壴
壹
壺
壽
夂
处
夅
夆
备
夊
夋
夌
复
夏
夒
夕
外
夗
夘
多
夜
夢
大
夨
天
太
夫
夬
夭
央
失
夲
头
夷
夸
夹
夻
夾
奂
奄
奇
奈
奉
奎
奏
奐
契
奓
奔
奚
奞
奠
奢
奥
奭
女
奴
奻
好
如
妄
妙
妟
妥
妻
妾
姑
委
姜
威
娄
婁
婦
婴
嬰
嬴
子
孑
孔
孕
孖
字
存
孚
孛
孝
孟
季
孤
学
孫
孱
學
宀
宁
宂
它
宅
宇
守
安
宋
完
宏
宓
宗
官
定
宛
宜
宝
実
客
宣
室
宮
宰
害
家
容
宾
宿
寄
寅
密
富
寒
察
寧
審
寫
寬
寮
寸
对
寺
寻
寽
対
寿
封
尃
射
将
將
專
尉
尊
尋
尌
對
小
少
尒
尓
尔
尖
尗
尚
尞
尢
尣
尤
尧
尨
尭
就
尸
尹
尺
尻
尼
尽
尾
尿
局
居
屈
屋
屎
屏
屑
展
屖
屚
属
屠
屡
屬
屮
屯
屰
山
屵
屾
岁
岂
岑
岡
岩
岳
岸
峯
島
崇
崎
崑
崔
崖
崙
崩
嵬
嶲
巂
巛
川
州
巟
巠
巢
巤
工
左
巧
巨
巩
巫
差
己
已
巳
巴
巷
巸
巻
巽
巾
巿
帀
市
布
希
帚
帛
帝
带
師
席
帶
常
幕
干
平
年
幵
并
幷
幸
幺
幻
幼
幽
幾
广
広
庄
床
底
店
庚
府
度
庫
庭
庶
康
庸
廉
廌
廛
廣
廩
廴
延
廷
建
廾
廿
开
弁
弃
弄
弇
弋
式
弓
弔
引
弗
弘
弜
弟
弥
弦
弱
張
強
强
彊
彌
彎
彐
彑
当
彔
录
彖
彗
彡
形
彥
彦
彧
彭
影
彳
役
彼
往
待
律
後
徒
得
徙
從
御
復
微
徳
徵
心
忄
必
忌
忍
志
忝
忠
忩
快
念
忽
忿
思
怠
急
性
怱
恆
恒
恩
恭
息
悉
患
悤
悲
悶
情
惠
惡
惢
愁
愈
意
愛
感
慈
慍
慧
慮
憂
憲
應
戀
戈
戉
戊
戋
戌
戍
戎
成
我
戒
戔
或
战
戚
戠
戢
戦
截
戲
戶
户
戸
戹
戼
戾
房
所
扁
扇
手
扌
才
打
托
执
承
技
折
报
拉
拜
拿
掌
推
提
摩
支
攴
攵
收
攸
改
放
政
敄
敏
敕
敖
敗
教
敝
敞
敢
散
敦
敫
敬
数
敷
數
斂
文
斉
斊
斗
料
斤
斥
斩
斬
斯
新
方
於
施
斿
旁
旋
族
无
旡
既
旣
日
旦
旧
旨
早
旬
旱
旲
时
旾
昆
昇
昌
昍
明
昏
易
昔
昗
昜
星
映
春
昬
昭
是
昱
昴
昷
時
晃
晋
晏
普
景
晶
智
暑
暴
曇
曩
曰
曲
曳
更
曷
書
曹
曼
曾
替
最
朁
會
月
有
朋
服
朔
朕
朗
望
朝
期
木
朩
未
末
本
札
朮
术
朱
朵
朶
机
朿
杀
李
杏
村
杜
束
条
来
東
杲
杳
松
板
析
林
枚
果
枝
枲
枼
某
柔
查
柬
柰
柴
栗
校
株
根
桀
桑
桜
桼
梁
條
梟
梨
棘
棠
棥
森
楚
業
楽
榮
樂
樊
横
樹
橋
機
欠
次
欣
欮
欲
欶
欽
款
歆
歇
歌
歛
止
正
此
步
武
歨
歪
歮
歯
歰
歲
歴
歷
歸
歹
歺
死
殳
段
殷
殸
殹
殺
殻
殿
毋
毌
母
每
毒
比
毕
毚
毛
毳
氏
氐
民
气
気
氣
水
氵
氶
氷
永
氺
氾
求
汉
汝
汞
江
池
決
汽
沃
沓
沖
沙
沝
沢
河
治
泉
法
波
泣
泥
泰
洋
洛
津
洪
活
派
流
浜
浦
浪
浮
海
淡
淮
清
渚
渠
港
湖
湯
源
滿
演
漸
火
灬
灭
灰
灵
灷
炅
炎
炏
炗
炙
炭
為
烈
烏
烝
焉
無
焦
焱
然
焼
煞
熊
熏
燕
營
燮
爪
爫
爭
爯
爰
爱
爲
爵
父
爻
爽
爾
爿
片
版
牙
牚
牛
牜
牟
牢
牧
物
牪
特
牽
犀
犬
犭
犮
狂
狄
狊
独
狺
猋
猒
猪
献
獻
玄
率
玉
王
玟
玨
珎
班
球
理
琴
瑟
瑩
瓜
瓦
甘
甚
生
産
用
甫
甬
田
由
甲
申
电
甶
男
甸
甹
町
画
甾
畀
界
畏
畐
留
畜
畟
畢
畧
畨
番
畫
異
畱
當
畺
畾
疊
疋
疌
疑
疒
疾
病
癶
癸
癹
発
登
發
白
百
皀
皃
的
皆
皇
皋
皐
皕
皮
皷
皿
盃
盆
盇
盈
益
盍
盎
监
盒
盖
盛
盟
盡
監
盤
盧
目
直
相
盾
省
眇
眉
看
県
眔
眞
真
眷
眼
眾
着
睘
睪
睿
瞏
瞢
瞿
矍
矛
矞
矢
矣
知
矦
短
石
研
破
碎
磊
磨
示
礻
礼
社
神
祟
票
祭
禀
禁
福
禸
禹
禺
离
禽
禾
禿
秀
秃
秉
秋
科
秝
秦
移
稟
穀
穂
穌
穴
究
穹
空
穿
突
窄
窒
立
竒
竜
竝
竟
章
童
竹
笑
笠
第
筆
等
答
箕
算
箴
節
篤
篭
米
粉
粛
粟
粤
粦
粲
糞
糸
糹
系
紀
約
納
素
索
紫
累
細
経
結
絜
絫
統
絲
維
綿
総
線
編
縄
縣
繇
織
纍
纟
线
缶
网
罒
罔
罕
罗
罙
罡
罢
罪
署
罷
羅
羊
羌
羍
美
羔
羕
羗
羞
羡
羣
群
義
羲
羸
羽
翁
翏
習
翕
翟
翠
翼
老
耂
考
者
耆
而
耎
耑
耒
耳
耴
耶
耷
聂
聊
聖
聚
聞
聶
聿
肀
肃
肅
肉
肖
肙
肥
肩
肯
育
肴
胃
背
胡
胥
能
脊
脩
膚
臣
臤
臧
自
臬
臭
臯
臱
至
致
臺
臼
臽
臾
臿
舀
舂
舄
與
興
舉
舌
舍
舛
舜
舞
舟
航
般
船
艮
良
色
艸
艹
艾
芒
芔
芬
芮
花
芳
芺
芻
苔
苗
苟
若
苦
英
茶
茸
荅
草
荒
荣
荼
莆
莧
莫
莽
菆
菊
菐
菓
華
萬
落
葉
著
葛
董
葵
蒙
蒦
蒼
蓋
蓬
蓺
蔑
蔡
蔵
蕉
蕭
薄
薛
薦
薰
藍
藏
藤
藥
蘭
虍
虎
虐
虒
虔
處
虖
虗
虘
虚
虛
虜
虞
虫
虽
蚤
蚩
蜀
蜜
蟲
蟹
蠡
血
行
衍
術
衛
衣
衤
表
衮
衰
袁
袞
褭
褱
襄
襾
西
覀
要
覃
見
規
覓
覧
親
覽
见
角
解
言
訁
訇
計
記
設
試
話
詹
語
誩
説
調
談
諸
講
讠
计
谷
豆
豈
豊
豐
豕
豖
豙
象
豦
豩
豪
豸
貇
貝
貞
貟
負
貢
貧
貪
貫
責
貳
貴
買
費
賀
賁
資
賈
賏
賓
賔
賛
賞
賢
賣
質
賴
贊
贝
贡
责
贯
贲
贵
赖
赞
赤
赦
赭
走
越
足
路
蹇
身
躬
車
軍
軎
軟
輦
车
辛
辜
辞
辟
辥
辰
辱
農
辵
辶
边
达
过
近
连
迷
追
退
送
逆
逐
通
速
造
逢
連
逮
週
進
遀
遂
過
道
達
遣
適
遷
遺
邁
邊
邑
邕
那
邦
邪
郎
部
郭
都
鄉
酉
酋
配
酓
釆
采
里
重
野
量
金
釒
鈴
鉄
錢
録
鑑
钅
長
镸
长
門
閃
閉
開
閏
閑
閒
間
閔
関
閵
閻
闌
门
间
闷
阑
阜
阝
阿
降
限
院
陳
陽
隆
隊
隋
隡
隨
隱
隶
隹
隺
隻
隼
隽
难
雀
雁
雄
集
雈
雋
雍
雐
雑
雔
雙
雚
雜
雝
離
難
雨
雩
雪
雲
零
雷
電
需
霄
霍
霜
霝
霞
霸
靈
靑
青
非
靡
面
靣
革
韋
韓
韦
韭
韯
韱
音
頁
頃
項
須
頗
頡
頻
顛
页
風
风
飛
飞
食
飠
養
館
饣
首
香
馬
馮
駅
駦
马
骨
高
髟
鬥
鬯
鬲
鬼
魚
魯
鮮
鱼
鲁
鳥
鳳
鸟
鹵
鹿
麃
麗
麥
麦
麻
黃
黄
黍
黎
黑
黒
黨
黹
黽
黾
鼎
鼓
鼠
鼻
齊
齋
齐
齒
齿
龍
龙
龜
龟
龠
龰
龱
龴
龵
龶
龷
龸
龹

者
艹
ﭘ
ﭼ
ﮐ
ﮑ
ﮔ
ﮕ
ﯼ
ﯽ
ﯾ
ﯿ
﴾
﴿
ﷲ
︎
️
ﺀ
ﺁ
ﺍ
ﺎ
ﺑ
ﺒ
ﺕ
ﺖ
ﺗ
ﺘ
ﺟ
ﺠ
ﺣ
ﺤ
ﺧ
ﺨ
ﺩ
ﺪ
ﺭ
ﺮ
ﺯ
ﺰ
ﺳ
ﺴ
ﺶ
ﺷ
ﺸ
ﻋ
ﻌ
ﻓ
ﻔ
ﻗ
ﻘ
ﻛ
ﻞ
ﻟ
ﻠ
ﻡ
ﻢ
ﻣ
ﻤ
ﻥ
ﻦ
ﻧ
ﻨ
ﻩ
ﻪ
ﻫ
ﻬ
ﻭ
ﻮ
ﻳ
ﻴ
ﻻ
﻿
！
（
）
，
０
１
２
：
？
｜
～
￼
�
𐎠
𐬀
𐬌
𐬎
𐭠
𐭥
𐭩
𠀁
𠀃
𠀆
𠀉
𠀎
𠀐
𠁁
𠁣
𠂆
𠂇
𠂈
𠂉
𠂊
𠂋
𠂎
𠂒
𠂔
𠂛
𠂡
𠂢
𠂤
𠂬
𠂭
𠂹
𠃊
𠃋
𠃌
𠃍
𠃎
𠃑
𠃓
𠃔
𠃜
𠄌
𠄎
𠄠
𠄢
𠆢
𠆥
𠇍
𠈌
𠌵
𠓜
𠔉
𠔥
𠔼
𠔽
𠔿
𠕀
𠕁
𠕋
𠘧
𠘨
𠙻
𠙼
𠚏
𠚒
𠚤
𠚪
𠣏
𠤎
𠤕
𠥓
𠦄
𠦑
𠦝
𠧒
𠧗
𠧪
𠩺
𠪚
𠫓
𠫔
𠫤
𠬛
𠬝
𠬞
𠬢
𠬤
𠬶
𠮛
𠮦
𠮷
𠯑
𠱠
𠳮
𠷎
𡈼
𡉀
𡉵
𡌥
𡍮
𡏳
𡕒
𡕩
𡕰
𡖅
𡗗
𡗜
𡘆
𡘤
𡧱
𡨄
𡩧
𡬠
𡭽
𡰣
𡰥
𡰪
𡰯
𡰱
𡷈
𡸁
𡿨
𡿩
𡿪
𡿺
𢀖
𢀛
𢀩
𢁙
𢆉
𢆰
𢆶
𢇁
𢇇
𢉖
𢌬
𢌿
𢏚
𢑑
𢑚
𢖻
𢙣
𢛳
𢦏
𢦒
𢧵
𢼄
𢾕
𣁋
𣄼
𣅀
𣅽
𣍘
𣎳
𣎵
𣏋
𣏼
𣗥
𣥂
𣥖
𣦵
𣦼
𣧄
𣪊
𣪠
𣬉
𣳾
𣶒
𤇾
𤊽
𤐫
𤓰
𤔔
𤕨
𤣩
𤰇
𤰔
𤰞
𤴓
𤴔
𤽄
𥁑
𥁕
𥃦
𥃩
𥃭
𥇡
𥑟
𥘅
𥘈
𥝢
𥫗
𥱡
𦈢
𦉪
𦉬
𦉼
𦍌
𦍒
𦎧
𦐇
𦓔
𦔮
𦘒
𦙃
𦚏
𦣝
𦣞
𦣻
𦥑
𦥔
𦥯
𦨉
𦭝
𦰩
𧆞
𧈧
𧘇
𧰨
𧴪
𧴮
𧵩
𧾷
𨸏
𨾴
𩙿
𩠐
𩫏
𩵋
𪉷
𪜀
𪟽
𪠲
𪩲
𫇦
𫔭
𫜸
𫝀
𫠣
𫠩
𫢉
𫥞
𫩏
𫩠
𫪡
𫲽
𫶧
𬀷
𬐘
𬗌
𬙙
𬛸
𬜯
𬟩
𬯁
𬴘
𬺻
𬼉
𬼖
𭀰
𭁈
𭁨
𭅰
𭑈
𭕄
𭗼
𭤨
𭥫
𭻾
𮅕
𮊿
𮍌
𮍏
𮓗
𮥼
𮧮
廾
𰀁
𰀄
𰀈
𰀉
𰀕
𰀠
𰀡
𰀢
𰀪
𰁜
𰃮
𰆊
𰆘
𰋙
𰕎
𰢴
𰧭
𰯲
01--
02--
03--
04--
05--
06--
07--
08--
09--
35--
36--
37--
38--
39--
40--
41--
42--
43--
44--
45--
46--
47--
48--
49--
50--
51--
52--
53--
54--
55--
56--
57--
58--
59--
60--
61--
62--
63--
64--
65--
66--
67--
68--
69--
70--
71--
72--
73--
74--
75--
76--
77--
78--
79--
80--
81--
82--
83--
84--
85--
86--
87--
88--
89--
90--
91--
92--
93--
94--
95--
96--
97--
978--
98--
99--
a--
aa--
ab--
aber--
ac--
acce--
accele--
acha--
achieve--
acqui--
ad--
addit--
adel--
adhe--
ado--
adol--
adve--
advo--
ae--
aero--
af--
affe--
ag--
agu--
ah--
ai--
air--
aj--
ak--
aka--
al--
ala--
alek--
ali--
all--
allo--
alt--
alum--
am--
amat--
amp--
an--
ana--
anarc--
and--
anta--
anth--
anti--
any--
ao--
ap--
apa--
apo--
app--
appo--
aqua--
ar--
ara--
arc--
argu--
arm--
art--
as--
ash--
asp--
asse--
assi--
at--
atmosp--
attr--
au--
aus--
austr--
auto--
av--
avo--
awa--
ax--
ay--
aya--
az--
b--
ba--
back--
bact--
bad--
bag--
bak--
bal--
ban--
bapt--
bar--
bas--
bat--
bay--
bb--
be--
beau--
bed--
bel--
ben--
ber--
bert--
bh--
bi--
bian--
biblio--
big--
bin--
bio--
bir--
bis--
bit--
bl--
blan--
blo--
bloom--
bo--
boli--
boo--
bou--
bour--
bow--
boy--
br--
brad--
bras--
bree--
bri--
brit--
bro--
broad--
brom--
brook--
brow--
bru--
bu--
buda--
budd--
burk--
but--
by--
byza--
c--
ca--
cal--
calcu--
cali--
can--
cap--
car--
cass--
casu--
cat--
cc--
cd--
ce--
cele--
cent--
cer--
cere--
cert--
cf--
ch--
cha--
che--
chem--
chi--
cho--
chry--
ci--
city--
ck--
cl--
cle--
clim--
clo--
cm--
cn--
co--
cock--
col--
cold--
colum--
com--
come--
compl--
con--
concent--
contr--
coor--
corn--
corr--
corres--
cos--
cou--
cour--
cow--
cr--
crea--
crist--
crite--
cro--
cru--
cs--
ct--
cu--
cur--
curr--
cust--
cy--
cycl--
cyto--
cz--
d--
da--
dam--
dan--
dar--
data--
daw--
de--
dec--
decla--
def--
del--
dem--
demon--
depen--
der--
dermato--
des--
desti--
det--
deter--
dev--
dh--
di--
dia--
diag--
dict--
diff--
dimen--
dipl--
disa--
disc--
disp--
diss--
dist--
distri--
divi--
dj--
dm--
do--
dod--
down--
dr--
dres--
du--
dw--
dy--
dz--
e--
ea--
east--
eb--
ec--
ed--
ee--
eff--
effic--
eg--
ei--
ek--
el--
ele--
elec--
electr--
elep--
eli--
em--
embr--
emer--
emis--
emo--
en--
end--
endo--
eng--
entre--
enzy--
ep--
equa--
equi--
er--
ero--
es--
est--
et--
ethno--
ety--
eu--
euph--
eur--
euro--
ev--
ew--
ex--
exam--
execut--
exer--
exo--
exp--
ey--
ez--
f--
fa--
fair--
fan--
far--
fau--
fc--
fe--
fein--
ferr--
fi--
film--
fire--
fix--
fl--
flo--
flor--
fluor--
fly--
fo--
fol--
font--
foot--
for--
fr--
frag--
fre--
fred--
free--
fri--
fu--
fun--
g--
ga--
gall--
game--
gas--
gau--
gaz--
ge--
gen--
gene--
geo--
ger--
gha--
gho--
gi--
gian--
gil--
giu--
gl--
glo--
global--
gly--
go--
god--
gold--
good--
gov--
gr--
grad--
gran--
green--
grif--
gro--
gs--
gu--
guer--
guil--
gun--
gy--
h--
ha--
had--
hai--
hal--
ham--
han--
har--
hard--
harr--
hart--
has--
hat--
haw--
hay--
haz--
hd--
he--
head--
heli--
helicop--
her--
hey--
hi--
hig--
high--
hiro--
his--
hit--
hl--
ho--
hod--
hok--
home--
homo--
hot--
how--
hr--
hu--
hum--
husb--
huss--
hutc--
hy--
hydr--
hydro--
hyper--
hypo--
i--
ia--
ic--
ice--
id--
ie--
if--
ii--
ij--
il--
illu--
im--
imag--
immi--
in--
inc--
incor--
indi--
indu--
infan--
infe--
influ--
info--
inject--
inju--
ins--
inspi--
insu--
int--
inte--
inter--
inve--
invent--
investi--
invi--
io--
ip--
ir--
iran--
is--
isab--
ishi--
iso--
it--
iv--
j--
ja--
jan--
je--
ji--
jo--
joac--
jp--
ju--
jupi--
k--
ka--
kara--
kaz--
ke--
ken--
key--
kha--
kho--
khu--
ki--
kim--
kit--
kl--
kni--
kno--
ko--
kook--
kr--
krist--
ks--
ku--
ky--
kyo--
l--
la--
lan--
land--
laur--
law--
lay--
lc--
le--
led--
legi--
les--
ley--
li--
lib--
liberta--
lie--
life--
lin--
ll--
lo--
lock--
log--
long--
lou--
low--
lt--
lu--
ly--
lymp--
m--
ma--
mac--
mad--
mag--
mah--
mai--
mal--
mala--
man--
manif--
manu--
map--
mar--
maur--
may--
maz--
mb--
mc--
me--
med--
mega--
meh--
mel--
memo--
men--
mer--
mesopota--
mess--
met--
meta--
mi--
micro--
mid--
mik--
mil--
min--
mira--
mit--
miya--
mm--
mn--
mo--
mol--
mon--
mono--
monog--
moo--
morpho--
motor--
mou--
mp--
ms--
mt--
mu--
mug--
multi--
mun--
my--
n--
na--
naka--
nano--
narr--
nat--
navi--
nc--
nd--
ne--
neig--
neighbour--
neo--
ner--
net--
neu--
neur--
neuro--
neut--
new--
news--
ng--
ngu--
ni--
nik--
niko--
nitr--
nn--
no--
non--
noor--
nor--
not--
np--
ns--
nt--
nu--
ny--
o--
obe--
obs--
obser--
occ--
of--
off--
og--
oh--
ok--
ol--
oliv--
oly--
om--
on--
onco--
one--
op--
opport--
or--
orche--
os--
ou--
out--
ov--
over--
oxida--
oxy--
oz--
p--
pa--
pall--
pan--
par--
para--
pass--
pat--
path--
pay--
pc--
pe--
pen--
pept--
per--
percept--
pet--
ph--
phan--
pharmac--
phen--
pho--
phos--
phosph--
photo--
phy--
pi--
pic--
pix--
pl--
play--
plea--
po--
pol--
poli--
politi--
poly--
pop--
post--
pou--
pr--
prae--
pre--
predict--
prim--
pro--
promo--
provi--
ps--
pseu--
psy--
psycho--
pt--
pu--
pub--
publi--
purc--
put--
py--
q--
qa--
qi--
qu--
qua--
quali--
quant--
r--
ra--
radio--
ram--
ran--
rap--
rat--
rb--
rc--
rd--
re--
rec--
recom--
red--
ref--
refer--
reflect--
regi--
regu--
regula--
rein--
rela--
rele--
reli--
ren--
rep--
require--
res--
respi--
resur--
reta--
reti--
rev--
revis--
rg--
rh--
rho--
rhy--
ri--
ric--
rk--
rn--
ro--
rob--
rock--
rod--
rota--
rou--
row--
rr--
rs--
rt--
ru--
run--
rut--
ry--
s--
sa--
sal--
sala--
salva--
sam--
san--
sar--
sat--
sax--
sc--
scar--
sch--
scha--
sche--
schi--
schu--
sco--
scor--
scri--
sd--
se--
sea--
sec--
see--
sei--
sel--
sele--
semicondu--
sen--
sep--
ser--
set--
sey--
sf--
sh--
sha--
she--
shi--
sho--
show--
shu--
si--
sie--
sig--
sil--
sim--
sin--
sk--
sky--
skysc--
sl--
slo--
slov--
sm--
sn--
so--
socio--
sol--
some--
sou--
sove--
sp--
spec--
spectros--
spot--
squa--
sr--
ss--
st--
sta--
star--
ste--
stimu--
sto--
str--
stu--
stutt--
sty--
su--
sub--
suff--
sul--
sun--
super--
sur--
susp--
sv--
sw--
swim--
sy--
syl--
syno--
synt--
sz--
sza--
t--
ta--
taka--
tall--
tan--
tas--
tb--
tc--
te--
tea--
tech--
telecom--
temp--
ten--
ter--
th--
the--
thy--
ti--
tim--
time--
to--
tole--
top--
tor--
toxi--
tr--
trans--
tre--
tri--
tric--
trig--
tro--
tru--
ts--
tt--
tu--
turk--
tv--
twel--
twi--
ty--
u--
ub--
uc--
uk--
ull--
ultra--
um--
un--
under--
univer--
unve--
up--
ur--
us--
ut--
v--
va--
val--
van--
var--
ve--
vel--
velo--
vent--
veri--
vers--
vert--
veter--
vi--
vik--
viz--
vo--
vol--
vr--
vult--
w--
wa--
wan--
war--
we--
web--
wei--
wel--
west--
whit--
wi--
wies--
wiki--
wil--
win--
with--
wo--
wood--
wu--
wy--
x--
xi--
xx--
y--
ya--
yama--
ye--
yi--
yo--
yu--
z--
za--
zei--
zen--
zhe--
zie--
zim--
zo--
zom--
zoroastr--
zu--
ı--
ł--
ə--
α--
δ--
κ--
λ--
μ--
ν--
ρ--
σ--
τ--
а--
алек--
б--
в--
г--
государ--
д--
е--
з--
и--
к--
л--
м--
мих--
н--
о--
п--
р--
с--
се--
сл--
со--
т--
ար--
գ--
հ--
մ--
ا--
اب--
ابر--
ابو--
ابوال--
ابی--
ات--
اتر--
اتو--
اثر--
اج--
اجرا--
اح--
احت--
احمد--
اخ--
اد--
ادین--
ار--
ارت--
ارد--
ارض--
ارغ--
ارو--
اری--
از--
اس--
است--
اسد--
اسم--
اسن--
اسپو--
اسپک--
اسکو--
اش--
اشت--
اشک--
اص--
اصط--
اض--
اط--
اع--
اغ--
اف--
اق--
اقتض--
ال--
الا--
الت--
الث--
الح--
الد--
الر--
الس--
الش--
الص--
الط--
الع--
الغ--
الف--
الق--
الم--
الن--
اله--
الک--
الکترو--
الی--
ام--
امام--
امپری--
امیر--
ان--
انا--
انتر--
اند--
انس--
انگ--
انی--
اه--
او--
اوا--
اوت--
اور--
اوز--
اول--
اوم--
اون--
اوه--
اوک--
اوکلا--
اوگ--
اوی--
اي--
اپ--
اپی--
اچ--
اک--
اکت--
اکس--
اکو--
اکونو--
اگ--
اگر--
اگز--
اگزیستانس--
ای--
ایت--
ایر--
ایران--
ایزد--
ایزو--
ایشت--
ایل--
ایم--
این--
اینتر--
ایو--
ایگ--
ب--
با--
بابا--
بات--
باج--
باد--
بار--
باز--
باس--
باش--
باص--
باغ--
بال--
بالا--
بام--
بان--
باو--
باور--
باک--
بای--
بت--
بتا--
بث--
بجو--
بح--
بحر--
بد--
بدر--
بدل--
بدی--
بذر--
بر--
برا--
براز--
برت--
برد--
برس--
برف--
برق--
برم--
برن--
برو--
برک--
برگ--
بری--
بز--
بس--
بسا--
بش--
بص--
بط--
بغ--
بل--
بلا--
بلند--
بلو--
بلی--
بم--
بما--
بمب--
بن--
بنا--
بند--
بندر--
بنز--
بنو--
بنگ--
بنیاد--
به--
بها--
بهر--
بو--
بوا--
بوت--
بود--
بور--
بورو--
بوس--
بول--
بوم--
بون--
بوک--
بوی--
بي--
بچ--
بک--
بکش--
بگ--
بگذر--
بی--
بیا--
بیت--
بید--
بیر--
بیس--
بیش--
بیف--
بیل--
بیم--
بین--
بینا--
بیو--
بیک--
بیگ--
بیگلر--
ت--
تا--
تاب--
تات--
تاج--
تار--
تال--
تام--
تان--
تاو--
تاک--
تای--
تب--
تبار--
تبهک--
تترا--
تح--
تخت--
تد--
تر--
ترا--
ترس--
ترم--
ترمو--
ترن--
ترو--
تروم--
تری--
تز--
تس--
تش--
تص--
تصویر--
تض--
تط--
تع--
تعا--
تعز--
تغ--
تغییر--
تف--
تق--
تل--
تم--
تمث--
تمهی--
تن--
تنا--
تند--
تنگ--
ته--
تهی--
تو--
توت--
تور--
توس--
تول--
تون--
توپ--
توی--
تپ--
تک--
تکرار--
تکن--
تگ--
تی--
تیت--
تیر--
تیز--
تیل--
تیم--
تین--
ث--
ثار--
ثر--
ثعل--
ثم--
ثیر--
ج--
جا--
جام--
جان--
جانب--
جای--
جبر--
جدا--
جر--
جرج--
جز--
جست--
جعفر--
جف--
جل--
جلو--
جم--
جن--
جنگ--
جنگل--
جه--
جهان--
جو--
جور--
جوز--
جوش--
جک--
جی--
جیل--
ح--
حا--
حب--
حج--
حد--
حر--
حرم--
حس--
حص--
حض--
حق--
حل--
حن--
حک--
حکم--
حی--
حیدر--
خ--
خا--
خار--
خان--
خاور--
خاچا--
خاک--
خب--
خبر--
خدا--
خر--
خرد--
خرم--
خز--
خس--
خسرو--
خش--
خشک--
خص--
خط--
خطر--
خم--
خن--
خو--
خوا--
خود--
خور--
خوش--
خون--
خوند--
خی--
خیر--
د--
دا--
داب--
داد--
دار--
دارال--
دارو--
داس--
داش--
دال--
دام--
دان--
داو--
داک--
داگ--
دای--
دب--
دبیر--
در--
درا--
دراز--
درب--
دربر--
درج--
درد--
درز--
درس--
درم--
درو--
درون--
درک--
دریا--
دز--
دست--
دسک--
دشت--
دعا--
دف--
دفتر--
دل--
دلا--
دلگ--
دم--
دما--
دمی--
دن--
ده--
دو--
دوا--
دود--
دور--
دوز--
دوس--
دول--
دوم--
دون--
دوو--
دوک--
دي--
دژ--
دکتر--
دگر--
دی--
دیر--
دیز--
دیس--
دیل--
دیم--
دین--
دیو--
دیپ--
دیگر--
ذ--
ذا--
ذر--
ذه--
ذوال--
ذکر--
ذی--
ر--
را--
راب--
راج--
راد--
رادرف--
رادیو--
راز--
راس--
رام--
ران--
راه--
راو--
راک--
رای--
راین--
رب--
ربا--
رت--
رتی--
رج--
رجی--
رخ--
رخت--
رد--
رز--
رزم--
رزو--
رس--
رش--
رشت--
رضا--
رف--
رفتار--
رق--
رم--
رمز--
رن--
رنج--
رند--
ره--
رها--
رو--
روا--
روان--
روت--
رود--
روز--
روس--
روم--
رون--
روچ--
روی--
رپ--
رک--
رگ--
ری--
ریا--
ریبو--
رید--
ریز--
ریس--
رین--
ریو--
ریک--
ز--
زا--
زاد--
زادی--
زار--
زال--
زان--
زای--
زبان--
زبر--
زد--
زر--
زرد--
زلی--
زم--
زن--
زند--
زنگ--
زه--
زو--
زود--
زور--
زي--
زک--
زی--
زیبا--
زیر--
زین--
زیگ--
س--
سا--
ساب--
سار--
ساز--
سال--
سام--
سان--
ساک--
سای--
سب--
سبا--
سبز--
سبک--
ست--
ستر--
ستم--
سح--
سخا--
سخت--
سخن--
سد--
سر--
سرا--
سرب--
سرخ--
سرد--
سرم--
سرو--
سری--
سس--
سف--
سفید--
سل--
سم--
سن--
سنت--
سند--
سنگ--
سه--
سهم--
سو--
سوء--
سوا--
سوت--
سود--
سور--
سول--
سوم--
سون--
سوپ--
سوپر--
سوک--
سوگ--
سوی--
سي--
سپن--
سک--
سکس--
سکو--
سگ--
سی--
سیا--
سیب--
سیتو--
سید--
سیدال--
سیر--
سیس--
سیف--
سیل--
سیلا--
سیم--
سین--
سیک--
ش--
شا--
شاخ--
شاد--
شار--
شام--
شان--
شاه--
شب--
شت--
شتر--
شد--
شر--
شرف--
شرم--
شش--
شعر--
شفا--
شق--
شل--
شم--
شن--
شه--
شهر--
شو--
شوت--
شور--
شون--
شوی--
شک--
شکر--
شی--
شیب--
شیر--
شیط--
شین--
ص--
صاحب--
صبح--
صح--
صد--
صدا--
صدر--
صف--
صفا--
صفر--
صل--
صنو--
صورت--
ض--
ضاب--
ضد--
ضدا--
ط--
طب--
طل--
طلا--
طلب--
طنز--
طه--
طو--
طور--
طی--
ظ--
ع--
عا--
عالی--
عب--
عبد--
عبدال--
عج--
عد--
عدد--
عرب--
عز--
عسگ--
عصر--
عضو--
عط--
عطا--
عطاء--
عظ--
عل--
علف--
علی--
عم--
عمل--
عمو--
عن--
عکس--
عیس--
غ--
غا--
غار--
غاز--
غض--
غل--
غم--
غو--
غیر--
غیرا--
ـ--
ف--
فا--
فال--
فام--
فان--
فای--
فت--
فتوو--
فخر--
فدا--
فر--
فرا--
فرح--
فرد--
فرزند--
فرش--
فرمان--
فره--
فرو--
فری--
فسف--
فص--
فض--
فضا--
فقیر--
فل--
فلا--
فلام--
فلز--
فلو--
فلی--
فن--
فنا--
فنر--
فه--
فو--
فوت--
فور--
فول--
فون--
في--
فک--
فی--
فیثا--
فیر--
فیل--
فین--
ق--
قا--
قبر--
قد--
قر--
قرا--
قرار--
قرقا--
قرقی--
قشق--
قص--
قصر--
قط--
قل--
قلم--
قم--
قمر--
قن--
قه--
قو--
قور--
قی--
ك--
كار--
ل--
لا--
لات--
لاف--
لال--
لام--
لان--
لاو--
لاک--
لای--
لب--
لت--
لح--
لد--
لر--
لز--
لس--
لش--
لط--
لغ--
لف--
لق--
لل--
لم--
لن--
لند--
له--
لو--
لوب--
لوت--
لود--
لوم--
لون--
لوک--
لوی--
لپ--
لژ--
لک--
لی--
لیت--
لید--
لیم--
لین--
لیو--
لیک--
لیگ--
م--
ما--
مات--
ماد--
مادر--
مار--
ماس--
مال--
مام--
مان--
ماه--
ماهی--
ماکیا--
مای--
مبا--
مبت--
مت--
متا--
متد--
مث--
مجا--
مجد--
مح--
محت--
محمد--
مخ--
مخبر--
مد--
مدد--
مذ--
مر--
مرد--
مرز--
مرغ--
مری--
مز--
مزو--
مس--
مست--
مش--
مشار--
مص--
مصل--
مض--
مط--
مع--
معت--
معتمد--
معنا--
مغ--
مف--
مق--
مقا--
مل--
ملا--
ملت--
ملک--
ملی--
مم--
من--
منا--
مناق--
مند--
منز--
منو--
منی--
مه--
مهار--
مهد--
مهر--
مو--
مواد--
موت--
موتور--
مود--
مور--
مورا--
مورد--
مورف--
موز--
موس--
موص--
مول--
موم--
مون--
مونو--
موه--
موگ--
مي--
مپ--
مک--
مگ--
مگا--
می--
میا--
میان--
میت--
میخ--
میخوا--
مید--
میر--
میرزا--
میز--
میس--
میش--
میل--
مین--
مینو--
میو--
میک--
میکرو--
میگ--
ن--
نا--
ناب--
نات--
نار--
ناز--
ناس--
ناشن--
ناصر--
نام--
نامت--
نان--
نانو--
ناهم--
ناو--
ناک--
نای--
نت--
نتی--
نج--
نخ--
نخوا--
ند--
ندا--
ندر--
نر--
نرم--
نس--
نش--
نص--
نظ--
نظر--
نع--
نف--
نفت--
نفر--
نفس--
نق--
نقا--
نقش--
نم--
نما--
نماد--
نمی--
نه--
نهر--
نو--
نوا--
نوت--
نود--
نور--
نوس--
نوش--
نوشیر--
نون--
نوو--
نوک--
نوی--
ني--
نژ--
نژاد--
نک--
نگ--
نگار--
نگذا--
نگه--
نی--
نیا--
نیت--
نیل--
نیم--
نین--
نیو--
نیک--
ه--
ها--
هاب--
هات--
هار--
هاروت--
هاس--
هال--
هالی--
هام--
هان--
هاو--
هاپ--
هاک--
هاگ--
های--
هت--
هد--
هدف--
هر--
هرا--
هرت--
هرز--
هرم--
هری--
هزار--
هش--
هل--
هلن--
هلی--
هم--
هما--
همی--
هن--
هنج--
هند--
هندو--
هنر--
هو--
هوا--
هور--
هوس--
هوف--
هول--
هوم--
هون--
هوو--
هپت--
هژ--
هک--
هگز--
هی--
هیا--
هیدرو--
هیر--
هیل--
هیو--
هیپ--
و--
وا--
وات--
وار--
وارد--
واز--
واش--
وال--
والا--
وام--
وان--
واک--
وای--
وب--
وت--
وج--
وخ--
ود--
ودا--
ودر--
ودی--
ور--
ورا--
ورت--
ورد--
ورو--
وری--
وز--
وزیر--
وس--
وست--
وش--
وص--
وف--
ول--
ولا--
ولد--
ولو--
ولی--
وم--
ون--
وند--
وه--
وهم--
وو--
وود--
وک--
وی--
ویا--
ویت--
وید--
ویر--
ویس--
ویل--
وین--
ویو--
ویک--
ي--
يا--
١--
١٩--
٢--
٢٠--
٣--
پ--
پا--
پاد--
پادوس--
پارا--
پاس--
پال--
پان--
پاپ--
پاک--
پای--
پت--
پتر--
پد--
پدر--
پر--
پرا--
پرت--
پرتو--
پرخاش--
پرس--
پرش--
پرو--
پروپا--
پری--
پز--
پس--
پسا--
پسر--
پشت--
پط--
پل--
پلو--
پلی--
پن--
پنج--
په--
پو--
پوا--
پوت--
پود--
پور--
پوش--
پول--
پوپ--
پي--
پژ--
پک--
پی--
پیتر--
پیتس--
پیدا--
پیر--
پیز--
پیش--
پیل--
پین--
پیو--
پیچ--
پیک--
چ--
چا--
چادر--
چار--
چان--
چاپ--
چاک--
چای--
چت--
چتر--
چرنو--
چرو--
چسب--
چستر--
چغا--
چل--
چلی--
چم--
چمن--
چن--
چند--
چه--
چهار--
چو--
چپ--
چک--
چی--
چیز--
ژ--
ژل--
ژن--
ژو--
ژول--
ژی--
ک--
کا--
کات--
کار--
کارا--
کارد--
کاس--
کاش--
کاغذ--
کال--
کام--
کان--
کانا--
کاه--
کاو--
کاپ--
کاپیت--
کای--
کت--
کتاب--
کد--
کر--
کرد--
کرو--
کرک--
کری--
کز--
کس--
کسر--
کسی--
کش--
کشت--
کشف--
کشور--
کف--
کل--
کلا--
کلر--
کلک--
کلی--
کم--
کمر--
کمپ--
کن--
کنار--
کنت--
کنترپ--
کنج--
کند--
که--
کو--
کوا--
کوب--
کوت--
کود--
کور--
کول--
کون--
کوه--
کوچ--
کوک--
کوی--
کپ--
کپی--
کژ--
کی--
کیا--
کیت--
کیس--
کیش--
کیل--
کیلو--
کیم--
کین--
کیو--
گ--
گاب--
گاد--
گار--
گاز--
گاس--
گال--
گام--
گان--
گاه--
گاو--
گای--
گدا--
گذر--
گر--
گرا--
گراما--
گران--
گرت--
گرد--
گرم--
گرن--
گرو--
گری--
گز--
گس--
گشا--
گشت--
گل--
گلادی--
گلد--
گلن--
گلو--
گلی--
گم--
گن--
گنج--
گند--
گو--
گوا--
گوت--
گود--
گور--
گوش--
گول--
گون--
گي--
گچ--
گی--
گیاه--
گیج--
گیر--
گیل--
گیم--
گیو--
ی--
یا--
یاد--
یار--
یاروس--
یال--
یاما--
یان--
یب--
یت--
یخ--
ید--
یر--
یرودی--
یز--
یس--
یش--
یل--
یم--
ین--
یهود--
یو--
یوا--
یوس--
یول--
یون--
یوگ--
یک--
یکتا--
یی--
۰۰--
۰۱--
۰۲--
۵۵--
۵۶--
۵۹--
۶۴--
۶۶--
۶۸--
۶۹--
۷۰--
۷۱--
۷۲--
۷۴--
۷۵--
۷۶--
۷۷--
۷۸--
۷۹--
۸۰--
۸۱--
۸۲--
۸۳--
۸۴--
۸۵--
۸۶--
۸۷--
۸۸--
۸۹--
۹۰--
۹۱--
۹۲--
۹۳--
۹۴--
۹۵--
۹۶۴--
۹۷۸--
۹۹--
--0
--00
--01
--02
--03
--04
--05
--06
--07
--08
--09
--1
--10
--11
--12
--13
--14
--15
--16
--17
--18
--19
--2
--20
--21
--22
--23
--24
--25
--26
--27
--28
--29
--3
--30
--31
--32
--33
--34
--35
--36
--37
--38
--39
--4
--40
--41
--42
--43
--44
--45
--46
--47
--48
--49
--5
--50
--51
--52
--53
--54
--55
--56
--57
--58
--59
--6
--60
--61
--62
--63
--64
--65
--66
--67
--68
--69
--7
--70
--71
--72
--73
--74
--75
--76
--77
--78
--79
--8
--80
--81
--82
--83
--84
--85
--86
--87
--88
--89
--9
--90
--91
--92
--93
--94
--95
--96
--97
--98
--99
--a
--aa
--ab
--abad
--abe
--able
--ac
--ach
--acio
--ack
--acy
--ad
--ade
--adi
--ado
--ae
--af
--ag
--age
--aging
--ah
--ai
--air
--aire
--aj
--ak
--aki
--al
--ale
--all
--ally
--am
--ama
--ami
--an
--ana
--ance
--and
--ane
--ang
--ani
--ania
--ano
--ant
--ants
--ao
--ap
--apy
--aq
--ar
--ard
--ari
--aries
--ario
--aro
--ary
--as
--ase
--ashi
--ast
--at
--ata
--ate
--ated
--ates
--ath
--ati
--atic
--ating
--ation
--ations
--ative
--ato
--ator
--ats
--ature
--atus
--au
--aurus
--av
--avi
--avia
--aw
--awa
--ax
--ay
--ayed
--az
--b
--ba
--be
--bel
--berg
--bi
--bie
--bility
--ble
--bo
--book
--box
--bs
--bt
--bu
--bul
--burg
--burn
--bury
--by
--c
--ca
--cal
--care
--ce
--ced
--cent
--cer
--ces
--ch
--charts
--ci
--cies
--cing
--cinoma
--cio
--ck
--co
--cock
--craft
--crete
--cs
--ct
--ctive
--cts
--cu
--cus
--cy
--d
--da
--dad
--dae
--dal
--dale
--day
--de
--ded
--den
--der
--di
--die
--dis
--dium
--dle
--dler
--do
--dor
--dorf
--down
--dox
--dra
--ds
--dt
--du
--dy
--e
--ea
--eal
--ean
--eat
--eau
--eb
--ec
--ech
--eck
--ect
--ects
--ed
--edia
--ee
--eed
--een
--ees
--ef
--eg
--eh
--ei
--ek
--el
--ela
--eld
--ell
--els
--em
--ema
--ement
--emia
--en
--ena
--ence
--end
--ene
--enic
--ens
--ense
--ensis
--ensive
--ent
--ents
--eny
--eo
--eous
--ep
--epsy
--eption
--eq
--er
--era
--ere
--ered
--erg
--eri
--ering
--ern
--ero
--ers
--ert
--ery
--es
--ese
--esh
--esi
--ess
--est
--et
--ete
--eter
--ets
--ett
--ette
--etti
--eus
--ev
--ew
--ews
--ex
--ey
--ez
--f
--fa
--fast
--fax
--fd
--fecture
--feld
--fer
--ff
--ffe
--fi
--field
--fly
--fs
--ft
--ful
--g
--ga
--gal
--gan
--gate
--ge
--ged
--gen
--ges
--gg
--gh
--ght
--gi
--gical
--gie
--gin
--ging
--gn
--go
--gol
--gram
--gs
--gton
--gu
--gue
--gus
--gy
--h
--ha
--haft
--ham
--han
--har
--haw
--he
--head
--hed
--heim
--hen
--her
--hes
--hi
--hia
--hic
--hid
--hie
--hin
--hing
--hip
--hl
--hn
--ho
--hon
--hood
--hs
--ht
--hu
--hus
--hy
--hyl
--i
--ia
--iac
--ial
--ian
--iana
--ians
--ias
--iation
--ib
--ible
--ic
--ica
--ical
--icate
--ich
--iciency
--ick
--ico
--ics
--id
--ida
--idae
--ide
--ids
--ie
--ied
--iel
--ien
--ient
--ier
--ies
--iet
--ieu
--if
--iff
--ificance
--ified
--ify
--ig
--igan
--ii
--ik
--ika
--ikh
--ikon
--il
--ila
--ilar
--ile
--ility
--ill
--illa
--illo
--ily
--im
--ima
--imo
--in
--ina
--inal
--ine
--ined
--ing
--ings
--ington
--ini
--ino
--inson
--io
--ion
--ions
--ior
--ious
--ip
--ipal
--ipes
--ique
--ir
--ire
--iro
--is
--isation
--ische
--ise
--ised
--ish
--isi
--ism
--ist
--istic
--ists
--it
--ita
--ital
--itarian
--ite
--ities
--itis
--itive
--ito
--itt
--ity
--itz
--ium
--ius
--iv
--ival
--ive
--ives
--ivity
--ivo
--ix
--iya
--iz
--ization
--ize
--ized
--izing
--j
--ja
--je
--ji
--jo
--k
--ka
--kan
--kar
--ke
--kel
--ker
--ket
--kh
--ki
--kie
--kin
--ko
--kov
--ks
--ku
--ky
--l
--la
--lage
--land
--lar
--lation
--ld
--le
--lect
--lective
--lects
--led
--len
--ler
--les
--less
--let
--ley
--lf
--li
--lia
--lian
--lic
--line
--ling
--link
--lio
--lip
--lis
--list
--lity
--lk
--ll
--lla
--lle
--lli
--llo
--lls
--llt
--lly
--lo
--logy
--lon
--ls
--lson
--lt
--lton
--lu
--lus
--ly
--lyn
--lz
--lı
--m
--ma
--mal
--man
--mans
--mas
--md
--me
--mel
--men
--ment
--ments
--mi
--mic
--min
--mir
--mise
--mn
--mo
--mos
--mp
--ms
--mus
--my
--n
--na
--nal
--nan
--nar
--nard
--nberg
--nce
--ncia
--ncy
--nd
--nda
--nder
--ndez
--ndon
--ne
--ned
--nell
--nelly
--nen
--ner
--ners
--nes
--ness
--net
--news
--ney
--ng
--ni
--nia
--nic
--nie
--nik
--nin
--ning
--nique
--nis
--nity
--nk
--nko
--nn
--nna
--nne
--no
--nor
--ns
--nsis
--nstein
--nt
--nte
--ntial
--ntified
--ntin
--ntly
--nto
--nton
--nts
--nu
--num
--nus
--ny
--o
--oa
--oc
--ock
--od
--ode
--oe
--of
--off
--og
--ogical
--ography
--ogy
--oi
--oid
--ok
--oka
--oke
--ol
--ola
--ole
--oli
--olo
--ological
--ology
--olute
--om
--oma
--ome
--on
--ona
--one
--ong
--oni
--ons
--ont
--ony
--oo
--oon
--op
--ope
--ops
--or
--ora
--ord
--ore
--orf
--ori
--orm
--ors
--ort
--ory
--os
--osa
--ose
--ot
--oto
--ou
--ous
--out
--ov
--ova
--ovic
--ovich
--ovo
--ow
--owo
--ows
--ox
--oy
--oys
--p
--pa
--pe
--ped
--pel
--ph
--pi
--pie
--pin
--ping
--po
--polis
--posed
--post
--prise
--ps
--pt
--ption
--ptive
--pton
--pur
--pus
--py
--q
--que
--r
--ra
--rad
--ral
--ran
--rchy
--rd
--rds
--re
--red
--ree
--rel
--rell
--rer
--ress
--rf
--rg
--ri
--ria
--ric
--rie
--rier
--ries
--rik
--rin
--rio
--ris
--rk
--rley
--rm
--rman
--rmatics
--rmo
--rn
--ro
--rol
--ros
--rov
--rry
--rs
--rse
--rt
--rta
--ru
--rum
--rus
--ry
--ryn
--rz
--s
--sa
--sburg
--sch
--sche
--sdorf
--se
--sed
--sel
--sen
--ser
--ses
--set
--sey
--sfield
--sh
--ship
--shire
--si
--sia
--sian
--sion
--sis
--sive
--sk
--ske
--sky
--sm
--so
--son
--sor
--sory
--ss
--ssa
--sson
--st
--sto
--ston
--stone
--su
--sus
--sville
--sy
--t
--ta
--tain
--tal
--tan
--tar
--tat
--tate
--tation
--tch
--te
--ted
--tein
--ter
--tes
--th
--tha
--thal
--ths
--ti
--tia
--tial
--tic
--tics
--time
--tin
--tine
--tinental
--ting
--tings
--tion
--tions
--tis
--tism
--tive
--tl
--tle
--tley
--to
--tock
--ton
--tone
--tor
--tos
--town
--tra
--tric
--tro
--ts
--tsu
--tt
--tta
--tte
--tti
--tty
--tum
--ture
--tus
--tv
--ty
--tz
--u
--ua
--ual
--ually
--uce
--uced
--uchi
--ucing
--uctive
--ud
--ue
--ues
--ug
--ugh
--ui
--uit
--uk
--uki
--ul
--ula
--ular
--ulation
--uld
--ult
--ulum
--ulus
--um
--un
--ung
--up
--ur
--ura
--urance
--ure
--urg
--uring
--uro
--urs
--urus
--ury
--us
--usz
--ut
--ute
--uth
--ution
--ux
--uz
--v
--va
--ve
--ved
--ver
--ves
--vi
--vic
--ville
--vin
--ving
--vo
--vsky
--vy
--w
--wa
--way
--web
--wick
--wk
--wl
--wo
--wood
--wr
--ws
--x
--y
--ya
--yan
--yard
--ye
--yev
--ying
--yk
--yl
--ylation
--yle
--yn
--yo
--yon
--ys
--yz
--z
--za
--ze
--zel
--zer
--zi
--zo
--zy
--zz
--zzi
--zzo
--ı
--ın
--ə
--α
--ι
--ος
--ς
--υ
--а
--ан
--андр
--в
--ги
--д
--е
--еи
--и
--ии
--к
--м
--н
--о
--ов
--р
--т
--у
--я
--կան
--յան
--ն
--ء
--ا
--اء
--اب
--ابه
--ابی
--اة
--ات
--اتا
--اتان
--اتس
--اته
--اتور
--اتی
--اتیک
--اج
--اجی
--اح
--اخ
--اخت
--اخر
--اخه
--اد
--اده
--ادی
--ار
--ارا
--ارت
--ارد
--ارک
--اری
--از
--ازه
--ازپین
--ازی
--ازیس
--اس
--اسا
--است
--اسپ
--اسی
--اسیون
--اش
--اشت
--اشته
--اشی
--اط
--اع
--اغ
--اغی
--اف
--افته
--افی
--اق
--ال
--الا
--الله
--الو
--الی
--ام
--اما
--امه
--امو
--ان
--انا
--انت
--انتس
--انته
--اند
--انر
--انش
--انند
--انه
--انو
--انوس
--انک
--انگ
--انی
--انیان
--اه
--اها
--اهی
--او
--اوس
--اوی
--اي
--اپ
--اپو
--اپور
--اچی
--اژ
--اک
--اکا
--اکان
--اکر
--اکی
--اگ
--اگا
--ای
--ایت
--اید
--ایش
--ایف
--ایم
--این
--ایه
--ایی
--ب
--با
--باد
--بار
--باز
--باف
--بان
--بة
--بت
--بخش
--بد
--بر
--برگ
--بس
--بط
--بع
--بل
--بن
--بند
--به
--بو
--بود
--بک
--بی
--بیا
--بین
--ة
--ت
--تا
--تال
--تان
--تاگ
--تب
--تت
--تد
--تر
--ترا
--ترز
--تری
--ترین
--تز
--تس
--تسا
--تسه
--تسو
--تسکی
--تسی
--تش
--تل
--تم
--تمی
--تن
--ته
--تو
--تور
--توز
--توس
--توف
--توم
--تون
--تي
--تک
--تگی
--تی
--تیا
--تید
--تیس
--تیسم
--تین
--تیو
--تیوس
--تیک
--ث
--ثر
--ثی
--ج
--جا
--جات
--جار
--جان
--جت
--جر
--جرد
--جس
--جل
--جلس
--جم
--جه
--جو
--جی
--جین
--ح
--حا
--حم
--حمد
--حه
--حی
--خ
--خا
--خان
--خانه
--خت
--خته
--ختیار
--خر
--خس
--خش
--خص
--خه
--خو
--خون
--خی
--د
--دا
--داد
--دار
--داری
--داز
--دان
--دة
--دت
--دخت
--دد
--در
--درو
--دز
--دس
--دشت
--دل
--دم
--دن
--دند
--دنی
--ده
--دها
--دهای
--دهی
--دو
--دوز
--دوست
--دک
--دکس
--دگان
--دگی
--دی
--دیا
--دیم
--دین
--دە
--ذ
--ذی
--ر
--را
--رات
--راس
--ران
--رانی
--رب
--رة
--رت
--رتز
--رث
--رج
--رجان
--رخ
--رد
--رر
--رز
--رس
--رش
--رضا
--رع
--رف
--رق
--رل
--رلی
--رم
--رن
--رنگ
--ره
--رها
--رهای
--رو
--رود
--روف
--رون
--روپ
--روی
--ري
--رژیک
--رک
--رکز
--رگ
--رگی
--ری
--ریا
--ریت
--ریس
--رین
--ریک
--رە
--ز
--زا
--زاده
--زاسیون
--زد
--زر
--زش
--زع
--زل
--زلی
--زم
--زمن
--زن
--زنی
--زه
--زو
--زویل
--زویک
--زی
--زیا
--زیت
--زیم
--س
--سا
--سات
--ساز
--سازی
--سال
--سان
--سب
--ست
--ستا
--ستاق
--ستان
--ستر
--ستن
--ستند
--سته
--ستو
--ستگی
--ستی
--سر
--سرا
--سس
--سط
--سل
--سلاو
--سلی
--سم
--سمی
--سن
--سنت
--سنجی
--سه
--سو
--سول
--سون
--سپ
--سک
--سکو
--سکی
--سی
--سیا
--سیان
--سیتی
--سین
--سیو
--سیون
--ش
--شا
--شان
--شاه
--شت
--شتات
--شته
--شد
--شدن
--شده
--شر
--شن
--شناس
--شناسی
--شه
--شهر
--شو
--شک
--شکن
--شی
--شیا
--شیر
--ص
--صب
--صد
--صر
--صه
--صی
--ض
--ضا
--ضع
--ضه
--ضی
--ط
--طر
--طف
--طل
--طن
--طی
--ظ
--ظر
--ع
--عات
--عة
--عت
--عر
--علی
--عه
--عی
--غ
--غر
--غه
--غی
--ـ
--ف
--فا
--فة
--فت
--فتند
--فته
--فر
--فس
--فسکی
--فع
--فق
--فل
--فلد
--فن
--فه
--فو
--فک
--فی
--فیل
--ق
--قا
--قان
--قانی
--قب
--قة
--قت
--قدر
--قر
--قض
--قع
--قلی
--قه
--قی
--قین
--قیه
--ك
--ل
--لا
--لاو
--لة
--لت
--لج
--لد
--لدین
--لر
--لز
--لس
--لسون
--لش
--لف
--لله
--لم
--لن
--لنت
--لند
--له
--لو
--لوف
--لوم
--لوژی
--لوگ
--لي
--لک
--لی
--لیا
--لیز
--لین
--لیوس
--م
--ما
--ماز
--مان
--مت
--مد
--مر
--مرد
--مز
--مس
--مل
--مم
--من
--مند
--مه
--مو
--موتو
--موس
--مون
--مپ
--مک
--می
--میر
--مین
--مە
--ن
--نا
--ناس
--نال
--نامه
--ناو
--نب
--نبرگ
--نة
--نت
--نتال
--نته
--نتو
--نتینو
--نج
--ند
--نده
--ندورف
--ندگان
--ندگی
--ندی
--نر
--نز
--نزا
--نس
--نسون
--نسکی
--نسین
--نش
--نظر
--نف
--نل
--نم
--نما
--نن
--نه
--نو
--نوس
--نوف
--نچ
--نژ
--نژاد
--نک
--نکو
--نگ
--نگا
--نگتون
--نگن
--نگهام
--نگی
--نی
--نیا
--نیان
--نید
--نیه
--نیوز
--نیک
--نە
--ه
--ها
--هام
--هاي
--های
--هایی
--هد
--هر
--هم
--هن
--هه
--هو
--هی
--هید
--و
--وا
--وار
--وارا
--وال
--وان
--وب
--وبی
--وة
--وت
--وتا
--وتس
--وتو
--وتی
--وث
--وح
--وخ
--ود
--وده
--ور
--ورس
--ورف
--ورگ
--وری
--وز
--وزا
--وزی
--وس
--وسا
--وسکی
--وسی
--وش
--وشی
--وع
--وعی
--وف
--وفسکی
--وق
--وقع
--ول
--ولا
--ولی
--وم
--ومه
--ون
--ونا
--ونت
--وند
--ونه
--ونو
--ونی
--وه
--وها
--وو
--ووا
--وود
--وور
--وون
--ووو
--ووی
--وویتسه
--وویچ
--وي
--وپ
--وپاتی
--وپل
--وچ
--وژن
--وژی
--وک
--وکه
--وکو
--وکی
--وگ
--وگا
--وی
--ویا
--ویل
--ویه
--ویچ
--ویک
--ویی
--ى
--ي
--يان
--ية
--يت
--يد
--ير
--يل
--يم
--ين
--يه
--٠
--١
--٨
--٩
--پ
--پا
--پار
--پت
--پتون
--پذیر
--پر
--پرس
--پس
--پل
--په
--پو
--پور
--پوس
--پوش
--پی
--چ
--چا
--چای
--چر
--چف
--چن
--چه
--چو
--چی
--چین
--ژ
--ژن
--ژه
--ژو
--ژک
--ژی
--ژیک
--ژە
--ک
--کا
--کات
--کار
--کاری
--کان
--کب
--کت
--کتر
--کتریک
--کد
--کده
--کر
--کرد
--کرده
--کرفت
--کس
--کستر
--کش
--کشن
--کشی
--کف
--کل
--کلا
--کلس
--کم
--کن
--کننده
--که
--کو
--کور
--کوز
--کوس
--کوف
--کوفسکی
--کوم
--کوه
--کوپ
--کی
--گ
--گا
--گار
--گان
--گانی
--گاه
--گت
--گتون
--گذار
--گر
--گرا
--گران
--گرایی
--گرد
--گردی
--گرهای
--گری
--گز
--گزار
--گل
--گن
--گه
--گو
--گون
--گوی
--گی
--گیر
--گیری
--ی
--یا
--یار
--یان
--یای
--یب
--یة
--یت
--یتا
--یتسا
--یتسه
--یته
--یتی
--یث
--یج
--یخته
--ید
--یدس
--یدن
--یدند
--یده
--یدو
--یر
--یرا
--یران
--یرو
--یز
--یزم
--یزه
--یزی
--یس
--یست
--یستی
--یسم
--یش
--یشی
--یف
--یفای
--یق
--یل
--یلا
--یلد
--یلو
--یم
--یما
--یمم
--ین
--ینا
--ینز
--ینه
--ینو
--ینوس
--ینگ
--ینگتون
--ینی
--یه
--یها
--یو
--یور
--یوس
--یوم
--یون
--یي
--یپ
--یچ
--یک
--یکا
--یکس
--یکه
--یکو
--یکول
--یگ
--یگو
--یی
--ییان
--ییم
--یە
--ە
--۰
--۰۰
--۰۱
--۱
--۲
--۳
--۴
--۵
--۶
--۷
--۸
--۹
