!
"
#
##a
##aa
##ab
##ac
##ad
##ae
##af
##ag
##ah
##ai
##aj
##ak
##al
##am
##an
##ao
##ap
##aq
##ar
##as
##at
##au
##av
##aw
##ax
##ay
##az
##b
##ba
##bb
##bc
##bd
##be
##bf
##bg
##bh
##bi
##bj
##bk
##bl
##bm
##bn
##bo
##bp
##bq
##br
##bs
##bt
##bu
##bv
##bw
##bx
##by
##bz
##c
##ca
##cb
##cc
##cd
##ce
##cf
##cg
##ch
##ci
##cj
##ck
##cl
##cm
##cn
##co
##cp
##cq
##cr
##cs
##ct
##cu
##cv
##cw
##cx
##cy
##cz
##d
##da
##db
##dc
##dd
##de
##df
##dg
##dh
##di
##dj
##dk
##dl
##dm
##dn
##do
##dp
##dq
##dr
##ds
##dt
##du
##dv
##dw
##dx
##dy
##dz
##e
##ea
##eb
##ec
##ed
##ee
##ef
##eg
##eh
##ei
##ej
##ek
##el
##em
##en
##eo
##ep
##eq
##er
##es
##et
##eu
##ev
##ew
##ex
##ey
##ez
##f
##fa
##fb
##fc
##fd
##fe
##ff
##fg
##fh
##fi
##fj
##fk
##fl
##fm
##fn
##fo
##fp
##fq
##fr
##fs
##ft
##fu
##fv
##fw
##fx
##fy
##fz
##g
##ga
##gb
##gc
##gd
##ge
##gf
##gg
##gh
##gi
##gj
##gk
##gl
##gm
##gn
##go
##gp
##gq
##gr
##gs
##gt
##gu
##gv
##gw
##gx
##gy
##gz
##h
##ha
##hb
##hc
##hd
##he
##hf
##hg
##hh
##hi
##hj
##hk
##hl
##hm
##hn
##ho
##hp
##hq
##hr
##hs
##ht
##hu
##hv
##hw
##hx
##hy
##hz
##i
##ia
##ib
##ic
##id
##ie
##if
##ig
##ih
##ii
##ij
##ik
##il
##im
##in
##io
##ip
##iq
##ir
##is
##it
##iu
##iv
##iw
##ix
##iy
##iz
##j
##ja
##jb
##jc
##jd
##je
##jf
##jg
##jh
##ji
##jj
##jk
##jl
##jm
##jn
##jo
##jp
##jq
##jr
##js
##jt
##ju
##jv
##jw
##jx
##jy
##jz
##k
##ka
##kb
##kc
##kd
##ke
##kf
##kg
##kh
##ki
##kj
##kk
##kl
##km
##kn
##ko
##kp
##kq
##kr
##ks
##kt
##ku
##kv
##kw
##kx
##ky
##kz
##l
##la
##lb
##lc
##ld
##le
##lf
##lg
##lh
##li
##lj
##lk
##ll
##lm
##ln
##lo
##lp
##lq
##lr
##ls
##lt
##lu
##lv
##lw
##lx
##ly
##lz
##m
##ma
##mb
##mc
##md
##me
##mf
##mg
##mh
##mi
##mj
##mk
##ml
##mm
##mn
##mo
##mp
##mq
##mr
##ms
##mt
##mu
##mv
##mw
##mx
##my
##mz
##n
##na
##nb
##nc
##nd
##ne
##nf
##ng
##nh
##ni
##nj
##nk
##nl
##nm
##nn
##no
##np
##nq
##nr
##ns
##nt
##nu
##nv
##nw
##nx
##ny
##nz
##o
##oa
##ob
##oc
##od
##oe
##of
##og
##oh
##oi
##oj
##ok
##ol
##om
##on
##oo
##op
##oq
##or
##os
##ot
##ou
##ov
##ow
##ox
##oy
##oz
##p
##pa
##pb
##pc
##pd
##pe
##pf
##pg
##ph
##pi
##pj
##pk
##pl
##pm
##pn
##po
##pp
##pq
##pr
##ps
##pt
##pu
##pv
##pw
##px
##py
##pz
##q
##qa
##qb
##qc
##qd
##qe
##qf
##qg
##qh
##qi
##qj
##qk
##ql
##qm
##qn
##qo
##qp
##qq
##qr
##qs
##qt
##qu
##qv
##qw
##qx
##qy
##qz
##r
##ra
##rb
##rc
##rd
##re
##rf
##rg
##rh
##ri
##rj
##rk
##rl
##rm
##rn
##ro
##rp
##rq
##rr
##rs
##rt
##ru
##rv
##rw
##rx
##ry
##rz
##s
##sa
##sb
##sc
##sd
##se
##sf
##sg
##sh
##si
##sj
##sk
##sl
##sm
##sn
##so
##sp
##sq
##sr
##ss
##st
##su
##sv
##sw
##sx
##sy
##sz
##t
##ta
##tb
##tc
##td
##te
##tf
##tg
##th
##ti
##tj
##tk
##tl
##tm
##tn
##to
##tp
##tq
##tr
##ts
##tt
##tu
##tv
##tw
##tx
##ty
##tz
##u
##ua
##ub
##uc
##ud
##ue
##uf
##ug
##uh
##ui
##uj
##uk
##ul
##um
##un
##uo
##up
##uq
##ur
##us
##ut
##uu
##uv
##uw
##ux
##uy
##uz
##v
##va
##vb
##vc
##vd
##ve
##vf
##vg
##vh
##vi
##vj
##vk
##vl
##vm
##vn
##vo
##vp
##vq
##vr
##vs
##vt
##vu
##vv
##vw
##vx
##vy
##vz
##w
##wa
##wb
##wc
##wd
##we
##wf
##wg
##wh
##wi
##wj
##wk
##wl
##wm
##wn
##wo
##wp
##wq
##wr
##ws
##wt
##wu
##wv
##ww
##wx
##wy
##wz
##x
##xa
##xb
##xc
##xd
##xe
##xf
##xg
##xh
##xi
##xj
##xk
##xl
##xm
##xn
##xo
##xp
##xq
##xr
##xs
##xt
##xu
##xv
##xw
##xx
##xy
##xz
##y
##ya
##yb
##yc
##yd
##ye
##yf
##yg
##yh
##yi
##yj
##yk
##yl
##ym
##yn
##yo
##yp
##yq
##yr
##ys
##yt
##yu
##yv
##yw
##yx
##yy
##yz
##z
##za
##zb
##zc
##zd
##ze
##zf
##zg
##zh
##zi
##zj
##zk
##zl
##zm
##zn
##zo
##zp
##zq
##zr
##zs
##zt
##zu
##zv
##zw
##zx
##zy
##zz
$
%
&
'
(
)
*
+
,
-
.
/
0
00
000
0004
001
002
0022
00265
003
004
005
006
007
01
013
0140
02
0261
03
0362
04
05
06
07
08
09
0a
0b
0c
0d
0e
0f
0g
0h
0i
0j
0k
0l
0m
0n
0o
0p
0q
0r
0s
0t
0u
0v
0w
0x
0y
0z
1
10
100
1000
1001
1002
1006
1007
101
1016
1017
102
1021
103
1037
1038
1039
104
105
106
107
1073
1074
108
1080
1086
1088
109
1093
1097
1098
11
110
1101
1103
1109
111
1111
112
1126
1128
113
1136
114
115
116
117
1177
118
1186
119
12
120
121
122
123
124
125
126
127
128
129
13
130
131
132
133
134
135
136
1365
137
1371
138
1384
1385
1386
1387
1388
1389
139
1390
1391
1392
1393
1394
1395
1396
1397
1398
1399
14
140
1400
141
142
143
144
145
146
147
148
149
15
150
1500
151
152
153
154
155
156
157
158
159
16
160
161
162
163
164
165
166
167
168
169
17
170
171
172
173
174
175
176
177
178
1789
179
18
180
1800
181
182
183
184
185
186
1861
1862
1863
187
1872
188
1888
189
1890
1893
1895
1896
1897
1898
1899
19
190
1900
1901
1902
1903
1904
1905
1906
1907
1908
1909
191
1910
1911
1912
1913
1914
1915
1916
1917
1918
1919
192
1920
1921
1922
1923
1924
1925
1926
1927
1928
1929
193
1930
1931
1932
1933
1934
1935
1936
1937
1938
1939
194
1940
1941
1942
1943
1944
1945
1946
1947
1948
1949
195
1950
1951
1952
1953
1954
1955
1956
1957
1958
1959
196
1960
1961
1962
1963
1964
1965
1966
1967
1968
1969
197
1970
1971
1972
1973
1974
1975
1976
1977
1978
1979
198
1980
1981
1982
1983
1984
1985
1986
1987
1988
1989
199
1990
1991
1992
1993
1994
1995
1996
1997
1998
1999
1a
1b
1c
1d
1e
1f
1g
1h
1i
1j
1k
1l
1m
1n
1o
1p
1q
1r
1s
1t
1u
1v
1w
1x
1y
1z
2
20
200
2000
2001
2002
2003
2004
2005
2006
2007
2008
2009
201
2010
2011
2012
2013
2014
2015
2016
2017
2018
2019
202
2020
2021
2022
203
204
205
206
207
208
209
21
210
211
212
213
214
215
216
217
218
219
22
220
221
222
223
224
225
226
227
228
229
23
230
2305
2307
231
232
233
234
235
236
237
238
239
24
240
241
242
243
244
245
246
247
248
249
25
250
251
252
253
254
255
256
257
258
259
26
260
261
262
263
264
265
266
267
268
269
27
270
271
272
273
274
275
276
277
278
279
28
280
281
282
283
284
285
286
287
288
289
29
291
292
293
295
299
2a
2b
2c
2d
2e
2f
2g
2h
2i
2j
2k
2l
2m
2n
2o
2p
2q
2r
2s
2t
2u
2v
2w
2x
2y
2z
3
30
300
301
302
303
304
305
306
307
3077
309
31
310
311
312
313
314
315
316
317
319
32
320
321
323
324
328
33
330
331
333
335
34
340
343
345
35
350
356
36
360
365
3681328
37
375
38
385
387
39
393
395
397
3a
3b
3c
3d
3e
3f
3g
3h
3i
3j
3k
3l
3m
3n
3o
3p
3q
3r
3s
3t
3u
3v
3w
3x
3y
3z
4
40
400
41
415
42
43
4331
44
445
45
450
46
47
470
471
48
486
49
4a
4b
4c
4d
4e
4f
4g
4h
4i
4j
4k
4l
4m
4n
4o
4p
4q
4r
4s
4t
4u
4v
4w
4x
4y
4z
5
50
500
51
52
520
521
53
54
540
55
550
56
57
58
59
5a
5b
5c
5d
5e
5f
5g
5h
5i
5j
5k
5l
5m
5n
5o
5p
5q
5r
5s
5t
5u
5v
5w
5x
5y
5z
6
60
600
601
61
62
629
63
64
65
66
67
674
68
69
691
6a
6b
6c
6d
6e
6f
6g
6h
6i
6j
6k
6l
6m
6n
6o
6p
6q
6r
6s
6t
6u
6v
6w
6x
6y
6z
7
70
700
71
72
729
73
74
75
76
77
78
79
7a
7b
7c
7d
7e
7f
7g
7h
7i
7j
7k
7l
7m
7n
7o
7p
7q
7r
7s
7t
7u
7v
7w
7x
7y
7z
8
80
800
802
81
82
83
84
84596
85
86
87
88
89
8a
8b
8c
8d
8e
8f
8g
8h
8i
8j
8k
8l
8m
8n
8o
8p
8q
8r
8s
8t
8u
8v
8w
8x
8y
8z
9
90
91
92
93
94
95
96
964
97
978
9781568593029
98
99
9a
9b
9c
9d
9e
9f
9g
9h
9i
9j
9k
9l
9m
9n
9o
9p
9q
9r
9s
9t
9u
9v
9w
9x
9y
9z
:
;
<
=
>
?
@
[
[CLS]
[MASK]
[PAD]
[SEP]
[UNK]
\
]
^
_
`
a
a0
a1
a2
a3
a4
a5
a6
a7
a8
a9
aa
aaron
ab
abbas
abc
abd
abdul
abdullah
abgerufen
abi
about
above
abraham
abs
abstract
abu
abuse
ac
acad
academic
academy
access
accessdate
accessed
according
account
ace
acid
acids
acm
across
act
acta
acting
action
activation
active
activity
actor
actors
actress
acute
ad
adam
adams
adaptation
add
addison
address
adds
adjusted
administration
administrative
adrian
adult
adults
advance
advanced
advances
adventure
adventures
ae
aero
aerodrome
af
afc
affaires
affairs
afghan
afghanistan
africa
african
after
ag
again
against
age
aged
agency
agent
agents
ages
ago
agr
agreement
agriculture
ah
ahead
ahmad
ahmed
ai
aid
aids
ain
air
aircraft
airline
airlineroute
airlines
airport
airports
airways
aj
ak
al
alabama
alain
alan
alaska
albany
albert
alberta
alberto
album
albums
alcohol
alessandro
alex
alexander
alexandra
alfred
algebra
algorithm
algorithms
ali
alice
aligned
aljazeera
all
allan
alle
allen
alliance
allmovie
allmusic
almost
alone
along
alpha
als
also
alt
alternative
always
am
amanda
amar
amazing
amazon
ambassador
amber
america
american
americans
amid
amir
among
amp
amsterdam
amt
amy
an
ana
analysis
anatomy
ancient
and
anderson
andre
andrea
andreas
andreeva
andrew
andrews
android
andy
angel
angela
angeles
angelo
animal
animals
animated
animation
anime
ann
anna
annals
anne
annie
anniversary
announce
announced
announces
annual
another
answers
anthologie
anthony
anthropology
anti
antoine
anton
antonio
any
ao
ap
apa
api
apj
apollo
app
apple
application
applications
applied
appointed
approach
approx
apps
apr
april
aq
ar
arab
arabia
arabian
arabic
aragatsotn
ararat
arc
arch
archaeological
archaeology
architectural
architecture
archive
archived
archivedate
archives
are
area
areas
arena
argentina
aria
arizona
arkansas
arm
armed
armenia
armenian
armenians
arms
armstrong
army
arnold
around
array
arrondissement
ars
arsenal
art
arthur
article
articles
artificial
artist
artists
arts
artsakhlib
arxiv
as
ashley
asia
asian
ask
asp
aspects
aspx
asriran
assassin
assembly
assessment
associated
association
associations
astro
astronomical
astronomy
astrophysical
astrophysics
at
atc
atheist
athlete
athletes
athletic
athletics
atlanta
atlantic
atlas
atomic
atp
attack
attacks
attempt
au
audio
auf
aug
august
aus
austin
australia
australian
austria
auteurs
author
authority
authors
auto
automobile
av
available
ave
avengers
avenue
average
aviation
avn
avproduction
aw
award
awarded
awards
away
ax
ay
az
azerbaijan
azerbaijani
azərbaycan
b
b0
b1
b2
b3
b4
b5
b6
b7
b8
b9
ba
baby
back
background
bad
baden
baha
bahrain
bailey
baker
baku
bakı
balance
baldwin
ball
baltimore
ban
band
bang
bangladesh
bank
banks
bar
barbara
barcelona
barclays
barnes
baron
barry
base
based
basic
basis
basketball
batman
battle
bay
bayerisches
bayern
bb
bbc
bc
bd
be
beach
bear
beast
beat
beautiful
beauty
became
because
beck
become
becomes
bed
been
before
begin
beginning
begins
behavior
behind
bei
beijing
being
belediyye
belgian
belgium
bell
ben
benjamin
bennett
benz
berkeley
berlin
bernard
best
beta
better
between
beverly
bevolkerung
bevolkerungsstandes
beyond
bf
bg
bh
bi
bibcode
bible
bid
biden
big
biggest
bill
billboard
billion
billy
bin
binding
bio
biochem
biochemistry
biographical
biographies
biography
biol
biological
biology
biotechnology
bird
birdlife
birds
birth
birthday
bis
bishop
bit
biz
bj
bk
bl
black
blackwell
blair
blake
blast
blind
block
blog
blood
bloomberg
bloomsbury
blue
blvd
bm
bmatrix
bmj
bmw
bn
bo
board
bob
bobby
boca
body
boeing
boldsymbol
bomb
bombing
bond
bone
book
books
bordas
border
boris
born
borough
borys
boss
boston
bosworth
both
box
boxofficemojo
boxrec
boy
boys
bp
bq
br
brad
bradley
brady
brain
branch
brand
brandenburg
brandon
brazil
break
breaking
breaks
breast
brent
brian
bridge
brief
brien
brill
brinkster
bristol
britain
britannica
british
britney
broadcast
broadcasting
broadway
brooks
bros
brother
brothers
brown
bruce
bruno
bryan
bs
bt
bts
bu
buchanan
budget
build
building
buildings
built
bulgaria
bull
bulletin
bund
bundesamt
bureau
burke
burns
burton
bus
bush
business
businessweek
but
butler
bv
bw
bx
by
bz
c
c0
c1
c2
c3
c4
c5
c6
c7
c8
c9
ca
cabinet
cable
caesar
cafe
cairo
calendar
calibrating
california
call
called
calls
cambridge
came
camera
cameras
cameron
camp
campaign
campbell
can
canada
canadian
cancer
candidate
cannes
canton
cap
cape
capital
captain
car
carbon
card
care
career
cargo
carl
carlo
carlos
carol
carolina
caroline
carrier
carroll
cars
carter
case
cases
caspian
cast
castle
castro
cat
catalog
catalogue
category
cathedral
catherine
catholic
caucasus
cause
causes
cb
cbc
cbs
cc
cd
cdc
cdna
cdot
cdots
ce
celebrity
cell
cells
cellular
censos
census
center
centers
central
centre
centuries
century
ceo
ceremony
certifications
cf
cg
cgi
ch
chain
challenge
challenges
chamber
champion
champions
championship
championships
chan
chang
change
changed
changes
changing
channel
chaos
chapman
chapter
char
character
characteristics
characterization
characters
charge
charles
charlie
charlotte
chart
charter
charts
chase
che
check
chelsea
chem
chemical
chemistry
chen
chess
chi
chicago
chief
child
children
chile
china
chinese
chip
choi
choice
chosun
chris
christian
christianity
christina
christine
christmas
christopher
chromosome
chronic
chronicle
chronology
church
ci
cia
cid
cinema
circle
circuit
citation
cite
cited
citeseerx
cities
citizen
citizens
city
civil
civilization
cj
ck
cl
claim
claims
claire
clark
clarke
class
classic
classical
classification
claude
clay
clear
cleveland
click
climate
clin
clinical
clinton
clio
clock
cloning
close
closed
cloud
club
clubs
cluster
cm
cmt
cn
cnn
co
coach
coast
coauthors
cochrane
code
codes
coffee
cognitive
cohen
cold
cole
colin
collection
collections
college
collider
collins
colombia
color
colorado
columbia
com
combat
combinations
come
comedy
comes
comic
comics
coming
comingsoon
command
commander
commentary
commerce
commercial
commission
commissioner
committee
common
commons
commonwealth
communication
communications
communist
communities
community
companies
companion
company
comparative
comparison
competition
complete
complex
composite
composition
compound
compounds
comprehensive
computational
computer
computers
computing
con
concept
concepts
concert
concise
conditions
confederate
conference
confirmed
confirms
conflict
congress
congressional
connecticut
connection
connor
conquest
conservation
considered
constitution
constitutional
construction
consumer
contact
containing
contemporary
content
context
contract
contributions
contributors
control
controlled
convention
conversion
cook
cool
cooper
cooperation
copy
copyright
core
cornell
corner
coronavirus
corp
corporate
corporation
corps
cos
cost
costa
could
council
count
counter
countries
country
county
course
court
cover
covid
cox
cp
cpu
cq
cr
craig
crash
crater
crawford
crc
create
created
creation
creative
creator
credits
creed
creek
crew
crime
crimes
criminal
crisis
critic
critical
critics
critique
croatia
cross
crown
cruiser
crusade
crusades
cruz
cry
crystal
cs
ct
cu
cuba
cultural
culture
cultures
cup
cure
currency
current
curtis
cut
cv
cw
cx
cy
cycle
cycling
cyclist
cyprus
cyrus
cz
czech
d
d0
d1
d2
d3
d4
d5
d6
d7
d8
d9
da
daily
dakota
dale
dallas
dam
dan
dana
dance
dangerous
daniel
danish
danny
dans
dar
dark
darwin
das
data
database
databaseolympics
databases
date
dated
datei
datenverarbeitung
dates
daughter
dave
david
davidson
davies
davis
dawn
day
days
db
dc
dd
de
dead
deadline
deadly
deal
dean
death
deaths
debate
debut
dec
decade
decay
december
decision
decline
deep
def
default
defence
defense
definition
definitive
dei
del
delaware
delhi
dell
della
delta
demand
democracy
democratic
demographic
demographics
den
denis
denise
denmark
dennis
density
department
dependent
der
derek
des
description
desert
design
despite
destroyer
detail
details
detection
determination
detroit
deutsche
deutscher
dev
developer
developing
development
device
devices
devil
dezember
df
dg
dh
di
diabetes
diagnosis
diamond
diana
diaz
dick
dictionary
did
die
died
diego
dies
diet
dieter
difference
different
differential
digital
din
direct
directed
direction
director
directors
directory
discography
discovery
discussion
disease
diseases
disney
disorder
disorders
display
displaystyle
distance
distribution
district
districts
diversity
division
dj
dk
dl
dm
dn
dna
do
doc
doctor
document
documentary
documents
does
dog
doi
domain
domestic
don
donald
dong
door
dos
dot
dots
double
douglas
dover
dovlət
down
download
dp
dq
dr
dragon
drama
draw
dream
dreams
drew
drive
driver
drop
drug
drugs
ds
dt
du
dubai
due
duke
duncan
during
dutch
duty
dv
dvd
dw
dx
dy
dynamic
dynamics
dynasty
dz
e
e0
e1
e2
e3
e4
e5
e6
e7
e8
e9
ea
each
eagle
earl
earle
early
earth
earthquake
east
eastern
eb
ebert
ec
echo
eclipse
ecology
economic
economics
economist
economy
ed
eddie
edgar
edge
edinburgh
edited
edition
editions
editor
editorial
editors
edmund
eds
edu
eduardo
education
educational
edward
edwards
edwin
ee
ef
effect
effective
effects
efficacy
eg
egypt
egyptian
eh
ei
eight
eighteenth
ein
einstein
ej
ek
el
election
elections
electoral
electric
electrical
electron
electronic
electronics
element
elements
elena
elite
eliteprospects
elizabeth
ell
ellen
elliott
ellis
else
elsevier
em
embassy
emergency
emerging
emily
eminem
emirates
emma
emperor
empire
emporis
empty
en
encyclopaedia
encyclopedia
encyclopædia
end
ends
energy
eng
engine
engineering
engineers
england
english
ensembl
ensmusg
enter
enterprise
enterprises
entertainment
entitled
entrez
entry
environment
environmental
eo
ep
epic
epicenters
episode
epsilon
eq
equipment
er
era
eric
erik
ernest
ernst
error
es
esa
escape
eshia
espn
essay
essays
essential
est
estadio
estadistica
estimated
estimates
estonia
estonian
et
eta
etc
ethics
ethnic
ethnologue
eu
eugene
eun
euro
eurobasket
eurogamer
euronews
europa
europe
european
ev
eva
evaluation
evans
eve
even
evening
event
events
ever
everton
every
everything
evidence
evil
evolution
evolutionary
ew
ex
example
exchange
exclusive
executive
exhibition
exit
exp
expansion
experience
experimental
expert
exploration
express
expression
extended
extension
external
extragalactic
extreme
ey
eye
eyes
ez
f
f0
f1
f2
f3
f4
f5
f6
f7
f8
f9
fa
faa
face
facebook
faces
fact
factbook
factfinder
factor
factors
factory
facts
faculty
failure
fair
faith
fall
falls
false
fame
families
family
famous
fan
fans
fantasy
faq
far
farsi
farsnews
fasc
fashion
fast
fat
fatality
father
fb
fbi
fc
fchd
fd
fda
fe
fear
feat
feature
features
feb
february
federal
federation
feed
felix
female
feminist
ferguson
fernandez
fernando
ferrari
festival
few
ff
fg
fh
fi
fiba
fiction
fide
field
fields
fifa
fifth
fig
fight
fighter
fighters
fighting
figure
figures
file
files
film
filming
films
fina
final
finally
finals
finance
financial
find
finding
finds
fine
finland
finnish
fire
first
fischer
fish
fisher
fivb
five
fj
fk
fl
flag
flash
fleming
flight
flights
floor
florence
florida
flow
floyd
fly
flying
fm
fn
fo
focus
follow
following
food
foot
footbalers
football
footballdatabase
footballer
footballers
for
forbes
force
forces
ford
foreign
forest
forestry
forever
forgotten
forkel
form
format
formation
former
forms
formula
fort
fortschreibung
fortune
forum
forward
foster
found
foundation
foundations
founder
four
fourth
fox
fp
fq
fr
frac
framework
francais
france
francesco
francis
francisco
franco
francois
frank
frankfurt
franklin
franz
fraser
fred
frederic
frederick
free
freedom
freeman
french
frequency
friday
friedrich
friend
friends
fritz
from
front
frontier
frye
fs
ft
fu
fuel
full
fun
function
functional
functions
fund
fundamentals
fur
further
future
fußball
fv
fw
fx
fy
fz
g
g0
g1
g2
g3
g4
g5
g6
g7
g8
g9
ga
gabriel
gaga
galaxy
gale
gallery
galstyan
game
gamer
games
gamespot
gaming
gamma
gaon
gap
garcia
garde
garden
gardens
gardner
gary
gas
gate
gates
gay
gaza
gazette
gazetteer
gb
gc
gd
gdp
ge
gear
gebietsstand
gemeinden
gen
gender
gene
genealogy
general
generation
genes
genesis
genet
genetic
genetics
geneva
genocide
genome
genomics
genus
geo
geoffrey
geographic
geographical
geography
geological
geometry
geonames
georg
george
georges
georgia
geq
gerald
gerard
gerhard
german
germany
geschichte
get
gets
getting
gf
gg
gh
ghost
gi
giant
gibson
gil
gilbert
giorgio
giovanni
girl
girls
github
giuseppe
give
given
gives
gj
gk
gl
glass
glenn
global
globe
glory
glossary
glottolog
gm
gmbh
gmina
gn
gnu
go
goal
goals
god
goddard
gods
goes
going
gold
goldberg
golden
gomez
gone
gonzalez
good
google
gordon
got
gouv
gov
governance
government
governor
gp
gq
gr
grace
graduate
graham
grammar
grammy
grand
grande
grands
grant
graph
gravity
gray
grcm
great
greater
greatest
greece
greek
green
greenwood
greg
gregory
grey
gross
ground
group
groups
grove
growing
growth
gs
gt
gu
guard
guardian
guest
guide
guidelines
guild
guinea
guinness
gulf
gun
guy
gv
gw
gx
gy
gymnast
gz
h
h0
h1
h2
h3
h4
h5
h6
h7
h8
h9
ha
haaretz
had
hal
half
hall
hamburg
hamilton
hammarstrom
hamshahrionline
han
hancinema
hand
handball
handbook
hands
hannah
hans
hansen
happy
haqqında
harald
hard
hardy
harold
harper
harpercollins
harris
harrison
harry
hart
harvard
harvey
has
hasan
haspelmath
hassan
hat
have
haven
hawaii
hb
hbo
hc
hd
hdl
he
head
health
heard
heart
heat
heather
heaven
heavy
hee
height
heights
heinrich
heinz
held
helen
hell
hello
help
henderson
henri
henry
her
herald
herbert
here
heritage
herman
hermann
hero
heroes
het
hf
hg
hh
hi
hidden
high
higher
highest
highlights
highway
hill
hills
him
himself
hindu
hip
his
histoire
historia
historian
historic
historical
history
hit
hitler
hits
hiv
hj
hk
hl
hm
hmas
hms
hn
ho
hockey
hockeydb
hold
holders
holding
hole
holiday
holland
hollywood
holmes
holocaust
holstein
holt
holy
home
homepage
honda
hong
honor
hope
hopkins
horror
horse
hospital
hossein
host
hot
hotel
houghton
hour
hours
house
housing
houston
how
howard
however
hp
hq
hr
hs
ht
htm
html
http
https
hu
huang
hudson
huffington
hugh
hughes
hugman
hugo
human
humans
hundred
hung
hungarian
hungary
hunger
hunt
hunter
hv
hw
hx
hy
hybrid
hydrogen
hye
hyun
hz
i
i0
i1
i2
i3
i4
i5
i6
i7
i8
i9
ia
iaaf
ian
iata
ib
ibm
ibn
ibna
ibrahim
ic
icao
ice
icon
id
idaho
idea
ideas
identification
identity
idol
ie
iec
ieee
if
ig
ign
ignored
ih
ii
iii
ij
ik
il
ilbo
illinois
illustrated
im
image
images
imaging
imam
imdb
immigration
impact
imperial
implementation
implications
important
in
inc
include
includes
including
income
incorporates
independence
independent
index
india
indian
indiana
indiewire
individual
indo
indonesia
induced
industrial
industries
industry
infection
infectious
influence
info
informasiya
information
infrastructure
infty
initial
initiative
inn
innovation
inorganic
input
insee
inside
insider
instagram
institut
institute
institution
institutions
instituto
int
integrated
integration
intel
intelligence
inter
interaction
interactions
interactive
interest
interface
interior
internal
international
internationale
internet
interview
into
introduction
invalid
invasion
investigation
investment
io
ioc
ion
ios
iowa
ip
ipac
iphone
iq
ir
iran
iranian
iranica
iranicaonline
iraq
iraqi
ireland
irib
iris
irish
irna
iron
is
isaac
isbn
isis
islam
islamic
island
islands
isna
iso
israel
israeli
issn
issue
issues
ist
istanbul
it
italia
italian
italy
item
its
itunes
iu
iucn
iupac
iv
ivan
iw
ix
iy
iz
j
j0
j1
j2
j3
j4
j5
j6
j7
j8
j9
ja
jack
jackson
jacob
jacques
jahresbeginn
jake
james
jamie
jan
jane
janet
january
japan
japanese
jason
java
javascript
javier
jay
jazeera
jb
jbc
jc
jd
je
jean
jeff
jefferson
jeffrey
jenkins
jennifer
jensen
jeremy
jerome
jerry
jersey
jerusalem
jesse
jessica
jesus
jet
jewish
jews
jf
jg
jh
ji
jim
jimmy
jin
jj
jk
jl
jm
jn
jo
joan
job
jobs
joe
joel
johan
johann
johannes
john
johnny
johns
johnson
johnston
join
joins
joint
jon
jonathan
jones
jong
joongang
jordan
jorge
jose
josef
joseph
josh
joshua
journal
journey
joy
joyce
jp
jpg
jq
jr
js
jstor
jt
ju
juan
judith
judo
jul
julia
julian
julie
julio
julius
jully
july
jump
jun
june
jung
junior
jurgen
just
justice
justin
juventus
jv
jw
jx
jy
jz
k
k0
k1
k2
k3
k4
k5
k6
k7
k8
k9
ka
kabul
kang
kansas
karabakh
karate
karen
karl
kate
katherine
katy
kay
kazakhstan
kb
kbs
kc
kd
ke
keep
keith
kelly
ken
kennedy
kenneth
kent
kentucky
kevin
key
kf
kg
kh
khabaronline
khan
ki
kicker
kid
kids
kiesling
kill
killed
killer
killing
kills
kim
kinase
king
kingdom
kings
kiss
kit
kj
kk
kl
klaus
klein
km
kn
knight
know
knowledge
known
ko
kojian
kong
kora
korea
korean
kp
kq
kr
kramer
kroll
ks
ksh
kt
ku
kumar
kurdish
kurdistan
kurds
kurt
kuwait
kv
kw
kx
ky
kyle
kyung
kz
l
l0
l1
l2
l3
l4
l5
l6
l7
l8
l9
la
lab
label
labor
laboratory
labour
lady
lagarde
lake
lakes
lambda
lambert
lancet
land
landesamt
landesbetrieb
landing
lands
landscape
lane
lang
langle
language
languages
lanham
lanka
large
largest
larry
lars
las
laser
last
late
later
latest
latin
launch
launches
laura
lauren
laurent
law
lawrence
laws
lay
layer
lb
lc
ld
ldots
le
lead
leader
leaders
leadership
leading
leads
league
learning
least
leave
leaves
lebanon
lecture
led
lee
left
legacy
legal
legend
legends
legislative
leiden
leipzig
length
leo
leon
leonard
leonardo
leq
les
leslie
less
lessons
let
lett
letter
letters
level
levy
lewis
lf
lg
lh
li
lib
liberal
liberty
libraries
library
license
lie
life
liga
light
like
lim
limited
limits
lin
lincoln
linda
line
linear
lines
linguistic
linguistics
link
linked
links
linux
lion
liquid
lisa
list
listed
listen
listing
lists
literary
literature
litteraire
little
littlefield
liu
live
liverpool
lives
living
lj
lk
ll
llc
lloyd
lm
ln
lo
local
location
lodge
log
logan
logic
london
long
longer
look
looking
loop
lopez
lord
lorenzo
lori
los
loss
lost
louis
louise
louisiana
love
low
lower
lp
lq
lr
ls
lt
ltd
lu
luca
lucas
lucy
ludwig
luigi
luis
luke
lunar
lung
lv
lw
lx
ly
lynch
lynn
lz
m
m0
m1
m2
m3
m4
m5
m6
m7
m8
m9
ma
mac
macdonald
machine
mackenzie
macmillan
mad
made
madelung
madison
madrid
magazine
magic
magiran
magnetic
mail
main
maine
mainstream
majlis
major
make
makes
making
malaysia
malcolm
male
mali
mamrot
man
management
manager
manchester
mann
manual
manuel
manufacturing
many
map
mapping
maps
mar
marano
marc
marcel
march
marco
marcus
margaret
maria
marie
marina
marine
mario
marion
mark
market
marketing
marks
marriage
mars
marshall
martin
martinez
marvel
marx
mary
maryland
marz
mas
mason
mass
massachusetts
massacre
master
masters
match
matches
material
materials
math
mathbb
mathbf
mathcal
mathematical
mathematics
mathop
mathrm
matrix
matt
matter
matthew
maurice
max
may
mayo
mayor
mayors
mazda
mb
mbc
mbox
mc
mccarthy
mcdonald
mcfarland
mcgraw
mclaren
md
me
mean
meaning
means
mechanical
mechanics
mechanism
mechanisms
mecklenburg
med
medal
media
medical
medicine
medien
medieval
medium
meet
meeting
mehr
mehran
mehrnews
melbourne
melli
member
members
membrane
memoirs
memorial
memory
men
mental
mercedes
mercury
merriam
mesh
message
met
meta
metabolism
metacritic
metal
metals
method
methodology
methods
metro
metropolitan
mexican
mexico
meyer
mf
mg
mh
mi
miami
michael
michard
michel
michele
michelle
michigan
microbiology
microsoft
mid
middle
middleton
midnight
mifflin
migration
miguel
mike
mil
milan
miles
military
mill
miller
million
mills
milton
min
mind
mini
mining
minister
ministere
ministry
minnesota
minor
minutes
mirror
miss
missile
missing
mission
mississippi
missouri
mit
mitchell
mix
mixed
mj
mk
ml
mm
mn
mo
mobile
mod
mode
model
modeling
models
modern
module
mohamed
mohammad
mohammed
mojo
mol
molecular
moment
monday
monde
money
mongabay
monica
monitor
monster
montana
monte
montgomery
month
monthly
montreal
monuments
moon
moore
moral
more
morgan
morning
morris
moscow
mosque
most
mother
motion
motor
mount
mountain
mountains
mouse
move
movement
moves
movie
movies
moving
moyen
mp
mq
mr
mrna
mrs
ms
mt
mtv
mu
much
muhammad
muir
muller
multi
multiple
munich
municipal
municipales
municipalites
municipalities
municipality
munzinger
murder
murphy
murray
muscle
museum
music
musical
muslim
muslims
must
mutations
mv
mw
mx
my
mystery
myth
mythology
mz
n
n0
n1
n2
n3
n4
n5
n6
n7
n8
n9
na
nabla
nach
nacional
nad
nam
name
named
names
nancy
nasa
nash
nat
natalie
nathan
nation
national
nationalism
nations
native
natl
nato
natur
natural
nature
naval
naver
navy
nazi
nb
nba
nbc
nbsp
nc
ncbi
nd
ndash
ne
near
nebraska
ned
need
negative
neil
nellie
nelson
neo
nerve
net
netflix
netherlands
network
networks
neural
neurology
neuroscience
nevada
never
new
newman
news
newspaper
newspapers
newstext
newton
next
nf
ng
ngc
nh
ni
nicholas
nick
nicolas
nicole
niedersachsen
nielsen
nigeria
night
nih
nil
nine
nineteenth
nintendo
nist
nj
nk
nl
nlai
nm
nme
nn
no
noah
nobel
nobelprize
noble
node
nomenclature
nominations
nominees
non
nord
nordhoff
normal
norman
north
northern
norton
norway
norwegian
not
note
notes
nothing
nov
nova
novel
november
now
np
npr
nq
nr
ns
nsa
nt
nu
nuclear
null
number
numbers
nutrition
nv
nw
nx
ny
nytimes
nz
o
o0
o1
o2
o3
o4
o5
o6
o7
o8
o9
oa
oak
ob
obama
obituary
object
objects
observations
observatory
observer
oc
occupation
ocean
och
oclc
oct
october
od
odyssey
oe
oecd
of
off
office
officer
official
officially
officials
og
oh
ohio
oi
oil
oj
ok
oklahoma
ol
old
oldest
oldid
oliver
olympedia
olympic
olympics
om
omar
omega
on
once
one
online
only
ontario
oo
op
opac
open
opening
opens
opera
operating
operation
operations
operatorname
opinion
opposition
optical
option
oq
or
oral
orange
order
orders
oregon
org
organic
organization
oricon
oriental
origin
original
origins
os
oscar
oscars
osprey
ot
other
others
otto
ottoman
ou
our
out
output
outside
ov
over
overline
overview
ow
owen
own
ox
oxford
oy
oz
p
p0
p1
p2
p3
p4
p5
p6
p7
p8
p9
pa
pablo
pac
pacific
package
page
pager
pages
pahlavi
pain
painting
pakistan
palace
palestine
palestinian
palgrave
palmer
pamela
pan
panel
paolo
paper
papers
par
para
paradise
parallel
parameter
paris
parish
park
parker
parks
parliament
part
partial
participle
particle
parties
partner
partners
parts
party
pascal
pass
passenger
passes
passports
past
pat
patent
path
patient
patients
patricia
patrick
pattern
patterns
paul
paulo
pay
pb
pbs
pc
pd
pde
pdf
pe
peace
peak
pearson
pedro
pen
penguin
pennsylvania
people
peoples
per
perez
perfect
performance
period
permanent
perry
persia
persian
person
personal
personality
perspective
perspectives
peru
pet
peter
peters
pf
pfa
pg
ph
pharmacology
phase
phd
phi
phil
philadelphia
philip
philippe
philippines
phillips
philosophical
philosophy
phoenix
phone
photo
photography
photos
php
phys
physical
physics
physiology
pi
piano
pic
pick
picture
pictures
pid
pierre
pilot
pink
pioneer
pj
pk
pl
place
places
plan
planck
plane
planet
planetary
planning
plans
plant
plants
plasma
plate
platform
platinum
play
played
player
players
playing
playstation
plaza
plc
please
plos
plot
plural
plus
pm
pmatrix
pmc
pmid
pn
pnas
po
poa
poblacion
pocket
poetry
point
points
poland
police
policy
polish
political
politico
politics
polymer
pop
pope
popes
popular
population
por
porn
port
portal
porter
portrait
portugal
portuguese
position
positive
possible
post
postal
potential
potter
pour
powell
power
powerful
powers
pp
pq
pr
practical
practice
practices
pre
preliminary
premier
premiere
prentice
present
presentation
presented
president
presidential
press
pressure
prevention
preview
price
primary
prime
prince
princess
princeton
principles
print
printing
prison
private
prix
prize
pro
problem
problems
proc
proceedings
process
processes
processing
procyclingstats
prod
produced
producer
product
production
productions
products
prof
professional
professor
profil
profile
profiles
program
programme
programming
programs
progress
project
projects
prometheus
properties
property
protection
protein
proteins
protest
protests
protocol
province
provinces
provincia
provincial
ps
psi
psychiatric
psychiatry
psychological
psychology
pt
pu
pub
public
publication
publications
published
publisher
publishers
publishing
pubmed
puerto
pure
push
put
putin
pv
pw
px
py
python
pz
q
q0
q1
q2
q3
q4
q5
q6
q7
q8
q9
qa
qatar
qb
qc
qd
qe
qf
qg
qh
qi
qj
qk
ql
qm
qn
qo
qp
qq
qquad
qr
qs
qt
qu
quad
quality
quantum
quartal
quarter
quarterly
que
quebec
queen
queensland
query
quest
question
questions
quotes
qur
qv
qw
qx
qy
qz
r
r0
r1
r2
r3
r4
r5
r6
r7
r8
r9
ra
race
rachel
racing
radiation
radical
radio
radiofarda
rafael
raffi
rail
railway
rain
ralph
ram
ramon
rand
random
range
rangle
ranked
ranking
rankings
rape
rapid
rare
rat
rate
rates
ratings
ratio
raw
ray
raymond
rb
rc
rd
re
reaction
reactions
read
reader
reading
ready
real
realgm
reality
really
reason
rebecca
rebel
rebels
rec
recent
receptor
receptors
recognition
record
recorded
recording
records
red
redirect
rediscovering
reduction
reed
ref
reference
references
reform
refugees
regime
region
regional
regions
register
registered
registration
regular
regulation
reich
reid
reilly
related
relations
relationship
release
released
releases
religion
religions
religious
renaissance
renault
rene
repertoire
report
reported
reporter
reports
reprint
republic
required
requires
res
research
reserve
resident
resistance
resolution
resolutions
resort
resource
resources
response
respublikası
respublikasının
rest
restaurant
result
results
retrieved
return
returns
reuters
rev
reveal
revealed
reveals
reverse
review
reviews
revised
revolution
revolutionary
rey
reynolds
reza
rf
rfc
rfi
rg
rh
rho
ri
ricardo
rice
rich
richard
richards
richardson
richmond
rick
ridge
right
rightarrow
rights
riley
ring
rings
rio
rise
rising
risk
river
rivers
rj
rk
rl
rlts
rm
rn
rna
ro
road
rob
robert
roberto
roberts
robertson
robin
robinson
robot
rock
rocket
rodriguez
roger
rogers
roland
role
roles
roll
rolling
roma
roman
romance
rome
romeo
ron
ronald
room
root
roots
rosa
rose
rosen
ross
rotten
round
route
routes
routesonline
routledge
row
roy
royal
rp
rq
rr
rs
rsssf
rt
ru
ruben
rubin
rudolf
rule
rules
run
running
rural
rush
russell
russia
russian
ruth
rv
rw
rx
ry
ryan
rz
s
s0
s1
s2
s3
s4
s5
s6
s7
s8
s9
sa
sachsen
sacred
safavid
safe
safety
sage
said
saint
sale
sales
salmon
salt
sam
same
sample
samsung
samuel
san
sanchez
sanctions
sandra
sankt
santa
santiago
santos
sao
sara
sarah
sasanian
saskatchewan
satellite
saudi
saunders
save
say
says
sb
sbs
sc
scale
scarecrow
scene
schedule
schleswig
schmidt
schmitt
schneider
scholar
school
schools
schuster
schwartz
sci
science
sciences
scientific
scientist
scientists
score
scores
scotland
scott
scottish
screen
scribunto
script
sd
se
sea
sean
search
season
seatguru
seattle
sebastian
sec
second
secret
secretary
secrets
section
secure
security
see
seen
seism
select
selected
selection
self
selling
semi
sen
senate
senators
senior
sense
seoul
sep
september
sequel
sequence
sequences
serbia
sergio
serie
series
server
service
services
session
set
seth
sets
settlements
seung
seven
seventh
several
sex
sexual
sf
sg
sh
shadow
shah
shanghai
shape
share
sharghdaily
shaw
she
sheet
shell
shi
shift
shin
ship
shirak
shirt
shooting
shop
short
shot
should
show
shows
shrew
shtml
si
sid
side
siege
sierra
sigma
sign
signal
signaling
signs
silent
silicon
silva
silver
sim
simon
simone
simple
simpson
sin
since
singapore
singer
singh
single
singles
sio
sir
siranush
sistemi
sister
site
sites
situation
six
sixth
size
sj
sk
skin
sky
sl
slate
sleep
slip
sm
small
smart
smith
smithsonian
sms
sn
snl
snow
so
soc
soccer
soccerbase
soccerway
social
socialist
society
sociology
soft
software
solar
sold
soldier
soldiers
solid
solo
solomon
solution
solutions
some
something
son
song
songs
sons
sony
soo
soon
sophie
soul
sound
soundtrack
source
sources
south
southern
soviet
soyuz
sp
space
spacefacts
spain
span
spanish
spears
special
species
specific
specified
spectrum
speech
speed
spencer
spider
spiegel
spieler
spin
spirit
split
sport
sports
spot
spring
springer
springs
spy
sq
sql
sqrt
squad
square
sr
sri
ss
st
stable
stade
stadium
staff
stage
stand
standard
standards
stanford
stanley
star
starring
stars
start
stat
state
statement
states
static
station
statistical
statistics
statistik
statistikamt
statistiques
statistisches
statline
statoids
stats
status
stay
steel
stefan
stefano
stein
stem
step
stephanie
stephen
steve
steven
stevens
stewart
still
stock
stone
stop
storage
store
stories
storm
story
straight
strange
stranger
strategic
strategies
strategy
stream
street
stress
strike
strikes
string
strong
structural
structure
structures
struggle
sts
stuart
student
students
studies
studio
studios
study
style
su
sub
subdivision
subject
submarine
success
succession
such
suggested
suicide
suites
sullivan
sultan
sum
summary
summer
summit
sun
sunday
sung
super
suppl
supplement
support
supreme
sur
surface
surgery
surveillance
survey
survival
susan
sustainable
suzuki
sv
sw
sweden
swedish
sweet
swift
swimming
swiss
switch
switzerland
sx
sy
sydney
symbol
symbols
symphony
symposium
syndrome
synthesis
syria
syrian
system
systematic
systems
sz
səh
t
t0
t1
t2
t3
t4
t5
t6
t7
t8
t9
ta
tab
table
tables
tabnak
tag
tailed
taiwan
tajikistan
take
taken
takes
taking
tale
talent
tales
taliban
talk
talks
tan
tank
target
task
tasnim
tasnimnews
taste
tau
tauris
tax
taylor
tb
tc
tcp
td
te
tea
teaching
team
teammelli
teams
tech
technical
techniques
technologies
technology
ted
teen
tehran
telegraph
telescope
television
tell
temperature
temple
ten
tennessee
tennis
term
terminal
terms
territoire
territorial
territories
territory
terror
terrorism
terrorist
terry
test
testing
texas
text
textbf
texts
tf
tfrac
tg
th
thai
thailand
than
that
the
theater
theatre
theguardian
their
them
then
theodore
theorem
theoretical
theories
theory
therapy
there
thermal
these
thesis
thesports
theta
they
thing
things
think
thinking
third
this
thomas
thompson
thomson
those
thought
thousand
threat
threatened
three
thriller
thrones
through
thursday
ti
ties
tiger
tim
timatic
time
timeline
times
timothy
title
tj
tk
tl
tm
tn
to
today
todd
together
tokyo
toll
tom
tomas
tomatoes
tommy
tomorrow
tony
too
tool
tools
top
topic
toponymie
tops
toronto
total
tottenham
touch
tour
tourism
touristic
tournament
toward
towards
tower
town
towns
township
toyota
tp
tq
tr
track
trackfield
trade
tradition
traditional
traffic
trafficking
trail
trailer
train
training
trans
transactions
transcription
transfer
transfermarkt
transformation
transit
transition
translated
translation
transmission
transport
transportation
travel
treatment
treaty
tree
trends
trial
tribes
tribune
tribute
trip
troops
true
trump
trust
truth
ts
tt
tu
tube
tucker
tuesday
turk
turkey
turkish
turn
turner
tv
tw
tweet
twentieth
twenty
twice
twin
twitter
two
tx
ty
tyler
type
types
tz
u
u0
u1
u2
u3
u4
u5
u6
u7
u8
u9
ua
uae
ub
uber
uc
ud
ue
uefa
uf
ufc
ug
uh
ui
uj
uk
ukraine
ukrainian
ul
ultimate
ultra
ultratop
um
un
una
und
under
underground
understanding
une
unesco
union
unique
unit
united
units
univ
universal
universe
universities
university
unknown
until
unveils
uo
up
upazila
update
updated
updates
upon
upper
uq
ur
urban
url
us
usa
usage
usb
use
used
user
users
uses
usgs
using
uss
ut
utah
utc
uu
uv
uw
ux
uy
uz
uzbekistan
v
v0
v1
v2
v3
v4
v5
v6
v7
v8
v9
va
vaccine
vaglieri
vajehyab
val
valid
valley
value
values
van
vancouver
var
varepsilon
variable
variety
various
varphi
varzesh
vb
vc
vd
ve
vec
vector
vehicle
venezuela
venice
verge
verlag
version
versus
very
vf
vg
vh
vi
via
vice
victims
victor
victoria
victory
video
videos
vienna
vietnam
view
views
vii
viii
villa
village
villages
vincent
violence
virgin
virginia
virtual
virus
visa
vision
visit
vista
visual
vixx
vj
vk
vl
vladimir
vm
vn
vo
voanews
voice
void
voivodeship
vol
volleyball
volume
volumes
von
vorpommern
vote
voting
vp
vq
vr
vs
vt
vu
vv
vw
vx
vy
vz
və
w
w0
w1
w2
w3
w4
w5
w6
w7
w8
w9
wa
wagner
wald
wales
walk
walker
walking
wall
wallace
walsh
walter
wang
want
wanted
wants
war
ward
warfare
warner
warren
warrior
wars
was
washington
watch
water
waterfall
waterfalls
watson
wave
way
wayback
wayne
wb
wc
wd
we
weapons
weather
web
weber
website
webster
wedding
wednesday
week
weekend
weekly
weight
weightlifting
welcome
welding
well
welle
wells
were
werner
wesley
west
western
wf
wg
wh
what
wheeler
when
where
which
while
white
who
whole
why
wi
wide
width
wife
wiki
wikilink
wikipedia
wild
wiley
wilhelm
will
william
williams
wilson
win
wind
window
windows
wing
winner
winners
winning
wins
winter
wire
wired
wireless
wisconsin
with
within
without
wj
wk
wl
wm
wn
wo
wolf
wolfgang
wolfram
woman
women
won
wonder
wong
woo
wood
woods
word
words
work
workers
workforce
working
works
world
worldaerodata
worldfootball
worlds
worldwide
worst
worth
would
wp
wq
wr
wrestling
wright
write
writer
writers
writing
writings
written
wrong
ws
wt
wu
wurttemberg
wv
ww
wwe
www
wx
wy
wz
x
x0
x1
x2
x3
x4
x5
x6
x7
x8
x9
xa
xb
xbox
xc
xd
xe
xf
xg
xh
xi
xii
xj
xk
xl
xls
xm
xml
xn
xo
xp
xq
xr
xs
xt
xu
xv
xw
xx
xy
xz
y
y0
y1
y2
y3
y4
y5
y6
y7
y8
y9
ya
yahoo
yale
yang
yarshater
yb
yc
yd
ye
year
yearbook
years
yellow
yemen
yeon
yerevan
yes
yet
yf
yg
yh
yi
yj
yjc
yk
yl
ym
yn
yo
yoon
york
you
young
your
youth
youtube
yp
yq
yr
ys
yt
yu
yv
yw
yx
yy
yz
z
z0
z1
z2
z3
z4
z5
z6
z7
z8
z9
za
zb
zc
zd
ze
zealand
zensus
zero
zf
zg
zh
zhang
zi
zip
zj
zk
zl
zm
zn
zo
zone
zp
zq
zr
zs
zt
zu
zur
zv
zw
zx
zy
zz
{
|
}
~
¡
£
§
¨
©
ª
«
¬
®
¯
°
±
²
³
´
µ
·
¹
º
»
½
¿
×
ß
æ
ð
÷
ø
þ
đ
ħ
ı
ł
ŋ
œ
ƒ
ɐ
ɑ
ɒ
ɔ
ɕ
ə
ɛ
ɜ
ɡ
ɣ
ɨ
ɪ
ɲ
ɹ
ɾ
ʁ
ʂ
ʃ
ʊ
ʌ
ʒ
ʔ
ʰ
ʲ
ʷ
ʹ
ʻ
ʼ
ʾ
ʿ
ˆ
ˈ
ˌ
ː
˓
˙
˝
α
β
γ
δ
ε
ζ
η
θ
ι
κ
λ
μ
ν
ξ
ο
π
ρ
ς
σ
τ
υ
φ
χ
ψ
ω
ϕ
ϵ
а
б
в
г
года
д
е
ж
з
и
к
л
м
н
на
населения
о
п
по
постоянного
р
россиискои
с
т
у
ф
федерации
х
ц
ч
численность
ш
щ
ъ
ы
ь
э
ю
я
января
ђ
є
і
ј
ћ
ғ
қ
ү
ұ
ҳ
ҷ
ә
ө
՝
ա
այվազյան
առաջին
բ
բաժին
բառարան
բնակավայրերի
գ
գառնիկ
դ
ե
եպհ
երկու
երկրորդ
երևան
զ
է
ը
թ
ժ
ի
լ
լղհ
խ
ծ
կ
կենսագրական
հ
համայնքներ
հայաստան
հայաստանի
հայեր
հայկական
հայոց
հանրագիտարան
հանրապետության
հատորով
հրատ
հրատարակչություն
ձ
ղ
ճ
մ
միավո
յ
ն
շ
ո
ով
չ
պ
ջ
ռ
ս
ստեփանյան
վ
վարչատարածքային
տ
տեղեկատու
ր
ց
ւ
փ
ք
օ
ֆ
և
א
ב
ג
ד
ה
ו
ז
ח
ט
י
ך
כ
ל
ם
מ
ן
נ
ס
ע
פ
ץ
צ
ק
ר
ש
ת
،
؛
؟
ء
ا
اء
اب
ابا
اباد
ابادان
ابادانی
اباده
ابادی
ابان
ابتدا
ابتدايی
ابتدای
ابتدایی
ابتلا
ابتلای
ابتهاج
ابتکار
ابجو
ابخوست
ابد
ابدا
ابداع
ابدی
ابدیت
ابر
ابراز
ابراهام
ابراهامیان
ابراهيم
ابراهیم
ابراهیمی
ابرقهرمان
ابرقهرمانی
ابرها
ابرهای
ابرو
ابروی
ابرکوه
ابری
ابریز
ابریشم
ابریشمی
ابزار
ابزارها
ابزارهای
ابزارهایی
ابزاری
ابزی
ابزیان
ابش
ابشار
ابشارها
ابشارهای
ابشاری
ابطال
ابطحی
ابعاد
ابعادی
ابل
ابلاغ
ابله
ابلیس
ابن
ابنیه
ابه
ابهام
ابهای
ابهر
ابو
ابوالحسن
ابوالفتح
ابوالفضل
ابوالقاسم
ابوبكر
ابوبکر
ابوت
ابوذر
ابوریحان
ابوسعید
ابوطالب
ابوظبی
ابوعبدالله
ابوعلی
ابومسلم
ابوموسی
ابونمان
ابي
ابگرم
ابی
ابیات
ابیاری
ابیطالب
ات
اتا
اتابک
اتابکان
اتاق
اتاقک
اتاقی
اتالانتا
اتانول
اتاوا
اتباع
اتحاد
اتحادیه
اتخاذ
اتر
اتریش
اتریشی
اتش
اتشفشان
اتشفشانی
اتشکده
اتشگاه
اتشی
اتشین
اتصال
اتصالات
اتفاق
اتفاقا
اتفاقات
اتفاقاتی
اتفاقی
اتلاف
اتلانتا
اتلانتیک
اتلتیک
اتلتیکو
اتم
اتمام
اتمسفر
اتمی
اتن
اتنا
اتنولوگ
اتنی
اتهام
اتهامات
اتو
اتوبان
اتوبوس
اتوبوسرانی
اتوماتیک
اتوماسیون
اتومبیل
اتکا
اتی
اتیل
اتیلا
اتیلن
اتین
اتیه
اتیوپی
اثار
اثارش
اثاری
اثبات
اثر
اثرات
اثربخشی
اثرش
اثرگذار
اثرگذاری
اثری
اثنا
اثیر
اج
اجابت
اجاره
اجازه
اجاق
اجبار
اجباری
اجتماع
اجتماعات
اجتماعی
اجتناب
اجتهاد
اجداد
اجدادی
اجر
اجرا
اجراء
اجرام
اجراهای
اجرايی
اجرای
اجرایی
اجرهای
اجری
اجزا
اجزاء
اجزای
اجساد
اجسام
اجل
اجلاس
اجماع
اجمالی
اجناس
اجی
اجیل
اح
احادیث
احاطه
احتراق
احترام
احترامی
احتساب
احتمال
احتمالا
احتمالات
احتمالی
احتیاج
احتیاجات
احتیاط
احد
احداث
احدی
احراز
احزاب
احساس
احساسات
احساساتی
احساسی
احسان
احسن
احسنت
احضار
احمد
احمداباد
احمدرضا
احمدزاده
احمدشاه
احمدی
احمر
احمق
احمقانه
احوال
احکام
احیا
احیاء
احیای
اخ
اخبار
اخباری
اختتامیه
اختر
اختراع
اختراعات
اختران
اخترشناسی
اخترفیزیک
اختریان
اختصار
اختصاری
اختصاص
اختصاصی
اختلاس
اختلاط
اختلاف
اختلافات
اختلافاتی
اختلافی
اختلال
اختلالات
اخته
اختیار
اختیارات
اختیاری
اخذ
اخر
اخراج
اخرالزمان
اخرت
اخرج
اخری
اخرین
اخطار
اخلاص
اخلاق
اخلاقی
اخلاقیات
اخلال
اخوان
اخوند
اخگر
اخیر
اخیرا
اد
ادا
اداب
ادارات
اداره
اداری
ادام
ادامز
ادامه
ادای
ادب
ادبی
ادبیات
ادرار
ادراری
ادراک
ادراکی
ادرس
ادریان
ادریس
ادرین
ادعا
ادعاها
ادعاهای
ادعای
ادعایی
ادغام
ادل
ادلاید
ادله
ادم
ادموند
ادمی
ادمیان
ادمیت
ادو
ادوات
ادوار
ادوارد
ادواردز
ادواردو
ادوبی
ادولف
ادوین
ادویه
ادگار
ادی
ادیان
ادیب
ادیسون
ادینه
ادیک
اذا
اذان
اذر
اذربایجان
اذربایجانی
اذرخش
اذرماه
اذری
اذعان
اذن
اذهان
اذوقه
اذیت
اذین
ار
ارا
اراء
ارابه
ارادت
اراده
ارارات
اراس
اراسته
اراضی
ارام
ارامش
ارامنه
ارامگاه
ارامی
اران
ارانی
ارايه
اراک
اراگون
ارای
ارایش
ارایشی
ارایه
ارایی
ارباب
اربابان
اربعه
اربعین
اربیل
ارت
ارتباط
ارتباطات
ارتباطی
ارتداد
ارتدوکس
ارتدکس
ارتساخ
ارتش
ارتشبد
ارتشی
ارتعاش
ارتعاشات
ارتفاع
ارتفاعات
ارتفاعی
ارتقا
ارتقاء
ارتقای
ارتمیس
ارتور
ارتوپدی
ارتکاب
ارتی
ارث
ارثی
ارج
ارجاع
ارجمند
ارد
اردبیل
اردبیلی
اردستان
اردشیر
اردل
اردلان
اردن
اردو
اردوان
اردوغان
اردوگاه
اردوی
اردک
اردکان
اردکانی
اردی
اردیبهشت
ارز
ارزان
ارزانی
ارزروم
ارزش
ارزشمند
ارزشمندی
ارزشی
ارزشیابی
ارزنده
ارزهای
ارزو
ارزوهای
ارزوی
ارزی
ارزیابی
ارس
ارسال
ارسالی
ارسباران
ارسطو
ارسلان
ارسن
ارسنال
ارسنیک
ارسی
ارش
ارشاد
ارشد
ارشیو
ارضی
ارغوان
ارغوانی
ارقام
ارل
ارم
ارمان
ارمانی
ارماویر
ارمسترانگ
ارمغان
ارمن
ارمنستان
ارمنی
ارمنیان
ارمین
ارن
ارنا
ارنج
ارند
ارنست
ارنو
ارنولد
اره
ارو
ارواح
ارواره
اروماتیک
ارومیه
ارون
اروپا
اروپايی
اروپای
اروپایی
اروپاییان
اروگويه
اروین
ارژانتین
ارژانتینی
ارک
ارکان
ارکانزاس
ارکستر
ارگ
ارگان
ارگانیسم
ارگانیک
ارگومان
ارگون
اری
اریا
اریان
اریانا
اریایی
اریتره
اریزونا
اریش
اریل
ارین
اریک
اریکسون
از
ازاد
ازادانه
ازادراه
ازادسازی
ازاده
ازادگان
ازادی
ازادیبخش
ازادیخواهان
ازار
ازاری
ازان
ازای
ازاین
ازبک
ازبکستان
ازبکی
ازبین
ازجمله
ازدحام
ازدست
ازدواج
ازدیاد
ازرده
ازطریق
ازل
ازلی
ازمایش
ازمایشگاه
ازمایشگاهی
ازمایشی
ازمایی
ازموده
ازمون
ازمیر
ازنا
ازنظر
ازو
ازین
اس
اسا
اساتید
اسارت
اساس
اساسا
اساسنامه
اساسي
اساسی
اساطیر
اساطیری
اسامه
اسامی
اسان
اسانس
اسانسور
اسانی
اسایش
اسایشگاه
اسب
اسباب
اسبق
اسبی
است
استات
استاتیک
استاد
استادان
استادش
استادی
استادیار
استادیوم
استار
استارا
استارت
استارک
استالین
استان
استانبول
استانبولی
استاندار
استاندارد
استانداردسازی
استانداردها
استانداردهای
استانداری
استانه
استانها
استانهای
استانی
استایلز
استبداد
استبدادی
استثمار
استثنا
استثناء
استثنای
استثنایی
استحکام
استحکامات
استخدام
استخدامی
استخر
استخراج
استخوان
استخوانی
استدعا
استدلال
استدلالی
استر
استراباد
استرابادی
استراتژی
استراتژیک
استراحت
استراسبورگ
استرالیا
استرالیای
استرالیایی
استرداد
استرس
استرلینگ
استروژن
استریت
استریم
استریپ
استعاره
استعداد
استعدادهای
استعفا
استعفای
استعمار
استعماری
استعمال
استفاده
استفان
استفانو
استفانی
استفراغ
استفن
استقامت
استقبال
استقرار
استقلال
استماع
استمرار
استن
استناد
استنباط
استنتاج
استنفورد
استنلی
استهبان
استهلاک
استوا
استوار
استوارت
استوانه
استوایی
استودیو
استودیوز
استودیوهای
استودیوی
استودیویی
استور
استوری
استون
استونی
استونیایی
استوک
استپ
استکهلم
استیت
استیشن
استیضاح
استیل
استیلای
استین
استیناف
استیو
استیون
استیونز
استیک
اسحاق
اسد
اسداباد
اسدالله
اسدی
اسرار
اسرارامیز
اسرايیل
اسرايیلی
اسراییل
اسطوره
اسعد
اسفالت
اسفالته
اسفراین
اسفنج
اسفنجی
اسفند
اسفندماه
اسفندیار
اسفندیاری
اسقف
اسلام
اسلامشهر
اسلامي
اسلامی
اسلامیه
اسلاوی
اسلحه
اسلم
اسلو
اسلواکی
اسلوونی
اسم
اسماء
اسمارت
اسماعیل
اسماعیلی
اسماعیلیان
اسماعیلیه
اسمان
اسمانی
اسمبلی
اسمش
اسمی
اسمیت
اسن
اسناد
اسنادی
اسنودن
اسهال
اسوده
اسپ
اسپات
اسپارت
اسپانیا
اسپانیایی
اسپانیول
اسپایک
اسپرانتو
اسپرت
اسپرم
اسپری
اسپرینگ
اسپرینگز
اسپنسر
اسپهبد
اسپور
اسپورت
اسپورتینگ
اسپیرز
اسپیس
اسپیلبرگ
اسپین
اسکات
اسکاتلند
اسکاتلندی
اسکادران
اسکار
اسکارلت
اسکان
اسکاندیناوی
اسکای
اسکریپت
اسکس
اسکلت
اسکلتی
اسکله
اسکن
اسکناس
اسکندر
اسکندری
اسکندریه
اسکو
اسکی
اسکیت
اسکیزوفرنی
اسی
اسیا
اسیاب
اسیای
اسیایی
اسیب
اسیبی
اسید
اسیدها
اسیدهای
اسیدی
اسیر
اسیران
اش
اشارات
اشارت
اشاره
اشاعه
اشام
اشامیدنی
اشباح
اشباع
اشتاین
اشتباه
اشتباهات
اشتباهی
اشتر
اشتراوس
اشتراک
اشتراکی
اشتعال
اشتغال
اشتوتگارت
اشتی
اشتیاق
اشتیان
اشتیانی
اشخاص
اشخاصی
اشراف
اشرافی
اشراق
اشراقی
اشرف
اشرفی
اشعار
اشعارش
اشعاری
اشعری
اشعه
اشغال
اشغالی
اشفته
اشفتگی
اشلی
اشمیت
اشنا
اشنایدر
اشنایی
اشنویه
اشوب
اشور
اشوری
اشوریان
اشویتس
اشپز
اشپزخانه
اشپزی
اشک
اشکار
اشکارا
اشکارساز
اشکارسازی
اشکال
اشکالات
اشکالی
اشکان
اشکانی
اشکانیان
اشی
اشیا
اشیاء
اشیان
اشیانه
اشیای
اشیایی
اشیل
اصابت
اصالت
اصالتا
اصحاب
اصرار
اصطلاح
اصطلاحا
اصطلاحات
اصطلاحی
اصطکاک
اصغر
اصف
اصفهان
اصفهانی
اصل
اصلا
اصلاح
اصلاحات
اصلاحاتی
اصلاحی
اصلاحیه
اصلان
اصلانی
اصلی
اصناف
اصوات
اصول
اصولا
اصولگرایان
اصولی
اصیل
اض
اضافه
اضافی
اضطراب
اضطراری
اضلاع
اط
اطاعت
اطاق
اطراف
اطرافش
اطرافیان
اطفال
اطلاع
اطلاعات
اطلاعاتی
اطلاعی
اطلاعیه
اطلاق
اطلس
اطمینان
اظهار
اظهارات
اظهارنامه
اعاده
اعتبار
اعتبارات
اعتبارنامه
اعتباری
اعتدال
اعتراض
اعتراضات
اعتراضی
اعتراف
اعترافات
اعتصاب
اعتصامی
اعتقاد
اعتقادات
اعتقادی
اعتماد
اعتمادالسلطنه
اعتمادی
اعتنایی
اعتیاد
اعداد
اعدام
اعراب
اعزام
اعزامی
اعصاب
اعضا
اعضاء
اعضای
اعطا
اعطاء
اعطای
اعظم
اعظمی
اعلام
اعلامیه
اعلان
اعلم
اعلی
اعلیحضرت
اعم
اعماق
اعمال
اعمالی
اعیان
اغ
اغا
اغاز
اغازگر
اغازی
اغازین
اغتشاش
اغداشلو
اغراق
اغشته
اغلب
اغوش
اف
افات
افاق
افت
افتاب
افتابی
افتاد
افتادن
افتادند
افتاده
افتادگی
افتتاح
افتتاحیه
افتخار
افتخارات
افتخاری
افتد
افتند
افخمی
افرا
افراد
افرادی
افراز
افراسیاب
افراط
افراطی
افروز
افرید
افریده
افریقا
افریقای
افریقایی
افرین
افرینش
افریننده
افرینی
افزار
افزارها
افزارهای
افزاری
افزاید
افزایش
افزایشی
افزود
افزودن
افزودنی
افزوده
افزون
افزونه
افسانه
افست
افسر
افسران
افسرده
افسردگی
افسری
افسوس
افسون
افشا
افشار
افشاری
افشان
افشانی
افشاگری
افشای
افشین
افضل
افعال
افعی
افغان
افغانستان
افغانستانی
افغانی
افق
افقی
افلاطون
افلاک
افندی
افول
افکار
افکاری
افکن
افکند
افکنده
افیس
اق
اقا
اقاخان
اقاسی
اقامت
اقامتگاه
اقامحمدخان
اقامه
اقای
اقایان
اقایانی
اقایی
اقبال
اقتباس
اقتباسی
اقتدار
اقتداری
اقتصاد
اقتصاددان
اقتصاددانان
اقتصادی
اقدام
اقدامات
اقداماتی
اقدامی
اقدس
اقرار
اقسام
اقصی
اقلام
اقلیت
اقلید
اقلیدسی
اقلیم
اقلیمی
اقماری
اقوال
اقوام
اقیانوس
اقیانوسی
اقیانوسیه
اكتبر
ال
الا
الاباما
الات
الاجرا
الاخبار
الادب
الارض
الاستیک
الاسرار
الاسلام
الاسلامی
الاسکا
الاصل
الاصول
الاعلام
الاغ
الامارات
الامام
الامر
الان
الانوار
الاهلی
الاول
الاولی
الاینده
الب
البا
البالو
البانی
البانیایی
البته
البدل
البر
البرت
البرتا
البرتو
البرز
البلاغه
البلدان
البوم
البومی
البیان
البیون
الت
التاریخ
التحصیل
التحصیلان
التحصیلی
التماس
التهاب
التهابی
التو
التواریخ
التون
الثانی
الجزایر
الجزایری
الجزیره
الحاق
الحاقی
الحدیث
الحسن
الحسین
الحق
الحکمة
الخاندرو
الخطاب
الد
الدوله
الدین
الذهب
الذکر
الر
الرجال
الرحمن
الرحیم
الرشید
الرضا
الرژی
الزام
الزاما
الزامات
الزامی
الزایمر
الزمان
الزهرا
الس
السالوادور
الساندرو
السلام
السلطان
السلطنه
السیر
الش
الشعرا
الشیخ
الشیعه
الص
الطبعة
العابدین
العاده
العالم
العدل
العرب
العربی
العربیة
العربیه
العظمی
العلماء
العمر
العمل
العین
الف
الفا
الفاظ
الفبا
الفبای
الفبایی
الفت
الفرد
الفردو
الق
القا
القاب
القاعده
القای
القایی
القدس
القران
الل
الله
اللهی
الم
الماس
المال
المان
المانی
المثل
المسلمین
المعارف
المقحفی
المقدس
الملل
المللی
الملوک
الملک
الممالک
المنافع
المهدی
الموت
المومنين
المومنین
المپیاد
المپیک
المیزان
الن
النا
الناس
النبي
النبی
النصر
النهار
النهرین
النور
اله
الهام
الهدی
الهلال
الهه
الهی
الهیات
الو
الواح
الوار
الود
الوده
الودگی
الوقوع
الومینیم
الومینیوم
الومینیومی
الوند
الویس
الوین
الى
الپ
الپاین
الک
الکامل
الکتاب
الکترو
الکترود
الکترولیت
الکترومغناطیس
الکترومغناطیسی
الکترون
الکترونی
الکترونیک
الکترونیکی
الکتریسیته
الکتریک
الکتریکی
الکس
الکساندر
الکساندرا
الکسی
الکسیوس
الکل
الکلی
الگو
الگوریتم
الگوریتمی
الگوها
الگوهای
الگوی
الگویی
الی
الیاس
الیاف
الیاژ
الیاژهای
الیاژی
الیزابت
الیس
الیسون
الین
الینا
الیه
الیوت
الیور
الیکایی
الیگودرز
ام
اما
اماتور
اماده
امادگی
امار
امارات
امارت
امارهای
اماری
امازون
امام
امامان
امامت
امامزاده
امامی
امامیه
امان
امانت
اماندا
امانويل
امانی
اماکن
امبروز
امبولانس
امت
امتحان
امتحانات
امتداد
امتناع
امتیاز
امتیازات
امتیازی
امثال
امد
امداد
امدادی
امدم
امدن
امدند
امده
امدی
امدید
امدیم
امر
امرا
امرار
امراض
امرای
امرداد
امرزش
امروز
امروزه
امروزی
امری
امریکا
امریکاست
امریکای
امریکایی
امریکن
امسال
امستردام
امشب
امضا
امضاء
امضای
امفی
امل
املاک
املش
املی
امن
امنای
امنی
امنیت
امنیتی
امواج
اموال
اموخت
اموختن
اموخته
اموختگان
امودریا
امور
امورخارجه
اموری
اموز
اموزان
اموزد
اموزش
اموزشگاه
اموزشی
اموزه
اموزگار
اموزگاران
اموزی
امون
امونیاک
امونیوم
اموی
امویان
امير
امپدانس
امپر
امپراتریس
امپراتور
امپراتوری
امپراطور
امپراطوری
امپریالیسم
امکان
امکانات
امکاناتی
امگا
امی
امیخته
امید
امیدوار
امیدوارم
امیدواری
امیدی
امیر
امیراباد
امیرالمومنین
امیران
امیرحسین
امیرعباس
امیرکبیر
امیری
امیز
امیزش
امیزه
امیزی
امیل
امیلی
امیلیا
امین
امینم
امینه
امینی
امیه
امیگا
ان
انا
اناتولی
اناتومی
انار
انارشیست
انارشیسم
انالوگ
انالیز
انان
اناهیتا
انبار
انبارها
انبارهای
انباشت
انباشته
انبساط
انبوه
انبوهی
انبیا
انت
انتاریو
انتالیا
انتحاری
انتخاب
انتخابات
انتخاباتی
انتخابی
انتخابیه
انترتینمنت
انتروپی
انتزاع
انتزاعی
انتساب
انتشار
انتشارات
انتشاراتی
انتصاب
انتصابات
انتظار
انتظارات
انتظام
انتظامی
انتقاد
انتقادات
انتقاداتی
انتقادی
انتقال
انتقالات
انتقالی
انتقام
انتن
انتها
انتهای
انتهایی
انتوان
انتورپ
انتون
انتونی
انتونیو
انتگرال
انتی
انتیوخوس
انجا
انجاست
انجام
انجامد
انجامید
انجایی
انجل
انجلا
انجلس
انجلو
انجماد
انجمن
انجمنهای
انجمنی
انجیر
انجیل
انجیلی
انحراف
انحرافی
انحصار
انحصاری
انحضرت
انحطاط
انحلال
اند
انداخت
انداختن
انداختند
انداخته
انداز
اندازد
اندازند
اندازه
اندازهای
اندازی
اندام
اندر
اندرا
اندرانیک
اندرتیکر
اندرز
اندرس
اندرسن
اندرسون
اندره
اندرو
اندروز
اندرون
اندروید
اندرکاران
اندری
اندریا
اندریاس
اندلس
اندوخته
اندود
اندورا
اندونزی
اندونزیایی
اندوه
اندک
اندکی
اندی
اندیس
اندیش
اندیشمند
اندیشمندان
اندیشه
اندیشی
اندیشیدن
اندیمشک
اندیکا
انرا
انروز
انرژی
انری
انریکه
انریکو
انزلی
انزوا
انزوای
انزیم
انزیمی
انس
انسان
انسانها
انسانی
انسانیت
انست
انستیتو
انستیتوی
انسجام
انسداد
انسولین
انسوی
انشاء
انشعاب
انصار
انصاری
انصاریان
انصاف
انصراف
انضباط
انضباطی
انضمام
انطاکیه
انطباق
انطور
انعام
انعطاف
انعقاد
انعکاس
انفجار
انفجاری
انفرادی
انفلوانزا
انفورماتیک
انقباض
انقدر
انقراض
انقضای
انقلاب
انقلابی
انقلابیون
انكه
انلاین
انه
انها
انهاست
انهایی
انهدام
انهم
انو
انوار
انواع
انور
انوری
انوشه
انوشیروان
انوقت
اني
انچ
انچنان
انچه
انک
انکار
انکارا
انکس
انکشاف
انکه
انگ
انگار
انگاری
انگاه
انگشت
انگشتان
انگل
انگلس
انگلستان
انگلیس
انگلیسی
انگه
انگور
انگولا
انگونه
انگیز
انگیزه
انگیزی
انی
انیتا
انیس
انیشتین
انیمه
انیمیشن
انیون
اه
اهالی
اهانت
اهتمام
اهدا
اهداف
اهدافی
اهدای
اهر
اهرم
اهری
اهریمن
اهسته
اهل
اهلی
اهم
اهمیت
اهمیتی
اهن
اهنگ
اهنگر
اهنگری
اهنگساز
اهنگسازان
اهنگسازی
اهنگی
اهنی
اهنین
اهو
اهواز
اهورامزدا
اهوی
اهک
اهکی
اهی
او
اوا
اواخر
اوار
اواره
اواز
اوازخوان
اوازه
اوازهای
اوازی
اواس
اواسط
اوان
اوانگاری
اوايل
اوای
اوایل
اوایی
اوباش
اوباما
اوبلاست
اوبونتو
اوت
اوتار
اوتو
اوتیسم
اوج
اوجی
اوحدی
اودا
اودسا
اور
اورا
اورارتو
اوراسیا
اوراق
اورال
اوران
اورانوس
اورانیوم
اوراکل
اوربیتال
اورتن
اورتون
اورد
اوردم
اوردن
اوردند
اورده
اورست
اورشلیم
اورم
اورنج
اورند
اورنده
اورنگ
اوره
اورژانس
اورگن
اوری
اورید
اوریل
اوریم
اورینت
اوزان
اوزون
اوساکا
اوست
اوستا
اوستایی
اوصاف
اوضاع
اوغلو
اوقات
اوقاف
اول
اولا
اولاد
اولد
اولدوز
اولریش
اولش
اوله
اولویت
اولگا
اولی
اولیای
اولین
اولیه
اولیور
اولیویا
اون
اونا
اونو
اونیل
اوه
اوهایو
اوون
اوپن
اوژن
اوک
اوکراین
اوکراینی
اوکلند
اوکی
اوکیناوا
اوگاندا
اوی
اویخته
اویز
اویزان
اویل
اویلر
اوین
اویو
اى
اي
ايتلاف
ايتلافی
ايد
ايران
ايشان
ايمه
اين
ايودی
ايین
ايینه
اپ
اپارات
اپارتمان
اپاچی
اپتیک
اپتیکی
اپرا
اپراتور
اپرای
اپل
اپلیکیشن
اپن
اپوزیسیون
اپوس
اپولو
اپی
اپیزود
اچ
اژانس
اژاکس
اژدر
اژدها
اژدهای
اژه
اک
اکادمی
اکادمیک
اکباتان
اکبر
اکبری
اکت
اکتاو
اکتبر
اکتشاف
اکتشافات
اکتشافی
اکتفا
اکثر
اکثرا
اکثریت
اکدی
اکران
اکراه
اکرم
اکس
اکسایش
اکستروژن
اکسفورد
اکسل
اکسپرس
اکسی
اکسید
اکسیداسیون
اکسیژن
اکشن
اکلاهما
اکنون
اکو
اکوادور
اکواریوم
اکورد
اکوستیک
اکوسیستم
اکی
اکیرا
اگاتا
اگاه
اگاهانه
اگاهی
اگر
اگرچه
اگه
اگهی
اگوست
اگوستوس
اگوستین
ای
ایا
ایات
ایالات
ایالت
ایالتی
ایام
ایان
ایبری
ایبنا
ایت
ایتالیا
ایتالیایی
ایتالیک
ایتم
ایتی
ایثار
ایجاب
ایجاد
اید
ایدا
ایداهو
ایدز
ایدل
ایده
ایديولوژی
ایديولوژیک
ایدین
ایذه
ایر
ایراد
ایران
ایرانشهر
ایرانی
ایرانیان
ایرانیکا
ایرباس
ایرج
ایرس
ایرلاینز
ایرلند
ایرلندی
ایرن
ایرنا
ایروان
ایرویز
ایزابل
ایزابلا
ایزاک
ایزد
ایزدان
ایزدبانوی
ایزدی
ایزو
ایزوتوپ
ایس
ایست
ایستا
ایستاد
ایستادن
ایستاده
ایستادگی
ایستد
ایستگاه
ایسلند
ایسلندی
ایسنا
ایشان
ایفا
ایفای
ایفون
ایل
ایلات
ایلام
ایلامی
ایلخانان
ایلخانی
ایلنا
ایلند
ایلی
ایلیا
ایلین
ایلینوی
ایم
ایمان
ایمانی
ایمن
ایمنا
ایمنی
ایمپلنت
ایمی
ایمیل
این
اینا
اینان
اینتر
اینتراخت
اینتراکتیو
اینترتینمنت
اینترنت
اینترنتی
اینترنشنال
اینتل
اینجا
اینجاست
اینجانب
اینحال
ایند
اینده
ایندی
ایندیانا
ایندیپندنت
اینرو
اینست
اینستاگرام
اینشتین
اینصورت
اینطور
اینقدر
اینه
اینها
اینهمه
اینو
اینچ
اینچنین
اینچی
اینک
اینکار
اینکه
اینگونه
ایه
ایو
ایوا
ایوان
ایوانز
ایوب
ایوبی
ایوبیان
ایول
ایووا
ایوی
ایپا
ایچ
ایچی
ایکايو
ایکس
ایگل
ایگور
ایی
ایین
ایینه
ایینی
ب
با
باارزش
بااین
باب
بابا
بابایی
بابت
بابر
بابل
بابلسر
بابلی
بابک
بابکان
بابی
بات
باتری
باتلاق
باتلر
باتوجه
باتیستا
باج
باخ
باخبر
باخت
باختر
باختری
باختند
باخته
باد
بادا
بادام
بادبان
بادبانی
بادمجان
بادن
باده
بادهای
بادگیر
بادی
بادیه
بار
باران
بارانی
باراک
باربادوس
باربارا
بارباروسا
باربد
باربر
باربری
بارت
بارتون
بارد
باردار
بارداری
بارز
بارزانی
بارسلون
بارسلونا
بارش
بارنت
بارندگی
بارنز
باره
بارها
بارهای
بارو
باروت
بارور
باروری
بارون
باروک
بارگاه
بارگذاری
بارگیری
باری
باریسال
باریک
باریکه
باریکی
باز
بازار
بازارها
بازارهای
بازارچه
بازاری
بازاریابی
بازافرینی
بازان
بازبینی
بازتاب
بازتابی
بازجویی
بازخوانی
بازخورد
بازدارنده
بازداشت
بازداشتگاه
بازده
بازدهی
بازدید
بازدیدکننده
بازدیدکنندگان
بازرس
بازرسان
بازرسی
بازرگان
بازرگانان
بازرگانی
بازسازی
بازشناسی
بازل
بازماند
بازمانده
بازماندگان
بازمی
بازنده
بازنشر
بازنشسته
بازنشستگی
بازنمایی
بازنویسی
بازنگری
بازه
بازهم
بازو
بازوی
بازپرداخت
بازپرس
بازپس
بازکردن
بازگرداند
بازگرداندن
بازگردانده
بازگردد
بازگردند
بازگشایی
بازگشت
بازگشتند
بازگشته
بازگشتی
بازگو
بازی
بازیابی
بازیافت
بازیباز
بازیها
بازیهای
بازیکن
بازیکنان
بازیکنانی
بازیکنی
بازیگر
بازیگران
بازیگرانی
بازیگری
باس
باستان
باستانی
باسورث
باسک
باش
باشد
باشم
باشند
باشه
باشکوه
باشگاه
باشگاهی
باشی
باشید
باشیم
باطل
باطن
باطنی
باعث
باغ
باغات
باغبان
باغبانی
باغداری
باغداساریان
باغستان
باغچه
باغی
بافت
بافته
بافتی
بافر
بافق
بافقی
بافندگی
بافی
باقر
باقری
باقی
باقیمانده
بال
بالا
بالاتر
بالاتری
بالاترین
بالاخانواده
بالاخره
بالاست
بالان
بالای
بالایی
بالتیمور
بالتیک
بالدوین
بالستیک
بالش
بالعکس
بالغ
بالقوه
بالله
باله
بالون
بالکان
بالگرد
بالی
بالین
بالینی
بالیوود
بام
بامداد
بامیان
بان
باند
باندهای
باندی
بانه
بانو
بانوان
بانوی
بانک
بانکدار
بانکداری
بانکوک
بانکی
بانگ
بانی
باهاما
باهم
باهنر
باهوش
باو
باواریا
باوجود
باور
باورند
باورها
باورهای
باوری
باي
بايد
باک
باکتری
باکتریایی
باکره
باکس
باکو
بای
بایت
باید
بایدن
بایر
بایرن
بایزید
بایست
بایستی
باین
باینری
بایگانی
بباید
ببخشد
ببر
ببرد
ببرند
ببری
ببرید
ببریم
ببندد
ببین
ببیند
ببینم
ببینند
ببینی
ببینید
ببینیم
بت
بتا
بتان
بتدریج
بتل
بتمن
بتن
بتنی
بتهوون
بتوان
بتواند
بتوانم
بتوانند
بتوانیم
بتی
بث
بجا
بجای
بجز
بجنورد
بجنوردی
بجهة
بحال
بحث
بحثی
بحر
بحران
بحرانی
بحری
بحرین
بخار
بخارا
بخارست
بخاری
بخاطر
بخانه
بخت
بختیار
بختیاری
بخرد
بخش
بخشد
بخشش
بخشنامه
بخشند
بخشنده
بخشهای
بخشی
بخشید
بخشیدن
بخشیده
بخصوص
بخوان
بخواند
بخوانند
بخوانید
بخواهد
بخواهند
بخواهید
بخواهیم
بخوبی
بخود
بخور
بخورد
بخورند
بخیر
بد
بدار
بدارد
بدان
بداند
بدانند
بدانید
بدانیم
بداهه
بدبخت
بدبختی
بدتر
بدترین
بدخشان
بدر
بدرفتاری
بدره
بدرود
بدست
بدعت
بدل
بدلیل
بدم
بدمینتون
بدن
بدنام
بدنبال
بدنسازی
بدنش
بدنه
بدنی
بده
بدهد
بدهم
بدهند
بدهی
بدهید
بدهیم
بدو
بدولت
بدون
بدوی
بدی
بدید
بدیع
بدیعی
بدیل
بدین
بدینسان
بدیهی
بذر
بر
برا
برابر
برابری
برات
براثر
برادر
برادران
برادرانش
برادرزاده
برادرش
برادرم
برادری
برادفورد
برادوی
برار
برارد
براساس
براق
برامد
برامدن
برامده
برامدگی
بران
براند
براندازی
برانگیخت
برانگیخته
برانگیز
براه
براهنی
براورد
براورده
براوردهای
براون
براى
براي
براک
برای
برایان
برایتون
براید
برایش
برایشان
برایم
براین
بربر
برت
برتر
برتراند
برتری
برترین
برتون
برج
برجام
برجای
برجسته
برجستگی
برجک
برجی
برحسب
برخاست
برخاستن
برخاستند
برخاسته
برخط
برخلاف
برخورد
برخوردار
برخوردارند
برخورداری
برخوردهای
برخوردی
برخی
برخیز
برخیزد
برد
بردار
بردارد
بردارند
بردارنده
برداری
برداشت
برداشتن
برداشتند
برداشته
برداشتی
بردسکن
بردسیر
بردلی
بردم
بردن
بردند
برده
بردگان
بردگی
بردی
بررسی
برروی
برزگر
برزیل
برزیلی
برس
برساند
برسانم
برسانند
برسد
برسند
برسیم
برش
برشا
برشمرد
برشمرده
برشی
برطبق
برطرف
برعهده
برعکس
برف
برفت
برفی
برق
برقرار
برقراری
برقعی
برقی
برلین
برم
برمن
برمه
برمی
برن
برنا
برنارد
برنامه
برنت
برنتفورد
برنج
برنجی
برند
برنده
برندهای
برندگان
برنز
برنزی
برنمی
برنی
بره
برهان
برهانی
برهم
برهمکنش
برهنه
برهنگی
برهه
برو
بروجرد
بروجردی
بروجن
برود
بروز
بروزرسانی
بروس
بروسیا
بروم
برومند
برون
بروند
برونو
برونيی
بروک
بروکس
بروکسل
بروکلین
بروی
بروید
برویم
برپا
برپایه
برپایی
برچسب
برچسپ
برچیده
برک
برکت
برکلی
برکنار
برکناری
برکه
برگ
برگر
برگردان
برگرداند
برگردانده
برگردد
برگرفته
برگزار
برگزاری
برگزید
برگزیدند
برگزیده
برگزیدگان
برگشت
برگشته
برگشتی
برگن
برگه
برگی
برگیرنده
بری
بریان
بریتانیا
بریتانیای
بریتانیایی
بریتانیکا
بریتنی
بریتیش
بریج
برید
بریدن
بریده
بریزد
بریزید
بریستول
بریل
بریم
برین
برینز
بز
بزبان
بزرگ
بزرگان
بزرگتر
بزرگترش
بزرگتری
بزرگترین
بزرگداشت
بزرگراه
بزرگسال
بزرگسالان
بزرگسالی
بزرگش
بزرگمهر
بزرگوار
بزرگی
بزم
بزن
بزند
بزنم
بزنند
بزنید
بزنیم
بزودی
بس
بسا
بسازد
بسازند
بساط
بسامد
بسان
بست
بستان
بستر
بسترهای
بستری
بستن
بستند
بستنی
بسته
بستک
بستکی
بستگان
بستگی
بسر
بسزایی
بسط
بسطامی
بسم
بسنده
بسوی
بسيار
بسپار
بسکتبال
بسی
بسیار
بسیاری
بسیج
بسیجی
بشار
بشارت
بشدت
بشر
بشرح
بشردوستانه
بشری
بشریت
بشقاب
بشمار
بشناسد
بشنو
بشنود
بشه
بشود
بشوند
بشکند
بشکه
بشیر
بصره
بصری
بصورت
بصیرت
بطرف
بطری
بطلمیوس
بطن
بطور
بطوری
بطوریکه
بعث
بعثت
بعد
بعدا
بعدازظهر
بعدتر
بعدها
بعدی
بعرض
بعض
بعضا
بعضی
بعلاوه
بعلت
بعمل
بعنوان
بعهده
بعید
بغداد
بغدادی
بغل
بغلان
بفتا
بفتای
بفرستد
بفرستند
بفرمايید
بفرمایند
بفرمایید
بفروشد
بقا
بقايی
بقای
بقایای
بقایی
بقتل
بقره
بقعه
بقیه
بكر
بل
بلا
بلاد
بلاروس
بلاروسی
بلاش
بلاغ
بلاغت
بلاغی
بلافاصله
بلال
بلاک
بلاگ
بلای
بلبل
بلخ
بلخی
بلد
بلدرچین
بلده
بلدیه
بلر
بلشویک
بلغارستان
بلغاری
بلقیس
بلكه
بلند
بلندای
بلندتر
بلندترین
بلندمدت
بلندپایه
بلندی
بله
بلو
بلوار
بلور
بلورهای
بلوری
بلورین
بلوز
بلوط
بلوغ
بلوم
بلومبرگ
بلوچ
بلوچستان
بلوچی
بلوک
بلوکی
بلژیک
بلژیکی
بلک
بلکبرن
بلکه
بلگراد
بلی
بلیت
بلیز
بلیط
بلیک
بم
بما
بماند
بمانند
بمب
بمباران
بمبيی
بمجلس
بمعنی
بمل
بمن
بموجب
بمپور
بمیرد
بن
بنا
بناب
بنابر
بنابراین
بنادر
بنام
بنان
بناها
بناهای
بناپارت
بنای
بنایی
بنت
بنجامین
بند
بندان
بندد
بندر
بندرعباس
بندرگاه
بندری
بندند
بنده
بندهای
بندپی
بندگان
بندگی
بندی
بندیکت
بنز
بنزن
بنزین
بنزینی
بنشین
بنشیند
بنظر
بنفش
بنفشه
بنفیکا
بنماید
بنه
بنو
بنویسد
بنویسند
بنک
بنکس
بنگ
بنگال
بنگالی
بنگاه
بنگر
بنگرید
بنگلادش
بنی
بنیاد
بنیادی
بنیادین
بنیامین
بنیان
بنیانگذار
بنیانگذاران
بنیانگذاری
بنین
به
بها
بهاءالدین
بهاءالله
بهادار
بهادر
بهادری
بهار
بهارستان
بهارلو
بهاره
بهاروند
بهاری
بهانه
بهايی
بهايیان
بهای
بهایی
بهبهان
بهبهانی
بهبود
بهبودی
بهت
بهتر
بهتری
بهترین
بهجت
بهداری
بهداشت
بهداشتی
بهر
بهرام
بهرامی
بهره
بهروز
بهزاد
بهزادی
بهزیستی
بهسازی
بهش
بهشت
بهشتی
بهشهر
بهم
بهمان
بهمراه
بهمن
بهمنی
بهميی
بهمین
بهنام
بهینه
بهیچوجه
بو
بواسطه
بوت
بوتان
بوتسوانا
بوته
بوجود
بود
بودا
بوداپست
بودایی
بودجه
بودم
بودن
بودند
بودنش
بوده
بودی
بودید
بودیسم
بودیم
بور
بورد
بوردو
بورس
بورسیه
بورلی
بورن
بورو
بورژوازی
بورکینافاسو
بورکینافاسوی
بوریس
بوس
بوستان
بوستون
بوسنی
بوسنیایی
بوسه
بوسیله
بوش
بوشهر
بوعلی
بوف
بوفالو
بول
بولتن
بولتون
بولونیا
بولی
بولیوار
بولیوی
بوم
بومی
بومیان
بون
بوندس
بوندسلیگا
بوهم
بوينوس
بويین
بويینگ
بوک
بوکا
بوکان
بوکر
بوکس
بوکسور
بوی
بویایی
بویراحمد
بویز
بویل
بویه
بویژه
بویی
بي
بيان
بيت
بين
بپذیرد
بپذیرند
بپردازد
بپردازند
بپزد
بپیوندد
بچه
بک
بکار
بکارگیری
بکر
بکش
بکشد
بکشند
بکلی
بکن
بکند
بکنم
بکنند
بکنید
بکنیم
بگ
بگذار
بگذارد
بگذارند
بگذارید
بگذاریم
بگذرد
بگذشت
بگرفت
بگریزد
بگفت
بگو
بگوی
بگوید
بگویم
بگویند
بگویید
بگوییم
بگیر
بگیرد
بگیرم
بگیرند
بگیرید
بگیریم
بی
بیا
بیابان
بیابانی
بیابد
بیابند
بیات
بیاد
بیار
بیامد
بیاموزد
بیان
بیانات
بیانگر
بیانی
بیانیه
بیاورد
بیاورند
بیاورید
بیاید
بیایند
بیایید
بیبی
بیت
بیتلز
بیتی
بیجار
بیخ
بید
بیداد
بیدار
بیداری
بیدل
بیدگل
بیدی
بیر
بیرانوند
بیرجند
بیرمنگام
بیروت
بیرون
بیرونی
بیزار
بیزانس
بیزانسی
بیس
بیسبال
بیست
بیستم
بیستمین
بیستون
بیسمارک
بیش
بیشتر
بیشتری
بیشترین
بیشه
بیشینه
بیضا
بیضایی
بیضه
بیضوی
بیضی
بیع
بیعت
بیفتد
بیل
بیلبايو
بیلبورد
بیله
بیلی
بیم
بیمار
بیماران
بیمارانی
بیمارستان
بیمارستانی
بیماری
بیماریهای
بیمه
بین
بینا
بینایی
بیند
بیندازد
بیندازند
بینش
بینم
بینند
بیننده
بینندگان
بینی
بینید
بینیم
بیه
بیهق
بیهقی
بیهوده
بیهوش
بیهوشی
بیوتکنولوژی
بیوتیک
بیوشیمی
بیولوژیک
بیولوژیکی
بیوه
بیوک
بیوگرافی
بیچ
بیچاره
بیژن
بیک
بیکار
بیکاری
بیکر
بیکن
بیکینی
بیگ
بیگانه
بیگانگان
بیگدلی
بیگم
بیگی
ة
ت
تا
تاب
تابان
تابد
تابستان
تابستانی
تابش
تابشی
تابع
تابعه
تابعی
تابعیت
تابلو
تابلوهای
تابلوی
تابناک
تابنده
تابه
تابوت
تابیده
تات
تاتار
تاتنهام
تاتی
تاتیانا
تاثیر
تاثیرات
تاثیرگذار
تاثیرگذارترین
تاثیرگذاری
تاثیری
تاج
تاجر
تاجران
تاجگذاری
تاجی
تاجیک
تاجیکستان
تاجیکی
تاخت
تاخیر
تاد
تادیه
تار
تارا
تاراج
تارخ
تارزان
تارنمای
تاريخ
تاری
تاریخ
تاریخچه
تاریخی
تاریک
تاریکی
تاز
تازه
تازگی
تازی
تازیانه
تاس
تاسف
تاسمانی
تاسیس
تاسیسات
تاش
تاشکند
تاق
تالاب
تالار
تالش
تالشی
تالکین
تالیف
تالیفات
تالین
تام
تامس
تامسون
تامل
تامپسون
تامی
تامیل
تامین
تان
تانزانیا
تانک
تانگ
تاو
تاون
تاویل
تايید
تاپ
تاک
تاکتیک
تاکتیکی
تاکدا
تاکستان
تاکسی
تاکنون
تاکی
تاکید
تای
تایتان
تایتانیک
تایر
تایرا
تایلر
تایلند
تایلندی
تایم
تایمز
تایوان
تایپ
تایی
تایید
تب
تبادل
تبار
تباران
تبانی
تباه
تباهی
تبت
تبتی
تبخیر
تبدیل
تبر
تبرستان
تبريه
تبری
تبریز
تبریزی
تبریک
تبصره
تبع
تبعه
تبعیت
تبعید
تبعیدی
تبعیض
تبلت
تبلور
تبلیغ
تبلیغات
تبلیغاتی
تبلیغی
تبیان
تبیین
تثبیت
تثلیث
تجار
تجارب
تجارت
تجارتی
تجاری
تجاوز
تجدد
تجدید
تجدیدنظر
تجدیدپذیر
تجربه
تجربی
تجربیات
تجریش
تجزیه
تجسم
تجسمی
تجلی
تجلیل
تجمع
تجمعات
تجمعی
تجمیع
تجهیز
تجهیزات
تجویز
تحت
تحتانی
تحرک
تحریر
تحریریه
تحریف
تحریم
تحریک
تحسین
تحصن
تحصیل
تحصیلات
تحصیلاتش
تحصیلی
تحفه
تحقق
تحقیر
تحقیق
تحقیقات
تحقیقاتی
تحقیقی
تحلیف
تحلیل
تحلیلگر
تحلیلی
تحمل
تحمیل
تحمیلی
تحول
تحولات
تحولی
تحویل
تحکیم
تخت
تخته
تختی
تخریب
تخصص
تخصصی
تخصیص
تخفیف
تخلخل
تخلص
تخلف
تخلفات
تخلیه
تخم
تخمدان
تخمک
تخمیر
تخمین
تخمینی
تخیل
تخیلی
تد
تدابیر
تداخل
تدارک
تدارکات
تدارکاتی
تداعی
تداوم
تدبیر
تدریج
تدریجا
تدریجی
تدریس
تدفین
تدوین
تذکر
تذکره
تر
ترا
ترابری
ترابی
تراز
ترازنامه
تراست
تراش
تراشه
تراشی
تراشیده
ترافیک
ترافیکی
تراموا
ترامپ
ترانزیت
ترانزیستور
ترانس
ترانسفورماتور
ترانه
تراژدی
تراکتور
تراکتورسازی
تراکم
تراکنش
تربت
تربیت
تربیتی
ترتیب
ترتیبات
ترتیبی
ترجمان
ترجمه
ترجیح
ترد
تردد
تردید
تردیدی
ترزا
ترس
ترسد
ترسم
ترسناک
ترسی
ترسید
ترسیم
ترش
ترشح
ترشحات
ترشی
ترغیب
ترفیع
ترقی
ترم
ترمز
ترمودینامیک
ترمودینامیکی
ترمیم
ترمینال
ترنج
ترند
ترنر
ترنس
ترنسفرمارکت
تره
تروا
ترور
تروریست
تروریستی
تروریسم
ترومن
تروی
ترویج
ترک
ترکان
ترکستان
ترکمان
ترکمن
ترکمنستان
ترکمنی
ترکه
ترکی
ترکیب
ترکیبات
ترکیبی
ترکیه
تری
تریاک
تریبون
تریسی
تریل
تریلر
تریلیون
ترین
ترینیتی
ترینیداد
تریپل
تز
تزار
تزاری
تزریق
تزریقی
تزيین
تزيینات
تزيینی
تزیین
تزیینات
تزیینی
تساوی
تسبیح
تست
تسخیر
تسریع
تسلا
تسلط
تسلیت
تسلیحات
تسلیحاتی
تسلیم
تسمه
تسمیه
تسنن
تسنیم
تسهیل
تسهیلات
تسویه
تسکین
تشابه
تشبیه
تشخیص
تشخیصی
تشدید
تشریح
تشریف
تشریفات
تشریفاتی
تشعشع
تشنج
تشنه
تشنگی
تشویش
تشویق
تشکر
تشکل
تشکیل
تشکیلات
تشکیلاتی
تشیع
تشییع
تصاحب
تصادف
تصادفی
تصاویر
تصاویری
تصحیح
تصدی
تصدیق
تصرف
تصریح
تصفیه
تصمیم
تصمیمات
تصمیمی
تصنیف
تصور
تصورات
تصوف
تصویب
تصویر
تصویربرداری
تصویرسازی
تصویرگر
تصویرگری
تصویری
تضاد
تضعیف
تضمین
تطابق
تطبیق
تطبیقی
تظاهر
تظاهرات
تظاهرکنندگان
تعادل
تعادلی
تعارض
تعاریف
تعالى
تعالی
تعالیم
تعامل
تعاملات
تعاملی
تعاون
تعاونی
تعبیر
تعبیه
تعجب
تعداد
تعدادی
تعدد
تعدیل
تعرض
تعرفه
تعریف
تعریفی
تعزیری
تعزیه
تعصب
تعطیل
تعطیلات
تعطیلی
تعظیم
تعقیب
تعلق
تعلیق
تعلیم
تعلیمات
تعمید
تعمیر
تعمیرات
تعمیم
تعهد
تعهدات
تعویض
تعویق
تعیین
تغذیه
تغییر
تغییرات
تغییراتی
تغییری
تف
تفاسیر
تفاضل
تفاهم
تفاوت
تفاوتی
تفت
تفتان
تفتیش
تفحص
تفرجگاه
تفرش
تفرقه
تفریح
تفریحی
تفسیر
تفسیرهای
تفسیری
تفصیل
تفصیلی
تفضلی
تفضیلی
تفلیس
تفنگ
تفنگدار
تفنگداران
تفویض
تفکر
تفکرات
تفکیک
تقابل
تقارن
تقاضا
تقاضای
تقاطع
تقدم
تقدیر
تقدیم
تقریب
تقریبا
تقریبی
تقریر
تقسیم
تقسیمات
تقصیر
تقطیر
تقلب
تقلبی
تقلید
تقلیدی
تقلیل
تقوایی
تقوی
تقویت
تقویم
تقی
تل
تلاش
تلاشی
تلافی
تلاقی
تلاوت
تلخ
تلخی
تلسکوپ
تلف
تلفات
تلفظ
تلفن
تلفنی
تلفیق
تلفیقی
تلقی
تلمبه
تلمود
تله
تلویزیون
تلویزیونی
تلگراف
تلگرافی
تلگرام
تم
تماس
تماسی
تماشا
تماشاخانه
تماشاگر
تماشاگران
تماشای
تمام
تماما
تمامی
تمامیت
تمایز
تمایل
تمایلات
تمایلی
تمبر
تمثیل
تمجید
تمدن
تمدنی
تمدید
تمرکز
تمرین
تمرینات
تمرینی
تمساح
تمسخر
تمشک
تملک
تمکین
تمیز
تن
تناسب
تناسلی
تناقض
تناوب
تناوبی
تنباکو
تنبل
تنبور
تنبک
تنبیه
تند
تندر
تندرو
تندی
تندیس
تنزل
تنسور
تنسی
تنش
تنظیم
تنظیمات
تنفر
تنفس
تنفسی
تنم
تنه
تنها
تنهایی
تنور
تنوع
تنکابن
تنکابنی
تنگ
تنگستان
تنگستن
تنگه
تنگی
تنی
تنیده
تنیس
ته
تهاجم
تهاجمی
تهدید
تهدیدات
تهدیدهای
تهدیدی
تهذیب
تهران
تهرانی
تهماسب
تهمت
تهوع
تهویه
تهی
تهیه
تو
توابع
تواریخ
توازن
توافق
توافقنامه
توافقی
توالت
توالی
توام
توان
توانا
توانایی
توانبخشی
تواند
توانست
توانستم
توانستند
توانسته
توانم
توانمند
توانمندی
توانند
توانی
توانید
توانیم
توباگو
توبه
توت
توتون
توجه
توجهی
توجیه
توحید
توحیدی
توخالی
توده
تور
تورات
توران
توربو
توربین
تورج
تورس
تورم
تورنتو
تورنمنت
توره
تورهای
تورو
توری
توریست
توریستی
تورین
تورینو
تورینگ
توزیع
توس
توست
توسط
توسعه
توسل
توسلی
توسی
توشیح
توصیف
توصیفی
توصیه
توضیح
توضیحات
توضیحاتی
توضیحی
توطيه
توفان
توفیق
توقع
توقف
توقیف
تول
تولد
تولدش
توله
تولوز
تولیت
تولید
تولیدات
تولیدکننده
تولیدکنندگان
تولیدی
توماس
تومان
تومانی
تومور
تومورهای
تومیتوز
تون
تونس
تونل
تونی
توهم
توهین
تويی
تويیتر
توپ
توپخانه
توپولف
توپولوژی
توپوگرافی
توپی
توکل
توکلی
توکوگاوا
توکیو
توگو
توی
تویسرکان
تویوتا
تویوتومی
تویی
توییتر
تياتر
تياتری
تيودور
تيوری
تپانچه
تپش
تپه
تپوری
تک
تکاب
تکالیف
تکامل
تکاملی
تکان
تکانه
تکثیر
تکذیب
تکرار
تکراری
تکفیر
تکلم
تکلیف
تکمیل
تکمیلی
تکن
تکنولوژی
تکنیک
تکنیکی
تکه
تکواندو
تکواندوکار
تکوین
تکی
تکیه
تگ
تگزاس
تی
تیت
تیتانیوم
تیتر
تیتراژ
تیر
تیرانداز
تیراندازی
تیراژ
تیرباران
تیرماه
تیره
تیرهای
تیرويید
تیرگی
تیری
تیز
تیزر
تیزی
تیسفون
تیغ
تیغه
تیغی
تیل
تیلور
تیم
تیمسار
تیمش
تیمهای
تیموتی
تیمور
تیمورتاش
تیموری
تیموریان
تیمی
تین
تینا
تیپ
تیک
تیگران
ث
ثابت
ثابتی
ثالث
ثانوی
ثانویه
ثانی
ثانیا
ثانیه
ثبات
ثباتی
ثبت
ثبتی
ثروت
ثروتمند
ثروتمندان
ثروتمندترین
ثریا
ثقفی
ثلاث
ثلث
ثم
ثمر
ثمره
ثواب
ثور
ج
جا
جابجا
جابجایی
جابر
جابز
جابه
جات
جاجرم
جاده
جادو
جادوگر
جادوگران
جادوگری
جادوی
جادویی
جاذب
جاذبه
جاری
جاز
جاسازی
جاست
جاستین
جاسوس
جاسوسی
جاسک
جاش
جاشوا
جالب
جالبی
جام
جامايیکا
جامد
جامدات
جامع
جامعه
جامعی
جامه
جامی
جان
جانا
جاناتان
جانان
جانب
جانبازان
جانبه
جانبی
جانت
جاندار
جانداران
جانستون
جانسون
جانش
جانشین
جانشینان
جانشینی
جانم
جانور
جانوران
جانورانی
جانورشناسی
جانوری
جانگ
جانی
جاه
جاها
جاهای
جاهایی
جاهل
جاوا
جاودان
جاودانه
جاودانگی
جاوه
جاوید
جاویدان
جايی
جاکارتا
جای
جایز
جایزه
جایش
جایگاه
جایگاهی
جایگزین
جایگزینی
جایگشت
جایی
جاییکه
جبار
جباری
جبال
جبر
جبران
جبريیل
جبری
جبل
جبهه
جت
جثه
جد
جدا
جداره
جداسازی
جدال
جداول
جداکننده
جداگانه
جدای
جدایی
جدل
جده
جدول
جدی
جدیت
جدید
جدیدتر
جدیدترین
جدیدش
جدیدی
جذاب
جذابیت
جذب
جرات
جراح
جراحات
جراحت
جراحی
جرارد
جرالد
جرايم
جراید
جرایم
جرج
جردن
جرس
جرعه
جرقه
جرم
جرمی
جرگه
جری
جریان
جریانات
جریانی
جریب
جریر
جریمه
جز
جزء
جزا
جزای
جزایر
جزایری
جزر
جزو
جزوه
جزيی
جزيیات
جزیره
جزییات
جسارت
جست
جستجو
جستجوگر
جستجوی
جستن
جسته
جسد
جسم
جسمانی
جسمی
جسی
جسیکا
جشن
جشنواره
جشنی
جعبه
جعفر
جعفراباد
جعفری
جعفریان
جعل
جعلی
جغتای
جغد
جغرافی
جغرافیا
جغرافیايی
جغرافیای
جغرافیایی
جف
جفا
جفت
جفرسون
جفری
جل
جلا
جلال
جلالی
جلب
جلبک
جلد
جلدی
جلسات
جلسه
جلفا
جلو
جلوتر
جلوس
جلوه
جلوگیری
جلوی
جلویی
جلگه
جلیل
جلیلی
جم
جمادی
جماران
جماعت
جماعتی
جمال
جمالی
جماهیر
جمجمه
جمشید
جمشیدی
جمع
جمعا
جمعه
جمعی
جمعیت
جمعیتی
جملات
جمله
جمهور
جمهوری
جمهوریت
جمهوریخواه
جمیع
جمیل
جن
جناب
جنابعالی
جناح
جنازه
جنایات
جنایت
جنایتکار
جنایی
جنب
جنبش
جنبشی
جنبه
جنت
جنتی
جنجال
جنجالی
جندی
جنرال
جنس
جنسی
جنسیت
جنسیتی
جنوا
جنوب
جنوبگان
جنوبی
جنون
جنگ
جنگجو
جنگجوی
جنگجویان
جنگل
جنگلی
جنگنده
جنگهای
جنگی
جنگید
جنگیدن
جنگیدند
جنی
جنید
جنیفر
جنین
جنینی
جه
جهات
جهاد
جهادی
جهان
جهانگرد
جهانگردی
جهانگیر
جهانگیری
جهانی
جهانیان
جهت
جهتی
جهد
جهرم
جهرمی
جهش
جهل
جهنم
جو
جواب
جوابی
جواد
جوادی
جوار
جواز
جوامع
جوان
جوانا
جوانان
جوانترین
جوانمرد
جوانمردی
جوانه
جوانی
جواهر
جواهرات
جواهری
جوایز
جوایزی
جوجه
جوخه
جود
جودو
جودوکار
جودی
جودیت
جور
جوراب
جورج
جورجیا
جوری
جوزف
جوزپه
جوش
جوشکاری
جوشی
جولان
جولای
جولی
جولیا
جولیان
جون
جونز
جونگ
جونیور
جونیورز
جوهر
جوهری
جووانی
جويل
جوکر
جوی
جویا
جویان
جویانه
جویبار
جوید
جویس
جویم
جوین
جوینی
جویی
جک
جکسون
جکی
جگر
جگوار
جی
جیب
جیبوتی
جیبی
جیحون
جیرفت
جیرو
جیسون
جیغ
جیل
جیم
جیمز
جیمی
جین
جینا
جینی
جیوه
جیووانی
جیک
جیکوب
ح
حاتم
حاتمی
حاج
حاجب
حاجت
حاجی
حاد
حادثه
حارث
حاشیه
حاصل
حاصلخیز
حاصله
حاضر
حاضران
حافظ
حافظه
حال
حالا
حالات
حالت
حالتی
حالی
حالیکه
حامد
حامل
حامله
حاملگی
حامی
حامیان
حاوی
حايری
حايز
حاکم
حاکمان
حاکمیت
حاکی
حباب
حبس
حبوبات
حبیب
حبیبی
حت
حتما
حتمی
حتى
حتی
حج
حجاب
حجاج
حجاری
حجاز
حجازی
حجت
حجتی
حجر
حجره
حجم
حجمی
حجیم
حد
حداد
حدادعادل
حداقل
حداکثر
حدس
حدود
حدودا
حدودی
حديث
حدی
حدیث
حدیثی
حذر
حذف
حذفی
حر
حراج
حرارت
حرارتی
حراست
حرام
حرب
حرص
حرف
حرفه
حرفها
حرفی
حرم
حرمت
حروف
حرکات
حرکت
حرکتی
حریری
حریف
حریفان
حریق
حریم
حزب
حزبی
حس
حساب
حسابدار
حسابداران
حسابداری
حسابرسی
حسابی
حسادت
حساس
حساسیت
حسام
حسب
حسد
حسرت
حسن
حسنعلی
حسنی
حسگر
حسگرهای
حسی
حسیبی
حسین
حسینعلی
حسینقلی
حسینی
حسینیه
حشر
حشرات
حشره
حشمت
حشمتی
حصار
حصاری
حصر
حصول
حضار
حضرت
حضور
حضورش
حضوری
حفاری
حفاظ
حفاظت
حفاظتی
حفر
حفره
حفظ
حق
حقانی
حقایق
حقه
حقوق
حقوقدان
حقوقی
حقی
حقیقت
حقیقتا
حقیقی
حكم
حل
حلال
حلب
حلزون
حلق
حلقه
حلقوی
حلوا
حلی
حماس
حماسه
حماسی
حمام
حمایت
حمایتی
حمد
حمدالله
حمزه
حمص
حمل
حملات
حمله
حموی
حمید
حمیدرضا
حمیده
حمیدی
حمیدیه
حنا
حنایی
حنجره
حنفی
حوا
حوادث
حوادثی
حواری
حواس
حواشی
حواله
حوالی
حوت
حوثی
حور
حوزه
حوزوی
حوصله
حوض
حوضه
حوضچه
حوقل
حول
حومه
حک
حکام
حکاکی
حکایت
حکم
حکمت
حکمران
حکمرانی
حکمی
حکمیت
حکومت
حکومتش
حکومتی
حکیم
حکیمی
حی
حیا
حیات
حیاتی
حیاط
حیث
حیثیت
حیدر
حیدراباد
حیدری
حیدریه
حیران
حیرت
حیطه
حیف
حیفا
حیله
حین
حیوان
حیوانات
حیواناتی
حیوانی
خ
خاتم
خاتمه
خاتمی
خاتون
خاخام
خادم
خار
خارا
خارج
خارجه
خارجی
خاردار
خارش
خارق
خارک
خاری
خازن
خازنی
خاست
خاستگاه
خاش
خاص
خاصه
خاصی
خاصیت
خاطر
خاطرات
خاطراتش
خاطرنشان
خاطره
خاقان
خاقانی
خال
خالد
خالدار
خالص
خالصه
خالق
خالقی
خاله
خالی
خام
خامنه
خامه
خاموش
خاموشی
خامی
خان
خانات
خاندان
خانقاه
خانم
خانمان
خانه
خانواده
خانوادگی
خانوار
خانگی
خانی
خاور
خاوران
خاورمیانه
خاوری
خاویر
خاين
خاک
خاکستر
خاکستری
خاکسپاری
خاکی
خب
خبر
خبرانلاین
خبرنامه
خبرنگار
خبرنگاران
خبرنگاری
خبره
خبرها
خبرهای
خبرگان
خبرگزاری
خبری
ختم
ختنه
خجالت
خجسته
خدا
خدابنده
خداحافظ
خداحافظی
خداداد
خداست
خداوند
خدای
خدایا
خدایان
خدایی
خدشه
خدمات
خدماتی
خدمت
خدمتکار
خدمتی
خدمه
خدنگ
خدیجه
خر
خراب
خرابات
خرابه
خرابکاری
خرابی
خراج
خراسان
خراسانی
خراش
خرافات
خربزه
خرج
خرد
خرداد
خردسال
خردمند
خرده
خرس
خرسند
خرسندی
خرقه
خرم
خرما
خرمشاهی
خرمشهر
خرمن
خرمی
خروج
خروجی
خروس
خروش
خرچنگ
خرگوش
خرید
خریدار
خریداران
خریداری
خریده
خز
خزان
خزانه
خزر
خزش
خزنده
خزندگان
خزه
خزینه
خس
خسارات
خسارت
خسته
خستگی
خسرو
خسروانی
خسروی
خشایار
خشایارشا
خشت
خشتی
خشم
خشمگین
خشن
خشنود
خشونت
خشک
خشکسالی
خشکی
خصلت
خصم
خصمانه
خصوص
خصوصا
خصوصی
خصوصیات
خصوصیت
خصومت
خضر
خط
خطا
خطاب
خطابه
خطاها
خطاهای
خطای
خطایی
خطبه
خطر
خطرات
خطرناک
خطرناکی
خطری
خطه
خطوط
خطی
خطیب
خطیبی
خفاش
خفت
خفته
خفه
خفیف
خلا
خلاء
خلاص
خلاصه
خلاف
خلافت
خلاق
خلاقانه
خلاقیت
خلال
خلبان
خلبانان
خلبانی
خلج
خلخال
خلخالی
خلدون
خلع
خلعت
خلعتبری
خلف
خلفا
خلفای
خلفی
خلق
خلقت
خلقی
خلوت
خلوص
خليج
خلیج
خلیفه
خلیل
خلیلی
خم
خمار
خمر
خمسه
خمش
خمپاره
خمیده
خمیر
خمین
خمینی
خنثی
خنج
خنجر
خندان
خندد
خندق
خنده
خنک
خو
خواب
خوابگاه
خوابی
خوابیدن
خوابیده
خواجه
خواجو
خواجوی
خوار
خواران
خوارج
خوارزم
خوارزمشاه
خوارزمشاهیان
خوارزمی
خواری
خواست
خواستار
خواستم
خواستن
خواستند
خواسته
خواستگاری
خواص
خواف
خوان
خواند
خواندم
خواندن
خواندند
خواندنی
خوانده
خوانسار
خوانساری
خوانش
خوانم
خوانند
خواننده
خوانندگان
خوانندگی
خوانی
خوانیم
خوانین
خواه
خواهان
خواهد
خواهدشد
خواهر
خواهران
خواهرخوانده
خواهرزاده
خواهرش
خواهش
خواهم
خواهند
خواهی
خواهید
خواهیم
خوب
خوبان
خوبی
خود
خوداگاهی
خودت
خودتان
خودداری
خودرا
خودرو
خودروسازی
خودروها
خودروهای
خودروی
خودرویی
خودسرانه
خودش
خودشان
خودم
خودمان
خودمختار
خودمختاری
خودکار
خودکشی
خودگردان
خودی
خور
خوراک
خوراکی
خورخه
خورد
خوردم
خوردن
خوردند
خورده
خوردگی
خورش
خورشید
خورشیدگرفتگی
خورشیدی
خورم
خورند
خوری
خوریم
خوزستان
خوزه
خوسف
خوش
خوشاب
خوشبخت
خوشبختانه
خوشبختی
خوشتر
خوشحال
خوشحالی
خوشش
خوشمزه
خوشنویس
خوشنویسان
خوشنویسی
خوشه
خوشی
خوف
خولیو
خون
خونریزی
خونه
خونی
خونین
خوک
خوی
خویش
خویشاوند
خویشاوندان
خویشاوندی
خویشتن
خویی
خير
خی
خیابان
خیابانی
خیار
خیاط
خیاطی
خیال
خیالی
خیام
خیانت
خیبر
خیر
خیراباد
خیرالدین
خیراندیش
خیره
خیریه
خیز
خیزد
خیزش
خیس
خیل
خیلی
خیمه
د
دا
دابلیو
دات
داخل
داخله
داخلی
داد
دادخواست
دادرسی
دادستان
دادستانی
دادسرای
دادم
دادن
دادند
داده
دادگان
دادگاه
دادگاهی
دادگستری
دادی
دادیم
دار
دارا
داراب
داراست
دارالعلم
دارالفنون
داران
دارايی
دارای
دارایی
دارد
دارسی
دارم
دارن
دارند
دارنده
دارندگان
داره
دارو
داروخانه
داروسازی
داروها
داروهای
داروهایی
داروی
داروین
دارویی
دارچین
دارک
دارکوب
داری
دارید
داریم
داریوش
داس
داستان
داستانهای
داستانی
داش
داشت
داشتم
داشتن
داشتند
داشتنی
داشته
داشتی
داشتیم
داعش
داعی
داغ
داغستان
داغی
دال
دالاس
دالان
دالاهو
دالتون
دالی
دام
داماد
داماش
دامان
دامداری
دامغان
دامغانی
دامن
دامنه
دامپروری
دامپزشکی
دامی
دان
دانا
دانان
دانایی
دانته
داند
دانست
دانستم
دانستن
دانستند
دانسته
دانش
دانشجو
دانشجوی
دانشجویان
دانشجویی
دانشسرای
دانشمند
دانشمندان
دانشمندی
دانشنامه
دانشور
دانشکده
دانشگاه
دانشگاهی
دانشگاهیان
دانشی
دانشیار
دانل
دانلود
دانم
دانمارک
دانمارکی
دانند
دانه
دانوب
دانکن
دانگ
دانی
دانیال
دانید
دانیل
دانیم
داو
داود
داور
داوران
داوری
داوطلب
داوطلبان
داوطلبانه
داون
داوود
داوودی
داوکینز
داویت
داوید
دايرة
دايرةالمعارف
دايم
دايما
دايمی
داک
داکوتای
داگ
داگلاس
دای
دایان
دایانا
دایر
دایرةالمعارف
دایره
دایرکتوری
دایم
دایمی
دایناسور
دایناسورها
دایه
دایی
دبستان
دبستانی
دبلیو
دبلیودبلیويی
دبی
دبیر
دبیران
دبیرخانه
دبیرستان
دبیرستانی
دبیرکل
دبیری
دث
دجله
دخالت
دخانیات
دخت
دختر
دختران
دخترانه
دخترش
دخترها
دختری
دخل
دخمه
دخول
دخیل
ددلاین
در
دراز
درازا
درازای
درازمدت
درازی
درام
دراماتیک
درامد
درامدند
درامده
درامدهای
درامدی
درامر
درامز
دران
دراورد
دراوردن
دراوردند
دراورده
دراورند
دراویش
دراکولا
دراگون
دراید
دراین
درایو
درب
دربار
درباره
درباری
درباریان
دربارە
دربر
دربرابر
دربردارد
دربردارنده
دربرمی
دربرگیرنده
دربند
دربی
درت
درج
درجات
درجه
درحال
درحالی
درحالیکه
درخت
درختان
درختچه
درختی
درخشان
درخشانی
درخشش
درخشندگی
درخشید
درخصوص
درخواست
درخواستی
درخور
درد
دردسر
دردناک
دردهای
دردی
درز
درس
درسال
درست
درستی
درسدن
درسی
درش
درشت
درصد
درصدد
درصدی
درصورت
درصورتی
درفش
درم
درمان
درمانگاه
درمانی
درمورد
درمی
درمیان
درنتیجه
درنده
درنظر
درنقش
درنهایت
درنگ
دره
درها
درهای
درهم
درو
دروازه
درواقع
درود
دروس
دروغ
دروغین
درون
درونی
درویش
درویشان
درویشی
درپی
درک
درگاه
درگذشت
درگذشته
درگرفت
درگز
درگیر
درگیری
دری
دریا
دریاسالار
دریافت
دریافتند
دریافته
دریافتی
دریانوردی
دریاها
دریاهای
دریاچه
دریای
دریایی
دریغ
دریم
درین
دریچه
دریک
دز
دزد
دزدان
دزدی
دزدیده
دزفول
دسامبر
دست
دستار
دستان
دستاورد
دستاوردهای
دستخوش
دسترس
دسترسی
دستش
دستغیب
دستم
دستمال
دستمزد
دسته
دستور
دستورات
دستورالعمل
دستورها
دستورهای
دستوری
دستکاری
دستکش
دستکم
دستگاه
دستگاههای
دستگاهی
دستگیر
دستگیری
دستی
دستیابی
دستیار
دستیاران
دستیاری
دسیسه
دشت
دشتستان
دشتی
دشمن
دشمنان
دشمنی
دشنام
دشوار
دشوارتر
دشواری
دعا
دعاوی
دعای
دعوا
دعوای
دعوت
دعوی
دغدغه
دف
دفاتر
دفاع
دفاعی
دفتر
دفترچه
دفتری
دفع
دفعات
دفعه
دفن
دقایق
دقت
دقیق
دقیقا
دقیقه
دقیقی
دل
دلا
دلار
دلاری
دلال
دلالت
دلان
دلاور
دلاوری
دلايل
دلایل
دلایلی
دلبر
دلبستگی
دلت
دلتا
دلتای
دلخواه
دلدار
دلش
دلفان
دلفین
دلقک
دلم
دلمه
دلها
دلهره
دلو
دلپذیر
دلکش
دلگان
دلی
دلیجان
دلیر
دلیری
دلیل
دلیلی
دم
دما
دماغ
دماغه
دماهای
دماوند
دمای
دمایی
دمشق
دموکرات
دموکراتیک
دموکراسی
دمکرات
دمکراتیک
دمکراسی
دمی
دمیتری
دن
دنا
دنبال
دنباله
دندان
دندانه
دندانپزشکی
دندانی
دنده
دنور
دنيا
دنگ
دنی
دنیا
دنیاست
دنیاگیری
دنیای
دنیایی
دنیس
دنیل
دنیوی
ده
دهات
دهان
دهانه
دهانی
دهباشی
دهخدا
دهد
دهر
دهستان
دهستانی
دهقان
دهقانان
دهقانی
دهقی
دهل
دهلران
دهلوی
دهلی
دهلیز
دهم
دهمین
دهن
دهند
دهنده
دهندگان
دهنه
دهه
دهکده
دهی
دهیاری
دهید
دهیم
دو
دوا
دوار
دوازده
دوازدهم
دوازدهمین
دوام
دوان
دوانی
دوبار
دوباره
دوبعدی
دوبلاژ
دوبله
دوبلور
دوبلین
دوبی
دوتا
دوتایی
دوجانبه
دوحه
دوخت
دوخته
دود
دودمان
دودویی
دودکش
دودی
دور
دورافتاده
دوران
دورانت
دورانی
دوربین
دورتر
دورتموند
دوردست
دورنگار
دوره
دوروتی
دورود
دورگه
دوری
دورە
دوز
دوزخ
دوزی
دوس
دوسالانه
دوست
دوستان
دوستانش
دوستانه
دوستت
دوستدار
دوستداران
دوستش
دوستم
دوستی
دوسلدورف
دوش
دوشس
دوشنبه
دوشیزه
دوطرفه
دوغ
دوقطبی
دوقلو
دوقلوی
دول
دولت
دولتشاهی
دولتمردان
دولتهای
دولتی
دوم
دوما
دومش
دومی
دومین
دومینیک
دومینیکن
دون
دونالد
دونتسک
دونده
دونفره
دونور
دونگ
دويل
دوپامین
دوپینگ
دوچرخه
دوک
دوگان
دوگانه
دوگانگی
دوی
دوید
دویدن
دویست
دویل
دویچه
دين
ديگر
دپ
دپارتمان
دپورتیوو
دچار
دژ
دکارت
دکان
دکتر
دکترا
دکترای
دکتری
دکترین
دکستر
دکل
دکمه
دگذاری
دگر
دگرباشان
دگرگون
دگرگونی
دی
دیابت
دیار
دیاز
دیافراگم
دیالوگ
دیانا
دیانت
دیاکونوف
دیبا
دیباچه
دیتا
دیتالیا
دیترویت
دیجیتال
دیجیتالی
دید
دیدار
دیدارهای
دیداری
دیدبان
دیدم
دیدن
دیدند
دیدنی
دیده
دیدگان
دیدگاه
دیدگاهی
دیدگی
دیدی
دیدیم
دیر
دیرباز
دیرتر
دیروز
دیری
دیرین
دیرینه
دیرینگی
دیز
دیزل
دیزلی
دیزنی
دیزی
دیس
دیسک
دیشب
دیفرانسیل
دیل
دیلم
دیلمان
دیلمی
دیلن
دیلی
دیم
دیمیتری
دین
دینار
دینامو
دینامیک
دینامیکی
دینی
دیه
دیهیم
دیو
دیوار
دیواره
دیوارها
دیوارهای
دیواری
دیوان
دیواندره
دیوانه
دیوانگی
دیوانی
دیود
دیون
دیوی
دیوید
دیویس
دیپلم
دیپلمات
دیپلماتیک
دیپلماسی
دیک
دیکتاتور
دیکتاتوری
دیکسون
دیکشنری
دیگ
دیگر
دیگران
دیگرش
دیگری
دیگه
دیگو
ذ
ذات
ذاتا
ذاتی
ذبیح
ذخایر
ذخیره
ذرات
ذرت
ذره
ذكر
ذلك
ذهاب
ذهن
ذهنی
ذهنیت
ذوالفقار
ذوالفقاری
ذوب
ذوق
ذکر
ذی
ذیل
ر
را
راب
رابر
رابرت
رابرتز
رابرتس
رابرتسون
رابط
رابطه
رابه
رابی
رابین
رابینسون
راتن
راتگرز
راج
راجر
راجرز
راجع
راحت
راحتی
راد
رادار
راداری
رادی
رادیو
رادیواکتیو
رادیوفردا
رادیولوژی
رادیوی
رادیویی
رادیکال
راز
رازی
راس
راست
راستا
راستای
راستش
راسته
راستی
راستین
راسخ
راسخون
راسل
راسک
راسینگ
راش
راشد
راشل
راضی
رافايل
رالف
رالی
رالینز
رام
رامبل
رامسر
رامهرمز
رامون
رامی
رامین
ران
راند
راندمان
راندن
راندند
رانده
رانش
راننده
رانندگان
رانندگی
رانی
راه
راهب
راهبان
راهبرد
راهبردی
راهبه
راهرو
راهش
راهم
راهنما
راهنمای
راهنمایی
راهپیمایی
راهکار
راهکارهای
راهی
راهیابی
راهیان
راو
راور
راورز
راوی
راویان
رايول
راک
راکت
راکتور
راکتورهای
راکه
راکی
راگبی
رای
رایان
رایانش
رایانه
رایت
رایج
رایدر
رایزنی
رایس
رایش
رایلی
راین
رایگان
رب
ربا
رباب
ربات
رباتیک
رباط
رباعی
رباعیات
ربانی
ربایی
ربط
ربطی
ربع
ربودن
ربوده
ربکا
ربی
ربیع
ربیعی
رت
رتبه
رج
رجال
رجایی
رجب
رجبی
رجعت
رجل
رجوع
رجوی
رجینا
رحم
رحمان
رحمانه
رحمانی
رحمت
رحمتی
رحمی
رحیم
رحیمی
رخ
رخت
رخداد
رخدادهای
رخسار
رخش
رخشان
رخنه
رد
رده
ردپای
ردی
ردیابی
ردیف
رز
رزا
رزرو
رزم
رزمندگان
رزمی
رزن
رزیدنت
رزین
رس
رسا
رسالت
رساله
رسان
رسانا
رسانای
رسانایی
رساند
رساندن
رساندند
رسانده
رسانش
رسانند
رسانه
رسانی
رسانید
رسانیده
رسايل
رست
رستاخیز
رستاق
رستم
رستمی
رسته
رستوران
رستگاری
رسد
رسم
رسما
رسمی
رسمیت
رسند
رسوایی
رسوب
رسوبات
رسوبی
رسول
رسولان
رسولی
رسوم
رسی
رسید
رسیدم
رسیدن
رسیدند
رسیده
رسیدگی
رسیدیم
رسیم
رش
رشت
رشته
رشتی
رشد
رشدی
رشوه
رشک
رشید
رشیدی
رصد
رصدخانه
رصدی
رض
رضا
رضاخان
رضاشاه
رضاقلی
رضای
رضایت
رضایی
رضوان
رضوی
رضي
رضی
رطوبت
رعایا
رعایت
رعد
رعنا
رعیت
رغبت
رغم
رفاه
رفاهی
رفت
رفتار
رفتارها
رفتارهای
رفتاری
رفتم
رفتن
رفتند
رفته
رفتی
رفتیم
رفسنجان
رفسنجانی
رفع
رفعت
رفیع
رفیعی
رفیق
رقابت
رقابتی
رقاص
رقبای
رقص
رقصنده
رقم
رقمی
رقیب
رقیبان
رقیق
رقیه
رله
رم
رمان
رمانتیک
رمانی
رمز
رمزنگاری
رمزگذاری
رمزگشایی
رمزی
رمضان
رمضانی
رمی
رن
رنج
رنجبر
رنجرز
رنجور
رند
رنده
رندی
رنسانس
رنه
رنو
رنگ
رنگارنگ
رنگدانه
رنگرزی
رنگهای
رنگی
رنگین
ره
رها
رهایی
رهبر
رهبران
رهبری
رهسپار
رهنما
رهگذر
رهگیری
رهی
رو
روا
روابط
رواج
روادید
رواق
روال
روان
رواندا
روانسر
روانشناختی
روانشناس
روانشناسی
روانه
روانپزشکی
روانکاوی
روانی
روايت
روایات
روایاتی
روایت
روایتی
روایی
روباز
روبان
روباه
روبر
روبرت
روبرتو
روبرو
روبروی
روبن
روبه
روبی
روبین
روت
روتور
روث
روح
روحانی
روحانیان
روحانیت
روحانیون
روحی
روحیه
رود
رودان
رودبار
رودخانه
رودریگز
رودریگو
رودز
رودسر
رودلف
روده
رودها
رودهای
رودولف
رودکی
رودی
روز
روزافزون
روزانه
روزبه
روزرسانی
روزمره
روزن
روزنامه
روزنه
روزه
روزها
روزهای
روزولت
روزگار
روزگاران
روزگاری
روزی
روس
روسای
روستا
روستاها
روستاهای
روستای
روستایی
روستاییان
روسری
روسها
روسو
روسپی
روسی
روسیه
روش
روشن
روشنایی
روشنفکر
روشنفکران
روشنفکری
روشنگری
روشنی
روشهای
روشی
روضه
روغن
روغنی
رول
رولان
رولز
رولینگ
روم
رومانی
رومانیایی
رومن
روميو
رومی
رومیان
رومیزی
رون
رونالد
رونالدو
روند
رونده
روندی
رونق
رونمایی
رونوشت
رونویسی
رونی
رويینگ
روکش
روی
رویا
رویارویی
رویال
رویان
رویاها
رویاهای
رویای
رویایی
رویت
رویترز
روید
رویداد
رویدادها
رویدادهای
رویدادهایی
رویدادی
رویس
رویش
رویم
رویه
رویکرد
رویکردهای
رویکردی
رویی
ريال
ريالیسم
ريوس
رييس
ريیس
ريیسه
ريیسی
رپ
رپر
رژه
رژیم
رک
رکاب
رکس
رکن
رکود
رکورد
رکورددار
رکوردز
رکوردهای
رگ
رگرسیون
رگه
ری
ریا
ریاحی
ریاست
ریاض
ریاضت
ریاضی
ریاضیات
ریاضیاتی
ریاضیدان
ریال
ریالی
ریتا
ریتم
ریتمیک
ریج
ریحان
ریحانه
ریخت
ریختن
ریختند
ریخته
رید
ریز
ریزد
ریزش
ریزشگاه
ریزند
ریزه
ریزی
ریزیم
ریس
ریسمان
ریسه
ریسک
ریش
ریشارد
ریشتر
ریشه
ریف
ریل
ریلی
ریم
ریموند
ریمیکس
رین
رینز
رینولدز
رینگ
ریه
ریو
ریور
ریوز
ریوی
ریپورتر
ریچ
ریچارد
ریچاردسون
ریچل
ریچموند
ریچی
ریک
ریکاردو
ریکی
ریگ
ریگان
ریگی
رییس
ز
زا
زابل
زاد
زادروز
زاده
زادگان
زادگاه
زادگاهش
زار
زارع
زارعی
زاری
زاغ
زاغه
زال
زامبی
زامبیا
زان
زانو
زانک
زانکه
زاهد
زاهدان
زاهدی
زاویه
زايد
زايده
زايران
زاکانی
زاکسن
زاگرب
زاگرس
زای
زاید
زایش
زایمان
زاینده
زایی
زباله
زبان
زبانان
زبانشناسی
زبانه
زبانهای
زبانی
زبر
زبیر
زحل
زحمات
زحمت
زخم
زخمی
زخمیان
زد
زدایی
زدم
زدن
زدند
زده
زدگان
زدگی
زدی
زر
زراعت
زراعتی
زراعی
زرتشت
زرتشتی
زرتشتیان
زرد
زردالو
زردشت
زرده
زردچوبه
زردی
زرشک
زرق
زرند
زره
زرهی
زرکلی
زرگر
زری
زریاب
زرین
زشت
زشتی
زعفران
زغال
زلال
زلزله
زلف
زلفت
زلیخا
زم
زمام
زمامداری
زمان
زمانه
زمانی
زمانیکه
زمره
زمزمه
زمستان
زمستانی
زمین
زمینه
زمینهای
زمینی
زن
زنا
زناشویی
زنان
زنانه
زنانی
زنبق
زنبور
زنجان
زنجانی
زنجیر
زنجیره
زند
زندان
زندانی
زندانیان
زنده
زندگانی
زندگی
زندگیش
زندگینامه
زندی
زندیه
زنش
زنم
زنند
زننده
زنهار
زنگ
زنگبار
زنگنه
زنگی
زنی
زنیم
زه
زهد
زهر
زهرا
زهره
زهری
زهک
زهکشی
زهی
زو
زوار
زوال
زوایای
زوج
زود
زودتر
زودرس
زودهنگام
زودی
زور
زورخانه
زوریخ
زون
زير
زيرا
زيوس
زک
زکات
زکریا
زکی
زی
زیاد
زیاده
زیادی
زیار
زیارت
زیارتگاه
زیارتی
زیاری
زیان
زیب
زیبا
زیباترین
زیباست
زیبای
زیبایی
زیبد
زیتون
زید
زیدی
زیر
زیرا
زیربنای
زیربنایی
زیرخانواده
زیردریایی
زیرراسته
زیرزمین
زیرزمینی
زیرساخت
زیرشاخه
زیرمجموعه
زیرنظر
زیرنویس
زیره
زیرک
زیرگروه
زیرگونه
زیرین
زیست
زیستن
زیستند
زیسته
زیستگاه
زیستی
زیمبابوه
زین
زینب
زینت
زینتی
زیور
س
سا
ساب
سابق
سابقا
سابقش
سابقه
ساتراپ
ساتراپی
ساحل
ساحلی
ساخت
ساختار
ساختارها
ساختارهای
ساختاری
ساختمان
ساختمانهای
ساختمانی
ساختن
ساختند
ساخته
ساختگی
ساختی
سادات
ساده
سادگی
سار
سارا
ساراگوسا
سارایوو
سارتر
ساروج
سارگسیان
ساری
ساز
سازان
سازد
سازش
سازم
سازمان
سازماندهی
سازمانهای
سازمانی
سازند
سازنده
سازندگان
سازندگی
سازه
سازها
سازهای
سازوکار
سازگار
سازگاری
سازی
ساسان
ساسانی
ساسانیان
ساسکاچوان
ساشا
ساطع
ساعات
ساعاتی
ساعت
ساعته
ساعتی
ساعد
ساعدی
ساعی
ساغر
سافت
ساق
ساقط
ساقه
ساقی
سال
سالاد
سالار
سالاری
سالانه
سالت
سالخورده
سالروز
سالم
سالمندان
سالن
سالنامه
ساله
سالها
سالهای
سالوادور
سالک
سالگرد
سالگی
سالی
سالیان
سالیانه
سالیوان
سام
سامان
سامانتا
ساماندهی
سامانه
سامانی
سامانیان
سامانە
سامر
سامرا
سامسونگ
سامورایی
سامويل
سامی
سان
سانان
سانت
سانتا
سانتاندر
سانتوس
سانتی
سانتیاگو
سانتیمتر
سانتیگراد
سانحه
ساندرا
ساندرلند
ساندویچ
سانسور
سانسکریت
سانفرانسیسکو
سانچز
سانگ
سانی
ساواک
ساوت
ساوجبلاغ
ساوجی
ساوه
سايو
سايوپايولو
ساچمه
ساک
ساکت
ساکس
ساکن
ساکنان
ساکنین
سای
سایبری
سایت
ساید
سایر
سایرین
سایز
سایش
سایمون
ساینده
سایه
سایوز
سایپا
سبا
سباستین
سبب
سبحان
سبحانی
سبد
سبز
سبزه
سبزوار
سبزواری
سبزی
سبزیجات
سبقت
سبک
سبکی
سبیل
ست
ستاد
ستار
ستارخان
ستاره
ستارگان
ستاری
ستان
ستایش
ستد
ستم
ستوان
ستوده
ستون
ستونی
ستی
ستیز
ستیزه
ستیزی
سجاد
سجادی
سجده
سحابی
سحر
سحرگاه
سخت
سختی
سخن
سخنان
سخنانی
سخنران
سخنرانی
سخنوران
سخنگو
سخنگوی
سخنی
سد
سدان
سده
سدهای
سدی
سدیم
سر
سرا
سراب
سراج
سرازیر
سراسر
سراسری
سراغ
سراغاز
سرافراز
سرامد
سرامیک
سرامیکی
سران
سرانجام
سرانه
سراوان
سرای
سرایان
سرایت
سرایی
سرب
سرباز
سربازان
سربازی
سربداران
سربی
سربیشه
سرت
سرتاسر
سرتیپ
سرجیو
سرحد
سرحدی
سرخ
سرخرگ
سرخس
سرخه
سرخپوستان
سرخی
سرد
سردار
سرداران
سرداری
سردبیر
سردبیری
سردر
سردرد
سردرگمی
سردسیر
سردشت
سرده
سردی
سرریز
سرزمین
سرزمینی
سرزنش
سرسبز
سرسخت
سرش
سرشار
سرشت
سرشماری
سرشناس
سرشناسی
سرطان
سرطانی
سرعت
سرعتی
سرعنوان
سرفه
سرقت
سرلشکر
سرم
سرما
سرماخوردگی
سرمای
سرمایش
سرمایه
سرمربی
سرمست
سرمقاله
سرمه
سرنا
سرنشین
سرنشینان
سرنوشت
سرنگون
سرنگونی
سره
سرهنگ
سرو
سروان
سرواژه
سروتونین
سرود
سرودن
سروده
سرودهای
سرور
سرورهای
سروری
سروستان
سروش
سروکار
سرویس
سرپرست
سرپرستی
سرپل
سرپوشیده
سرپیچی
سرچشمه
سرژ
سرکار
سرکش
سرکشی
سرکنسولگری
سرکه
سرکوب
سرگذشت
سرگرد
سرگردان
سرگرم
سرگرمی
سرگشاده
سرگشته
سرگيی
سرگی
سرگیجه
سری
سریال
سریالی
سریانی
سریر
سریع
سریعا
سریعتر
سریلانکا
سزار
سزاوار
سزایی
سس
سست
سستی
سسک
سطح
سطحی
سطر
سطل
سطوح
سعادت
سعد
سعداباد
سعدی
سعود
سعودی
سعی
سعید
سعیدی
سغد
سغدی
سفارت
سفارتخانه
سفارش
سفارشی
سفال
سفالی
سفت
سفتی
سفر
سفرنامه
سفره
سفرها
سفرهای
سفری
سفلی
سفید
سفیده
سفیدپوست
سفیدی
سفیر
سفیران
سفینه
سقراط
سقز
سقط
سقف
سقفی
سقوط
سل
سلاجقه
سلاح
سلاطین
سلام
سلامت
سلامتی
سلامی
سلب
سلتیک
سلجوقی
سلجوقیان
سلسله
سلسیوس
سلطان
سلطانی
سلطانیه
سلطنت
سلطنتی
سلطه
سلف
سلفی
سلم
سلما
سلماس
سلمان
سلول
سلولز
سلولهای
سلولی
سلوک
سلوکی
سلوکیان
سلیقه
سلیم
سلیمان
سلیمانی
سلیمانیه
سلیمی
سم
سماع
سمبل
سمت
سمتی
سمرقند
سمرقندی
سمع
سمفونی
سمفونیک
سمن
سمنان
سمنانی
سمندر
سموم
سمپدوریا
سمی
سمیت
سمیرم
سمیعی
سمینار
سن
سنا
سناتور
سنان
سنای
سنایی
سنبل
سنبله
سنة
سنت
سنتر
سنترال
سنتز
سنتور
سنتی
سنج
سنجاب
سنجابی
سنجر
سنجش
سنجی
سنجیده
سند
سندرم
سندروم
سندی
سنسور
سنقر
سنن
سنندج
سنه
سنگ
سنگال
سنگاپور
سنگر
سنگسار
سنگسری
سنگهای
سنگواره
سنگوکو
سنگی
سنگین
سنگینی
سنی
سنین
سه
سهام
سهامداران
سهامی
سهراب
سهره
سهروردی
سهل
سهم
سهمی
سهمیه
سهند
سهولت
سهیل
سهیلا
سهیلی
سهیم
سو
سوء
سوءاستفاده
سوابق
سواحل
سواد
سوادکوه
سوار
سواران
سوارز
سواره
سوارکار
سوارکاری
سواری
سوال
سوالات
سوالاتی
سوالی
سوان
سوانح
سوت
سوتا
سوخت
سوختن
سوخته
سوختگی
سوختی
سوخو
سود
سودا
سودابه
سودان
سودای
سودمند
سودمندی
سودی
سور
سوراخ
سوران
سورانی
سوربن
سورس
سورن
سوره
سوروس
سوری
سورینام
سوریه
سوز
سوزان
سوزاندن
سوزانده
سوزد
سوزش
سوزن
سوزنی
سوزوکی
سوزی
سوسمار
سوسن
سوسک
سوسکچه
سوسیال
سوسیالیست
سوسیالیستی
سوسیالیسم
سوسیس
سوشی
سوغات
سوفی
سوفیا
سوق
سول
سولفات
سولفید
سولو
سوم
سومالی
سومر
سومری
سومی
سومین
سون
سونات
سونامی
سونوگرافی
سونگ
سونی
سونیا
سونیک
سويد
سويدی
سويز
سويیت
سويیس
سويیسی
سويیفت
سويیچ
سوپ
سوپاپ
سوپر
سوپرجام
سوپرمن
سوژه
سوک
سوگ
سوگند
سوگواری
سوگیری
سوی
سویا
سویه
سویی
سوییس
سينماى
سيو
سيوال
سيول
سپاری
سپاس
سپاه
سپاهان
سپاهی
سپاهیان
سپتامبر
سپتامر
سپر
سپرد
سپردن
سپردند
سپرده
سپری
سپس
سپه
سپهبد
سپهدار
سپهر
سپهری
سپهسالار
سپید
سپیدان
سپیده
سک
سکان
سکانس
سکاها
سکایی
سکته
سکس
سکندر
سکنه
سکنی
سکه
سکو
سکوت
سکولار
سکون
سکونت
سکونتگاه
سکوهای
سکوی
سکینه
سگ
سگا
سگی
سی
سیا
سیاتل
سیاح
سیار
سیارات
سیاره
سیارک
سیاست
سیاستمدار
سیاستمداران
سیاستهای
سیاستگذاری
سیاستی
سیاسی
سیال
سیالات
سیامک
سیاه
سیاهان
سیاهرگ
سیاهچاله
سیاهکل
سیاهی
سیاوش
سیب
سیبری
سیتروين
سیتی
سید
سیدجوادی
سیدحسن
سیدعلی
سیدمحمد
سیدنی
سیده
سیدی
سیر
سیرا
سیراب
سیراليون
سیرت
سیرجان
سیره
سیروان
سیروس
سیرک
سیری
سیریلیک
سیزده
سیزدهم
سیزدهمین
سیس
سیستان
سیستانی
سیستم
سیستماتیک
سیستمهای
سیستمی
سیسیل
سیصد
سیطره
سیف
سیل
سیلاب
سیلندر
سیلوا
سیلور
سیلویا
سیلک
سیلی
سیلیس
سیلیسیم
سیلین
سیلیکات
سیلیکون
سیم
سیما
سیمان
سیمای
سیمرغ
سیمور
سیمون
سیمپسون
سیمی
سیمین
سین
سینا
سینت
سیندرلا
سینما
سینماها
سینماهای
سینماگران
سینمای
سینمایی
سینه
سینوس
سینگ
سینی
سیه
سیونیک
سیک
سیکل
سیگار
سیگنال
ش
شابک
شاتل
شاخ
شاخص
شاخصه
شاخه
شاد
شادروان
شادمان
شادمانی
شادگان
شادی
شار
شارجه
شارل
شارلوت
شارون
شارپ
شارژ
شازند
شاسی
شاعر
شاعران
شاعرانه
شاعری
شاغل
شافعی
شال
شالوده
شالکه
شام
شامل
شاملو
شامگاه
شامی
شان
شانزده
شانزدهم
شانزدهمین
شانس
شانه
شانون
شانگهای
شاه
شاهان
شاهانه
شاهد
شاهدان
شاهدخت
شاهدی
شاهراه
شاهرخ
شاهرود
شاهرودی
شاهزاده
شاهزادگان
شاهسون
شاهنامه
شاهنشاه
شاهنشاهی
شاهپور
شاهکار
شاهکارهای
شاهی
شاهین
شاو
شاپ
شاپا
شاپرک
شاپور
شاکی
شاگرد
شاگردان
شاگردانش
شاگردی
شایان
شایانی
شاید
شایر
شایسته
شایستگی
شایع
شایعات
شایعه
شایگان
شب
شبان
شبانه
شباهت
شبح
شبستان
شبستری
شبنم
شبه
شبهه
شبکه
شبکیه
شبی
شبیه
شت
شتاب
شتافت
شتر
شتم
شتی
شجاع
شجاعت
شجاعی
شجره
شجریان
شخص
شخصا
شخصی
شخصیت
شخصیتی
شد
شدت
شدم
شدن
شدند
شدنش
شدنی
شده
شدگان
شدگی
شدی
شدید
شدیدا
شدیدتر
شدیدترین
شدیدی
شدیم
شر
شراب
شرافت
شرایط
شرایطی
شرب
شربت
شرح
شرحی
شرط
شرطی
شرع
شرعی
شرف
شرق
شرقی
شركت
شرلوک
شرلی
شرم
شرمن
شروان
شرور
شروط
شروع
شرک
شرکا
شرکای
شرکت
شرکتها
شرکتهای
شرکتی
شری
شریان
شریعت
شریعتمداری
شریعتی
شریف
شریفی
شریک
شست
شستشو
شستشوی
شستن
شسته
شش
ششصد
ششم
ششمین
شصت
شطرنج
شعار
شعارهای
شعاع
شعاعی
شعب
شعبان
شعبده
شعبه
شعر
شعرا
شعرای
شعرهای
شعری
شعله
شعور
شغال
شغل
شغلی
شفا
شفاعت
شفاف
شفافیت
شفاهی
شفت
شفق
شفیع
شفیعی
شفیلد
شقایق
شل
شلاق
شلوار
شلوغ
شلی
شلیک
شم
شما
شمار
شمارد
شمارش
شمارند
شماره
شماری
شماست
شمال
شمالی
شمایل
شمرد
شمردن
شمرده
شمس
شمسی
شمش
شمشیر
شمشیرباز
شمشیربازی
شمشیری
شمع
شمول
شمیران
شمیرانات
شن
شنا
شناخت
شناختن
شناختند
شناخته
شناختی
شناس
شناسان
شناسانه
شناسایی
شناسد
شناسم
شناسنامه
شناسند
شناسه
شناسی
شناسیم
شناور
شناگر
شناگران
شنای
شنبه
شنل
شنوایی
شنود
شنونده
شنی
شنید
شنیداری
شنیدم
شنیدن
شنیده
شه
شهاب
شهابی
شهادت
شهامت
شهباز
شهبازی
شهبانو
شهد
شهدا
شهدای
شهر
شهرام
شهراورد
شهربابک
شهربانی
شهرت
شهرتی
شهردار
شهرداری
شهرزاد
شهرسازی
شهرستان
شهرستانها
شهرستانهای
شهرستانی
شهرضا
شهرنشینی
شهره
شهرها
شهرهای
شهرهایی
شهروند
شهروندان
شهروندی
شهرک
شهرکرد
شهرکی
شهری
شهریار
شهریاری
شهریور
شهلا
شهناز
شهوانی
شهوت
شهود
شهید
شهیدان
شهیدی
شهیر
شو
شوال
شوالیه
شواهد
شواهدی
شوت
شوخ
شوخی
شود
شور
شورا
شوراها
شوراهای
شوراي
شورای
شورایی
شورت
شورش
شورشی
شورشیان
شوره
شوروی
شوری
شوریده
شوش
شوشتر
شوشتری
شوشی
شوق
شوقی
شوم
شون
شوند
شونده
شوهر
شوهرش
شوک
شوکت
شوگون
شوی
شوید
شویم
شویی
شيخ
شيعه
شپرد
شک
شکار
شکارچی
شکارچیان
شکاری
شکاف
شکافت
شکافی
شکایات
شکایت
شکر
شکری
شکست
شکستن
شکسته
شکستگی
شکستی
شکسپیر
شکل
شکلات
شکلی
شکم
شکمی
شکن
شکنجه
شکند
شکننده
شکنی
شکوفا
شکوفایی
شکوفه
شکوه
شکی
شکیبایی
شگرف
شگفت
شگفتی
شی
شیء
شیار
شیاطین
شیب
شیبانی
شیخ
شیخی
شیدا
شیدایی
شیر
شیراز
شیرازی
شیران
شیراک
شیرجه
شیردهی
شیره
شیرها
شیرهای
شیروان
شیروانی
شیری
شیرین
شیرینی
شیشه
شیطان
شیطانی
شیعه
شیعی
شیعیان
شیفت
شیفته
شیل
شیلا
شیلات
شیلد
شیلر
شیلی
شیمی
شیمیایی
شیمیدان
شین
شیوا
شیوع
شیوه
شیک
شیکاگو
ص
صابر
صابری
صابون
صاحب
صاحبان
صادر
صادرات
صادراتی
صادره
صادرکننده
صادق
صادقانه
صادقی
صاریغ
صاعقه
صاف
صافی
صالح
صالحی
صامت
صانعی
صايب
صبا
صباح
صبح
صبحانه
صبر
صبور
صبوری
صحابه
صحبت
صحت
صحرا
صحرانوردی
صحرای
صحرایی
صحن
صحنه
صحیح
صحیحی
صحیفه
صخره
صد
صدا
صدارت
صداقت
صدام
صداها
صداهای
صداوسیما
صداپیشه
صداپیشگی
صداگذاری
صدای
صدایش
صدایی
صدد
صدر
صدرا
صدراعظم
صدرالدین
صدری
صدف
صدق
صدمات
صدمه
صدها
صدور
صدوق
صديق
صدیق
صدیقی
صراحت
صرب
صربستان
صربی
صرع
صرف
صرفا
صرفنظر
صرفه
صریح
صریحا
صص
صعب
صعود
صعودی
صغیر
صف
صفا
صفات
صفاری
صفاریان
صفایی
صفت
صفحات
صفحه
صفر
صفرا
صفری
صفه
صفوف
صفوی
صفویان
صفویه
صفی
صلاح
صلاحیت
صلح
صلحی
صلوات
صلی
صلیب
صلیبی
صلیبیون
صمد
صمدی
صمیمانه
صمیمی
صنایع
صندلی
صندوق
صنعا
صنعاء
صنعت
صنعتگران
صنعتی
صنف
صنفی
صنم
صنیع
صهیونیست
صهیونیستی
صهیونیسم
صواب
صوت
صوتی
صور
صورت
صورتش
صورتی
صورتیکه
صوری
صوفی
صوفیان
صوفیه
صومعه
صیاد
صیانت
صید
صیغه
صیفی
صیقل
ض
ضامن
ضایع
ضایعات
ضایعه
ضبط
ضحاک
ضخامت
ضخیم
ضد
ضدعفونی
ضرایب
ضرب
ضربات
ضربان
ضربت
ضربه
ضربی
ضرر
ضرورت
ضروری
ضریب
ضریح
ضعف
ضعیف
ضعیفی
ضلع
ضلعی
ضمانت
ضمن
ضمنا
ضمنی
ضمیر
ضمیمه
ضوابط
ضیا
ضیاء
ضیاءالدین
ضیافت
ضیایی
ط
طارق
طارم
طاعت
طاعون
طاق
طاقت
طالب
طالبان
طالبی
طالع
طالقان
طالقانی
طاهر
طاهره
طاهری
طاهریان
طاووس
طایفه
طب
طبابت
طباطبايی
طباطبایی
طبخ
طبرستان
طبرسی
طبری
طبس
طبع
طبعا
طبعی
طبق
طبقات
طبقاتی
طبقه
طبل
طبی
طبیب
طبیعت
طبیعتا
طبیعی
طرابلس
طراح
طراحان
طراحی
طراز
طرب
طرح
طرحهای
طرحی
طرد
طرز
طرف
طرفدار
طرفداران
طرفداری
طرفه
طرفی
طرفین
طرق
طره
طریق
طریقت
طریقه
طریقی
طعام
طعم
طعمه
طعن
طعنه
طغرل
طغیان
طفل
طلا
طلاب
طلاق
طلای
طلایی
طلب
طلبان
طلبانه
طلبد
طلبه
طلبی
طلحه
طلسم
طلعت
طلوع
طمع
طناب
طنز
طنین
طه
طهران
طهماسب
طهماسبی
طوایف
طور
طوری
طوریکه
طوس
طوسی
طوطی
طوفان
طوفانی
طوق
طول
طولانی
طولی
طومار
طویل
طی
طیب
طیبی
طیف
طیفی
طیور
ظ
ظالم
ظاهر
ظاهرا
ظاهری
ظرافت
ظرف
ظرفی
ظرفیت
ظروف
ظریف
ظفر
ظل
ظلم
ظلمت
ظن
ظهر
ظهور
ظهیرالدین
ع
عا
عابدی
عاج
عاجز
عادات
عادت
عادل
عادلانه
عادی
عارض
عارضه
عارف
عارفان
عاری
عازم
عاشق
عاشقان
عاشقانه
عاشقی
عاشورا
عاشیق
عاطفه
عاطفی
عافیت
عاقبت
عاقل
عاقلی
عالم
عالمان
عالمگیر
عالمی
عالی
عالیه
عام
عامر
عامری
عامل
عاملان
عاملی
عامه
عامیانه
عایشه
عایق
عب
عبادت
عبادی
عبارات
عبارت
عبارتست
عبارتند
عبارتی
عباس
عباسعلی
عباسی
عباسیان
عبد
عبدالبهاء
عبدالحسین
عبدالحمید
عبدالرحمان
عبدالرحمن
عبدالرحیم
عبدالرزاق
عبدالرضا
عبدالعزیز
عبدالعظیم
عبدالعلی
عبدالقادر
عبدالله
عبداللهی
عبدالمجید
عبدالملک
عبدالناصر
عبدالوهاب
عبدالکریم
عبدی
عبرت
عبری
عبور
عبوری
عبید
عبیدالله
عتیق
عتیقه
عثمان
عثمانی
عج
عجایب
عجب
عجز
عجله
عجم
عجیب
عجیبی
عد
عدالت
عدالتی
عدد
عددی
عدس
عدسی
عدل
عدلیه
عدم
عدن
عدنان
عده
عدی
عذاب
عذر
عذرخواهی
عراق
عراقی
عرایض
عرب
عربستان
عربی
عرش
عرشه
عرصه
عرض
عرضه
عرضی
عرف
عرفات
عرفان
عرفانی
عرفی
عرق
عروج
عروس
عروسک
عروسکی
عروسی
عروق
عروقی
عریان
عریض
عز
عزاداری
عزالدین
عزت
عزل
عزم
عزیز
عزیزالله
عزیزان
عزیزم
عزیزی
عزیمت
عسل
عسلویه
عسکری
عسگری
عشاق
عشایر
عشایری
عشر
عشرت
عشق
عشقت
عشقش
عشقی
عصا
عصاره
عصب
عصبانی
عصبانیت
عصبی
عصر
عصمت
عصیان
عضلات
عضلانی
عضله
عضو
عضوی
عضویت
عطا
عطار
عطاران
عطارد
عطایی
عطر
عطف
عطفی
عظمت
عظیم
عظیمی
عفت
عفو
عفونت
عفونی
عقاب
عقاید
عقب
عقبه
عقبی
عقد
عقده
عقرب
عقل
عقلانی
عقلانیت
عقلی
عقیدتی
عقیده
عقیق
عقیل
عقیلی
عقیم
عل
علاء
علاءالدین
علاج
علاقمند
علاقه
علامت
علامه
علاوه
علايم
علایق
علایم
علت
علف
علفی
علل
علم
علما
علماء
علمای
علمی
علمیه
علنا
علنی
علوفه
علوم
علوی
علویان
على
علي
عليه
علی
علیا
علیرضا
علیرغم
علیزاده
علیشاه
علینقی
علیه
علیهم
عم
عماد
عمادالدین
عمادی
عمار
عمارت
عمال
عمان
عمد
عمدا
عمدتا
عمده
عمدی
عمر
عمران
عمرانی
عمرش
عمرو
عمری
عمق
عمقی
عمل
عملا
عملکرد
عملکردهای
عملکردی
عملگر
عملگرهای
عملی
عملیات
عملیاتی
عمه
عمو
عمود
عمودی
عموم
عموما
عمومی
عموی
عمویش
عمید
عمیق
عمیقا
عمیقی
عن
عناصر
عناصری
عنان
عناوین
عنایت
عنبر
عنبراباد
عند
عنصر
عنصرهای
عنصری
عنه
عنوان
عنوانی
عنکبوت
عنکبوتی
عهد
عهدنامه
عهده
عوارض
عواطف
عواقب
عوام
عوامل
عواملی
عواید
عود
عوض
عکا
عکاس
عکاسان
عکاسی
عکس
عکسی
عیار
عیان
عیب
عید
عیدی
عیسی
عیش
عیلام
عیلامی
عین
عینا
عینک
عینی
عیوب
غ
غار
غارت
غارها
غارهای
غاری
غاز
غازان
غازی
غافل
غافلگیر
غالب
غالبا
غايبین
غایب
غایت
غبار
غدد
غده
غدیر
غذا
غذاخوری
غذاها
غذاهای
غذای
غذایی
غرامت
غرب
غربالگری
غربت
غربی
غرض
غرفه
غرق
غرقه
غروب
غرور
غروی
غریب
غریبه
غریبی
غزال
غزالی
غزل
غزلی
غزلیات
غزنوی
غزنویان
غزنی
غزه
غزوه
غسل
غشا
غشاء
غشای
غشایی
غصب
غصه
غضب
غضروف
غفاری
غفلت
غفوری
غلات
غلاف
غلام
غلامان
غلامحسین
غلامرضا
غلامعلی
غلامی
غلبه
غلتک
غلط
غلظت
غله
غلیظ
غم
غمت
غمزه
غمگین
غنا
غنای
غنچه
غنی
غنیمت
غواصی
غور
غوطه
غول
غير
غیاب
غیاث
غیب
غیبت
غیر
غیراخلاقی
غیرانتفاعی
غیرانسانی
غیرت
غیرخطی
غیردولتی
غیررسمی
غیرطبیعی
غیرعادی
غیرفعال
غیرفلزی
غیرقابل
غیرقانونی
غیرمجاز
غیرمستقیم
غیرمعمول
غیرممکن
غیرمنتظره
غیرنظامی
غیرنظامیان
غیره
ـ
ــ
ف
فا
فابیو
فاتح
فاجعه
فاحشه
فاخر
فارابی
فارس
فارست
فارسی
فارغ
فارنهایت
فارو
فاروق
فاریاب
فاز
فازهای
فازی
فاستر
فاسد
فاش
فاشیست
فاشیسم
فاصل
فاصله
فاصلە
فاضل
فاضلاب
فاضلی
فاطمه
فاطمی
فاعل
فاقد
فال
فالز
فام
فامیل
فامیلی
فان
فانتزی
فانتوم
فانوس
فانی
فاکتور
فاکتورهای
فاکس
فای
فایده
فایر
فایل
فایو
فت
فتاد
فتح
فتحعلی
فتحی
فتق
فتنه
فتوا
فتوای
فتوحات
فجر
فحش
فخر
فخرالدین
فخرالدینی
فخری
فدا
فدايیان
فداکاری
فدای
فدایی
فدراسیون
فدرال
فدریکو
فر
فرا
فرابنفش
فرات
فراتر
فراخ
فراخوان
فراخواند
فراخوانده
فراخوانی
فرار
فرارو
فراری
فراز
فراست
فراطبیعی
فراغت
فراق
فراماسونری
فرامرز
فرامرزی
فراموش
فراموشی
فرامین
فرانتس
فرانس
فرانسه
فرانسوا
فرانسوی
فرانسویان
فرانسیس
فرانسیسکو
فرانچسکو
فرانک
فرانکفورت
فرانکلین
فرانکو
فرانکی
فراهان
فراهانی
فراهم
فراوان
فراوانی
فراورده
فراوری
فراکسیون
فراگرفت
فراگیر
فراگیری
فرای
فرایبورگ
فرایند
فرایندها
فرایندهای
فرایندهایی
فرایندی
فرج
فرجام
فرجی
فرح
فرخ
فرخزاد
فرخنده
فرخی
فرد
فردا
فردای
فردریش
فردریک
فردوس
فردوسی
فردی
فردین
فردیناند
فرزاد
فرزان
فرزانه
فرزند
فرزندان
فرزندانش
فرزندانشان
فرزندش
فرزندی
فرزین
فرسایش
فرست
فرستاد
فرستادن
فرستادند
فرستاده
فرستد
فرستند
فرستنده
فرسخ
فرسنگ
فرسوده
فرش
فرشاد
فرشته
فرشتگان
فرشید
فرصت
فرصتی
فرض
فرضی
فرضیه
فرعون
فرعی
فرغانه
فرغانی
فرق
فرقه
فرقی
فرم
فرما
فرمان
فرماندار
فرمانداران
فرمانداری
فرمانده
فرماندهان
فرماندهی
فرمانروا
فرمانروای
فرمانروایان
فرمانروایی
فرمانفرما
فرمانی
فرماید
فرمایند
فرمایید
فرمت
فرمود
فرمودند
فرموده
فرمودید
فرمول
فرمی
فرناندز
فرناندو
فرنچایز
فرنگ
فرنگی
فره
فرهاد
فرهادی
فرهنگ
فرهنگستان
فرهنگسرای
فرهنگی
فرهنگیان
فرهیختگان
فرو
فروتن
فروخت
فروخته
فرود
فرودگاه
فرودگاهی
فروردین
فرورفته
فرورفتگی
فروزان
فروسرخ
فروش
فروشان
فروشد
فروشنده
فروشندگان
فروشگاه
فروشی
فروغ
فروغی
فرومی
فروند
فروهر
فروپاشی
فروید
فرکانس
فرکانسی
فرگشت
فرگوسن
فری
فریاد
فریب
فریبا
فریبرز
فریتس
فرید
فریدریش
فریدمن
فریدن
فریده
فریدون
فریزر
فریم
فریمان
فریمن
فزاینده
فزون
فزونی
فسا
فساد
فست
فستیوال
فسخ
فسفات
فسفر
فسیل
فسیلی
فشار
فشارها
فشارهای
فشاری
فشان
فشرده
فشنگ
فصل
فصلنامه
فصلی
فصول
فصیح
فضا
فضانورد
فضانوردان
فضاهای
فضاپیما
فضاپیمای
فضای
فضایل
فضایلی
فضایی
فضل
فضولی
فضیلت
فطر
فطرت
فعال
فعالان
فعالانه
فعالی
فعالیت
فعالیتش
فعالیتهای
فعالیتی
فعالین
فعل
فعلا
فعلی
فغان
فقال
فقاهت
فقدان
فقر
فقرا
فقرات
فقره
فقط
فقه
فقها
فقهای
فقهی
فقید
فقیر
فقیه
فقیهی
فلات
فلاح
فلاسفه
فلاش
فلان
فلاندری
فلج
فلز
فلزات
فلزی
فلس
فلسطین
فلسطینی
فلسطینیان
فلسفه
فلسفی
فلش
فلفل
فلمینگ
فلوت
فلور
فلورانس
فلوریدا
فلوید
فلک
فلکه
فلکی
فلیکس
فمینیست
فمینیستی
فمینیسم
فن
فنا
فناوری
فنجان
فندق
فنر
فنلاند
فنلاندی
فنون
فنگ
فنی
فنیل
فهد
فهرست
فهرستی
فهم
فهمد
فهمند
فهمید
فهمیدن
فهمیده
فو
فواد
فواره
فواصل
فواید
فوت
فوتبال
فوتبالی
فوتبالیست
فوتسال
فوتون
فوج
فوجی
فور
فورا
فوران
فوربز
فورت
فورد
فوری
فوریت
فوریه
فوق
فوقانی
فول
فولاد
فولادهای
فولادوند
فولادی
فولام
فولر
فولک
فولکس
فولکلور
فوم
فومن
فون
فونت
فوکو
فوکويوکا
في
فيودالی
فک
فکر
فکرت
فکری
فی
فیات
فیاض
فیبر
فیبرهای
فیتزجرالد
فیجی
فیر
فیروز
فیروزاباد
فیروزه
فیروزکوه
فیزیوتراپی
فیزیولوژی
فیزیولوژیکی
فیزیک
فیزیکدان
فیزیکی
فیس
فیسبوک
فیش
فیشر
فیصل
فیض
فیفا
فیل
فیلادلفیا
فیلارمونیک
فیلتر
فیلترهای
فیلترینگ
فیلد
فیلسوف
فیلسوفان
فیلم
فیلمبردار
فیلمبرداری
فیلمساز
فیلمسازان
فیلمسازی
فیلمنامه
فیلمهای
فیلمی
فیلی
فیلیپ
فیلیپس
فیلیپین
فیلیپینی
فین
فینال
فینالیست
فینیکس
فیورنتینا
ق
قاب
قابل
قابلمه
قابلیت
قابوس
قاتل
قاتلان
قاجار
قاجاری
قاجاریه
قادر
قادرند
قادری
قاره
قارچ
قارچی
قاری
قاسم
قاسمی
قاشق
قاصد
قاضی
قاطع
قاعده
قاعدگی
قافله
قافیه
قال
قالب
قالبی
قالی
قالیباف
قامت
قاموس
قانع
قانون
قانونگذاری
قانونی
قاهره
قايل
قايم
قايمی
قاينات
قاچاق
قایق
قایقران
قایقرانی
قایل
قایم
قبا
قباد
قبال
قبایل
قبر
قبرس
قبرستان
قبریاب
قبض
قبضه
قبطی
قبل
قبلا
قبله
قبلی
قبه
قبول
قبولی
قبیل
قبیله
قتل
قحطی
قد
قدامی
قدح
قدر
قدرت
قدرتمند
قدرتمندترین
قدرتمندی
قدرتی
قدردانی
قدری
قدس
قدسی
قدم
قدمت
قدمتی
قدمی
قدیس
قدیم
قدیمی
قذافی
قرابت
قرار
قرارداد
قراردادن
قراردادها
قراردادهای
قراردادی
قراردارد
قرارند
قرارگاه
قرارگرفته
قرارگیری
قراری
قران
قرانی
قرايت
قرب
قربان
قربانی
قربانیان
قرشی
قرص
قرض
قرضه
قرضی
قرعه
قرقیزستان
قرمز
قرمزی
قرن
قرنطینه
قرنیه
قره
قرون
قروه
قریب
قریش
قرین
قرینه
قریه
قزاق
قزاقستان
قزاقی
قزل
قزلباش
قزوین
قزوینی
قسطنطنیه
قسم
قسمت
قسمتهای
قسمتی
قشر
قشقایی
قشلاق
قشم
قشون
قصاب
قصاص
قصاید
قصبه
قصد
قصر
قصران
قصه
قصیده
قضا
قضات
قضاوت
قضايی
قضايیه
قضایی
قضاییه
قضیه
قطار
قطارهای
قطب
قطبش
قطبی
قطر
قطرات
قطره
قطری
قطع
قطعا
قطعات
قطعاتی
قطعنامه
قطعه
قطعی
قطعیت
قفس
قفسه
قفقاز
قفقازی
قفل
ققنوس
قل
قلاب
قلب
قلبی
قلت
قلع
قلعه
قلم
قلمداد
قلمرو
قلمروهای
قلمروی
قلمی
قله
قلی
قلیان
قلیایی
قم
قمار
قمر
قمری
قمشه
قمی
قنات
قناتی
قناری
قناعت
قنبری
قند
قندهار
قندی
قهر
قهرمان
قهرمانان
قهرمانی
قهوه
قو
قوا
قواعد
قوام
قوامی
قوانین
قوانینی
قوای
قوت
قورباغه
قوس
قوسی
قوطی
قول
قوله
قولی
قوم
قومس
قومی
قومیت
قونیه
قوه
قوچ
قوچان
قوی
قیاس
قیافه
قیام
قیامت
قید
قیر
قیس
قیصر
قیصریه
قیم
قیمت
قیمتی
قیمومت
قیچی
ك
كار
كان
كتاب
كرد
كردند
كرده
كشور
كل
كند
كنند
كه
ل
لا
لااقل
لابد
لابه
لابی
لات
لاتزیو
لاتین
لاتینی
لاجرم
لاجوردی
لادن
لار
لارا
لارس
لارستان
لارن
لارنس
لاری
لاریجانی
لازم
لازمه
لاس
لاستیک
لاستیکی
لاشه
لاغر
لاف
لال
لاله
لالی
لالیگا
لام
لاما
لامرد
لامپ
لان
لانا
لاند
لانه
لانکا
لانگ
لاهه
لاهوتی
لاهور
لاهیجان
لاهیجی
لاو
لاوی
لايوس
لاک
لاکهید
لای
لایت
لایحه
لایف
لایق
لاین
لایه
لایو
لایپزیگ
لب
لباس
لباسی
لبت
لبخند
لبنان
لبنانی
لبنی
لبنیات
لبه
لتونی
لثه
لجستیک
لجن
لحاظ
لحظات
لحظه
لحن
لحیم
لخت
لخته
لد
لذا
لذت
لر
لرد
لردگان
لرزش
لرزه
لرستان
لری
لزلی
لزنر
لزوم
لزوما
لس
لسان
لستر
لسلی
لشکر
لشکرهای
لشکرکشی
لشکری
لشکریان
لطافت
لطف
لطفا
لطفعلی
لطفی
لطمه
لطیف
لطیفی
لعاب
لعل
لعنت
لغات
لغت
لغتنامه
لغزش
لغو
لغوی
لفظ
لفظی
لق
لقاح
لقب
لقمان
لقمه
للطباعة
للملایین
للنشر
لله
لم
لمس
لمسی
لن
لنا
لند
لندن
لنز
لنفاوی
لنفوسیت
لنکران
لنکستر
لنگ
لنگر
لنگرود
لنگرودی
لنگه
لنین
لنینگراد
له
لهجه
لهذا
لهستان
لهستانی
لو
لوا
لوازم
لواسان
لوایح
لوب
لوبیا
لوت
لوتر
لوتوس
لوح
لودویگ
لور
لورا
لوران
لورل
لورن
لورنزو
لورنس
لوری
لوزان
لوزی
لوس
لوسی
لوسیا
لوفت
لولا
لوله
لولو
لون
لونا
لوور
لوون
لويی
لويیجی
لويیز
لويیزیانا
لويیس
لوپز
لوک
لوکا
لوکاس
لوکزامبورگ
لوکس
لوکوموتیو
لوکی
لوگان
لوگو
لوگوی
لوی
لوید
لویس
لوین
لویی
لوییس
ليو
ليون
ليونارد
ليوناردو
ليوپولد
لپ
لپه
لژ
لژیون
لک
لکن
لکه
لکی
لگاریتم
لگد
لگن
لی
لیا
لیاقت
لیام
لیان
لیبرال
لیبرالیسم
لیبرتی
لیبریا
لیبی
لیتر
لیتری
لیتل
لیتوانی
لیتوانیایی
لیتون
لیتیم
لیتیوم
لیث
لیختن
لید
لیدز
لیدن
لیدی
لیر
لیره
لیز
لیزا
لیزر
لیزری
لیس
لیسا
لیسانس
لیسبون
لیست
لیستی
لیسه
لیفت
لیل
لیلا
لیلی
لیما
لیمو
لین
لیندا
لینوکس
لینچ
لینک
لینکلن
لینکولن
لیو
لیوان
لیورپول
لیون
لیونل
لیک
لیکس
لیکن
لیگ
لیگا
م
ما
مابقی
مابین
مات
ماتریس
ماتریکس
ماتم
ماتیاس
ماجرا
ماجراجویی
ماجراهای
ماجرای
ماجرایی
ماخ
ماخذ
ماد
مادام
ماداگاسکار
مادر
مادران
مادربزرگ
مادرزادی
مادرش
مادرشان
مادرم
مادری
مادرید
ماده
مادها
مادون
مادی
مادە
مار
مارا
ماراتن
مارتا
مارتی
مارتین
مارتینز
مارس
مارسل
مارسی
مارش
مارشال
مارمولک
مارها
مارول
مارون
ماروین
مارپیچ
مارپیچی
مارچ
مارک
مارکت
مارکریت
مارکز
مارکس
مارکسیست
مارکسیستی
مارکسیسم
مارکو
مارکوس
مارکوف
مارگارت
ماری
ماریا
ماریان
مارین
مارینا
مارینو
ماریو
ماریوس
ماریون
مازاد
مازندران
مازندرانی
مازیار
ماس
ماساچوست
ماساژ
ماست
ماسه
ماسوله
ماسک
ماسیمو
ماشین
ماشینی
ماضی
مافوق
مافیا
ماقبل
مال
مالاریا
مالاوی
مالایی
مالت
مالدیو
مالزی
مالک
مالکان
مالکوم
مالکی
مالکیت
مالکین
مالی
مالیات
مالیاتی
مالیه
مامان
مامایی
مامور
ماموران
ماموریت
ماموریتی
مامورین
مامون
مان
مانا
ماند
ماندلا
ماندن
ماندند
ماندنی
مانده
ماندگار
ماندگاری
ماندگی
مانع
مانعی
مانند
مانندی
مانه
مانور
مانويل
مانوی
مانکن
مانگا
مانی
مانیتور
مانیفست
مانیل
ماه
ماهان
ماهانه
ماهر
ماهشهر
ماهنامه
ماهه
ماهواره
ماهور
ماهی
ماهیان
ماهیانه
ماهیت
ماهیچه
ماهیگیری
ماوراء
ماوراءالنهر
ماورای
ماوس
مايده
مايو
ماژور
ماژول
ماکايو
ماکرو
ماکس
ماکسول
ماکسیم
ماکسیمیلیان
ماکو
ماکیان
مای
مایا
مایر
مایع
مایعات
مایعی
مایل
مایلز
مایلی
ماین
مایه
مایک
مایکروسافت
مایکل
مباحث
مباحثه
مباد
مبادا
مبادرت
مبادلات
مبادله
مبارز
مبارزات
مبارزان
مبارزه
مبارک
مبارکه
مباش
مبالغ
مبالغه
مبانی
مبتلا
مبتلایان
مبتنی
مبحث
مبدا
مبدل
مبر
مبلغ
مبلغان
مبلغی
مبلمان
مبنا
مبنای
مبنی
مبهم
مبین
مت
متابولیسم
متابولیک
متاثر
متاخر
متاسفانه
متافیزیک
متال
متالورژی
متان
متاهل
متاکریتیک
متجاوز
متحد
متحدان
متحده
متحدین
متحرک
متحمل
متحول
متخاصم
متخذه
متخصص
متخصصان
متخصصین
متخلخل
متخلص
متد
متداول
متذکر
متر
مترادف
متراکم
مترجم
مترجمان
مترقی
مترمربع
مترمکعب
مترو
متروپولیتن
متروک
متروکه
متروی
متری
متریک
متزلزل
متشکل
متصدی
متصرف
متصل
متضاد
متضمن
متعادل
متعارف
متعاقب
متعاقبا
متعال
متعالی
متعدد
متعددی
متعلق
متعهد
متغیر
متغیرها
متغیرهای
متـ
متفاوت
متفاوتی
متفرق
متفق
متفقین
متفکر
متفکران
متقابل
متقارن
متقاضی
متقاضیان
متقاطع
متقاعد
متلاشی
متمادی
متمایز
متمایل
متمرکز
متمم
متن
متناسب
متناظر
متناقض
متناهی
متناوب
متنفر
متنوع
متنوعی
متنی
مته
متهم
متهمان
متوالی
متوجه
متوسط
متوسطه
متوسل
متوفی
متوقف
متولد
متولی
متون
متکی
متی
متیل
متین
متیو
مثابه
مثال
مثالی
مثانه
مثبت
مثبتی
مثل
مثلا
مثلث
مثلثی
مثنوی
مثنویات
مجارستان
مجارستانی
مجاری
مجاز
مجازات
مجازی
مجال
مجالس
مجامع
مجانی
مجاهد
مجاهدان
مجاهدین
مجاور
مجاورت
مجبور
مجتبی
مجتمع
مجتهد
مجتهدی
مجد
مجدد
مجددا
مجذوب
مجرای
مجرد
مجرم
مجرمان
مجروح
مجری
مجریان
مجریه
مجزا
مجسم
مجسمه
مجلات
مجلد
مجلس
مجلسی
مجلسین
مجلل
مجله
مجمع
مجموع
مجموعا
مجموعه
مجموعە
مجنون
مجهز
مجهول
مجوز
مجوزهای
مجید
مجیدی
محاربه
محاسبات
محاسباتی
محاسبه
محاصره
محافظ
محافظت
محافظه
محافل
محال
محاوره
محاکم
محاکمه
محب
محبت
محبوب
محبوبه
محبوبیت
محبوس
محتاج
محترم
محتشم
محتمل
محتوا
محتوای
محتوایی
محتوی
محتویات
محجوب
محدب
محدث
محدود
محدوده
محدودی
محدودیت
محدودیتی
محراب
محرم
محرمانه
محروم
محرومیت
محرک
محرکه
محسن
محسنی
محسوب
محسوس
محصور
محصول
محصولات
محصولاتی
محصولی
محض
محضر
محفظه
محفل
محفوظ
محقق
محققان
محققین
محل
محلات
محلاتی
محله
محلول
محلی
محم
محمد
محمداباد
محمدابراهیم
محمدامین
محمدباقر
محمدبن
محمدتقی
محمدجعفر
محمدجواد
محمدحسن
محمدحسین
محمدخان
محمدرضا
محمدزاده
محمدشاه
محمدصادق
محمدعلی
محمدمهدی
محمدهادی
محمدکاظم
محمدی
محمدیان
محمود
محموداباد
محمودی
محموله
محنت
محو
محور
محورهای
محوری
محوریت
محوطه
محول
محکم
محکمه
محکمی
محکوم
محکومیت
محیط
محیطی
مخابرات
مخابراتی
مخابره
مخارج
مخازن
مخاط
مخاطب
مخاطبان
مخاطره
مخالف
مخالفان
مخالفت
مخالفم
مخالفین
مخبر
مختار
مختاری
مخترع
مختص
مختصات
مختصر
مختصری
مختل
مختلط
مختلف
مختلفی
مخدر
مخرب
مخروط
مخروطی
مخزن
مخصوص
مخصوصا
مخصوصی
مخفف
مخفی
مخفیانه
مخلوط
مخلوطی
مخلوق
مخملباف
مخوف
مد
مداخلات
مداخله
مداد
مدار
مدارا
مداران
مدارس
مدارهای
مدارک
مدارکی
مداری
مدافع
مدافعان
مدال
مدام
مداوم
مدت
مدتها
مدتی
مدح
مدخل
مدد
مدرس
مدرسه
مدرسی
مدرسین
مدرن
مدرنیته
مدرنیسم
مدرک
مدرکی
مدعی
مدعیان
مدفن
مدفوع
مدفون
مدل
مدلسازی
مدلهای
مدلی
مدنظر
مدنی
مده
مدور
مدول
مدولاسیون
مدونا
مدی
مدیا
مدیترانه
مدیر
مدیران
مدیرعامل
مدیره
مدیرکل
مدیری
مدیریت
مدیریتی
مدیسون
مدینه
مدیون
مذاب
مذاهب
مذاکرات
مذاکراتی
مذاکره
مذكور
مذهب
مذهبی
مذکر
مذکور
مذکوره
مر
مرا
مرات
مراتب
مراتبی
مراتع
مراجع
مراجعت
مراجعه
مراحل
مراد
مرادی
مراسم
مراسمی
مراعات
مراغه
مراقب
مراقبت
مرام
مراکز
مراکش
مراکشی
مربع
مربعی
مربوط
مربوطه
مربی
مربیان
مربیگری
مرتب
مرتبا
مرتبط
مرتبه
مرتد
مرتضوی
مرتضی
مرتفع
مرتکب
مرثیه
مرج
مرجان
مرجانی
مرجع
مرجعیت
مرحله
مرحوم
مرخص
مرخصی
مرد
مرداب
مرداد
مردان
مردانه
مردانی
مرداویج
مردم
مردمان
مردمانی
مردمش
مردمک
مردمی
مردن
مرده
مردها
مردود
مردگان
مردی
مرز
مرزبان
مرزها
مرزهای
مرزی
مرسدس
مرسوم
مرسی
مرشد
مرض
مرضیه
مرطوب
مرعشی
مرغ
مرغابی
مرغان
مرغوب
مرغی
مرفه
مرقد
مرلین
مرمت
مرمر
مرموز
مرند
مرهم
مرو
مروارید
مروان
مروج
مرودشت
مرور
مرورگر
مروری
مروی
مريی
مرکب
مرکبات
مرکز
مرکزوار
مرکزی
مرکزیت
مرکل
مرکوری
مرگ
مرگبار
مرگش
مری
مریخ
مرید
مریدان
مریض
مریلند
مریم
مریوان
مزاج
مزاحم
مزاحمت
مزار
مزارع
مزایا
مزایای
مزایده
مزبور
مزد
مزدا
مزدور
مزدک
مزدیسنا
مزرعه
مزمن
مزن
مزه
مزیت
مزین
مس
مسابقات
مسابقاتی
مسابقه
مساجد
مساحت
مساحتی
مساعد
مساعدت
مسافت
مسافتی
مسافر
مسافران
مسافربری
مسافرت
مسافرتی
مسافری
مسالمت
مساله
مساوات
مساوی
مسايل
مسايلی
مسایل
مست
مستاجر
مستان
مستثنی
مستحق
مستحکم
مستخدم
مستخدمین
مستر
مسترد
مستضعفان
مستطیل
مستطیلی
مستعار
مستعد
مستعمرات
مستعمره
مستغلات
مستقر
مستقل
مستقلی
مستقیم
مستقیما
مستقیمی
مستلزم
مستمر
مستمری
مستند
مستندات
مستندساز
مستندسازی
مستندی
مستوفی
مستی
مسجد
مسجدسلیمان
مسجدی
مسخره
مسدود
مسطح
مسعود
مسعودی
مسقط
مسلح
مسلحانه
مسلسل
مسلط
مسلم
مسلما
مسلمان
مسلمانان
مسلمانی
مسلمین
مسموم
مسمومیت
مسن
مسند
مسوول
مسوولیت
مسيله
مسيول
مسيولان
مسيولیت
مسيولین
مسکن
مسکو
مسکونی
مسکین
مسی
مسیح
مسیحی
مسیحیان
مسیحیت
مسیر
مسیرها
مسیرهای
مسیری
مسیریابی
مسینا
مسیو
مش
مشابه
مشابهی
مشاجره
مشارکت
مشارکتی
مشاغل
مشاهدات
مشاهده
مشاهیر
مشاور
مشاوران
مشاوره
مشایخ
مشایخی
مشایی
مشبک
مشت
مشتاق
مشترک
مشترکا
مشترکی
مشتری
مشتریان
مشتق
مشتقات
مشتمل
مشتی
مشخص
مشخصا
مشخصات
مشخصه
مشخصی
مشرف
مشرق
مشروب
مشروبات
مشروح
مشروط
مشروطه
مشروطیت
مشروع
مشروعیت
مشعل
مشغول
مشق
مشمول
مشهد
مشهدی
مشهود
مشهور
مشهورترین
مشهوری
مشو
مشورت
مشورتی
مشوق
مشک
مشکل
مشکلات
مشکلاتی
مشکلی
مشکور
مشکوک
مشکی
مشکین
مشگین
مشی
مشیرالدوله
مشیری
مصاحب
مصاحبه
مصادره
مصادف
مصادیق
مصارف
مصاف
مصالح
مصالحه
مصايب
مصباح
مصحح
مصداق
مصدر
مصدق
مصدوم
مصدومیت
مصر
مصراع
مصرف
مصرفی
مصری
مصریان
مصطفوی
مصطفی
مصلح
مصلحت
مصلی
مصمم
مصنوعات
مصنوعی
مصو
مصوب
مصوبات
مصوبه
مصور
مصون
مصونیت
مصیبت
مضاعف
مضامین
مضر
مضمون
مطابق
مطابقت
مطالب
مطالبات
مطالبه
مطالبی
مطالعات
مطالعاتی
مطالعه
مطبوع
مطبوعات
مطبوعاتی
مطرب
مطرح
مطلب
مطلبی
مطلع
مطلق
مطلقا
مطلقه
مطلوب
مطلوبی
مطلوبیت
مطمين
مطمينا
مطهر
مطهری
مطیع
مظاهر
مظفر
مظفرالدین
مظفری
مظفریان
مظلوم
مظلومی
مظنون
مظهر
مع
معابد
معابر
معادل
معادلات
معادله
معادن
معارف
معاش
معاشرت
معاصر
معاف
معافیت
معالجه
معاملات
معامله
معانی
معاهدات
معاهده
معاون
معاونت
معاویه
معایب
معاینه
معبد
معبر
معتاد
معتبر
معتبرترین
معتبری
معتدل
معترض
معترضان
معترضین
معتصم
معتقد
معتقدم
معتقدند
معتمد
معتمدی
معجزات
معجزه
معجم
معدل
معدن
معدنی
معده
معدود
معدودی
معراج
معرب
معرض
معرف
معرفت
معرفی
معروف
معروفترین
معروفی
معرکه
معشوق
معشوقه
معصوم
معصومه
معصومی
معضل
معضلات
معطر
معطوف
معظم
معظمی
معقول
معلق
معلم
معلمان
معلمی
معلول
معلولیت
معلولین
معلوم
معلومات
معما
معمار
معماران
معماری
معمای
معمایی
معمر
معمول
معمولا
معمولی
معنا
معناست
معنای
معنایی
معنوی
معنویت
معني
معنی
معکوس
معیار
معیارهای
معیاری
معیشت
معین
معینی
معیوب
مغ
مغازه
مغالطه
مغان
مغایر
مغایرت
مغذی
مغرب
مغربی
مغرور
مغز
مغزی
مغلوب
مغناطیس
مغناطیسی
مغول
مغولان
مغولستان
مغولی
مف
مفاخر
مفاد
مفاصل
مفاهیم
مفاهیمی
مفتخر
مفتی
مفرد
مفرغ
مفسر
مفسران
مفصل
مفصلی
مفعول
مفقود
مفهوم
مفهومی
مفید
مفیدی
مقابل
مقابله
مقادیر
مقارن
مقاصد
مقاطع
مقالات
مقالاتی
مقاله
مقام
مقامات
مقامی
مقاوم
مقاومت
مقاومتی
مقایسه
مقبره
مقبول
مقتدر
مقتضی
مقتول
مقد
مقدار
مقداری
مقدس
مقدسات
مقدسی
مقدم
مقدمات
مقدماتی
مقدمه
مقدور
مقدونی
مقدونیه
مقر
مقرر
مقررات
مقرراتی
مقرنس
مقرون
مقصد
مقصر
مقصود
مقطع
مقطعات
مقطعی
مقعد
مقعدی
مقلد
مقننه
مقوله
مقیاس
مقید
مقیم
مل
ملا
ملات
ملاحظات
ملاحظه
ملاصدرا
ملاقات
ملامت
ملانی
ملاک
ملایر
ملایم
ملبورن
ملت
ملتی
ملحق
ملخ
ملزم
ملغی
ملقب
ملل
ملموس
ملوان
ملوانان
ملودی
ملوک
ملک
ملکان
ملکشاه
ملکشاهی
ملکه
ملکی
ملی
ملیت
ملیتی
ملیسا
ممالک
ممانعت
ممتاز
ممتنع
ممسنی
ممفیس
مملو
مملکت
مملکتی
ممنوع
ممنوعه
ممنوعیت
ممکن
ممیز
ممیزی
من
منا
منابع
منابعی
مناجات
منار
مناره
منازعه
منازل
مناسب
مناسبات
مناسبت
مناسبی
مناسک
مناصب
مناطق
مناطقی
مناظر
مناظره
منافذ
منافع
مناقب
مناقشه
منبت
منبر
منبع
منبعی
منت
منتخب
منتسب
منتشر
منتشرشده
منتظر
منتظری
منتظم
منتفی
منتقد
منتقدان
منتقدین
منتقل
منتهی
منثور
منجر
منجم
منجمد
منجمله
منحرف
منحصر
منحصرا
منحصربه
منحل
منحنی
مند
مندان
مندرج
مندی
منزل
منزلت
منزله
منزوی
منست
منسجم
منسوب
منسوجات
منسوخ
منش
منشا
منشاء
منشعب
منشور
منشورات
منشی
منصب
منصرف
منصف
منصفانه
منصفه
منصوب
منصور
منصوره
منصوری
منطبق
منطق
منطقه
منطقی
منظر
منظره
منظم
منظور
منظوره
منظوم
منظومه
منع
منعقد
منعکس
منفجر
منفجره
منفرد
منفعت
منفعل
منفی
منقار
منقرض
منقضی
منقول
منم
منه
منهتن
منهدم
منهم
منو
منوط
منوچهر
منوچهری
منچستر
منکر
منگنز
منی
منیر
منیزیم
منیژه
مه
مهاباد
مهاجر
مهاجران
مهاجرانی
مهاجرت
مهاجرین
مهاجم
مهاجمان
مهار
مهارت
مهارکننده
مهتاب
مهتر
مهد
مهدوی
مهدی
مهر
مهراباد
مهران
مهربان
مهربانی
مهرجویی
مهرداد
مهرماه
مهره
مهرگان
مهری
مهستی
مهلت
مهم
مهمات
مهمان
مهمانان
مهمانی
مهمتر
مهمترین
مهمی
مهناز
مهندس
مهندسان
مهندسی
مهندسین
مهیا
مهیج
مهین
مو
مواجه
مواجهه
مواد
موادی
موارد
مواردی
موازات
موازنه
موازی
موازین
مواضع
موافق
موافقت
موافقتنامه
مواقع
مواقعی
موانع
موبایل
موبد
موبدان
موت
موتسارت
موتلفه
موتور
موتورز
موتورسیکلت
موتوره
موتورها
موتورهای
موتوری
موتوریزه
موتیف
موثر
موثرتر
موثرترین
موثری
موج
موجب
موجبات
موجه
موجو
موجود
موجودات
موجوداتی
موجودی
موجودیت
موجی
موحد
مود
مودم
مودنا
مودی
مور
مورب
مورخ
مورخان
مورخین
مورد
موردنظر
موردنیاز
موردی
مورفی
مورو
موروثی
مورچه
مورگان
موری
موریتانی
موریس
موریسون
مورینیو
موز
موزامبیک
موزه
موزون
موزیک
موزیکال
موس
موساد
موسس
موسسات
موسسان
موسسه
موسوعة
موسولینی
موسوم
موسوی
موسی
موسیقایی
موسیقی
موسیقیدان
موش
موشک
موشکی
موشی
موصل
موضع
موضعی
موضوع
موضوعات
موضوعاتی
موضوعی
موظف
موعد
موعظه
موعود
موفق
موفقی
موفقیت
موفقیتی
موقت
موقتا
موقتی
موقع
موقعی
موقعیت
موقعیتی
موقوف
موقوفات
مول
مولانا
مولتی
مولد
مولداوی
مولر
مولف
مولفان
مولفه
مولوی
مولکول
مولکولی
مولی
موم
مومن
مومنان
مومنی
مومیایی
مون
مونا
موناکو
مونت
مونتانا
مونتاژ
مونترال
مونته
مونتگومری
مونث
مونرو
مونس
مونه
مونیخ
مونیکا
موهای
موومان
مووی
موکول
موی
موید
مویی
مى
مي
ميان
مپرس
مچ
مژده
مژه
مژگان
مک
مکاتب
مکاتبات
مکاتبه
مکارم
مکالمات
مکالمه
مکان
مکانهای
مکانی
مکانیزم
مکانیزه
مکانیسم
مکانیک
مکانیکی
مکتب
مکتبی
مکتوب
مکتوم
مکر
مکران
مکرر
مکررا
مکری
مکزیک
مکزیکو
مکزیکی
مکس
مکش
مکعب
مکعبی
مکلف
مکمل
مکن
مکنزی
مکه
مکی
مکینتاش
مگ
مگان
مگاهرتز
مگاوات
مگر
مگس
مگو
مگی
می
میا
میابد
میادین
میازاکی
میامی
میان
میانجی
میاندواب
میانرودان
میانمار
میانه
میانگین
میانی
میاید
میباشد
میباشند
میبد
میبود
میت
میترا
میتسوبیشی
میتوان
میتواند
میتوانند
میتوکندری
میثاق
میثم
میجی
میخ
میخانه
میخايیل
میخواهد
میخی
مید
میداد
میدان
میدانی
میدهد
میدهند
میر
میرا
میراث
میراشرافی
میراندا
میرجاوه
میرحسین
میرد
میرزا
میرزای
میرزایی
میرسد
میرشکاری
میرفت
میرند
میرود
میری
میز
میزان
میزانی
میزبان
میزبانی
میزوری
میس
میسر
میسون
میسیسیپی
میش
میشد
میشل
میشه
میشود
میشوند
میشیگان
میل
میلاد
میلادی
میلان
میلانی
میلتون
میلر
میلز
میله
میلی
میلیارد
میلیمتر
میلیمتری
میلیون
میلیونی
میم
میمون
مین
مینا
میناب
میناموتو
مینستر
مینسک
مینه
مینو
مینور
مینوی
مینگ
مینی
مینیاتور
میهمان
میهمانان
میهن
میهنی
میوزیک
میوه
میچل
میک
میکا
میکايیل
میکده
میکرد
میکردند
میکرو
میکروارگانیسم
میکروب
میکروبی
میکروسکوپ
میکروسکوپی
میکرومتر
میکرون
میکرونزی
میکس
میکل
میکند
میکنم
میکنند
میکنیم
میکی
میگ
میگردد
میگل
میگو
میگوید
میگویند
میگیرد
ن
نا
ناارامی
ناامنی
ناامید
ناامیدی
ناب
نابجایی
نابرابری
نابغه
نابود
نابودگر
نابودی
نابینا
نات
ناتالی
ناتالیا
ناتان
ناتل
ناتمام
ناتنی
ناتو
ناتوان
ناتوانی
ناتینگهام
ناجا
ناجی
ناحیه
ناخالص
ناخالصی
ناخدا
ناخن
ناخواسته
ناخوداگاه
ناخوشایند
ناد
نادان
نادانی
نادر
نادرست
نادرستی
نادرشاه
نادری
نادیا
نادیده
نار
ناراحت
ناراحتی
ناراضی
نارسایی
نارضایتی
نارنج
نارنجک
نارنجی
نارگیل
ناز
نازل
نازنین
نازک
نازکی
نازی
ناسا
ناسازگار
ناسازگاری
ناسیونال
ناسیونالیسم
ناشر
ناشران
ناشناخته
ناشناس
ناشی
ناصر
ناصرالدین
ناصرخسرو
ناصری
ناطق
ناظر
ناظران
ناظرزاده
ناظری
ناظم
ناف
نافذ
نافرجام
نافرمانی
ناقص
ناقل
ناقوس
ناله
نام
نامبرده
نامتقارن
نامتناهی
نامجو
نامحدود
نامحسوس
نامد
نامدار
نامريی
نامزد
نامزدان
نامزدها
نامزدهای
نامزدی
نامش
نامشان
نامشخص
نامشروع
نامطلوب
نامعتبر
نامعلوم
نامعلومی
ناممکن
نامناسب
نامند
نامنظم
نامه
نامهای
ناموجود
نامور
ناموس
ناموفق
نامگذاری
نامی
نامیبیا
نامید
نامیدند
نامیده
نامیم
نان
نانت
نانسی
نانو
نانوذرات
نانولوله
نانومتر
نانی
ناهار
ناهموار
ناهنجاری
ناهید
ناو
ناوبری
ناوشکن
ناوهای
ناوچه
ناوگان
نايب
نايل
نايومی
نايین
نايینی
ناپایدار
ناپایداری
ناپدید
ناپذیر
ناپذیری
ناپل
ناپليون
ناپولی
ناپیوسته
ناچار
ناچیز
ناچیزی
ناک
ناکارامد
ناکافی
ناکام
ناکامی
ناگاه
ناگزیر
ناگفته
ناگه
ناگهان
ناگهانی
ناگوار
ناگویا
نای
نایب
نایت
نایجل
ناید
نایل
نبات
نباتات
نباتی
نباشد
نباشند
نباید
نبراسکا
نبرد
نبرده
نبردها
نبردهای
نبردی
نبش
نبشته
نبض
نبوت
نبود
نبودم
نبودن
نبودند
نبوده
نبودی
نبوغ
نبوی
نبی
نبیند
نت
نتانیاهو
نتایج
نتفلیکس
نتوان
نتواند
نتوانست
نتوانستند
نتوانسته
نتوانند
نتورک
نتیجتا
نتیجه
نثار
نثر
نج
نجات
نجار
نجف
نجفی
نجم
نجوم
نجومی
نجیب
نحو
نحوه
نحوی
نخ
نخاع
نخاعی
نخبه
نخبگان
نخجوان
نخست
نخستین
نخل
نخلستان
نخواهد
نخواهم
نخواهند
نخواهی
نخواهیم
نخود
نخورد
نخورده
ند
ندا
نداد
ندادن
ندادند
نداده
ندارد
ندارم
ندارند
نداره
نداری
ندارید
نداریم
نداشت
نداشتم
نداشتن
نداشتند
نداشته
نداند
ندانم
ندای
ندرت
ندهد
ندهند
ندهید
ندوشن
ندید
ندیدم
ندیده
ندیم
نذر
نر
نراقی
نرخ
نردبان
نرده
نرساند
نرسد
نرسید
نرسیده
نرفت
نرفته
نرم
نرمال
نرمی
نرها
نرود
نرون
نروژ
نروژی
نرگس
نریمان
نزاع
نزد
نزدیک
نزدیکان
نزدیکتر
نزدیکترین
نزدیکی
نزن
نزول
نزولی
نس
نساجی
نسب
نسبت
نسبتا
نسبتی
نسبی
نسبیت
نستعلیق
نسخ
نسخه
نسرین
نسل
نسلی
نسیم
نش
نشات
نشاسته
نشاط
نشان
نشاند
نشانده
نشانه
نشانگان
نشانگر
نشانی
نشاید
نشت
نشد
نشدن
نشدند
نشدنی
نشده
نشر
نشریات
نشریه
نشست
نشستن
نشستند
نشسته
نشستی
نشنال
نشود
نشوند
نشیب
نشیمن
نشین
نشینان
نشیند
نشینند
نشینی
نص
نصاب
نصب
نصر
نصرالله
نصرت
نصف
نصیب
نصیحت
نصیر
نصیرالدین
نصیری
نطق
نطنز
نظارت
نظارتی
نظاره
نظافت
نظام
نظامنامه
نظامی
نظامیان
نظر
نظرات
نظران
نظرسنجی
نظرش
نظرم
نظری
نظریات
نظریه
نظم
نظمی
نظمیه
نظیر
نظیری
نعره
نعل
نعم
نعمان
نعمت
نعمتی
نعناع
نعیم
نغمه
نفاق
نفت
نفتی
نفر
نفرات
نفرت
نفره
نفری
نفرین
نفس
نفسی
نفع
نفوذ
نفوذی
نفوس
نفی
نفیس
نفیسی
نقاب
نقاش
نقاشان
نقاشی
نقاط
نقاطی
نقد
نقده
نقدهای
نقدی
نقدینگی
نقره
نقش
نقشه
نقشی
نقص
نقصان
نقض
نقطه
نقطە
نقل
نقلی
نقلیه
نقوش
نقی
نلسون
نم
نما
نماد
نمادها
نمادهای
نمادی
نمادین
نماز
نمازخانه
نمازی
نماند
نمانده
نماهای
نماهنگ
نمای
نمایان
نمایانگر
نماید
نمایش
نمایشنامه
نمایشگاه
نمایشگاهی
نمایشگر
نمایشی
نمایم
نمایند
نماینده
نمایندگان
نمایندگانی
نمایندگی
نمایه
نمایی
نمایید
نماییم
نمرات
نمره
نمو
نمود
نمودار
نمودارهای
نمودم
نمودن
نمودند
نموده
نمونه
نمي
نمک
نمکی
نمی
نمیشود
نمین
ننماید
ننه
ننگ
نه
نهاد
نهادن
نهادند
نهاده
نهادها
نهادهای
نهادی
نهال
نهان
نهانی
نهاوند
نهایت
نهایتا
نهایی
نهبندان
نهج
نهد
نهر
نهصد
نهضت
نهفته
نهم
نهمین
نهند
نهنگ
نهی
نو
نوا
نواب
نواحی
نواخت
نواختن
نواخته
نوادا
نواده
نوادگان
نوار
نوارهای
نواری
نواز
نوازش
نوازنده
نوازندگان
نوازندگی
نوازی
نوامبر
نواورانه
نواوری
نوای
نوایی
نوبت
نوبتی
نوبل
نوبه
نوبهار
نوبوناگا
نوت
نوترون
نوجوان
نوجوانان
نوجوانی
نوح
نوحه
نود
نور
نورا
نوراباد
نورالدین
نورالله
نورانی
نوربخش
نورت
نورتون
نورث
نورد
نوردراین
نوردی
نورعلی
نورمن
نورمگز
نورنبرگ
نوروز
نوروزی
نورون
نورپردازی
نوری
نوزاد
نوزادان
نوزادی
نوزده
نوزدهم
نوزدهمین
نوسازی
نوسان
نوسانات
نوسنگی
نوش
نوشابه
نوشت
نوشتار
نوشتاری
نوشتم
نوشتن
نوشتند
نوشته
نوشهر
نوشیدن
نوشیدنی
نوشین
نوظهور
نوع
نوعی
نولان
نون
نوه
نووا
نووی
نويل
نوک
نوکیا
نوی
نوید
نویز
نویس
نویسان
نویسد
نویسند
نویسنده
نویسندگان
نویسندگانی
نویسندگی
نویسه
نویسی
نوین
نوینی
نویی
نيز
نيست
نيو
نپال
نپتون
نپذیرفت
نژاد
نژادهای
نژادپرستی
نژادی
نک
نکا
نکات
نکاتی
نکاح
نکته
نکرد
نکردم
نکردن
نکردند
نکرده
نکشید
نکن
نکند
نکنم
نکنند
نکنی
نکنید
نکنیم
نکو
نکوهش
نگ
نگار
نگاران
نگارخانه
نگارش
نگارنده
نگاره
نگارگری
نگاری
نگاشت
نگاشته
نگاه
نگاهداری
نگاهی
نگذاشت
نگر
نگران
نگرانی
نگردد
نگردید
نگرش
نگرشی
نگرفت
نگرفته
نگرو
نگری
نگفته
نگه
نگهبان
نگهبانان
نگهبانی
نگهدارنده
نگهداری
نگو
نگیرد
نگین
نی
نیا
نیابت
نیابد
نیاز
نیازمند
نیازمندی
نیازها
نیازهای
نیازی
نیافت
نیافته
نیام
نیامد
نیامده
نیاوران
نیاورد
نیاورده
نیاکان
نیای
نیاید
نیایش
نیایشگاه
نیت
نیترات
نیتروژن
نیجر
نیجریه
نیر
نیرنگ
نیرو
نیرومند
نیروها
نیروهای
نیروهایش
نیروهایی
نیروگاه
نیروی
نیرویی
نیز
نیزه
نیس
نیسان
نیست
نیستم
نیستند
نیستی
نیستیم
نیش
نیشابور
نیشابوری
نیشکر
نیل
نیلوفر
نیلی
نیم
نیما
نیمروز
نیمه
نیمکت
نیمکره
نیمی
نینا
نینتندو
نینوا
نیو
نیوتن
نیوتون
نیوجرسی
نیوز
نیوزلند
نیوزیلند
نیومن
نیومکزیکو
نیوهمپشایر
نیوکاسل
نیویورک
نیچه
نیک
نیکاراگويه
نیکسون
نیکل
نیکلاس
نیکلای
نیکو
نیکول
نیکولا
نیکولاس
نیکولای
نیکوکار
نیکی
ه
ها
هاب
هابسبورگ
هابل
هات
هاتسپر
هاتف
هادسون
هادی
هارا
هاربر
هارت
هارد
هاردی
هارمونی
هارمونیک
هاروارد
هارولد
هارون
هاروی
هارپر
هاست
هاشم
هاشمی
هافبک
هافمن
هال
هالند
هاله
هالووین
هالک
هالی
هالیوود
هامبورگ
هامون
هان
هانا
هانت
هانتر
هانری
هانس
هانسن
هانوفر
هانی
هانیبال
هاو
هاوارد
هاوانا
هاوایی
هاوس
هاوک
هاى
هاي
هايی
هايیتی
هاپ
هاپکینز
هاکی
هاگ
های
هاید
هایدلبرگ
هایدن
هایده
هایدگر
هایش
هایشان
هایم
هاینریش
هایک
هایی
هت
هتل
هجده
هجدهم
هجدهمین
هجر
هجران
هجرت
هجری
هجوم
هخامنشی
هخامنشیان
هد
هدایای
هدایت
هدایتی
هدر
هدف
هدفش
هدفمند
هدفی
هدی
هدیه
هذا
هذه
هر
هرا
هرات
هراتی
هراز
هراس
هراسی
هران
هرانا
هربرت
هرتز
هرج
هرجا
هرحال
هرد
هردو
هرز
هرزه
هرزگوین
هرساله
هرسین
هرم
هرمان
هرمز
هرمزگان
هرمس
هرمی
هرودوت
هروی
هرچند
هرچه
هرکدام
هرکس
هرکسی
هرکه
هرکول
هرگاه
هرگز
هرگونه
هری
هریس
هریسون
هریک
هزار
هزاران
هزاره
هزینه
هست
هستم
هستند
هسته
هستی
هستید
هستیم
هسن
هش
هشام
هشت
هشتاد
هشترود
هشتصد
هشتم
هشتمین
هشتگ
هشدار
هشیار
هضم
هـ
هفت
هفتاد
هفتصد
هفتم
هفتمین
هفته
هفتگی
هفده
هفدهم
هفدهمین
هل
هلال
هلالی
هلاک
هلدینگ
هلسینکی
هلمز
هلمند
هلموت
هلن
هلنا
هلند
هلندی
هله
هلو
هلی
هلیوم
هلیکوپتر
هم
هما
همان
همانا
همانجا
همانطور
همانند
همانندی
همانگونه
همانی
هماهنگ
هماهنگی
همای
همایش
همایون
همایونی
همبازی
همبستگی
همبند
همت
همتا
همتای
همتی
همجنس
همجنسگرا
همجنسگرایان
همجوار
همجوشی
همخوان
همخوانی
همدان
همدانی
همدردی
همدلی
همدم
همدیگر
همراه
همراهان
همراهانش
همراهی
همزمان
همزیستی
همسان
همسایه
همسایگان
همسایگی
همسر
همسران
همسرش
همسری
همسو
همسود
همشهری
هملت
همه
هموار
همواره
هموگلوبین
همين
همپتون
همپوشانی
همچنان
همچنین
همچو
همچون
همچین
همکار
همکاران
همکارانش
همکاری
همکلاسی
همگام
همگان
همگانی
همگرا
همگرایی
همگن
همگی
همی
همیشه
همیشگی
همیلتون
همین
همینطور
همە
هنج
هنجارهای
هند
هندبال
هندرسون
هندسه
هندسی
هندو
هندواروپایی
هندوانه
هندوراس
هندوستان
هندوها
هندويیسم
هندی
هنر
هنرستان
هنرمند
هنرمندان
هنرمندانی
هنرمندی
هنرنمایی
هنرها
هنرهای
هنرپیشه
هنری
هنریک
هنوز
هنگ
هنگام
هنگامه
هنگامی
هنگامیکه
هه
هو
هوا
هوادار
هواداران
هوارد
هوازی
هواشناسی
هوافضا
هوافضای
هوانوردی
هوانگ
هواپیما
هواپیمابر
هواپیماها
هواپیماهای
هواپیمای
هواپیمایی
هواگرد
هواگردها
هواگردهای
هوای
هوایی
هوجو
هود
هور
هورمون
هورن
هوس
هوش
هوشمند
هوشمندانه
هوشنگ
هوشی
هوشیار
هوشیاری
هولمز
هولوکاست
هوم
هومر
هومن
هون
هوندا
هونگ
هوو
هوپ
هوک
هوکایدو
هوگو
هوی
هویت
هویتی
هویج
هویدا
هيچ
هپاتیت
هک
هکتار
هکتور
هگل
هی
هیات
هیبت
هیت
هیتلر
هیتی
هیجان
هیجانی
هیجده
هیدرولیک
هیدرولیکی
هیدروژن
هیدروژنی
هیدروکربن
هیدروکسی
هیدروکسید
هیده
هیرمند
هیروشیما
هیز
هیزم
هیل
هیلاری
هیلز
هیلی
هیمالیا
هین
هینتس
هیو
هیوز
هیوستون
هیولا
هیولای
هیوم
هیون
هیوندای
هیيت
هیيتی
هیپ
هیچ
هیچوقت
هیچکاک
هیچکس
هیچگاه
هیچگونه
هیکل
و
وا
وابسته
وابستگی
وات
واتر
واترز
واترپلو
واتس
واتسون
واتفورد
واتیکان
واج
واجب
واجد
واحد
واحده
واحدها
واحدهای
واحدی
وادار
واداشت
وادی
وار
واران
وارث
وارد
واردات
وارداتی
وارده
وارن
وارنر
واره
وارون
وارونه
واری
واریانس
واز
واسط
واسطه
واسیلی
واشنگتن
واشینگتن
واضح
واعظ
واعظی
وافه
واقع
واقعا
واقعه
واقعی
واقعیت
واقف
وال
والا
والاس
والت
والتر
والتوزیع
والتون
والد
والدین
والدینش
والری
والش
والفجر
والله
والنتین
والنسیا
والنشر
واله
والی
والیبال
وام
وامد
وامی
وان
وانت
وانتشار
واندررز
وانمود
وانگ
واو
واپاشی
واپسین
واژن
واژه
واژگان
واژگانی
واژگون
واژگونی
واکر
واکسن
واکسیناسیون
واکنش
واکنشی
واکه
واگذار
واگذاری
واگن
واگنر
وای
وایادولید
وایت
وایر
وایس
وایلد
وایمار
واین
وایومینگ
وایکینگ
وب
وبا
وبر
وبسایت
وبستر
وبلاگ
وبه
وبگاه
وتخت
وثوق
وثوقی
وثیقه
وجدان
وجه
وجهه
وجهی
وجود
وجودی
وجوه
وحدت
وحش
وحشت
وحشتناک
وحشی
وحشیانه
وحی
وحید
وخ
وخامت
وخیم
ود
وداع
ودر
ور
ورا
وراث
وراثت
ورامین
وران
ورای
ورایتی
ورثه
ورد
وردی
ورز
ورزد
ورزش
ورزشکار
ورزشکاران
ورزشگاه
ورزشی
ورزقان
ورزی
ورزید
ورسای
ورشو
ورشکسته
ورشکستگی
ورق
ورقه
ورلد
ورم
ورماخت
ورن
ورنر
ورنه
ورود
ورودی
ورونا
ورونیکا
ورژن
ورک
وری
وریدی
وز
وزارت
وزارتخانه
وزرا
وزراء
وزرای
وزش
وزن
وزنه
وزنی
وزیر
وزیران
وزیری
وس
وساز
وساطت
وسايل
وسایل
وسایلی
وست
وسترن
وستفالن
وستهام
وسط
وسطایی
وسطی
وسعت
وسواس
وسوسه
وسیع
وسیعی
وسیله
وش
وشمگیر
وصال
وصف
وصل
وصلت
وصول
وصیت
وضع
وضعی
وضعیت
وضعیتی
وضوح
وطن
وظايف
وظایف
وظایفی
وظیفه
وعده
وعن
وفا
وفات
وفادار
وفاداری
وفایی
وفق
وفور
وقال
وقایع
وقت
وقتی
وقتیکه
وقف
وقفه
وقوع
ول
ولا
ولادت
ولادیمیر
ولایات
ولایت
ولایتی
ولت
ولتاژ
ولد
ولز
ولسوالی
ولف
ولفگانگ
ولنتاین
وله
ولو
ولورهمپتون
ولگا
ولگرد
ولی
ولید
ولیعصر
ولیعهد
ولیک
ولیکن
وم
ومبلی
ومن
ون
وند
وندی
ونزويلا
ونسا
ونسان
ونقل
ونوس
ونکوور
ونیز
ونیزی
وه
وهله
وهم
وهو
وهوای
وو
وود
وودز
وودی
وورتمبرگ
وولف
وون
وي
وکار
وکالت
وکلا
وکلای
وکیل
وکیلی
وگاس
وگر
وگرنه
وگو
وی
ویا
ویت
ویتامین
ویتنام
ویتنامی
ویتنی
ویتوریو
وید
ویديو
ویديوهای
ویديوی
ویديویی
ویدیو
ویدیوی
ویدیویی
ویر
ویراست
ویراستار
ویراستاران
ویراستاری
ویران
ویرانه
ویرانگر
ویرانی
ویرایش
ویرایشگر
ویرجین
ویرجینیا
ویرجینیای
ویروس
ویروسی
ویزا
ویس
ویستا
ویسکانسین
ویل
ویلا
ویلسون
ویلم
ویلن
ویلهلم
ویلی
ویلیام
ویلیامز
ویلیس
ویمبلدون
وین
ویندوز
وینستون
وینسنت
وینی
وینیل
ویو
ویولا
ویولن
ویچ
ویچنزا
ویژه
ویژوال
ویژگی
ویژگیهای
ویک
ویکتور
ویکتوریا
ویکلی
ویکی
ى
ي
يا
يعني
يقول
يك
يكي
ين
يه
يک
يی
٠
١
٢
٣
٤
٥
٦
٧
٨
٩
٪
٫
٬
ٱ
ٴ
ٹ
پ
پا
پاب
پابرجا
پابلو
پاتر
پاتریک
پاداش
پادتن
پادشاه
پادشاهان
پادشاهی
پادکست
پادگان
پار
پارادوکس
پارالمپیک
پارامتر
پارامترها
پارامترهای
پارامونت
پاراژنز
پاراگويه
پارت
پارتی
پارتیزان
پارس
پارسا
پارسه
پارسی
پارسیان
پارلمان
پارلمانی
پارما
پاره
پارچه
پارک
پارکر
پارکینسون
پارکینگ
پارگی
پاری
پاریس
پارینه
پازل
پاس
پاسارگاد
پاسبان
پاستور
پاسخ
پاسخگو
پاسخگویی
پاسخی
پاسدار
پاسداران
پاسداری
پاسکال
پاسگاه
پاش
پاشا
پاشایی
پاشنه
پاشیده
پافشاری
پال
پالاس
پالایش
پالایشگاه
پالرمو
پالس
پالم
پالمر
پان
پاناما
پانزده
پانزدهم
پانزدهمین
پانصد
پانل
پانک
پاها
پاهای
پاور
پاورقی
پاول
پاوه
پايول
پايولا
پايولو
پايیز
پايین
پاپ
پاپوا
پاپی
پاک
پاکت
پاکسازی
پاکستان
پاکستانی
پاکی
پاکیزه
پای
پایا
پایان
پایانه
پایانی
پایبند
پایبندی
پایتخت
پایتختی
پایتون
پایدار
پایداری
پایش
پاین
پاینده
پایه
پایور
پایگاه
پایی
پاییز
پایین
پایینی
پایە
پت
پتاسیم
پتانسیل
پتر
پترزبورگ
پترسون
پتروشیمی
پتی
پخت
پختن
پخته
پختونخوا
پخش
پد
پدافند
پدر
پدران
پدربزرگ
پدربزرگش
پدرخوانده
پدرش
پدرشان
پدرم
پدرو
پدری
پدیا
پدیای
پدید
پدیدار
پدیداور
پدیداورد
پدیداورنده
پدیده
پذیر
پذیرای
پذیرایی
پذیرد
پذیرش
پذیرفت
پذیرفتن
پذیرفتند
پذیرفته
پذیرند
پذیرنده
پذیری
پر
پراب
پرادش
پراش
پرافتخارترین
پرانتز
پراوازه
پراکنده
پراکندگی
پراکنش
پراگ
پرایس
پربیننده
پرت
پرتاب
پرتال
پرتره
پرتغال
پرتغالی
پرتقال
پرتو
پرتوهای
پرتوی
پرجمعیت
پرداخت
پرداختن
پرداختند
پرداخته
پرداختی
پرداز
پردازان
پردازد
پردازش
پردازند
پردازنده
پردازی
پردازیم
پرده
پردیس
پررنگ
پرز
پرزیدنت
پرس
پرست
پرستار
پرستاران
پرستاری
پرستان
پرستش
پرستشگاه
پرستو
پرستون
پرستی
پرسد
پرسش
پرسشنامه
پرسنل
پرسه
پرسپولیس
پرسی
پرسید
پرسیدم
پرسیدند
پرسیده
پرش
پرشور
پرطرفدار
پرفروش
پرقدرت
پرل
پرند
پرنده
پرندگان
پرنس
پرنسس
پره
پرهای
پرهزینه
پرهیز
پرو
پروا
پرواز
پروازش
پروازهای
پروازی
پروانه
پروتستان
پروتون
پروتيین
پروتيینی
پروتکل
پروجا
پرور
پرورده
پروردگار
پرورش
پروری
پروس
پروستات
پروسه
پروفایل
پروفسور
پرونده
پروژه
پرویز
پروین
پرچم
پرگار
پری
پریان
پرید
پریدن
پریده
پریسا
پریش
پریشان
پریشانی
پریشی
پرینس
پرینستون
پز
پزشک
پزشکان
پزشکی
پس
پسا
پست
پستان
پستانداران
پسته
پستی
پسر
پسران
پسرانش
پسرانه
پسرش
پسرها
پسری
پسماند
پسند
پسندیده
پسوند
پسین
پشت
پشته
پشتو
پشتوانه
پشتون
پشتکوه
پشتی
پشتیبان
پشتیبانی
پشم
پشمی
پشه
پشیمان
پشیمانی
پل
پلاته
پلاتین
پلاس
پلاستیک
پلاستیکی
پلاسما
پلان
پلانک
پلاک
پلت
پلتفرم
پلدختر
پلنگ
پله
پلو
پلک
پلکان
پلکانی
پلی
پلید
پلیس
پلیسی
پلیمر
پلیمرها
پلیمرهای
پلیمری
پلیموث
پمپ
پن
پنالتی
پناه
پناهجویان
پناهنده
پناهندگان
پناهندگی
پناهگاه
پناهی
پنبه
پنتاگون
پنج
پنجاب
پنجاه
پنجاهمین
پنجره
پنجشنبه
پنجشیر
پنجم
پنجمین
پنجه
پند
پندار
پنداری
پنداشت
پنداشتند
پنداشته
پنسیلوانیا
پنل
پنهان
پنهانی
پنگوين
پنی
پنیر
په
پهلو
پهلوان
پهلوانان
پهلوانی
پهلوی
پهن
پهناور
پهنای
پهنه
پهپاد
پو
پوارو
پوتین
پود
پودر
پودمان
پور
پوران
پورت
پورتال
پورتر
پورتسموث
پورتلند
پورتو
پورتوریکو
پورشه
پورن
پورنوگرافی
پوری
پوریا
پوزه
پوزیشن
پوست
پوستان
پوستر
پوسته
پوستی
پوسیدگی
پوش
پوشان
پوشاند
پوشاندن
پوشانده
پوشاک
پوشد
پوشش
پوششی
پوشند
پوشه
پوشی
پوشید
پوشیدن
پوشیده
پول
پولاد
پولس
پولک
پولی
پولیتزر
پولیس
پوند
پونه
پوچ
پویا
پویانمایی
پویایی
پویش
پوینت
پيش
پيغمبر
پچ
پژمان
پژو
پژواک
پژوه
پژوهان
پژوهش
پژوهشها
پژوهشهای
پژوهشکده
پژوهشگاه
پژوهشگر
پژوهشگران
پژوهشی
پژوهی
پک
پکن
پگاه
پی
پیاده
پیاز
پیام
پیامبر
پیامبران
پیامبری
پیامد
پیامدهای
پیامک
پیامی
پیانو
پیانیست
پیاپی
پیت
پیتر
پیترو
پیج
پیدا
پیداست
پیدایش
پیر
پیرامون
پیرامونی
پیران
پیرانشهر
پیراهن
پیرزن
پیرس
پیرمرد
پیرنیا
پیرو
پیروان
پیروانش
پیروز
پیروزی
پیروی
پیری
پیزا
پیس
پیست
پیستون
پیش
پیشامد
پیشانی
پیشاور
پیشبرد
پیشتاز
پیشتازان
پیشتر
پیشخدمت
پیشرانه
پیشرفت
پیشرفته
پیشرو
پیشروی
پیشنهاد
پیشنهادات
پیشنهادها
پیشنهادهای
پیشنهادی
پیشه
پیشوا
پیشوای
پیشوند
پیشکسوت
پیشکسوتان
پیشکش
پیشگام
پیشگامان
پیشگاه
پیشگفتار
پیشگویی
پیشگیری
پیشی
پیشین
پیشینه
پیشینیان
پیغام
پیغمبر
پیل
پیله
پیما
پیمان
پیمانه
پیمانکار
پیمانی
پیمایش
پیمایی
پین
پینک
پینگ
پیوست
پیوستن
پیوستند
پیوسته
پیوستگی
پیوند
پیوندد
پیوندند
پیوندهای
پیوندهایی
پیوندی
پیچ
پیچیده
پیچیدگی
پیک
پیکار
پیکاسو
پیکان
پیکر
پیکربندی
پیکره
پیکسل
پیکچرز
پیگرد
پیگیری
چ
چابهار
چابک
چاد
چادر
چار
چاراویماق
چارت
چارلتون
چارلز
چارلی
چاره
چارچوب
چاشنی
چاق
چاقو
چاقی
چال
چالدران
چالش
چاله
چالوس
چامسکی
چان
چانه
چانگ
چاه
چاهی
چاوز
چاوشی
چاپ
چاپخانه
چاپلین
چاپگر
چاپی
چاک
چای
چایخوری
چت
چتر
چخوف
چدن
چرا
چراغ
چراغی
چراکه
چراگاه
چرایی
چرب
چربی
چرخ
چرخان
چرخد
چرخش
چرخشی
چرخه
چرم
چرمی
چرچ
چرچیل
چری
چریک
چریکی
چسب
چسبندگی
چسبیده
چستر
چشم
چشمان
چشمت
چشمش
چشمم
چشمه
چشمگیر
چشمگیری
چشمی
چطور
چغندر
چقدر
چلسی
چله
چم
چمدان
چمران
چمن
چن
چنار
چناران
چنان
چنانچه
چنانکه
چند
چندان
چندانی
چندجمله
چندملیتی
چندمنظوره
چندوجهی
چندگانه
چندی
چندین
چنگ
چنگال
چنگیز
چنین
چه
چهار
چهارباغ
چهاردانگه
چهارده
چهاردهم
چهاردهمین
چهارراه
چهارشنبه
چهارصد
چهارم
چهارمحال
چهارمین
چهارچوب
چهارگانه
چهارگاه
چهارگوش
چهره
چهل
چهلمین
چو
چوب
چوبی
چوبین
چوسان
چول
چون
چونک
چونکه
چونگ
چوپان
چوگان
چوی
چپ
چچن
چک
چکاوک
چکسلواکی
چکش
چکمه
چکی
چکیده
چگالی
چگونه
چگونگی
چی
چیبا
چیدمان
چیدن
چیده
چیره
چیرگی
چیز
چیزها
چیزهای
چیزهایی
چیزی
چیس
چیست
چین
چینه
چینگ
چینی
چیپ
ڕ
ژ
ژاله
ژان
ژانت
ژاندارمری
ژانر
ژانویه
ژانگ
ژانیرو
ژاپن
ژاپنی
ژاک
ژرف
ژرفای
ژرمن
ژرمنی
ژرژ
ژل
ژن
ژنتیک
ژنتیکی
ژنراتور
ژنرال
ژنریک
ژنو
ژنوم
ژنی
ژو
ژوراسیک
ژورنال
ژوزف
ژوزه
ژول
ژولیت
ژولیوس
ژوين
ژويیه
ژيوفیزیک
ژیل
ژیمناست
ژیمناستیک
ڤ
ک
کا
کاباره
کابل
کابلی
کابوس
کابین
کابینه
کاتالان
کاتالونیا
کاتالوگ
کاتالیزور
کاتالیست
کاتب
کاتد
کاترین
کاترینا
کاتلین
کاتوزیان
کاتولیک
کاتیون
کاج
کاخ
کادر
کاذب
کار
کارا
کاراته
کارازمایی
کارافرین
کارافرینی
کارامد
کارامدی
کاراموزی
کاران
کارانه
کارايیب
کاراکتر
کاراکترهای
کاراگاه
کارایی
کاربر
کاربران
کاربرد
کاربردها
کاربردهای
کاربردی
کاربری
کاربید
کارت
کارتاژ
کارتر
کارتون
کارتونی
کارتوگرافی
کارتی
کارخانجات
کارخانه
کارد
کاردان
کاردانی
کاردیف
کاردینال
کارزار
کارساز
کارش
کارشان
کارشناس
کارشناسان
کارشناسی
کارفرما
کارفرمایان
کارل
کارلا
کارلایل
کارلسروهه
کارلو
کارلوس
کارم
کارمن
کارمند
کارمندان
کارن
کارناتاکا
کارنامه
کارناوال
کارنگی
کاره
کارها
کارهای
کارهایش
کارهایی
کارو
کاروان
کاروانسرا
کاروانسرای
کارول
کارولین
کارولینای
کارون
کارکرد
کارکردهای
کارکردی
کارکنان
کارگاه
کارگر
کارگران
کارگردان
کارگردانان
کارگردانی
کارگروه
کارگری
کارگزار
کارگزاران
کارگیری
کاری
کاریکاتور
کاریکاتوریست
کازان
کازرون
کازینو
کاس
کاست
کاستاریکا
کاسترو
کاستن
کاسته
کاستی
کاستیا
کاسه
کاسپین
کاسی
کاش
کاشان
کاشانی
کاشت
کاشته
کاشف
کاشمر
کاشی
کاظم
کاظمی
کاغذ
کاغذی
کافر
کافران
کافه
کافکا
کافی
کال
کالا
کالاها
کالاهای
کالای
کالایی
کالبد
کالبدشناسی
کالج
کالری
کالسکه
کاله
کالی
کالیبر
کالیفرنیا
کالیفرنیای
کالین
کالینز
کام
کامبوج
کامبیز
کامران
کامرون
کامل
کاملا
کاملی
کامو
کامپایل
کامپایلر
کامپوزیت
کامپکت
کامپیوتر
کامپیوترها
کامپیوترهای
کامپیوتری
کامکار
کامی
کامیابی
کامیاران
کامیون
کامیک
کامیکس
کان
کانادا
کانادایی
کانال
کانت
کانتری
کانتون
کانتی
کاندر
کاندید
کاندیدا
کاندیداتوری
کاندیداهای
کاندیدای
کانر
کانزاس
کانن
کانو
کانون
کانونی
کانگ
کانی
کاه
کاهش
کاهن
کاهنده
کاو
کاور
کاوش
کاوشگر
کاونتری
کاوه
کاووس
کاوی
کاویانی
کاپ
کاپور
کاپیتان
کاکاوند
کاکايو
کاکایی
کاکتوس
کاکس
کاکل
کای
کایت
کایل
کاین
کباب
کبالت
کبد
کبدی
کبرا
کبری
کبوتر
کبود
کبودراهنگ
کبک
کبیر
کبیسه
کت
کتاب
کتابت
کتابخانه
کتابدار
کتابداری
کتابش
کتابشناسی
کتابفروشی
کتابها
کتابهای
کتابچه
کتابی
کتان
کتب
کتبی
کتف
کتک
کتی
کتیبه
کثرت
کثیر
کثیری
کثیف
کج
کجا
کجاست
کجایی
کجور
کخ
کد
کدام
کدخدا
کدر
کدهای
کدو
کدکنی
کدگذاری
کدی
کر
کرا
کراس
کرال
کرامت
کران
کرانه
کراچی
کراکوف
کرایسلر
کرایه
کربلا
کربلایی
کربن
کربنات
کربنی
کربوهیدرات
کرت
کرتاسه
کرتیر
کرتیس
کرج
کرخه
کرد
کردار
کردان
کردستان
کردم
کردن
کردند
کردنشین
کرده
کردها
کردهای
کردی
کردید
کردیم
کرزی
کرسی
کرم
کرمان
کرمانجی
کرمانشاه
کرمانشاهان
کرمانشاهی
کرمانی
کرمی
کرن
کرنش
کرنل
کره
کرو
کروات
کرواتی
کرواسی
کروبی
کروز
کرول
کروم
کروموزوم
کرون
کرونا
کروناویروس
کروی
کرک
کرکس
کرکوک
کرگدن
کری
کرید
کریس
کریستال
کریستالی
کریستف
کریستن
کریستوف
کریستوفر
کریستی
کریستیان
کریستین
کریستینا
کریسمس
کریم
کریمه
کریمی
کرین
کریک
کریکت
کریگ
کز
کس
کسان
کسانی
کسب
کسر
کسروی
کسری
کسل
کسوت
کسی
کش
کشان
کشاند
کشاورز
کشاورزان
کشاورزی
کشت
کشتار
کشتن
کشتند
کشته
کشتگان
کشتی
کشتیرانی
کشد
کشش
کششی
کشف
کشم
کشمش
کشمکش
کشمیر
کشند
کشنده
کشور
کشورش
کشورشان
کشورمان
کشورها
کشورهای
کشورهایی
کشوری
کشک
کشی
کشید
کشیدن
کشیدند
کشیده
کشیش
کشیم
کعب
کعبه
کف
کفایت
کفر
کفش
کفن
کفیل
کل
کلا
کلاب
کلات
کلاته
کلاد
کلار
کلارا
کلاردشت
کلارک
کلارینت
کلاس
کلاسیک
کلاغ
کلاله
کلام
کلامی
کلان
کلانتر
کلانتری
کلانشهر
کلاه
کلاهبرداری
کلاهک
کلاوس
کلاین
کلاینت
کلبه
کلر
کلرادو
کلرید
کلسترول
کلسیم
کلفت
کلم
کلمات
کلماتی
کلمب
کلمبوس
کلمبیا
کلمبیایی
کلمن
کلمنت
کلمه
کلن
کلنل
کلنگ
کله
کلهر
کلوب
کلود
کلون
کلونی
کلوپ
کلوچه
کلوین
کليوپاترا
کلک
کلکته
کلکسیون
کلی
کلیات
کلیبر
کلید
کلیدها
کلیدهای
کلیدی
کلیر
کلیسا
کلیساها
کلیساهای
کلیسای
کلیسایی
کلیشه
کلیفورد
کلین
کلینتون
کلینیک
کلیه
کلیولند
کلیوی
کلیپ
کلیک
کم
کما
کمابیش
کمال
کمالی
کمان
کماندار
کمانچه
کمانی
کماکان
کمبریج
کمبل
کمبوجیه
کمبود
کمتر
کمتری
کمترین
کمدی
کمدین
کمر
کمربند
کمربندی
کمرنگ
کمری
کمند
کمودور
کمون
کمونیست
کمونیستی
کمونیسم
کمپ
کمپانی
کمپبل
کمپرسور
کمپلکس
کمپین
کمک
کمکهای
کمکی
کمی
کمیاب
کمیت
کمیته
کمیجان
کمیساریای
کمیسر
کمیسیون
کمیل
کمین
کمینه
کمیک
کن
کنار
کناره
کناری
کنان
کنایه
کنت
کنتاکی
کنتراست
کنترل
کنترلی
کنتیکت
کنج
کنجد
کنجکاوی
کند
کندن
کنده
کندی
کنراد
کنستانتین
کنسرت
کنسرتو
کنسرسیوم
کنسرواتوار
کنسول
کنسولگری
کنسولی
کنش
کنشگر
کنعان
کنفدراسیون
کنفرانس
کنفوسیوس
کنم
کنن
کنند
کننده
کنندگان
کنندگی
کنه
کنوانسیون
کنون
کنونی
کنکور
کنگ
کنگان
کنگاور
کنگره
کنگو
کنگی
کنی
کنیا
کنید
کنیز
کنیسه
کنیم
که
کهبد
کهریزک
کهن
کهنسال
کهنه
کهکشان
کهکشانی
کهگیلویه
کهیر
کو
کوارتت
کوارتز
کوارک
کوان
کوانتوم
کوانتومی
کوب
کوبا
کوبایی
کوبه
کوبی
کوبیده
کوت
کوتاه
کوتاهی
کوته
کوتوله
کوثر
کوثری
کوخرد
کوخردی
کود
کودتا
کودتای
کودک
کودکان
کودکانه
کودکانی
کودکی
کور
کورا
کورت
کورتیس
کوردوبا
کورس
کورش
کوره
کوروش
کورپوریشن
کوری
کورین
کوزه
کوزوو
کوس
کوستا
کوسه
کوش
کوشان
کوشد
کوشش
کوشک
کوشی
کوشید
کوشیدند
کوشیده
کوفته
کوفه
کوفی
کول
کوله
کولی
کولین
کومار
کومو
کومونه
کون
کونگ
کوه
کوهدشت
کوهرنگ
کوهسار
کوهستان
کوهستانی
کوهن
کوهنورد
کوهنوردان
کوهنوردی
کوههای
کوهپایه
کوهی
کووالانسی
کووید
کويین
کويینزلند
کوپا
کوپر
کوپه
کوچ
کوچه
کوچولو
کوچک
کوچکتر
کوچکتری
کوچکترین
کوچکی
کوک
کوکايین
کوکو
کوکی
کوی
کویت
کویر
کویری
کوین
کویینز
کپ
کپسول
کپلر
کپنهاگ
کپی
کک
کی
کیا
کیارستمی
کیان
کیانوش
کیانگ
کیانی
کیبورد
کیت
کیتی
کیج
کیخسرو
کید
کیرا
کیس
کیست
کیسه
کیسی
کیش
کیف
کیفر
کیفری
کیفی
کیفیت
کیل
کیلو
کیلومتر
کیلومترمربع
کیلومتری
کیلووات
کیلوگرم
کیلیکیه
کیم
کیمیا
کیمیایی
کین
کینز
کینزی
کینه
کینگ
کینگز
کیه
کیهان
کیهانی
کیو
کیوان
کیوتو
کیومرث
کیونگ
کیپ
کیک
کیکاووس
ګ
گ
گابریل
گابن
گات
گارد
گاردن
گاردنر
گاردین
گارسیا
گارفیلد
گاری
گاز
گازها
گازهای
گازی
گالری
گالن
گالیله
گام
گاما
گامبیا
گامی
گان
گاندی
گانه
گاه
گاهشماری
گاهی
گاو
گاومیش
گاوی
گاگا
گای
گتو
گجرات
گدا
گدار
گدازه
گدایی
گذار
گذاران
گذارد
گذارده
گذارند
گذاری
گذاریم
گذاشت
گذاشتن
گذاشتند
گذاشته
گذر
گذرا
گذران
گذراند
گذراندن
گذرانده
گذرانند
گذرد
گذرنامه
گذرگاه
گذری
گذشت
گذشتن
گذشته
گذشتگان
گر
گرا
گراد
گرادیان
گراز
گراس
گراش
گراف
گرافیت
گرافیک
گرافیکی
گرامر
گرامی
گران
گرانادا
گرانبها
گرانت
گراند
گرانده
گرانش
گرانشی
گرانی
گرانیت
گراهام
گرای
گرایان
گرایانه
گرایش
گرایی
گربه
گرت
گرجستان
گرجستانی
گرجی
گرد
گرداب
گردان
گرداند
گردانند
گرداننده
گردانی
گردانید
گرداورنده
گرداوری
گردد
گردش
گردشگر
گردشگران
گردشگری
گردم
گردن
گردند
گردنه
گرده
گردهمایی
گردو
گردون
گردونه
گردی
گردید
گردیدند
گردیده
گرز
گرسنه
گرسنگی
گرشاسپ
گرفت
گرفتار
گرفتاری
گرفتم
گرفتن
گرفتند
گرفته
گرفتگی
گرفتیم
گرم
گرما
گرمابه
گرمای
گرمایش
گرمایی
گرمسار
گرمسیر
گرمسیری
گرمی
گرنت
گرند
گرنه
گره
گرو
گروس
گروه
گروهان
گروهبان
گروهی
گروو
گروپ
گروگان
گرچه
گرگ
گرگان
گرگانی
گرگور
گرگوری
گرگین
گری
گریان
گریبان
گریت
گریخت
گریختند
گریخته
گرید
گریز
گریزد
گریزی
گریس
گریم
گرین
گرینلند
گرینویچ
گریه
گریگور
گریگوری
گریگوریان
گز
گزارش
گزارشگر
گزارشگران
گزارشی
گزاره
گزاری
گزند
گزید
گزیدند
گزیده
گزین
گزینش
گزینه
گزینی
گستر
گسترده
گستردگی
گسترش
گستره
گسسته
گسل
گسیل
گشاد
گشاده
گشاید
گشایش
گشت
گشتاسپ
گشتاور
گشتم
گشتن
گشتند
گشته
گشتی
گشود
گشودن
گشوده
گفت
گفتا
گفتار
گفتاری
گفتاورد
گفتم
گفتمان
گفتن
گفتند
گفتنی
گفته
گفتگو
گفتگوها
گفتگوهای
گفتگوی
گفتگویی
گفتی
گفتیم
گل
گلاب
گلابی
گلاسگو
گلبرگ
گلبول
گلخانه
گلد
گلدار
گلدان
گلدمن
گلدن
گلزار
گلزن
گلزنی
گلستان
گلشن
گلشیری
گلف
گلن
گله
گلها
گلهای
گلو
گلوب
گلوبال
گلوریا
گلوله
گلوکز
گلوگاه
گلوی
گلپایگان
گلپایگانی
گلچین
گلکسی
گلی
گلیم
گم
گماشت
گماشته
گمان
گمانه
گمراه
گمرک
گمرکی
گمشده
گمنام
گمینا
گمیناهای
گناباد
گنابادی
گناه
گناهان
گناهکار
گناهی
گنبد
گنبدی
گنج
گنجانده
گنجایش
گنجشک
گنجه
گنجوی
گنجی
گنجینه
گندم
گنده
گنه
گنو
گنگ
گه
گهر
گهواره
گهی
گو
گوا
گواتمالا
گوارا
گوارش
گوارشی
گوانگ
گواه
گواهی
گواهینامه
گوت
گوتنبرگ
گوته
گوتیک
گوجه
گود
گودال
گودرز
گودرزی
گودریان
گور
گوران
گورباچف
گوردون
گورستان
گورو
گورکانی
گوری
گوزن
گوساله
گوستاو
گوسفند
گوسفندان
گوش
گوشت
گوشتی
گوشه
گوشواره
گوشی
گول
گولد
گومز
گون
گوناگون
گوناگونی
گونتر
گونزالس
گونه
گونگ
گوهر
گوهری
گويند
گويی
گوک
گوگ
گوگرد
گوگل
گوگنهایم
گوگوریو
گوگوش
گوی
گویا
گویان
گویای
گوید
گویش
گویشور
گویشوران
گویشی
گویم
گویند
گوینده
گویندگان
گویندگی
گویی
گوییم
گيورگ
گيورگی
گپ
گچ
گچساران
گچی
گی
گیاه
گیاهان
گیاهانی
گیاهی
گیبسون
گیت
گیتار
گیتاریست
گیتاشناسی
گیتس
گیتی
گیج
گیر
گیران
گیربکس
گیرد
گیرم
گیرند
گیرنده
گیره
گیری
گیریم
گیشه
گیل
گیلاس
گیلان
گیلانغرب
گیلانی
گیلبرت
گیلمور
گیلکی
گیلگمش
گیم
گیمز
گینس
گینه
گیو
گیوم
گیومری
گیگابایت
ڵ
ھ
ہ
ۆ
ۊ
ی
یا
یاب
یابد
یابم
یابند
یابی
یابیم
یاتا
یاخته
یاد
یاداور
یاداوری
یادبود
یادداشت
یادداشتی
یادشده
یادم
یادمان
یادنامه
یادکرد
یادکردهای
یادگار
یادگاری
یادگیری
یادی
یار
یاران
یارانش
یارانه
یارب
یارسان
یارشاطر
یاری
یازده
یازدهم
یازدهمین
یاس
یاسر
یاسمی
یاسمین
یاسو
یاسوج
یاسین
یاشار
یاغی
یافا
یافت
یافتم
یافتن
یافتند
یافته
یاقوت
یال
یاما
یان
یانگ
یاهو
یاور
یاوری
یاکوب
یبوست
یت
یتیم
یحیی
یخ
یخبندان
یخچال
یخی
ید
یدالله
یدک
یر
یزد
یزدان
یزدانی
یزدگرد
یزدی
یزید
یس
یشت
یعقوب
یعقوبی
یعنی
یغما
یف
یقه
یقین
یك
یل
یلدا
یم
یمن
یمنی
یمین
ین
ینی
یه
یهود
یهودا
یهودی
یهودیان
یهودیت
یهوه
یو
یواخیم
یواس
یوان
یوبی
یوتا
یوتی
یوتیوب
یوجین
یوحنا
یورش
یورو
یورونیوز
یوروویژن
یورک
یورگن
یوری
یوزف
یوزپلنگ
یوسف
یوسفی
یوشی
یوشیج
یوفا
یوم
یون
یونان
یونانی
یونانیان
یونایتد
یونجه
یونس
یونسکو
یونگ
یونی
یونیسف
یونیورسال
یونیون
یونیکس
یوهان
یوهانس
یوونتوس
یوکوهاما
یوکی
یوگا
یوگسلاوی
یک
یکای
یکبار
یکباره
یکتا
یکجا
یکدست
یکدیگر
یکساعت
یکسال
یکسان
یکسانی
یکسر
یکسره
یکشنبه
یکصد
یکم
یکمین
یکنفر
یکنواخت
یکه
یکپارچه
یکپارچگی
یکی
یگان
یگانه
یگانگی
یی
ییل
ییلاق
ییلاقی
یین
ێ
۔
ە
۰
۰۰
۰۰۰
۰۰۱
۰۱
۰۲
۰۳
۰۴
۰۵
۰۶
۰۷
۰۷۴۲
۰۸
۰۹
۱
۱۰
۱۰۰
۱۰۰۰
۱۰۰۰۰
۱۰۱
۱۰۲
۱۰۳
۱۰۴
۱۰۵
۱۰۶
۱۰۷
۱۰۸
۱۰۹
۱۱
۱۱۰
۱۱۰۰
۱۱۱
۱۱۲
۱۱۳
۱۱۴
۱۱۵
۱۱۶
۱۱۷
۱۱۸
۱۱۹
۱۲
۱۲۰
۱۲۰۰
۱۲۱
۱۲۲
۱۲۳
۱۲۴
۱۲۵
۱۲۵۰
۱۲۶
۱۲۷
۱۲۸
۱۲۸۰
۱۲۸۵
۱۲۸۶
۱۲۸۷
۱۲۸۸
۱۲۸۹
۱۲۹
۱۲۹۰
۱۲۹۳
۱۲۹۴
۱۲۹۵
۱۲۹۶
۱۲۹۷
۱۲۹۸
۱۲۹۹
۱۳
۱۳۰
۱۳۰۰
۱۳۰۱
۱۳۰۲
۱۳۰۳
۱۳۰۴
۱۳۰۵
۱۳۰۶
۱۳۰۷
۱۳۰۸
۱۳۰۹
۱۳۱
۱۳۱۰
۱۳۱۱
۱۳۱۲
۱۳۱۳
۱۳۱۴
۱۳۱۵
۱۳۱۶
۱۳۱۷
۱۳۱۸
۱۳۱۹
۱۳۲
۱۳۲۰
۱۳۲۱
۱۳۲۲
۱۳۲۳
۱۳۲۴
۱۳۲۵
۱۳۲۶
۱۳۲۷
۱۳۲۸
۱۳۲۹
۱۳۳
۱۳۳۰
۱۳۳۱
۱۳۳۲
۱۳۳۳
۱۳۳۴
۱۳۳۵
۱۳۳۶
۱۳۳۷
۱۳۳۸
۱۳۳۹
۱۳۴
۱۳۴۰
۱۳۴۱
۱۳۴۲
۱۳۴۳
۱۳۴۴
۱۳۴۵
۱۳۴۶
۱۳۴۷
۱۳۴۸
۱۳۴۹
۱۳۵
۱۳۵۰
۱۳۵۱
۱۳۵۲
۱۳۵۳
۱۳۵۴
۱۳۵۵
۱۳۵۶
۱۳۵۷
۱۳۵۸
۱۳۵۹
۱۳۶
۱۳۶۰
۱۳۶۱
۱۳۶۲
۱۳۶۳
۱۳۶۴
۱۳۶۵
۱۳۶۶
۱۳۶۷
۱۳۶۸
۱۳۶۹
۱۳۷
۱۳۷۰
۱۳۷۱
۱۳۷۲
۱۳۷۳
۱۳۷۴
۱۳۷۵
۱۳۷۶
۱۳۷۷
۱۳۷۸
۱۳۷۹
۱۳۸
۱۳۸۰
۱۳۸۱
۱۳۸۲
۱۳۸۳
۱۳۸۴
۱۳۸۵
۱۳۸۶
۱۳۸۷
۱۳۸۸
۱۳۸۹
۱۳۹
۱۳۹۰
۱۳۹۱
۱۳۹۲
۱۳۹۳
۱۳۹۴
۱۳۹۵
۱۳۹۶
۱۳۹۷
۱۳۹۸
۱۳۹۹
۱۴
۱۴۰
۱۴۰۰
۱۴۰۱
۱۴۱
۱۴۲
۱۴۳
۱۴۴
۱۴۵
۱۴۶
۱۴۷
۱۴۸
۱۴۹
۱۵
۱۵۰
۱۵۰۰
۱۵۱
۱۵۲
۱۵۳
۱۵۴
۱۵۵
۱۵۶
۱۵۷
۱۵۸
۱۵۹
۱۶
۱۶۰
۱۶۰۰
۱۶۱
۱۶۲
۱۶۳
۱۶۴
۱۶۵
۱۶۶
۱۶۷
۱۶۸
۱۶۹
۱۷
۱۷۰
۱۷۰۰
۱۷۱
۱۷۲
۱۷۳
۱۷۴
۱۷۵
۱۷۵۰
۱۷۶
۱۷۷
۱۷۷۵
۱۷۷۶
۱۷۸
۱۷۸۰
۱۷۸۱
۱۷۸۳
۱۷۸۸
۱۷۸۹
۱۷۹
۱۷۹۰
۱۷۹۱
۱۷۹۲
۱۷۹۳
۱۷۹۴
۱۷۹۵
۱۷۹۶
۱۷۹۷
۱۷۹۸
۱۷۹۹
۱۸
۱۸۰
۱۸۰۰
۱۸۰۱
۱۸۰۲
۱۸۰۳
۱۸۰۴
۱۸۰۵
۱۸۰۶
۱۸۰۷
۱۸۰۸
۱۸۰۹
۱۸۱
۱۸۱۰
۱۸۱۱
۱۸۱۲
۱۸۱۳
۱۸۱۴
۱۸۱۵
۱۸۱۶
۱۸۱۷
۱۸۱۸
۱۸۱۹
۱۸۲
۱۸۲۰
۱۸۲۱
۱۸۲۲
۱۸۲۳
۱۸۲۴
۱۸۲۵
۱۸۲۶
۱۸۲۷
۱۸۲۸
۱۸۲۹
۱۸۳
۱۸۳۰
۱۸۳۱
۱۸۳۲
۱۸۳۳
۱۸۳۴
۱۸۳۵
۱۸۳۶
۱۸۳۷
۱۸۳۸
۱۸۳۹
۱۸۴
۱۸۴۰
۱۸۴۱
۱۸۴۲
۱۸۴۳
۱۸۴۴
۱۸۴۵
۱۸۴۶
۱۸۴۷
۱۸۴۸
۱۸۴۹
۱۸۵
۱۸۵۰
۱۸۵۱
۱۸۵۲
۱۸۵۳
۱۸۵۴
۱۸۵۵
۱۸۵۶
۱۸۵۷
۱۸۵۸
۱۸۵۹
۱۸۶
۱۸۶۰
۱۸۶۱
۱۸۶۲
۱۸۶۳
۱۸۶۴
۱۸۶۵
۱۸۶۶
۱۸۶۷
۱۸۶۸
۱۸۶۹
۱۸۷
۱۸۷۰
۱۸۷۱
۱۸۷۲
۱۸۷۳
۱۸۷۴
۱۸۷۵
۱۸۷۶
۱۸۷۷
۱۸۷۸
۱۸۷۹
۱۸۸
۱۸۸۰
۱۸۸۱
۱۸۸۲
۱۸۸۳
۱۸۸۴
۱۸۸۵
۱۸۸۶
۱۸۸۷
۱۸۸۸
۱۸۸۹
۱۸۹
۱۸۹۰
۱۸۹۱
۱۸۹۲
۱۸۹۳
۱۸۹۴
۱۸۹۵
۱۸۹۶
۱۸۹۷
۱۸۹۸
۱۸۹۹
۱۹
۱۹۰
۱۹۰۰
۱۹۰۱
۱۹۰۲
۱۹۰۳
۱۹۰۴
۱۹۰۵
۱۹۰۶
۱۹۰۷
۱۹۰۸
۱۹۰۹
۱۹۱
۱۹۱۰
۱۹۱۱
۱۹۱۲
۱۹۱۳
۱۹۱۴
۱۹۱۵
۱۹۱۶
۱۹۱۷
۱۹۱۸
۱۹۱۹
۱۹۲
۱۹۲۰
۱۹۲۱
۱۹۲۲
۱۹۲۳
۱۹۲۴
۱۹۲۵
۱۹۲۶
۱۹۲۷
۱۹۲۸
۱۹۲۹
۱۹۳
۱۹۳۰
۱۹۳۱
۱۹۳۲
۱۹۳۳
۱۹۳۴
۱۹۳۵
۱۹۳۶
۱۹۳۷
۱۹۳۸
۱۹۳۹
۱۹۴
۱۹۴۰
۱۹۴۱
۱۹۴۲
۱۹۴۳
۱۹۴۴
۱۹۴۵
۱۹۴۶
۱۹۴۷
۱۹۴۸
۱۹۴۹
۱۹۵
۱۹۵۰
۱۹۵۱
۱۹۵۲
۱۹۵۳
۱۹۵۴
۱۹۵۵
۱۹۵۶
۱۹۵۷
۱۹۵۸
۱۹۵۹
۱۹۶
۱۹۶۰
۱۹۶۱
۱۹۶۲
۱۹۶۳
۱۹۶۴
۱۹۶۵
۱۹۶۶
۱۹۶۷
۱۹۶۸
۱۹۶۹
۱۹۷
۱۹۷۰
۱۹۷۱
۱۹۷۲
۱۹۷۳
۱۹۷۴
۱۹۷۵
۱۹۷۶
۱۹۷۷
۱۹۷۸
۱۹۷۹
۱۹۸
۱۹۸۰
۱۹۸۱
۱۹۸۲
۱۹۸۳
۱۹۸۴
۱۹۸۵
۱۹۸۶
۱۹۸۷
۱۹۸۸
۱۹۸۹
۱۹۹
۱۹۹۰
۱۹۹۱
۱۹۹۲
۱۹۹۳
۱۹۹۴
۱۹۹۵
۱۹۹۶
۱۹۹۷
۱۹۹۸
۱۹۹۹
۲
۲۰
۲۰۰
۲۰۰۰
۲۰۰۰۰
۲۰۰۱
۲۰۰۲
۲۰۰۳
۲۰۰۴
۲۰۰۵
۲۰۰۶
۲۰۰۷
۲۰۰۸
۲۰۰۹
۲۰۱
۲۰۱۰
۲۰۱۱
۲۰۱۲
۲۰۱۳
۲۰۱۴
۲۰۱۵
۲۰۱۶
۲۰۱۷
۲۰۱۸
۲۰۱۹
۲۰۲
۲۰۲۰
۲۰۲۱
۲۰۲۲
۲۰۲۳
۲۰۳
۲۰۴
۲۰۵
۲۰۶
۲۰۷
۲۰۸
۲۰۹
۲۱
۲۱۰
۲۱۱
۲۱۲
۲۱۳
۲۱۴
۲۱۵
۲۱۶
۲۱۷
۲۱۸
۲۱۹
۲۲
۲۲۰
۲۲۱
۲۲۲
۲۲۳
۲۲۴
۲۲۵
۲۲۶
۲۲۷
۲۲۸
۲۲۹
۲۳
۲۳۰
۲۳۱
۲۳۲
۲۳۳
۲۳۴
۲۳۵
۲۳۶
۲۳۷
۲۳۸
۲۳۹
۲۴
۲۴۰
۲۴۱
۲۴۲
۲۴۳
۲۴۴
۲۴۵
۲۴۶
۲۴۷
۲۴۸
۲۴۹
۲۵
۲۵۰
۲۵۰۰
۲۵۱
۲۵۲
۲۵۳
۲۵۳۶
۲۵۴
۲۵۵
۲۵۶
۲۵۷
۲۵۸
۲۵۹
۲۶
۲۶۰
۲۶۱
۲۶۲
۲۶۳
۲۶۴
۲۶۵
۲۶۶
۲۶۷
۲۶۸
۲۶۹
۲۷
۲۷۰
۲۷۱
۲۷۲
۲۷۳
۲۷۴
۲۷۵
۲۷۶
۲۷۷
۲۷۸
۲۷۹
۲۸
۲۸۰
۲۸۱
۲۸۲
۲۸۳
۲۸۴
۲۸۵
۲۸۶
۲۸۷
۲۸۸
۲۸۹
۲۹
۲۹۰
۲۹۱
۲۹۲
۲۹۳
۲۹۴
۲۹۵
۲۹۶
۲۹۷
۲۹۸
۲۹۹
۳
۳۰
۳۰۰
۳۰۰۰
۳۰۱
۳۰۲
۳۰۳
۳۰۴
۳۰۵
۳۰۶
۳۰۷
۳۰۸
۳۰۹
۳۱
۳۱۰
۳۱۱
۳۱۲
۳۱۳
۳۱۴
۳۱۵
۳۱۶
۳۱۶۶
۳۱۷
۳۱۸
۳۱۹
۳۲
۳۲۰
۳۲۱
۳۲۲
۳۲۳
۳۲۴
۳۲۵
۳۲۶
۳۲۷
۳۲۸
۳۲۹
۳۳
۳۳۰
۳۳۱
۳۳۲
۳۳۳
۳۳۴
۳۳۵
۳۳۶
۳۳۷
۳۳۸
۳۳۹
۳۴
۳۴۰
۳۴۱
۳۴۲
۳۴۳
۳۴۴
۳۴۵
۳۴۶
۳۴۷
۳۴۸
۳۴۹
۳۵
۳۵۰
۳۵۰۰
۳۵۱
۳۵۲
۳۵۳
۳۵۴
۳۵۵
۳۵۶
۳۵۷
۳۵۸
۳۵۹
۳۶
۳۶۰
۳۶۱
۳۶۲
۳۶۳
۳۶۴
۳۶۵
۳۶۶
۳۶۷
۳۶۸
۳۶۹
۳۷
۳۷۰
۳۷۱
۳۷۲
۳۷۳
۳۷۴
۳۷۵
۳۷۶
۳۷۷
۳۷۸
۳۷۹
۳۸
۳۸۰
۳۸۱
۳۸۲
۳۸۳
۳۸۴
۳۸۵
۳۸۶
۳۸۷
۳۸۸
۳۸۹
۳۹
۳۹۰
۳۹۱
۳۹۲
۳۹۳
۳۹۴
۳۹۵
۳۹۶
۳۹۸
۳۹۹
۴
۴۰
۴۰۰
۴۰۰۰
۴۰۱
۴۰۲
۴۰۳
۴۰۴
۴۰۵
۴۰۶
۴۰۷
۴۰۸
۴۰۹
۴۱
۴۱۰
۴۱۱
۴۱۲
۴۱۳
۴۱۴
۴۱۵
۴۱۶
۴۱۷
۴۱۸
۴۱۹
۴۲
۴۲۰
۴۲۱
۴۲۲
۴۲۳
۴۲۴
۴۲۵
۴۲۶
۴۲۷
۴۲۸
۴۲۹
۴۳
۴۳۰
۴۳۱
۴۳۲
۴۳۳
۴۳۵
۴۳۶
۴۳۷
۴۳۸
۴۴
۴۴۰
۴۴۱
۴۴۲
۴۴۴
۴۴۵
۴۴۶
۴۴۷
۴۴۸
۴۵
۴۵۰
۴۵۱
۴۵۲
۴۵۳
۴۵۴
۴۵۵
۴۵۶
۴۵۷
۴۵۸
۴۵۹
۴۶
۴۶۰
۴۶۲
۴۶۳
۴۶۵
۴۷
۴۷۰
۴۷۱
۴۷۲
۴۷۵
۴۷۶
۴۷۷
۴۷۸
۴۷۹
۴۸
۴۸۰
۴۸۴
۴۸۵
۴۸۶
۴۸۷
۴۸۸
۴۹
۴۹۰
۴۹۲
۴۹۸
۵
۵۰
۵۰۰
۵۰۰۰
۵۰۱
۵۰۳
۵۰۴
۵۰۵
۵۰۷
۵۰۸
۵۰۹
۵۱
۵۱۰
۵۱۲
۵۱۸
۵۲
۵۲۰
۵۲۱
۵۲۲
۵۲۵
۵۳
۵۳۰
۵۳۸
۵۳۹
۵۴
۵۴۰
۵۴۱
۵۴۵
۵۴۸
۵۵
۵۵۰
۵۵۱
۵۵۲
۵۵۴۵
۵۵۵
۵۵۹
۵۶
۵۶۰
۵۶۲
۵۷
۵۷۰
۵۸
۵۸۰
۵۹
۵۹۰
۵۹۸
۶
۶۰
۶۰۰
۶۰۰۰
۶۰۱
۶۰۵
۶۰۹
۶۱
۶۱۰
۶۱۴۳
۶۱۸
۶۲
۶۲۰
۶۲۲
۶۲۵
۶۲۸
۶۳
۶۳۰
۶۳۲
۶۴
۶۴۰
۶۴۲
۶۵
۶۵۰
۶۵۱
۶۵۶
۶۶
۶۶۰
۶۶۱
۶۷
۶۷۰
۶۷۴
۶۷۵
۶۸
۶۸۰
۶۹
۷
۷۰
۷۰۰
۷۰۰۰
۷۰۱
۷۰۷
۷۱
۷۱۰
۷۱۴
۷۲
۷۲۰
۷۲۷
۷۳
۷۳۰
۷۳۲
۷۳۷
۷۴
۷۴۰
۷۴۷
۷۵
۷۵۰
۷۵۳۱
۷۶
۷۶۰
۷۷
۷۷۰
۷۷۷
۷۸
۷۸۰
۷۹
۸
۸۰
۸۰۰
۸۰۰۰
۸۰۱
۸۰۲
۸۰۵
۸۱
۸۱۲
۸۲
۸۲۰
۸۳
۸۳۰
۸۴
۸۴۰
۸۵
۸۵۰
۸۶
۸۷
۸۷۰
۸۸
۸۹
۹
۹۰
۹۰۰
۹۱
۹۲
۹۲۵
۹۳
۹۴
۹۵
۹۵۰
۹۶
۹۶۰
۹۶۴
۹۷
۹۷۸
۹۸
۹۹
ܐ
ܕ
ܘ
ܝ
ܡ
ܢ
ܪ
ܬ
अ
क
ग
च
ज
ट
ड
त
द
न
प
ब
भ
म
य
र
ल
व
श
ष
स
ह
ক
জ
ত
দ
ন
প
ব
ম
য
র
ল
শ
স
হ
த
ம
ர
ก
ข
ค
ง
จ
ช
ณ
ด
ต
ท
ธ
น
บ
ป
พ
ม
ย
ร
ล
ว
ศ
ส
ห
อ
ะ
า
ำ
เ
แ
โ
ใ
ไ
་
ა
ბ
გ
დ
ე
ვ
ზ
თ
ი
კ
ლ
მ
ნ
ო
პ
რ
ს
ტ
უ
ფ
ქ
ღ
ყ
შ
ც
ძ
წ
ხ
ᄀ
가
강
개
경
고
공
과
국
기
김
ᄁ
ᄂ
나
남
년
는
ᄃ
다
단
대
도
독
동
드
ᄄ
ᄅ
라
로
리
ᄆ
마
만
미
민
ᄇ
박
방
보
부
비
ᄈ
ᄉ
사
상
서
선
성
세
소
수
스
시
식
신
ᄊ
ᄋ
아
어
에
연
영
예
오
우
원
월
유
은
의
이
인
일
ᄌ
자
장
전
정
제
조
종
주
지
진
ᄍ
ᄎ
차
최
출
ᄏ
ᄐ
터
트
ᄑ
ᄒ
하
한
합
해
현
호
화
확
ᅡ
ᅢ
ᅣ
ᅥ
ᅦ
ᅧ
ᅨ
ᅩ
ᅪ
ᅫ
ᅬ
ᅭ
ᅮ
ᅯ
ᅰ
ᅱ
ᅲ
ᅳ
ᅴ
ᅵ
ᆨ
ᆫ
ᆮ
ᆯ
ᆷ
ᆸ
ᆹ
ᆺ
ᆻ
ᆼ
ᆽ
ᆾ
ᇀ
ᇁ
ᇂ
‐
‑
–
—
―
‖
‘
’
‚
“
”
„
†
‡
•
…
‧
′
″
‹
›
⁄
€
ℏ
ℓ
№
™
←
↑
→
↔
↦
↷
⇒
∀
∂
∃
∅
∆
∇
∈
∏
∑
−
∖
∗
∘
∙
√
∝
∞
∣
∧
∨
∩
∪
∫
∮
∼
≈
≡
≤
≥
⊃
⊆
⊕
⊤
⊥
⋅
⋆
⋮
⋯
⋱
⌊
⌋
③
④
⑦
─
━
╱
■
▪
△
◉
◎
●
◻
★
☎
♠
♥
♦
❎
⟨
⟩
⟶
⺀
⺄
⺆
⺈
⺊
⺌
⺕
⺝
⺸
⺼
⿰
⿱
⿲
⿳
⿴
⿵
⿶
⿷
⿸
⿹
⿺
⿻
、
。
《
》
「
」
『
』
【
】
〢
あ
い
う
え
お
か
き
く
け
こ
さ
し
す
せ
そ
た
ち
っ
つ
て
と
な
に
の
は
ひ
ふ
へ
ほ
ま
み
め
も
や
ょ
よ
ら
り
る
れ
ろ
わ
を
ん
ァ
ア
ィ
イ
ウ
ェ
エ
オ
カ
キ
ク
ケ
コ
サ
シ
ス
セ
ソ
タ
チ
ッ
ツ
テ
ト
ナ
ニ
ネ
ノ
ハ
ヒ
フ
ヘ
ホ
マ
ミ
ム
メ
モ
ャ
ヤ
ュ
ユ
ョ
ヨ
ラ
リ
ル
レ
ロ
ワ
ン
ヶ
・
ー
㇁
㇂
㇄
㇇
㇈
㇉
㇓
㐁
㐄
㐅
㐌
㐫
㐬
㐭
㐮
㐱
㑒
㒵
㒸
㒼
㓁
㓞
㔾
㕛
㕣
㖾
㘝
㚅
㚇
㚔
㚘
㝉
㝡
㝴
㝵
㞋
㞢
㞷
㠩
㠭
㠯
㡀
㡭
㡿
㢲
㢴
㣇
㣺
㥯
㪅
㫄
㫐
㫒
㫺
㬅
㬎
㬥
㬰
㲋
㳄
㷠
㸒
㸚
㸦
㼌
㼲
㽞
㿟
䀠
䂞
䍃
䏍
䒑
䖍
䖒
䖝
䖵
䙴
䚻
䜌
䝿
䡛
䧹
䪞
一
丁
丂
七
丄
丅
丆
万
丈
三
上
下
丌
不
与
丏
丐
丑
专
且
丕
世
丘
丙
业
东
丞
丢
丣
两
严
並
丨
丩
个
丫
丬
中
丮
丰
丱
串
丵
丶
丷
丸
丹
为
主
丽
丿
乀
乂
乃
久
乆
乇
么
义
之
乌
乍
乎
乏
乐
乑
乔
乖
乗
乘
乙
乚
乛
乜
九
乞
也
习
乡
乱
乳
乾
亀
亅
了
亇
予
争
事
二
亍
于
亏
亐
云
互
亓
五
井
亘
亚
亜
亞
亟
亠
亡
亢
交
亥
亦
产
亨
亩
享
京
亭
亮
亯
亰
亲
亳
亶
亷
人
亻
亼
亾
仁
今
介
仌
从
仐
仑
仒
仓
仕
他
付
仝
代
令
以
件
任
企
伊
伏
伐
休
会
伯
但
位
佐
体
何
佘
余
作
佥
佩
使
來
侈
侌
侖
侯
侵
便
俊
保
俞
信
修
倉
倍
候
倠
健
備
僉
僕
儿
兀
允
兂
元
兄
充
兆
兇
先
光
兊
克
兌
免
兑
兒
兓
兔
党
兜
兟
入
全
兩
兪
八
公
六
兮
兰
共
关
兵
其
具
典
兹
兼
冀
冂
冃
冄
内
冈
冉
冊
冋
册
再
冎
冏
冐
冒
冓
冖
冗
冘
军
农
冝
冡
冥
冫
冬
冷
几
凡
凢
凵
凶
凷
凸
凹
出
函
凾
刀
刁
刂
刃
刄
刅
分
切
刍
刑
刕
刖
列
刘
则
初
別
利
别
到
制
刺
則
削
剌
前
剡
剽
劉
力
功
加
劦
助
劫
劳
劵
勃
勇
勉
勒
動
務
勝
勞
勤
勹
勺
勻
勾
勿
匀
匂
包
匆
匈
匊
匋
匍
匕
化
北
匚
匝
匡
匪
匱
匸
匹
区
医
匽
匿
區
十
卂
千
卄
卅
卆
升
午
卉
半
卌
华
卑
卒
卓
協
单
卖
南
博
卜
卝
卞
占
卡
卢
卣
卤
卦
卩
卪
卬
卯
印
危
即
却
卵
卷
卸
卻
厂
厃
厄
历
厈
厉
厌
厓
厘
厚
原
厤
厥
厨
厭
厲
厶
厷
厸
去
厼
厽
叀
参
參
叅
又
叉
及
友
双
反
叐
发
叒
叔
叕
取
受
叚
叜
叟
口
古
句
另
叩
只
召
可
台
叱
史
右
叵
号
司
叹
吂
各
吅
合
吉
吊
吋
同
名
后
吏
向
吕
君
吝
吞
否
含
启
吳
吴
吹
吾
呂
呆
呈
告
员
呙
周
命
咅
和
咎
咠
咢
咨
咸
咼
哀
品
哉
員
哥
哲
唐
商
啇
問
啚
啬
啻
善
喜
喬
單
喿
嗇
噩
嚴
囊
囗
囘
囙
囚
四
回
囟
因
団
囧
囬
困
囱
図
囷
固
国
圂
圅
國
圍
園
圓
土
圡
圣
圥
在
圭
地
圶
圼
坂
坐
坒
坚
坴
垂
型
垔
垚
埀
埋
城
埶
執
基
堂
堅
堆
堇
堯
報
場
塞
墨
壘
士
壬
壯
声
壳
壴
壹
壺
壽
夂
处
夅
夆
备
夊
夋
夌
复
夏
夒
夕
外
夗
夘
多
夜
夢
大
夨
天
太
夫
夬
夭
央
失
夲
头
夷
夸
夹
夻
夾
奂
奄
奇
奈
奉
奎
奏
奐
契
奓
奔
奚
奞
奠
奢
奥
奭
女
奴
奻
好
如
妄
妙
妟
妥
妻
妾
姑
委
姜
威
娄
婁
婦
婴
嬰
嬴
子
孑
孔
孕
孖
字
存
孚
孛
孝
孟
季
孤
学
孫
孱
學
宀
宁
宂
它
宅
宇
守
安
宋
完
宏
宓
宗
官
定
宛
宜
宝
実
客
宣
室
宮
宰
害
家
容
宾
宿
寄
寅
密
富
寒
察
寧
審
寫
寬
寮
寸
对
寺
寻
寽
対
寿
封
尃
射
将
將
專
尉
尊
尋
尌
對
小
少
尒
尓
尔
尖
尗
尚
尞
尢
尣
尤
尧
尨
尭
就
尸
尹
尺
尻
尼
尽
尾
尿
局
居
屈
屋
屎
屏
屑
展
屖
屚
属
屠
屡
屬
屮
屯
屰
山
屵
屾
岁
岂
岑
岡
岩
岳
岸
峯
島
崇
崎
崑
崔
崖
崙
崩
嵬
嶲
巂
巛
川
州
巟
巠
巢
巤
工
左
巧
巨
巩
巫
差
己
已
巳
巴
巷
巸
巽
巾
巿
帀
市
布
希
帚
帛
帝
带
師
席
帶
常
幕
干
平
年
幵
并
幷
幸
幺
幻
幼
幽
幾
广
広
庄
床
底
店
庚
府
度
庫
庭
庶
康
庸
廉
廌
廛
廣
廩
廴
延
廷
建
廾
廿
开
弁
弃
弄
弇
弋
式
弓
弔
引
弗
弘
弜
弟
弥
弦
弱
張
強
强
彊
彌
彎
彐
彑
当
彔
录
彖
彗
彡
形
彥
彦
彧
彭
影
彳
役
彼
往
待
律
後
徒
得
徙
從
御
復
微
徳
徵
心
忄
必
忌
忍
志
忝
忠
忩
快
念
忽
忿
思
怠
急
怱
恆
恒
恩
恭
息
悉
患
悤
悲
悶
情
惠
惡
惢
愁
愈
意
愛
感
慈
慍
慧
慮
憂
憲
應
戀
戈
戉
戊
戋
戌
戍
戎
成
我
戒
戔
或
战
戚
戠
戢
戦
截
戲
戶
户
戸
戹
戼
戾
房
所
扁
扇
手
扌
才
打
托
执
承
技
折
报
拉
拜
拿
掌
推
提
摩
支
攴
攵
收
攸
改
放
政
敄
敏
敕
敖
敗
教
敝
敞
敢
散
敦
敫
敬
数
敷
數
斂
文
斉
斊
斗
料
斤
斥
斩
斬
斯
新
方
於
施
斿
旁
旋
族
无
旡
既
旣
日
旦
旧
旨
早
旬
旱
旲
时
旾
昆
昇
昌
昍
明
昏
易
昔
昗
昜
星
映
春
昬
是
昱
昴
昷
時
晃
晋
晏
普
景
晶
智
暑
暴
曇
曩
曰
曲
曳
更
曷
書
曹
曼
曾
替
最
朁
會
月
有
朋
服
朔
朕
朗
望
朝
木
朩
未
末
本
札
朮
术
朱
朵
朶
机
朿
杀
李
杏
村
杜
束
条
来
東
杲
杳
松
析
林
枚
果
枝
枲
枼
某
柔
查
柬
柰
柴
栗
校
株
根
桀
桑
桜
桼
梁
條
梟
梨
棘
棠
棥
森
楚
業
楽
榮
樂
樊
横
樹
橋
機
欠
次
欣
欮
欲
欶
欽
款
歆
歇
歌
歛
止
正
此
步
武
歨
歪
歮
歯
歰
歲
歴
歷
歸
歹
歺
死
殳
段
殷
殸
殹
殺
殻
殿
毋
毌
母
每
毒
比
毕
毚
毛
毳
氏
氐
民
气
氣
水
氵
氶
氷
永
氺
氾
求
汝
汞
江
池
決
汽
沃
沓
沙
沝
沢
河
治
泉
法
波
泣
泥
泰
洋
洛
津
洪
活
派
流
浜
浦
浪
浮
海
淡
淮
清
渚
渠
港
湯
源
滿
演
漸
火
灬
灭
灰
灵
灷
炅
炎
炏
炗
炙
炭
為
烈
烏
烝
焉
無
焦
焱
然
煞
熊
熏
燕
營
燮
爪
爫
爭
爯
爰
爱
爲
爵
父
爻
爽
爾
爿
片
版
牙
牚
牛
牜
牟
牢
牧
物
牪
特
牽
犀
犬
犭
犮
狂
狄
狊
独
狺
猋
猒
猪
献
獻
玄
率
玉
王
玟
玨
珎
班
球
理
琴
瑟
瑩
瓜
瓦
甘
甚
生
産
用
甫
甬
田
由
甲
申
电
甶
男
甸
甹
町
画
甾
畀
界
畏
畐
留
畜
畟
畢
畧
畨
番
畫
異
畱
當
畺
畾
疊
疋
疌
疑
疒
疾
病
癶
癸
癹
発
登
發
白
百
皀
皃
的
皆
皇
皋
皐
皕
皮
皷
皿
盃
盆
盇
盈
益
盍
盎
监
盒
盖
盛
盟
盡
監
盤
盧
目
直
相
盾
省
眇
眉
看
県
眔
眞
真
眷
眼
眾
着
睘
睪
睿
瞏
瞢
瞿
矍
矛
矞
矢
矣
知
矦
短
石
研
破
碎
磊
磨
示
礻
礼
社
神
祟
票
祭
禀
禁
福
禸
禹
禺
离
禽
禾
禿
秀
秃
秉
秋
科
秝
秦
移
稟
穀
穌
穴
究
穹
空
穿
突
窄
窒
立
竒
竜
竝
竟
章
童
竹
笑
笠
第
筆
等
答
箕
算
箴
節
篤
篭
米
粉
粛
粟
粤
粦
粲
糞
糸
糹
系
紀
約
納
素
索
紫
累
細
結
絜
絫
統
絲
維
綿
総
線
編
縣
繇
織
纍
纟
线
缶
网
罒
罔
罕
罗
罙
罡
罢
罪
署
罷
羅
羊
羌
羍
美
羔
羕
羗
羞
羡
羣
群
義
羲
羸
羽
翁
翏
習
翕
翟
翠
翼
老
耂
考
者
耆
而
耎
耑
耒
耳
耴
耶
耷
聂
聊
聖
聚
聞
聶
聿
肀
肃
肅
肉
肖
肙
肥
肩
肯
育
肴
胃
背
胡
胥
能
脊
脩
膚
臣
臤
臧
自
臬
臭
臯
臱
至
致
臺
臼
臽
臾
臿
舀
舂
舄
與
興
舉
舌
舍
舛
舜
舞
舟
航
般
船
艮
良
色
艸
艹
艾
芒
芔
芬
芮
花
芳
芺
芻
苔
苗
苟
若
苦
英
茶
茸
荅
草
荒
荣
荼
莆
莧
莫
莽
菆
菊
菐
菓
華
萬
落
葉
著
葛
董
葵
蒙
蒦
蒼
蓋
蓬
蓺
蔑
蔡
蔵
蕉
蕭
薄
薛
薦
薰
藍
藏
藤
藥
蘭
虍
虎
虐
虒
虔
處
虖
虗
虘
虚
虛
虜
虞
虫
虽
蚤
蚩
蜀
蜜
蟲
蟹
蠡
血
行
衍
術
衛
衣
衤
表
衮
衰
袁
袞
褭
褱
襄
襾
西
覀
要
覃
見
規
覓
覧
親
覽
见
角
解
言
訁
訇
計
記
設
試
話
詹
語
誩
説
調
諸
讠
计
谷
豆
豈
豊
豐
豕
豖
豙
象
豦
豩
豪
豸
貇
貝
貞
貟
負
貢
貧
貪
貫
責
貳
貴
買
費
賁
資
賈
賏
賓
賔
賛
賞
賢
賣
質
賴
贊
贝
贡
责
贯
贲
贵
赖
赞
赤
赦
赭
走
越
足
路
蹇
身
躬
車
軍
軎
軟
輦
车
辛
辜
辞
辟
辥
辰
辱
農
辵
辶
边
达
过
近
连
迷
追
退
送
逆
逐
通
速
造
逢
連
逮
週
進
遀
遂
過
道
達
遣
適
遷
遺
邁
邊
邑
邕
那
邦
邪
郎
部
郭
都
鄉
酉
酋
配
酓
釆
采
里
重
野
量
金
釒
鉄
錢
録
鑑
钅
長
镸
长
門
閃
閉
開
閏
閑
閒
間
閔
関
閵
閻
闌
门
间
闷
阑
阜
阝
阿
降
限
院
陳
隆
隊
隋
隡
隨
隱
隶
隹
隺
隻
隼
隽
难
雀
雁
雄
集
雈
雋
雍
雐
雔
雙
雚
雜
雝
離
難
雨
雩
雪
雲
零
雷
電
需
霄
霍
霜
霝
霞
霸
靈
靑
青
非
靡
面
靣
革
韋
韓
韦
韭
韯
韱
音
頁
頃
項
須
頗
頡
頻
顛
页
風
风
飛
飞
食
飠
養
館
饣
首
香
馬
馮
駅
駦
马
骨
高
髟
鬥
鬯
鬲
鬼
魚
魯
鮮
鱼
鲁
鳥
鳳
鸟
鹵
鹿
麃
麗
麥
麦
麻
黃
黄
黍
黎
黑
黒
黨
黹
黽
黾
鼎
鼓
鼠
鼻
齊
齋
齐
齒
齿
龍
龙
龜
龟
龠
龰
龱
龴
龵
龶
龷
龸
龹
者
艹
ﭘ
ﭼ
ﮐ
ﮑ
ﮔ
ﮕ
ﯼ
ﯽ
ﯾ
ﯿ
﴾
﴿
ﷲ
ﺀ
ﺁ
ﺍ
ﺎ
ﺑ
ﺒ
ﺕ
ﺖ
ﺗ
ﺘ
ﺟ
ﺠ
ﺣ
ﺤ
ﺧ
ﺨ
ﺩ
ﺪ
ﺭ
ﺮ
ﺯ
ﺰ
ﺳ
ﺴ
ﺶ
ﺷ
ﺸ
ﻃ
ﻋ
ﻌ
ﻓ
ﻔ
ﻗ
ﻘ
ﻛ
ﻞ
ﻟ
ﻠ
ﻡ
ﻢ
ﻣ
ﻤ
ﻥ
ﻦ
ﻧ
ﻨ
ﻩ
ﻪ
ﻫ
ﻬ
ﻭ
ﻮ
ﻳ
ﻴ
ﻻ
？
￼
�
𐎠
𐬀
𐬌
𐬎
𐭠
𐭥
𐭩
𠀁
𠀃
𠀆
𠀉
𠀎
𠀐
𠁁
𠁣
𠂆
𠂇
𠂈
𠂉
𠂊
𠂋
𠂎
𠂒
𠂔
𠂛
𠂡
𠂢
𠂤
𠂬
𠂭
𠂹
𠃊
𠃋
𠃌
𠃍
𠃎
𠃑
𠃓
𠃔
𠃜
𠄌
𠄎
𠄠
𠄢
𠆢
𠆥
𠇍
𠈌
𠌵
𠓜
𠔉
𠔥
𠔼
𠔽
𠔿
𠕀
𠕁
𠕋
𠘧
𠘨
𠙻
𠙼
𠚏
𠚒
𠚤
𠚪
𠣏
𠤎
𠤕
𠥓
𠦄
𠦑
𠦝
𠧒
𠧗
𠧪
𠩺
𠪚
𠫓
𠫔
𠫤
𠬛
𠬝
𠬞
𠬢
𠬤
𠬶
𠮛
𠮦
𠮷
𠯑
𠱠
𠳮
𠷎
𡈼
𡉀
𡉵
𡌥
𡍮
𡏳
𡕒
𡕩
𡕰
𡖅
𡗗
𡗜
𡘆
𡘤
𡧱
𡨄
𡩧
𡬠
𡭽
𡰣
𡰥
𡰪
𡰯
𡰱
𡷈
𡸁
𡿨
𡿩
𡿪
𡿺
𢀖
𢀛
𢀩
𢁙
𢆉
𢆰
𢆶
𢇁
𢇇
𢉖
𢌬
𢌿
𢏚
𢑑
𢑚
𢖻
𢙣
𢛳
𢦏
𢦒
𢧵
𢼄
𢾕
𣁋
𣄼
𣅀
𣅽
𣍘
𣎳
𣎵
𣏋
𣏼
𣗥
𣥂
𣥖
𣦵
𣦼
𣧄
𣪊
𣪠
𣬉
𣳾
𣶒
𤇾
𤊽
𤐫
𤓰
𤔔
𤕨
𤣩
𤰇
𤰔
𤰞
𤴓
𤴔
𤽄
𥁑
𥁕
𥃦
𥃩
𥃭
𥇡
𥑟
𥘅
𥘈
𥝢
𥫗
𥱡
𦈢
𦉪
𦉬
𦉼
𦍌
𦍒
𦎧
𦐇
𦓔
𦔮
𦘒
𦙃
𦚏
𦣝
𦣞
𦣻
𦥑
𦥔
𦥯
𦨉
𦭝
𦰩
𧆞
𧈧
𧘇
𧰨
𧴪
𧴮
𧵩
𧾷
𨸏
𨾴
𩙿
𩠐
𩫏
𩵋
𪉷
𪜀
𪟽
𪠲
𪩲
𫇦
𫔭
𫜸
𫝀
𫠣
𫠩
𫢉
𫥞
𫩏
𫩠
𫪡
𫲽
𫶧
𬀷
𬐘
𬗌
𬙙
𬛸
𬜯
𬟩
𬯁
𬴘
𬺻
𬼉
𬼖
𭀰
𭁈
𭁨
𭅰
𭑈
𭕄
𭗼
𭤨
𭥫
𭻾
𮅕
𮊿
𮍌
𮍏
𮓗
𮥼
𮧮
廾
𰀁
𰀄
𰀈
𰀉
𰀕
𰀠
𰀡
𰀢
𰀪
𰁜
𰃮
𰆊
𰆘
𰋙
𰕎
𰢴
𰧭
𰯲
0--
00--
000--
01--
02--
03--
04--
05--
06--
07--
08--
09--
1--
2--
29--
3--
31--
32--
33--
34--
35--
36--
37--
38--
39--
4--
40--
41--
42--
43--
44--
45--
46--
47--
48--
49--
5--
50--
51--
52--
53--
54--
55--
56--
57--
58--
59--
6--
60--
61--
62--
63--
64--
65--
66--
67--
68--
69--
7--
70--
71--
72--
73--
74--
75--
76--
77--
78--
79--
8--
80--
81--
82--
83--
84--
85--
86--
87--
88--
89--
9--
90--
91--
92--
93--
94--
95--
96--
97--
978--
98--
99--
aa--
ab--
aber--
ac--
acce--
accu--
acqu--
activ--
ad--
adap--
addit--
adel--
adve--
ae--
aero--
af--
ag--
ah--
ai--
air--
aj--
ak--
al--
alej--
alek--
alex--
ali--
all--
alt--
alum--
am--
amp--
an--
ana--
anarc--
ance--
and--
anta--
ante--
anth--
anti--
any--
ao--
ap--
apa--
app--
aq--
aqua--
ar--
arc--
argu--
arm--
art--
as--
assi--
aste--
at--
atmosp--
attr--
au--
auto--
av--
aw--
ax--
ay--
az--
ba--
back--
bact--
ban--
bapt--
bar--
base--
batt--
bay--
bb--
be--
beau--
bed--
beet--
behavi--
ben--
benef--
berg--
bern--
bert--
bh--
bi--
bian--
bibl--
biblio--
bio--
bj--
bl--
blan--
bloo--
bo--
boli--
boll--
boul--
bour--
br--
brad--
bras--
brig--
brit--
broo--
brun--
bu--
budd--
bundes--
by--
byza--
ca--
calc--
cald--
cali--
camb--
can--
cap--
car--
cass--
cat--
cb--
cc--
cd--
ce--
cele--
cent--
cere--
cert--
cf--
ch--
chal--
chat--
che--
chi--
chro--
chry--
ci--
cine--
circ--
city--
cl--
clem--
clif--
cm--
cn--
co--
coll--
collab--
collec--
colo--
colu--
com--
con--
const--
contr--
conversat--
coor--
corn--
corr--
corres--
cos--
coup--
cp--
cr--
crea--
crist--
cs--
ct--
cu--
curr--
cust--
cy--
cycl--
cz--
da--
dam--
dan--
dar--
de--
dec--
decla--
def--
del--
demo--
der--
des--
desti--
dete--
deutschl--
dh--
di--
diag--
dial--
dict--
diff--
dimen--
dipl--
disa--
disc--
disp--
diss--
dist--
distri--
dj--
dm--
do--
down--
dr--
du--
dw--
dy--
dyna--
dz--
ea--
eb--
ec--
ed--
ee--
ef--
effi--
eg--
eh--
ei--
ek--
el--
elec--
electr--
elis--
em--
embr--
emer--
emis--
emot--
empl--
en--
end--
eng--
eo--
ep--
epidemio--
epil--
eq--
equa--
equi--
er--
es--
est--
establi--
et--
etym--
eu--
euph--
euro--
ev--
ew--
ex--
exp--
extr--
ey--
ez--
fa--
fabr--
fair--
fan--
far--
favo--
fc--
fe--
ferdin--
ferr--
fi--
film--
fire--
fitz--
fl--
flor--
fluo--
fo--
folk--
foot--
for--
fr--
frag--
fran--
free--
frei--
freq--
frie--
fu--
ga--
gala--
gall--
game--
gang--
gas--
gc--
ge--
geo--
germ--
gh--
gi--
gian--
gil--
gl--
gn--
go--
god--
gold--
good--
gr--
gran--
grif--
gs--
gu--
guan--
guer--
guil--
gun--
gw--
gy--
ha--
hamp--
han--
happ--
hard--
hart--
has--
hat--
he--
head--
heid--
heli--
hels--
her--
hi--
high--
hiro--
his--
historio--
hit--
hm--
ho--
hoff--
holl--
home--
homo--
horm--
hot--
how--
hr--
hs--
hu--
hurr--
huss--
hw--
hy--
hydr--
hyper--
hypo--
ia--
ib--
ic--
ice--
id--
iden--
ideo--
ie--
if--
ig--
ih--
ii--
ij--
ik--
il--
illu--
illust--
im--
immuno--
in--
inc--
incor--
indi--
indu--
infe--
infi--
infl--
info--
inhi--
inju--
insp--
inst--
instru--
instruct--
insu--
int--
inter--
inve--
invest--
invi--
io--
ip--
ir--
iran--
is--
isab--
iso--
it--
iu--
iv--
iw--
iz--
ja--
jan--
je--
ji--
jo--
jp--
ju--
judo--
junct--
ka--
kara--
kath--
kauf--
ke--
key--
kh--
kham--
khom--
khor--
ki--
kirc--
kit--
kl--
kn--
ko--
kommunikat--
kp--
kr--
ku--
kw--
ky--
la--
lanc--
land--
laur--
law--
lc--
le--
legi--
lexi--
lf--
lg--
lh--
li--
lib--
life--
lin--
lipp--
lite--
lith--
ll--
lo--
lock--
long--
low--
lu--
luxemb--
ly--
lymp--
ma--
mac--
mad--
magn--
mala--
mamm--
man--
manif--
map--
mar--
mas--
math--
mats--
maur--
max--
mb--
mc--
me--
meas--
med--
mega--
mela--
memo--
men--
merc--
meso--
mess--
met--
meta--
mi--
micr--
micros--
mid--
mil--
min--
mit--
miya--
mm--
mn--
mo--
mona--
mong--
mono--
mont--
monu--
morpho--
mort--
motor--
mp--
mr--
ms--
mt--
mu--
multi--
muta--
my--
myst--
na--
naka--
nano--
narr--
nat--
navi--
nc--
nd--
ne--
neder--
neig--
neo--
net--
neur--
neut--
new--
news--
ng--
ni--
nico--
niko--
no--
non--
north--
not--
notificat--
np--
ns--
nt--
nu--
nucl--
nume--
ny--
oa--
ob--
ober--
obse--
oc--
od--
oe--
of--
off--
og--
oh--
oi--
ok--
ol--
oliv--
olym--
om--
on--
onco--
one--
oo--
op--
or--
organisat--
orientat--
orth--
os--
ot--
ou--
out--
ov--
over--
ow--
ox--
oy--
oz--
pa--
pall--
pan--
par--
para--
pass--
pat--
pay--
pc--
pe--
pedi--
pen--
per--
percept--
pet--
pf--
ph--
pharm--
phen--
phos--
photo--
phyl--
pi--
pitc--
pitt--
pl--
play--
plea--
pm--
po--
poli--
politi--
poly--
post--
pr--
pre--
prim--
pro--
provi--
ps--
pseu--
psyc--
psycho--
pt--
pu--
py--
qa--
qe--
qi--
qu--
ra--
radio--
ram--
rat--
re--
rec--
recom--
red--
ref--
refer--
reflect--
regi--
regu--
rein--
rela--
rele--
reli--
res--
reta--
reti--
retr--
rev--
revis--
rh--
rho--
ri--
ro--
rob--
rock--
roth--
row--
rs--
ru--
run--
ry--
sa--
sala--
salv--
sam--
san--
satu--
sc--
scar--
scha--
sche--
schi--
schl--
scho--
schr--
schu--
schw--
scle--
scul--
sd--
se--
sea--
see--
sen--
set--
sf--
sh--
sham--
shar--
she--
shi--
show--
si--
sim--
simulat--
sin--
sk--
sky--
skysc--
sl--
slov--
sm--
sn--
so--
socio--
some--
sovere--
sp--
spea--
spec--
spir--
sq--
squi--
sr--
ss--
st--
stad--
stan--
star--
ster--
stra--
stre--
stri--
su--
sub--
suff--
sun--
super--
sur--
susp--
sv--
sw--
sy--
sylv--
symp--
synt--
sz--
sə--
ta--
taka--
tall--
tan--
te--
tea--
tele--
temp--
ten--
terr--
text--
th--
the--
thor--
thur--
ti--
time--
to--
tolo--
tom--
tr--
trans--
trea--
tric--
trop--
ts--
tu--
turb--
tv--
tw--
ty--
ub--
uc--
ud--
ue--
ug--
uk--
ul--
um--
un--
under--
univer--
up--
ur--
us--
ut--
util--
uz--
va--
val--
van--
var--
vd--
ve--
vec--
vent--
veri--
vers--
vert--
verw--
vi--
vita--
vl--
vo--
vol--
vr--
vu--
wa--
war--
we--
web--
wein--
weis--
west--
wh--
whit--
wi--
wies--
wiki--
wild--
win--
with--
wo--
wood--
wr--
wu--
wy--
xa--
xb--
xe--
xi--
xx--
ya--
yama--
ye--
yi--
yo--
yu--
yv--
za--
zd--
ze--
zh--
zi--
zo--
zu--
zw--
zy--
ə--
а--
в--
д--
и--
м--
н--
о--
пере--
р--
респу--
с--
со--
т--
ար--
բախ--
հ--
հա--
մար--
ا--
اب--
ابا--
ابخ--
ابر--
ابن--
ابو--
ابوال--
ابی--
ات--
اتا--
اتر--
اتش--
اتو--
اث--
اثر--
اج--
اجر--
اجرا--
اح--
احت--
احق--
احمد--
اخ--
اخت--
اختر--
اخر--
اد--
ادم--
ادو--
ادی--
ادین--
اذر--
ار--
ارا--
ارت--
ارد--
ارش--
ارض--
ارغ--
ارم--
ارو--
ارک--
ارگ--
اری--
از--
ازاد--
ازو--
اس--
اسا--
است--
استر--
استق--
اسد--
اسم--
اسن--
اسپ--
اسکو--
اش--
اشتق--
اشته--
اشک--
اص--
اصط--
اض--
اط--
اع--
اعا--
اعج--
اعل--
اغ--
اغا--
اف--
افتاب--
اق--
اقا--
اقتض--
اك--
ال--
الا--
الب--
الت--
الترن--
الث--
الج--
الح--
الد--
الذ--
الر--
الس--
الش--
الص--
الط--
الع--
الغ--
الف--
الق--
الم--
الن--
اله--
الو--
الک--
الکترو--
الگو--
الی--
ام--
اما--
امار--
امام--
امر--
امضا--
امی--
امیر--
ان--
انا--
انت--
انتا--
اند--
انس--
انو--
انژ--
انک--
انگ--
انی--
اه--
اهن--
اهو--
او--
اوا--
اوت--
اور--
اوز--
اوغ--
اول--
اون--
اوه--
اوي--
اوک--
اوگ--
اوی--
اي--
اپ--
اپو--
اپی--
اچ--
اژ--
اک--
اکبر--
اکت--
اکس--
اکو--
اکی--
اگ--
اگر--
اگز--
اگزیستان--
ای--
ایا--
ایت--
ایر--
ایران--
ایزد--
ایزن--
ایزو--
ایس--
ایشت--
ایل--
ایم--
این--
اینتر--
ایو--
ایگ--
ب--
با--
بابا--
بات--
باج--
باد--
بار--
باز--
باس--
باش--
باص--
باغ--
باقر--
بال--
بالا--
بام--
بان--
باو--
باور--
باک--
بای--
بت--
بتا--
بح--
بخ--
بخر--
بد--
بدر--
بده--
بدی--
بذ--
بذر--
بر--
برا--
برت--
برد--
برس--
برف--
برق--
برم--
برمی--
برن--
برو--
برک--
برگ--
بری--
بز--
بس--
بسا--
بص--
بط--
بغ--
بق--
بل--
بلا--
بلند--
بلو--
بلک--
بلی--
بم--
بما--
بمب--
بن--
بنا--
بند--
بندر--
بنگ--
بنیاد--
به--
بها--
بهر--
بو--
بوت--
بود--
بور--
بوس--
بول--
بوم--
بون--
بي--
بچ--
بک--
بگ--
بگذ--
بگش--
بی--
بیا--
بیت--
بید--
بیر--
بیس--
بیش--
بیف--
بیل--
بین--
بیو--
بیچ--
بیک--
بیگ--
ت--
تا--
تاب--
تات--
تاثیر--
تاج--
تار--
تام--
تان--
تاو--
تاي--
تاک--
تای--
تب--
تبار--
تبهک--
تترا--
تج--
تح--
تخ--
تخت--
تد--
تذ--
تر--
ترا--
ترس--
ترم--
ترمو--
ترو--
تروت--
تروم--
تری--
تز--
تس--
تست--
تش--
تص--
تض--
تط--
تع--
تغ--
تغییر--
تف--
تق--
تك--
تل--
تم--
تمث--
تمهی--
تن--
تند--
تنگ--
ته--
تهی--
تو--
توت--
تور--
توس--
تول--
تون--
توپ--
تي--
تيود--
تک--
تکن--
تگ--
تی--
تیت--
تیر--
تیز--
تیل--
تیم--
ث--
ثم--
ج--
جا--
جام--
جان--
جای--
جبر--
جدا--
جذ--
جر--
جرثق--
جز--
جست--
جل--
جلو--
جم--
جن--
جنگ--
جه--
جهان--
جو--
جور--
جوز--
جوش--
جي--
جک--
جی--
جیل--
ح--
حا--
حب--
حج--
حد--
حر--
حرم--
حس--
حص--
حض--
حق--
حل--
حن--
حک--
حی--
خ--
خار--
خال--
خان--
خاور--
خاچ--
خاک--
خب--
خبر--
خدا--
خر--
خرد--
خرق--
خرم--
خز--
خس--
خسرو--
خش--
خشک--
خص--
خطر--
خف--
خل--
خم--
خند--
خو--
خود--
خور--
خوش--
خون--
خی--
خیر--
د--
دا--
داد--
دار--
دارال--
دارو--
داس--
داش--
دال--
دام--
دان--
داو--
داي--
داک--
دای--
در--
درا--
دراز--
درب--
دربر--
درت--
درج--
درد--
درز--
درس--
درم--
درو--
درک--
دریا--
دز--
دست--
دشت--
دعا--
دف--
دفتر--
دق--
دل--
دلا--
دم--
دما--
دن--
ده--
دو--
دود--
دور--
دوز--
دوس--
دول--
دوم--
دون--
دوک--
دي--
دژ--
دکتر--
دگر--
دی--
دیالک--
دیر--
دیز--
دیس--
دیل--
دیم--
دین--
دیو--
دیگر--
ذ--
ذه--
ذوال--
ذکر--
ذی--
ر--
را--
راب--
راج--
راد--
رادر--
رادیو--
راز--
راس--
رام--
ران--
راه--
راو--
راک--
رای--
راین--
رب--
رت--
رج--
رخ--
رخت--
رد--
رز--
رزم--
رس--
رسلم--
رش--
رشید--
رضا--
رفق--
رق--
رم--
رمز--
رن--
رند--
ره--
رها--
رو--
روان--
روت--
رود--
روز--
روس--
روم--
روی--
ري--
رپ--
رک--
رگ--
ری--
ریا--
ریز--
ریم--
رین--
ریو--
ریک--
ز--
زا--
زاد--
زار--
زال--
زان--
زای--
زبان--
زبر--
زد--
زر--
زرد--
زم--
زن--
زنج--
زند--
زنگ--
زه--
زو--
زود--
زور--
زي--
زک--
زی--
زیبا--
زیر--
زین--
س--
سا--
ساب--
سار--
ساز--
سال--
سام--
سان--
ساک--
سای--
سب--
سبز--
سبک--
ست--
ستم--
سح--
سحر--
سخ--
سخت--
سخن--
سد--
سر--
سرا--
سرب--
سرخ--
سرد--
سرو--
سری--
سس--
سع--
سعد--
سف--
سفی--
سفید--
سق--
سل--
سلح--
سم--
سمن--
سن--
سنا--
سنت--
سند--
سنگ--
سه--
سو--
سوء--
سود--
سور--
سول--
سوم--
سون--
سوپر--
سوک--
سوگ--
سي--
سک--
سکس--
سگ--
سی--
سیا--
سیاه--
سیتو--
سیتوپ--
سیح--
سید--
سیر--
سیس--
سیف--
سیل--
سیم--
سین--
سیو--
ش--
شاخ--
شاد--
شار--
شام--
شان--
شاه--
شاي--
شاک--
شب--
شبان--
شت--
شتر--
شد--
شر--
شرف--
شرم--
شش--
شعر--
شفا--
شق--
شل--
شم--
شن--
شنوند--
شه--
شهر--
شو--
شود--
شور--
شول--
شوم--
شون--
شي--
شک--
شکر--
شی--
شیب--
شیر--
شین--
ص--
صاحب--
صبح--
صح--
صد--
صدا--
صدر--
صرا--
صف--
صفا--
صفر--
صمص--
صنو--
صورت--
ض--
ضاب--
ضد--
ضرغ--
ط--
طب--
طر--
طغ--
طلا--
طلب--
طنز--
طه--
طور--
طی--
ظ--
ع--
عا--
عالی--
عب--
عبد--
عبدال--
عتب--
عج--
عد--
عرب--
عز--
عزیز--
عسگ--
عصر--
عضد--
عط--
عطا--
عظ--
عل--
علاء--
علف--
علی--
عم--
عمل--
عمو--
عن--
عکس--
عیس--
غ--
غار--
غض--
غل--
غم--
غو--
غور--
غیر--
ـ--
ف--
فا--
فاخ--
فار--
فال--
فان--
فاي--
فای--
فایر--
فت--
فتو--
فخر--
فدا--
فر--
فرا--
فراز--
فرح--
فرد--
فرزند--
فره--
فرو--
فری--
فس--
فشر--
فص--
فض--
فضا--
فق--
فل--
فلا--
فلز--
فلو--
فلوي--
فلی--
فن--
فنا--
فهی--
فو--
فوت--
فور--
فول--
فون--
في--
فک--
فی--
فیث--
فیر--
فیل--
فین--
ق--
قا--
قد--
قدم--
قر--
قرا--
قرار--
قرق--
قص--
قصر--
قط--
قل--
قلم--
قلند--
قم--
قمر--
قن--
قو--
قی--
قیر--
ك--
كار--
كل--
ل--
لا--
لات--
لاف--
لال--
لام--
لان--
لاو--
لاي--
لاک--
لای--
لب--
لح--
لد--
لر--
لز--
لس--
لش--
لط--
لغ--
لق--
لل--
للم--
لم--
لن--
لنز--
له--
لو--
لوب--
لوت--
لوم--
لون--
لوی--
لي--
لپ--
لژ--
لک--
لی--
لین--
لیو--
م--
ما--
مات--
ماد--
مادر--
مار--
ماس--
مال--
مان--
ماه--
مای--
مبا--
مبت--
مت--
متد--
متو--
مث--
مج--
مجا--
مجد--
مح--
محت--
محمد--
مخ--
مخبر--
مخر--
مخم--
مد--
مدد--
مدیر--
مذ--
مر--
مرح--
مرد--
مرز--
مرغ--
مری--
مز--
مزو--
مس--
مست--
مش--
مشک--
مص--
مض--
مط--
مع--
معتمد--
معذ--
معنا--
مغ--
مف--
مق--
مل--
ملا--
ملت--
ملک--
ملی--
من--
منا--
منت--
مند--
منو--
مه--
مهد--
مهر--
مو--
مواد--
موت--
موتور--
مود--
مور--
مورد--
موز--
موس--
مول--
موم--
مون--
مونو--
موه--
مي--
مک--
مگ--
مگاپی--
می--
میا--
میان--
میت--
میخ--
میخوا--
مید--
میدل--
میر--
میرزا--
میز--
میس--
میش--
میل--
مین--
میو--
میک--
میکرو--
میگ--
میگذ--
ن--
نا--
ناب--
نات--
نار--
ناز--
ناصر--
نام--
نامت--
نان--
نانو--
ناهم--
ناو--
ناي--
ناک--
ناگ--
نای--
نت--
نج--
نخ--
ند--
نر--
نرم--
نس--
نش--
نشر--
نص--
نصر--
نط--
نظ--
نظر--
نع--
نفر--
نفوذ--
نق--
نقش--
نم--
نما--
نماد--
نمی--
ننگ--
نه--
نهر--
نو--
نوا--
نوت--
نود--
نور--
نون--
نوک--
نوی--
نيا--
نيو--
نژاد--
نک--
نکو--
نگ--
نگار--
نگذ--
نگه--
نی--
نیا--
نیت--
نیز--
نیل--
نیم--
نیو--
نیک--
ه--
ها--
هات--
هار--
هاروت--
هال--
هان--
هاو--
هاپ--
هاگ--
های--
هت--
هد--
هدف--
هر--
هرا--
هرت--
هرز--
هرم--
هری--
هزار--
هفت--
هل--
هلی--
هم--
هما--
همو--
همی--
هن--
هنج--
هند--
هندو--
هنر--
هو--
هوا--
هور--
هوس--
هوف--
هوم--
هون--
هوو--
هپت--
هژ--
هک--
هی--
هیدرو--
هیرو--
هیرک--
هیس--
هیست--
هیل--
هین--
هیو--
هیپ--
هیپو--
هیچ--
و--
وا--
وات--
وار--
وارد--
واز--
وال--
والا--
وام--
وان--
وای--
وب--
وجود--
وخ--
ود--
ودر--
ور--
ورا--
ورد--
ورم--
وز--
وزیر--
وس--
وست--
وش--
وص--
وق--
ول--
ولا--
ولد--
ولو--
وم--
ون--
وند--
وه--
وهم--
وو--
وود--
وي--
وی--
ویا--
ویت--
وید--
ویر--
ویس--
ویل--
وین--
ویو--
ویک--
ي--
يا--
يك--
١--
١٣--
١٩--
٢--
٢٠--
٣--
پ--
پا--
پاد--
پادوس--
پار--
پاس--
پال--
پان--
پاپ--
پاک--
پای--
پت--
پتر--
پد--
پدر--
پر--
پرت--
پرتو--
پرخاش--
پرس--
پرش--
پرو--
پرول--
پروپا--
پری--
پز--
پس--
پسا--
پسر--
پشت--
پط--
پل--
پلو--
پلی--
پن--
پنج--
په--
پو--
پوت--
پود--
پور--
پوش--
پول--
پوم--
پوي--
پي--
پژ--
پک--
پی--
پیتس--
پیدا--
پیر--
پیش--
پیل--
پین--
پیو--
پیچ--
پیک--
چ--
چار--
چال--
چاو--
چاپ--
چاک--
چای--
چت--
چتر--
چرد--
چرو--
چسب--
چغ--
چل--
چلی--
چم--
چن--
چند--
چه--
چهار--
چو--
چي--
چپ--
چک--
چگ--
چی--
چیز--
ژ--
ژان--
ژاک--
ژل--
ژن--
ژو--
ژيو--
ژی--
ژیر--
ک--
کا--
کات--
کاتا--
کار--
کارا--
کارد--
کاس--
کاش--
کاغذ--
کال--
کام--
کان--
کاو--
کاي--
کاپ--
کاپیت--
کای--
کت--
کتاب--
کد--
کر--
کرا--
کرد--
کرم--
کرو--
کرک--
کری--
کز--
کس--
کش--
کشت--
کشور--
کف--
کل--
کلا--
کلر--
کلرو--
کلو--
کلک--
کلی--
کم--
کمر--
کمپ--
کن--
کنار--
کنت--
کند--
که--
کو--
کوب--
کوت--
کود--
کور--
کورن--
کوس--
کول--
کوم--
کون--
کوه--
کوي--
کوچ--
کوک--
کوی--
کپ--
کژ--
کی--
کیا--
کیت--
کیل--
کیلو--
کیم--
کین--
کینگ--
کیو--
گ--
گاد--
گار--
گاز--
گالو--
گالی--
گام--
گان--
گاه--
گاو--
گاي--
گای--
گدا--
گذر--
گر--
گرا--
گران--
گرد--
گرم--
گره--
گرو--
گری--
گز--
گست--
گسیخ--
گش--
گشت--
گل--
گلادی--
گلد--
گلن--
گلو--
گلی--
گم--
گن--
گنج--
گند--
گه--
گو--
گوا--
گوت--
گود--
گور--
گوش--
گول--
گون--
گي--
گچ--
گی--
گیاه--
گیر--
گیل--
ی--
یا--
یاد--
یار--
یان--
یاي--
یخ--
ید--
یر--
یس--
یل--
یم--
ین--
یهود--
یو--
یون--
یوگ--
یي--
یک--
یی--
۰۰--
۰۱--
۰۲--
۵۱--
۵۳--
۵۴--
۵۵--
۵۶--
۵۷--
۵۸--
۵۹--
۶۰--
۶۱--
۶۲--
۶۳--
۶۴--
۶۵--
۶۶--
۶۷--
۶۸--
۶۹--
۷۰--
۷۱--
۷۲--
۷۴--
۷۵--
۷۶--
۷۷--
۷۸--
۷۹--
۸۰--
۸۱--
۸۲--
۸۳--
۸۴--
۸۵--
۸۶--
۸۷--
۸۸--
۸۹--
۹۰--
۹۱--
۹۲--
۹۳--
۹۴--
۹۵--
۹۷۸--
۹۸--
۹۹--
ᄀ--
ᄁ--
ᄂ--
ᄃ--
ᄅ--
ᄆ--
ᄇ--
ᄉ--
ᄊ--
ᄋ--
ᄌ--
ᄎ--
ᄏ--
ᄐ--
ᄑ--
ᄒ--
ﺍ--
ﺑ--
--0
--0
--00
--01
--02
--03
--04
--05
--06
--07
--08
--09
--1
--1
--10
--11
--12
--13
--14
--15
--16
--17
--18
--19
--2
--2
--20
--21
--22
--23
--24
--25
--26
--27
--28
--29
--3
--3
--30
--31
--32
--33
--34
--35
--36
--37
--38
--39
--4
--4
--40
--41
--42
--43
--44
--45
--46
--47
--48
--49
--5
--5
--50
--51
--52
--53
--54
--55
--56
--57
--58
--59
--6
--6
--60
--61
--62
--63
--64
--65
--66
--67
--68
--69
--7
--7
--70
--71
--72
--73
--74
--75
--76
--77
--78
--79
--8
--8
--80
--81
--82
--83
--84
--85
--86
--87
--88
--89
--9
--9
--90
--91
--92
--93
--94
--95
--96
--97
--98
--99
--a
--aa
--ab
--abad
--abe
--able
--ac
--ach
--acity
--ack
--acy
--ad
--ada
--ade
--adi
--ado
--ae
--ael
--af
--afa
--ag
--age
--ah
--ai
--ail
--ais
--aj
--ak
--aka
--aki
--al
--ala
--ale
--all
--ally
--alo
--am
--ama
--ament
--ami
--an
--ana
--ance
--and
--ane
--ang
--ani
--ano
--ans
--ant
--ants
--ao
--ap
--apy
--aq
--ar
--ara
--ard
--ari
--aries
--ario
--ark
--aro
--aru
--ary
--as
--ase
--ash
--ashi
--ast
--at
--ata
--ate
--ated
--ates
--ath
--ati
--atic
--ating
--ation
--ations
--ative
--ato
--ator
--ats
--ature
--atus
--au
--aurus
--av
--ava
--avir
--aw
--awa
--ax
--ay
--aya
--az
--b
--ba
--bach
--back
--ball
--be
--bel
--ber
--berg
--bi
--bie
--bility
--ble
--bo
--book
--bow
--box
--bs
--bsd
--burg
--bury
--by
--c
--ca
--cal
--cco
--ce
--ced
--cent
--ces
--ch
--charts
--ci
--cing
--cio
--ck
--cken
--cle
--co
--craft
--cs
--ct
--cu
--cus
--cy
--d
--da
--dad
--dae
--dai
--dal
--dale
--day
--de
--ded
--den
--di
--dia
--dis
--dium
--dle
--dler
--do
--dor
--dorf
--dr
--dra
--ds
--dt
--dy
--e
--ea
--ead
--eal
--ean
--ear
--east
--eat
--eau
--eb
--ec
--ech
--eck
--ect
--ed
--edia
--ee
--eed
--een
--ees
--ef
--eh
--ei
--eira
--ek
--el
--ela
--eld
--els
--em
--ema
--ement
--en
--ena
--ence
--ency
--ene
--ens
--ense
--ensis
--ensive
--ent
--ents
--eny
--eo
--eon
--eous
--ep
--er
--ere
--ered
--erg
--eri
--ering
--ern
--ero
--ers
--ert
--ery
--es
--ese
--esh
--esi
--ess
--est
--et
--ete
--eter
--eth
--etic
--ets
--ett
--ette
--etti
--eur
--eus
--ev
--ew
--ews
--ex
--ey
--ez
--f
--fa
--fe
--feld
--fen
--fer
--ff
--ffe
--fi
--fied
--field
--fin
--fs
--ft
--ful
--fy
--g
--ga
--gan
--gate
--ge
--ged
--ger
--ges
--gh
--gham
--ght
--gi
--gia
--gin
--ging
--gle
--go
--gon
--gs
--gton
--gue
--gular
--h
--ha
--haft
--ham
--he
--head
--hed
--heim
--hen
--hes
--hi
--hia
--hian
--hin
--hip
--hl
--ho
--holm
--hon
--hood
--hop
--hs
--ht
--hus
--hy
--i
--ia
--iac
--ial
--ian
--iana
--ians
--ias
--iate
--iation
--ib
--ible
--ic
--ica
--ical
--ich
--ici
--ick
--ico
--ics
--icus
--id
--ida
--idae
--ide
--idence
--ides
--ido
--ids
--ie
--ied
--iel
--ield
--ien
--ier
--ies
--iest
--iet
--if
--ified
--ify
--ig
--igo
--ii
--ik
--ika
--iki
--il
--ila
--ile
--ility
--ill
--illa
--ille
--illo
--im
--ima
--imate
--ime
--imo
--in
--ina
--inal
--ine
--ined
--ing
--inger
--ings
--ington
--ini
--ino
--ins
--inson
--inus
--io
--iol
--ion
--ions
--ior
--iot
--ious
--iple
--ique
--ir
--ira
--ire
--iro
--iry
--is
--isation
--ische
--ise
--ish
--isi
--ism
--ist
--istic
--ists
--it
--ita
--ital
--itarian
--ite
--ith
--ities
--itis
--ito
--itt
--ity
--itz
--ium
--ius
--ival
--ive
--ix
--iya
--iye
--iz
--ization
--ize
--ized
--izing
--j
--ja
--je
--ji
--jo
--k
--ka
--kar
--ke
--ked
--kel
--ker
--ket
--kh
--ki
--kie
--kin
--ko
--kov
--ks
--ku
--ky
--l
--la
--lah
--lan
--land
--lar
--lation
--ld
--le
--len
--ler
--les
--less
--let
--ley
--li
--lia
--lic
--line
--ling
--lio
--lis
--list
--lity
--ll
--lla
--lle
--lli
--llo
--lly
--lo
--logy
--lon
--lor
--lorer
--ls
--lt
--lu
--lus
--ly
--lyn
--lz
--lı
--m
--ma
--mal
--man
--me
--mel
--men
--ment
--ments
--mer
--mes
--mi
--mic
--mir
--mn
--mo
--mon
--ms
--mum
--my
--n
--na
--nal
--nan
--nar
--nary
--nas
--nautics
--nce
--ncing
--ncy
--nd
--nda
--ne
--nel
--nell
--nen
--ner
--nes
--ness
--net
--news
--ney
--ng
--ni
--nia
--nian
--nic
--nica
--nie
--nik
--nin
--ning
--nis
--nko
--nn
--nna
--nne
--no
--nol
--nor
--ns
--nsis
--nt
--nte
--ntial
--ntly
--nts
--nu
--num
--nus
--ny
--nz
--nza
--o
--oa
--oc
--ock
--od
--ode
--oe
--of
--off
--oft
--og
--ography
--ogy
--oi
--oid
--ok
--oka
--ol
--ola
--ole
--oli
--olk
--olo
--ological
--ology
--ols
--om
--oma
--ome
--on
--ona
--onal
--ond
--one
--ong
--oni
--ons
--ont
--ony
--oo
--ood
--oon
--op
--or
--ora
--ord
--ore
--orf
--ori
--orm
--orn
--oro
--ors
--ort
--ory
--os
--osa
--ose
--osis
--ot
--oto
--ott
--ou
--oud
--ous
--out
--ov
--ova
--ovic
--ovich
--ovo
--ow
--owo
--ows
--owski
--ox
--oy
--oys
--p
--pa
--pe
--ped
--pi
--pine
--ping
--po
--polis
--post
--ps
--pt
--pur
--pus
--py
--q
--que
--r
--ra
--rad
--rah
--ral
--ran
--ras
--rd
--re
--ree
--rel
--ren
--rer
--rett
--rf
--rg
--rger
--ri
--ria
--ric
--rics
--rie
--ried
--ries
--rik
--rin
--ris
--rk
--rmatics
--rmo
--rn
--rno
--ro
--rom
--ros
--rov
--rry
--rs
--rse
--rt
--rta
--rty
--ru
--rum
--rus
--ry
--s
--sa
--sburg
--sch
--sche
--se
--sed
--sen
--ser
--ses
--set
--sey
--sh
--sha
--ship
--shire
--si
--sia
--sian
--sis
--sive
--sk
--ska
--ske
--ski
--sm
--so
--son
--sor
--ss
--ssa
--sson
--st
--sta
--stan
--ster
--stic
--ston
--stone
--sty
--su
--sus
--sville
--sy
--t
--ta
--tains
--tal
--tar
--tas
--tat
--tation
--tative
--te
--ted
--tein
--tel
--ter
--tes
--th
--tha
--thal
--thy
--ti
--tia
--tial
--tic
--tics
--tie
--time
--tin
--tine
--ting
--tings
--tion
--tions
--tis
--tive
--tle
--to
--tock
--ton
--tone
--tor
--tors
--tory
--tos
--town
--tra
--tre
--tro
--try
--ts
--tsu
--tt
--tta
--tte
--tti
--tu
--tum
--ture
--tus
--tv
--ty
--tz
--u
--ua
--ual
--uce
--ud
--ue
--ues
--ui
--uin
--uit
--uk
--ul
--ula
--ular
--ult
--um
--ume
--un
--ung
--up
--ur
--ura
--ure
--urg
--uri
--uring
--uro
--urs
--urus
--ury
--us
--ut
--ute
--ux
--uz
--v
--va
--ve
--ved
--ven
--ver
--ves
--vi
--vic
--ville
--vin
--ving
--vity
--vo
--w
--wa
--ware
--way
--we
--west
--wick
--wo
--ws
--wski
--x
--y
--ya
--yan
--ye
--yer
--yi
--ying
--yk
--yl
--yn
--yo
--yon
--yra
--ys
--z
--za
--ze
--zel
--zer
--zi
--zo
--zon
--ı
--ə
--ər
--əsi
--ος
--а
--ан
--андр
--в
--вич
--д
--е
--евич
--и
--ии
--ич
--к
--льныи
--н
--о
--ов
--ова
--ович
--р
--т
--у
--я
--ան
--են
--ի
--ին
--յան
--նյան
--րյան
--ւնների
--ء
--ا
--اء
--اب
--اباد
--ابی
--ات
--اتس
--اته
--اتور
--اتی
--اج
--اح
--اخ
--اخت
--اخه
--اد
--اده
--ادی
--ار
--ارا
--ارت
--ارد
--اری
--از
--ازد
--ازه
--ازی
--اس
--است
--اسیون
--اش
--اشا
--اشت
--اشته
--اط
--اع
--اعه
--اعی
--اغ
--اف
--افته
--افی
--اق
--ال
--الا
--الی
--ام
--اما
--امه
--امو
--اموتو
--امیز
--ان
--انا
--انت
--اند
--انس
--انش
--انند
--انه
--انو
--انژ
--انکا
--انگ
--انی
--انیان
--اه
--اها
--اهه
--او
--اوا
--اور
--اوس
--اي
--ايو
--ايی
--ايیل
--اپ
--اپور
--اچی
--اژ
--اک
--اکا
--اکان
--اکر
--اگ
--اگا
--ای
--ایت
--اید
--ایز
--ایش
--ایف
--ایم
--این
--ایک
--ایی
--ب
--با
--باد
--بار
--باف
--بان
--بب
--بة
--بت
--بخش
--بد
--بر
--برگ
--بس
--بط
--بع
--بل
--بن
--بند
--به
--بو
--بود
--بورگ
--بک
--بکر
--بی
--بیا
--بین
--ة
--ت
--تا
--تال
--تان
--تب
--تت
--تر
--ترا
--ترز
--ترو
--تروس
--تری
--ترین
--تز
--تزیا
--تس
--تسا
--تسه
--تسو
--تسی
--تش
--تع
--تل
--تم
--تمی
--تن
--ته
--تو
--تور
--توس
--توف
--توم
--تون
--توک
--تک
--تی
--تیا
--تیان
--تید
--تیس
--تین
--تیک
--ث
--ثر
--ثق
--ثقی
--ج
--جا
--جات
--جار
--جان
--جت
--جر
--جرد
--جس
--جل
--جلس
--جه
--جو
--جی
--ح
--حا
--حب
--حده
--حش
--حم
--حه
--حی
--حە
--خ
--خا
--خان
--خانه
--خت
--ختن
--خته
--ختی
--خر
--خس
--خش
--خط
--خل
--خن
--خه
--خو
--خواه
--خون
--خی
--د
--دا
--داد
--دار
--داری
--داز
--داشت
--دان
--دة
--دت
--دخت
--در
--درا
--دز
--دس
--دست
--دش
--دشت
--دل
--دم
--دن
--دند
--دنس
--ده
--دها
--دهای
--دهی
--دو
--دوز
--دوست
--دي
--دک
--دگان
--دگی
--دی
--دیا
--دیان
--دیم
--دین
--دە
--ذ
--ذا
--ذر
--ذری
--ذل
--ذن
--ذي
--ر
--را
--رات
--راس
--رال
--ران
--رانی
--رب
--رة
--رت
--رث
--رج
--رخ
--رد
--ردام
--رر
--رز
--رس
--رش
--رضا
--رع
--رعت
--رف
--رق
--رل
--رلی
--رم
--رمن
--رن
--رنگ
--ره
--رها
--رهای
--رو
--رود
--روس
--روف
--رون
--روپ
--روی
--ري
--رژیک
--رک
--رکز
--رگ
--رگی
--ری
--ریا
--ریت
--ریتی
--ریخ
--رین
--ریک
--ز
--زا
--زاد
--زاده
--زاسیون
--زام
--زبی
--زد
--زر
--زش
--زعات
--زل
--زم
--زمن
--زن
--زنی
--زه
--زو
--زوم
--زویل
--زی
--زیا
--زیت
--زیم
--س
--سا
--ساز
--سازی
--سال
--سان
--سايل
--سب
--ست
--ستا
--ستان
--ستر
--ستن
--ستند
--سته
--ستو
--ستگی
--ستی
--سد
--سر
--سرا
--سس
--سف
--سل
--سلاو
--سلی
--سم
--سمان
--سمی
--سن
--سنت
--سنجی
--سنس
--سه
--سو
--سور
--سول
--سون
--سک
--سکا
--سکو
--سکی
--سی
--سیان
--سیتی
--سین
--سیو
--سیون
--ش
--شا
--شاد
--شان
--شاه
--شت
--شتات
--شته
--شد
--شدن
--شده
--شر
--شم
--شن
--شناس
--شناسی
--شه
--شهر
--شو
--شک
--شی
--شیا
--شید
--شیر
--شیما
--شیپ
--ص
--صر
--صل
--صه
--صی
--ض
--ضا
--ضات
--ضع
--ضه
--ضی
--ط
--طان
--طف
--طل
--طلب
--طن
--طی
--ظ
--ظور
--ع
--عة
--عت
--عر
--علی
--عه
--عو
--عی
--غ
--غر
--غه
--غی
--ـ
--ف
--فا
--فات
--فاعی
--فاق
--فة
--فت
--فته
--فتی
--فر
--فس
--فسکی
--فع
--فق
--فل
--فلد
--فن
--فه
--فو
--فوس
--فون
--فی
--فیت
--ق
--قا
--قان
--قت
--قر
--قص
--قلی
--قه
--قی
--قین
--قیه
--ك
--كم
--كه
--ل
--لا
--لاو
--لة
--لت
--لج
--لد
--لر
--لز
--لس
--لش
--لف
--لله
--لم
--لن
--لند
--له
--لو
--لود
--لوف
--لوژی
--لي
--ليان
--لک
--لی
--لیت
--لین
--لیه
--م
--ما
--مام
--مان
--ماه
--مة
--مت
--مد
--مر
--مز
--مس
--مش
--مل
--مم
--من
--مند
--مه
--مهر
--مو
--موتو
--موث
--موز
--موف
--مون
--مپ
--مک
--می
--مین
--ن
--نا
--ناس
--نال
--نامه
--نان
--نبرگ
--نبورگ
--نة
--نت
--نتال
--نتز
--نتس
--نته
--نتو
--نتی
--نتینو
--نج
--ند
--ندر
--ندرا
--نده
--ندگان
--ندگی
--ندی
--نر
--نز
--نس
--نست
--نسو
--نسون
--نسکی
--نسین
--نش
--نظر
--نل
--نم
--نما
--نن
--نند
--نه
--نو
--نوس
--نوف
--نوم
--ني
--نچ
--نژاد
--نک
--نگ
--نگا
--نگتون
--نگز
--نگی
--نی
--نیا
--نید
--نین
--نینگ
--نیه
--نیک
--ه
--ها
--هار
--هام
--هاي
--های
--هایش
--هایی
--هد
--هر
--هم
--هن
--هه
--هو
--هی
--هید
--هیم
--و
--وا
--واد
--وار
--وال
--وان
--وب
--وة
--وت
--وتا
--وتس
--وتو
--وتی
--وث
--وج
--وح
--وخ
--ود
--ودا
--وده
--ودی
--ور
--ورا
--ورت
--ورث
--ورس
--ورف
--وره
--ورو
--ورگ
--وری
--وز
--وزا
--وزی
--وس
--وسا
--وسکی
--وسی
--وش
--وشی
--وط
--وع
--وعی
--وف
--وفسکی
--وق
--وقع
--ول
--ولا
--ولوژی
--ولی
--ولین
--وم
--وما
--ومه
--ومی
--ومیت
--ون
--ونا
--ونت
--وند
--ونز
--ونس
--ونلو
--ونه
--ونو
--ونگ
--ونی
--ونیا
--ونین
--ونیک
--وه
--وها
--وهای
--وو
--ووا
--وود
--وور
--ووو
--ووی
--وویتسه
--وویچ
--ويل
--ويه
--ويید
--ويیدی
--ويیه
--وپ
--وپاتی
--وچ
--وچی
--وژن
--وژی
--وک
--وکا
--وکو
--وکی
--وگ
--وگرافی
--وی
--ویل
--ویه
--ویچ
--ویک
--ویی
--ى
--ي
--يا
--يات
--يال
--يان
--يب
--ية
--يت
--يد
--يده
--ير
--يز
--يس
--يش
--يع
--يف
--يق
--يك
--يل
--يم
--ين
--يند
--يه
--يو
--يوس
--يون
--يى
--يي
--يی
--يیان
--يید
--يیم
--يیه
--يیک
--٠
--١
--٢
--٣
--٧
--٨
--٩
--پ
--پا
--پت
--پذیر
--پر
--پس
--پسی
--پل
--په
--پو
--پور
--پوس
--پی
--پیا
--چ
--چا
--چای
--چر
--چف
--چن
--چه
--چو
--چی
--چیان
--چین
--ژ
--ژن
--ژه
--ژو
--ژی
--ژیک
--ژە
--ک
--کا
--کات
--کار
--کاری
--کاس
--کان
--کای
--کت
--کتر
--کتریک
--کتور
--کد
--کده
--کر
--کرد
--کرده
--کرفت
--کس
--کش
--کشن
--کشی
--کف
--کل
--کلا
--کلس
--کم
--کن
--کننده
--که
--کو
--کور
--کوف
--کوفسکی
--کوم
--کوه
--کی
--گ
--گا
--گار
--گاس
--گان
--گانی
--گاه
--گت
--گتون
--گذار
--گر
--گرا
--گران
--گرایی
--گرد
--گرهای
--گری
--گز
--گزار
--گس
--گشا
--گل
--گن
--گه
--گو
--گوا
--گون
--گوچی
--گوی
--گی
--گیر
--گیری
--گین
--گینی
--ی
--یا
--یات
--یال
--یام
--یان
--یاک
--یای
--یایی
--یب
--یبی
--یة
--یت
--یتا
--یتسه
--یته
--یتو
--یتی
--یث
--یج
--یخته
--ید
--یدا
--یدن
--یدند
--یده
--یدو
--یدگی
--یدی
--یر
--یرا
--یرو
--یری
--یز
--یزم
--یزه
--یزی
--یس
--یست
--یستی
--یسم
--یسی
--یسید
--یسین
--یش
--یشن
--یشی
--یشیا
--یف
--یفای
--یق
--یل
--یلا
--یلی
--یم
--یما
--ین
--ینا
--یند
--ینز
--ینه
--ینو
--ینگ
--ینگتون
--ینگن
--ینی
--یه
--یها
--یو
--یوس
--یوم
--یون
--یپ
--یچ
--یک
--یکا
--یکس
--یکه
--یکو
--یگ
--یگو
--یی
--ییان
--ییم
--ە
--۰
--۰۰
--۰۱
--۱
--۲
--۳
--۴
--۵
--۶
--۷
--۸
--۹
--ᆨ
--ᆫ
--ᆯ
--ᆷ
--ᆸ
--ᆺ
--ᆻ
--ᆼ
