!
"
#
##0
##1
##10
##11
##12
##13
##14
##15
##16
##17
##18
##19
##2
##20
##21
##22
##23
##24
##25
##26
##27
##28
##29
##3
##30
##31
##32
##33
##34
##35
##36
##37
##38
##39
##4
##40
##41
##42
##43
##44
##45
##46
##47
##48
##49
##5
##50
##51
##52
##53
##54
##55
##56
##57
##58
##59
##6
##60
##61
##62
##63
##64
##65
##66
##67
##68
##69
##7
##70
##71
##72
##73
##74
##75
##76
##77
##78
##79
##8
##80
##81
##82
##83
##84
##85
##86
##87
##88
##89
##9
##90
##91
##92
##93
##94
##95
##96
##97
##98
##99
$
%
&
'
(
)
*
+
,
-
.
/
0
00
000
0000
00016
0004
001
002
003
003263
004
005
00543
006
007
008
009
00936
01
010
011
012
013
014
015
016
017
0170
018
019
02
020
020528
021
022
023
024
025
026
027
028
029
03
030
031
032
03222
033
034
035
036
038
0389
039
04
040
041
042
043
044
045
046
047
048
049
05
050
051
051705
052
053
054
055
056
057
058
059
06
060
061
062
063
064
065
066
067
068
069
07
070
071
072
073
074
075
076
077
078
079
08
080
081
082
083
084
085
086
087
088
089
09
090
091
092
093
0933
094
095
096
09669
097
098
099
1
10
100
1000
10000
1001
1002
1003
1004
1005
1006
1007
1008
1009
101
1010
1011
1012
1013
1014
1015
1016
1017
1018
1019
102
1020
1021
1022
1023
1024
1025
1026
1027
1028
1029
103
1030
1031
1032
1033
1034
1035
1036
1038
1039
104
1040
1041
1044
1045
1046
1047
1048
1049
105
1050
1051
1052
1053
1054
1055
1056
1057
1058
1059
106
1060
1061
1062
1063
1064
1065
1066
1067
1068
1069
107
1070
1071
1072
1073
1074
1075
1076
1077
1078
1079
108
1080
1081
1082
1084
1085
1086
1087
1088
1089
109
1090
1091
1092
1093
1094
1095
1096
1097
1098
1099
11
110
1100
1101
1102
1103
1104
1105
1106
1107
1109
111
1110
1111
1112
1113
1114
1115
1116
1117
1118
1119
112
1120
1121
1122
1123
1124
1125
1126
1127
1128
1129
113
1130
1131
1132
1134
1135
1136
1137
1138
1139
114
1140
1141
1142
1143
1144
1145
1146
1147
1148
1149
115
1150
1151
1152
1153
1154
1155
1156
1157
1158
1159
116
1160
1161
1162
1163
1164
1165
1166
1167
1168
1169
117
1170
1171
1172
1173
1174
1175
1176
1177
1178
1179
118
1180
1181
1182
1183
1184
1185
1186
1187
1188
1189
119
1190
1191
1192
1193
1194
1195
1196
1197
1198
1199
12
120
1200
1201
1202
1203
1204
1205
1206
1207
1208
1209
121
1210
1211
1212
1214
1215
1216
1217
1218
1219
122
1220
1221
1222
1223
1224
1225
1226
1227
1228
1229
123
1230
1231
1232
1233
1234
1235
1237
1238
1239
124
1240
1241
12411
1242
1243
1244
1245
1246
1247
1248
1249
125
1250
1251
1252
1253
1254
1255
1256
1257
1258
1259
126
1260
1261
1262
1263
1264
1265
1266
1267
1268
1269
127
1270
1271
1272
1273
1274
1275
1276
1277
1278
1279
128
1280
1281
1282
1283
1284
1285
1286
1287
1288
1289
129
1290
1291
1292
1293
1294
1295
1296
1297
1298
1299
13
130
1300
1301
1302
1303
1304
1305
1306
1307
1308
1309
131
1310
1311
1312
1313
1314
1315
1316
1317
1318
1319
132
1320
1321
1322
1323
1324
1325
1326
1327
1328
1329
133
1330
1331
1332
1333
1334
1335
1336
1337
1338
1339
134
1340
1342
1343
1345
1346
1347
1348
1349
135
1350
1351
1352
1353
1354
1355
1356
1357
1358
136
1360
1361
1362
1363
1364
1365
1366
1367
1368
1369
137
1370
1371
1372
1373
1374
1375
1376
1377
1378
1379
138
1380
1381
1382
1383
1384
1385
1386
1387
1388
1389
139
1390
1391
1392
1393
1394
1395
1396
1397
1398
1399
14
140
1400
1401
1402
1403
1404
1405
1406
1407
1408
1409
141
1410
1411
1412
1413
1414
1415
1416
1417
1418
1419
142
1420
1421
1422
1423
1424
1425
1426
1427
1428
1429
143
1430
1431
1432
1433
1434
1435
1436
1437
1438
1439
144
1440
1441
1442
1443
1444
1445
1446
1447
1448
1449
145
1450
1451
1452
1453
1454
1455
1456
1457
1458
1459
146
1460
1461
1462
1463
1464
1465
1466
1467
1468
1469
147
1470
1471
1472
1473
1474
1475
1476
1477
1478
1479
148
1480
1481
1482
1483
1484
1485
1486
1487
1488
1489
149
1490
1491
1492
1493
1494
1495
1496
1497
1498
1499
15
150
1500
1501
1502
1503
1504
1505
1506
1507
1508
1509
151
1510
1511
1512
1513
1514
1515
1516
1517
1518
1519
152
1520
1521
1522
1523
1524
1525
1526
1527
1528
1529
153
1530
1531
1532
1533
1534
1535
1536
1537
1538
1539
154
1540
1541
1542
1543
1544
1545
1546
1547
1548
1549
155
1550
1551
1552
1553
1554
1555
1556
1557
1558
1559
156
1560
1561
1562
1563
1564
1565
1566
1567
1568
1569
157
1570
1571
1572
1573
1574
1575
1576
1577
1578
1579
158
1580
1581
1582
1583
1584
1585
1586
1587
1588
1589
159
1590
1591
1592
1593
1594
1595
1596
1597
1598
1599
16
160
1600
1601
1602
1603
1604
1605
1606
1607
1608
1609
161
1610
1611
1612
1613
1614
1615
1616
1617
1618
1619
162
1620
1621
1622
1623
1624
1625
1626
1627
1628
1629
163
1630
1631
1632
1633
1634
1635
1636
1637
1638
1639
164
1640
1641
1642
1643
1644
1645
1646
1647
1648
1649
165
1650
1651
1652
1653
1654
1655
1656
1657
1658
1659
166
1660
1661
1662
1663
1664
1665
1666
1667
1668
1669
167
1670
1671
1672
1673
1674
1675
1676
1677
1678
1679
168
1680
1681
1682
1683
1684
1685
1686
1687
1688
1689
169
1690
1691
1692
1693
1694
1695
16950
1696
1697
1698
1699
17
170
1700
1701
1702
1703
1704
1705
1706
1707
1708
1709
171
1710
1711
1712
1713
1714
1715
1716
1717
1718
1719
172
1720
1721
1722
1723
1724
1725
1726
1727
1728
1729
173
1730
1731
1732
1733
1734
1735
1736
1737
1738
1739
174
1740
1741
1742
1743
1744
1745
1746
1747
1748
1749
175
1750
1751
1752
1753
1754
1755
1756
1757
1758
1759
176
1760
1761
1762
1763
1764
1765
1766
1767
1768
1769
177
1770
1771
1772
1773
1774
1775
1776
1777
1778
1779
178
1780
1781
1782
1783
1784
1785
1786
1787
1788
1789
179
1790
1791
1792
1793
1794
1795
1796
1797
1798
1799
18
180
1800
1801
1802
1803
1804
1805
1806
1807
1808
1809
181
1810
1811
1812
1813
1814
1815
1816
1817
1818
1819
182
1820
1821
1822
1823
1824
1825
1826
1827
1828
1829
183
1830
1831
1832
1833
1834
1835
1836
1837
1838
1839
184
1840
1841
1842
1843
1844
1845
1846
1847
1848
1849
185
1850
1851
1852
1853
1854
1855
1856
1857
1858
1859
186
1860
1861
1862
1863
1864
1865
1866
1867
1868
1869
187
1870
1871
1872
1873
1874
1875
1876
1877
1878
1879
188
1880
1881
1882
1883
1884
1885
1886
1887
1888
1889
189
1890
1891
1892
1893
1894
1895
1896
1897
1898
1899
19
190
1900
1901
1902
1903
1904
1905
1906
1907
1908
1909
191
1910
1911
1912
1913
1914
1915
1916
1917
1918
1919
192
1920
1921
1922
1923
1924
1925
1926
1927
1928
1929
193
1930
1931
1932
1933
1934
1935
1936
1937
1938
1939
194
1940
1941
1942
1943
1944
1945
1946
1947
1948
1949
195
1950
1951
1952
1953
1954
1955
1956
1957
1958
1959
196
1960
1961
1962
1963
1964
1965
1966
1967
1968
1969
197
1970
1971
1972
1973
1974
1975
1976
1977
1978
1979
198
1980
1981
1982
1983
1984
1985
1986
1987
1988
1989
199
1990
1991
1992
1993
1994
1995
1996
1997
1998
1999
2
20
200
2000
2001
2002
2003
2004
2005
2006
2007
2008
2009
201
2010
2011
20111119
20111121
20111128
2012
20121114075539
2013
2014
2015
2016
2017
2018
2019
202
2020
2021
2022
2023
203
2030
204
205
206
207
2070
208
209
21
210
2100
211
212
213
214
215
216
217
218
219
22
220
2200
221
2218
222
2220
2221
2222
223
2236
224
2246
2248
2249
225
2250
226
227
22755
228
229
23
230
2300
2305
2307
2308
2309
231
2312
2317
232
233
234
235
236
237
238
2385
239
24
240
2400
241
2419
242
243
244
245
246
247
248
249
25
250
2500
251
252
253
254
255
256
257
258
259
26
260
2600
261
262
263
264
265
266
267
268
269
27
270
271
272
273
274
275
276
277
278
279
28
280
2800
281
282
283
284
285
286
287
288
289
29
290
291
292
293
294
295
296
297
2971
298
299
3
30
300
3000
301
3013
302
303
304
305
306
307
3077
308
309
31
310
311
312
313
314
315
316
3165
3166
317
318
319
3198
32
320
3200
321
322
323
324
325
326
327
328
329
33
330
331
332
333
334
335
336
337
338
339
34
340
3406305628
341
342
343
344
345
346
347
348
349
35
350
3500
351
352
353
354
355
356
357
358
359
36
360
361
362
363
364
365
366
367
368
369
37
370
371
372
373
374
375
376
377
378
379
38
380
381
382
383
384
385
386
387
388
389
39
390
391
392
393
394
395
396
397
398
3980702871
399
4
40
400
4000
401
402
4020
403
404
405
406
407
408
409
41
410
411
412
413
414
415
416
417
418
419
42
420
421
422
423
424
425
426
427
428
429
43
430
431
432
433
434
435
436
437
438
439
44
440
441
442
443
444
4447
445
446
447
448
449
45
450
4500
450093387
451
451224701
452
453
454
455
456
457
458
45835
459
46
460
461
462
46264
463
464
465
466
467
468
469
47
470
471
472
473
474
475
476
477
478
479
48
480
480570132
481
482
483
484
485
486
487
488
489
49
490
491
492
493
494
495
496
497
498
499
5
50
500
5000
5007
501
502
503
504
505
506
507
508
509
51
510
51028
511
512
513
514
515
516
517
518
519
52
520
521
522
523
524
525
526
527
528
529
53
530
53032
531
532
533
534
535
536
537
538
539
54
540
541
542
543
544
545
546
547
548
549
55
550
5500
551
552
553
554
555
556
557
558
559
56
560
561
562
563
564
565
566
567
568
569
57
570
571
572
573
574
575
576
577
578
579
58
580
581
582
583
584
585
586
587
588
589
59
590
591
59131
592
593
594
595
596
597
598
599
6
60
600
6000
601
602
603
604
605
606
607
608
609
61
610
611
612
613
614
61400
615
616
617
618
619
62
620
621
622
623
624
625
626
627
628
629
63
630
631
632
633
634
635
636
6361
637
638
639
64
640
641
642
643
644
645
646
647
648
649
65
650
651
652
653
654
655
656
657
658
659
66
660
661
662
663
664
665
666
667
668
669
67
670
671
672
673
674
675
676
677
678
679
68
680
681
682
683
684
685
686
687
688
689
69
690
691
692
693
694
695
696
697
698
699
7
70
700
7000
7001
701
7017
702
7020
703
704
705
706
7069
707
708
709
71
710
711
712
713
714
7141
7148
715
716
717
718
719
72
720
721
722
723
724
725
726
727
728
729
73
730
731
732
733
734
735
736
737
738
739
74
740
741
742
743
744
745
746
747
748
749
75
750
751
752
753
754
755
756
757
758
759
76
760
7608
761
7618
762
763
7630
7633
764
7643
765
766
767
768
769
7696
77
770
7701
7705
771
772
773
774
775
7757
776
7766
777
7772
7774
778
7787
779
78
780
781
782
783
784
7844
785
786
7861
787
7871586
7873
788
789
79
790
790364298
790364301
790364328
791
7913
7917
792
793
794
795
7954
796
797
7973
798
799
7991
7995
8
80
800
8000
8001
801
8018
802
803
8031
804
8047
805
8053
806
8061
8062
807
808
809
81
810
8108
811
8112
812
813
814
815
816
817
818
819
82
820
821
8218
822
8228
823
824
825
8252
8253
8258
826
8260
827
8274
828
8289
829
8290
83
830
8300
831
8317
832
8321
833
8331
834
835
836
837
838
839
84
840
841
842
84234
843
844
845
846
847
848
849
85
850
85002
85085
851
852
85252
853
854
85431
85445
855
856
857
858
859
86
860
861
86150
862
863
864
865
86520
86539
866
867
868
869
87
870
871
872
873
874
87490
875
87548
876
877
878
879
88
880
8801
88010
8802
8804
8805
881
882
8821
883
88309
884
885
886
88680
887
888
889
89
890
89007
891
892
89251
89264
893
894
89405
895
89533
896
897
89702
898
899
9
90
900
9000
901
901781
902
903
904
905
906
907
908
909
91
910
91001
911
912
913
914
915
916
917
918
919
92
920
921
922
923
924
925
926
927
928
929
929364
93
930
931
932
933
934
934036
935
936
937
937200
937872
938
939
94
940
940177943
941
942
943
944
945
946
947
948
949
95
950
951
952
9528
953
954
955
956
957
958
959
96
960
961
962
963
964
965
966
967
968
969
97
970
971
972
973
974
975
976
977
978
979
98
980
9800386
9807028
981
982
983
984
985
986
987
988
989
99
990
991
992
9928
993
994
995
996
997
998
999
:
;
<
=
>
?
@
[
\
]
^
_
`
a
aa
aaa
aabenraa
aachen
aachn
aacsb
aaf
aafbaut
aafgleast
aafgnomma
aafgrund
aafhebung
aafoch
aaftretn
aah
aak
aan
aana
aane
aanle
aans
aanzige
aar
aara
aaron
aas
aau
ab
aba
abau
abaut
abb
abba
abbeville
abbey
abbildung
abbildungen
abc
abchasien
abd
abdul
abdullah
abe
abel
abenaki
abenberg
abend
abends
abendwind
abendzeitung
abensberg
abenteuer
aber
aberdeen
abfluss
abgerufen
abgeschafft
abgruafa
abha
abhandlung
abhandlungen
abi
abitate
abitur
abku
abner
about
above
abraham
abram
abrams
abrogans
abruf
abrufbar
abruzzen
abs
absalon
absatz
absberg
abschied
abschluss
abschnitt
absolut
absolute
absolutismus
absolviat
abstand
abstract
abstrakte
abt
abtei
abteilung
abteilunga
abtheilung
abu
abweichendes
abzw
ac
acade
academia
academic
academy
acamapichtli
acatl
access
accessed
accord
according
account
accredited
ace
ach
acha
ache
achievement
achilles
achilleus
achim
achleitner
achn
achsn
acht
achte
achter
achternbusch
achtung
aci
ackafla
acker
ackermann
ackermannverlag
acolhua
aconcagua
acorn
acoustic
acre
acres
across
act
acta
acte
acten
actes
action
active
acton
actor
acts
ad
ada
adabei
adagio
adair
adalbero
adalbert
adam
adami
adams
adan
adana
adat
adatn
adb
adblock
adda
addian
addison
addition
ade
adel
adelaide
adele
adelheid
adelschlag
adelsdorf
adelshofen
adelzhausen
aden
adenauer
adi
adiam
adidas
adige
adjektiv
adjektive
adkins
adl
adla
adler
adlich
adliga
adlige
adlign
adlkofen
adlsgschlecht
admin
administration
administrativ
administrative
administrativn
administratoa
administrator
admiral
adobe
adolf
adolfo
adolph
adolphe
adorno
adress
adressn
adria
adriaen
adrian
advance
advanced
advent
adventure
adventures
adverb
advisory
adweam
ae
aeiou
aemilius
aeneid
aero
aes
aeso
aetius
af
afa
afahrung
afan
afang
afbau
afbaud
afbaut
afd
afdaucht
afdeckt
afdredn
afdren
afdrid
afe
aff
affa
affairs
affe
afferbach
affi
affing
afg
afgaunga
afgem
afgfiahd
afgfiaht
afgfiat
afgfoin
afgfundn
afghanistan
afghead
afghoidn
afghom
afgla
afglesd
afglest
afglestn
afgmocht
afgnumma
afgob
afgobn
afgom
afgonga
afgrouffn
afgrund
afgschto
afgwoxn
afi
afkema
afkemma
afkla
afklearung
afkumma
afl
afla
aflesung
aflistung
aflog
afm
afn
afnohm
afoch
afra
afrecht
africa
african
afrika
afrikaans
afrikanischa
afrikanische
afrikanischn
afrikas
afrique
afro
afroamerikana
afs
afschwung
afstieg
aft
aftaucht
afteid
afteit
after
afteud
aftoalt
aftredn
aftretn
aftritt
aftrog
afundn
afzoachnungan
ag
aga
again
against
agalich
agamemnon
agate
agatha
agder
age
agebnis
agem
agence
agency
agent
agentur
ages
agfaungt
agger
agglomarazion
agglome
agglomeration
agilolfinga
agilolfinger
agios
agnes
agostino
agram
agri
agricola
agriculture
agrippa
agropoli
agua
aguilar
ah
aha
aham
ahd
ahlich
ahmad
ahmed
ahnl
ahoitn
aholfing
aholming
ahorn
ahra
ahrend
ahrens
ahrntal
ahrung
ahrungan
aht
ahtin
ahu
ai
aibling
aich
aicha
aichach
aichau
aichenzell
aid
aidenbach
aidenboch
aidhausen
aids
aigane
aiganen
aigen
aigenen
aigens
aigsezt
aiken
aim
aimag
ain
ainflus
aing
aingan
ainheit
aini
ainring
ainu
air
airbus
aircraft
aires
airlines
airopa
airplane
airport
airways
ais
aisch
aise
aisne
aiso
aissan
aissare
aissasdn
aitrang
aitrog
aitzal
aix
aißan
aißare
aißastn
aj
ajax
ajs
ak
aka
akademi
akademie
akademische
akademischen
akademischer
akademischn
akb
akenntnis
akenntnistheoretische
akenntnistheoretischn
akenntnistheorie
aker
akershus
akindschi
akira
akkreditierungsagenturn
akkusativ
akla
aks
aksum
aksumitischn
akt
akte
akten
aktien
aktif
aktion
aktiv
aktiva
aktive
aktivita
aktivn
aktn
aktualisierte
aktuej
aktueje
aktuejn
aktuell
aktuella
aktuelle
aktuellen
aktuelln
aktuo
akustik
akustische
akzent
akzeptiad
akzeptiat
al
ala
alabama
alain
alameda
alamito
alamo
alamos
alamosa
alan
alanen
alarm
alaska
alb
alba
albacete
alban
albanien
albanisch
albano
albany
albedo
albemarle
alben
alber
alberndorf
albert
alberta
alberti
alberto
albi
albin
albino
albinus
albion
albn
albrecht
albstadt
albuin
album
albums
alburni
alcatraz
alda
alden
alder
aldershot
aldrich
ale
alec
aleksander
alemanen
alemannen
alemannia
alemannisch
alemannische
alemannischn
alene
alentejo
aleph
aleppo
ales
alesia
alessandria
alessandro
aleutn
alex
alexander
alexandra
alexandre
alexandria
alexandrowitsch
alexei
alexejewitsch
alexis
alf
alfabet
alfalfa
alfeld
alfons
alfonso
alfred
alfredo
alge
alger
algerien
algier
algiris
algonkin
algorithmus
ali
alias
alibi
alice
alich
alif
alighieri
alive
alkali
alkohol
all
alla
allach
alladings
allah
allan
allani
allanich
allawei
allcoordinatessectionend
alle
allee
allegany
allegheny
allegretto
allegro
allein
allem
allen
allendale
allens
aller
allerdings
allerheiligen
alles
alley
allga
allgai
allgemein
allgemeine
allgemeinen
alliance
allianz
alligator
allison
allitera
allm
allma
allman
allmusic
alloa
alloane
alloani
alloanige
alls
alltag
alm
alma
almanach
alo
aloa
aloha
alois
alone
along
alonso
alor
alpen
alpenla
alpes
alpha
alphaba
alphabet
alphabete
alphabetisch
alphabetische
alphabetischem
alphabetischen
alphonse
alpin
alpine
alpinen
alpn
alps
als
also
alt
alta
altai
altamerikanistik
altamerikas
altar
altbayern
altdorf
alte
alteglofsheim
alten
altenberg
altenbuch
altenburg
altenstadt
altenthann
altenwo
altepetl
alter
alternative
altertumskunde
altertumswissenschaft
altes
altfeld
althaus
althochdeutsche
althochdeutsches
althoff
altmann
altmu
altn
alto
alton
altona
altoona
altstadt
alum
aluminium
alva
alves
alvin
always
alyga
alz
alzenau
alzette
am
ama
amadeus
amalia
amalie
amalthea
amand
amanda
amanita
amann
amateurliga
amazon
amazonas
amba
amberg
ambrogio
ambros
ambrosia
ambrosius
ame
amearika
amelia
amen
amerang
america
american
americans
americas
americus
amerigo
amerika
amerikana
amerikaner
amerikanisch
amerikanischa
amerikanische
amerikanischen
amerikanischer
amerikanisches
amerikanischn
amerikanischs
amerikas
amery
ames
amesbury
ameyde
ami
amiata
amiga
amigo
amis
amitabha
ammagebirg
ammer
ammergauer
ammerland
ammersee
ammon
amoi
amol
amols
among
amor
amorbach
amore
amores
amos
amour
ampe
amper
ampere
ampfing
amphibien
amprofon
ams
amsterdam
amstetten
amt
amtes
amtl
amtle
amtli
amtlich
amtliche
amtlichen
amtliches
amtlichn
amts
amtsbeziak
amtsblatt
amtsgericht
amtsgricht
amtssproch
amtssprochn
amtszeit
amu
amundsen
amur
amy
an
ana
anaconda
analog
analyse
analysen
analysis
anan
ananas
anarchie
anarchismus
anarchist
anaseits
anastasia
anatol
anatolien
anatomie
ances
anchor
anchorage
ancient
ancona
and
anda
andalusien
andam
andaman
andan
andana
andane
andante
andara
andaraseits
andare
andarm
andarn
andarne
andas
andasta
ande
andechs
anden
andere
anderem
anderen
anderer
anderl
anderm
andern
anderne
anders
andersen
anderson
andersson
andes
andi
andn
andorra
andra
andre
andrea
andreas
andrei
andrejewitsch
andres
andrew
andrews
android
andrzej
andy
ane
aneb
anekdoten
anem
aner
anerkannt
anerkennung
anfa
anfang
anfangsbuchstaben
ang
angabe
angaben
ange
angeben
angeblich
angebot
angebote
angegeben
angel
angela
angeles
angeli
angelika
angelina
angelini
angelo
angels
angelsberg
angelus
anger
angerer
angermeier
angers
angewachsen
angewandte
angkor
angle
anglican
anglikanischn
anglo
angola
angriff
angst
angus
anh
anha
anhalt
anhand
anhang
anho
ani
aniche
anif
anige
anima
animal
animals
animated
animation
anime
anita
anja
anjou
anla
anlag
anlage
anlass
anleitung
anm
anmerkung
anmerkungen
ann
anna
annaberg
annalen
annales
annapolis
anne
annemarie
annette
anni
annie
anninger
anniversary
anniviers
anno
annotated
annuaire
annual
ano
anonym
anonyme
anordnung
another
ans
ansa
ansbach
ansbacher
ansbachischn
anschluss
anse
anselm
ansicht
ansichten
ansiedlung
ansonstn
anspruch
ansta
anstalt
antalya
antarctic
antarktika
antarktis
antarktischn
ante
anteil
antenne
antesperg
anthologie
anthology
antholz
anthony
anthropologie
anthropology
anti
antigone
antigua
antika
antike
antiken
antikn
antilln
antioch
antiochia
antiochien
antiochos
antiqua
antiquity
antisemitismus
antje
antn
anto
antofagasta
antoine
anton
antoni
antonia
antonio
antonius
antwerpen
antwicklt
antwoat
antwort
anwendung
anwendunga
anwoit
any
anzahl
anzeige
anzeiger
anzengruber
anzich
anziche
anzige
anzlnan
anzngruawa
anzoi
ao
aokp
aosta
aostatoi
ap
apa
apache
apachen
apek
apennin
apfel
aphel
aphorismen
aphorismus
aphrodite
api
apollinaris
apollo
apollon
apollonia
apostl
apostln
apostolischa
app
appalachen
apparat
apparatus
appel
apple
application
applications
applied
approach
approaches
apps
apr
apremont
april
apru
aprui
apulien
aqua
aquarej
aquarium
aquila
aquileia
aquin
aquitaine
aquitanien
ar
ara
arab
araba
arabic
arabica
arabien
arabisch
arabischa
arabische
arabischen
arabischn
arad
arago
aragona
aragonien
aralsee
aram
arama
aran
arana
aras
araucani
arba
arbad
arban
arbat
arbatgeba
arbatn
arbatsort
arbatspla
arbeit
arbeiten
arbeiter
arbeitsagentur
arbeitsgemeinschaft
arbeitskreis
arbeitslosenquoten
arbeo
arberg
arbing
arbor
arc
arcadia
arch
archa
archaeological
archaeologie
archaeology
arche
archeologische
archer
archidioecesis
archimedes
archipel
archipl
architect
architecture
architekt
architekten
architektn
architektua
architektur
archiv
archivar
archive
archived
archives
archiviad
archiviert
archivierte
archivlink
arcimboldo
arco
arctic
arcticnet
ard
arde
arden
ardennes
are
area
areal
arealstatistik
areas
areicht
arena
arend
arendt
ares
aresing
arezzo
argele
argentina
argentinien
argentinischa
argentinische
argentinischn
argir
argument
ari
aria
ariadne
arica
aricht
arie
ariel
ariola
aris
aristophanes
aristoteles
arizona
ark
arkansas
arktis
arktischn
arles
arlington
arlo
arlon
arm
arma
armada
armageddon
armand
arme
armee
armeen
armen
armenia
armenien
armenische
armin
arminia
arminius
armor
arms
armstrong
armut
army
arn
arnad
arnbruck
arndt
arne
arno
arnold
arnual
arnulf
aroma
around
arp
arrangement
arras
arrdeng
arreicht
arriba
arrondissement
arrondissements
arroyo
ars
arsenal
art
arte
artemis
arten
arthur
article
articles
artig
artike
artikel
artikl
artikln
artillerie
artist
artists
artmann
artn
arts
artur
arturo
aruba
arun
arundel
arung
arvn
arxiv
arzberg
arzt
as
asa
asam
asbach
ascea
ascension
asch
ascha
aschaff
aschaffenburg
aschaffnbuag
aschau
ascii
ascoli
ascq
aserbaidschan
aserbaidschanisch
aserbaidschanische
asgard
ash
ashland
ashley
ashoka
ashton
asia
asiago
asian
asiatische
asiatischn
asien
asin
ask
asker
aslaut
asn
aso
asp
aspekt
aspekte
aspen
aspx
ass
assa
assabracht
assagem
assai
assakumma
asse
assembly
assens
assisi
assn
associated
association
associazione
assomption
assproch
assunta
ast
astdys
asterix
asteroid
asteroiden
asteroidn
asteroidngiatl
asteroids
asthma
asti
astmoons
astn
aston
astor
astrachan
astrid
astro
astrono
astronom
astronoma
astronomen
astronomical
astronomico
astronomie
astronomin
astronomische
astronomischn
astronomy
astrophysical
astrophysics
asu
aswej
at
ata
atabuach
atacama
atacamawu
atascosa
atatu
atelier
athanasius
atheistn
athen
athena
athene
athenischa
athens
athesia
athos
atkinson
atl
atlanta
atlantic
atlantik
atlantikgstod
atlantique
atlantiques
atlantis
atlantischa
atlantischn
atlas
atmen
atmospha
atn
atoll
atom
atome
atomkern
atra
attack
attenkofer
attersee
attert
attila
attnang
attr
attraktion
attribut
attribute
attributed
atu
atv
atwood
au
aub
aubach
aubaud
aube
aubert
aubervilliers
aubin
aubing
aubonne
aubotn
aubrocht
auburn
auch
auckland
audi
audio
audiodateien
auditorium
aue
auer
auerbach
auerberg
auf
aufa
aufaung
aufaunga
aufaungsbuachschtobm
aufaungsbuxschtobn
aufaungt
aufbau
aufbaud
aufbaun
aufbaut
aufbruch
aufd
aufdrog
aufe
aufengli
auffa
auffe
auffi
auffo
auffu
aufg
aufga
aufgab
aufgabe
aufgaben
aufganga
aufgefu
aufgelo
aufgem
aufgenommen
aufgerufen
aufgfiad
aufgfiaht
aufgfiat
aufgfoin
aufgfu
aufghead
aufghom
aufglegt
aufglest
aufglestn
aufglist
aufglo
aufgmocht
aufgnomma
aufgnuma
aufgnumma
aufgnumman
aufgob
aufgobm
aufgom
aufgrund
aufgschdo
aufgschrim
aufgstaut
aufgstejt
aufgsto
aufgwachsn
aufgwochsn
aufgwoxn
aufham
aufhauser
aufhebung
aufi
aufkema
aufkemma
aufkirchen
aufkla
aufkumma
aufl
aufla
auflage
auflesung
auflistung
auflo
auflog
aufloga
auflogakra
auflogn
aufm
aufn
aufnahm
aufnahma
aufnahme
aufnahmen
aufnauhm
aufnehma
aufnimmt
aufnohm
aufpassn
aufrecht
aufs
aufsa
aufsatz
aufschdaund
aufschwung
aufseß
aufsta
aufstand
aufstaund
aufstieg
aufsto
aufstond
aufta
auftaucht
aufteild
aufteilt
aufteilung
aufteit
auftra
auftrag
auftredn
auftret
auftreten
auftretn
auftritt
auftritte
auftrog
auftrogn
aufwa
aufwand
aufweisn
aufweist
aufwendig
aufzeichnungen
aufzu
aufzug
aug
augaschiat
augaunga
auge
augeblich
augem
augen
augfaunga
augfaungd
augfaungt
augfiat
augha
auglegd
auglegt
augn
augnumma
augoadnd
augriff
augriffa
augsburg
augsburger
augschaut
augschbuag
augschbuaga
augschburg
augschburga
augschlossn
augschoft
augseng
augsidlt
augsiedlt
august
augusta
augustana
auguste
augustin
augustine
augustiner
augustinus
augusto
augustus
auha
auhausen
auhenga
auhof
aui
aukema
aukiacha
auku
aula
aulinger
aulog
aulogn
aulus
aum
aumt
aumtlich
aumtsschbroch
aumu
aun
aunakaunt
aunan
aunbaufla
aunbaugegendn
aunda
aundam
aundan
aundane
aundara
aundaraseits
aundare
aundas
aundast
aundraseits
aundre
aunehma
aunfaung
aung
aungeblich
aungebot
aungfaungt
aungst
aunimmt
aunla
aunlog
auns
aunschluss
aunta
aunteu
auntwuat
aunzohl
aunzoi
aupasst
aura
aurach
aurec
aurel
aurelius
aurora
aus
ausa
ausanandasetzung
ausanaund
ausanaunda
ausbau
ausbaud
ausbaun
ausbauschbroch
ausbaut
ausbildung
ausblick
ausbreitung
ausbroadt
ausbroat
ausbroatn
ausbroatung
ausbrocha
ausbruch
ausbu
ausbuidung
auschaun
auschwitz
ausdehnt
ausdehnung
ausdrick
ausdrong
ausdru
ausdruck
ausdruckt
ausfoahsigna
ausfoaht
ausfoi
ausfu
ausg
ausga
ausgabe
ausgaben
ausgang
ausganga
ausgangspunkt
ausgaunga
ausgeh
ausgem
ausgewa
ausgezeichnet
ausgfiad
ausgfiaht
ausgfoin
ausgfu
ausghom
ausglegt
ausgleich
ausglest
ausglo
ausgmocht
ausgnumma
ausgnuzt
ausgob
ausgom
ausgonga
ausgongspunkt
ausgrabungen
ausgricht
ausgrobunga
ausgrom
ausgruafa
ausgruafn
ausgschaud
ausgschaut
ausgschbrocha
ausgschiedn
ausgschlossn
ausgsetzt
ausgsprocha
ausgsprochn
ausgstatt
ausgstejt
ausgsto
ausgstorm
ausgstott
ausgstrahlt
ausgstroid
ausgstroit
ausgstuam
ausgu
ausgwa
ausgwaundat
ausgwiesn
ausgwo
ausi
ausklappenkantone
auskunft
ausla
auslaifa
ausland
auslaund
auslegung
ausleifa
auslesn
auslo
auslond
auslossn
ausm
ausmocha
ausmocht
ausn
ausnahm
ausnahma
ausnahme
ausnauhm
ausnaum
ausnohm
auspra
auspu
ausrechna
ausrechnan
ausrichtn
ausrichtung
ausru
ausruafung
auss
aussa
aussabrocht
aussadem
aussagem
aussahoib
aussakema
aussakemma
ausschaud
ausschaugn
ausschaugt
ausschaun
ausschaung
ausschaut
ausschbroch
ausschliaßli
ausschliaßlich
ausschließle
ausschließlich
ausschnitt
ausschuss
ausse
aussee
ausseea
aussekumman
ausseng
aussi
aussicht
aussichtspunkt
aussn
aussog
aussogn
aussong
aussprache
aussproch
aussta
ausstattung
aussteam
ausstejung
ausstellung
ausstellunga
ausstellungen
ausstellungskatalog
aussterm
aussto
aust
austausch
austauscht
austin
australia
australian
australien
australischa
australische
australischn
austria
austrian
austriancharts
austriazismen
austritt
austro
austrogn
austrogungen
austrong
austropop
auswa
auswaertiges
auswahl
auswaundan
auswaundara
ausweatung
ausweisung
auswirkungen
auswoi
auswoih
auszeichnat
auszeichnet
auszeichnt
auszeichnung
auszeichnunga
auszug
autenbach
auteu
authentisch
author
authorities
authority
auto
autoa
autoan
autobahn
autobahndreieck
autobahnkreiz
autobiografie
autobiographie
autobiography
autoboh
autobohna
autohotkey
automat
automatic
automatik
automatisch
automatische
automobile
automobuiheasteja
automotive
autonom
autonoma
autonome
autonomen
autonomes
autonomie
autonomiegebiete
autor
autoren
autorennfoahra
autori
autorin
autorita
autorn
autorna
autoroute
autors
autos
autostrada
auvergne
auweh
auwoid
aux
auzoagt
auzoi
außa
außadem
außahoib
außastejd
außen
außer
außerdem
außerhoib
außn
außnminista
außnwo
av
ava
available
avalon
avant
avantgarde
ave
avec
avellino
avenue
avery
aveyron
aviation
avicenna
avis
aviv
avon
avondale
avre
awa
award
awards
awaren
awarische
awarn
away
aweng
awiil
awl
ax
axel
axn
axon
ay
aya
ayas
aying
aymara
ayn
ayr
ayrshire
ayı
az
azoi
azt
aztec
aztecs
azteken
aztekeng
aztekische
aztekn
azung
azur
azərbaycan
aß
aßling
b
ba
baam
baama
baamstamm
baamwoi
baar
bab
baba
babel
babett
babia
babic
baby
babylon
bac
baca
baccarat
bach
bacha
bachal
bache
bacher
bachmann
bachs
back
bacon
bad
bade
baden
baderschdorf
badische
badminton
badn
bagdad
bahamas
bahaupt
bahia
bahn
bahnhof
bahnlinie
bahnstreck
bahnstrecke
bahnstreckn
bahrain
bai
baian
baier
baiern
baierns
baiersdorf
bailey
baim
bain
bainbridge
bains
bair
bairisch
bairische
bairischen
bairisches
bairischn
baischbu
baispu
baiuvariorum
baja
bajuwaren
bajuwarische
bajuwarischn
bajuwarn
baker
bakterien
baku
bal
bala
balance
bald
baldessari
baldr
baldwin
bali
balkan
balkon
ball
ballade
balladn
ballet
ballett
ballinger
ballungsraum
bally
baltea
balthasar
baltimore
bam
bamberg
bamberga
bamberger
bambusoideae
ban
banat
bancroft
band
banda
bande
bandera
bandini
bandit
bandl
bandleader
bandln
bandn
bands
bang
bangladesch
bangladesh
bangor
banja
bank
bankier
bankn
banknotn
banks
bann
banner
bannert
banska
bantoid
bantu
bantusproch
banumma
banzenweiler
baobab
baptist
baptiste
baptisterium
bar
barack
barbados
barbara
barbarossa
barber
barbera
barbier
barbuda
barcelona
bard
bardstown
bareid
bareida
bari
bariton
barker
barnes
barock
barocke
barocken
barockn
barok
baron
barre
barren
barriadas
barrier
barrington
barrio
barrn
barry
bars
barsch
bart
barth
barthe
barthelmarkt
bartholoma
bartlett
bartolomeo
barton
baruch
bas
basalt
base
baseball
based
basee
basel
basho
basiad
basian
basiat
basic
basierend
basiert
basil
basilica
basilika
basilisk
basin
basis
basketball
basketboi
basketboispuia
baskisch
baskische
baskischn
basl
basler
basn
basque
bass
bassa
bassau
bassaua
basse
bassiad
bassist
basso
basst
bastei
baster
bastian
bastien
bastrop
bat
bataillon
batavia
bath
batista
baton
battaglia
batteries
battery
battista
battle
battlefield
battuta
batzl
bau
baua
bauan
bauanhaus
bauanhef
bauanho
bauanhof
baubeginn
baubeho
bauch
baud
baude
baudenkma
baudenkmoi
baudn
bauelement
bauen
bauer
bauern
bauernhof
bauerntheater
baufla
bauh
bauhauptgewerbe
bauhaus
bauhittn
bauhn
bauhnhef
bauhnhefn
bauhnhof
bauhnsteig
bauli
baulich
baum
baumann
baumgarten
baumgartner
baumoasta
baun
baunach
baunan
baund
baunhof
baunln
bauoabatn
bauoat
baur
baustil
bausto
baustoff
baut
bauta
baute
bautei
bauteile
bauten
bautn
bautz
bauuntanehma
bauweak
bauweake
bauweis
bauwerk
bauwerke
bauwesn
bauzeit
bavaria
bavariae
bavarian
bavarikon
bawiegend
bawiegnd
baxter
bay
bayan
bayer
bayerisch
bayerischa
bayerische
bayerischen
bayerischer
bayerisches
bayerischn
bayerland
bayern
bayernatlas
bayernland
bayernliga
bayernpartei
bayerns
bayernviewer
bayerwald
bayeux
bayonne
bayou
bayreith
bayreuth
bayreuther
bayrhammer
bayrisch
bayrischa
bayrische
bayrischen
bayrisches
bayrischn
baytown
bazile
bazouges
bb
bbc
bbe
bbkl
bbo
bc
bchle
bchmte
bd
bde
bdeit
bdeitung
be
bea
beach
beacon
beag
beagbau
beage
beaggmoaschoft
beagkettn
beagland
beagle
beagschui
beagsteiga
beagweak
beahma
bealin
beamta
beamtn
bean
bear
bearb
bearbeitet
bearbeitete
bearbeitung
beaschn
beat
beata
beate
beatles
beatrice
beatrix
beaufort
beaulieu
beaumont
beaune
beautiful
beauty
beauvais
beaux
beaver
bec
bech
bechhofen
bechtermu
beck
becken
beckenbauer
becker
beckham
beckn
beckstein
bed
beda
bedarf
bedau
bede
bedeant
bedeckd
bedeckt
bedeidd
bedeidt
bedeit
bedeitande
bedeitend
bedeitenda
bedeitende
bedeitendn
bedeitendste
bedeitendsten
bedeitendstn
bedeitn
bedeitnd
bedeitnda
bedeitnde
bedeitndn
bedeitung
bedeitunga
bedero
bedeutung
bedford
bedfordshire
bedient
bedingt
bedingte
bedingung
bedingunga
bedingungen
bedoaf
bedrim
bedrogd
bedrogt
bedroht
bedrohte
bedrohung
bedrong
bee
beech
beeiflusst
beeinflussn
beeinflusst
been
beendet
beendn
beendt
beer
bees
beethoven
beethovens
bef
befa
befehl
befehle
befehlswerk
befestigt
befestigte
befestigung
befind
befindd
befinden
befindet
befindn
befindt
befo
befoa
befoahn
befolkning
befolkningen
before
befosst
befrein
befreit
befreiung
befruchtung
befundn
beganga
begann
begegnung
begegnungen
begeistat
begin
beginn
beginnen
beginning
beginnings
beginnt
begleit
begleita
begleitet
begleitung
begonga
begonna
begra
begrenzd
begrenzt
begrenzung
begrif
begriff
begriffe
begriffn
begriffsklearung
begrinda
begrindt
begrindung
begrom
begru
begu
beha
behaim
behandlt
behandlung
behaund
behaundlt
behaupt
behauptet
behauptn
behavioral
beheabeagt
beheadn
beheascht
behejta
beherbergt
behind
behlingen
behm
behman
behmen
behmisch
behmische
behmischn
beho
behoerdenwegweiser
behofen
behrens
bei
beibrocht
beide
beiden
beides
beidn
beidrog
beidrong
beifall
beifoi
beifu
beigl
beigsetzt
beiheft
beijing
beil
beilage
beilog
beim
bein
beina
beinama
beine
being
beinhaltet
beira
beirut
beischbu
beischbui
beischbuisweise
beischpu
beischpui
beisl
beispiel
beispiele
beispil
beispill
beispu
beispui
beispuisweis
beispuisweise
beitra
beitrag
beitretn
beitritt
beitrog
beitrogn
beitrong
beißen
bejcha
bejchl
bejgien
bejgischa
bejgische
bejgischn
bejm
bejmas
bejmisch
bejmischa
bejmischn
beka
bekannt
bekannta
bekanntaste
bekanntastn
bekannte
bekannter
bekannteste
bekanntestn
bekanntheit
bekanntn
bekannts
bekaunnt
bekaunnte
bekaunt
bekauntaste
bekauntastn
bekaunte
bekauntn
bekenntnis
bekli
beko
bekonnd
bekonnde
bekonnt
bekonnta
bekonntaste
bekonntastn
bekonnte
bekonnteste
bekonntestn
bekonntheit
bekonntn
bel
bela
belagerung
belarus
beleg
belege
belegt
beleichtung
beleidigung
beleng
belfast
belgien
belgrad
beliabt
beliabta
beliabtastn
beliabte
beliabtn
beliabts
beliebt
beliebte
believe
belize
bell
bella
bellagio
belle
bellegarde
bellershausen
belles
belletristik
belleville
bellevue
belli
bellinzona
bello
belluno
belmont
belo
belogarung
belogat
belohnt
belostung
belser
belt
beltz
belvedere
bem
bemerkungen
bemischn
bemu
ben
bena
benachbarten
benannt
benaunnt
benaunt
bend
bender
bene
beneatigt
benedetto
benedict
benedikt
benediktbeiern
benediktbeuern
benediktina
benefiz
benefizvuasto
benennt
benennung
benes
benevent
bengalisch
benin
benito
benjamin
bennett
benno
beno
benochboadn
benochboate
benochboatn
benoi
benoit
benonnt
benschberg
benschberga
benson
benton
benue
benutzn
benutzt
benz
beoawatung
beobocht
beobochtn
beobochtung
beochtn
beppo
ber
beraits
berall
berarb
berarbeitete
berbe
berbenno
berber
berblick
berchtesgaden
berchtesgadener
berchtsgoan
berchtsgoana
berchtsgoaner
berechnat
berechnet
berechnung
berechnungen
bereich
bereiche
bereichn
bereit
bereits
beretsch
berg
bergamasco
bergamo
bergang
bergbau
berge
bergen
berger
bergham
berghammer
berghammerin
bergheim
bergisch
bergkarabach
bergland
bergman
bergmann
bergn
bergrothenfels
bergtheim
bergverlag
bergwerk
berhaupt
beriaht
bericht
berichte
berichten
berichtet
berichtn
bericksichtigt
berihmt
berihmta
berihmtasde
berihmtasdn
berihmtaste
berihmtastn
berihmte
berihmtn
bering
berkeley
berkshire
berl
berlegungen
berlin
berlina
berliner
bermuda
bern
berna
bernard
bernardino
bernardo
bernau
bernauer
bernbeuren
bernd
berndorf
berne
berner
bernhard
bernhardswinden
bernhardt
bernriad
bernstein
bernt
berota
berpru
berry
bers
berschin
bersee
bersetzt
bersetzung
bersetzungen
bersicht
bersntol
bersntolerisch
bert
berta
bertelsmann
bertha
berthold
bertolt
bertragen
bertram
bertrand
beru
beruaf
beruf
berufe
berufliche
berufsfachschui
berufsschui
bes
besatzungszone
besch
bescha
bescheid
beschlossn
beschluss
beschra
beschreibt
beschreibung
beschreim
beschreiwung
beschrieb
beschriem
beschrim
beschu
besde
besdn
bese
beseitigt
besen
besetzt
besetzung
besiedlt
besiedlung
besiegt
besitz
besitza
besitzer
besitzn
besitzt
besn
besondas
besondere
besonderen
besonderer
besonders
besprechung
bessa
bessan
bessare
bessenbach
besser
bessere
bessie
bessin
best
besta
bestand
bestanden
bestandteil
beste
bestehd
bestehen
bestehend
bestehende
bestehn
besteht
bestellt
besten
bestenga
bestengan
bester
bestes
bestimmt
bestimmte
bestimmtn
bestimmung
bestn
bestondtei
bests
bestseller
besuch
besucher
bet
beta
beteiligt
beteiligtn
beteiligung
beth
bethany
bethel
bethlehem
betit
betn
beton
betont
betonte
betontod
betonung
betra
betracht
betrachtet
betreffnd
betreiba
betreibt
betreim
betreit
betretn
betreut
betriab
betriabssysdem
betriabssystem
betriam
betrieb
betriebe
betriebm
betriebn
betriebssto
betriebssystem
betriem
betrifft
betrocht
betroffa
betroffn
betrog
betrogd
betrogn
betrogt
betrong
betru
betrug
bett
better
bettina
bettingen
bettn
betton
betty
between
betzenstein
beulah
beulnpest
beute
bev
bevejkarung
bevejkarungsdichte
bevejkarungsdichtn
bevejkarungsreichsdn
bevejkarungsreichste
bevejkarungszoi
bevejkarungszoih
beverly
bevo
bevoa
bevor
bevua
bewa
bewegliche
bewegt
bewegte
bewegung
bewegunga
bewegungen
beweis
beweise
beweisn
beweist
beweng
bewertete
bewertung
bewiakt
bewiesn
bewocht
bewohna
bewohnd
bewohner
bewohnt
bewoidt
bewusst
bewusstsei
bewusstsein
bexar
bey
beyer
beyerlein
beyonce
beyond
bez
bezaichnet
bezaichnung
bezeichn
bezeichna
bezeichnan
bezeichnat
bezeichnd
bezeichnen
bezeichnet
bezeichnt
bezeichnung
bezeichnunga
bezeichnungen
bezeichung
bezeigt
beziagd
beziagn
beziagt
beziahung
beziahunga
beziahungsweis
beziak
beziake
beziaksamt
beziaksgricht
beziakshauptstod
beziaksmuseum
beziaksteu
beziakswexl
beziang
beziehung
beziehunga
beziehungen
beziehungsweis
beziehungsweise
bezirk
bezirke
bezirks
bezirksamt
bezirksausschuss
bezirkskommando
bezirkskulturfu
bezirksliga
bezirkslistetabellenkopfversteckt
bezirksmuseum
bezirksomt
bezoachnung
bezogn
bezong
bezu
bezug
bf
bfc
bfejkarungszoina
bfestigt
bfind
bfindd
bfindn
bfindt
bfs
bfundn
bg
bgland
bgriff
bh
bhoidn
bhoitn
bhutan
bi
bia
biabal
biacha
biache
biachl
biachln
biaga
biagaentscheid
biagagriag
biagakriag
biagalich
biagaliche
biagalichn
biagamoasta
biagt
bian
bianbaam
bianca
bianchi
biarga
biat
biathlon
biazejt
biała
białystok
bib
biba
bibb
bibcode
bibe
bibel
bibellexikon
biber
biberach
biberboch
bibert
bibertal
bibisbn
bibl
bible
bibliografie
bibliographie
bibliographisches
bibliography
biblioteca
bibliothe
bibliotheca
bibliothek
bibliothekn
biblische
biblischn
biburg
bichl
bichler
bie
bieberehren
biebl
biedermeier
biegemaument
biel
bielefeld
biella
bier
bierbichler
biermo
bierzejt
biet
bietet
bietn
biferno
biffe
big
biiwa
bikini
bilanz
bilbao
bild
bildband
bilddokumenten
bilden
bilder
bilderbuch
bildergalerie
bildern
bildersuche
bilderwunsch
bildet
bildhauer
bildl
bildn
bildnis
bildsto
bildung
bill
billancourt
billboard
billion
billy
biltl
bin
bina
bindemittl
binder
bindn
bindnis
bindung
bing
bingen
bingo
binnengewa
binnenstoot
binsn
bio
biografi
biografie
biografien
biographical
biographie
biographien
biographisch
biographisches
biography
biological
biologie
biologische
biologischn
biology
biospha
biotechnologie
biotop
bip
birch
bird
birdlife
birds
birgit
birkach
birkenfeld
birkha
birmingham
birnbaum
biro
birth
bis
bisa
bisaccia
bisch
bischbrunn
bischbrunner
bische
bischef
bischen
bischn
bischo
bischof
bischoff
bischofs
bischofskonferenz
bischofsmoas
bischofssitz
bisd
bisdum
bishea
bishearing
bisher
bisherige
bisherign
bishering
bishop
bislang
bislong
bismarck
bison
biss
bissal
bissau
bisserl
bissl
bist
bisthums
bistritz
bistu
bistum
bistums
bit
bitcoin
bitcoins
bithynien
bits
bitt
bitta
bittapamarantschn
bitte
bitter
bittn
bivacco
bizkit
bißl
bjo
bka
bkaunt
bl
bla
black
blackburn
blackfoot
blackwell
bladdl
bladdln
bladl
bladln
blaibt
blaim
blaine
blair
blaise
blake
blanc
blanca
blanchard
blanche
blanco
bland
blank
blankenbach
blanks
blasius
blasoniarung
blasonierung
blatt
blattl
blattln
blattn
blau
blaua
blaue
blauen
blaues
blaun
blaus
blautopf
ble
bleamal
bleamalkriag
bleame
bleamen
blech
bled
bleda
blegt
blei
bleib
bleibd
bleiben
bleibm
bleibn
bleibt
bleibtreu
bleim
blendn
blendnzoi
bler
blessing
bleu
bli
blia
bliah
bliatn
blibm
blica
blich
bliche
blick
blieb
bliebm
bliebn
bliem
blik
blim
blin
blind
blinde
bling
blitz
blitzgera
blo
bloch
block
blockchain
blocksto
blodz
blog
blogs
blogspot
blois
blomberg
blond
blood
bloom
bloomfield
bloomington
bloos
blos
blosmusi
blosn
bloss
blotz
blount
blouss
blouß
bloz
bloß
blu
bluad
bluadign
bluat
bludenz
blue
blues
bluesville
bluff
bluffs
blume
blumen
blumenau
blumenthal
blusn
blut
blv
bm
bmg
bmi
bmpz
bmw
bn
bna
bnennd
bnennt
bnennung
bner
bnis
bnutzt
bo
boa
boade
boadn
boam
boan
boana
boane
boar
board
boarisch
boarischa
boarische
boarischen
boarischer
boarisches
boarischn
boarischs
boarn
boat
boatai
bob
bobby
bobingen
bobo
bobst
boca
boch
bocha
bochn
bochum
bock
bocking
bod
boda
boden
bodenklimazahl
bodensee
bodhisattva
bodn
bodnmoas
bodnscha
bodnsee
bodo
body
boeing
bog
bogen
bogn
bogner
bogota
boh
bohexzentrizitet
bohhof
bohlinie
bohn
bohna
bohnhof
bohstreck
bohstreckn
bohumil
bohuslav
boi
boid
boier
boii
boikn
boin
bois
boischpu
boise
bol
bold
boletus
bolidik
bolidika
bolitik
bolitika
bolitisch
bolitische
bolitischn
bolivien
bologna
bolschewiki
bomba
bomoas
bon
bonaire
bonaparte
bonate
bonbon
bond
bondy
bone
bong
bonham
bonhof
bonifatius
bonifaz
bonita
bonn
bonner
bonnet
bonnie
bonus
boo
boogie
book
booker
books
boom
boon
boone
boong
boor
boosheim
boot
boote
booth
bootleg
bor
bora
bord
borde
bordeaux
borden
border
borg
borges
borghi
borgo
borgosesia
boris
borland
born
borne
borough
boroughs
borsod
borussia
bos
bosch
boschberg
bosco
bosl
bosnien
bosque
boss
bossa
boston
bosworth
bot
botanical
botanik
botanika
botanische
botanischn
bote
both
botn
botschaft
botschafter
botschoft
botswana
bottom
bou
bouch
boucher
bouchstom
boulder
boulevard
boulogne
boum
bourbon
bourg
bourges
bourgogne
bow
bowell
bowen
bowers
bowie
bowling
bowman
box
boxa
boxer
boy
boyd
boys
boz
bozen
bozn
bp
bpb
br
bra
braadn
brabant
brach
bracht
brad
bradford
bradley
brahms
braich
brais
braissn
bram
bramberg
branch
branco
brand
brandenburg
brandl
brandna
brandnbuag
brandnburg
brandner
brandon
brandsta
brandt
brandy
brannaburg
branscombe
bras
brasi
brasil
brasileiro
brasilia
brasilianischa
brasilianische
brasilianischn
brasilien
brass
bratislava
brau
brauarei
brauarein
brauch
braucha
brauchan
brauchd
brauchdum
brauchn
brauchst
braucht
brauchts
brauchtum
brauer
brauerei
brauereien
brauhaus
braumu
braun
brauna
braunau
braund
braundschutz
braune
braunschweig
braut
brav
brave
bravn
bravo
bray
brazil
brazoria
brazos
brazzaville
brd
bre
break
breaking
brecht
breda
bredl
bregenz
bregenza
breggia
brehm
brei
breich
breisgau
breissischa
breissischn
breissn
breit
breitbrunn
breite
breitenau
breitenbach
breitenbrunn
breitengu
breitkopf
breitn
breits
brejff
bremen
bremerhaven
bremshundatstl
bremsn
brenna
brenner
brennpunkt
brennt
brenntar
brennweitn
brenta
brescia
breslau
breslaua
bresln
bresse
brest
breszkaja
bret
bretagne
breton
bretonisch
brettl
brettner
breuer
breve
brewster
brezn
briada
briaf
briafe
briafmarkn
brian
brianza
brice
bricht
bridge
bridgeport
bridges
brie
brief
briefe
briefen
briefwechsel
brien
bries
brieuc
brig
brigens
briggs
bright
brighton
brigitte
brigittenau
brikama
brill
brille
brindisi
bring
bringa
bringan
bringd
bringen
bringt
brissl
bristol
britain
britanien
britannica
britannien
britanniumacom
britisch
britischa
britische
britischen
britisches
britischn
britischs
british
britn
britta
brive
brivio
brixen
brixlegg
brixn
brixnta
brno
bro
broad
broada
broadcast
broade
broadhogg
broadn
broadway
broat
broatn
brocha
brochd
brochn
brocht
brockhaus
brockn
brod
brodn
brodswinden
brofessa
brojekt
broken
brond
bronner
bronx
bronze
bronzestandbeidl
bronzezeid
bronzezeit
brook
brooklyn
brooks
broonzy
broschu
brot
brother
brothers
broud
brouda
broughton
brovinz
brovinzn
browinz
brown
browne
browns
brownsville
browser
brozent
bru
bruada
bruaf
bruafsfochschui
bruahn
bruce
bruch
bruck
bruckberg
bruckmann
bruckmu
bruckn
bruckner
bruder
brugg
bruggn
brukner
brun
bruneck
brunei
brunn
brunna
brunnan
brunnen
brunner
bruno
brunswick
brust
bruttoinlandsprodukt
bruxelles
bryan
bryant
bs
bsa
bsb
bsc
bscha
bschded
bscheftigt
bscheid
bschleinigung
bschlossn
bschluss
bschossn
bschra
bschreibd
bschreibt
bschreibung
bschreim
bschrieb
bschriebm
bschriebn
bschriem
bschrim
bschtaundn
bschtimmt
bsd
bse
bsessn
bsetzt
bsetzung
bsex
bsezt
bsezung
bsiagt
bsidlt
bsiedld
bsiedlt
bsiedlung
bsiegt
bsiezd
bsitz
bsitza
bsitzd
bsitzn
bsitzt
bsiz
bsondaheit
bsondaheitn
bsondan
bsondane
bsondara
bsondare
bsondars
bsondas
bsonders
bsoucht
bsp
bspw
bst
bsta
bstandn
bstandtei
bstaundn
bsteet
bsteh
bstehd
bstehn
bstehnd
bstehnde
bstehndn
bsteht
bstenga
bstimma
bstimmd
bstimmde
bstimmdn
bstimmt
bstimmta
bstimmte
bstimmtn
bstimmung
bsto
bstondn
bstondtei
bsuach
bsuacha
bsuachan
bsuachd
bsuacht
bsundaheid
bsundaheit
bsundaheitn
bsundan
bsundane
bsundara
bsundare
bsundas
bsundast
bsunders
bt
btissin
btoter
bu
bua
buach
buacha
buachdruck
buachham
buachstob
buachstobm
buachstobn
buachstom
buachsuach
buag
buagamasta
buagamoasta
buagamoastarin
buagbeag
buaghausn
buagn
buagnlaund
buagnlaundkrowodn
buagruine
buagstoi
buam
buama
buaschn
buben
buch
buchanan
buchberg
buchdruckerei
buchen
buchendorfer
buches
buchges
buchgesellschaft
buchhandlung
buchloe
buchner
buchstabe
buchstob
buchstobm
buchstom
bucht
buchtn
buchverlag
buck
buckhorn
buckingham
buckinghamshire
buckl
bucks
buda
budan
budapest
buddenbrooks
buddha
buddhism
buddhismus
buddhist
buddhistischa
buddhistische
bude
budera
budweis
buechspraach
buena
buenos
buero
buffalo
bufo
bug
buganda
bugl
bugs
buh
buid
buida
buidd
buiddn
buidhaua
buidl
buidln
buidn
buidns
buidt
buidtn
buidung
buie
buigarien
buigarisch
buigarische
buigarn
building
buit
bukarest
bukowina
bulgaria
bulgarien
bulgarisch
bull
bulle
bulletin
bullock
bully
bund
bundes
bundesagentur
bundesamt
bundesamtes
bundesanstalt
bundesautobahn
bundesautoboh
bundesdog
bundesdogswoi
bundesebene
bundesheer
bundeskanzla
bundeskaunzla
bundesla
bundesland
bundeslaund
bundesliga
bundeslond
bundesminista
bundesministerium
bundespra
bundespresident
bundesregiarung
bundesregierung
bundesrepublik
bundesstaat
bundesstoot
bundesstootn
bundesstrass
bundesstraß
bundesstraße
bundesstrossn
bundesstroß
bundesstroßn
bundestag
bundestagswahl
bundesverband
bundeswehr
bundesweit
bundeszentrale
bundn
bundschuh
bung
bungen
bunka
bunker
bunny
bunt
buntbarsch
bunte
buntn
buonarroti
burana
burchard
burdon
bureau
buren
burg
burgamoasta
burgberg
burgbernheim
burgebrach
burgen
burgenla
burgenland
burger
burgess
burghausen
burghausn
burgnland
burgoberbach
burgos
burgpreppach
burgruine
burgsinn
burgstall
burgtheata
burgtheater
burgund
burgunda
burgwindheim
burk
burkard
burkardroth
burke
burkhard
burkhardt
burkhart
burkina
burleske
burleson
burlington
burma
burn
burnet
burnett
burning
burns
burr
burschn
burt
burton
burundi
bury
bus
busbahnhof
busch
buschnschaung
bush
business
buske
buskerud
buslinie
buslinien
busse
bussento
but
bute
butler
butta
butte
buttenwiesen
button
buxschtobn
buzal
bv
bva
bvb
bvejkarung
bvelkaring
bvo
bw
bwb
bwegd
bwegt
bwegung
bwohna
bwohnt
bwv
by
bydlinski
byer
byl
byomra
byrd
byron
byte
byzantina
byzantine
byzantinischa
byzantinische
byzantinischn
byzanz
bz
bzeichnat
bzeichnet
bzeichnung
bzo
bzw
c
ca
cabot
cache
caco
caddo
caecilius
caen
caesar
caesarea
caesars
cafe
cagliari
cain
cairo
cajetan
calabria
calacmul
calais
calakmul
calama
calamity
calder
caldwell
cale
caledonia
calendar
calhoun
california
caligula
call
callahan
calpulli
caltech
calumet
calvados
calvert
calvin
camargo
cambrai
cambre
cambridge
camden
came
camembert
cameo
camera
cameron
camilla
camille
camillo
camp
campagna
campagne
campania
campbell
campe
campi
campo
campobasso
campus
camus
can
canaan
canada
canadian
canal
canaria
canavese
candela
cane
caneggio
canetti
caney
canis
cannabis
cannes
cannobio
canobbio
canon
canossa
cantabile
cantal
canterbury
canton
cantons
cantz
canyon
cao
cap
capaccio
cape
capellen
capital
capitol
capo
cappella
capriccio
captain
capua
car
caracol
caravaggio
carbon
carbondale
carbons
card
cardiff
care
carl
carla
carlisle
carlo
carlos
carltheater
carlton
carmel
carmen
carmina
carnegie
carnie
carnuntum
caro
carol
carola
carolin
carolina
caroline
carolinum
carpenter
carr
carrara
carrie
carroll
carrollton
cars
carson
carsten
carstensen
carter
cartersville
cartier
cartman
cartoon
cartoons
carus
cas
casa
casablanca
casady
casagrande
casalzuigno
casanova
casares
cascade
cascina
case
caselle
caserta
casey
cash
casimir
casino
caspar
cass
cassano
cassini
cassino
cassius
castel
castell
castellamonte
castellana
castelli
castello
castelnuovo
castelo
castiglione
castillo
castle
castra
castro
casu
cat
catalina
catalog
catalogue
catalunya
catania
catanzaro
catarina
catch
category
cathedral
catherine
catholic
cato
cave
cay
cayo
cayuga
cbs
cc
cd
cdot
cdp
cds
cdu
ce
cecil
cecilia
cedar
cel
celle
cellfish
cello
celsius
celtic
cem
cembra
cembre
cement
cemetery
cena
censo
censos
census
cent
centauri
centennial
center
centerville
centola
centraal
central
centralbyra
centralisateur
centre
centro
century
ceo
ceres
cerro
cerva
cervantes
cesare
cesena
cesenatico
cesta
cestovne
ceuta
cf
cg
cgi
ch
cha
chabad
chah
chaim
chain
chak
chalca
challenge
cham
chamber
chambers
chamois
champ
champagne
champaign
champion
champions
championship
champsaur
chan
chana
chance
chancen
chandler
chane
chang
change
changes
channel
chanson
chaos
chapel
chapelle
chaplin
chapman
chapter
character
charakta
charakter
charaktere
charakteristisch
charakteristische
chard
charente
charivari
charleroi
charles
charleston
charlie
charlotta
charlotte
charly
chart
charta
charter
chartquellen
chartres
charts
chartverfolgung
chase
chat
chatham
chattia
chaucer
chaux
chda
chdeitsch
chdem
che
cheamgau
cheamgaua
cheaming
cheamsee
cheb
chef
chefredakteur
chel
cheln
chelsea
chemical
chemie
chemika
chemische
chemischn
chemistry
chemnitz
chen
chenbach
cher
cherei
chern
cherokee
cherry
chesapeake
cheshire
chess
chester
chesterfield
chestnut
chet
chevorlage
chewbacca
cheyenne
chez
chgau
chheim
chi
chiapas
chiavacci
chicago
chichen
chichimekn
chickasaw
chicken
chico
chief
chiemgau
chiemgaua
chiemsee
chiesa
chig
chihuahua
child
children
chile
chilenische
chilenischn
chili
chiloe
chimalpopoca
chin
china
chinese
chinesisch
chinesischa
chinesische
chinesischen
chinesischn
chinesn
chinon
chinook
chios
chip
chippewa
chittagong
chl
chla
chle
chlein
chli
chlich
chliche
chlichn
chn
chner
chnma
cho
choctaw
choice
chol
cholera
cholula
chopin
chor
choral
chorale
choralwiki
chr
chraum
chris
christ
christa
christe
christel
christen
christentum
christi
christian
christianam
christiane
christina
christine
christlich
christlicha
christliche
christlichen
christlichn
christmas
christn
christntum
christof
christoph
christophe
christopher
christophorus
christus
chrome
chronicle
chronik
chronist
chronological
chronologie
chronology
chs
chsdn
chse
chsisch
chsische
chsischen
chsischn
chst
chsta
chstadt
chste
chsten
chstn
chstodt
cht
chta
chte
chtelhausen
chter
chtern
chtet
chtich
chtig
chtige
chtigen
chtign
chtigt
chtling
chtlinge
chtn
chtnis
chtr
chtung
chu
chuan
chuck
chumphon
chung
chur
church
churchill
chy
ci
cia
cic
cicero
cid
cie
ciel
cifras
cilento
cima
cimarron
cimburgis
cimulai
cincinnati
cinema
cinque
cio
cipollina
circa
circle
circuit
circuits
circumstances
circus
cis
cit
cite
cities
citrus
citta
city
citypopulation
citys
ciudad
civil
civilization
civita
ck
cka
ckarei
ckblick
ckchen
cke
ckel
cken
ckenau
cker
ckerei
ckersbach
ckert
ckes
ckid
cking
ckingen
ckkehr
ckl
ckla
cklabruck
cklich
ckliche
ckln
ckn
ckner
cks
cksicht
cksichtigt
cksichtigung
ckt
ckte
cktritt
cl
cla
claasen
claffheim
claiborne
clair
claire
clan
clans
clapton
clara
clare
clarence
clarendon
clarin
clark
clarke
class
classic
classical
classics
classification
classischen
claude
claudia
claudio
claudius
claus
clav
clavier
clay
clayton
cle
clear
clearwater
cleburne
clemens
clemente
clerf
clerk
clermont
cleveland
client
cliff
cliffs
clifton
climate
clinton
clio
clip
clock
close
cloud
clouds
clover
clown
clowns
club
clubs
cluj
cluny
cluster
clyde
clyne
cm
cms
cn
cnn
co
coal
coast
cobain
cobb
coburg
coburga
coburger
coca
cochran
cod
codata
code
codes
codex
codogno
coe
coeur
coffee
cognac
cogne
cohen
cohors
coimbra
col
cola
cold
coldrerio
cole
coleman
colfax
colin
coll
collaboration
collage
colle
collected
collection
collections
college
collegium
collenberg
collier
collin
collins
colmar
colmberg
colne
colo
colombe
colombia
colombini
colonia
colonial
colony
color
colorado
colosseum
columbia
columbus
com
comanche
comarca
combat
come
comedy
comer
comes
comic
comics
coming
commagenorum
command
commander
commedia
commentary
commerce
commission
commissioners
committee
common
commons
commonwealth
communaute
commune
communes
communication
communications
communities
community
communitys
como
comox
compagnie
companion
company
comparative
compendium
compilation
compiler
complete
complex
components
composed
composer
composers
compostela
comprehensive
comptes
compton
computa
computer
computergenealogie
computing
comte
comune
comuni
comunita
con
conakry
conan
concepcio
concept
concert
concerto
concise
concord
concordia
conde
condorussi
conference
conflict
confucianism
confucius
congo
congress
conn
connecticut
connell
connor
conquest
conrad
conrads
conseil
conservation
constant
constantin
constitution
construction
contact
contains
conte
contemporary
content
contest
context
continental
continuo
continuum
contra
control
convent
convention
converse
conway
conza
cook
cooke
cool
cooper
coordinate
coos
copa
copan
copd
copeland
copernicus
copiapo
coppenrath
copper
cops
copyright
cora
coral
corbin
corbusier
cordan
cordillera
cordova
core
corinna
corinth
coritiba
cork
cornelia
cornelis
cornelius
cornell
corner
corners
cornwall
corona
corporate
corporation
corps
corpus
corre
corse
corte
corti
corun
cos
cosenza
cosimo
costa
cotta
cottage
cottle
cotton
cottonwood
couleurkarten
coulomb
council
count
counties
countries
country
counts
county
countys
couplet
couplets
courier
couronne
cours
course
court
courthouse
cousin
coutances
couverte
cove
coventry
cover
coverversion
covington
cow
cowboy
cox
cps
craft
craig
crailsheim
cranach
crane
crawford
crazy
cre
cream
creation
creative
credo
cree
creedence
creek
cremona
crescent
crest
crestview
cret
cretaceous
creuse
creußen
crew
cricket
crime
cris
crisis
cristiano
cristo
critical
criticism
critics
critique
croce
crockett
croix
cronheim
crook
crooked
crosby
cross
crossing
crossover
crossroad
crossroads
croupia
crow
crowdfox
crowley
crown
croydon
cruz
cry
crystal
cs
csa
csi
csn
csny
css
csu
ct
ctitle
cu
cuba
cube
cuenca
cuicuilco
cult
cultura
cultural
culture
cum
cumberland
cumbria
cunha
cunningham
cuorgne
cup
cupfinalist
cupsieger
cura
curac
curia
curie
current
curry
curt
curtis
cusano
cusio
custer
custom
cut
cuyahoga
cv
cy
cymru
cypress
cyril
cz
czeike
cœur
d
da
daa
daad
daam
daas
dabai
dabaud
dabei
dach
dachau
dachl
dachs
dachsbach
dachsberg
dad
dadad
dadat
dade
dadn
daduach
dadurch
dafau
dafia
dafir
dafo
dafoa
dafoigt
dafrika
dafu
dafundn
dag
dageg
dagegn
dageng
dagibt
daglengt
dagmar
dagobert
dagog
dagoge
dagogik
dagogische
daha
dahaam
daham
dahea
daher
dahi
dahin
dahinta
dahl
dahoam
dahoidane
dahoidn
dahoit
dahoitn
daholtn
dai
dailwais
daily
daimler
daisy
daiting
daitsch
daitschn
daj
dake
dakenna
dakennt
dakota
dal
dala
dalangt
dale
dalebt
dali
dall
dallas
dalton
dam
dama
damalige
damalign
damals
dame
damen
damerika
damerikas
damian
damiano
damid
damids
damisch
damit
damits
damiz
damm
dammbach
damois
dampf
dampfnudln
dampfwagen
dan
dana
danach
danbury
dance
dancing
dane
daneb
danebm
danebn
danem
danemark
daniel
daniela
daniels
dank
dann
dano
danoch
danou
dans
dante
danville
danz
danzer
danzig
danzn
danzt
dappscha
dar
dara
darauf
daraufhi
daraufhin
daraus
dare
dareichn
dareicht
darf
dargestellt
darichtt
darin
dark
darkness
darling
darlington
darmsta
darmstadt
darmstod
daro
darsta
darsteller
darstellung
darstellungen
daru
darum
darunta
darunter
darwin
daryaee
das
dasa
daschduaf
daschlogn
daschlong
daschossn
daschrim
dasetzt
dasida
dasing
dasma
dass
dassa
dassd
dasss
daste
dastn
dastreckt
dat
data
database
date
datei
dateien
datein
daten
datenbank
datenbankmanagementsystem
datenbankn
datenblatt
datenverarbeitung
datiad
datiat
dativ
datn
datnbank
datum
dau
daua
dauad
dauagreafla
dauahoft
dauan
dauand
dauat
dauenhauer
dauer
dauert
daugt
daum
dauma
daumois
daun
daunk
daunn
dav
davau
dave
davenport
david
davids
davidson
davies
daviess
davis
davo
davoa
davon
davor
davu
davua
dawa
dawai
dawal
dawei
daweu
dawischn
dawischt
dawson
dax
daxberg
daxenberger
day
days
dayton
daz
dazo
dazou
dazu
dazua
dazuakema
dazuakemma
dazuakumma
dazuazo
dazwischn
dazzlwuam
daß
db
dbahngesellschaft
dbauhn
dbayern
dbei
dc
dchen
dd
dda
dde
ddeitschn
ddeutsche
ddeutschen
ddeutscher
ddn
ddr
de
dea
deabe
dead
deadurl
deadwood
deaf
deafa
deafad
deafan
deafat
deafatn
deaffa
deafi
deafn
deafs
deafst
deal
deam
dean
deana
deand
deandl
deandln
deane
deans
deanst
deant
dear
deara
dearborn
deas
deastweng
deata
deataschdikl
death
deazeid
deazeit
debate
debattn
debian
debrecen
debu
dec
decade
decatur
december
dechansreiter
decht
dechta
decker
deckl
deckn
deckt
deckungsgleich
decumates
ded
dee
deep
deer
dees
default
defense
definiad
definian
definiat
definiern
definiert
definierte
definition
definitive
definizion
defr
deg
degas
degen
deggendorf
deggndoaf
deggndorf
deging
degl
degli
degndoaf
degndorf
dehio
dehne
dehnt
dehnung
dei
deia
deidades
deife
deifi
deil
deim
dein
deina
deine
deinen
deiner
deisna
deit
deitle
deitli
deitlich
deitliche
deitn
deitsch
deitscha
deitsche
deitschen
deitscher
deitsches
deitschkreitz
deitschla
deitschland
deitschlands
deitschlaund
deitschn
deitscho
deitschs
deitschschbrochign
deitschsprochiga
deitschsprochige
deitschsprochign
deitschsprochigs
deitschsproching
deix
dej
deja
dejs
dek
deka
dekalb
dekanat
dekanate
deklination
dekret
del
delaware
delft
delhi
delice
dell
della
delle
dello
delphi
delta
deluxe
dem
dema
demand
demarcation
demel
demeter
demetrios
demnoch
demo
democracy
democratic
demografiche
demographie
demoiselle
demokraten
demokratie
demokratischa
demokratische
demokratischen
demokratischn
demokratn
demos
dems
den
dena
denali
denan
denane
denau
dene
denemark
denen
denga
dengl
denglisch
denhausen
deni
denis
denisch
denk
denken
denkma
denkmal
denkmalpflege
denkmoi
denkmoig
denkmoigschitzte
denkmoischutz
denkn
denkschrift
denkt
denmark
denn
dennat
dennis
denno
dennoch
dens
density
dent
dentlein
denton
denver
deo
dep
departamento
departamentos
departement
departements
department
dependency
depot
depp
deppad
deppat
depression
der
dera
deran
deration
derb
derbullevontoelz
derby
derek
deren
derer
derf
derfa
derfe
derfn
derl
dern
derrick
ders
derstandard
derwent
derzeid
derzeit
derzua
des
desa
descartes
deschnjow
description
desd
desert
deshoib
design
designated
designer
desktop
desmoi
desmond
deso
desoto
dess
dessau
dessen
dessn
desso
dessous
destatis
desto
destweng
desweg
deswegen
deswegn
desweng
deszweng
det
detail
detailed
detaillierte
details
detektiv
detlef
detmold
detroit
dettaglio
detter
dettingen
deu
deum
deus
deuticke
deutlich
deutsch
deutsche
deutschen
deutscher
deutsches
deutschland
deutschlandfunk
deutschlandradio
deutschlands
deutschlandsberg
deutschn
deutschsprachige
deutschsprachigen
deutschsprachiger
deutschsprachiges
deutung
deux
devanagari
deve
development
device
devil
devise
devon
dewey
dewitt
dexel
dexter
dez
dezemba
dezember
dezemma
df
dfb
dfo
dg
dgriag
dhabi
dharma
dhcp
dhm
di
dia
diable
diaf
diafa
diafe
diafn
diafnsuach
diafste
diaggad
diagnose
diagramm
diahappn
diakei
diakritika
dial
dialect
dialects
dialekt
dialektbuch
dialekte
dialektgruppm
dialektgruppn
dialektik
dialektkontinuum
dialektn
dialektna
dialektologie
dialektt
dialog
dialoge
diam
diamond
dian
diana
diand
diandl
diandlgwand
diandln
diano
diant
dianthus
diarekt
diaroi
diarola
diary
dias
diaspora
dich
dichda
dichdarin
dicht
dichta
dichtarin
dichte
dichter
dichters
dichtn
dichtung
dichtungen
dick
dicka
dicke
dickens
dickinson
dickn
dictionary
dictionnaire
did
didier
die
diebach
diederichs
diego
diehl
diekirch
diem
dien
diena
dienan
dienen
diener
dienst
dienstag
dienste
dient
dieppe
diepresse
dies
diesa
diese
diesel
diesem
diesen
dieser
dieses
diesm
diesn
diesseits
dieter
dieterich
dietersdorf
dieterskirchen
dietl
dietmar
dietramszell
dietrich
dietrichs
dietz
diez
diezese
diezesn
diffarenz
different
differenz
dig
diga
dige
diger
digital
digitale
digitalen
digitaler
digitales
digitalisat
digitalisierte
digitalisierungszentrum
digitaln
diglossi
digt
digung
dijon
dikat
diktator
diktatur
dilemma
dili
dillingen
dillon
dimension
diminutiv
din
ding
dinga
dinge
dingen
dingler
dinglfing
dingolfing
dinkelsbu
dinkelsbuehl
dinn
dinne
dino
dinosaur
dinosauria
dinosaurs
dintn
dio
dioecesis
diogenes
dionysos
diphthong
dipl
diplomarbeit
diplomat
diplomatie
diplomatische
dir
direct
direction
director
directorate
directory
direkd
direkt
direkta
direkte
direktn
direktor
dirigent
dirk
dirndl
dirty
dis
disch
dische
dischen
discher
disches
dischn
disco
discogs
discovered
discovery
discussion
diskografie
diskographie
diskussion
diskussionan
disney
displaced
displaystyle
diss
dissertation
distance
distanz
distribution
distributionen
district
districts
distrikt
distrikte
distrikts
distrito
disturbed
disziplin
disziplinan
dit
dith
dition
ditions
diva
divease
diverse
diversity
diversn
divide
divine
divisio
division
divisions
diwa
diwan
dixie
dixon
dizionario
dj
django
djk
dk
dkorea
dkriag
dkuituaeabe
dky
dl
dld
dle
dli
dlich
dliche
dlichen
dlichn
dling
dlingen
dlle
dln
dlr
dlweh
dm
dmastaschoft
dmg
dmid
dmitri
dmitrijewitsch
dn
dna
dnb
dnorwegische
dns
do
doa
doad
doadaweis
doaf
doaff
doafgemarkung
doafkiach
doag
doagstejd
doagsto
doal
doan
doana
doanaweat
doastejd
doastejung
doasto
doat
doating
doatn
dobai
dobei
dobre
dobrovsky
dobry
doc
docg
doch
dochau
dochda
dochschbroch
dochstoa
docht
dochta
docs
doctor
document
documenta
documentary
documents
dod
doda
dodabei
dodamid
dodan
dodazua
dodd
dodge
dodn
dodrunta
doduach
dodurch
dofia
dog
doge
dogeng
dogeszeidung
dogn
dogs
dogstejt
doh
doha
dohea
doher
dohi
dohinta
doi
doiar
dokda
dokta
doktor
doku
dokument
dokumentarfilm
dokumentarfuim
dokumentation
dokumente
dokumentiad
dokumentian
dokumentiat
dokumentn
dolasilla
dolce
dolla
dollar
dolly
dolmen
dolni
dolomit
dolomiten
dolomitn
dolphin
dom
doma
domain
domaz
dombu
dome
domenico
domesday
domi
domid
domine
domingo
dominiad
dominian
dominiat
dominica
dominik
dominikanische
dominikanischen
dominikus
dominique
dominum
domit
domitian
domm
domodossola
domoiing
domois
domolige
domolign
domoling
domplatz
don
dona
donald
donar
donato
donau
donaugrenz
donaukana
donaukurier
donaulimes
donauschiffoaht
donaustauf
donaustod
donauwo
done
donem
dong
donk
donkey
donn
donna
donner
donnersdorf
donnerstag
donoch
doo
doog
doom
door
doors
doppe
doppel
doppelt
doppet
doppler
doppltrap
dor
dora
doraaf
dorado
doraus
dorchester
dordogne
dordrecht
dorf
dorfen
dorfes
dorfgu
dorfprozelten
dorgstejt
doriba
dorin
doris
dormitz
dorn
dorothea
dorpat
dort
dortmund
dortn
dorum
dorunta
dos
dosn
doss
dossa
dossetien
dossier
dost
dosta
dostasien
dosten
dostn
dostoevsky
dostoi
dostojewski
dostojewskij
dostoyevsky
doststeiermark
dot
dotn
dots
dou
douard
double
doubleday
doubtful
doud
doudabei
doudafia
doudamid
doudavo
doudazou
doudn
doudrunta
dougherty
douglas
douro
dove
dover
dovid
dovo
dovoa
dowa
down
download
downloads
downs
doyle
dozent
dozmois
dozua
dozumois
dp
dq
dr
dra
draad
draaf
draam
drache
drack
drad
dradition
dradizion
draf
drafhi
dragon
drah
drahbuach
drahd
drahdiwaberl
drahn
draht
drai
drain
drama
dramatika
dramatiker
dramatisch
dramatische
dramatischen
dramen
drammen
dran
drang
drangl
drangln
drau
drauf
draufhi
draufhin
draun
draus
draußen
draußn
drawings
draxlsriad
dre
drea
dream
dreams
dreck
dredn
drehbuach
drehbuachautor
drehbuch
drehbuchautor
dreher
dreht
drei
dreia
dreibeag
dreibund
dreieck
dreifaltigkeit
dreila
dreimal
dreimoi
dreissgjaarign
dreizehn
dreißg
dreißgjaarign
dreißigja
drent
drenthe
dresden
dresdn
dreux
drew
drexel
drexler
drey
driba
drickan
dridde
driddl
driddn
drin
drinad
drinan
dringa
drink
drinn
drinna
drinnad
drinnan
drinnat
driple
drite
dritn
dritt
dritta
dritte
dritten
dritter
drittgresste
drittgreßte
drittl
drittn
dritts
drive
driwa
dro
droad
drochn
droemer
droffa
drogd
drogn
drogt
droht
droi
droite
drom
dromme
drommen
drong
drotzdem
drozdem
drpei
drs
dru
druck
drucka
druckane
druckarei
druckausgabe
drucke
druckerei
druckn
druckt
drug
druidn
drum
drummer
drunga
drunt
drunta
drunter
druntere
druntern
drusus
dry
drze
ds
dschibuti
dschingis
dschnau
dss
dsta
dt
dta
dte
dtebuch
dteil
dten
dter
dtirol
dtiroler
dtisch
dtische
dtischen
dtischer
dtischn
dtlein
dtlistn
dtn
dtpartnaschoft
dtpartnaschoftn
dtv
du
dua
duach
duachanaunda
duachaus
duachbruch
duache
duachfliassd
duachfliaßt
duachflossn
duachflutung
duachfoi
duachg
duachga
duachgehand
duachgfiahd
duachgfiaht
duachgfiat
duachgsetzt
duachgsezt
duachi
duachmessa
duachn
duachquead
duachqueat
duachquert
duachs
duachschnitt
duachschnittli
duachschnittliche
duachschnittlichn
duachschnittseihkumma
duachsetzn
duachzong
duad
duada
duadn
duads
duaf
dual
duan
duasd
duat
duathi
duatige
duatign
duatn
dublettn
dublin
dubois
duc
duch
duck
duda
duden
dudenverlag
dudley
dudlsock
due
duell
duerrwangen
duett
duette
duich
duisburg
duit
duke
dukt
dulce
dumas
dumbarton
dumfries
dumm
dummheit
dumont
dumpa
dunbartonshire
duncan
duncker
dundee
dunes
dung
dungan
dunkel
dunkl
dunkla
dunkle
dunkln
dunn
duo
duplex
dur
durch
durchaus
durchbruch
durchfall
durchges
durchgesehene
durchgsetzt
durchlaucht
durchmesser
durchn
durchs
durham
during
durst
durt
durtatn
durten
durting
durtn
dus
dust
dutch
duttln
dutzend
dutznd
duval
dux
dva
dvd
dvds
dvor
dwarf
dweid
dweit
dwest
dwesten
dwestn
dy
dyer
dylan
dynamic
dynamics
dynamik
dynamische
dynamit
dynamo
dynasti
dynastie
dynastien
dynasty
dyr
dz
dztwo
dzu
dzug
e
ea
eab
eabaud
eabaut
eabaute
eabe
eabfoigekriag
eabin
ead
eada
eadbebm
eadbebn
eadbem
eadkrustn
eadmond
eadn
eado
eadobafla
eads
eadteu
eadzeisal
eaeffnd
eaeffnet
eaeffnung
eaeignis
eaeignisse
eaffantliche
eaffantlichn
eafinda
eafindung
eafoahn
eafoarn
eafoart
eafoascht
eafoaschung
eafoig
eafoigd
eafoige
eafoigreich
eafoigreicha
eafoigreiche
eafoigreichn
eafoigreichstn
eafoigt
eafolgte
eafosst
eafu
eafuigt
eafundn
eaga
eagebnis
eagebnisse
eagem
eagibt
eagle
eah
eaha
eahebli
eahebt
eahebung
eahebunga
eahm
eahn
eahna
eahnam
eahnan
eahnana
eahnane
eahnara
eahnare
eaho
eahobm
eahoidn
eahoit
eahoitn
eaholungsort
eahom
eainnad
eainnan
eainnarung
eainnat
eakenna
eakennboa
eakennt
eakla
eaklead
eaklean
eaklearung
eakleat
ealaubnis
ealaubt
ealebt
ealedigung
ealo
ealossn
eam
eameglichn
eameglicht
eamittln
eamittlt
eamittlungan
eamoadet
eamoadung
ean
eana
eanam
eanan
eanana
eanane
eanara
eanare
eanaunnt
eaneit
eanennt
eanennung
eaner
eanere
eanst
eantn
eao
eaoban
eaobarung
eaobat
eaowad
eaowan
eaowarung
eaowarungan
eaowat
eapresst
ear
eareichboa
eareichd
eareichn
eareicht
earichdd
earicht
earichte
earichtn
earichtung
earl
early
earowat
earp
earth
earunga
eas
easchd
easchda
easchde
easchdmois
easchdn
easchds
eascheina
eascheind
eascheint
eascheinung
easchiena
easchienan
easchienen
easchlossn
eascht
easchta
easchtas
easchtauffu
easchte
easchtes
easchtmois
easchtmolig
easchtn
easchtns
easchts
easdn
easetzd
easetzn
easetzt
easotz
east
easta
eastareich
eastareicha
eastareichischa
eastareichische
eastareichischn
easte
easter
eastern
eastland
eastle
eastlichn
eastmois
eastn
easto
easton
eastreckd
eastreckn
eastreckt
easy
eat
eatliche
eatlichn
eau
eaufrance
eaux
eav
eawa
eawehnd
eawehnt
eaweidad
eaweidarung
eaweidat
eaweitarung
eaweitat
eawend
eawoabn
eawoat
eaza
eazbischof
eazbisdum
eazeign
eazeigt
eazheazog
eazo
eb
eba
ebane
ebanen
ebasbeag
ebay
ebba
ebban
ebbas
ebber
ebbs
ebchecked
ebd
ebelsbach
eben
ebenau
ebene
ebenen
ebenezer
ebenfalls
ebenfois
ebensee
ebenso
eberhard
ebern
ebersbach
ebersberg
ebert
ebm
ebmfois
ebn
ebnath
ebne
ebner
ebnfois
ebnso
ebo
ebrach
ebs
ec
ecce
ech
eching
echo
echov
echt
echta
echte
echter
echtn
echts
eck
ecke
eckental
eckert
eckl
eckn
eco
ecological
ecology
econ
economic
economics
economy
ecstasy
ector
ecuador
ecw
ed
edathy
edda
eddie
eddy
edel
edelmetoi
edelmetoie
edelschein
edelweiss
edelweiß
eden
eder
edgar
edge
edgewater
edgewood
edicions
edikt
edinburg
edinburgh
edipus
edison
edit
edited
edith
edition
editions
editor
editore
editorial
edizioni
edl
edle
edlen
edler
edmond
edmonton
edmund
edo
eds
edt
edu
eduard
eduardo
education
educational
edv
edward
edwards
edwin
ee
eem
eemma
een
ees
efading
efangelische
efangelischn
efda
eferding
effantliche
effects
effekt
effekte
effektiv
effentlich
effentliche
effentlichkeit
effentlichn
effntlicha
effntliche
effntlichkeit
effntlichn
efmd
efta
eftan
eftas
efter
efters
eg
egal
eger
egerland
egern
egg
eggental
egger
egglham
egiptn
egling
ego
egon
egypt
egypta
egyptian
egyptischa
egyptische
egyptischn
egyptn
eh
eha
ehapa
ehe
ehefrau
ehem
ehema
ehemaliga
ehemalige
ehemaligen
ehemaliger
ehemalign
ehemals
ehemo
ehemoiiga
ehemoiige
ehemoiigs
ehemoiing
ehemois
ehemoliga
ehemolige
ehemoligen
ehemolign
ehemoligs
ehemoling
eher
ehingen
ehir
ehmaliga
ehnli
ehr
ehre
ehren
ehrenbu
ehrenmitglied
ehrenring
ehrenwirth
ehrenzeichen
ehrlich
ehrn
ei
eia
eibaud
eibaut
eibelstadt
eibl
eibrocht
eibruch
eibsee
eibundn
eich
eichborn
eichelsbach
eichenau
eichenberg
eichenbu
eichenfu
eichhorn
eichinger
eichn
eichsta
eid
eidruck
eidrunga
eier
eifasu
eifasucht
eifiahrung
eifiarung
eifl
eifliss
eiflu
eifluss
eifluß
eifoaht
eifoi
eifoin
eifu
eig
eiga
eigan
eigana
eiganan
eigane
eiganen
eiganga
eigans
eigantli
eigaung
eigeh
eigena
eigendli
eigene
eigenen
eigenes
eigenha
eigens
eigenschaft
eigenschaften
eigensta
eigentle
eigentli
eigentlich
eigentliche
eigentu
eigenverlag
eigfiad
eigfiaht
eigfiat
eigfoin
eigfu
eight
eiglegt
eigleit
eigliadat
eigliedat
eiglodn
eigmeindet
eigmeindung
eigmoand
eigmoant
eigna
eignan
eigne
eignen
eignlich
eignomma
eigns
eignschaftn
eignschoft
eignschoftn
eignsta
eigntli
eigntlich
eigntu
eigntum
eignumma
eigoadnta
eigricht
eigrom
eigschlossn
eigschra
eigschto
eigsetzt
eigsezt
eigstejt
eigstiegn
eigsto
eigstuft
eiguadnt
eigwaundat
eigweiht
eih
eihdrog
eihede
eiheit
eiheitn
eihfiahrung
eihfluss
eihgfiahd
eihgfiaht
eihgliedad
eihgliedarung
eihgliedat
eihgmoad
eihgmoandd
eihgmoant
eihgmoantn
eihgmoanung
eihgmoanunga
eihgong
eihgrichdd
eihgricht
eihgsetzd
eihgsetzt
eihheit
eihheitn
eihheitsgmoa
eihrichtung
eihrichtunga
eihschliaßli
eihschlogkrata
eihteid
eihteit
eihteiung
eihwo
eihwohna
eihwohnan
eihwohnazahl
eihwohnazoi
eihwohnazoih
eihwohnazoihn
eihwohnazoin
eihwoner
eihzugsgebiet
eiker
ein
eina
eindeitig
eindrog
eindruck
eine
eineg
einem
einen
einer
eines
einestages
einfa
einfach
einfiarung
einfluss
einflussreichstn
einfluß
einfu
eingabe
eingang
eingdli
eingebu
eingemeindeten
eingeschra
eingesetzt
eingestellt
eingle
einglich
eingmeindet
eingna
eingne
eingricht
eings
eingsetzt
eingsta
eingtli
eingtlich
eingtum
einheimischn
einheit
einheiten
einheitliche
einheitn
einheitsgmoa
einheitsu
eini
einig
einige
einigen
einiger
einign
einigung
einleitung
einmal
eino
einrichtung
einrichtunga
einrichtungen
eins
einsa
einsatz
einschließlich
einsiedel
einsiedla
einsotz
einst
einstein
einstellung
einteilung
einteit
eintra
eintracht
eintrag
eintritt
eintrog
einw
einweihung
einwohna
einwohnan
einwohnazoi
einwohner
einwohnermeldeamt
einwohnern
einwohnerzahl
einwohnerzahlen
einzelnen
einzige
einzug
einzugsgebiet
einzugsgebietvorlage
eirichtung
eirichtunga
eiro
eiropa
eiropamoasta
eiropas
eiropastroß
eiropastroßn
eiropejischn
eiropejschn
eis
eisa
eisack
eisane
eisatz
eisen
eisenach
eisenbahn
eisenberg
eisenburg
eisenhans
eisenkappel
eisenstadt
eisenstein
eisenstod
eiserne
eisetzn
eisetzt
eishockey
eishockeyspuia
eiskostn
eisn
eisnbahn
eisnbauhn
eisnbauhnstreckn
eisnboh
eisnbohlinie
eisnbohstreckn
eisner
eisnstoa
eisnstod
eisnzeid
eiso
eisotz
eisto
eiszeid
eiszeit
eita
eiteiln
eiteilung
eiteit
eitensham
eitensheim
eiteut
eitra
eitretn
eitritt
eitrog
eitrogn
eitrong
eiwandara
eiwiakungan
eiwo
eiwohna
eiwohnazoi
eiwona
eizogn
eizong
eizugsgebiet
ej
ejara
ejascht
ejaschta
ejaschtn
ejda
ejdan
ejdane
ejdare
ejdasde
ejdasdn
ejdaste
ejdastn
ejdeste
ejdestn
ejf
ejg
ejm
ejta
ejtan
ejtare
ejtaste
ejtastn
ejtz
ek
ekd
ekero
ekkehard
ekliptik
ekseption
el
ela
elan
elastizita
elba
elbe
elbert
elbeuf
elder
eldorado
ele
electric
electrical
electro
electrode
electronic
elektra
elektraunan
elektrisch
elektrischa
elektrische
elektrisches
elektrischn
elektrizita
elektro
elektrodn
elektromagnetische
elektromotoa
elektron
elektronen
elektronik
elektronisch
elektronische
elektronischn
elektrotechnik
element
elementary
elemente
elementn
elements
elena
elend
eleonore
elf
elfenbeinku
elfie
elfriede
eli
elias
eliot
elis
elisabeth
elise
elite
elizabeth
elk
elke
elko
ell
ella
elle
ellen
ellingen
elliot
elliott
ellis
ellsworth
elm
elmar
elmo
elmore
elmwood
elon
elpersdorf
els
elsa
elsass
elsava
else
elsenfeld
elsevier
elst
elster
eltern
eltmann
elvis
elwood
em
ema
emanuel
emanuele
emanzipiad
embedded
emdo
emerson
emfois
emi
emil
emilia
emilie
emilio
emir
emirate
emission
emma
emmanuel
emmeram
emmerich
emmerting
emmy
emoji
emotion
empfa
empfanga
empfaungsraum
empfindlich
empfoin
empfundn
empire
empirismus
emsee
emskirchen
emso
en
ena
enagie
enciclopedia
encyclopaedia
encyclope
encyclopedia
encyclopædia
end
endan
endangered
endarung
endarunga
endd
ende
endeckt
endet
endgu
endguitig
ending
endli
endlich
endn
endorf
endpunkt
endrundn
endsee
endt
endung
endunga
ene
energi
energie
energy
enero
eng
enga
engagement
engagiat
engan
enge
engel
engelbert
engelhardt
engelmann
engels
engine
engineering
engl
engla
england
englaund
englenda
englewood
englisch
englischa
englische
englischen
englischer
englisches
englischn
englischsproching
english
eni
enk
enka
enkal
enkel
enkl
enklave
enklavn
enlarged
enna
enns
ennstoi
enrico
enrique
ens
ensemble
ensembles
enstandn
enstondn
ent
entdecka
entdeckd
entdecken
entdeckt
entdeckung
ente
enterprise
entertainment
entfeand
entfeant
entfeante
entfeanung
entferne
entfernt
entfernung
entfoin
entfu
entgeng
entha
enthaltend
entho
enthoid
enthoidn
enthoit
enthoitn
enthu
enti
entlang
entlaung
entlong
entlossn
entrance
entre
entropie
entry
entscha
entschdaundn
entscheidend
entscheidn
entscheidt
entscheidung
entscheidunga
entscheidungen
entschidn
entschiedn
entschlossn
entschtenga
entsendn
entsetzt
entsprecha
entsprechand
entsprechande
entsprechend
entsprechende
entsprechendn
entsprechn
entsprechnd
entsprechnde
entsprechndn
entsprechung
entsprichd
entspricht
entspringa
entspringd
entspringt
entsprochn
entsta
entstand
entstanden
entstandn
entstaund
entstaundn
entsteh
entstehn
entsteht
entstehung
entstenga
entstengan
entstommt
entstondn
entta
entwa
entwassad
entweda
entweder
entwickelt
entwicket
entwickla
entwickld
entwickln
entwicklt
entwicklung
entwicklunga
entwicklungsprogramm
entwigget
entwiklung
entwu
entwuaf
entwurf
entzong
entzu
environment
environmental
eny
enzensberger
enzian
enzo
enzyklopa
eo
eos
ep
epfe
epfendorf
ephesos
ephraim
epi
epic
epidemie
episcopal
episode
episoden
episodn
epn
epoche
epochn
epos
epp
eppa
eppan
eppas
epping
epps
eps
epsilon
epte
equatorialguinea
equis
equivalente
er
era
eran
erasmus
erath
erb
erba
erbaut
erbe
erben
erbfoigekriag
erbfolgekriag
ercolano
erd
erda
erdbeben
erde
erden
erding
erdmann
erdn
erdo
ere
ereaffnat
erebos
erectus
ereffnung
ereignis
ereignisse
eremitage
erfinda
erfinder
erfindung
erfoig
erfoige
erfoigreich
erfoigreichste
erfoigreichstn
erfoigt
erfolg
erfolge
erfolgreich
erforderlich
erforschung
erfu
erfuid
erfunden
erfundn
erfurt
erg
erga
ergaster
ergebnis
ergebniss
ergebnisse
ergem
ergersheim
ergibt
ergo
ergolding
ergoldsbach
erha
erhalten
erhard
erharting
erhebung
erho
erhobm
erhobn
erhoit
erhoitn
erholungsgebiet
erhom
eric
erich
erie
eriesee
erik
erika
erin
erinnan
erinnarung
erinnat
erinnern
erinnert
erinnerung
erinnerungen
eris
eritrea
erkenna
erkennen
erkennt
erkla
erl
erla
erlach
erlanga
erlangen
erlanger
erlangt
erlaubt
erlbach
erlebt
erlenbach
erlenfurt
erlo
erm
erma
ermdoaf
ermitteln
ermittelt
ermland
ermordung
ern
erna
ernannt
erneit
ernennung
ernest
ernesto
erni
ernst
ernte
ero
erobert
eroberung
eros
erosion
erotische
erp
errega
erreicha
erreicht
erricht
errichtet
errichtn
errichtung
error
errungen
ersatz
ersch
erschde
erschdn
erscheint
erscheinung
erschien
erschiena
erschienen
erscht
erschte
erschtn
ersetzt
erst
ersta
erstauflage
erstausgabe
erste
ersten
erster
erstes
erstmals
erstmois
erstn
erstreckt
ert
eruler
erw
erwa
erwartungen
erweitarung
erweitat
erweitert
erweiterte
erweiterung
erweschbo
erwin
erza
erzberg
erzbischef
erzbischo
erzbischof
erzbisdum
erzbistum
erzbistums
erzdio
erzengel
erzherzog
erziehung
erzo
erzstift
es
esbach
esch
eschau
eschenbach
eschn
eschtareich
esclusa
escp
esel
eska
eske
eskimo
esky
esl
espan
esperanto
ess
essai
essay
essays
esselbach
essen
essential
essex
essig
esslingen
essn
essonne
est
esta
estadi
estado
estareich
estareicha
estareichisch
estareichischa
estareichische
estareichischer
estareichischn
estarreich
estarreichischn
estate
estates
estati
este
ester
esterha
esterhazy
esterraich
esterreich
esther
estimates
estland
estle
estli
estlich
estlicha
estliche
estlichn
estlichste
estlign
estlinga
estnisch
estnische
estnischn
estreich
estreichischa
estreichischn
estw
eswatini
esztergom
et
eta
etabliad
etablian
etabliat
etabliert
etappe
etappn
etc
eth
ethik
ethiopia
ethiopien
ethische
ethnic
ethnie
ethnien
ethnisch
ethnische
ethnischn
ethnogenese
ethnologie
ethnologue
etienne
etla
etliche
etruskische
etsch
ettal
ettenstatt
ettl
etwa
etwas
etwoa
etwos
etymologie
etymologisch
etymologisches
etz
etzad
etzelwang
etzenricht
eu
euch
euge
eugen
eugene
eulenspiegel
eupen
euphrat
eur
eurasburg
eure
euregio
eureka
euro
europa
europamoastaschaft
europapokal
europas
europe
european
europeana
eurostat
eurovision
eusebius
ev
eva
evang
evangelien
evangelisch
evangelischa
evangelische
evangelischen
evangelischer
evangelischn
evangelist
evangelium
evans
evci
eve
evelyn
even
evening
event
events
eventuej
eventuo
ever
everest
everett
evergreen
every
evidence
evil
evo
evolution
evolutiona
evolutionary
evski
evtl
ew
ewald
ewane
ewig
ewige
ewigen
ewigkeit
ewign
ewing
ex
exakt
exakte
excel
excelsior
exchange
executive
exemplar
exemplare
exemplarn
exhibition
exhortatio
exil
exile
exisdiad
existenz
existiad
existian
existiat
existiern
existiert
exklave
exklaven
exklavn
exotische
expansion
expedition
experience
experiment
experimente
explizit
exploration
explore
explorer
explosion
export
exportproduktt
expositur
express
expressionismus
expressway
ext
extensive
extra
extrem
extrema
extreme
extrig
exulanten
exulantn
exzellenz
ey
eye
eyes
eyn
ez
f
fa
faber
fabian
fabindung
fabius
fabrik
fabrikant
fabrikn
fabrizio
fabundn
face
facebook
fach
fachhochschui
fact
factbook
factfinder
facto
factory
facts
fad
faden
fadreta
fadrim
faendat
fafoigt
fagaungenheit
fagessn
fahn
fahna
faho
fahr
fahren
fahrn
fahrstroafan
fahrt
fahrzeig
faia
fair
fairbanks
fairfax
fairfield
fairmount
fairview
fait
faith
fakoly
faksimile
faksimiles
fakten
faktisch
faktn
faktor
fakulta
fal
falaise
falco
falcon
falera
falk
falkenberg
falkenstein
falkland
falklandinsln
fall
falle
fallen
falling
falls
fallt
faloan
falog
falossn
falsch
falsche
false
falsely
falster
falter
fam
fame
famij
famijn
famijnam
famijnama
famijname
famil
familia
familie
familien
family
famu
fan
fanclub
fand
fanderl
fanes
fang
fanga
fangt
fannin
fanny
fano
fans
fanseitn
fantasia
fantasie
fantasy
fao
faq
far
farb
farbe
farben
farbentrogend
farbn
farch
farchant
farchat
farchn
farin
farkas
farm
farmen
farmers
farmington
farms
faro
faroeislands
fasan
fasbender
faschdee
faschidane
faschidanen
fasching
faschingsnacht
faschismus
faschwundn
faso
fass
fassad
fassadn
fassbinder
fassl
fassung
fast
fasuacht
faszination
fat
father
fatty
faulbach
faulkner
faun
fauna
faungan
faunghaxn
faungt
faust
favianis
favoriten
favoritn
favoritna
favoritner
fawaunt
fawendn
fawent
fawoitung
fayard
fayette
fayetteville
faz
fazit
fb
fc
fcbayern
fd
fdl
fdn
fdp
fe
fea
feadan
feadarung
feade
feadinand
feana
feansa
feansehfuim
feansehn
feansehsenda
feansehserie
feanseng
feanstroß
feat
feati
featich
featig
featiggstejd
feature
features
feb
feba
februa
februar
february
fechenbach
fechter
feda
fedan
feder
federal
federation
federer
federico
federl
fedora
fee
feed
feen
feenball
fehde
fehla
fehlen
fehler
fehlt
fehltvorlage
fehring
fei
feia
feiadog
feialand
feialich
feian
feiat
feiawea
feiaweah
feiawehr
feiawehrhaus
feicht
feichten
feichtigkeit
feichtn
feier
feiern
fein
feina
feind
feinde
feine
feingehoid
feira
feistritz
fej
fejd
fejda
fejder
fejdherr
fejdkira
fejdmoching
fejdzug
fejn
fejs
fejsn
fejt
fekla
feklabruk
fekt
fektua
fektuan
fektur
felchbach
feld
feldafing
feldartillerieregiment
feldbach
felde
felder
feldkahl
feldkirch
feldkirchen
felfing
felice
feliciana
felipe
felix
fell
fellen
fellini
fels
felsen
felso
female
feminin
feminina
feminismus
fen
fenberg
fendrich
feng
fenomen
fensta
fenstaln
fenster
fentress
fer
ferdinand
ferdinando
ferdinands
ferdl
ferenc
ferguson
ferien
fering
fermo
fern
ferna
fernand
fernando
ferne
ferner
fernrohr
fernsa
fernsegn
fernsegnfuim
fernseh
fernsehen
fernsehfilm
fernsehmoderator
fernsehn
fernsehpreis
fernsehsendung
fernsehserie
fernsehserien
fernseng
fernsteuerung
ferrara
ferrari
ferreira
ferry
fersental
ferte
fertegsto
fertig
fertign
ferto
fesch
fesche
fescht
fesde
fesl
fest
festa
feste
festg
festgelegt
festghoidn
festghoitn
festglegd
festglegt
festglegtn
festgnumma
festgstejd
festgstejt
festgsto
festigkeit
festigkeitsklassn
festival
festivals
festl
festland
festlegung
festln
festlond
festn
fests
festschrift
festsetzung
festsoi
festspiele
festspu
festspui
feststo
festung
fet
fett
fettn
fetzn
feucht
feuchtwangen
feuer
feuerbach
feuereisen
feuerland
feuilleton
fewa
ff
ffa
ffel
ffentlich
ffentliche
ffentlichen
ffentlichkeit
ffentlichn
ffentlicht
ffentlichte
ffentlichung
ffentlichungen
ffh
ffl
ffler
ffn
ffnet
ffnete
ffnung
fg
fh
fi
fia
fiacht
fiachtn
fiad
fiah
fiahd
fiahn
fiahra
fiahrt
fiahrung
fiaht
fiakaliad
fiakimmt
fiama
fiamen
fian
fiar
fiara
fiaran
fiarstnfoidbruck
fiarung
fias
fiascht
fiaschtn
fiaschtndum
fiaschtntum
fiass
fiassa
fiastn
fiat
fiate
fiath
fiaß
fichtelgebirge
fichtn
ficker
fiction
fidel
fidelis
fidschi
fiedler
field
fields
fier
fierek
fiesta
fifa
fifth
fig
fighter
figua
figuan
figueres
figur
figuren
figures
figurn
fihrt
fiisch
fiischfong
fiktive
fiktivn
fil
filaicht
filaments
file
fileadmin
files
filiale
filialkiach
filialkira
filialkirch
filip
filippo
fillmore
film
filme
filmfestspiele
filmkritik
filmography
filmportal
filmpreis
films
filmtage
filosofi
filser
fimbf
fimcap
fimf
fimfe
fimfte
fin
final
finale
finance
financial
finanz
finanzamt
finanzen
finanziad
finanziarung
finanziat
finanzielle
finanzio
finanzn
find
findd
finden
finder
findet
findn
findst
findt
findts
fine
finf
finga
finger
finiste
fink
finland
finlay
finn
finna
finnisch
finnische
finnischn
finnland
finnmark
finno
finstan
finsternis
fint
fintet
fintn
fips
fir
fira
fire
firenze
firma
firmen
firmian
firn
firs
firscht
first
firth
fis
fisch
fischa
fischach
fischarei
fischau
fischbachau
fischen
fischer
fischn
fish
fisher
fishman
fitz
five
fix
fixe
fjodor
fjodorowitsch
fjord
fjordane
fjorde
fk
fl
fla
flaccus
flache
flachn
flachs
fladungen
flag
flageolett
flagge
flaggen
flaggn
flags
flagstaff
flair
flames
flamme
flandern
flanitz
flasche
flaschn
flash
flat
flathead
flatza
flavius
fle
fleah
flech
flechn
fleck
fleckn
fleisch
fleischer
fleischmann
fleming
fletcher
fletn
fleury
flexion
fliaga
fliagn
fliagt
fliang
fliangschwammal
fliassd
fliassn
fliasst
fliaßd
fliaßn
fliaßt
fliaßta
fliche
flichen
fliches
flichn
flichtling
flichtn
flickr
fliegen
fliegl
flight
fligl
flint
flintn
fliss
flissal
flissigkeit
flo
floch
flochau
floche
flochgau
flochn
floh
flohic
flood
flora
floraweb
florence
florenz
flores
florian
florida
floridsdorf
floschn
flottn
flour
flower
flowers
floyd
floß
flu
flucht
flug
fluggsejschoft
flugha
flughafen
flughafn
flughofm
flughofn
flugplatz
flugplotz
flugzeig
flugzeugbau
flur
flurnoma
flus
fluss
flussbett
flussdichtn
flusses
flussgebiet
flussgebiete
flussla
flusslaff
flusssystem
flut
flute
fluß
fly
flying
fm
fn
fo
foa
foab
foabai
foabm
foah
foahdienstleita
foahea
foahn
foahplaun
foahra
foahst
foahstrossn
foaht
foahtn
foahweg
foahzeig
foam
foama
foaman
foamat
foamen
foami
foan
foarb
foarbm
foarn
foart
foarzeig
foascha
foaschung
foastwirtschoft
foat
foatsetzung
foch
fochn
fochzeidschrift
fock
focus
fodn
foggia
fohra
fohrn
foi
foid
foig
foigadn
foigande
foigandn
foigd
foige
foigende
foigenden
foigendes
foigendn
foigezeid
foiglich
foign
foignde
foignden
foigndn
foigt
foik
foin
foing
foingda
foingde
foingdn
fois
foisch
foische
foischn
foit
foita
foiweis
fokus
foley
folge
folgen
folgende
folgenden
folgt
folgte
folie
folio
folk
folkekirkemedlemsskab
folketal
folklore
folkma
folkways
foll
folngatn
folsom
fom
fon
fond
fondo
fonds
fongd
fongt
fons
fonseca
fontaine
fontainebleau
fontana
fontane
food
football
for
forall
forb
forbes
force
forces
forchbach
forchheim
ford
fordelt
fore
foreign
forest
forever
forint
fork
forks
forli
form
forma
formal
format
formate
formation
formel
formen
former
forrest
forscha
forscher
forschung
forschungen
forschungszentrum
forst
forster
forsthaus
forstwiatschoft
forstwirtschaft
forstwirtschaftli
forsyth
fort
forth
fortis
fortran
fortschreibung
fortschritt
fortsetzung
fortuna
fortunatus
forum
forøya
fosanegl
fosching
fosd
fosen
fossilien
fossn
fosst
fossu
fossung
fost
foster
fota
foto
fotogalerie
fotograf
fotografie
fotografien
fotos
fouge
found
foundation
fountain
four
fourth
fowler
fox
foxe
foßt
fpo
fr
fra
frac
frage
fragen
fragment
fragmente
fraind
fraising
fraisinga
fraktion
fraktiona
fraktionen
frakzio
frakzion
fran
franc
franca
france
frances
francesco
franche
francis
francisco
franciszek
franck
francke
franckh
franco
franconia
franconica
frangn
frank
franken
frankenho
frankenmuth
frankenpost
frankenwald
frankenwinheim
frankfort
frankfuat
frankfurt
frankfurta
frankfurter
franklin
frankn
franknkini
franknreich
frankreich
frans
frantis
franz
franza
franze
franzeasischa
franzeasische
franzejsisch
franzesisch
franzesischa
franzesische
franzesischen
franzesischn
franzesischs
franziska
franziskana
franziskus
franzl
franzo
franzos
franzosen
franzosn
frascati
frasdorf
fraser
frau
fraua
frauan
frauanau
frauen
frauenau
frauke
fraun
fraunberg
fraunhofer
fraunkn
fraunkreich
fraunz
frauw
frazioni
fre
frech
fred
frederic
frederick
frederik
frederking
fredl
fredrik
free
freebsd
freedom
freeman
freepascal
freestone
freetown
fregattn
freguesias
frei
freia
freiberg
freibod
freiburg
freid
freida
freidog
freie
freien
freier
freies
freigem
freiheit
freiheitn
freiherr
freiherrn
freilassing
freile
freili
freiliachtmuseum
freilich
freilichtmuseum
freimut
frein
freinademetz
freind
freindin
freindli
freindlich
freindschoft
freing
freis
freising
freisinga
freisinger
freistaat
freistadt
freistod
freistoot
freitag
freitod
freiwillig
freiwillige
freiwillign
freiwu
freizeit
freja
fremd
fremda
fremde
fremden
fremdingen
fremdn
fremdnvakea
fremdsproch
fremdweata
fremont
french
frenkisch
frenkische
frenkischn
frequenz
frequenzn
fresh
fresken
freskn
fresko
fressn
freud
freude
freudenberg
freudenthal
freund
freunde
freunden
freundschaft
frey
freyr
freyung
frhr
fria
friaa
friaan
friacha
friachan
friachare
friah
friaha
friahan
friahare
friahe
friaher
friahn
friahra
friahre
frian
friara
friaran
friarane
friaras
friare
friaul
fribberg
friberg
fribourg
fricha
fricht
frida
friday
fridelli
fridn
fried
friedberg
friede
friedemann
frieden
friedens
friederike
friedho
friedhof
friedl
friedn
friednsvatrog
friedrich
friend
friends
friendship
fries
friesenbach
friesisch
friesischn
friesland
frigg
friha
frija
frikativ
frio
frisch
frische
frischn
friseur
frisst
frist
frisua
fritsch
fritz
friuli
fro
frog
froglichn
frogn
frogt
froh
from
fromm
fromme
fron
frong
frongafo
fronkreich
front
frontier
fronto
fronz
frosch
frosinone
frost
frosty
fru
frua
fruah
fruahjoahr
fruahjoar
fruajoa
fruajoar
frucht
fruchtboa
fruchtboan
fruchtfleisch
fruchtsa
fruit
frysla
frz
fs
fsho
fstetten
ft
fta
fte
ften
fter
ftich
fticht
ftig
ftign
ftigt
ftigte
ftigtn
ftigung
ftlarn
ftlich
ftliche
ftling
ftlinge
ftn
ftp
ftsfu
fu
fua
fuada
fuam
fuaman
fuaml
fuamln
fuas
fuascha
fuass
fuassboi
fuassboispuia
fuat
fuaß
fuaßballa
fuaßboi
fuaßboiklub
fuaßboispuia
fuaßboitraina
fuaßboivaein
fuaßboivarein
fuaßbolla
fuaßga
fuchs
fuck
fud
fuer
fuerte
fuge
fugger
fughetta
fugue
fuhrmann
fui
fuigande
fuigandn
fuigendn
fuijm
fuim
fuime
fuimemocha
fuimmocha
fuimpreis
fuimproduzent
fuimregisseur
fuin
fuji
fujiwara
fuks
fulda
fuldaer
fulgt
full
fuller
fulpmes
fulton
fum
fun
function
fund
fundament
funde
fundn
fundort
fundsto
fung
fungiad
funk
funke
funktiaun
funktion
funktiona
funktionalismus
funktionan
funktionen
funktioniad
funktioniat
funktioniert
funkzion
funkzioniad
furlanisch
furm
furma
furnace
furness
furt
furth
fury
fusion
fusioniad
fussballdaten
futbolo
futsal
futur
futurama
future
fux
fuß
fußball
fußballspieler
fv
fw
fwg
fy
fylke
fyr
føroya
g
ga
gaal
gab
gabeest
gabi
gabriel
gabriele
gabriella
gabun
gach
gachn
gackt
gadsden
gagarin
gai
gaia
gaibon
gaillarde
gailroth
gaines
gainesville
gaisberg
gaius
gal
gala
galaxie
galaxien
galaxies
galaxy
galerie
galerien
galicia
galicien
galicisch
galicischn
galien
galilei
galileo
galing
galizien
gall
gallatin
gallen
galleria
gallery
galli
gallia
gallien
gallier
gallimard
gallischn
gallmersgarten
gallmeyer
gallo
galloway
gallus
galt
galvanic
galveston
gambia
game
games
gamma
gams
gamsboart
gamsna
gan
gana
ganda
gang
ganga
ganges
ganghofer
gans
ganymed
ganz
ganza
ganze
ganzen
ganzn
gaoyuan
gap
gar
garage
garbagnate
garbat
garbo
garching
garchinger
garci
garcia
gard
garda
garde
garden
gardens
gardner
garfield
gari
garibald
garibaldi
garin
garland
garmasch
garmisch
garner
garnison
garonne
garrett
garry
gars
garten
gartenbau
gartn
gartner
garung
gary
garza
gas
gase
gasse
gassen
gast
gastein
gasteiner
gastenfelden
gasthaus
gasthof
gaston
gastronomie
gaststa
gat
gate
gates
gateway
gatscher
gatt
gattendorf
gattin
gattung
gau
gauck
gaude
gaudi
gaues
gaugau
gauna
gaung
gaunga
gaungan
gauns
gaunz
gaunza
gaunze
gaunzes
gaunzn
gauting
gave
gay
gazette
gazetteer
gb
gbar
gboan
gbuan
gbuat
gd
gde
gdicht
gdp
ge
gea
geabt
geahn
geaht
geam
geamanen
geamanische
geamanischn
geamanistik
geamdoag
gean
geaschtn
geat
geatn
geb
geba
gebaide
gebaidn
gebaut
gebeide
geben
geber
gebet
gebhard
gebhardt
gebiag
gebiage
gebiagskettn
gebiagszug
gebiat
gebid
gebiet
gebiete
gebietn
gebiets
gebietskeapaschoftn
gebietsrefoam
gebietsreform
gebietsstand
gebietstei
gebirg
gebirge
geblieben
gebm
gebn
geboan
geboren
geborn
gebot
gebote
gebra
gebracht
gebraichli
gebraichliche
gebrauch
gebrochen
gebru
gebsattel
gebt
gebts
gebu
gebuan
gebuat
gebuatsdog
gebuatsort
geburt
geburtsdog
geburtshaus
geburtsort
geburtstag
gecha
geck
ged
geda
gedanken
gedankn
gedda
geddin
geddliche
geddlign
gedenkdog
gedenkmu
gedenkn
gedenksta
gedicht
gedichte
gedichten
gedichtl
gedichtln
geds
gee
geeignet
geem
geest
geet
gefa
gefahr
gefahren
gefallen
gefiahrte
gefu
gefunden
geg
gega
gegan
gegand
gegandn
gegangen
gegeben
gegen
gegend
gegendn
gegensatz
gegensta
gegenu
gegenwa
gegenwart
gegn
gegna
gegnan
gegnd
gegndn
gegner
gegniba
gegniwa
gegnsatz
gegnsotz
gegnsta
gegntei
gegr
gegru
geh
geha
gehalten
gehd
gehds
geheim
geheime
geheimnis
geheimnisse
gehen
gehm
gehn
geho
gehrels
gehst
geht
gehts
gei
geiersberg
geiga
geiger
geign
geis
geisa
geiselbach
geisenfeld
geist
geista
geistastod
geister
geistes
geisteswissnschoftn
geistig
geistige
geistinger
geistlicha
geistliche
geistlichn
gejb
gejbe
gejd
gejt
gejtn
gekommen
geku
gel
gela
gelb
gelbe
geld
gele
gelegenheit
gelegentlich
gelehrta
gelernt
gelesen
geliebte
geller
geln
gelt
gelungen
gem
gema
gemacht
gemahlin
gemainsaum
gemarkung
gemarkunga
gemeinde
gemeindebau
gemeindebeziak
gemeindegebiet
gemeinden
gemeindeschlu
gemeindeteile
gemeindeverband
gemeindeverzeichnis
gemeindn
gemeine
gemeinfeld
gemeinsa
gemeinsam
gemeinsame
gemeinsamen
gemeinsaum
gemeinschaft
gemeintn
gemessen
gemina
gemischten
gemu
gen
genanndn
genannt
genannte
genaral
genarazion
genaro
genaroi
genau
genaua
genauaso
genaue
genauen
genauer
genauso
gend
gendat
gendt
gene
genealogie
genealogy
genehmigung
genera
generai
general
generalleutnant
generalmajor
generalsekreta
generalstab
generation
generator
generazio
generazion
generej
generell
generoi
generoirod
genesee
genesis
genetic
genetisch
genetische
geneva
genf
genfa
geng
genga
gengad
gengan
gengans
gengd
gengdn
gengiba
gengiwa
gengsatz
gengsotz
gengsoz
gengsta
gengstand
gengstond
gengt
gengu
gengwa
gengwoat
genie
genitif
genitiv
genius
gennaro
genommen
genre
genres
gent
genua
genug
genuki
genus
genuss
genwiki
geo
geoda
geodaten
geoffrey
geograf
geografi
geografia
geografie
geografikum
geografisch
geografische
geografischn
geographic
geographical
geographie
geographisch
geographische
geographischer
geographisches
geography
geoinformation
geologe
geological
geologie
geologisch
geologische
geology
geometrie
geometrische
geonames
geoportail
geoportal
geordnet
georg
george
georgen
georges
georgetown
georgi
georgia
georgien
georgios
georgisch
geotop
gepflegt
gepidn
geplant
gepo
gepra
gepru
geq
ger
gera
gerade
gerais
gerald
gerard
gerber
gerd
gerda
gerecht
gerechtigkeit
gerhard
gerhart
gericht
gerichte
gerichts
geringa
geringe
gerlach
germ
germain
german
germanen
germania
germanisch
germanische
germanischen
germanischn
germanistik
germantown
germany
gern
gernot
gero
gerold
gerolfingen
gerolzhofen
gerrit
gers
gerschn
gert
gertraud
gertrud
gertrude
geru
gervais
gerzen
ges
gesa
gesagt
gesammelt
gesammelte
gesamtansicht
gesamtausgabe
gesamte
gesamten
gesang
gescha
geschicht
geschichte
geschichten
geschichtliche
geschichtlichen
geschichtsbla
geschlecht
geschrieben
geschu
geschwu
gesehen
geselligkeit
gesellschaft
gesellschaftlichen
gesetz
gesetze
gesetzt
gesicht
geslau
gespenst
gespielt
gespra
gessertshausen
gessn
gest
gesta
gestalt
gestalten
gestaltung
gestern
gestn
gestohlen
gestorben
gesucht
gesundheit
get
geteilt
gethan
geto
getra
getreide
getrennt
getta
gettin
gewa
gewalt
gewerbe
gewerbegebiet
gewerbesteia
gewesen
gewicht
gewichte
gewichtskunde
gewidmet
gewinn
gewinne
gewinner
gewinnung
gewisse
gewitter
gewo
gewoadn
geworden
gewu
geyer
geysir
gf
gfa
gfahrn
gfanga
gfangt
gfaunga
gfaungane
gfeadat
gfecht
gfeiad
gfeiat
gfeiert
gfejad
gfejat
gfengnis
gfesslt
gfiacht
gfiad
gfiahd
gfiahrt
gfiaht
gfiat
gfihrt
gfind
gflicht
gflohn
gflong
gflossn
gfo
gfoa
gfoadat
gfoah
gfoahn
gfoan
gfoar
gfoarn
gfohn
gfoigd
gfoigt
gfoin
gfoina
gfonga
gfongt
gfosst
gfreid
gfreit
gfressn
gfrogt
gfu
gfuamt
gfui
gfuimt
gfulgt
gfund
gfunden
gfundn
gfunna
gfuntn
gfurmt
gg
gge
gger
ggf
gha
ghaassn
ghaaßn
ghabt
ghairat
ghaltn
ghana
ghandlt
ghaundlt
ghaut
ghaßn
ghead
gheads
ghean
gheand
gheande
gheandn
gheard
ghearn
gheart
gheascht
gheat
gheats
ghebt
ghega
gheirat
gheitsmaument
ghejad
ghejan
ghejat
ghengt
ghern
gherrscht
gherscht
ghert
ghetto
gho
ghoassn
ghoaßn
ghob
ghobd
ghobt
ghod
ghoid
ghoidn
ghoifa
ghoiffa
ghoifn
ghoissanan
ghoissn
ghoit
ghoitn
gholtn
ghom
ghost
ghot
gi
gia
giacomo
gian
gianni
giant
giasing
giata
giatl
gib
gibb
gibbs
gibd
gibds
gibraltar
gibs
gibson
gibt
gibts
gibz
gidius
giebt
gießen
gifford
gifrance
gift
giftig
gig
giga
gignod
gil
gilbert
giles
gilgamesch
gill
gillamoos
gilles
gillespie
gillian
gilmer
gilmore
gilt
gin
gina
ging
gion
giordano
giorgio
giovanna
giovanni
gip
gipfe
gipfekreiz
gipfel
gipfen
gipfl
gips
girard
girardi
girk
girl
girls
giro
girolamo
girona
gironde
girtler
gis
gisela
git
gita
gitaa
gitarr
gitarre
gitarren
gitarrist
gitarristn
gitarrn
github
gits
gitsch
gitta
gitti
giuliano
giulio
giuseppe
give
giz
gj
gja
gjo
gjogt
gl
gla
glaabt
glaam
glabt
glacier
gladbach
glaffa
glai
glaibiga
glaich
glam
glan
gland
glanda
glangt
glanz
glarinettn
glas
glaser
glasgow
glashu
glasl
glasln
glasofen
glass
glassham
glattbach
glatten
glaub
glaube
glauben
glaubm
glaubn
glaubst
glaubt
glaum
glawischnig
gle
gleanane
gleand
gleant
glearnt
glebd
glebt
gleeng
glegane
glegd
glegn
glegt
glei
gleich
gleicha
gleiche
gleichen
gleicher
gleichgsetzt
gleichgwicht
gleichheit
gleichlost
gleichma
gleichn
gleichnamige
gleichnamigen
gleichnamign
gleichnaming
gleichnomige
gleichnomign
gleicht
gleichung
gleichungan
gleichzeidig
gleichzeite
gleichzeiti
gleichzeitich
gleichzeitig
gleinamige
gleinaming
gleis
gleisfreimo
gleisn
gleit
gleitet
gleizeidig
gleizeiti
glen
glendale
gleng
glenga
glenge
glengna
glengne
glenn
glenwood
gler
glernt
glesn
gletscha
gletscher
gli
gliadat
glich
gliche
glichkeit
glichkeiten
glichkeitn
glichn
glichst
glick
glickli
glicklich
gliedad
gliedan
gliedarung
gliedat
gliederungen
gliefat
gling
glingt
glise
glittn
glland
glo
gloa
gloan
gloana
gloane
gloans
global
globalsportsarchive
globe
glock
glockn
glocknspui
glockntuam
glodn
glogat
glogau
glongd
glongt
glonn
gloria
glory
glos
glosda
gloshittn
glosmocha
glossar
glossn
gloucester
gloucestershire
glousta
glu
glubbal
gluck
glunga
glyptothek
gm
gma
gmaant
gmachd
gmacht
gmant
gmbh
gmeakt
gmeinde
gmeindn
gmeiner
gmejde
gmejdegalerie
gmerkt
gmessn
gmeß
gmias
gmina
gmisch
gmischt
gmo
gmoa
gmoadatn
gmoaedikt
gmoafreie
gmoafreien
gmoafreies
gmoafrein
gmoagebiet
gmoagebietsrefoam
gmoagebietsreform
gmoagemarkung
gmoagrenz
gmoah
gmoan
gmoana
gmoand
gmoant
gmoara
gmoarat
gmoarod
gmoarot
gmoasam
gmoasama
gmoasame
gmoasaum
gmoaschaft
gmoaschoft
gmoaschoftn
gmoasom
gmoasome
gmoastatistik
gmoasteiaeinahma
gmoasteiaeinahmen
gmoatail
gmoatei
gmoateile
gmoavaband
gmoavabindungsstroß
gmoavabindungsstroßn
gmoavabond
gmoavawoitung
gmoawesn
gmochd
gmocht
gmoi
gmoin
gmoint
gmoit
gmu
gmua
gmunden
gmundn
gn
gna
gnack
gnaeus
gnannt
gnau
gnaua
gnaue
gnaunnt
gnaunt
gnauso
gnd
gneigd
gneis
gnejchtn
gnend
gnennd
gnennde
gnenndn
gnennt
gnennte
gnenntn
gnia
gnis
gnome
gnomma
gnonnt
gnt
gnu
gnua
gnuag
gnuma
gnumma
gnumman
gnutzd
gnutzt
gnutzte
gnutzten
gnutztn
gnuzd
gnuzt
gnuzzt
go
goa
goabat
goaned
goar
goartn
goas
goat
goatn
goawad
goawat
goaß
goaßlschnoizn
gob
god
goda
godchaux
goddard
goddung
godehard
gods
godsmack
goes
goethe
goethes
goggolori
gogh
goi
goia
goid
goidana
goidanan
goidane
goidanen
goidans
goidmu
goidn
goidna
goidnan
goidne
goidnen
goidstandard
goif
goig
goignbeag
going
goisern
goitn
gold
goldbach
goldberg
goldegg
golden
goldene
goldenen
goldener
goldmann
golem
golf
goliad
gollhofen
golling
golo
gona
gondrell
gondrom
gondwana
gone
gong
gonga
gonz
gonza
gonzales
gonze
gonzn
goo
good
google
goose
gopfad
gor
gorbad
gorbat
gorch
gordon
gorge
gorkha
gortn
gorwat
gos
gosau
goschdei
goschdeina
goshen
goslar
gospel
gossn
gost
gosthaus
gosthof
goststa
gosławski
got
goten
gotha
gotham
gothia
gotik
gotisch
gotische
gotischen
gotischn
gotland
gotn
gotnburg
gott
gottes
gotteshaus
gotteszell
gottfried
gotthard
gottko
gottlieb
gottlob
gottschalk
gottsched
gottung
gotzai
goud
gouv
gouvernement
gouvernements
gouverneur
gov
governance
government
governor
goya
gpl
gps
gr
gra
grab
graben
grabensta
grabfeld
grace
grad
gradis
grady
graf
grafanau
grafen
grafenau
grafenwiesen
grafenwo
graffiti
grafik
grafika
grafikn
grafing
grafische
grafling
grafn
grafrath
grafschaft
grafton
graham
grainger
gramatik
grameen
gramm
grammar
grammatik
grammatika
grammatische
grammy
gran
granada
grand
grande
grandview
grandvilliers
grange
granit
granite
grant
grantham
granti
grantla
granville
graph
graphische
graphn
graphntheorie
gras
grass
grassau
grasset
grat
grateful
gratis
grattersdorf
grattla
grau
graubu
graue
graun
grave
graves
gravitation
gray
grays
grayson
graz
graza
grazer
graziano
gre
grea
greabeag
grean
greana
greanan
greane
greanen
greans
great
greater
greatest
greawoid
greaß
greaßan
greaßare
greaßte
greaßtn
grechnat
grechnet
grechnt
gred
gredd
greding
gredt
gree
greek
greeley
green
greenbrier
greene
greenfield
greenland
greenville
greenwich
greenwood
greeweiwal
grefefing
greg
gregg
greglt
gregor
gregorianische
gregorianischn
gregorio
gregory
greicht
greif
greifn
greifswald
greift
greisfreie
greiz
grejssan
grejssta
grejsste
grejsstn
gremium
grenada
grenadinen
grenland
grennt
grenoble
grenz
grenzboch
grenzd
grenze
grenzen
grenzfluss
grenzgebiet
grenzibagang
grenzn
grenzt
grenzwert
gresdn
gress
gressa
gressan
gressane
gressare
gressas
gressde
gressdn
gressn
gressta
gresste
gresstn
gret
greta
gretl
grett
grettstadt
grevenmacher
grey
greß
greßa
greßan
greßane
greßare
greßn
greßt
greßta
greßte
greßten
greßtn
greßtnteis
gri
griach
griachaland
griachisch
griachischa
griachische
griachischen
griachischn
griachn
griag
griagd
griagn
griagt
griang
grias
griasboch
griawig
griaß
grichisch
grichischn
gricht
grichte
grichtetn
grichtsbeziak
grichtsbezirk
grichtsboakeit
grichtshof
grichtsmedizina
griech
griechen
griechenland
griechisch
griechischa
griechische
griechischen
griechischn
griechn
gries
grieser
grieskirchen
grießer
griff
griffen
griffin
grifo
grigori
grigorjewitsch
grill
grillparzer
grimes
grimm
grimme
grin
grind
grinda
grindd
grindde
grinddn
grinder
grindet
grindn
grindt
grindte
grindtn
grindung
grindungsmitglied
gring
gringa
gringan
gringe
grint
grinzing
grischun
grisdus
grissn
grist
griuc
gro
groana
groast
groaß
groaßa
groaße
groaßglockner
groaßn
grob
groba
grobe
grobm
grobn
grod
grode
grodn
groeneveld
groening
grof
grofanau
grofn
grofschoft
grofschoftn
grois
grom
grompm
groninga
groningen
groove
gropius
gros
grose
grosn
gross
grossa
grosse
grosser
grosseto
grossn
grosso
grot
groth
grotn
grotte
grottn
ground
group
groupe
groups
grous
grouse
grousn
grouss
groussa
grousse
groussn
grouß
groußa
grouße
groußen
groußes
groußgmoa
groußgreiz
groußkini
groußn
groußraum
groußs
groußsta
groußstod
groußtei
groußteil
grove
grover
growth
groß
großa
großbardorf
großbreitenbronn
großbritannien
große
großen
großer
großes
großgmoa
großhadern
großharbach
großherzog
großherzogtum
großheubach
großkreiz
großlaudenbach
großn
großostheim
großpoin
großraum
großrinderfeld
großsta
großstod
großta
großtei
großteil
großteu
großvater
großvota
großwallstadt
großwelzheim
grrand
gru
gruafa
gruafn
gruam
gruaß
grub
grubbm
grube
gruber
gruckt
grueber
gruft
grund
grundbuach
grundd
grunddaten
grunde
grundfla
grundgesetz
grundgsetz
grundherrn
grundidee
grundkra
grundkurs
grundlag
grundlage
grundlagen
grundlegande
grundlog
grundlogn
grundlong
grundmauan
grundriss
grundsa
grundschui
grundschuin
grundstick
grundstickl
grundstoa
grundstu
grundt
grundwossa
grundy
grundzu
grupm
grupn
grupp
gruppe
gruppen
gruppm
gruppn
gruyter
gruzinski
gs
gsa
gsagt
gsammet
gsammlt
gsamte
gsamtn
gsang
gsatzl
gsaung
gscha
gschaffa
gschaffn
gschafft
gschatzt
gschaud
gschaut
gschbei
gschbu
gschbuid
gschdaundn
gschdo
gschdoam
gscheft
gschegn
gscheid
gscheida
gscheide
gscheidn
gscheit
gscheitat
gscheitert
gscheng
gschenk
gschenkt
gschetzt
gschiacht
gschicht
gschichte
gschichtl
gschichtli
gschichtliche
gschichtlichn
gschichtln
gschichtn
gschichtsschreiba
gschick
gschickt
gschikt
gschissn
gschitzt
gschizt
gschlacht
gschlecht
gschlechta
gschlechtsvakea
gschlogn
gschlong
gschlossane
gschlossene
gschlossn
gschlossna
gschlossne
gschmack
gschmeckt
gschmickt
gschmissn
gschmo
gschmock
gschmockn
gschmu
gschniddn
gschnittn
gschoffa
gschoffm
gschoffn
gschofft
gschoft
gschossn
gschpu
gschpui
gschpuid
gschpusi
gschriam
gschrian
gschribm
gschribn
gschriebm
gschriebn
gschriem
gschrim
gschtaundn
gschto
gschtoam
gschtuam
gschu
gschwendt
gschwind
gschwindigkeit
gschwindigkeitn
gschwindigkeitsaunzoaga
gschwista
gse
gsegn
gsehn
gsejschaft
gsejschoft
gsejschoftlichn
gsellschaft
gseng
gsessn
gsetz
gsetze
gsetzgeba
gsetzgebung
gsetzliche
gsetzlichn
gsetzt
gsez
gsezt
gsichad
gsichat
gsichatn
gsicht
gsiedlt
gsm
gso
gsoagt
gsogd
gsogt
gsomde
gsomdn
gsomtbevejkarung
gsomte
gsomtfla
gsomtheit
gsomtn
gsong
gsorgt
gspanschoft
gspeichat
gspeist
gsperrt
gspoitn
gspra
gsprengt
gsprocha
gsprochn
gspu
gspuid
gspuit
gspusi
gsta
gstandn
gstanzl
gstanzln
gstart
gstartet
gstaundn
gsteckt
gsteht
gsteigat
gstejd
gstejt
gstellt
gstettn
gstiazt
gstiegn
gstieng
gstift
gstimmt
gsto
gstoa
gstoam
gstod
gstodn
gstoin
gstoit
gstoitn
gstoitung
gstolt
gstondn
gstorbm
gstorbn
gstorm
gstuam
gsturm
gsuacht
gsund
gsundheit
gsunga
gsungan
gsunkn
gt
gta
gte
gtev
gtn
gu
gua
guad
guada
guadalajara
guadalupe
guade
guadn
guads
guam
guanajuato
guangxi
guarani
guard
guarda
guardia
guardian
guardiola
guat
guate
guatemala
guatn
guats
guayana
guayaquil
gubbio
gudbrandsdalen
gudea
gudrun
gue
guernsey
guerra
guerrero
guetta
guevara
guez
gugaruz
guglhupf
guglielmo
gugumma
gui
guid
guida
guide
guidn
guido
guier
guilford
guillaume
guinea
guinness
guis
guit
guitar
gulasch
gulden
guldn
gulf
gum
gummi
gun
gundlhuber
gung
gunga
gunnar
gunst
gunstn
gunter
gunther
gunzenbach
gunzenhausen
gunzenhausn
guo
gur
gurk
gurkha
gus
gustaf
gustav
gustave
gustl
gut
gute
guten
gutenberg
gutenstetten
guter
guthrie
gutmu
guttenberg
guy
guyana
gv
gvbl
gw
gwa
gwachsn
gwahr
gwand
gwanda
gwassa
gwaundat
gwe
gwea
gwechselt
gwechslt
gween
gwehjd
gweicht
gweid
gweiht
gwej
gwejd
gwejde
gwejt
gwelt
gwen
gwend
gwendolyn
gwendt
gweng
gwenle
gwerbe
gwerbesteiaeinahma
gwesen
gwesn
gwest
gwexld
gwexlt
gwiakt
gwiaz
gwiazt
gwicht
gwichtinga
gwidmad
gwidmet
gwies
gwina
gwind
gwinn
gwinna
gwinnt
gwinscht
gwirkt
gwis
gwiss
gwissa
gwisse
gwissn
gwisst
gwiß
gwißt
gwo
gwoafa
gwoan
gwoat
gwochsn
gwohnd
gwohnt
gwoit
gwond
gwonna
gwordn
gworn
gwoschn
gwoxn
gwu
gwuna
gwunga
gwunna
gwurtn
gwusst
gy
gymnasien
gymnasium
gymnasiums
gyo
gypsy
gypten
gyptische
gyptischen
gyptn
gyula
gz
gło
gə
h
ha
haag
haaling
haam
haamseitn
haar
haard
haarmann
haas
haasst
haast
haat
haaßn
haaßt
hab
habe
haben
habening
habkern
habm
habn
habsbuag
habsbuaga
habsbuagischn
habsburg
habsburga
habsburger
habt
hachette
hacke
hacker
hackl
had
hader
hades
hadrian
hafa
hafenlohr
hafenlohrtoi
haferlschuah
hafez
haffa
haffner
hafis
hafiz
hafn
hagelstadt
hagen
hagenau
hager
hagerstown
hagge
haggraben
hagia
hagstova
hague
hahn
hahnbach
hahnenkamm
hai
haibach
haid
haida
haider
haidhausn
haidhof
haifa
haife
haifig
haifiga
haifige
haifigstn
haikai
haiku
haikus
hain
haindling
haines
haint
haintzatoch
haiptling
haisa
haisal
haisl
haisln
hait
haiti
hakoah
hakodate
hal
halb
halbinsel
hale
half
halifax
halinga
hall
halle
hallein
haller
hallertau
hallo
halloween
hallstatt
halm
hals
halsbach
halt
halten
ham
hambuag
hamburg
hamburga
hamburger
hamd
hamds
hamilton
hamlet
hamlich
hamlin
hamm
hamma
hammd
hammelburg
hammer
hammerschmiede
hammond
hamms
hampshire
hampton
hams
hamua
hamza
han
hana
hanau
hancock
hand
handboi
handbook
handbuch
handel
handelskammer
handelt
handke
handl
handln
handlt
handlung
hands
handschrift
handschriftensammlung
handschriftn
handschuh
handweak
handweaka
handwerk
handwo
handy
hane
hanf
hang
hanke
hanna
hannah
hannes
hanni
hannibal
hanno
hannova
hannover
hanns
hanoi
hanover
hans
hansa
hanse
hansedog
hansen
hanser
hansestadt
hansestod
hansi
hansjo
hansl
hanson
hansson
hanswurst
hant
happy
hapstod
hapt
haptartikl
haptbereiche
haptgiatl
haptgiatlasteroid
haptinsl
haptinsln
haptort
haptroin
haptsa
haptsechle
haptsechli
haptsitz
haptsta
haptstod
haptstroß
hapttei
hara
harald
harappa
harbor
harbour
harburg
harcourt
hard
hardcore
hardcover
harde
hardeman
hardin
harding
hardware
hardy
hare
harfn
haring
harlaching
harlan
harlem
harmattan
harmon
harmonie
harmony
harold
harper
harpercollins
harpsichord
harrassowitz
harri
harriet
harris
harrison
harry
hart
hartberg
harte
hartershofen
hartford
hartl
hartley
hartmann
hartmut
hartwig
harum
harvard
harvey
harz
has
hasan
hase
haselbach
haskell
haslach
hasloch
haslochbach
hass
hassan
hasse
hasselberg
hassler
hast
hastings
hat
hatdn
hatje
hats
hatte
hatten
hattingen
hattnhofn
hau
haubdsechle
hauberrisser
haubn
haubtschtod
haubtstod
haud
hauen
hauenstein
haufa
hauffa
hauffn
haufn
haugen
haum
hauma
haums
haun
haund
haundl
haundln
haundlsweg
haundlt
haundlung
haundorf
haundschrift
haundweaka
haung
hauns
haupsa
haupt
hauptartikel
hauptbahnhof
hauptbauhnhof
hauptdarsteller
hauptdoarsto
hauptfigua
hauptgottheiten
hauptinsl
hauptkommissar
hauptmann
hauptoat
hauptort
hauptquartia
hauptroin
hauptsa
hauptschdod
hauptschui
hauptschuin
hauptsechli
hauptsechlich
hauptsigna
hauptsignoi
hauptsitz
hauptsta
hauptstadt
hauptstod
hauptstodt
hauptw
haus
hausberg
hause
hausen
hauser
hausertsmu
hauses
hausha
hausham
haushoit
haushoite
hausknecht
hausmasta
hausruck
hausruckviadl
haut
haute
hautes
hauts
have
havel
haven
havens
haverhill
havli
havre
hawai
hawaii
hawaiian
hawaiisch
hawara
hawelka
hawk
hawkins
haxn
hay
hayden
haydn
haye
hayes
haymon
hays
haywood
hayworth
hazel
haßberge
haßfurt
haßn
haßt
hbf
hc
hd
hdg
hdi
hdr
hds
hdt
he
hea
heabst
heach
heachste
heachstn
head
heag
heagem
heagnomma
heagnuma
heagnumma
heagod
heagricht
heagstejd
heagstejt
heagsto
heah
heahn
heakema
heakimmt
heakumft
heakunft
health
hean
heandl
heanemma
heanimmt
hear
heard
hearing
hearn
hearscha
heart
hearts
heascha
heaschafamu
heaschoft
heascht
heaspui
heasteja
heastejn
heastejung
heasto
heat
heath
heaven
heavoa
heavy
heavyweight
heaz
heazn
heazo
heazog
heazogdum
heazogtum
heb
hebacher
hebbel
hebdomadaires
hebe
hebei
hebenstreit
hebr
hebra
hebrew
hebron
hebt
hech
hecha
hechan
hechane
hechare
hechn
hechsde
hechsta
hechste
hechstn
hechstns
hecht
hector
hed
hedmark
hedn
hedwig
heel
heer
heere
heerfiahra
hef
hefn
heft
hefte
heftig
hegel
heh
heha
hehan
hei
heibtling
heid
heide
heidegger
heidelberg
heidelbergensis
heiden
heidenheim
heidenreich
heidi
heidige
heidign
heiding
heidlbeag
heidlberg
heidnische
heidzdog
heifig
heigenbru
heights
heigl
heike
heiko
heil
heiland
heilbronn
heilig
heiliga
heilige
heiligen
heiligenlexikon
heiliger
heiligkreiz
heiligkreuz
heilign
heiligtum
heiling
heilsbronn
heim
heimandl
heimat
heimatbla
heimatbuch
heimatforschung
heimatgeschichte
heimatjahrbuch
heimatmuseum
heimatpflege
heimbuchenthal
heimkehr
heimliche
heimliches
heimsuchung
hein
heind
heine
heinemann
heiner
heinersdorf
heini
heino
heinrich
heinrichs
heinrichsthal
heint
heinz
heirat
heiratet
heiratn
heirichn
heisa
heise
heisenberg
heisl
heit
heite
heitich
heitiga
heitige
heitigen
heitign
heitigs
heiting
heitinga
heitz
heitzdog
heitztog
heitzutog
heiß
heißen
heißt
hej
hejchste
hejd
hejdn
hejfa
hejfd
hejft
hejftn
hejm
hejn
hekta
hektar
hektolita
hektor
hel
held
helden
helen
helena
helene
helfen
helfrich
helga
helge
helgoland
helium
hell
hella
hellabrunn
helle
hellenbach
heller
helligkeit
hellmut
hello
hells
helly
helm
helmensdorfer
helmstadt
helmut
helmuth
help
helsinki
hem
hemad
hemmersheim
hemsbach
hen
hend
henderson
hendl
hendrik
hendrix
heng
henga
hengersberg
hengt
henk
henkel
henle
henlinienbild
hennegau
henning
henri
henriette
henrik
henry
henryk
henschel
hent
hephaistos
hepp
hepunkt
her
hera
herakles
heraldik
heraldisch
heraldische
heraus
herausgeba
herausgeber
herausgegeben
herausgem
herb
herbert
herbig
herbst
herbstadt
herd
herder
here
hereford
heren
hergnomma
hergnumma
hergsto
heribert
herin
heritage
herkules
herkunft
herkunftswo
herleitet
herman
hermann
hermannstadt
hermes
hern
herna
hernemma
hernois
hero
herodes
herodot
heroes
heroin
herold
herr
herre
herred
herren
herrgod
herrgott
herrieden
herrmann
herrn
herrngiersdorf
herrnhaus
herrscha
herrschaft
herrscher
herrschoft
herrschoftsgebiet
herrscht
hersbruck
hersfeld
hersta
hersteja
herstellung
hert
hertfordshire
hertha
hertz
herum
hervor
hervorganga
herwig
herz
herzberg
herzeg
herzegowina
herzen
herzl
herzo
herzog
herzogdum
herzogenaurach
herzogin
herzogstand
herzogtum
hesiod
hess
hesse
hessen
hessischen
hessisches
hessischn
hessn
hestia
hestur
het
hethita
hetzles
heu
heuberg
heugeign
heulich
heulign
heumar
heures
heuss
heustreu
heut
heute
heutigen
heutz
hex
hexameta
hexde
hexn
hexte
hey
heyden
heynckes
heyne
heßdorf
hf
hg
hgeschichte
hgg
hi
hia
hian
hianzisch
hias
hiasch
hiasl
hiat
hiata
hiatamadl
hiatn
hiawatha
hiaz
hibsch
hickman
hickok
hickory
hidalgo
hidden
hide
hie
hieb
hieber
hier
hierarchy
hieroglyphn
hieronymus
hietzing
hig
hige
higgins
high
highland
highlands
highlights
highway
highways
higkeit
higkeitn
higl
higlland
higln
hign
higricht
higwiesn
hii
hilaire
hilda
hilde
hildebrand
hildebrandt
hildegard
hildesheim
hilf
hilfe
hilft
hill
hillary
hillcrest
hiller
hills
hillsboro
hillsborough
hillsdale
hilltop
hilton
hiltrud
him
himalaya
himme
himmefohrt
himmel
himmelfahrt
himmelkron
himmelreich
himmels
himmeskeapa
himml
himmlische
hin
hinauf
hinaus
hindanis
hindi
hindu
hinduach
hinduismus
hinein
hingeng
hinsicht
hint
hinta
hintagrund
hintalossn
hintam
hintan
hinten
hinter
hintere
hintergru
hintergrund
hintern
hinterschmiding
hintn
hinweg
hinweis
hinweise
hinz
hinzua
hip
hiphop
hippie
hippolyte
hirichtung
hirmer
hirn
hirohito
hirsch
hirschau
hirschbach
hirschbronn
hirt
hirtn
hirzel
his
hisdoarische
hisicht
hispanisierung
histo
histoire
historia
historic
historica
historical
historie
historika
historiker
historique
historisch
historischa
historische
historischen
historischer
historisches
historischn
historischs
historismus
history
hit
hitchcock
hitla
hitler
hitlers
hitparade
hitradio
hits
hittn
hitz
hitzn
hiv
hiweis
hiweisn
hja
hjørring
hl
hla
hlagruppn
hlau
hlbach
hlboch
hldorf
hle
hlen
hler
hlergemeinschaft
hlergmoaschaft
hlhausen
hlheim
hlhiasl
hlhof
hli
hlich
hling
hlkreis
hlmeyer
hln
hlt
hltal
hlte
hlten
hlung
hlunga
hlungan
hlungen
hlvolle
hm
hmen
hmisch
hmische
hmischen
hmischer
hms
hmt
hmte
hmten
hmtn
hmung
hmw
hn
hna
hnan
hnd
hnde
hne
hnen
hner
hnhof
hnle
hnli
hnlich
hnlicha
hnliche
hnlichen
hnlichkeit
hnlichkeitn
hnlichn
hnlichs
hnt
hnte
hnung
hnzug
ho
hoa
hoaba
hoach
hoachdeitsch
hoache
hoachn
hoachstift
hoachtaitsch
hoad
hoagascht
hoam
hoamad
hoamat
hoamatmuseum
hoamatstod
hoamgsuacht
hoamische
hoamli
hoamliche
hoamseitn
hoan
hoar
hoart
hoasd
hoasn
hoass
hoassd
hoassn
hoassns
hoasst
hoassts
hoast
hoasts
hoat
hoate
hoatn
hoazn
hoaß
hoaße
hoaßn
hoaßt
hoaßts
hob
hobangoas
hobbach
hobbes
hobbs
hobby
hobelmann
hobm
hobms
hobn
hoboken
hobt
hobts
hoc
hoch
hocha
hochbru
hochburg
hochdeitsch
hochdeitsche
hochdeitschn
hochdeutsch
hoche
hochfla
hochgericht
hochhaus
hochkreiz
hochkuituan
hochkultur
hochkulturen
hochland
hochlaund
hochmoor
hochn
hochquo
hochs
hochschui
hochschuileahra
hochschuilehrer
hochschuin
hochschule
hochschulen
hochschullehrer
hochschulschriften
hochstadt
hochstift
hochwasser
hochwassernachrichtendienst
hochwossa
hochzeit
hockey
hockn
hockt
hod
hoda
hodas
hodie
hodina
hodma
hodn
hods
hodse
hoeneß
hoeppner
hof
hofa
hofbra
hofer
hoff
hoffenheim
hoffman
hoffmann
hoffnung
hofgoschdei
hofheim
hofkapej
hoflieferant
hoflieferanten
hofmann
hofmannsthal
hofmark
hofn
hofnstod
hofsta
hofstetten
hoft
hoftung
hogan
hogg
hogga
hoh
hoha
hohe
hoheit
hohen
hohenberg
hohenburg
hohenlohe
hohenpeißenberg
hohenschwangau
hohenstein
hohenwarth
hohenzollern
hoher
hohl
hohm
hohn
hoi
hoib
hoiba
hoibbruada
hoibe
hoibinsl
hoibinsln
hoibn
hoibs
hoibwegs
hoibzeig
hoid
hoidn
hoim
hoin
hois
hoissn
hoisst
hoit
hoitboa
hoitepunkt
hoitestej
hoitestejn
hoitesto
hoitn
hoitung
hoiwe
hoiwong
hoiz
hoizkiacha
hoizland
hoizschnitt
hoißt
hojadau
hokkaido
hokusai
hol
holbein
hold
holding
hole
holenbrunn
holger
holiday
holla
hollabrunn
holland
hollaund
holle
holledau
hollendischn
hollerhaus
hollfeld
holliday
hollow
holly
hollywood
holmes
holnstein
holocaust
holofernes
holst
holstein
holt
holtei
holy
holz
holzer
holzhausen
holzheim
holzkirchen
hom
homb
homburg
homd
home
homepage
homer
homerische
homestead
hominidn
hominini
homm
homma
hommage
homme
homn
homo
homs
homse
homses
hon
hond
honda
hondl
hondld
hondlt
hondlts
honduras
honey
hong
hongkong
honig
honolulu
honor
honore
hons
honshu
hood
hook
hooker
hoorn
hoot
hop
hope
hopewell
hopfa
hopfner
hopkins
hopkinton
hopp
hora
horace
horb
hordaland
hordeum
horizons
horizont
horizonte
horizontoin
horn
hornbach
horne
horni
horno
hornung
horror
horse
horst
horton
horus
horvath
hos
hosd
hosen
hoslbo
hosn
host
hot
hota
hotej
hotel
hotels
hoto
hots
hou
houa
houch
houcha
houchdeitsch
houche
houchgsto
houchland
houchn
houchschui
houd
houds
houe
houghton
houha
housatonic
house
housing
houston
hout
houten
how
howan
howard
howe
howell
hoyvi
hoz
hozad
hozat
hozata
hr
hra
hrabal
hrand
hrbru
hrd
hrdet
hrdung
hre
hren
hrend
hrende
hrer
hrg
hrhundat
hrhundert
hrhundrt
hrig
hriga
hrige
hrigen
hriger
hrign
hring
hringa
hringer
hrisch
hrische
hrischn
hrl
hrli
hrlich
hrliche
hrliches
hrn
hrnd
hrr
hrscheinlich
hrsg
hrt
hrte
hrten
hrtin
hrtn
hrung
hrunga
hrungen
hrungsfonds
hrvatska
hs
hsg
hspeis
ht
hte
htm
html
hts
http
https
hu
hua
huad
huading
huaf
huang
huat
huawa
huaxtekn
hub
hubbard
hubble
hube
hubei
huber
hubert
hubertus
hubertusho
hubschrauba
huckelheim
huckleberry
huckt
hudson
hue
huey
huf
hugendubel
hugh
hughes
huglfing
hugo
hui
huif
huifsmiddl
huift
huish
huisheim
huitzilihhuitl
huitzilopochtli
huiz
huiza
hulk
hull
hulz
hum
human
humanismus
humanist
humblot
humboldt
hume
hummel
humor
humorist
humoristischa
humoristischn
humphreys
hund
hundad
hundat
hundate
hunderdorf
hundert
hundred
hundt
hung
hunga
hungary
hunger
hunnen
hunnischn
hunt
hunter
huntington
huntsville
hupft
hur
huron
hurricane
hurtigruten
hus
hussiten
hussitn
husum
hut
hutchinson
hutter
hutterer
hutu
hvalvi
hvi
hviadl
hwinkel
hy
hyacinthe
hyde
hydro
hydrographische
hygiene
hyginus
hymnan
hymne
hynek
hyperion
hypothesn
hz
i
ia
iaba
iabahapts
iabasetzung
iabatrong
iabooch
iabot
iad
iagend
iagendwo
iah
iahm
iahn
iahna
iahr
iahra
iahre
iai
iain
iaiweb
ialaund
iam
ian
iana
iar
iara
iare
iata
iatz
iatzad
iatzt
iau
iaz
iazt
ib
iba
ibablick
ibagang
ibaganga
ibagem
ibahapts
ibahaupt
ibalegunga
ibaliefarung
ibaliefat
ibam
iban
ibanehma
ibanimmt
ibanomma
ibanumma
ibaquert
ibaroi
ibas
ibasetzt
ibasetzung
ibasicht
ibatrogung
ibatrong
ibazeigt
ibe
iber
iberetsch
iberischn
ibern
ibero
ibge
ibk
iblich
iblichaweis
ibliche
iblichn
ibm
ibn
ibr
ibrahim
ibre
ibrig
ibrign
ibring
ibrn
ibrunn
ibrunna
ibst
ibsta
ic
ica
icao
icd
ice
ich
icha
iche
ichi
icking
id
ida
idaho
idan
idaste
ide
ideal
ideale
idealismus
idean
ideas
idee
ideen
iden
identifikation
identifiziad
identifiziat
identisch
identische
identita
identity
ideologie
idgriag
idiot
idiotikon
idkriag
idl
idln
idn
idnes
idstock
idt
idung
idweid
ie
ier
ies
if
ifa
ifszeichn
iftn
ig
iga
igl
iglbo
igling
ignacio
ignatius
ignatz
ignaz
igor
ih
ihausn
ihm
ihn
ihnen
ihr
ihra
ihram
ihran
ihrane
ihre
ihrem
ihren
ihrer
ihres
ihrm
ihrn
iht
ii
iicm
iii
iis
ik
ika
ikaria
ikarung
ikh
ikone
iksgrubben
il
ila
ilanz
ildefonso
ile
iles
ilha
ilhas
ilhe
ilhuicamina
ilias
ilina
ilja
iljitsch
ill
illa
ille
illegal
iller
illinois
illmitz
illschwang
illusion
illustrated
illustration
illustrationen
illustrator
illustrierte
ilm
ilse
ilz
im
ima
image
images
imagina
imagna
imam
imdb
imf
imma
immahin
immanuel
immer
immigrantn
impact
impeafekt
imperativ
imperfekt
imperial
imperialismus
imperium
imperiumromanum
import
important
impressionismus
impuls
impulse
imscht
imst
in
ina
inan
inc
incandescent
incandescing
incertae
inchenhofen
incl
include
includes
including
incorporated
ind
inda
inde
indem
indems
independence
independent
indettaglio
index
india
indian
indiana
indianan
indianapolis
indianer
indianische
indianischn
indians
indicators
indien
indiens
indigena
indigene
indigenen
indikativ
indikator
indirekt
indisch
indischa
indische
indischen
indischn
indn
indo
indochina
indoeiropa
indogermanische
indogermanischen
indogermanischn
indonesia
indonesien
indonesische
indonesischn
indre
induktivita
indus
industrial
industrialisierung
industrie
industriebetriebe
industriegebiet
industrielle
industriellen
industriestod
industrieviadl
industry
ine
inec
infanterie
infanteriebrigade
infanterieregiment
infektion
inferior
inferiore
inferno
infinitiv
inflation
influence
info
infoamazion
infobox
infocenter
infoige
informatik
information
informationa
informationen
informations
informationstechnik
informationstheorie
informationszentrum
informazion
informaziona
informiat
infos
infoseite
infosystem
infrastruktua
infrastruktur
infty
ing
inga
ingbert
inge
ingeborg
ingenieur
ingenieure
inglsta
inglstod
ingmar
ingo
ingolstadt
ingrid
inhalt
inhaltsangabe
inhaltsverzeichnis
inhoba
inhoid
inhoide
inhoit
inhoite
inhoitsauga
inich
initiative
inka
inkl
inklusiv
inklusive
inland
inlet
inmiddn
inmittn
inn
inna
innahoi
innahoib
innaitalienische
innan
innara
innare
innastod
inne
innen
innenhof
innenministeriums
innenstod
inner
innere
inneren
innerhalb
innerhoib
innern
innichen
inning
innkreis
innkroas
innovation
innsbruck
innschbruck
innschbrugg
innschprugg
inntal
innviadl
inoki
inquisition
inrana
ins
insa
insan
insane
insara
insare
insbesondere
insbsondare
inschrift
inschriftn
inschtrument
insd
insee
insektn
insektna
insel
inselgruppe
inseln
insgesamt
insgesaumt
insgesomt
insgsamt
insgsaumt
insgsomd
insgsomt
inside
insingen
insl
inslgruppe
inslgruppm
inslgruppn
insln
inslstoot
inslstootn
insofean
inspiration
inspiriad
inspiriat
installation
installiat
installiert
instant
instanz
institut
institute
institution
institutiona
institutionellen
institutionen
instituto
instituts
instrument
instrumental
instrumente
instruments
inszeniat
int
inta
intadisziplina
intanationale
intanationoie
intanationoin
intanazional
intanazionale
intanazionaln
intanet
intanetseitn
intaressant
intaressante
intaresse
intaressn
intaschtitzung
intaschtizt
inte
integration
integriad
integriat
integriert
intelligence
intelligenz
intendant
intensiv
inter
interactive
interaktive
intercontinental
interdisziplina
interessant
interessante
interesse
interessiat
interessn
interior
intermezzo
internacional
internat
international
internationala
internationale
internationalen
internationaler
internationales
internationaln
internationals
internationoi
interne
internet
internetauftritt
internetpra
internetquelle
internetseite
internetseitn
internetz
interpretation
interpretationen
interpretiat
interstate
intervention
interview
interviews
into
intressant
intressante
intresse
intressiad
intressiat
intro
introduction
inuit
inv
inva
invalid
invasion
invention
inverclyde
inverness
inzell
inzersdorf
inzwisch
inzwischen
inzwischn
io
ioc
iokaste
ion
iona
ios
iowa
ip
ipa
ipba
iphone
ipod
ippesheim
ir
ira
irak
iran
iranica
iranische
iranischn
irc
irdning
ire
ireland
irene
irgendwann
irgendwie
iring
iris
irisch
irischa
irische
irischn
irish
irl
irland
irlmaier
irmgard
irminsul
irna
irnan
irnane
irokesen
irokesn
iron
ironie
ironisch
iroquois
irpinia
irpino
irrtum
irschnhausn
irvine
irving
irwin
is
isa
isaac
isaak
isabel
isabella
isar
isarvorstod
isass
isbethn
isbn
isch
ischa
ischaft
ische
ischen
ischer
isches
ischl
ischn
ischoft
ischs
ischt
ise
isen
iseo
isernia
isidor
isin
isla
islam
islamic
islamischa
islamische
islamischn
island
islands
islas
isle
isles
ism
ismaning
isn
iso
isola
isolde
isoliad
isoliade
israel
israelischa
israelische
israelischn
iss
issa
isses
issn
isst
issue
issues
ist
ista
istanbul
istat
isthmus
istituto
istrien
isweis
it
ita
ital
italia
italian
italiana
italiani
italianisiatn
italiano
italica
italien
italiena
italiener
italienisch
italienischa
italienische
italienischen
italienischer
italienischn
italische
italo
italy
ite
item
ithaca
ithaka
itich
itig
itin
itische
itischn
itn
itnis
its
itter
itz
itza
itzcoatl
itzling
iucn
iulia
iulius
iung
iunga
iunius
ius
iuvavum
iv
iva
ivan
ivo
ivoire
ivot
ivota
ivrea
ivw
iwa
iwablick
iwablim
iwad
iwadrong
iwafoin
iwagang
iwagaung
iwagaunga
iwagem
iwagob
iwagong
iwagonga
iwahaps
iwahapt
iwahapts
iwahaupt
iwalebt
iwalegt
iwaliefarung
iwaliefat
iwalifat
iwalossn
iwam
iwan
iwanomma
iwanowitsch
iwanuma
iwanumma
iwaquead
iwaqueat
iwaregional
iwaregionale
iwaregionaln
iwareste
iwaroi
iwas
iwasa
iwaschrittn
iwasetza
iwasetzing
iwasetzt
iwasetzung
iwasetzunga
iwasezt
iwasezung
iwasicht
iwatn
iwatrogn
iwatrogung
iwatrong
iwawejngt
iwawiegend
iwawiegnd
iwawiengd
iwawocht
iwazeigt
iwazohl
iwazol
iwe
iwer
iwers
iwrign
ix
ixtlilxochitl
iz
iza
izburg
izburga
izburger
ißt
j
ja
jaarige
jaarign
jacinto
jack
jackie
jackl
jackson
jacksonville
jacob
jacobi
jacobs
jacobus
jacopo
jacqueline
jacques
jade
jae
jaffa
jaga
jagd
jagua
jaguar
jaguarkriaga
jah
jahn
jahr
jahrbuch
jahre
jahren
jahres
jahresbeginn
jahresbericht
jahrfeier
jahrgang
jahrhundat
jahrhundert
jahrhunderte
jahrhunderten
jahrhunderts
jahrign
jahrl
jahrlign
jahrln
jahrtausend
jak
jakob
jakobsthal
jakobsweg
jakobus
jakowlewitsch
jakub
jam
jamaica
jamaika
james
jamestown
jan
jana
jandl
jane
janeiro
janes
janet
janez
janis
janitscharn
janka
janko
janosch
jansen
januar
januari
january
janus
jap
japan
japana
japanese
japanisch
japanischa
japanische
japanischen
japanischn
japanischs
jar
jaromi
jaroslav
jaroslava
jarðarbo
jason
jasper
jaspers
jatzek
java
javascript
javier
jay
jazz
jazzmusika
jazztrompeter
jbn
jbst
jche
jd
jda
jdastn
je
jea
jean
jeanne
jeans
jed
jeda
jedazeit
jede
jedem
jeden
jeder
jedes
jedi
jedm
jedn
jednfois
jedo
jedoch
jeds
jeff
jefferson
jeffrey
jehle
jehovas
jek
jemand
jemandn
jemen
jemois
jen
jena
jene
jengen
jenkins
jenna
jennerwein
jennifer
jenny
jens
jenseits
jensen
jenson
jeremy
jericho
jerome
jerry
jersey
jerusalem
jerzy
jesenice
jesse
jessica
jesu
jesuit
jesuitn
jesus
jet
jetz
jetza
jetzad
jetzan
jetzat
jetzige
jetzign
jetzt
jewa
jewails
jeweijing
jeweilige
jeweiligen
jeweilign
jeweiling
jeweils
jeweis
jeweus
jewish
jews
jez
jezd
jfalu
jft
jg
jh
jhd
jhdt
ji
jia
jiang
jidd
jiddisch
jiddischa
jiddische
jiddischn
jidisch
jidischa
jidische
jidischen
jidisches
jidischn
jim
jimbo
jimi
jimmy
jin
jindr
jine
jinga
jingan
jingane
jingara
jingare
jingste
jingstn
jiny
jir
jj
jll
jn
jo
joa
joab
joachim
joah
joahhundat
joahn
joahr
joahrhundart
joahrhundat
joahunad
joahundad
joahundat
joahundate
joan
joar
joare
joaresend
joaresende
joareskalenda
joareszeidn
joarhundad
joarhundade
joarhundads
joarhundat
joarhundate
joarhundert
joarn
joartausnd
joarzehnt
joarzehnte
joatausnd
joazehnt
job
jobs
joch
jochberg
jochen
jodla
jodler
joe
joel
joesi
jog
jogd
jogn
joh
johan
johann
johanna
johannes
johannesberg
johannesburg
johannesevangelium
johanni
johannis
johannita
john
johnny
johns
johnson
johnston
johnstonsarchive
johr
johreswexl
johrhundat
johundat
joint
joker
jolesch
jom
jon
jona
jonas
jonathan
jones
jonesboro
jong
jonzac
joo
joor
joorhundat
joos
joplin
jor
jordan
jordanes
jordanien
jorf
jorge
jorhundert
jos
jose
josef
josefine
josefs
josefstadt
josefstod
josep
josepf
joseph
josephine
josh
joshua
jost
josua
jou
joua
jouana
jouer
joule
jour
journal
journalismus
journalist
journalistin
journalistn
journals
journey
jovi
jovice
joy
joyce
jp
jpg
jpl
jr
jschoft
jstor
jt
jtkriag
jtn
jtnis
ju
jua
juan
jubila
jud
juda
judaica
judaiumade
judas
jude
juden
judenburg
judentum
judet
judith
judn
judndum
judntum
judo
jugand
jugend
jugendliche
jugendliteratur
jugendstil
jugendstui
jugnd
jugoslawien
jugoslawn
jul
jule
jules
juli
julia
julian
juliane
julie
julien
julisch
julius
july
jump
jun
junajpu
junction
june
juneau
jung
junga
jungan
jungbrunn
junge
jungen
junger
jungfrau
jungmair
jungmann
jungs
jungstoazeid
jungstoazeit
juni
junior
junius
juno
jupiter
jupp
jura
jurassic
jure
juri
jurij
jurist
juristische
jury
just
justice
justin
justinian
justiz
justus
juthungen
jutta
jux
jza
k
ka
kaa
kaam
kaan
kaana
kaane
kaas
kabaka
kabale
kabarett
kabarettist
kabarettistin
kabarettistn
kabarettpreis
kabbalah
kabinett
kafa
kaffa
kaffee
kaffeeha
kaffeehaus
kafft
kafka
kafkas
kaft
kahl
kahlgru
kahlgrund
kahlo
kai
kairo
kaisa
kaisakron
kaisalichn
kaisareich
kaisarin
kaiser
kaiserin
kaiserlich
kaiserreich
kaisers
kaiserslautern
kaiserthums
kaisertum
kaisheim
kal
kalabrien
kaldbak
kaldbaksbotnur
kalenda
kalendawochn
kalender
kaliba
kalidasa
kalif
kalifat
kalifn
kalifoanien
kalifornien
kaliningrad
kalligraphie
kallmu
kalt
kalte
kaltenberg
kaltern
kalvarienberg
kam
kama
kambodscha
kamen
kamera
kameralamt
kameras
kamerun
kamin
kaminaljuyu
kaminsky
kamm
kamma
kammel
kammeltal
kammer
kammerspiele
kamo
kamp
kampagne
kampanien
kampe
kampen
kampf
kampl
kan
kana
kanada
kanadischa
kanadische
kanadischn
kanal
kanals
kanarischn
kanawha
kandidat
kandidatn
kane
kaneu
kang
kanji
kankakee
kann
kannst
kannt
kanntn
kanoi
kanon
kanonan
kansas
kant
kantate
kantatn
kantn
kanto
kanton
kantone
kantonen
kantons
kantor
kanzla
kanzlei
kap
kapazita
kapej
kapejn
kapelle
kapelln
kapit
kapita
kapital
kapitalismus
kapitel
kapitl
kapitulation
kaplan
kapo
kaposva
kappa
kaputt
kapuzinaberg
kar
kara
karakalpakistan
karakta
karantanien
karas
karat
karate
karbach
kardina
kardinal
kardinalkolleg
kardinoi
kardinoibischof
kardn
kardschali
karel
karen
karger
karibik
karikatur
karikaturen
karikaturist
karikaturn
karin
karl
karla
karlheinz
karlmann
karls
karlsruhe
karlstadt
karlstein
karmel
karnataka
karner
karnes
karneval
karntn
karod
karol
karoline
karolinga
karolingischn
karpatn
karrier
karriere
karsten
kart
karte
karten
kartendienste
kartenwerk
karthago
kartn
karton
karung
karungsdichtn
karwendel
karwendl
kas
kasachstan
kasai
kasan
kasendorf
kasern
kaserne
kaspanaze
kaspar
kasper
kasperl
kaspische
kaspischn
kassel
kassl
kassla
kastej
kastel
kastell
kasten
kastenfeld
kastilien
kastl
kasus
kat
katalanisch
katalanische
katalog
katalonien
katar
katastralgmoa
katastralgmoana
katastrophn
kate
katechismus
kategorie
kategorien
kater
kath
katharina
kathedrale
kathedralkirch
kathedraln
kathedroi
katherine
kathetn
kathi
kathl
katho
katholikn
katholisch
katholischa
katholische
katholischen
katholischer
katholisches
katholischn
katholischs
kathrin
katja
kato
katolischn
katrin
kattegat
katz
katzal
katze
katzenkopf
kau
kauf
kaufbeiren
kaufbeuren
kaufleit
kaufma
kaufman
kaufmann
kaufmo
kaufn
kauft
kaukasus
kaukonen
kaum
kaumma
kaumpf
kaun
kaunas
kaunitz
kaunn
kauno
kauns
kaunst
kaus
kausalita
kausen
kaut
kautschuk
kauz
kavallerie
kawaundarung
kay
kazimierz
kb
kbs
kde
ke
kea
kead
kealn
kealna
kean
keandl
keandln
keaniglichn
keanna
keannan
keantn
keantna
keapa
keat
keck
keep
kees
kefring
kegl
kegln
keglscheim
kehrt
kei
keil
keilberg
kein
keine
keinen
keiner
keith
kejtische
kejtischn
kejtn
keks
kelheim
kella
keller
kelly
kelten
keltisch
keltische
keltischn
kelvin
kem
kema
kemal
keman
kemii
kemische
kemma
kemman
kemmand
kemmen
kemnath
kempf
kempfa
kempfn
kempft
kempten
kemptn
ken
kena
kenagleand
kenan
kend
kendal
kendall
kenia
kenich
kenig
kenige
kenigin
keniglich
kenigliche
keniglichn
kenigreich
kenigssa
kenigstuih
kenja
kenn
kenna
kennagleant
kennan
kennans
kennd
kenne
kennedy
kennen
kenner
kenneth
kennt
kenntad
kenntat
kenntn
kenntnis
kenny
kennzeichen
kennzeichn
kennzeichnat
kennzeichnd
kennzeichnet
kennzeichnung
kennzoichnat
kensington
kent
kentridge
kentucky
kenya
kepf
kepler
ker
keramik
kerckermeister
kere
kern
kernel
kernort
kernstod
kernten
kerntner
kero
kerpa
kerr
kerry
kershaw
kerstin
kessel
kessl
kessn
kette
ketten
kettn
kettner
ketzing
keuschrift
kevelaer
kevin
key
keyboard
keynes
keys
keyser
keystone
kfz
kg
kgl
kh
kha
khagan
khan
khe
khk
khkin
khmer
kho
khtml
ki
kia
kiaberg
kiach
kiacha
kiachal
kiachan
kiachbeag
kiachdoaf
kiache
kiachliche
kiachlichn
kiachn
kiachngebaide
kiachngmoa
kiachnprovinz
kiachspui
kiah
kiaza
kiazl
kibbuz
kicker
kickers
kid
kiel
kiem
kiens
kiepenheuer
kiew
kiewer
kil
kildare
kilian
kilimandscharo
kill
killer
killing
kilo
kilogramm
kiloma
kilomeda
kilomedda
kilometa
kilometer
kim
kimb
kimd
kimm
kimmad
kimman
kimmat
kimmb
kimmd
kimme
kimmp
kimmst
kimmt
kimmts
kimp
kimpt
kimt
kimts
kin
kina
kinan
kind
kinda
kindabiacha
kindabuach
kindaga
kindagartn
kindagartnpla
kindagoatn
kindagortn
kindan
kinder
kinderga
kindern
kindheid
kindheit
kindl
kindler
kindln
kindskopf
kine
kinereich
kinesisch
kinesischa
kinesische
kinesischn
kinesn
king
kingdom
kingman
kings
kingston
kini
kinig
kinigin
kinigliche
kiniglichn
kinigreich
kinireich
kinireichs
kinitum
kinna
kinnan
kinnand
kinnt
kinnts
kino
kinofuim
kinos
kinseher
kinste
kinstla
kinstlan
kinstlarin
kinstlarisch
kinstlarische
kinstlarischn
kinstli
kinstliche
kinstlichn
kint
kintad
kinz
kinzig
kinzigtal
kioto
kiowa
kipper
kira
kiram
kiran
kirby
kirch
kircha
kirchberg
kirchbichi
kirchdoaf
kirchdorf
kirche
kirchen
kirchengemeinde
kirchenlamitz
kirchenlexikon
kirchenpingarten
kirchensittenbach
kirchenthumbach
kircher
kirchh
kirchheim
kirchli
kirchliche
kirchlichn
kirchn
kirchner
kirchngmoa
kirchnprovinz
kirchturm
kirchweidach
kirgisistan
kirjat
kirk
kirke
kirkjubøur
kirkwood
kirnberg
kirng
kirschfurt
kirwa
kis
kiss
kissing
kissingen
kistn
kiswahili
kit
kitsch
kitts
kittsee
kitty
kitzbiche
kitzbichi
kitzbu
kitzingen
kj
kkstb
kl
kla
klaa
klaan
klaana
klaanan
klaanare
klaane
klaans
klaas
klagenfurt
klamman
klampfm
klampfn
klan
klana
klanan
klanare
klane
klang
klar
klara
klare
klarinettn
klass
klasse
klassifikation
klassifiziad
klassik
klassika
klassiker
klassisch
klassischa
klassische
klassischen
klassischer
klassisches
klassischn
klassizismus
klassn
klaus
klause
klavia
klaviakonzeat
klavier
klaviersonate
klaviertrio
kleana
kleanan
kleanane
kleanare
kleanste
kleasta
klee
kleider
klein
kleine
kleinen
kleiner
kleines
kleinezeitung
kleinkahl
kleinkunstpreis
kleinlaudenbach
kleinlellenfeld
kleinostheim
kleinschuster
kleinsendelbach
kleinwallstadt
kleist
kleopatra
klerus
kleschta
klesmer
klesta
klet
klett
klewitz
klezmer
kli
klicka
klicpera
klima
klimazone
klimmach
klimt
kling
klinga
klingan
klingen
klingenberg
klinger
klingt
klinik
klinikum
klippn
klischnigg
klo
kloa
kloaasien
kloabuachstob
kloagebiet
kloan
kloana
kloanan
kloanane
kloanara
kloanare
kloane
kloanen
kloans
kloansde
kloanste
kloanstn
kloapoin
kloar
kloare
kloaschta
kloasta
kloastod
klog
klognfuat
kloina
klomm
klomman
klong
kloschta
kloss
klosta
kloster
klostermayr
klosterneuburg
klotz
klousda
klousta
klu
klub
klubas
kluge
klusacek
km
kn
kna
knapp
knaur
knecht
knedl
kneipp
kneißl
knia
knickt
knie
knieriem
knight
kniha
knittelsbach
knm
kno
knob
knochn
knofe
knoin
knoll
knopf
knopp
knoppix
knorkator
knorr
knoten
knotn
knotnpunkt
know
knowledge
known
knox
knoxville
knu
knupf
knut
ko
koa
koab
koal
koalition
koam
koan
koana
koane
koans
koarl
koartiad
koartn
koasa
koasareich
koasarin
koasas
koatn
kobaschdoaf
kobayashi
kobell
kobf
koblenz
kobt
koch
kocha
kochbuch
kochd
koche
kochel
kochen
kochlo
kocht
kock
kod
kodex
kodiak
koenig
koenigreichs
kofler
kogl
koh
kohl
kohlberg
kohlen
kohlenbrenner
kohler
kohlhammer
kohlhase
kohout
koi
koich
koichfoarb
koichstoa
koid
koida
koide
koidn
koik
koikoipn
koin
koistoa
koitn
koiwamoor
kokel
kokoschka
kola
kolb
kolbermoor
kolla
kollafjørður
kolleg
kollegen
kollegiatstift
kollegin
kollegn
kollektiver
koller
kolleritsch
kologie
kologisch
kologische
koloman
koloni
kolonia
kolonie
kolonien
kolonistn
koltur
kolumbien
kolumbus
koma
kombat
kombination
kombiniad
kombiniat
kombo
komedie
komet
kometn
komik
komika
komiker
komisch
komische
komischen
komisches
komitat
komitate
komitatssitz
komitee
komm
komma
kommandant
kommandeur
kommandierender
kommando
kommen
kommentar
kommentare
kommentiert
kommentierte
kommerzielle
kommissar
kommissariat
kommissarin
kommission
kommissionen
kommt
kommun
kommuna
kommunale
kommunalwoi
kommunarealer
kommune
kommunen
kommuner
kommunikation
kommunismus
kommunistische
kommunistischen
kommunistischn
kommunoie
kommunoin
kommunoirefoam
kommunoireform
kommunoiwoi
kommunoiwoin
komo
komoren
komorn
kompakt
kompendium
kompetenz
kompetenzn
kompf
komplet
komplett
komplette
komplettn
komplex
komplexe
komplexn
komponentn
komponiad
komponiat
komponiert
komponist
komponisten
komponistin
komponistn
komposition
kompositiona
kompositionen
kompromiss
kon
kona
kondakt
kondensatoa
konditorei
konferenz
konfession
konflikt
konflikte
konfo
konfuzianismus
konfuzius
kong
kongo
kongress
konjunktiona
konjunktiv
konkordie
konkret
konkrete
konkurrent
konkurrentn
konkurrenz
konkurs
konn
konnst
konnt
konnte
konom
konomie
konqueror
konrad
kons
konsens
konsequent
konsequenz
konsequenzn
konservative
konservativn
konservatorium
konsistenz
konsoin
konsonant
konsonantn
konsonantna
konst
konstant
konstante
konstantin
konstantinopel
konstantinopl
konstanz
konstitution
konstruktion
konstrukzion
konsul
konsuln
konsum
konsumentn
kontakt
kontakte
kontext
kontinent
kontinente
kontinuita
konto
kontra
kontrabass
kontrast
kontroi
kontroin
kontrolle
kontrolliad
kontrolliat
kontroversn
konvention
konversations
konya
konzean
konzeat
konzeate
konzentration
konzentrian
konzentriat
konzept
konzepte
konzern
konzert
konzerte
konzession
konzil
koo
kooperation
koordinaten
koordinatn
kopenhagen
kopernikus
kopf
kopfschmerzen
kopiaschutz
kopie
kopien
kopt
kor
koran
korb
korbinian
kore
korea
korean
koreanisch
koreanische
koreck
korinth
korn
kornfelder
koronis
koros
korps
korpus
korrekt
korsika
kortiat
kortn
kos
kosmologie
kosmos
kosovo
kost
kostn
kostnlos
kostnlose
kostu
koszalin
kot
kota
kotz
kotzebue
kou
kourtsch
kov
kova
kovac
koyukuk
kpd
kpo
kr
kra
kraas
krachal
kracherl
krafft
kraft
kraftwerk
krain
kraiz
kraj
krakau
krambambuli
kramer
krampal
krampus
kramsach
kranawittn
krank
kranke
krankheit
kranknhaus
kranz
kranzmayer
krapfenau
krapina
krasnaja
krasny
krata
kraudn
kraunk
kraus
krause
krausenbach
krauss
kraut
krauthauhn
krautinsl
krauß
kraxla
kraxln
krebs
kredenbach
kredit
kreis
kreischgebiet
kreise
kreisen
kreises
kreisfreie
kreisky
kreisler
kreisstod
kreisstroß
kreiz
kreiza
kreizn
kreiznd
kreizt
kreizung
kreizweg
kreizzug
krejg
krejgt
kremayr
kreml
kremnitz
krempl
krems
kremsmu
kren
krenkl
kreta
kretschmer
kreuth
kreutzmann
kreuz
kreuza
kreuzanger
kreuzberg
kreuze
kreuzer
kreuzlingen
kreuzwertheim
kri
kriag
kriaga
kriagadenkmoi
kriagd
kriagg
kriagloch
kriagn
kriagsend
kriagsschiff
kriagst
kriagszu
kriagt
kriang
krieg
krieger
krieges
kriegt
krim
krimi
kriminala
krimiserie
krimmo
krise
krisn
kristalle
kristi
kristin
kristlicha
kristliche
kristlichn
kristn
kristndum
kristntum
kristus
kriterien
kriterium
kritesiat
kritik
kritika
kritikn
kritisch
kritische
kritischen
kritisches
kritischn
kritisiad
kritisiat
kritisiert
kro
kroaburg
kroas
kroasamt
kroasdog
kroasfreie
kroasfreien
kroasfrein
kroasgebiet
kroasstod
kroasstroß
kroatien
kroatisch
kroeber
kroetz
kroft
kroftweak
kroin
krombach
krommenthal
kron
krona
kronach
kronawitter
krone
kronen
kronik
kronkheit
kronknhaus
kronla
kronos
kronprinz
kronstadt
krowodisch
krowodische
krowodischn
krowodn
krowozien
krtek
kru
kruag
krumbach
krumlov
krumm
kruse
kruzifix
ks
ksa
ksv
ksw
kt
ku
kua
kuafiaschtndum
kuah
kuaoat
kuaz
kuaza
kuaze
kuazfoam
kuazfuim
kuazgschichtn
kuazm
kuazn
kuba
kubikmeta
kubikzoll
kubrick
kuche
kuchen
kuchl
kuchn
kuckuck
kufner
kufstein
kufstoa
kugl
kugler
kugln
kuh
kuhn
kuimboch
kuin
kuinstoff
kuinwossastoffe
kuipergiatl
kuit
kuitua
kuituagschicht
kuituan
kuituareje
kuituarejn
kuituazentrum
kuitur
kuituro
kujawien
kuka
kularisation
kulinarische
kulm
kulmbach
kult
kultua
kultur
kulturelle
kulturellen
kulturelln
kulturen
kulturerbe
kulturgeschichte
kulturlandschaft
kulturpreis
kuma
kumhausen
kumm
kumma
kumman
kummd
kummst
kummt
kummts
kumpfmu
kumt
kunde
kundera
kundl
kundn
kung
kunnt
kunntn
kunreuth
kunst
kunstareal
kunstdenkma
kunstdenkmale
kunstfu
kunstgeschichte
kunstgschicht
kunsthalle
kunsthistorika
kunsthistorisches
kunstmola
kunstmuseum
kunstpreis
kunststoff
kunststoffe
kunststu
kunsttopographie
kunstverlag
kunstweak
kunt
kunz
kunze
kunzmann
kupelwieser
kupfa
kupfer
kupferberg
kur
kuraki
kuratie
kurdistan
kurdn
kurfiarscht
kurfiarstntum
kurfiaschtn
kurfu
kurier
kuro
kurort
kurosawa
kurpark
kurs
kursbuachstreckn
kurse
kursiv
kurt
kurti
kurvn
kurz
kurza
kurze
kurzer
kurzfilm
kurzform
kurzgeschichte
kurzgeschichten
kurzn
kutschn
kutzenhausen
kuwait
kv
kve
kvi
kvorecky
kw
kwa
kwh
ky
kyle
kymrisch
kyo
kyoto
kyrene
kyrie
kyrill
kyrillisch
kyrillischn
kyu
kz
kzn
køn
l
la
laa
laab
laaber
laaer
laaf
laan
laar
lab
label
laber
labor
laboratory
labour
labrassbanda
labyrinth
lac
lacerta
lach
lachen
lacht
lacknboch
lada
ladefoged
laden
ladin
ladina
ladinisch
ladinische
ladinischn
ladislav
lady
laf
lafayette
laff
laffa
laffd
laffn
lafft
laft
lag
laga
lagasch
lage
lager
lago
lagomaggiore
lagoon
lagos
lagrange
laguna
lagune
lahm
lahn
lai
laiboch
laichda
laicht
laid
laien
laimbach
laios
lait
laja
lake
lakeland
lakes
lakeside
lakeview
lakewood
lakota
laktas
lam
lama
lamar
lamb
lambach
lambda
lambert
lambro
lamm
lamoille
lamont
lamp
lampert
lamps
lan
lana
lancashire
lancaster
lance
lanczkowski
land
landa
landareal
landau
landdog
landdogswoi
lande
landeck
landes
landesamt
landesamtes
landesarchiv
landesausstellung
landesbetrieb
landesbibliothek
landesentwicklungsplan
landesgeschichte
landesgrenz
landeshaptstod
landeshauptstadt
landeshauptstod
landeskunde
landesliga
landeslistn
landesmoasta
landesmuseum
landesplanung
landesregiarung
landesregierung
landessteanwarte
landestei
landestheater
landesweidn
landesweitn
landfla
landgericht
landgmoa
landgmoana
landgricht
landig
landing
landkreis
landkreises
landkroas
landl
landla
landler
landln
landmark
landmarks
landrat
landratsamt
landrod
landry
lands
landsad
landsberg
landsberger
landscape
landschaft
landschaftn
landschaftsschutzgebiet
landschberg
landschoft
landschoftn
landsdad
landshuad
landshuat
landshut
landshuter
landstroß
landtag
landtags
landwiatschaft
landwiatschoft
landwiatschoftli
landwiatschoftlich
landwiatschoftliche
landwiatschoftlichn
landwirtschaft
landwirtschaftlich
landwirtschaftliche
landwirtschoftliche
lane
lang
langa
langan
langasandur
langdoaf
lange
langen
langenneufnach
langensendelbach
langer
langes
langfurth
langhaus
langja
langobarden
langobardisch
langobardische
langobardischn
langobardn
langs
langsam
langsama
language
languages
langue
langues
lanham
lanka
lannemezan
lanner
lanz
lanzendorf
lao
laos
lara
larch
large
largest
largo
larin
larinna
lario
larry
lars
las
laser
laserniveau
lask
lass
lassen
lassn
lasst
last
lat
late
latein
lateinamerika
lateinisch
lateinischa
lateinische
lateinischen
lateinischn
later
latern
latex
latin
latina
latinamericanstudies
latino
latinos
latium
latn
latzfons
lau
laub
lauca
lauch
laud
lauda
laudenbach
lauderdale
lauer
lauf
laufach
laufe
laufen
laund
laundeshauptmau
laundeshauptstod
laundesregiarung
laundkreis
laundkroas
laundschoft
laundtog
laundwiatschoft
laundwiatschoftliche
laundwirtschaft
laundwirtschoftli
laune
laung
launga
laungan
launge
laungen
laungs
laungsam
laungsaum
laura
laurel
lauren
laurens
laurent
laurenti
laurentius
lauriacum
lauro
lausanne
lausitz
laut
lauta
laute
lauter
lauterbach
lautet
lautn
lautrach
lautsta
lautt
lava
lavaca
laval
lavanttal
law
lawinen
lawrence
laws
lax
laye
lazarus
lazio
laßleben
laßt
lb
lbe
lbladl
lblelslh
lbm
lc
lccn
lch
ld
lda
lde
lder
ldots
le
lea
lead
leader
leaf
league
leah
leahad
leahra
leam
leana
leanan
leander
leant
lear
leara
learn
learning
least
leave
leavenworth
leb
lebakaas
lebandn
lebanon
lebd
lebe
leben
lebendi
lebendig
lebendige
lebendiges
lebendn
lebens
lebensgefa
lebensgeschichte
lebenslauf
lebensmittel
lebenswertes
lebewesn
lebm
lebmslauf
lebmsmiddl
lebn
lebt
lebte
lebzeidn
lebzeit
lebzeitn
lecco
lech
lecha
leche
lechfeld
lechl
lechner
lecture
lectures
led
leda
ledahosn
lederhosn
ledger
ledig
ledigle
ledigli
lediglich
lee
leech
leeds
leem
leer
lees
left
leg
legacy
legal
legd
lege
legend
legenda
legende
legendean
legendeare
legenden
legendn
legio
legion
legiona
legionan
legionen
legionsloga
legislative
legn
legt
leh
lehe
lehen
lehengu
lehigh
lehm
lehmann
lehn
lehner
lehnt
lehnweata
lehr
lehra
lehrberg
lehrbuch
lehre
lehrer
lei
leib
leiberl
leiblfing
leibnitz
leibniz
leich
leicht
leichta
leichtathlet
leichtathletik
leichte
leichter
leichtn
leichts
leichttuam
leid
leida
leiden
leidenschaft
leider
leidersbach
leidl
leidln
leidn
leidt
leim
leinburg
leine
leino
leinwand
leinwaund
leipzig
leipziger
leisa
leise
leisten
leistn
leistung
leistunga
leistungen
leistungsfa
leit
leita
leitd
leiter
leitet
leitfaden
leitha
leitln
leitn
leitner
leitung
leitweat
lejb
lejd
lek
leksikon
leland
lellenfeld
lem
lemand
lemberg
lemke
lemma
lemo
lemon
lemsgfa
lemsjoar
lemsmiddl
lemsraum
lemy
len
lena
lenape
lenbachhaus
lend
lenda
lendan
lendlichn
leng
lenga
lengan
lengfo
lengfurt
lenggrias
lengste
lengua
leni
lenin
leningrad
lenis
lennep
lent
lentz
lenz
leo
leoben
leon
leonard
leonardo
leonding
leone
leonhard
leonhardi
leoni
leonid
leonidas
leopoidskron
leopoidstod
leopold
leopoldi
leopoldina
leopoldsta
leopoldstadt
leopolstraße
lep
lepidus
leq
ler
lerchenberg
lern
lerna
lernen
lernt
leroy
les
lesa
lesch
lesebuch
lesen
leser
lesh
leshahnl
leslie
lesn
lesotho
lessing
lesson
lest
lester
lesung
lesungen
leszek
let
leto
letter
letters
lettisch
lettland
lettres
letzan
letzde
letzdn
letzn
letzt
letzta
letztan
letztara
letztare
letzte
letzten
letzter
letztle
letztn
letzts
leu
leuchtenberg
leuchtet
leuchtturm
leudal
leuenberger
leut
leute
leuten
leutenbach
leutershausen
levakusn
levante
level
levi
levin
levroux
levy
lew
lewin
lewinsky
lewis
lewiston
lex
lexer
lexicon
lexik
lexikon
lexington
leyland
leynar
lez
lezda
lezde
lezdn
lezt
lezte
leztn
lf
lfe
lff
lfte
lftn
lfu
lg
lheim
li
lia
liab
liaba
liabe
liabha
liabhoba
liabn
liabs
liabscha
liabstn
liabt
liacht
liachta
liachtmess
liachtnstoa
liachtquelln
liachtsta
liachtstraum
liad
liada
liadamocha
liadan
liadl
liadln
liadtexte
liafaring
liagg
liagn
liagt
liam
liang
liawa
libanon
liber
liberal
liberale
liberalitas
liberaln
liberia
liberty
libpng
libraries
library
libre
libressl
libretto
librivox
libya
libyen
libysch
license
lich
liche
licht
lichtenau
lichtenberg
lichtenfels
lichtmess
licinius
lick
lie
lieb
liebe
lieben
lieber
liebes
liebhaber
liebig
liebknecht
liebling
liebt
liechtenstein
lied
lieder
liederbuch
liederfundkiste
liefan
liefat
lieg
liegd
liegen
liegg
liegn
liegnitz
liegt
liegts
lien
lieng
liengde
liengdn
lienz
liesing
liesingba
liesl
liest
lieu
lieutenant
liezen
lif
life
lift
lig
liga
ligatua
ligd
lige
ligg
light
lighthouse
lighting
lightnin
lightning
lights
lign
ligt
ligurien
ligurischn
lik
lika
like
likea
lili
lilie
lilien
lilienfeld
lilienfo
lilith
lille
lillehammer
lily
lim
lima
limauni
limbach
limburg
lime
limes
limestone
limit
limitation
limited
limits
limoges
limousin
limp
lin
lina
linawoi
lincoln
lincolnshire
lincom
lind
linda
lindach
lindau
lindberg
linde
lindemayr
linden
lindenberg
lindenfurterhof
lindgren
lindn
lindner
line
linear
lines
ling
lingand
lingfield
lingua
linguisdische
linguist
linguistic
linguistica
linguistics
linguistik
linguistique
linguistische
linguistn
linia
linian
linie
linien
link
linka
linke
linked
linkedin
linken
linkin
linkn
links
linksammlung
linktext
linn
linnaeus
linne
linsengericht
linsn
lintlhof
linus
linux
linwood
linz
linza
linzer
lio
lion
lionel
lioni
lions
lipf
lipp
lippe
lippi
lips
liri
lis
lisa
lisberg
lisbon
lisch
lische
lischn
lissabon
lissi
list
lista
liste
listen
listet
listing
listn
liszt
lit
lita
litaradua
litaratua
litarisch
litarische
litaua
litauen
litauisch
litaun
litchfield
liter
litera
literarisch
literarischa
literarische
literarischen
literarischn
literary
literat
literatua
literatuadatnbank
literatuahistorika
literatuaogobm
literatur
literatura
literature
literaturkritik
literaturpreis
literaturwissenschaft
literatury
lithuania
lito
litratua
litratur
litte
little
littlefield
littleton
littrow
liturgie
litzendorf
liu
liv
live
liverpool
lives
living
livingston
livius
livre
lix
lizenz
lizenzausgabe
ljubljana
lk
lka
lkarung
lker
lkermarkt
lkerung
lkerungsentwicklung
lkerungsfortschreibung
lkerungsstand
lkerungsstandes
lkerungsstatistik
lkerungsstatistiken
lkr
lkw
lky
ll
lla
llan
llano
llbach
llc
lle
llen
llenangst
ller
llers
lles
llfeld
lli
llich
llig
llige
llign
lling
llionan
llionen
llkrippen
llmu
lln
llner
llo
lloyd
lls
llscha
llt
lltn
llung
llungan
llungen
lm
lmhult
lmu
ln
lna
lnb
lner
lni
lo
loa
loab
load
loam
loambau
loanwoat
loata
lob
lobau
lobt
local
localita
locarno
locas
loch
lochau
loches
lock
locka
locke
lockhart
lockt
locust
lodain
lodainisch
lodainischn
lodge
lodi
lodn
lodron
lodung
lofer
log
loga
logan
logarithmus
loge
logic
logik
logisch
logische
logischn
logo
logogramm
logos
loh
lohe
lohengrin
lohmeier
lohn
lohner
lohr
lohrbach
lohrerstraße
lohrhaupten
loiching
loir
loire
loiret
lois
loisach
lok
loka
lokal
lokalbahn
lokale
lokaln
lokativ
loki
lokoin
lola
lolland
loma
lombardei
lombardi
lombardia
lombardiabeniculturali
lombardisch
lombardo
lon
lond
londesgrenz
londeshauptstod
londkroas
london
londona
londschoft
londschoftn
londstroß
lone
lonely
long
longa
longan
longe
longhaus
longinus
longsom
longview
longwood
look
lookout
loop
loos
loosdrecht
loose
lopez
lorbeer
lord
lore
lorenz
lorenzen
lorenzo
loretto
loriot
loriots
lorraine
los
lose
loss
lossd
lossn
losst
lost
lostn
lot
lothar
lothringen
lotte
lotus
lou
loua
loud
louis
louisa
louise
louisiana
louisville
loup
lourdes
louvre
love
loving
low
lowell
lower
lowie
lowndes
loy
loyola
loze
loßt
lp
lpg
lpm
lps
lr
ls
lsch
lscher
lsheim
lso
lstdv
lswais
lt
lta
ltd
lte
lten
lter
ltere
lteren
ltern
lteste
ltesten
ltet
lthoachtaitsch
ltig
ltige
ltigen
ltiger
ltiges
ltign
ltlich
ltn
ltnis
ltnisse
ltrer
ltrn
lu
luada
luaft
luag
luanda
lubbock
lublin
luc
luca
lucas
lucca
luce
luchterhand
lucia
luciano
lucie
lucien
lucius
luck
luckn
lucky
lucy
ludger
ludnos
ludovico
ludvi
ludwig
ludwigs
ludwigschorgast
ludwigsthoi
lufd
luft
luftafnahma
luftafnohma
luftaufnahme
luftbild
luftbilder
lufthansa
luftlinie
luftwaffe
lugano
lugo
luhe
lui
luigi
luino
luis
luise
luisenburg
luitpold
luka
lukas
luke
lulu
lump
lumpacivagabundus
lumpazivagabundus
luna
lunar
lund
lune
luneray
lung
lunga
lungan
lungapest
lungau
luo
lupus
luse
lusern
luserna
lust
lustich
lustig
lustige
luth
luther
lutheran
lutherischa
lutherische
lutherischn
lutsch
lutz
lux
luxembourg
luxemburg
luxemburger
luxnbuag
luxnbuagisch
luxnbuagischn
luxus
luzern
luzifer
lv
lva
lwa
lwiw
lxv
ly
lydia
lyga
lynch
lynn
lynyrd
lyon
lyons
lyra
lyrics
lyrik
lyrika
lz
lzer
lzl
lærdal
m
ma
maana
maant
maarten
maas
maasta
mac
macao
macau
macbeth
macdonald
macedonia
macerata
mach
macha
machan
machd
machen
machine
machines
machn
macht
machte
machti
machtige
machtign
mack
macke
macmillan
macon
macoun
mad
madagaskar
madame
madda
maddieson
made
madeira
madeleine
mader
madera
madison
madl
madln
madonna
madre
madrid
mae
mafia
mag
magazin
magazine
magda
magdalena
magdebuag
magdeburg
magellan
maggiore
maghreb
magic
magie
magier
magische
magistrat
magna
magnet
magnetfo
magnetic
magnetische
magnetischn
magnetismus
magneto
magnolia
magnus
magyar
maha
mahayana
mahler
mahoning
mai
maibaam
maier
mail
mailand
mails
main
mainaschaff
mainbruckn
mainburg
maine
mainfrankn
mainleus
mainstream
maintoi
mainz
mainza
mainzer
maiori
maipo
mairie
mais
maisach
maisdns
maison
maistn
maistns
maj
maja
majesta
major
majuskel
make
makedonien
makemake
making
makkaba
mal
mala
malakoff
malawi
malawisee
malaysia
malcolm
maldon
male
malediven
maler
malerei
malheur
mali
malik
mallersdorf
mallorca
mally
malmesbury
malmo
malo
malta
malte
malvern
malwuaff
malwuaffal
maly
mama
mamalad
mammadarf
man
mana
managa
managan
management
manager
manantiales
manarola
mancha
manchane
manche
manchester
manching
manchmal
manchmoi
manchn
manda
mandal
mandamento
mandarin
mandat
mandate
manderl
mandl
mandln
manerba
manesse
manfred
mang
manga
mange
mangmoi
mango
manhattan
mani
manierismus
manifest
manila
manipulation
manitoba
manitu
mann
manna
manndal
manner
mannheim
mannschaft
mannschaftn
manor
mans
mansfield
mant
mantel
mantis
mantra
mantua
manual
manuel
manuela
manufacture
manufacturing
manung
manuskript
manuskripte
manx
many
manz
mao
maore
map
maple
maps
mapuche
maputo
mar
mara
marais
maran
marano
marathon
marble
marbod
marburg
marc
marcel
marcello
marcellus
march
marche
marco
marcos
marcus
mare
marek
margaret
margareta
margarete
margareten
margaretha
margarethe
margarethen
margarette
margarita
margilan
margit
margot
margret
marguerite
mari
maria
mariagerfjord
mariahu
marian
marianen
marianne
mariazo
maribo
maribor
maricopa
marie
marien
marienberg
marienbrunn
marienbrunna
marienplotz
mariensa
mariestad
marietta
marignac
marihuana
marilyn
marin
marina
marine
marino
mario
marion
maritime
marius
marix
marjorie
mark
markant
markante
markantn
marke
marken
market
marketing
markgra
markgraf
markgrafn
markiad
markiat
markn
marknzeichn
markomanen
markomannen
marks
markt
marktbreit
marktes
marktgemeinde
marktgmoa
marktheidenfeld
marktl
marktleugast
marktleuthen
marktplatz
marktrecht
marktredwitz
marktsteft
markus
marlene
marley
marloffstein
marmor
marne
maroc
marokkanischn
marokko
maron
marquartstoa
marquette
marqueur
marquis
mars
marsch
marschall
marschlied
marseille
marsh
marshall
martell
martha
marti
martial
martigny
martin
martina
martinelli
martinez
martini
martino
martinoli
martins
martinsried
marty
maru
marvin
marx
marxheim
marxismus
mary
maryland
marys
mas
maschiin
maschin
maschina
maschinan
maschine
maschinen
maschinenbau
maseru
masirisch
masirische
masirischn
mask
masken
maskn
maskulin
maskulina
maskulinum
mason
masovien
masowien
mass
massa
massachusetts
massaka
massaker
masse
massif
massig
massimo
massing
massiv
massive
massivn
massn
masson
masta
masten
master
masters
masurn
match
matches
mate
mater
materia
materiai
material
materialien
materials
materie
materieu
mathbb
mathcal
mathematics
mathematik
mathematika
mathematisch
mathematische
mathews
mathias
mathieu
mathilde
mathrm
matisse
mato
matrei
matrikel
matrix
matsuo
matt
matteo
matters
mattersburg
mattha
matthew
matthews
matthias
matura
matze
matzing
matzleinsdorf
matzleinsduafa
mau
maua
mauan
maud
mauer
mauern
maule
maument
maumentn
maun
mauna
maunche
maunchmoi
maunchn
maunge
maur
maura
mauren
maurer
mauretanien
maurice
mauritius
maurizio
mauro
maurus
maury
maus
mausoleum
maut
mautan
mautern
mautner
max
maxgloan
maxi
maximal
maximale
maximilian
maximilians
maximoi
maximoin
maximole
maximum
maximus
maxl
maxtla
maxvorstod
maxwell
may
maya
mayalaund
mayall
mayaschtod
mayenne
mayer
mayfield
maynard
mayo
mayor
mayotte
mayr
mazda
mazedonien
mazeid
maß
maßbach
maße
maßnahma
maßstab
mb
mba
mbh
mbris
mbuna
mc
mcdonald
mcdowell
mcfarland
mcgraw
mcintosh
mcintyre
mckenzie
mckernan
mckinley
mclean
mcleod
mcmahon
mcova
mcove
mcpherson
md
mdb
mdl
mdma
mdr
mdz
me
mea
meachn
meada
meade
meadow
meadows
meafoch
meagle
meah
meaheit
meahfoch
meahheit
meahmois
meahr
meahra
meahran
meahrane
meahrare
meakmoi
meakt
meamois
mean
meaning
means
mear
meara
mearan
mearane
mearare
mearda
meaz
meazoi
mec
mecca
mechad
mechanik
mechanisch
mechanische
mechat
mechenhard
mecht
mechtat
mecklenbuag
mecklenburg
med
meda
medaille
medailln
medal
medda
media
mediathek
mediawiki
medical
medici
medicine
medien
medieval
medikament
medina
medio
medium
medizin
medizina
medizinische
medizinischn
medizinmo
meea
meeaenge
meearesspiagl
meer
meere
meeresspiagl
meeter
meeting
meg
mega
megadeth
megle
megli
meglich
meglichaweis
megliche
meglichkeit
meglichkeitn
meglichn
meglichst
megligawoas
megn
mehl
mehmet
mehr
mehra
mehran
mehrane
mehrare
mehre
mehrere
mehreren
mehrfach
mehrheit
mehrheitlich
mehring
mehrmois
mei
meidenbauer
meidling
meier
meigs
meiln
mein
meine
meinem
meinen
meiner
meines
meiningen
meinung
meischtn
meischtns
meisd
meisdn
meisdns
meisl
meisner
meist
meiste
meisten
meistens
meister
meistn
meistns
meißen
mej
meja
mejara
mejdn
mejerer
mejra
mejran
mejrann
mekka
mekne
mel
melancholie
melanochromis
melbourne
melchior
meldung
mele
melilla
melk
mella
mellrichstadt
melodi
melodie
melodien
melrose
melville
member
members
memento
memmelsdorf
memmingen
memminger
memoiren
memoria
memorial
memory
memphis
men
menard
mench
mendoza
mendrisio
mendrisiotto
meng
mengan
menge
mengen
menlo
menominee
mensch
menschen
menschenopfer
menschenrechte
menschheid
menschheit
menschlicha
menschliche
menschlichen
menschlichn
menschlichs
menschn
menschnopfa
mensengesa
mensur
ment
menu
menuet
menuetto
mer
mera
meran
merane
merare
mercedes
mercer
mercury
mercy
mergentheim
meridian
mering
merkatz
merkblatt
merkel
merkendorf
merkle
merkmoi
merkt
merkur
merlin
merrimac
mersch
mersin
merz
mes
mesa
mesnil
mesoamerica
mesoamerika
mesopotamien
mespelbrunn
mess
messa
messaging
messe
messenger
messi
messina
messn
messner
messung
mesto
met
meta
metal
metall
metallic
metallica
metamorphosen
metamorphosn
metan
metaphysik
meteora
meteorologie
meter
metern
method
methode
methoden
methodik
methodn
metoac
metoi
metoie
metro
metropoiregion
metropole
metropolit
metropolitan
metropolitana
metropolitansitz
metropolitanstadt
metropolitanstod
metropoln
metropolregion
metternich
mettn
metz
metzga
metzger
metzler
meurthe
meuse
mexi
mexica
mexican
mexico
mexikanische
mexikanischn
mexiko
meyer
meyerbeer
meyers
mez
mezo
mezzo
mf
mfhaus
mg
mh
mhairi
mhd
mhz
mi
mia
miah
miami
miarz
miaschboch
miasn
miass
miassad
miassat
miassen
miassn
miaßn
mib
mic
mica
mich
micha
michael
michaela
michaels
michail
michailowitsch
miche
micheal
michel
michelangelo
michelau
michelbach
michele
michelle
michelrieth
michigan
michl
michldorf
mick
mickey
mickhausen
mico
microsoft
mid
midanand
midananda
midanaund
midanaunda
midde
middl
middlamerika
middlan
middlare
middlawei
middlboarisch
middlboarischn
middle
middleiropa
middlesex
middleton
middletown
middlfra
middlfrankn
middlgebiag
middlhochdeitsch
middlhochdeitschn
middlmeea
middloida
middloita
middloitaliche
middloitalichn
middlpunkt
middls
middn
midgliada
midglied
midglieda
midgmocht
midgnumma
midgwiakt
midi
midland
midlands
midm
midn
midnight
midrana
midsomt
midtown
midunta
midway
mie
mied
miesbach
mifflin
migga
migration
miguel
mih
mike
mikronesien
mikula
mil
milan
milanese
milano
milch
mile
miles
milford
milida
milidea
milieu
milita
military
militea
miljonen
milk
mill
mille
millennium
miller
milli
milliarden
milliardn
millim
millimeta
million
milliona
millionan
millionen
mills
milo
milos
miltenberg
milton
mim
min
mina
minas
mincio
mind
mindaheid
mindaheit
mindaheitn
mindaheitnschbroch
mindaheitnsprochn
mindastens
mindastns
mindd
mindelheim
minden
minderheit
minderheiten
mindest
mindestens
mindestns
mindn
mindt
mindta
mindung
mine
mineral
mineralien
minerva
ming
minga
mingaa
mingana
mingara
mingardo
mingna
minh
mini
minigoif
minisex
minista
ministapra
ministapresident
minister
ministerium
ministerpresident
ministry
minneapolis
minnesota
minor
minori
minority
minschda
minsta
minuet
minus
minuskel
minuten
minutn
minzn
mio
mir
mira
miranda
mirella
mirjam
miroslav
mirror
mis
misch
mischa
mische
mischen
mischer
mischmasch
mischn
mischt
mischung
mise
miskolc
miss
missa
missbraucht
misseafoig
missen
misserfolge
mission
missionar
missionare
mississippi
missn
missouri
misst
mist
mistelbach
mistlboch
mit
mitanand
mitananda
mitanaund
mitanaunda
mitarbata
mitarbeit
mitarbeiter
mitbegrinda
mitchell
miteinanda
mitg
mitgliad
mitgliada
mitglid
mitglied
mitglieda
mitgliedan
mitglieder
mitgliedsgmoana
mitgmocht
mitgnumma
mitgspuit
mithologie
mithridates
mitloita
mitm
mitn
mitnand
mitoabata
mitoabeita
mitorbata
mitrovica
mitsamt
mitsubishi
mitt
mittanocht
mittasu
mittawoid
mitte
mitteilungen
mittel
mittelalter
mittelalterlichen
mittelalters
mittelbach
mittelbayerische
mitteleuropa
mittelfranken
mitten
mittenwald
mitterberg
mitterer
mitterfels
mitterteich
mittl
mittlamerika
mittlan
mittlara
mittlare
mittlaweil
mittlaweile
mittlboarisch
mittlboarischn
mittlern
mittlerweile
mittleuropa
mittlhochdeitsch
mittloida
mittloita
mittloitaliche
mittlpunkt
mittls
mittlschui
mittlzentrum
mittn
mittwoch
mitwitz
mitzwa
mix
mixed
mixtekn
mizzi
mißbrauch
mk
ml
mle
mli
mlich
mliche
mm
mma
mmat
mme
mmen
mmer
mmerler
mmerung
mmi
mmung
mn
mo
moa
moabeth
moachfo
moad
moak
moakt
moaktgmoa
moaktgmoana
moaktplotz
moaktrecht
moan
moana
moanan
moand
moanigung
moant
moanung
moar
moard
moarkt
moasa
moasd
moasdns
moashofn
moast
moasta
moastaschaft
moastaschoft
moastaschoftn
moastatitl
moaster
moastn
moastns
mobile
mobilita
mobu
mobuitelefon
moc
moch
mocha
mochan
mochd
mochn
mochst
mocht
mochts
mod
modariat
mode
modean
modeana
modeanan
modeane
modeans
modej
model
modell
modelle
modena
moderato
moderator
moderatorin
moderiat
modern
moderna
modernan
moderne
modernen
moderner
modernes
modernity
modo
modra
modul
module
modus
mog
mohamed
mohammad
mohammed
mohawk
mohl
mohn
mohr
moi
moidl
moik
moin
moines
moint
moire
mois
moiz
mokka
mokra
mol
mola
molan
molarei
molarein
molarin
moldau
moldawien
molden
mole
molecular
moleku
molekui
molie
molina
molise
molkenberg
moll
moloch
moltke
molto
mombasa
moment
momentan
momoiro
mon
mona
monaco
monad
monarchie
monarchn
monat
monate
monatliche
monatn
monche
monchmoi
monchn
mond
monda
monde
mondgeddin
mondkrata
mondog
mondpyramidn
mondsee
monen
monetary
money
mongabay
mongoin
mongolei
mongolisch
mongolische
mongolischn
mongoln
monheim
monica
monika
monkey
monmouth
monna
mono
monographie
monographien
monolog
monroe
monrovia
mons
monsieur
monster
mont
montag
montage
montague
montan
montana
montbrison
montdidier
monte
montella
montenegro
monterey
monterrey
montesquieu
montevideo
montez
montezuma
montfort
montgelas
montgomery
monthly
monti
monticello
montmorency
montpellier
montre
montreal
montreux
montrose
monts
montt
monument
monuments
monza
moon
moor
moore
moores
moos
moosach
moosburg
moose
moosham
moosleitner
mor
mora
moral
moralische
morbegno
morbihan
morbio
mord
more
moreau
moreno
morgan
morgen
morgenstern
morges
morgn
moritz
morkt
morktgmoa
mormonen
morning
moro
moroder
morogoro
morphologie
morphology
morra
morris
morrison
morro
morrow
morsbach
mortal
morton
morty
mos
mosaik
mosambik
mosbach
mosch
moschee
moschoft
moscow
mose
mosel
moselle
moser
moses
moshammer
moskau
moskaua
mosl
moslems
moss
most
mostviadl
moteuczuma
mother
motif
motion
motiv
motive
motley
moto
motoa
motor
motorbuch
motorn
motors
motorsport
motte
mottn
motto
motu
mou
moulin
moulineaux
mound
mounds
mount
mountain
mountains
mouton
moutta
movement
moves
movie
movies
moyen
mozart
mozarteum
mozarts
mozilla
moß
mp
mpa
mpc
mpeg
mpel
mpf
mpfa
mpfe
mpfel
mpfer
mpfn
mpft
mpfung
mpi
mpo
mr
mrd
mrs
ms
msg
msp
mt
mta
mte
mter
mtlich
mtliche
mtn
mtv
mu
mua
muada
muadabuali
muadageddin
muadasproch
muadasprochla
muadda
muas
muasmej
muass
muassd
muasst
muast
muater
muaß
muaßt
much
muck
muddy
mueller
muenchen
mugabe
mugello
muh
muhammad
muhr
mui
muiboch
muich
muichstrossn
muih
muihdorf
muin
muitiplizian
mulberry
multi
multics
multilingual
multimedia
mumbai
mun
mund
mundart
mundartba
mundarten
mundi
mundl
mundo
mundoat
mundoatdichta
mundoatn
mundort
mung
munich
munici
municipal
municipalities
municipality
municipio
municipios
municipium
munition
mur
mura
murau
mures
muret
murnau
murphy
murray
murtal
mus
musa
muschln
musculus
muse
museen
museo
museu
museum
museums
musi
music
musica
musical
musicians
musicline
musig
musigruppm
musigruppn
musik
musika
musikalisch
musikalische
musikalischn
musikant
musikanten
musikantn
musiker
musikgeschichte
musiklexikon
musikmarkt
musikpa
musiksammlung
musikschui
musique
musischui
musivideo
musk
muskln
muskogee
muslim
muslime
muslimische
muslimischn
musn
muspilli
muss
mussolini
must
musta
mustafa
mustaine
mut
mutta
mutter
muttersprache
mutzenbacher
muz
muztagh
muß
mußt
mv
mvv
mw
mx
my
myanmar
myers
mykolajiw
myra
myself
myspace
mysterio
mystery
mystic
myth
mythen
mythn
mythologie
mythology
mythos
mz
møre
n
na
naa
naab
naantz
nabburg
nabu
nach
nacha
nachad
nachan
nachand
nachbarn
nachbarschaft
nachdem
nachdr
nachdruck
nachernd
nachfoiga
nachfolger
nachlass
nachm
nachn
nachricht
nachrichten
nachruf
nachstn
nacht
nachtigall
nachtra
nachweis
nachweisbar
nachwort
nacional
nacogdoches
nad
nadine
nadja
nagel
nagerl
nagib
nagl
nagy
nah
naha
nahe
nahestadt
nahezu
nahm
nahn
nahua
nahuatl
nahwa
nai
naimakk
nain
naizin
nakamura
nakladatelstvi
nam
nama
naman
namansgeba
namansgemde
namasgeba
name
named
namen
namens
names
namibia
namo
namur
nan
nana
nanama
nancy
nanjing
nanni
nannt
nanny
nanotechnologie
nanotechnology
nantes
nantucket
napa
naples
napole
napoleon
napoleonischen
napoleonischn
napoli
naranjo
nare
narr
narrisch
nas
nasa
nasal
nase
naselenija
nash
nashville
nassach
nassau
nat
nateona
nathan
natiale
natiali
natialich
natialicha
natialiche
natialichn
nation
nationa
national
nationalbank
nationalbibliothek
nationale
nationalen
nationales
nationalfeiadog
nationalhymne
nationalism
nationalismus
nationalita
nationalmannschaft
nationalmuseum
nationaln
nationalpaak
nationalpark
nationalparks
nationalregisterofhistoricplaces
nationalsozialismus
nationalsozialistische
nationalsozialistn
nationalstroß
nationen
nationoie
nationoipark
nations
natirle
natirlich
native
nato
natt
natu
natua
natuadenkmoi
natuapark
natuaschutz
natuaschutzgebiet
natuawissnschoft
natuawissnschoftn
natur
natura
natural
naturale
nature
naturpark
naturschutz
naturschutzgebiet
nau
nauch
nauf
naum
nauman
naumen
naumensdog
naunnt
nauru
naus
nautschnyj
navajo
naval
navarra
navarro
navigation
navigationsleiste
navy
naxte
naxtn
nazaire
nazaret
nazareth
nazca
nazi
nazion
naziona
nazionale
nazionaln
nazionolpark
nazis
nb
nba
nbach
nberg
nbn
nboa
nboch
nborn
nbronn
nbrunn
nbu
nburg
nc
nch
nchberg
nche
nchen
nchener
nchengladbach
nchens
nchenverlag
nchez
nchn
nchna
nchner
nchsroth
ncia
ncipe
nd
nda
ndad
ndaeck
ndaeckn
ndan
ndart
ndarung
ndarunga
ndarungan
ndarungen
ndat
ndata
ndatn
ndb
nde
ndel
nden
nder
ndercodes
ndere
nderinformationen
ndern
nders
ndert
nderte
nderung
nderunga
nderungen
ndet
ndete
ndetn
ndez
ndi
ndich
ndiche
ndicht
ndig
ndiga
ndige
ndigen
ndiger
ndiges
ndigkeit
ndign
ndigs
ndigt
ndigung
nding
ndisch
ndischa
ndische
ndischen
ndischer
ndisches
ndischn
ndl
ndla
ndle
ndler
ndli
ndlich
ndliche
ndlichn
ndn
ndnis
ndniss
ndoaf
ndorf
ndr
ndre
ndrum
ndt
ndte
ndtn
ndung
ne
nea
neadle
neadli
neadlich
neadlicha
neadliche
neadlichen
neadlichn
neadlichsde
neadlichste
neadlichstn
neadlinga
neal
neama
neamd
neamma
neamt
neandatola
neandertaler
neapel
near
neb
neba
nebam
nebe
nebel
neben
nebm
nebman
nebmfoahtn
nebn
nebnfluss
nebo
nebraska
nebst
nec
nech
nechn
nechnt
nechste
neck
neckar
ned
neda
nedamoi
nedig
need
needmore
neem
neff
neffe
neffn
negatiav
negativ
negative
negativn
negev
negro
negsdn
nehma
nehman
nehmen
nei
neia
neiadings
neian
neiare
neiauflog
neiausgob
neibau
neibautn
neiburg
neich
neicha
neichare
neiche
neichn
neichs
neie
neien
neier
neies
neifing
neifossung
neighbourhood
neigliedarung
neigotische
neigotischn
neiguinea
neigung
neihaus
neihausn
neijoar
neil
neill
neimorkt
nein
neinburg
neine
neinte
neioadnung
neiordnung
neironen
neis
neisa
neisal
neischwanstoa
neiseeland
neisiedl
neisiedla
neisla
neista
neistift
neistod
neistodt
neitor
neizeid
neizeit
neiße
nej
nejdn
nek
nektar
nel
nele
nelke
nelson
nem
nema
neman
nemann
nemark
nembei
nemfliss
nemfluss
nemle
nemli
nemlich
nemma
nemmeeare
nemo
nen
nenbach
nend
nenna
nennan
nennansweate
nennd
nennen
nennt
nennung
nennwert
neo
neon
nepal
nepali
nepomuk
neptun
neptune
neq
ner
nerdli
nerdlich
nerdlichen
nerdlichn
nern
nero
neruda
nes
ness
nest
nestroy
nestroys
nesvi
net
neta
nete
netherlands
netta
netter
netto
network
netz
netzseitn
netzweak
netzweakn
netzwerk
neu
neuauflage
neuausgabe
neubau
neubauer
neuburg
neuch
neuche
neudorf
neue
neuen
neuer
neueren
neues
neueste
neufahrn
neufcha
neufeld
neuguinea
neuhaus
neuhausen
neuhof
neuhofen
neuhu
neukirchen
neumann
neumarkt
neumayer
neumeister
neumu
neun
neunburg
neuner
neunkirchen
neunter
neusa
neuseeland
neuses
neusiedl
neusiedler
neusta
neustadt
neustett
neustift
neustod
neutra
neutral
neutrum
neuve
neuville
neuweiler
neuwied
neuwirth
neuzeit
nevada
neve
never
nevis
nevyjel
new
newa
newark
newcastle
newman
newport
news
newsletter
newspaper
newspapers
newton
nexde
nexdn
next
nexte
nextn
nez
nezahualcoyotl
nezval
nf
nfa
nfe
nfeld
nfois
nfstetten
nfte
nftig
nftn
nfzehn
nfzig
ng
nga
ngam
ngan
ngane
ngare
ngarin
ngarung
ngat
ngau
ngazone
ngd
nge
ngel
ngen
nger
ngere
ngerin
ngert
ngerung
ngg
ngi
ngig
ngiga
ngige
ngigkeit
ngigkeitsdog
ngign
ngka
ngl
ngle
ngli
nglich
ngliche
nglichn
ngn
ngnis
ngo
ngs
ngsdn
ngst
ngste
ngsten
ngstn
ngt
ngum
ngung
nguye
nguyen
nh
nha
nheit
nhl
nhn
ni
nia
niad
niada
niadaboarischn
niadaestareich
niadahaus
niadala
niadalog
niadaoida
niadaschlog
niadriga
niagara
niambeag
niambeaga
niamberg
niamberga
niamois
niat
nibelungen
nica
nicaragua
niccolo
nice
nich
nicholas
nichols
nicht
nichte
nichts
nichtsta
nick
nickel
nicki
nico
nicobar
nicobarisch
nicoiai
nicola
nicolai
nicolas
nicolaus
nicole
nicolo
nid
nidabayern
nidadeitsch
nidadeitschn
nidaestareich
nidalandn
nidalog
nidalossn
nidao
nidasaksisch
nidasaksischa
nidasaksischn
nidau
nie
nied
nieda
niedabaiern
niedabayerischn
niedabayern
niedaboarischn
niedabrennt
niedaestareich
niedaglossn
niedala
niedalande
niedalog
niedao
niedaoida
niedasaggsn
niedasaxn
niedaschla
niedaschlesien
niedaschlog
nieder
niederaltaich
niederbayern
niedergang
niederla
niederlande
niederlanden
niederlauer
niedero
niederoberbach
niedersa
niedersachsen
niedersteinbach
niedrige
niedrign
niedrigsde
niedrigste
niels
nielsen
niemand
niemeyer
nien
nietzsche
nieuw
nig
nige
nigel
niger
nigeria
nigheim
night
nigin
nigl
niglich
nigliche
nigra
nigreich
nigreiche
nigreichs
nigs
nigsberg
nigsfeld
nigshausen
nigshofen
nigssee
nigstein
niit
nik
nike
niki
niklas
niklaus
niko
nikol
nikola
nikolai
nikolajewitsch
nikolaus
nikos
nikosia
niks
nil
nile
nils
nilsson
nima
nimm
nimma
nimmd
nimmer
nimmp
nimmr
nimmst
nimmt
nimmts
nin
nina
nine
ning
ningh
nino
nintendo
nio
niort
nirvana
nis
nisch
nischa
nische
nischen
nischn
nishida
nist
nit
nita
nittenau
niveau
nix
nixchlogend
nixe
nixon
nizza
nj
njpw
nk
nka
nke
nki
nkisch
nkischa
nkische
nkischen
nkischer
nkisches
nkischn
nkn
nksberg
nkt
nkte
nktn
nkung
nkunga
nl
nla
nland
nle
nlich
nliche
nlichkeit
nlichkeiten
nlichkeitsstearung
nlichkeitsstearunga
nm
nmadl
nmorsbach
nn
nna
nnan
nne
nnen
nner
nnerstadt
nnlich
nnliche
nnlichn
nnt
nntat
nnte
nntn
no
noa
noad
noadafrika
noadamerika
noadamerikanische
noadamerikanischn
noadboarisch
noadboarische
noadboarischn
noaddeitschn
noadeiropa
noadestle
noadestli
noadestlichn
noadfriesland
noadgstod
noadholland
noadirland
noadischn
noaditalien
noaditalienische
noadkorea
noadmazedonien
noadn
noadnoadestli
noadnoadwestli
noado
noadost
noadostitalienische
noadostn
noadoustn
noadrhein
noadsa
noadsee
noadseitn
noadufa
noadwest
noadwestli
noadwestlicha
noadwestliche
noadwestlichn
noadwestn
noah
noam
noama
noamal
noamalaweis
noamale
noamaln
noamoi
noback
nobel
nobelpreis
nobelpreistra
nobelstiftung
noble
noc
noch
nocha
nochad
nochan
nochand
nochbagmoana
nochban
nochbargemarkunga
nochboacountys
nochboadekanate
nochboadiezesn
nochboagmoa
nochboagmoana
nochboan
nochboaorte
nochboaraim
nochboarajone
nochboaregiona
nochboaschoft
nochd
nochdem
nochdems
nochdenga
noche
nochfoiga
nochfoige
nochfrog
nochfuiga
nochgfoigt
nochgsogt
nochgwiesn
nochhea
nochhoizeit
nochm
nochn
nochricht
nochrichtn
nochruaf
nocht
nochta
nochweis
nochweisboa
nochweisn
nockherberg
nodlbaam
nodln
noe
noel
nofemba
nogent
nogl
noh
nohe
nohezua
nohn
noi
noir
nola
nolan
nom
noma
nomal
noman
nomans
nomansgemdn
nomantli
nome
nomen
nomenclature
nomene
nomenklatur
nomens
nomina
nominativ
nominiad
nominiarung
nominierung
nomma
nomoi
nomos
non
nonanol
nonn
nonnberg
nonntoi
nooch
nor
nora
norbert
nord
nordafrika
nordamerika
nordamerikanischn
nordbayern
nordboarisch
nordboarischn
norddeitschland
norden
nordenberg
nordenflycht
norderstedt
nordestli
nordfjord
nordgau
nordhausen
nordheim
nordic
nordirland
nordische
nordkorea
nordland
nordn
nordnorwegn
nordo
nordost
nordosten
nordostn
nordrhein
nordsee
nordseitn
nordtirol
nordwest
nordwesten
nordwestli
nordwestlich
nordwestliche
nordwestn
nordzypern
noren
norfolk
norica
noricorum
noricum
noriker
norm
norma
normal
normalaweis
normale
normalerweis
normaln
norman
normandie
normdaten
normen
norn
norris
norsk
norske
norte
north
northampton
northamptonshire
northeast
northeim
northern
northfield
northumberland
northumbria
northwest
norton
norway
norwegen
norwegisch
norwegischa
norwegische
norwegischn
norwegn
norwegns
norwood
norðradalur
nos
nosn
noss
nost
nostra
not
notable
notar
note
notes
notgeld
notgo
nothing
notiat
notitia
notiz
notizen
notizn
notker
notn
notnausgom
noto
notre
notthafft
nottinghamshire
notwendi
notwendich
notwendig
notwendige
notwendigkeit
nou
nouch
noun
nouvelle
nov
nova
novak
novara
novarese
novazzano
nove
noveijn
novel
novelle
novemba
november
novi
noviny
novo
novy
now
nowa
nowelln
nowgorod
nowosibirsk
np
npd
nr
nra
nre
nrhp
nrw
ns
nsa
nsanduaf
nsbach
nsch
nscha
nscht
nsdap
nse
nsee
nserndorf
nsfeld
nsg
nsing
nso
nst
nsta
nste
nsten
nster
nstign
nstla
nstler
nstliche
nt
nta
nte
nter
ntgen
nthal
nther
ntn
ntrum
ntsch
nu
nua
nuadlign
nuadn
nuadostn
nuadyukatan
nuamea
nuamoi
nuar
nuclear
nudln
nueces
nuer
nuevo
nufemma
nugaal
nuh
nui
nuie
null
nulth
numa
number
numbers
numeri
numerischn
numerus
numidien
numma
numman
nummara
nummariarung
nummer
nun
nunavut
nuneaton
nung
nunzinger
nuovo
nur
nuraghn
nus
nusco
nuss
nussn
nuts
nutza
nutzan
nutzen
nutzn
nutzt
nutzung
nuu
nuwas
nußdorf
nva
nw
nwa
nwald
nwossaleitung
ny
nya
nye
nyi
nymphe
nymphenburg
nymphenburger
nynorsk
nyon
nyx
nz
nza
nzarin
nzburg
nze
nzen
nzerin
nzing
nzkira
nzn
nzpra
nzt
nzte
nzung
nzz
nørre
o
oa
oabat
oabatgeba
oabatn
oabatsoat
oabeka
oabling
oach
oacha
oachkatzl
oachl
oadandli
oadeitig
oadn
oadnung
oadnungsnumma
oadung
oafach
oafacha
oafache
oafachn
oafoch
oafocha
oafoche
oafochn
oafochs
oag
oagane
oaganisation
oaganisiad
oaginal
oaginaldext
oagl
oagna
oagnan
oagnas
oagne
oagnen
oaheit
oaing
oak
oakannt
oakannte
oakdale
oakland
oakley
oaks
oakwood
oaling
oam
oama
oame
oamen
oamoi
oamutsgrenz
oan
oana
oanaseits
oane
oaner
oaniga
oanige
oanign
oaning
oans
oansa
oansberg
oanzalna
oanzalnan
oanzalne
oanzelne
oanzig
oanziga
oanzige
oanzign
oanzigs
oanzing
oanzl
oanzlhandl
oanzln
oanzlna
oanzlnan
oanzlne
oanzlnen
oar
oara
oarm
oart
oarten
oartn
oarzt
oas
oasch
oaschloch
oasn
oat
oate
oatn
oatschaft
oatschoft
oatschoftn
oatskapo
oatsnama
oatstei
oatsteil
oawad
oawadn
oawat
oawata
oawatn
oaxaca
oazo
oazt
ob
oba
obaallgai
obaammagau
obabayerischn
obabayern
obaboarischn
obabuagamoasta
obabuargamoasta
obacht
obadeitschn
obafla
obaflechn
obafra
obafrankn
obahausn
obahoib
obaitalien
obalaff
obaland
obalauf
obaliga
obama
oban
obanzoi
obao
obapfa
obapfoiz
obar
obara
obaraa
obare
obas
obasa
obaschdoarf
obaschlesien
obasoijzbeag
obastaffa
obaste
obau
obaud
obaut
obazentren
obazentrum
obb
obbau
obbaut
obbrocha
obbuidung
obe
obelix
oben
ober
oberafferbach
oberammergau
oberamt
oberaurach
oberbayern
oberbergkirchen
oberbu
oberdorf
obere
oberelsbach
oberen
oberer
obereuerheim
oberfla
oberfo
oberfranken
oberhausen
oberhembach
oberickelsheim
oberiglbo
oberlaa
oberlaaer
oberland
oberleichtersbach
oberliga
obermaier
obermayr
obermichelbach
obermu
obern
obernburg
oberndorf
obero
oberoesterreich
oberpfa
oberpfalz
oberpullendorf
oberrammersdorf
oberscho
obersinn
oberst
oberstdorf
oberste
oberstleutnant
oberstreu
obersulzbach
oberviechtach
oberwart
oberwittbach
obfa
obfluss
obfoi
obgem
obglegt
obglehnt
obgleidd
obgleit
obgleitd
obgleitet
obglest
obgloadt
obgnumma
obgongane
obgrenzung
obgrissn
obgruafa
obgruafn
obgschlossn
obgschoffd
obgschofft
obgseng
obgsetzt
obgspoitn
obha
obhengigkeit
obi
obindung
obing
obispo
obituary
obj
object
objects
objekt
objekte
objektiv
objektive
objektivn
objektn
obkiazt
obkiazung
oblast
oblega
oblehnung
obleit
obleitung
obm
obmau
obn
obnd
obnohme
oboe
obotn
obr
obra
obrazy
obrennd
obrennt
obrigkaid
obrigkeit
obril
obrocha
obrocht
obruaf
obs
obschluss
obschnitt
obschnitte
obschoffung
obschrift
obsd
obseits
observations
observatoire
observatori
observatorio
observatorium
observatory
observer
obsetzung
obsicht
obsidian
obsolute
obsotz
obspoitung
obst
obsta
obstand
obstaund
obstieg
obstimmung
obstla
obstommung
obstond
obt
obteilung
obtrennt
obtretn
obu
obundn
obweichunga
obwohl
obwoi
obwoih
obwois
obwossa
obzweigung
occidental
ocean
oceans
och
ochn
ochs
ocht
ochte
ochtn
ockabau
ockham
oclc
oconee
ocre
octave
october
od
oda
odar
odara
odaraa
ode
odense
odenwald
odeon
oder
odessa
odilo
odin
odl
odla
odlakriaga
odlige
odlign
odlkofa
odlshofa
odnet
odo
odoaker
odon
odore
odr
odyssee
odysseus
odyssey
oe
oeakonnd
oecd
oed
oes
oesterreich
oesterreichisches
oettingen
of
ofa
ofang
ofanga
ofangend
ofangs
ofangt
ofd
ofen
off
offa
offan
offana
offanan
offane
offans
offansif
offenbach
offene
offenen
offenhausen
offensive
offezjell
office
officer
official
offizia
offiziej
offizieja
offizieje
offiziejn
offiziell
offiziella
offizielle
offiziellen
offizieller
offizielles
offizielln
offizier
offiziere
offizio
offn
offna
offnbacha
ofiahra
ofiara
oficiales
ofiziel
ofiziele
ofn
ofong
ofongnd
ofongs
oft
oftmois
og
ogden
ogebli
ogebm
ogebn
ogebot
ogem
ogfanga
ogfangd
ogfangt
ogfiaht
ogfiat
ogfonga
ogfongd
ogfongt
oghead
oghearige
ogheat
oglegd
oglegt
oglehnt
oglest
oglio
ognd
ognomma
ognumma
ogob
ogobm
ogobn
ogom
ogooue
ogreifa
ogrenzndn
ogriff
ogriffa
ogrissn
ogruafa
ogruafen
ogruafn
ogschaut
ogschlossn
ogschossn
ogschpu
ogsegn
ogseng
ogsezt
ogsiedld
ogsiedlt
ogsogt
ogsprocha
ogstieng
ogsting
ogwendt
oh
oha
ohb
ohe
ohenga
ohfoaht
ohg
ohha
ohio
ohku
ohm
ohn
ohne
ohr
ohren
ohrn
ohschnitt
ohstaund
oi
oia
oib
oibanien
oibiching
oibm
oibn
oibum
oiching
oid
oida
oidach
oidamerikanische
oidbayern
oidboarisch
oidboarische
oidboarischn
oide
oideding
oiden
oidenmorkt
oidgr
oidgriachisch
oidgriachischn
oidhochdeitsch
oidhochdeitsche
oidhochdeitschn
oidkroas
oidmui
oidn
oidnordisch
oidnordischn
oidog
oids
oidstod
oidweibasumma
oie
oiem
oierdings
oigemein
oigmoa
oigmoana
oigmoanan
oigmoane
oiing
oijm
oijs
oijwei
oikohoi
oil
oim
oima
oimekn
oin
oina
oinn
oins
oiphabet
oiphabets
oipinen
oipm
oipn
ois
oisa
oisamd
oisdann
oise
oiso
oiss
oita
oitadum
oitanative
oitanativn
oite
oitn
oitoa
oiumni
oiwa
oiwai
oiwei
oiweu
oiz
oj
ojibwe
ojs
ok
okinawa
okindigt
oklahoma
okres
oksana
okt
oktav
oktoba
oktobafest
oktober
oktoberfest
oktowa
oku
okzitanien
okzitanisch
ol
ola
olaf
olang
olaut
olav
olbrich
old
oldenbourg
oldenburg
older
oldham
ole
olehnung
oleng
olga
olithikum
olive
oliver
olivia
olivier
oll
olla
olladings
ollaheilign
ollalei
ollas
ollawa
ollawei
ollaweu
olle
ollem
ollerdings
olles
olleweu
ollm
olln
olls
olm
olmekn
olms
olmu
olney
olof
olog
ologemu
ologie
ologisch
ologische
ologischen
ologischn
ologn
olomouc
ols
olsen
olso
olsztyn
olt
olta
olte
olten
oltn
olymp
olympia
olympiapark
olympiasiega
olympic
olympische
olympischen
olympischn
om
oma
omaha
oman
omar
omb
ombrone
omd
omeakung
omed
omega
omer
omersbach
omnibus
omnirom
omschberg
omt
omtssproch
on
ona
onakonnt
onan
onane
once
onda
ondam
ondan
ondana
ondane
ondara
ondare
ondas
ondere
ondern
ondre
one
onehma
oneida
onepage
onfang
onfong
onha
onkel
onkl
onko
onla
online
onlinefassung
only
ono
onondaga
ons
onsa
onschluss
onschlussstej
onsiedlung
ontario
ontariosee
ontei
ontologie
onwesn
onzoi
oo
ooadnung
ooe
ooegeschichte
oofangt
oogfanga
ooglegt
oognumma
oogsiedlt
oom
op
opa
opac
opasst
ope
opel
open
opencola
opensocial
openstreetmap
opensuse
oper
opera
operation
opere
operette
operettn
opern
opernhaus
opernsa
opf
opfa
opfan
opfe
opfer
opladen
opladn
oppidum
oppland
opposition
opposizion
ops
optical
optik
optimal
option
optisch
optische
optischn
opus
or
ora
orange
oratorium
orbadn
orbat
orbata
orbatn
orbeit
orbis
orchard
orchesta
orchester
orchestra
orden
ordens
order
ordinariat
ordinariates
ordinariats
ordn
ordnance
ordnung
ordnungsamtes
ore
oregon
oreille
oreinos
ores
orf
orff
org
organ
organe
organisation
organisationa
organisationen
organisazion
organische
organischn
organisiad
organisiat
organisiert
organismen
organist
organization
orgel
orginaltidl
orgl
ori
oricon
orient
oriental
orientale
orientales
orientalis
orientiad
orientiat
origena
origin
origina
original
originalausgabe
originale
originaln
originals
originaltext
originaltitel
origine
originoi
originoititl
origins
oristano
orkney
orlando
orle
orleans
orlov
orly
orm
ornbau
orne
oro
orografisch
orpheus
orscha
ort
orta
orte
orten
ortenburg
ortes
orthodox
orthodoxe
orthodoxn
orthographie
ortn
ortografi
orton
orts
ortsbuch
ortscha
ortschaft
ortschaften
ortschaftn
ortschoft
ortschoftn
ortsdatenbank
ortsgebiet
ortsgeschichte
ortskean
ortskern
ortslexikon
ortsmittn
ortsnam
ortsnama
ortsnamen
ortsnamenbuch
ortsnoma
ortsregister
ortsrond
ortssuche
ortstail
ortstei
ortsteil
ortsteile
ortsteilen
ortstein
ortstoae
ortstoal
ortsverzeichnis
ortszentrum
orwad
orwat
orwatn
os
osa
osage
osaka
osb
oscar
osceola
oscham
oschamigga
oschaugn
oschaun
oschaung
oschliaßnd
oschluss
oschlussstej
oschlusssto
oschn
oschttiroul
osdn
oseng
osicht
osichtn
osiedlung
oskar
oslo
osm
osma
osmand
osmanen
osmanische
osmanischen
osmanischn
osnabru
osorno
ospruch
oss
ossa
osservatorio
osso
ossola
ost
ostafest
ostafrika
ostallgai
ostan
ostantarktischn
ostareich
ostarichi
ostarrichi
ostasien
ostbahn
ostbayern
ostblock
ostbreissn
osteiropa
osten
ostens
osterinsel
osteuropa
ostfalkland
ostfildern
ostfra
ostfrenkischn
ostgoten
ostgotn
ostgrenz
ostgstod
ostheim
ostia
ostieg
ostmark
ostmiddlboarisch
ostn
ostoipm
ostrema
ostremischa
ostremischn
ostro
ostrom
ostsa
ostsee
ostseitn
ostsidestli
osttei
osttimor
osttirol
ostufa
ostwand
ostweats
osudy
oswald
ot
otei
oteil
other
otis
otnbuag
otrennt
otretn
ots
otsego
ott
otta
ottakring
ottakringer
ottaviano
ottawa
otter
ottfried
otto
ottobrunn
ottokar
ottoman
ottowa
ou
ouachita
ouen
ouest
oun
our
oustafrika
oustan
oustn
out
outline
outlook
ouvertu
ov
ova
ovce
over
overview
ovice
ovid
ow
owa
owabayern
owaboarischn
owaestareich
owaestareichischn
owafla
owahoib
owan
owandorf
owao
owapfoiz
owapriesta
owar
owara
owaraa
oware
owaschicht
owe
owei
owen
owendung
owendunga
owens
ower
owerpfa
owerpfolz
owesn
oweu
owgruafa
owi
owl
own
ox
oxford
oxn
oxnfuat
oyrareingir
oz
ozean
ozeane
ozeanien
ozoagt
ozoi
ozoih
ozong
p
pa
paar
paarl
pablo
pac
pacific
packl
paderborn
paderno
padova
padro
padua
page
pages
pai
pain
paint
painting
paintings
paiute
pakistan
pakt
pala
palace
palacky
palais
palas
palast
palatschinkn
palau
palazzo
palenque
palermo
palestine
palestrina
palgrave
palisa
palisades
pallas
palm
palma
palmas
palmer
palmyra
palo
palomar
palost
pam
pamarantschn
pamir
pamplona
pan
pana
panama
panda
pang
panhandle
pannonia
pannonien
pannonischn
panola
panonien
panorama
pantaleon
pantanosa
panteo
pantheon
panther
panza
panzer
paola
paolo
papa
pape
paper
paperback
papers
papia
papiago
papiamentu
papier
papiere
paprika
papst
papua
papyrus
par
para
parabaas
parabel
parabl
parabola
paracelsus
parade
paradeisa
paradeiser
paradies
paradigma
paradise
paradiso
paradox
paraguay
parallej
parallel
parallo
parameter
paramount
parana
parc
parchim
parco
parinacota
paris
parisa
pariser
parish
parishes
park
parker
parkpla
parks
parlament
parlamentarische
parliament
parma
parodie
parodien
paroles
part
partakurch
partei
parteien
partein
partement
partements
partenkirchen
partenstein
partetua
partha
partial
partido
partie
partikl
partita
partition
partizip
partna
partnaschoft
partnaschoftn
partnasta
partnastod
partner
partnerschaft
partschins
party
pas
pasadena
pascal
pascha
pasing
paso
pass
passage
passagen
passaschiaschiff
passau
passauer
passeier
passeiertal
passendale
passiad
passian
passiat
passiert
passion
passiv
passn
passo
passt
past
pastor
pastorale
pastoraler
pastoroia
pastoroie
pastoroiraum
pastoroivabund
pat
pata
patagonien
patakurch
pate
patenschaft
patent
patentamt
pater
paternoster
path
patmos
patriarch
patriarchn
patricia
patricio
patrick
patrimoine
patrizia
patron
patrona
patronin
patterson
patton
patursson
pau
paul
paula
paulaner
pauli
pauline
paulo
pauls
paulus
pauly
pause
pausn
paut
pavel
pavia
pawel
pawlowitsch
pawnee
pay
payer
payne
paypal
pays
paz
pazifik
pazifikku
pazifischa
pazifischn
paznaun
paßt
pbk
pbs
pc
pcs
pd
pdf
pe
pea
peace
peach
peafekt
peak
peakbagger
pearl
pearson
peasa
peasaunan
peasenliche
peasenlichn
peasischn
peaso
peason
peasona
peasonan
peasonanvazeichnis
peasonavakeah
pecan
pech
pecos
peda
pedaitet
pedro
peer
peeters
pegasus
pegel
peggau
pegnitz
pegriffe
peispiel
peka
peking
pele
pelham
pelzig
pen
pena
pend
pendant
pendleton
penelope
penguin
peninsula
penis
penn
pennington
pennsylvania
penny
penobscot
penrose
pension
penzberg
penzing
people
peoples
peoria
pep
pepi
peppi
per
perasdorf
perche
percht
perchta
perchtoldsdorf
perchtoldsdorfer
percussion
percy
pere
perez
perfekt
perfekte
performance
perg
pergamon
perihel
period
periode
periodischa
periodn
perkins
perkussion
perl
perlach
perle
perlen
permanent
pernay
perpignan
perry
perryville
persa
persenligkeitn
persephone
perseus
persian
persien
persisch
persischa
persische
persischn
perso
persoenlichkeiten
person
persona
personal
personan
personanoma
personen
personendatensatz
personensuche
persons
perspective
perspectives
perspektive
perspektiven
perspektivn
perth
pertramer
peru
perugia
pes
pesaro
pescara
pescopagano
peso
pessach
pest
pestepidemie
pet
pete
peter
peterborough
peterhof
peters
petersberg
petersburg
petersdorf
peterson
petit
petite
petition
peto
petr
petra
petri
petrini
petronius
petrowitsch
petrus
pettau
pettendorf
pettenkofer
petting
pez
pezeichnt
pezeichnung
pf
pfa
pfad
pfaffenhofen
pfaffing
pfahofa
pfakofen
pfalz
pfandl
pfarr
pfarra
pfarre
pfarrei
pfarrer
pfarrkiach
pfarrkiacha
pfarrkira
pfarrkirch
pfarrkirche
pfarrkirchen
pfatter
pfaundrecht
pfe
pfeascha
pfeffa
pfeffer
pfeiffer
pfeifn
pfeil
pfel
pfen
pfer
pferd
pferde
pferdeeisenbahn
pferdl
pferdln
pfeu
pfeula
pfi
pfingstn
pfinzda
pfister
pfl
pfla
pflanzen
pflanzn
pflanzna
pflaumheim
pflaunzn
pfleg
pflegamt
pflege
pflegt
pfleng
pflicht
pflichtn
pflichtparameter
pfluag
pfn
pfner
pfo
pfoa
pfoad
pfoakiach
pfoakiacha
pfoara
pfoarkirchn
pfoarra
pfofeld
pfoiz
pfoizgraf
pforr
pforra
pforrdoaf
pforrdorf
pforrei
pforrein
pforreingmoaschoft
pforreingmoaschoftn
pforrgmoa
pforrkiach
pforrkira
pforrkirch
pforzheim
pfreimd
pft
pfund
pfung
pfungsgedicht
pg
ph
pha
phaidon
phalle
phantasie
pharao
phase
phasn
phenizische
phenizischn
phenomen
phi
phil
philadelphia
philharmonika
philip
philipp
philippe
philippine
philippinen
philippinische
philippus
philips
phillip
phillips
philmont
philolog
philologie
philosoph
philosophen
philosophical
philosophie
philosophisch
philosophische
philosophischen
philosophischn
philosophn
philosophy
pho
phoenix
phone
phonem
phoneme
phonetic
phonetische
phonetischn
phonogram
phonograph
phonologie
phonology
photo
photograph
photographie
photographn
photon
photonen
photos
php
phraseologie
phrasn
phu
phylogeny
physical
physics
physik
physika
physikalisch
physikalische
physikalischn
physiologie
pi
pia
piacenza
piaf
piana
pianist
piano
piazza
picardie
picasso
piccolo
piccolomini
piceno
pichl
pichler
pick
pickens
pickering
pickett
pico
picture
pictures
pid
pidgin
piding
pie
piece
pieces
piedmont
piedra
piedras
piefke
pielenhofen
piemont
piemontesisch
pier
pierce
pierer
pierluigi
piero
pierre
piet
pieta
pieter
pietro
pietsmiet
pieve
pigeon
pik
pike
pil
pilga
pilger
pilgrim
pilot
pils
pilz
pilze
pin
pinakothek
pinal
pine
pines
piney
pinfall
ping
pingyuan
pink
pino
pinocchio
pinter
pinto
pinus
pinzberg
pinzgau
pinzgauer
pio
pioneer
pionia
pionier
pioniere
piotr
piper
pippin
piraten
piratenpartei
pis
pisa
pisciotta
pisgah
pistn
pistoia
pistoiese
pistoin
pit
pithiviers
pitt
pittsburg
pittsburgh
piu
pius
pizza
pizzo
piła
pjotr
pkw
pl
pla
place
places
plaga
plain
plains
plainview
plakat
plan
plana
planck
pland
planegg
planet
planetary
planeten
planetn
planets
planma
planning
plano
plant
plantation
plante
plants
planung
planunga
planungsregion
planungsregionan
planungsvaband
plastik
plata
plateau
platin
platinum
plato
platon
platoo
platt
plattdeitsch
plattdeitscha
platte
plattform
plattlen
plattling
plattlinga
plattn
platz
platzal
platzl
platzln
plauen
play
player
plays
playstation
plaza
ple
pleasant
plebem
plech
pleinfeld
pleiskircha
pleite
pleyel
plinius
plo
plock
ploetz
plogn
plosiv
plottfoam
plottn
plotz
ploz
plu
pluah
pluarizentrische
plum
plumpsack
plural
pluralis
plus
pluto
plymouth
pm
pmatrix
pmid
png
pnice
pnp
pnv
po
poa
poaceae
poar
poarischn
poarung
poatugal
poazn
poblacio
pobst
poc
pocahontas
pocket
pocking
pockt
poco
pod
podcast
podest
podlachien
podster
poe
poem
poems
poesi
poesie
poet
poetentaler
poetik
poetische
poetismus
poetry
poggio
poha
pohl
poiadium
poier
poika
poimbuschn
poimwedl
poin
poinisch
poinischa
poinische
poinischn
point
pointe
points
poitevin
poitiers
poitou
pok
pokal
pokalsiega
pokalsieger
pokoi
pol
poland
polanski
polar
polarfoascha
polari
pole
polen
polgar
poli
police
polici
policy
polis
political
politics
politik
politika
politikarin
politiker
politikwissnschoft
politisch
politischa
politische
politischen
politischer
politisches
politischn
polizei
polizeiinspektion
polizist
polizistn
poljana
polk
polka
polling
poln
polnisch
polnische
polo
polokwane
polsingen
polt
polya
polydor
polynesia
polynesien
polynesischn
pombia
pomman
pommern
pomona
pompeius
pond
pongau
pongauer
pons
pont
ponte
pontos
pool
poole
poor
pop
pope
poplar
popmusi
popmusik
popol
popovic
poppenlauer
poprad
popst
popula
popular
popularita
population
populea
populeare
por
porcius
porsch
porsche
port
porta
portage
portal
portant
porte
porter
portland
porto
portoi
portra
portrait
portraits
portret
portsmouth
portugal
portugiesisch
portugiesischa
portugiesische
portugiesischn
portuguesa
porzellan
posaune
poschinger
poseidon
posen
posetiv
positiav
positiave
position
positiona
positionan
positionen
positiv
positive
positivn
positivs
posizion
poss
posse
possible
possibly
post
postbus
posthum
postleitzoi
postn
postum
postzugeho
potenusn
potenza
potenzia
potok
potomac
potsdam
pottenstein
potter
poulischn
pound
pour
pove
povi
pow
powder
powell
power
powers
powhatan
powiat
powidl
pozuzo
pp
ppach
ppel
ppl
ppp
pr
pra
practice
pradesh
prado
praesens
prag
praga
prager
pragmatische
praha
prairie
praktikn
praktisch
praktische
praktischn
praktiziat
prater
prato
pratt
prattville
praxis
prayer
pre
prean
prechtl
prediga
predigt
prefektua
prefix
pregt
preis
preise
preiser
preissische
preissn
preistra
preisvaleihung
preißischn
preißn
preliminary
prell
prelude
prem
premier
premiere
premiered
premierminista
premio
prengel
pres
prescott
present
presenz
preservation
preserve
president
presidenten
presidentn
presidio
presley
press
pressath
pressburg
presse
presseck
pressemitteilung
presses
prestel
presto
preston
pretoria
preußen
preußischen
prex
preysing
preßburg
pri
priasta
price
prien
pries
priesendorf
priest
priesta
priester
prima
primary
primea
primera
primo
primus
prince
princess
princeton
principal
principales
principles
print
printing
prints
prinz
prinzessin
prinzip
prinzipien
prinzn
prinzregent
prior
priv
privat
privatbesitz
privatbrauerei
private
privaten
privathaushoite
privatn
privileg
privilegien
prix
prixn
prize
pro
probiat
problem
problematisch
probleme
problems
probst
proceedings
process
procol
prod
proda
producing
product
production
produkt
produkte
produktion
produktn
produkzion
produzent
produzentn
produziad
produzian
produziat
produzierenden
produziert
prof
professa
professoa
professor
professoren
profi
profil
profile
profis
profit
profu
profui
program
programm
programme
programmen
programmiasproch
programmzeitschrift
progress
progressive
project
projekt
projekte
proklamazion
prokopetz
prometheus
prominente
promo
promontory
promotion
promotions
promoviat
prong
pronomen
propaganda
prophet
prophetn
prophetstown
propst
propstei
propulsion
propyla
prosa
prosaschriftsteja
prosastick
prosieben
prospect
prospects
prost
protection
protein
proteine
protektorat
protest
protestantisch
protestantische
protestantischn
protestantismus
protestantn
proteste
proto
protocol
protokoll
protokolle
protonen
proust
provence
providence
province
provinces
provincia
provincial
provins
provinz
provinzen
provinzhaptstod
provinzn
provinzna
provisorische
prowinz
prowinzn
prozent
prozentualn
prozentuoin
prozess
prozesse
prozession
prozessor
pru
prunus
przekroju
ps
psd
pseudo
pseudonym
pseudotropheus
psi
pstlichn
psyche
psychiata
psychiatrie
psychische
psychoanalyse
psychoanalytische
psychologie
psychologische
psychotherapie
pt
ptolemaios
pu
pua
pub
publ
publekum
public
publication
publications
publikation
publikationen
publikum
publikums
publique
published
publishers
publishing
publius
publiziad
publiziert
publizist
puccini
puch
puchheim
puchmair
puebla
pueblo
pueblos
puente
puerto
puff
puiva
pukira
pula
pulaski
pulau
pullach
puma
pumpn
pumuckl
punk
punkt
punktal
punkte
punktn
punsch
punta
puntland
puppini
pur
pure
purkersdorf
purple
purzel
puschkin
pust
pustet
putin
putnam
putsch
putz
puy
pvc
px
pxweb
pymatuning
pyramid
pyramidn
pyrbaum
pyre
pyrena
pythagoras
python
pz
pzb
q
qc
qende
qi
qin
qr
qu
qua
quadrat
quadratkilomeda
quadratkilometa
quadratkilometer
quadratmeta
qualifiziad
qualita
qualitet
quality
qualtinger
quam
quart
quartal
quarterly
quarters
quartet
quartett
quartier
quartucci
quase
quasi
quator
quatre
que
quea
queakroft
queaschnitt
queaschnittsfla
quebec
quechua
quedlinburg
queen
queens
queensland
quej
quejboch
quejfluss
quejgebiet
quejn
quellcode
quelle
quellen
quelln
quelltext
quentin
quer
quere
queri
query
quest
question
quetschn
quetzalcoatl
qui
quick
quickfacts
quicksilver
quijote
quincy
quintus
quirigua
quirin
quitman
quivalent
quivalente
quo
quodlibet
quodlibets
r
ra
raa
raab
raas
rabat
rabbi
rabbit
rabe
raben
rabenstein
raber
rabindranath
rables
rac
race
rache
rachel
rachl
racine
racing
rad
radar
rademacher
radi
radikaln
radio
radiosenda
radiowissen
radium
radius
radl
radler
radln
radlrennfoahra
radlweg
radschn
radweg
raetia
raetien
raf
rafael
raffael
rag
ragnaro
ragusa
rahat
rahm
rahma
rahman
rahmen
rai
raiba
raid
raiffeisen
rail
railjet
railroad
railroads
railway
raim
raime
raimund
rain
rainbow
rainer
rainhard
rains
rainy
rais
raitenau
raiwadadschi
rajon
ral
ralf
ralph
ram
rama
ramat
rambold
ramo
ramon
ramos
ramsau
ramsauer
ramsey
ran
rana
ranch
rancheria
rancho
rand
randall
randers
randolph
random
randy
rang
range
ranger
ranke
rankin
ranking
rankings
ranong
raoul
rap
rapa
rapanui
raphael
rapid
rapids
rappa
rappach
rapper
rapperswil
rar
rard
rare
rarita
ras
rasch
rasen
rasp
rass
rassismus
rassn
rastafari
rat
rate
ratgeber
rathaus
ratingen
ration
ratom
ratschkathl
rattelsdorf
rattiszell
ratzenwinden
ratzinger
ratzn
rau
raub
raubzu
rauch
rauhenebrach
rauhman
rault
raum
raumschiff
raund
raung
raus
rausbrocht
rausch
rauscher
rauschn
rauskemma
rauskumma
rautn
raven
ravenna
ravensburg
raw
rawatz
rax
ray
raymond
rayons
razor
rb
rbb
rbel
rber
rbiger
rbm
rbuch
rbung
rc
rca
rch
rchen
rcher
rchn
rd
rde
rden
rdenwegweiser
rder
rderbuch
rderpreis
rdert
rderung
rderverein
rdigkeit
rdigkeiten
rding
rdle
rdli
rdlich
rdliche
rdlichn
rdlingen
rdn
rdo
rdoba
re
rea
read
reader
reading
ready
reagan
reagian
reagiat
reakteaun
reaktiaun
reaktion
reaktiona
real
reale
realen
realencyclopa
realismus
realita
realitet
reality
reallexikon
realn
realschui
realschuin
ream
reamisch
rebe
rebecca
rebellion
rebn
rechd
rechdn
recherche
rechn
rechna
rechnan
rechnat
rechnen
rechner
rechnet
rechnitz
rechnung
recht
rechta
rechte
rechteck
rechten
rechtenbach
rechtli
rechtlich
rechtliche
rechtlichn
rechtma
rechtmehring
rechtn
rechts
rechtschreibung
rechtsfoam
rechtsklick
rechtsschutz
rechtsvaordnung
rechtswissnschoft
rechtwu
reckendorf
reclam
reclams
recom
recommended
reconstructed
reconstruction
record
recorded
recorder
recording
recordings
records
recovery
recreation
rector
recycling
red
redakteur
redaktion
redd
redding
rede
reden
redewendungen
redn
redna
redner
rednsoat
redt
reduziad
reduziat
reduziert
redwitz
redwoods
reed
reef
rees
reeves
ref
reference
references
referendum
referenz
referenzfehler
referenztabejn
reflexionen
refoam
reform
reforma
reformation
reformator
reformierte
reformiertn
reformpapsttum
refrain
refuge
refugio
reg
regal
regau
regel
regelma
regeln
regelung
regelunga
regen
regensburg
regenstauf
regent
regentschoft
regenwald
reggae
reggio
regia
regiad
regiarung
regiarungsbeziak
regiarungszeid
regiat
regie
regiert
regierung
regierungsbeziak
regierungsbezirk
regierungsbezirken
regija
regime
regiment
regimenta
regina
regine
regio
region
regiona
regional
regionale
regionalen
regionales
regionalinformation
regionalliga
regionaln
regionan
regione
regionen
regionoi
regionoia
regionoie
regionoiliga
regionoin
regionoiplanung
regionoirod
regionoistroß
regionolsprouch
regis
regisseur
regisseurin
regista
register
registriad
regl
reglma
reglmassi
regln
reglt
reglweak
regn
regnitz
regnitzlosau
regnschburg
regnum
regula
regulator
reh
rehab
rehau
rehoboth
rei
reibung
reich
reicha
reichahoi
reichd
reichdum
reiche
reichen
reichenau
reichenbach
reichenhall
reichert
reichertsheim
reichertshofen
reiches
reichn
reichs
reichsdeputationshauptschluss
reichsdog
reichsgau
reichssta
reichsstod
reichstn
reichstog
reichswehr
reicht
reichtum
reichweitn
reid
reida
reidn
reif
reife
reiffenstein
reifn
reih
reiha
reihe
reihn
reihnfoig
reihnfoige
reihold
reiht
reilly
reim
reimer
reimmichl
reims
rein
reina
reinbach
reinbek
reindl
reine
reinen
reiner
reinhard
reinhardt
reinheit
reinhold
reinigung
reinmuth
reins
reinschrift
reis
reisach
reischach
reise
reisebericht
reisefu
reisehandbuch
reiseinformationen
reisen
reiser
reisn
reissue
reistenhausen
reit
reita
reiter
reith
reitn
reitzenstein
reiz
reißn
reißt
rejativ
rekonstruktion
rekord
rektor
related
relatif
relation
relations
relativ
relative
relativita
relativitetstheorie
relativity
release
released
relevant
relief
reliefs
religiese
religiesn
religio
religion
religiona
religionen
religions
religionsgeschichte
religiosa
religious
relikt
reliquien
relocation
rem
rema
remains
remazeid
remazeit
rembrandt
remisch
remischa
remische
remischen
remisches
remischn
remischnreich
remischs
remix
remlingen
remote
ren
renaissance
renard
renate
renaud
renault
rend
rendus
rene
renessa
renfrewshire
reng
renga
renghittn
rengmoor
rengschbuach
rengschbuag
rengschburch
rengschburg
rengschburga
rengwoid
renn
renna
rennan
rennen
renner
rennes
rennfahra
rennt
reno
renoviarung
renoviat
renoviert
renreiter
rentamt
rentweinsdorf
renzo
rep
repablik
repertoire
repertorium
report
reportage
reportagen
reporter
reports
repra
representantnhaus
representatives
reprint
reprinted
reproducer
reproduktion
reptilien
reptu
repu
repubblik
republic
republik
republika
republikana
republikaner
republikanische
republikanischn
republique
requiem
rer
res
resch
reschissea
rescue
research
reservat
reservation
reserve
reservoir
resetarits
resi
residence
resident
residenz
residenzstod
resistance
resolution
resort
resource
resources
resp
respektive
response
ressa
ressort
ressourcen
rest
restaurant
restaurants
restauriat
reste
restl
restliche
restlichn
restln
result
resultantes
results
ret
retrieved
rett
retta
retten
rettenbach
rettersheim
rettingen
rettn
rettung
return
retzbach
retzstadt
reuter
reuters
reuth
reutte
rev
reversible
review
reviews
revised
revisio
revision
revisited
revival
revoluteaun
revolution
revolutiona
revolutionary
revoluzion
revue
rex
rey
reykjavi
reynolds
rez
rezat
rezensent
rezension
rezensionan
rezensionen
rezept
rezepte
rezeption
rf
rfa
rfc
rfen
rfer
rfl
rfling
rfn
rfndiaf
rft
rg
rga
rgalich
rgen
rger
rgerkrieg
rgermeister
rgl
rgy
rhe
rhea
rhead
rheda
rhein
rheiner
rheinische
rheinland
rhetorik
rhetorische
rhin
rhinogradentia
rho
rhode
rhodes
rhodos
rhone
rhythm
rhythmus
ri
ria
riad
riaht
rianburg
rias
ribe
ric
rica
ricardo
ricci
ricciardi
rice
rich
richard
richards
richardson
richdig
richdung
riches
richie
richland
richmond
richt
richta
richte
richter
richti
richtich
richtig
richtiga
richtige
richtigen
richtign
richtlinie
richtlinien
richtn
richtung
richtunga
richtungan
richtungen
rick
rickzug
rico
rida
ridda
ride
rider
ridge
ridnaun
rie
ried
riedenburg
rieder
riedl
rieger
riemenschneider
rien
ries
riese
riesenslalom
riesige
riesign
riesn
rieti
riez
riff
rifugio
rig
riga
rigaux
rige
rigen
right
rights
rigkeit
rigord
rijn
riket
riley
rima
rimbach
rime
rimini
rimpar
rin
rina
rinchnach
rind
rindfleisch
rindn
rindviecha
ring
ringa
ringe
ringen
ringer
ringische
ringlo
ringlspu
ringo
ringseis
ringsgwandl
rinnan
rinnd
rinnt
rio
ripley
ripper
ris
risch
rischa
rische
rischn
rise
rishofer
risiko
rising
riss
rita
ritchie
rite
ritn
rito
ritta
ritter
ritual
rituo
ritus
ritz
riva
rive
river
rivera
riverdale
rivers
riverside
riverton
riverview
rivie
riviera
rivoli
rizzoli
rk
rka
rkan
rke
rkei
rken
rker
rkisch
rkische
rkischen
rkisches
rkn
rkste
rkstn
rkt
rkte
rkung
rl
rlich
rliche
rm
rma
rme
rmeda
rmeduachgaungswidastaund
rmeduachlosswidastaund
rmekapazita
rmeleitfa
rmen
rmepumpn
rmer
rmestrom
rmeu
rmig
rn
rna
rnach
rnau
rnava
rnbach
rnbeag
rnberg
rnberger
rne
rner
rngen
rnhofen
rni
rnitz
rnstein
rnsteinbach
rnten
rntn
rntner
ro
roa
road
roads
roald
roane
roanoke
roaring
roas
roashnpru
roasn
roat
roate
rob
robert
roberto
roberts
robertson
robin
robinson
robota
robots
roc
rocca
rocchetta
rocco
roch
roche
rochechouart
rochefort
rochelle
rochester
rochus
rock
rockband
rockford
rockingham
rockland
rockmusi
rockmusik
rockmusika
rocks
rocky
rod
roda
rodach
rode
roden
rodeo
rodgers
rodhaus
roding
rodn
rodney
rodni
rodrennfoahra
rodri
rodrigo
rods
rodung
roe
rogaland
roger
rogers
rogt
roh
rohma
rohn
rohr
rohrbach
rohrbrunn
rohrdorf
rohrnudln
rohrwiesenbach
rohstoff
roi
roider
roin
roiwa
rokoko
roland
role
rolf
roll
rolla
rolle
rollen
roller
rollin
rolling
rollingstone
rolln
rolls
roly
rom
roma
romaan
romagna
romain
roman
romana
romane
romanen
romanes
romani
romania
romanisch
romanischa
romanische
romanischen
romanischn
romano
romans
romantik
romantische
romanum
romanzen
rome
romeo
romma
rommel
roms
romsdal
romstoa
romulus
romy
ron
ronald
ronaldo
ronco
roncola
rond
ronde
rondo
rong
ronheim
room
roos
roosevelt
root
roots
roque
rororo
ros
rosa
rosalia
rosalie
rosario
rosch
roscher
rose
rosebud
rosedale
rosegger
rosemarie
rosen
rosenau
rosenberg
rosenhauer
rosenheim
rosenheimer
rosenmu
roskilde
rosler
rosn
rosnberg
rosnbrunn
rosnham
rosnheim
rosnheimer
rosnhof
ross
rosselbrunngraben
rossi
rossner
rosso
roster
rostn
rostock
rostow
roswitha
rot
rota
rote
roten
roter
roth
rothaus
rothenbuch
rothenburg
rothenfels
rothengrund
rother
rothneusiedl
rotiad
rotn
rott
rotta
rottach
rottal
rotte
rotten
rottenberg
rottenbuch
rottenburg
rotterdam
rottoi
roud
rouda
roude
roudm
roudn
rouen
rouge
roulette
round
rousnam
roussillon
rout
route
router
routledge
routn
rovere
rovereto
rovigo
row
rowan
rowley
rowohlt
rowohlts
roy
royal
roz
roß
roßbach
roßbauhn
roßhaupten
roßtal
rp
rpa
rper
rperschaft
rquez
rr
rre
rrfeld
rring
rrmorsbach
rrwangen
rs
rsa
rsbachtal
rscht
rsdorf
rse
rshavn
rshavna
rspiel
rsssf
rst
rste
rstein
rsten
rstenfeld
rstenfeldbruck
rstentum
rster
rstlich
rstn
rt
rta
rte
rtel
rten
rter
rterbuch
rtern
rth
rther
rthersee
rtig
rtige
rtigen
rtiges
rtign
rtl
rtlich
rtliche
rtlichen
rtn
rtner
rtr
rts
rttemberg
rtyra
rtyrer
ru
rua
ruaf
ruaft
ruah
ruahpading
ruam
ruanda
rubens
rubin
rubio
rubrik
ruby
ruchu
ruck
ruckn
ruckt
ruda
rude
ruderatshofen
rudi
rudolf
rudolph
rue
ruf
ruft
rufus
rugby
rugendorf
rugier
ruhe
ruhig
ruhm
ruhmannsfelden
[...]
