!
"
#
##0
##1
##10
##11
##12
##13
##14
##15
##16
##17
##18
##19
##2
##20
##21
##22
##23
##24
##25
##26
##27
##28
##29
##3
##30
##31
##32
##33
##34
##35
##36
##37
##38
##39
##4
##40
##41
##42
##43
##44
##45
##46
##47
##48
##49
##5
##50
##51
##52
##53
##54
##55
##56
##57
##58
##59
##6
##60
##61
##62
##63
##64
##65
##66
##67
##68
##69
##7
##70
##71
##72
##73
##74
##75
##76
##77
##78
##79
##8
##80
##81
##82
##83
##84
##85
##86
##87
##88
##89
##9
##90
##91
##92
##93
##94
##95
##96
##97
##98
##99
$
%
&
'
(
)
*
+
,
-
.
/
0
00
000
0000
00016
001
002
003
004
005
006
007
008
009
01
010
011
012
013
014
015
016
017
018
019
02
020
020528
021
022
023
024
025
026
027
028
029
03
030
031
032
03222
033
034
035
036
038
0389
039
04
040
041
042
043
044
045
046
047
048
05
050
051
052
053
054
055
056
057
058
06
060
061
062
063
064
065
066
067
068
069
07
070
071
072
073
074
075
076
077
078
079
08
080
081
082
083
084
085
086
087
089
09
090
091
092
093
094
095
096
097
098
099
1
10
100
1000
10000
1001
1002
1003
1004
1005
1006
1007
1008
1009
101
1010
1011
1012
1013
1014
1015
1016
1017
1018
1019
102
1020
1021
1022
1023
1024
1025
1027
1028
1029
103
1030
1031
1032
1033
1034
1035
1036
1039
104
1040
1041
1042
1043
1044
1045
1046
1047
1048
1049
105
1050
1051
1052
1053
1054
1055
1056
1057
1058
1059
106
1060
1061
1062
1063
1064
1065
1066
1067
1068
1069
107
1070
1071
1072
1073
1074
1075
1076
1077
1078
1079
108
1080
1081
1082
1084
1085
1086
1087
1088
1089
109
1090
1091
1092
1093
1094
1095
1096
1097
1098
1099
11
110
1100
1101
1102
1103
1104
1105
1106
1107
1109
111
1110
1111
1113
1114
1115
1116
1117
1118
1119
112
1120
1121
1122
1123
1124
1125
1126
1127
1128
113
1130
1131
1135
1136
1137
1138
1139
114
1140
1141
1142
1143
1144
1145
1146
1147
1148
1149
115
1150
1151
1152
1153
1155
1156
1158
1159
116
1160
1161
1164
1165
1167
1168
117
1170
1171
1173
1174
1176
1177
1179
118
1180
1181
1182
1183
1184
1186
1187
1188
1189
119
1190
1191
1192
1193
1194
1195
1196
1197
1199
12
120
1200
1202
1203
1204
1206
1207
1208
1209
121
1210
1211
1212
1214
1215
1216
1217
1218
1219
122
1220
1221
1222
1223
1224
1225
1226
1227
1228
1229
123
1230
1231
1232
1234
1235
1237
1238
1239
124
1240
1241
1242
1243
1244
1245
1246
1248
1249
125
1250
1251
1252
1253
1254
1255
1256
1257
126
1260
1261
1262
1263
1264
1265
1267
1268
1269
127
1270
1271
1272
1273
1274
1275
1276
1277
1278
1279
128
1280
1281
1282
1283
1285
1286
1288
1289
129
1290
1291
1292
1293
1294
1295
1296
1297
1298
1299
13
130
1300
1301
1302
1303
1304
1305
1306
1308
1309
131
1310
1311
1312
1313
1314
1315
1316
1317
1319
132
1320
1321
1322
1323
1324
1325
1326
1327
1328
1329
133
1330
1331
1332
1334
1335
1336
1338
1339
134
1340
1341
1342
1343
1345
1346
1347
1348
1349
135
1350
1351
1352
1353
1354
1356
1357
1358
136
1360
1361
1362
1363
1364
1365
1367
1368
1369
137
1370
1371
1372
1373
1374
1375
1376
1377
1378
1379
138
1380
1383
1384
1385
1386
1387
1389
139
1390
1391
1392
1393
1394
1395
1396
1397
1398
14
140
1400
1401
1402
1404
1405
1406
1407
1408
1409
141
1410
1411
1412
1413
1414
1415
1416
1417
1418
1419
142
1420
1421
1422
1423
1424
1425
1426
1427
1428
1429
143
1430
1431
1432
1433
1434
1435
1436
1437
1438
1439
144
1440
1442
1443
1444
1445
1446
1447
1448
1449
145
1450
1451
1452
1453
1454
1455
1456
1457
1458
1459
146
1460
1461
1462
1463
1464
1465
1466
1467
1468
1469
147
1470
1471
1472
1473
1475
1476
1477
1478
1479
148
1480
1481
1482
1483
1484
1485
1486
1487
1488
1489
149
1490
1491
1492
1493
1494
1495
1496
1497
1498
1499
15
150
1500
15000
1501
1502
1503
1504
1505
1506
1507
1508
1509
151
1510
1511
1512
1513
1514
1515
1516
1517
1518
1519
152
1520
1521
1522
1523
1524
1525
1526
1527
1528
1529
153
1530
1531
1532
1533
1534
1535
1536
1537
1538
1539
154
1540
1541
1542
1543
1544
1545
1546
1547
1548
1549
155
1550
1551
1552
1553
1554
1555
1556
1557
1558
1559
156
1560
1561
1562
1563
1564
1565
1566
1567
1568
1569
157
1570
1571
1572
1573
1574
1575
1576
1577
1578
158
1580
1581
1582
1583
1584
1585
1586
1587
1588
1589
159
1590
1591
1592
1593
1594
1595
1596
1597
1598
1599
16
160
1600
1601
1602
1603
1604
1605
1606
1607
1608
1609
161
1610
1611
1612
1613
1614
1615
1616
1617
1618
1619
162
1620
1621
1622
1623
1624
1625
1626
1627
1628
1629
163
1630
1631
1632
1633
1634
1635
1636
1637
1638
1639
164
1640
1641
1642
1643
1644
1645
1646
1647
1648
1649
165
1650
1651
1652
1653
1654
1655
1656
1657
1658
1659
166
1660
1661
1662
1663
1664
1665
1666
1667
1668
1669
167
1670
1671
1672
1673
1674
1675
1676
1677
1678
1679
168
1680
1681
1682
1683
1684
1685
1686
1687
1688
1689
169
1690
1691
1692
1693
1694
1695
16950
1696
1697
1698
1699
17
170
1700
1701
1702
1703
1704
1705
1706
1707
1708
1709
171
1710
1711
1712
1713
1714
1715
1716
1717
1718
1719
172
1720
1721
1722
1723
1724
1725
1726
1727
1728
1729
173
1730
1731
1732
1733
1734
1735
1736
1737
1738
1739
174
1740
1741
1742
1743
1744
1745
1746
1747
1748
1749
175
1750
1751
1752
1753
1754
1755
1756
1757
1758
1759
176
1760
1761
1762
1763
1764
1765
1766
1767
1768
1769
177
1770
1771
1772
1773
1774
1775
1776
1777
1778
1779
178
1780
1781
1782
1783
1784
1785
1786
1787
1788
1789
179
1790
1791
1792
1793
1794
1795
1796
1797
1798
1799
18
180
1800
1801
1802
1803
1804
1805
1806
1807
1808
1809
181
1810
1811
1812
1813
1814
1815
1816
1817
1818
1819
182
1820
1821
1822
1823
1824
1825
1826
1827
1828
1829
183
1830
1831
1832
1833
1834
1835
1836
1837
1838
1839
184
1840
1841
1842
1843
1844
1845
1846
1847
1848
1849
185
1850
1851
1852
1853
1854
1855
1856
1857
1858
1859
186
1860
1861
1862
1863
1864
1865
1866
1867
1868
1869
187
1870
1871
1872
1873
1874
1875
1876
1877
1878
1879
188
1880
1881
1882
1883
1884
1885
1886
1887
1888
1889
189
1890
1891
1892
1893
1894
1895
1896
1897
1898
1899
19
190
1900
1901
1902
1903
1904
1905
1906
1907
1908
1909
191
1910
1911
1912
1913
1914
1915
1916
1917
1918
1919
192
1920
1921
1922
1923
1924
1925
1926
1927
1928
1929
193
1930
1931
1932
1933
1934
1935
1936
1937
1938
1939
194
1940
1941
1942
1943
1944
1945
1946
1947
1948
1949
195
1950
1951
1952
1953
1954
1955
1956
1957
1958
1959
196
1960
1961
1962
1963
1964
1965
1966
1967
1968
1969
197
1970
1971
1972
1973
1974
1975
1976
1977
1978
1979
198
1980
1981
1982
1983
1984
1985
1986
1987
1988
1989
199
1990
1991
1992
1993
1994
1995
1996
1997
1998
1999
2
20
200
2000
20000
2001
2002
2003
2004
2005
2006
2007
2008
2009
201
2010
2011
20110609
20111031
20111102
20111114
20111119
20111121
20111122
20111123
20111128
20111204
2012
20120410
20121114075539
2013
2014
2015
2016
2017
2018
2019
202
2020
2021
2022
203
2030
204
205
206
207
2070
208
209
21
210
2100
211
212
213
214
215
216
217
218
219
22
220
2200
221
2218
222
2220
2221
2222
223
224
2246
2249
225
226
227
228
229
23
230
2300
2305
2307
2308
2309
231
2312
2317
232
233
234
235
236
237
238
2385
239
24
240
2400
241
2419
242
243
244
245
246
247
248
249
25
250
2500
251
252
253
254
255
256
257
258
259
26
260
2600
261
262
263
264
265
266
267
268
269
27
270
271
272
273
274
275
276
277
278
279
28
280
2800
281
282
283
284
285
286
287
288
289
29
290
291
292
293
294
295
296
297
298
299
3
30
300
3000
301
3013
302
3023
303
304
305
306
307
308
309
31
310
311
312
313
3139
314
315
316
3166
317
3175
318
319
3196
32
320
3200
321
322
323
324
325
326
327
328
329
33
330
331
332
333
334
335
336
337
338
339
34
340
3406305628
341
342
343
344
345
346
347
348
349
35
350
3500
351
352
353
354
355
356
357
358
359
36
360
361
362
363
364
365
366
367
368
369
37
370
371
372
373
374
375
376
377
378
379
38
380
381
382
383
384
385
386
387
388
389
39
390
391
392
393
394
395
396
397
3977
398
3980702871
399
4
40
400
4000
401
402
4020
403
404
405
406
407
408
409
41
410
411
412
413
414
415
416
417
418
419
42
420
421
422
423
424
425
426
427
428
429
43
430
431
432
433
434
435
436
437
438
439
44
440
441
442
443
444
4447
445
446
447
448
449
45
450
4500
451
452
453
454
455
456
457
458
45835
459
46
460
461
462
46264
463
464
465
466
467
468
469
47
470
471
472
473
474
475
476
477
478
479
48
480
481
482
483
484
485
486
487
488
489
49
490
491
492
493
494
495
496
497
498
499
5
50
500
5000
5007
501
502
503
504
505
506
507
508
509
51
510
51028
511
512
513
514
515
516
517
518
519
52
520
521
522
523
524
525
526
527
528
529
53
530
53032
531
532
533
534
535
536
537
538
539
54
540
541
542
543
544
545
546
547
548
549
55
550
5500
551
552
553
554
555
556
557
558
559
56
560
561
562
563
564
565
566
567
568
569
57
570
571
572
573
574
575
576
577
578
579
58
580
581
582
583
584
585
586
587
588
589
59
590
591
592
593
594
595
596
597
598
599
6
60
600
6000
601
602
603
604
605
606
607
608
609
61
610
611
612
613
614
61400
615
616
617
618
619
62
620
621
622
623
624
625
626
627
628
629
63
630
631
632
633
634
635
636
637
638
639
64
640
641
642
643
644
645
646
647
648
649
65
650
651
652
653
654
655
656
657
658
659
66
660
661
662
663
664
665
666
667
668
669
67
670
671
672
673
674
675
676
677
678
679
68
680
681
682
683
684
685
686
687
688
689
69
690
691
692
693
694
695
696
697
698
699
7
70
700
7000
7001
701
7017
702
703
704
705
706
707
708
709
71
710
711
712
713
714
7141
7148
715
716
717
718
719
72
720
721
722
723
724
725
726
727
728
729
73
730
731
732
733
734
735
736
737
738
739
74
740
741
742
743
744
745
746
747
748
749
75
750
7500
751
752
753
754
755
756
757
758
759
76
760
7608
761
7618
762
763
7630
7633
764
7643
765
766
767
768
769
7696
77
770
7701
7705
771
772
773
774
775
7757
776
7766
777
7774
778
779
78
780
781
782
783
784
7844
785
786
7861
787
7873
788
789
79
790
791
7913
7917
792
793
794
795
7954
796
797
7973
798
799
7991
8
80
800
8000
8001
801
8018
802
803
8031
804
805
8053
806
8062
807
808
809
81
810
8108
811
812
813
814
815
8157
816
817
818
819
82
820
821
8218
822
8228
823
824
825
8252
8253
8258
826
8260
827
8274
828
8289
829
8290
83
830
8300
831
832
8321
833
8331
834
835
836
837
838
839
84
840
841
842
84234
843
844
845
846
847
848
849
85
850
85002
85085
851
852
85252
853
854
855
856
857
858
859
86
860
861
862
863
864
865
86520
866
867
868
869
87
870
871
872
873
874
87490
875
8753
87548
876
877
878
87838
879
88
880
8801
8802
881
882
883
884
885
886
88619
887
888
889
89
890
89007
891
892
89251
89264
893
894
895
896
897
89702
898
899
9
90
900
9000
901
901781
902
903
904
905
906
907
908
909
91
910
91001
911
912
913
914
915
916
917
918
919
92
920
921
922
923
924
925
926
927
928
929
93
930
931
932
933
934
935
936
937
938
939
94
940
941
942
943
944
945
946
947
948
949
95
950
951
952
9528
953
954
955
956
957
958
959
96
960
961
962
963
964
965
966
967
968
969
97
970
971
972
973
974
975
976
977
978
979
98
980
9800386
981
982
983
984
985
986
987
988
989
99
990
991
992
9928
993
994
995
996
997
998
999
:
;
<
=
>
?
@
\
^
_
`
a
aa
aaa
aachen
aachn
aacsb
aaf
aafbau
aafbaut
aafgabn
aafgleast
aafgnomma
aafgrund
aafgsto
aafhebung
aafkemma
aafoch
aaftretn
aak
aan
aana
aane
aanle
aans
aar
aaron
aas
aau
ab
aba
abach
abau
abaut
abb
abba
abbeville
abbey
abbildung
abbildungen
abbrochn
abc
abchasien
abd
abdullah
abe
abel
abenaki
abenberg
abend
abends
abendwind
abendzeitung
abensberg
abenteuer
aber
aberdeen
abes
abgb
abgerufen
abha
abhandlung
abhandlungen
abi
abitate
abitur
abku
abner
about
abraham
abrams
abrogans
abruzzen
abs
absalon
absatz
absberg
abschied
abschluss
abschnitt
absolut
absolute
absolutismus
absolviat
abstand
abstract
abt
abtei
abteilung
abteilunga
abtheilung
abu
abzug
abzw
ac
acade
academia
academy
acamapichtli
acatl
access
accessed
accord
account
ace
ach
acha
ache
achievement
achilles
achilleus
achim
achleitner
achn
achromatische
achse
achsn
acht
achter
achternbusch
achtung
aci
ackafla
acker
ackerfla
ackermann
acme
acog
acolhua
aconcagua
acorn
acoustic
acre
acres
act
acta
acten
actes
action
active
acton
actor
acts
ad
ada
adagio
adair
adalbert
adam
adams
adamson
adan
adana
adat
adblock
adda
addian
addiara
addison
addition
ade
adel
adelaide
adele
adelheid
adelschlag
adelsdorf
adelshofen
adelzhausen
aden
adenauer
adi
adidas
adige
adjazent
adjektiv
adjektive
adkins
adl
adla
adler
adlich
adliga
adlige
adlign
adlkofen
adlsgschlecht
administration
administrativ
administrative
administrativn
administrativo
administratoa
administrator
admiral
adobe
adolf
adolfo
adolph
adolphe
adorno
adress
adressn
adria
adrian
adsdrat
advance
advanced
advent
adventisten
adventures
adverb
adverbien
advisory
adweam
ae
aeaffnat
aeiou
aemilius
aeneid
aerial
aero
aes
aeso
af
afa
afahrung
afan
afang
afbau
afbaud
afbaut
afd
afdaucht
afdren
afdrid
aff
affa
affairs
affe
afferbach
affi
affing
afg
afgem
afgfiahd
afgfiat
afgfoin
afgfundn
afghanistan
afghead
afghom
afgla
afglesd
afglest
afglestn
afgmocht
afgnumma
afgob
afgobn
afgom
afgonga
afgrouffn
afgrund
afgschto
afgwoxn
afi
afkema
afkumma
afl
afla
aflesung
aflistung
aflog
afm
afn
afoch
afoigt
afra
afrecht
africa
african
afrika
afrikaans
afrikanische
afrikanischn
afrikas
afrique
afro
afroamerikana
afs
afsa
afschwung
afsotz
afstieg
aft
aftaucht
afteid
afteit
after
afteud
aftredn
aftretn
aftritt
aftrog
afzoachnungan
ag
aga
again
against
agamemnon
agate
agatha
agder
age
agebnis
agem
agency
agent
ages
agfaungt
agger
agglomarazion
agglomeration
agilolfinga
agilolfinger
agios
agnes
agram
agri
agricola
agrippa
agropoli
agua
aguilar
ah
aha
aham
ahd
ahmad
ahmadiyya
ahmed
ahoitn
aholfing
aholming
ahom
ahorn
ahrend
ahrens
ahrntal
ahrung
ahrungan
aht
ahtin
ahu
ai
aibling
aic
aich
aicha
aichach
aichau
aichenzell
aid
aidenbach
aidenboch
aidhausen
aids
aigane
aiganen
aigehof
aigen
aigene
aigenen
aigens
aigfiad
aigsezt
aiken
aim
aime
ain
ainflus
aing
aingan
ainheit
aini
ainring
ainu
air
airbus
aircraft
aires
airlines
airopa
airopeischn
airplane
airport
airways
ais
aisch
aise
aisne
aiso
aissan
aitrang
aitzal
aix
aißan
aißare
aißastn
aj
ajax
ajs
ajvaz
ak
aka
akademi
akademie
akademische
akademischer
akademischn
akenntnis
akenntnistheoretisch
akenntnistheoretische
akenntnistheoretischn
akenntnistheorie
aker
akers
akershus
akira
akkreditierungsagenturn
akkusativ
akla
akquisition
aksum
aksumitischn
akt
akte
akten
aktien
aktif
aktion
aktiv
aktiva
aktive
aktivita
aktivn
aktn
aktualisierte
aktuej
aktueje
aktuejn
aktuell
aktuella
aktuelle
aktuellen
aktuelln
aktuo
akustik
akustische
akzent
akzeptiad
akzeptiat
al
ala
alabama
alain
alameda
alamito
alamo
alamos
alamosa
alan
alanen
alarm
alaska
alaubt
alb
alba
albacete
alban
albanien
albanisch
albano
albany
albedo
alben
alber
albert
alberta
alberti
alberto
albi
albin
albino
albinus
albion
albn
albrecht
albstadt
albuin
album
albums
alburni
alda
alden
alder
aldrich
aldridge
ale
alec
aleksander
alemanen
alemannen
alemannisch
alemannische
alemannischn
alene
alentejo
aleph
ales
alesia
alessandro
aleutn
alex
alexander
alexandra
alexandre
alexandria
alexandrowitsch
alexei
alexejewitsch
alexis
alf
alfabet
alfeld
alfons
alfonso
alford
alfred
alfredo
alge
alger
algerien
algiris
algonkin
algorithmus
alhambra
ali
alias
alibi
alice
alich
alif
align
alignbars
alive
alkali
alkohol
alkoholhaltiges
all
alla
allach
alladings
allah
allan
allawei
alle
allee
allegany
allegheny
allegorie
allegretto
allegro
allein
allem
allemande
allen
allens
aller
allerdings
allerheiligen
alles
alley
allga
allgai
allgemein
allgemeine
allgemeinen
alliance
allianz
alligator
allison
allitera
allm
allma
allman
allmusic
alloa
alloan
alloane
alloani
alloanige
alls
alltag
alm
alma
almanach
almost
alo
aloa
aloha
alois
alone
along
alonso
alor
alpen
alpenla
alpes
alpha
alphaba
alphabet
alphabetisch
alphabetische
alphonse
alpin
alpina
alpine
alpinen
alpn
als
also
alt
alta
altai
altamerikas
altar
altbayern
altdorf
alte
alteglofsheim
alten
altenberg
altenbuch
altenburg
altenstadt
altenthann
altenwo
altepetl
alter
alternative
altertum
altes
altfeld
altgriechisch
althochdeutsche
althochdeutsches
althoff
altmann
altmu
altn
alto
alton
altona
altoona
altstadt
alum
aluminium
alva
alvin
always
alz
alzenau
alzette
am
ama
amadeus
amalia
amalie
amalthea
amand
amann
amants
amateurliga
amazon
amazonas
amba
amberg
ambrogio
ambros
ambrose
ambrosia
ambrosius
ame
amearika
amelia
amen
amendingen
amerang
america
american
americana
americans
amerigo
amerika
amerikana
amerikaner
amerikanisch
amerikanischa
amerikanische
amerikanischen
amerikanischer
amerikanisches
amerikanischn
amerikanischs
amerikas
amery
ames
amesbury
ami
amica
amiga
amis
amitabha
ammagebirg
ammer
ammerland
ammersee
ammon
amo
amoi
amol
amols
among
amor
amorbach
amore
amores
amos
amour
amper
ampere
ampfing
amphibien
ams
amsterdam
amstetten
amt
amtes
amtl
amtle
amtli
amtlich
amtliche
amtlichen
amtliches
amtlichn
amts
amtsbeziak
amtsgericht
amtsgricht
amtssproch
amtssprochn
amtszeit
amundsen
amur
amy
an
ana
anaconda
analects
analog
analyse
analysen
analysis
analysn
anan
anarchie
anarchismus
anaseits
anatolien
anatomie
ances
anchor
anchorage
ancient
ancona
and
anda
andalusien
andam
andaman
andan
andana
andane
andante
andara
andare
andarm
andarn
andarne
andars
andas
ande
andechs
anden
andere
anderem
anderen
anderer
anderl
anderm
andern
anderne
anders
andersen
anderson
andes
andi
andn
andorra
andra
andre
andrea
andreas
andrei
andrew
andrews
android
andromeda
andy
ane
aneb
aneit
anekdoten
anekdotn
anem
aner
anerkannt
anerkennung
anfa
anfang
anfangsbuchstaben
ang
angabe
angaben
ange
angeblich
angebot
angebote
angel
angela
angeles
angeli
angelika
angelina
angelini
angelo
angels
angelsa
angelsberg
angelus
anger
angerer
angermeier
angers
angewachsen
angewandte
angkor
angle
anglican
anglikanischn
anglo
angola
angriff
angst
angus
anh
anha
anhalt
anhand
anhang
anhoit
ani
aniche
anif
anige
anima
animal
animals
animated
animation
anime
anita
anja
anjou
anla
anlag
anlage
anlass
anleitung
anm
anmerkungen
ann
anna
annaberg
annalen
annapolis
anne
annemarie
annette
anni
annie
anninger
anniversary
anno
annotated
annual
ano
anonym
anonyme
another
ans
ansa
ansbach
ansbacher
ansbachischn
anschluss
anse
anselm
ansicht
ansichten
ansiedlung
ansonstn
anspruch
ansta
anstalt
antalya
antarctic
antarktika
antarktis
antarktische
antarktischn
ante
anteil
antenne
antesperg
anthologie
anthology
antholz
anthony
anthropologie
anti
antigone
antigua
antika
antike
antiken
antikn
antillen
antioch
antiochia
antiochien
antiochos
antiqua
antisemitismus
antje
antn
anto
antofagasta
antoine
anton
antoni
antonia
antonio
antonius
antrodoco
antwerpen
antwickling
antwicklt
antwoat
antwoatn
antwort
anwendung
anwendunga
anwesen
anwoit
any
anzahl
anzeige
anzeiger
anzengruber
anzich
anziche
anzige
anzlnan
anzngruawa
anzoi
ao
aokp
aosta
aostatal
aostatoi
ap
apa
apache
apachen
aparajito
apek
apennin
apfel
aphel
aphorismen
aphorismus
aphrodite
api
apollinaris
apollo
apollon
apollonia
apostel
apostl
app
appalachen
apparat
apparatus
apple
application
applied
apps
apremont
april
apru
aprui
aps
apulien
aqua
aquarej
aquarium
aquila
aquileia
aquin
aquitaine
aquitanien
ar
ara
arab
araba
arabic
arabica
arabien
arabisch
arabischa
arabische
arabischen
arabischn
arad
aralsee
aram
arama
aran
arana
arapey
araucani
arba
arbad
arban
arbat
arbatgeba
arbatn
arbatsort
arbatspla
arbeit
arbeiten
arbeiter
arbeitsgemeinschaft
arbeo
arberg
arbes
arbing
arbon
arbor
arc
arcadia
arch
archa
archaeological
archaeologie
archaeology
arche
archeologische
archer
archetypen
archidioecesis
archimedes
archipel
archipl
architect
architecture
architekt
architekten
architektn
architektua
architektur
archiv
archive
archives
archiviad
arcimboldo
arco
arctic
ard
arde
are
area
areal
areas
areicha
areicht
arena
arenal
arend
arendt
ares
aresing
aretin
arezzo
arg
argentina
argentinien
argentinischa
argentinische
argentinischn
argir
argument
aria
ariadne
arica
aricht
arie
ariel
arien
ariola
aristophanes
aristoteles
arizona
ark
arkansas
arktis
arktischn
arles
arlington
arlo
arm
arma
armada
armageddon
armand
arme
armee
armen
armenien
armenische
armin
arminia
armor
arms
armstrong
army
arn
arnbruck
arne
arno
arnold
arnos
arnulf
aroma
around
arp
arrangement
arrangements
arras
arrdeng
arreicht
arrondissement
arrondissemente
arrondissements
arrondissementsopassunga
arroyo
ars
arsenal
art
arte
artemis
arten
arthur
article
articles
artike
artikel
artikl
artillerie
artist
artists
artmann
artn
arts
artur
arundel
arung
arvn
arzberg
arzt
as
asam
asbach
ascension
ascha
aschaff
aschaffenburg
aschaffenburga
aschaffenburger
aschaffnbuag
aschau
ascii
asdeanung
aserbaidschan
aserbaidschanische
asgard
asgoub
ash
ashland
ashoka
ashton
asia
asiago
asiatische
asiatischn
asien
ask
aslaut
asn
aso
asp
aspekt
aspekte
aspx
ass
assa
assabracht
assagem
assai
assakumma
asse
assembly
assisi
association
assomption
assproch
assunta
ast
asterix
asteroid
asteroiden
asteroidn
asteroidngiatl
asthma
asti
astor
astrid
astro
astrono
astronom
astronoma
astronomen
astronomical
astronomico
astronomie
astronomin
astronomische
astronomischn
astrophysics
astrophysik
asu
asv
aswej
at
ata
atabuach
atacama
atacamawu
atascosa
atatu
atelier
athanasius
atheistn
athen
athena
athene
athens
athesia
athos
atlanta
atlantic
atlantik
atlantikgstod
atlantiques
atlantis
atlantischa
atlantischer
atlantischn
atlas
atmen
atmospha
atn
atoll
atom
atome
atomkern
atra
ats
attack
attagau
attentat
attersee
attika
attila
attnang
attr
attraktion
attribut
attribute
attributed
atu
atv
atwood
au
aub
aubach
aube
aubervilliers
aubin
aubing
aubotn
aubrocht
auburn
auch
auckland
audi
audio
auditorium
aue
auer
auerbach
auerberg
auf
aufa
aufaung
aufaunga
aufaungsbuachschtobm
aufaungsbuxschtobn
aufaungt
aufbau
aufbaud
aufbaun
aufbaut
aufbereitung
aufbrocha
aufbruch
aufd
aufdrog
aufe
auffa
auffe
auffi
auffu
aufg
aufgab
aufgabe
aufgaben
aufgefu
aufgelo
aufgem
aufgenommen
aufgfiad
aufgfiaht
aufgfiat
aufgfoin
aufgfu
aufghead
aufghobm
aufghom
aufglegt
aufglest
aufglestn
aufglist
aufglo
aufgmocht
aufgnomma
aufgnuma
aufgnumma
aufgnumman
aufgob
aufgobm
aufgom
aufgrund
aufgschdo
aufgschrim
aufgstaut
aufgstejt
aufgsto
aufgwochsn
aufgwoxn
aufhauser
aufhean
aufhebung
aufi
aufkema
aufkemma
aufkirchen
aufkla
aufkumma
aufl
aufla
auflage
auflesung
auflistung
auflo
auflog
aufloga
auflogakra
auflogakroft
auflogn
aufm
aufn
aufnahm
aufnahma
aufnahme
aufnahmen
aufnauhm
aufnehma
aufnehman
aufnimmt
aufnohm
aufpassn
aufrecht
aufs
aufsa
aufschdaund
aufschwung
aufseß
aufsta
aufstand
aufstaund
aufstieg
aufsto
aufta
auftaucht
aufteild
aufteilt
aufteilung
aufteit
auftra
auftrag
auftredn
auftret
auftretn
auftritt
auftritte
auftrog
auftrogn
aufwa
aufweisn
aufweist
aufwendig
aufzeichnungen
aufzu
aufzug
aug
augaschiat
auge
augem
augen
augfaunga
augfaungd
augfaungt
augfiat
augha
auglegd
auglegt
augn
augnumma
augoadnd
augriff
augriffa
augsburg
augsburger
augschaut
augschbuag
augschbuaga
augschburg
augschburga
augschlossn
augschoft
augschriam
augseng
augsidlt
augsiedlt
august
augusta
auguste
augustin
augustine
augustiner
augustinus
augusto
augustus
auha
auhausen
auhoidn
aui
aukema
aukiacha
auku
aula
aulinger
aulus
aum
aumt
aumtlich
aumtsschbroch
aumu
aun
aunakaunt
aunan
aunbau
aunbaufla
aunbaugegendn
aunbot
aunbotn
aunda
aundam
aundan
aundane
aundara
aundaraseits
aundare
aundas
aundast
aundraseits
aundre
aunehma
aunfaung
aung
aungeblich
aungebot
aungfaungt
aungst
aunimmt
aunla
aunlog
auns
aunschluss
aunta
aunteu
auntwuat
aunzohl
aunzoi
aupasst
aura
aurach
aurel
aurelius
aurora
aus
ausa
ausanandasetzung
ausanaund
ausanaunda
ausbau
ausbaud
ausbaude
ausbaun
ausbauschbroch
ausbaut
ausbildung
ausblick
ausbreitung
ausbroadt
ausbroat
ausbroatn
ausbroatung
ausbrocha
ausbruch
ausbu
ausbuidt
ausbuidung
auschaun
auschwitz
ausdehnt
ausdehnung
ausdrick
ausdrong
ausdru
ausdruck
ausdruckt
ausfiahrung
ausflugszu
ausfoah
ausfoahsigna
ausfoahsignoi
ausfoaht
ausfoi
ausfu
ausg
ausga
ausgabe
ausgaben
ausgang
ausganga
ausgangspunkt
ausgaung
ausgaunga
ausgeh
ausgeht
ausgem
ausgewa
ausgezeichnet
ausgfiaht
ausgfoin
ausgfu
ausghom
ausgla
ausglegt
ausgleich
ausglest
ausgmocht
ausgnumma
ausgob
ausgobm
ausgom
ausgonga
ausgongspunkt
ausgrabungen
ausgricht
ausgrobunga
ausgrom
ausgru
ausgruafa
ausgruafn
ausgschaud
ausgschaut
ausgschbrocha
ausgschiedn
ausgschlossn
ausgsetzt
ausgsprocha
ausgsprochn
ausgstatt
ausgstejt
ausgstorm
ausgstott
ausgstrahlt
ausgstroid
ausgstroit
ausgstuam
ausgu
ausgwa
ausgwaundat
ausgwiesen
ausgwiesn
ausgwo
ausi
auskunft
ausla
auslaifa
ausland
auslandseisa
auslaund
auslaut
auslegung
ausleifa
auslesn
auslo
auslossn
ausm
ausmocht
ausn
ausnahm
ausnahma
ausnahme
ausnauhm
ausnaum
ausnohm
auspra
auspu
ausrechna
ausrechnan
ausrichtn
ausrichtung
ausru
ausruafung
aussa
aussabrocht
aussadem
aussagebm
aussagem
aussahoib
aussakema
aussakemma
ausschaud
ausschaugt
ausschaun
ausschaung
ausschaut
ausschbroch
ausschliasslich
ausschliaßli
ausschliaßlich
ausschließle
ausschnitt
ausschuss
ausse
aussee
aussekumman
ausseng
aussi
aussicht
aussichtspunkt
aussn
aussog
aussogn
aussong
aussprache
aussproch
ausstattung
aussteam
ausstejung
ausstellung
ausstellunga
ausstellungen
ausstellungskatalog
aussterm
aussto
aust
austausch
austauscht
austin
australia
australian
australien
australischa
australische
australischn
austria
austrian
austriazismen
austritt
austro
austrogn
austrong
austropop
ausu
auswa
auswahl
ausweatige
ausweisung
auswiakunga
auswirkunga
auswirkungen
auswoi
auswoih
auszeichnat
auszeichnet
auszeichnt
auszeichnung
auszeichnunga
auszeichnungen
auszoachnung
auszug
aut
autem
autenbach
auteu
authentisch
authorities
authority
auto
autoa
autoan
autobahn
autobahndreieck
autobahnen
autobahnkreiz
autobahnring
autobiografie
autobiographie
autobiography
autoboh
autobohn
autobohna
autobohring
autochtone
autohotkey
automat
automatic
automatik
automatisch
automatische
automobil
automobile
automotive
autonoma
autonome
autonomen
autonomes
autonomie
autor
autoren
autori
autorin
autorita
autorn
autorna
autornan
autoroute
autos
autostrada
auvergne
auweh
auwoid
aux
auzoagt
auzoi
außa
außadem
außagwehnliche
außahoi
außahoib
außastejd
außenstelle
außer
außerdem
außerhoib
außn
außnwo
av
ava
available
avalon
avant
avantgarde
ave
avec
avellino
avenue
avery
aviation
avicenna
avis
aviv
avon
avondale
awa
award
awards
awaren
awarische
awarischn
awarn
away
awej
awiil
awl
ax
axel
axes
axiome
axn
axon
axt
ay
aya
aying
aymara
ayn
ayr
ayrshire
ayı
az
azoi
azt
aztec
azteken
aztekeng
aztekische
aztekn
azu
azung
azur
azərbaycan
aß
aßling
b
ba
baam
baama
baamstamm
baamwoi
baar
bab
baba
babel
babia
babic
baby
babylon
bac
baca
bacchus
bach
bacha
bachal
bachelor
bacher
bachmann
bachs
back
backgroundcolors
bacon
bad
bade
baden
baderschdorf
badia
badn
bagha
bahamas
bahaupt
bahia
bahn
bahnhof
bahnlinie
bahnstreck
bahnstrecke
bahnstreckn
bahrain
bai
baian
baide
baie
baier
baiern
baiernheazog
baiersdorf
bailey
baim
bain
bains
bair
bairisch
bairische
bairischen
bairischer
bairisches
bairischn
baischbu
baispu
baiuvariorum
bajuwaren
bajuwarische
bajuwarischn
bajuwarn
baker
bakterien
baku
bal
balance
bald
baldr
baldwin
bali
balin
balkan
balkon
ball
ballade
balladn
ballenstedt
ballet
ballett
ballinger
ballungsraum
bally
baltea
balthasar
baltimore
bam
bamberg
bamberga
bamberger
ban
banarsidass
banat
band
banda
bande
bandgschicht
bandit
bandl
bandln
bandn
bands
bang
bangladesch
bangladesh
banimmt
banja
bank
bankier
bankn
banknotn
banks
bann
banner
bannert
banska
bantu
banumma
banzenweiler
baptist
baptiste
baptisten
baptisterium
bar
barack
barat
barbados
barbara
barbarossa
barber
barbera
barbora
barbuda
barcelona
bardata
bareid
bareida
bari
barincrement
bariton
barker
barnes
baro
barock
barocke
barocken
barockn
barok
baron
barra
barren
barrier
barrington
barrio
barrn
barry
bars
barset
bart
barth
barthe
barthelmarkt
bartholoma
bartlett
bartolomeo
barton
baruch
bas
basalt
base
based
basee
basel
basho
basiad
basian
basiat
basic
basiert
basil
basilica
basilika
basin
basis
basketball
basketboi
baskisch
baskische
baskischn
basl
basn
basque
bass
bassa
bassau
bassaua
basse
bassiad
bassist
basso
basst
bastei
baster
bastien
bastrop
bat
bataillon
bath
batista
baton
batou
batteries
battery
battista
battle
battlefield
batzl
bau
baua
bauakustik
bauan
bauanhaus
bauanhef
bauanho
bauanhof
baubeginn
bauch
baud
baude
baudenkma
baudenkmal
baudenkmoi
bauelement
bauen
bauer
bauern
bauernhof
bauernleben
bauerntheater
baufla
bauform
bauhauptgewerbe
bauhaus
bauhittn
bauhn
bauhnhef
bauhnhefn
bauhnhof
bauhnsteig
bauli
baulich
baum
baumann
baumgarten
baumgartner
baumoasta
baun
baunach
baunan
baund
baunk
baunln
bauoabatn
bauoat
bauoawadn
baur
baurecht
baureih
baustil
bausto
baustoff
bausubstanz
baut
bauta
baute
bautei
bauteile
bauten
bautn
bauuntanehma
bauweak
bauweake
bauweakn
bauweis
bauwerk
bauwerke
bauwesen
bauzeit
bavaria
bavariae
bavarian
bawiegend
baxter
bay
bayan
bayer
bayerisch
bayerischa
bayerische
bayerischen
bayerischer
bayerisches
bayerischn
bayerland
bayern
bayernatlas
bayernland
bayernliga
bayernpartei
bayerns
bayerwald
bayeux
bayonne
bayou
bayreith
bayreuth
bayreuther
bayrhammer
bayrisch
bayrischa
bayrische
bayrischen
bayrisches
bayrischn
baze
bb
bbc
bbe
bbenn
bc
bchmte
bd
bde
bdeit
bdeitung
be
bea
beach
beacon
beag
beagbau
beage
beaggmoaschoft
beagland
beagschui
beagweak
beahma
bealin
beamta
beamtn
bean
bear
bearb
bearbeitet
bearbeitete
bearbeitung
beasn
beat
beata
beate
beatles
beatrice
beaufort
beaulieu
beaumont
beautiful
beauty
beauvais
beaver
bebaung
bebaut
bec
bech
bechhofen
beck
becken
beckenbauer
becker
beckn
beckstein
beda
bedarf
bedau
bedeant
bedeckd
bedeckt
bedecktsamer
bedeidd
bedeidt
bedeit
bedeitande
bedeitend
bedeitenda
bedeitende
bedeitendn
bedeitendste
bedeitendsten
bedeitendstn
bedeitn
bedeitnd
bedeitnda
bedeitnde
bedeitndn
bedeitung
bedeitunga
bedero
bedeutung
bedford
bedient
bedingt
bedingte
bedingung
bedingunga
bedingungsform
bedoaf
bedrim
bedrogd
bedrogt
bedroht
bedrohte
bedrohung
bedrong
bee
beech
beeiflusst
beeinflusst
been
beendet
beendn
beendt
beer
beethoven
beethovens
befa
befehl
befehle
befehlsstellwerk
befehlswerk
befestigt
befestigte
befestigung
befind
befindd
befinden
befindet
befindn
befindt
befo
befoa
befoahn
before
befosst
befrein
befreit
befreiung
befreiungshalle
befruchtung
befundn
beganga
begann
begegnung
begegnungen
begeistat
begin
beginn
beginning
beginnt
begleit
begleita
begleitet
begleitung
begonga
begonna
begonnen
begra
begrenzd
begrenzt
begrenzung
begrif
begriff
begriffe
begriffn
begriffsklearung
begrinda
begrindt
begrindung
begrom
begru
begu
beha
behandelt
behandlt
behandlung
behaundlt
behaundlung
behaupt
behauptet
behauptn
beheabeagt
beheadn
beheascht
beherbergt
behind
behindat
behlingen
behm
behman
behmen
behmisch
behmische
behmischn
beho
bei
beibrocht
beide
beiden
beides
beidlschbo
beidn
beidrong
beifall
beifoi
beiheft
beijing
beilage
beilog
beim
bein
beina
beinama
beine
being
beira
beirut
beischbu
beischbui
beischbuisweise
beischpu
beischpui
beisl
beispiel
beispiele
beispil
beispill
beispu
beispui
beispuisweis
beispuisweise
beitra
beitrag
beitretn
beitritt
beitrog
beitrogn
beitrong
beißen
bejcha
bejchl
bejgien
bejgischa
bejgische
bejgischn
bejm
bejmas
bejmisch
bejmischa
bejmische
bejmischn
beka
bekannt
bekannta
bekanntastn
bekannte
bekannter
bekannteste
bekanntestn
bekanntn
bekannts
bekaunnt
bekaunnte
bekaunt
bekauntaste
bekauntastn
bekaunte
bekauntn
bekenntnis
bekli
beko
bekonnd
bekonnde
bekonnt
bekonnta
bekonntaste
bekonntastn
bekonnte
bekonntestn
bekonntn
bel
bela
belagert
belagerung
belarus
bele
beleg
belege
belegt
beleichtung
beleidigung
beleng
belgien
belgrad
beliabig
beliabt
beliabta
beliabtastn
beliabte
beliabtn
beliabts
belichtungszeit
beliebig
beliebt
beliebte
belize
bell
bella
belle
bellershausen
belles
belletristik
bellevue
belli
bellinzona
bellmann
bello
belluno
belmont
belo
belogarung
belogat
belohnt
belost
belostung
belser
belt
belvedere
bem
bemerkungen
bemischn
bemu
ben
bena
benachbarten
benannt
benaunnt
benaunt
bend
bender
beneatigt
benedetto
benedict
benedikt
benediktbeiern
benediktbeuern
benediktina
benediktiner
benefiz
benefizvuasto
benennt
benennung
benes
benevent
benin
benito
benjamin
bennett
benno
benny
beno
benochboadn
benochboate
benochboatn
benoi
benoit
benonnt
benschberg
benschberga
benson
benton
benutzn
benutzt
benz
beoawatung
beobocht
beobochtn
beobochtung
beochtn
beppo
ber
beraits
berall
berarb
berarbeitete
beratung
berbe
berber
berblick
berchtesgaden
berchtesgadener
berchtsgoan
berchtsgoana
berchtsgoaner
bercker
berechnat
berechnet
berechnung
bereich
bereiche
bereichen
bereichn
bereit
bereits
beretsch
berg
bergamasco
bergamo
bergang
bergbau
berge
bergen
berger
bergham
berghammer
berghammerin
bergheim
bergisch
bergland
bergman
bergmann
bergn
bergrothenfels
bergtheim
bergverlag
bergwerk
berhaupt
bericht
berichte
berichtet
berichtn
berihmde
berihmdheitn
berihmt
berihmta
berihmtasde
berihmtasdn
berihmtaste
berihmtastn
berihmte
berihmtheidn
berihmtheitn
berihmtn
bering
berkeley
berkenbosch
berlin
berlina
berliner
bermuda
bern
berna
bernard
bernardino
bernardo
bernau
bernauer
bernbeuren
bernd
berndorf
berne
berner
bernhard
bernhardswinden
bernhardt
bernstein
bernt
berota
berry
bers
bersee
bersetzt
bersetzung
bersetzungen
bersicht
bert
berta
bertelsmann
bertha
berthold
bertolt
bertragen
bertram
bertrand
beru
beruaf
beruafliche
beruafsfochschui
beruf
berufe
berufliche
berufsfachschui
berufsschui
berufsschuin
bes
besar
besatzungszone
besch
bescha
bescheid
beschlossn
beschluss
beschra
beschreibt
beschreibung
beschreim
beschreiwung
beschrieb
beschriem
beschrim
beschu
besde
bese
beseitigt
besen
besetzt
besetzung
besiedlt
besiedlung
besiegt
besitz
besitza
besitzn
besitzt
besitzunga
besn
besondas
besondere
besonderer
besonders
besprechung
bessa
bessan
bessare
bessenbach
besser
bessere
best
besta
bestand
bestanden
bestandteil
beste
bestehande
bestehd
bestehend
bestehende
bestehn
besteht
besten
bestenga
bestengan
bester
bestes
bestimmt
bestimmte
bestimmtn
bestimmung
bestn
bestseller
besuch
besucher
besundas
bet
beta
beteiligt
beteiligtn
beteiligung
beth
bethel
bethlehem
betit
betn
beton
betont
betonte
betontod
betonung
betra
betracht
betrachtet
betrachtung
betreffnd
betreiba
betreibn
betreibt
betreim
betreit
betreut
betriab
betriabssystem
betriam
betrieb
betriebe
betriebm
betriebn
betriebsoat
betriebssto
betriebssystem
betriem
betrifft
betrocht
betroffa
betroffn
betrog
betrogd
betrogn
betrogt
betrong
betrug
bett
better
bettina
bettingen
bettn
betty
between
betzenstein
beulah
beule
beulnpest
beute
bev
beve
beveakarung
bevejkarung
bevejkarungsdichte
bevejkarungsdichtn
bevejkarungsentwicklung
bevejkarungsreichsdn
bevejkarungszoi
beverly
bevo
bevoa
bevoazugt
bevor
bevua
bewa
beweatung
beweglichn
bewegt
bewegung
bewegunga
bewegungen
bewehrung
beweis
beweise
beweisn
beweist
beweng
bewertete
bewertung
bewiakt
bewiesn
bewocht
bewohna
bewohnd
bewohner
bewohnt
bewoidt
bewusst
bewusstsei
bewusstsein
bey
beyer
beyerlein
beyond
bez
bezaichnet
bezaichnung
bezeichn
bezeichna
bezeichnan
bezeichnat
bezeichnd
bezeichnen
bezeichnet
bezeichnt
bezeichnung
bezeichnunga
bezeichnungen
bezeichung
bezeigt
beziagd
beziagn
beziagt
beziahung
beziahunga
beziahungsweis
beziak
beziake
beziaksamt
beziakshauptstod
beziaksmuseum
beziaksteu
beziakswexl
beziang
beziehung
beziehunga
beziehungen
beziehungsweis
beziehungsweise
bezirk
bezirke
bezirksamt
bezirksausschuss
bezirkshauptstadt
bezirkskommando
bezirkskulturfu
bezirksliga
bezirksmuseum
bezirksomt
bezoachnet
bezoachnung
bezogn
bezong
bezu
bezug
bf
bfc
bfejkarungszoina
bfestigt
bfind
bfindd
bfindn
bfindt
bfundn
bg
bgriff
bgs
bh
bhe
bhoidn
bhoitn
bhutan
bi
bia
biabal
biacha
biache
biachl
biachln
biaga
biagaentscheid
biagagriag
biagakriag
biagalich
biagaliche
biagalichn
bian
biarga
biargahaus
biat
biathlet
biathlon
biazejt
biała
białystok
biba
bibb
bibe
bibel
biber
biberach
bibert
bibertal
bibl
bibliografie
bibliographie
bibliographisches
bibliography
biblioteca
bibliothe
bibliotheca
bibliothek
bibliothekn
biblische
biblischn
bichl
bichler
bie
biebelried
biebl
biedermeier
biel
bielefeld
bier
bierbichler
biermo
biet
bietet
bietn
biferno
big
biiwa
bikini
bilbao
bild
bildband
bilddokumenten
bilden
bildende
bildenden
bilder
bilderbuch
bildergalerie
bildern
bildersuche
bildhauer
bildl
bildn
bildnis
bildsto
bildung
bill
billancourt
billboard
billion
billy
biltl
bin
bina
bindemittl
binder
bindn
bindnis
bindung
bing
bingen
bingo
binnenstaat
binnenstoot
binsn
bio
biografi
biografie
biografien
biographical
biographie
biographien
biographische
biographisches
biography
biologie
biologische
biologischn
biospha
biotechnologie
bioy
bip
birch
bird
birds
birgermoaster
birgit
birkach
birkenfeld
birkha
birmingham
birnbaum
birne
biro
bis
bisa
bisch
bischberg
bischbrunn
bischbrunner
bische
bischef
bischen
bischn
bischo
bischof
bischofs
bischofshofen
bischofskonferenz
bischofsmoas
bischofssitz
bisd
bisdum
bishea
bisher
bisherige
bisherign
bishop
bislang
bismarck
bison
biss
bissal
bissau
bisserl
bissl
bist
bistritz
bistu
bistum
bistums
bistumskoartn
bisweiln
bit
bitcoin
bitcoins
bitt
bitta
bittapamarantschn
bitte
bittn
bivacco
bizkit
bjo
bkaunt
bl
bla
black
blackburn
blackfoot
blackjack
blackwell
bladdl
bladdln
bladl
bladln
blaiboch
blaibt
blaim
blaine
blair
blake
blanc
blanca
blancas
blanchard
blanche
blanco
bland
blank
blanka
blankenbach
blanks
blanquillo
blasius
blasoniarung
blasonierung
blatt
blattl
blattln
blattn
blau
blaua
blaue
blauen
blaues
blaun
blaus
ble
bleamal
bleamalkriag
bleame
bleamen
blech
bled
bleda
blegt
blei
bleib
bleibd
bleibm
bleibn
bleibt
bleibtreu
bleim
blendn
blendnzoi
bler
bleu
bli
bliah
bliatn
blibm
blica
blich
bliche
blick
blieb
bliebm
bliebn
bliem
blik
blim
blind
blinde
bling
blitz
blitzgera
blo
bloch
block
blockchain
blockohschnitt
blocksigna
blocksto
blodz
blog
blogs
blomberg
blond
blood
bloody
bloom
bloomfield
bloomington
blos
blosmusi
blosn
bloss
blotz
blount
blousn
blouss
blouß
bloz
bloß
blu
bluad
bluadign
bluat
bludenz
blue
blues
bluff
bluffs
blume
blumen
blumenau
blut
blv
bm
bmg
bmpz
bmw
bn
bnennd
bnennt
bnennung
bner
bnis
bnonnt
bnutzn
bnutzt
bo
boa
boade
boadn
boam
boan
boana
boane
boar
board
boarisch
boarischa
boarische
boarischen
boarischer
boarisches
boarischn
boarischs
boarn
boat
boatai
boatugisisch
bob
bobby
bobingen
bobo
bobst
boca
boch
bocha
bochum
bock
bocking
bod
boda
boden
bodenklimazahl
bodensee
bodhisattva
bodn
bodnmoas
bodnnutzung
bodnscha
bodnsee
bodo
body
boeing
boek
bog
bogen
bogn
bogner
bogota
boh
bohhef
bohhof
bohlinie
bohna
bohnhof
bohstreck
bohstreckn
bohumil
bohuslav
boi
boid
boier
boii
boikn
boin
bois
boischpu
boise
bol
bold
boletus
bolidik
bolidika
bolitik
bolitika
bolitisch
bolitische
bolitischn
bolivien
bologna
bolschewiki
bom
bomba
bombm
bomis
bomoas
bon
bonaparte
bond
bondy
bone
bones
bong
bonham
bonhof
bonifatius
bonifaz
bonita
bonn
bonner
bonnet
bonnie
bonus
boo
boogie
book
booker
books
boom
boon
boone
boong
boor
boot
boote
bootleg
bor
bora
bord
bordeaux
borden
border
borderline
borg
borges
borghi
borgo
boris
borland
born
borna
borough
boroughs
borsod
borussia
bos
bosch
bosco
bosnien
bosque
boss
bossa
boston
bosworth
bot
botanik
botanika
botanische
botanischn
bote
botn
botschaft
botschafter
botschoft
botswana
bottom
bou
bouch
boucher
bouchstom
boulder
boulevard
boulogne
boum
bourbon
bourg
bourges
bourgogne
bourre
bow
bowell
bowie
bowling
box
boxa
boxberg
boy
boyd
boys
boz
bozen
bozn
bp
br
bra
braadn
brabant
brach
bracht
brad
bradford
bradley
brahms
braich
brais
braissn
bram
bramberg
branch
branco
brand
brandenburg
brandna
brandnbuag
brandnburg
brandner
brandsta
brandt
brannaburg
branscombe
brasil
brasilia
brasilianischa
brasilianische
brasilianischn
brasilien
brass
bratislava
bratz
brauarei
brauarein
brauch
braucha
brauchan
brauchd
brauchdum
brauchn
brauchst
braucht
brauchts
brauchtum
brauer
brauerei
brauereien
brauhaus
braumu
braun
brauna
braunau
braund
braundohschnitt
braundschutz
braune
braunschweig
braut
brav
brave
bravn
bravo
bray
brazil
brazos
brd
bre
break
breaking
brecha
brecht
breda
bredl
bregenz
bregenza
breggia
brehm
brei
breich
breisgau
breissischn
breissn
breit
breitbrunn
breitenau
breitenbrunn
breitengu
breitkopf
breitn
breits
breiða
brejff
brejmt
brema
bremen
bremerhaven
bremshundatstl
bremsn
bremst
brenna
brenner
brennpunkt
brennt
brennweitn
brenta
brescia
breslau
breslaua
bresln
bresnitz
bresse
brest
breszkaja
bret
bretagne
breton
bretonisch
brettl
brettner
breuer
breve
brewster
brezn
breznica
briada
briaf
briafmarkn
brian
brianza
bricht
bridge
bridgeport
bridges
brie
brief
briefe
briefen
briefwechsel
bries
brieuc
brig
brigadier
brigens
brighton
brigitte
brigittenau
brikama
brill
brille
bring
bringa
bringan
bringd
bringen
bringt
brissl
bristol
britain
britanien
britannica
britannien
brite
britisch
britischa
britische
britischen
britischn
britischs
british
britn
britta
brixen
brixlegg
brixn
brixnta
bro
broad
broada
broadcast
broadcasting
broade
broadhogg
broadn
broadway
broat
broatn
broblem
brocha
brochd
brochn
brocht
brock
brockhaus
brockn
brod
brodn
brodswinden
broersma
brofessa
brojekt
broken
brond
brongse
bronnbach
bronner
bronx
bronze
bronzezeid
bronzezeit
brook
brooklyn
brooks
broonzy
bros
broschu
brot
brother
brothers
broud
brouda
brovinz
brovinzn
brown
browns
brownsville
browser
brozent
bru
bruada
bruafsfochschui
bruahn
bruce
bruch
bruck
bruckberg
brucker
bruckmann
bruckmu
bruckn
bruder
brugg
bruggn
brukn
brukner
bruneck
brunei
brunn
brunna
brunnan
brunnen
brunner
bruno
brunswick
brust
bruttoinlandsprodukt
brutus
bryan
bryant
bs
bsa
bsc
bscha
bschded
bscheftigt
bscheid
bschiassn
bschleinign
bschleinigung
bschlossn
bschluss
bschossn
bschra
bschreibd
bschreibt
bschreibung
bschreim
bschrenkt
bschrieb
bschriebm
bschriebn
bschriem
bschriib
bschrim
bschtaundn
bschtimmt
bsd
bsessn
bsetzt
bsetzung
bsezt
bsezung
bsiagt
bsidlt
bsiedld
bsiedlt
bsiedlung
bsiegt
bsiezd
bsitz
bsitza
bsitzd
bsitzn
bsitzt
bsiz
bsondaheit
bsondaheitn
bsondan
bsondane
bsondare
bsondars
bsondas
bsonders
bsoucht
bsp
bspw
bst
bsta
bstandn
bstandtei
bsteet
bsteh
bstehd
bstehn
bstehndn
bsteht
bstenga
bstimma
bstimmd
bstimmde
bstimmdn
bstimmt
bstimmta
bstimmte
bstimmtn
bstimmung
bsto
bstondn
bstondtei
bststa
bsuach
bsuacha
bsuachan
bsuachd
bsuacht
bsundaheit
bsundaheitn
bsundan
bsundane
bsundara
bsundare
bsundas
bsundast
bsunders
bt
btissin
bu
bua
buach
buacha
buachdruck
buachfoahplaun
buachham
buachstob
buachstobm
buachstobn
buachstom
buag
buagamasta
buagamoasta
buagamoastarin
buaghausn
buagn
buagnlaund
buagnlaundkrowodn
buagruine
buagstoi
buam
buama
buaschn
buben
bubo
buch
buchanan
buchberg
buchdruckerei
buchen
buchendorfer
buchges
buchgesellschaft
buchhandlung
buchloe
buchner
buchstabe
buchstob
buchstobm
buchstom
bucht
buchtn
buchverlag
buck
buckhorn
buckingham
buckl
buda
budan
budapest
buddha
buddhism
buddhismus
buddhist
buddhistische
bude
budismus
budweis
buechspraach
buena
buenos
buffalo
bufo
bufotes
bug
buganda
bugl
buh
buid
buida
buidagalerie
buidd
buiddn
buidhaua
buidl
buidln
buidn
buidnis
buidns
buidt
buidtn
buidung
buigarien
buigarisch
buigarische
building
buit
bukarest
bukowina
bulgaria
bulgarien
bulgarisch
bull
bulle
bulletin
bullock
bully
bund
bundes
bundesamt
bundesanstalt
bundesarchiv
bundesautobahn
bundesautoboh
bundesdog
bundesdogs
bundesdogswoi
bundesebene
bundesheer
bundeskanzla
bundeskaunzla
bundesla
bundesland
bundeslaund
bundesliga
bundeslond
bundesminista
bundesministerium
bundespra
bundespresident
bundesregiarung
bundesregierung
bundesrepublik
bundesstaat
bundesstaatn
bundesstoot
bundesstootn
bundesstrass
bundesstraß
bundesstraße
bundesstraßn
bundesstrossn
bundesstroß
bundesstroßn
bundestag
bundesvawoitung
bundesverdienstkreuzes
bundeswehr
bundesweit
bundeszentrale
bundn
bung
bungen
bungsplatz
bunka
bunker
bunt
buntbarsch
buntbarsche
bunte
buntn
buonarroti
bur
burchard
burdon
bureau
buren
burg
burgamoaschta
burgamoasta
burgberg
burgbernheim
burgebrach
burgen
burgenla
burgenland
burger
burgess
burghausen
burghausn
burgnland
burgoberbach
burgos
burgpreppach
burgruine
burgsinn
burgstall
burgtheater
burgund
burgunda
burgwindheim
burk
burkardroth
burke
burkhard
burkina
burlington
burn
burnett
burning
burns
burschn
burton
burundi
bury
bus
busbahnhof
busch
buschnschaung
bush
business
buske
buskerud
buslinian
buslinie
buslinien
buson
buss
busse
bussento
but
bute
butler
butta
butte
buttenwiesen
butterfly
button
butzon
buxschtobn
buzal
bv
bva
bvejkarung
bvelkaring
bvo
bvp
bw
bwegd
bwegt
bwegung
bwohna
bwv
by
bydlinski
byl
byrd
byron
byte
byzantina
byzantine
byzantinischa
byzantinische
byzantinischn
byzanz
bz
bzeichnat
bzeichnet
bzeichnung
bzo
bzw
c
ca
cabinet
cabot
cabral
caccia
cache
caco
caddo
caen
caesar
caesarea
caesars
cafe
cage
cagliari
cain
cairo
cajetan
calabria
calacmul
calais
calakmul
calamity
caldera
caldwell
cale
caledonia
calendar
calhoun
caliente
california
caligula
call
callahan
calpulli
caltech
calvados
calvert
calvin
camargo
cambrai
cambridge
camden
came
cameo
camera
cameron
camilla
camille
camillo
camp
campagne
campana
campania
campbell
campe
campo
campobasso
campus
camus
can
canaan
canada
canadian
canal
canaria
canavese
cane
caneggio
cannabis
cannes
cannobio
cannon
canobbio
canon
canossa
cantabile
cantal
canterbury
canton
cantons
cantz
canvas
canyon
cao
cap
capaccio
cape
capella
capital
capitol
capo
cappella
capriccio
captain
capua
car
caracol
carbon
carbons
card
cardiff
carl
carla
carlisle
carlo
carlos
carltheater
carlton
carmel
carmen
carmina
carnegie
carnuntum
caro
carol
carola
carolin
carolina
caroline
carpenter
carr
carrara
carrie
carroll
carrollton
cars
carson
carstensen
carter
cartersville
cartier
cartman
cartoons
carus
casa
casablanca
casagrande
casanova
casares
cascade
case
caselle
caserta
casey
cash
casimir
casino
caspar
cass
cassano
cassius
castel
castell
castellana
castelli
castello
castelnuovo
castiglione
castillo
castle
castra
castro
cat
catala
catalog
catalogue
catania
catanzaro
catarina
catch
catedral
category
cathedral
catherine
catholic
cato
cava
cave
cayo
cayuga
cbs
cc
cd
cdn
cdot
cdp
cds
cdu
ce
cecil
cecilia
cedar
ceibal
ceibo
cel
celle
cello
celsius
cem
cembra
cement
cemetery
cena
census
cent
centa
centauri
centennial
center
centerville
central
centralisateur
centre
centro
century
ceres
cerrito
cerro
cerros
cervantes
cesare
cesena
cesenatico
cesta
cestovne
ceuta
ch
cha
chacra
chah
chai
chain
chalca
challenge
cham
chamber
chambers
chamois
champ
champagne
champaign
champion
champions
championship
chan
chana
chance
chancen
chandler
chane
chang
change
channel
chanson
chansons
chante
chaos
chapel
chapelle
chaplin
chapman
chapter
character
charakta
charaktaristische
charakter
charaktere
charakteristisch
charakteristische
charente
charivari
charles
charleston
charley
charlie
charlotte
charly
charru
chart
charta
charter
chartres
charts
chase
chat
chateau
chatham
chattanooga
chattia
chaucer
chaux
chba
chda
chdem
che
cheamgau
cheamgaua
cheamsee
cheb
chef
chefredakteur
chel
cheln
chelsea
chemical
chemie
chemika
chemiker
chemische
chemischn
chemistry
chemnitz
chen
chenbach
cheopis
cher
cherei
chern
cherokee
cherry
chesapeake
chess
chester
chestnut
chet
cheyenne
chez
chgau
chheim
chi
chiapas
chiara
chica
chicago
chichen
chichimekn
chicken
chico
chief
chiemgau
chiemgaua
chiemsee
chiesa
chig
chihuahua
child
children
chile
chilenische
chilenischn
chili
chiloe
chimalpopoca
china
chinese
chinesisch
chinesischa
chinesische
chinesischen
chinesischn
chinesn
chinon
chinook
chios
chip
chippewa
chkritik
chl
chle
chlein
chli
chlich
chliche
chlichn
chn
chner
chnma
cho
choctaw
chodischn
choice
choir
cholera
chopin
chor
chorale
chorherrenhof
chr
chraum
chris
christ
christa
christe
christel
christen
christentum
christi
christian
christianam
christiane
christina
christine
christko
christlich
christlicha
christliche
christlichen
christlicher
christlichn
christmas
christn
christntum
christof
christoph
christophe
christopher
christophorus
christus
chromatische
chrome
chromionen
chronicle
chronik
chroniken
chronist
chronological
chronologie
chs
chsdn
chse
chsisch
chsische
chsischen
chsischn
chst
chsta
chstadt
chstas
chste
chsten
chstn
chstod
chstodt
cht
chta
chte
chtelhausen
chter
chtern
chtet
chtich
chtig
chtige
chtigen
chtign
chtigt
chtling
chtlinge
chtn
chtnis
chtr
chu
chuan
chuck
chung
chur
church
churchill
chy
ci
cia
cicero
cichlidae
cid
cie
ciel
cilento
cima
cimarron
cinema
cinque
cio
cipollina
circa
circle
circuit
circuits
circumstances
circus
cis
cit
cities
citrus
citta
city
citypopulation
citys
ciudad
civil
civilization
civita
ck
cka
ckblick
cke
ckel
cken
ckenau
cker
ckersbach
ckert
ckes
ckfoiweichn
ckid
cking
ckingen
ckkehr
ckl
ckla
cklabruck
cklich
ckliche
ckln
ckn
ckner
cks
cksichtigt
cksichtigung
ckt
ckte
cktritt
cl
cla
claassen
claiborne
clair
claire
clan
clapton
clara
clare
clarence
clarendon
clark
clarke
clarksville
class
classic
classical
classics
classification
claude
claudia
claudio
claudius
claus
clav
clavier
clay
clayton
cle
clear
clearwater
clemens
clermont
cleveland
client
cliff
clifton
climate
clingenburg
clinton
clio
clip
clique
clock
close
cloud
clown
clowns
club
clubs
cluj
cluny
clyde
clyne
cm
cms
cn
cnn
co
coa
coal
coast
cobain
coburg
coburga
coburger
coca
cochran
cod
code
codes
codex
coe
coeur
coffee
cogne
cohen
col
cola
cold
coldrerio
cole
coleman
colfax
colin
coll
collage
colle
collected
collection
collections
college
collenberg
collier
collins
colmar
colmberg
colne
colo
colombia
colombini
colonia
colonial
colony
color
colorado
colors
colosseum
columbia
columbus
com
comanche
comarques
combat
come
comedy
comenius
comes
comic
comics
coming
commagenorum
commander
comme
commedia
commentary
commerce
commission
commissioners
committee
common
commons
commonwealth
communaute
communes
communication
communications
communities
community
communitys
como
comox
compagnie
companion
company
comparative
compilation
compiler
complaint
comple
complete
complex
composed
composer
composers
compostela
comprehensive
comptes
computa
computer
computing
comte
comune
comuni
comunita
con
conan
concepcio
concept
concert
concerto
concise
concord
concordia
condorussi
conductor
conference
conflict
confucius
congo
congress
conn
connecticut
conrad
conseil
conservation
constant
constantin
construction
contact
contains
contemporary
content
contest
continental
continuo
contra
control
convent
convention
conversion
conway
conza
cook
cool
coolidge
cooper
copa
copan
copd
copeland
copernicus
copiapo
coppa
coppenrath
copper
cops
cora
corbin
corbusier
cordan
cordillera
cordova
corinna
corinth
coritiba
cork
cornelia
cornelis
cornelius
cornell
corner
corners
cornwall
corona
coronilla
corporation
corps
corpus
corral
corre
correspondence
corse
corte
corti
corun
cos
cosenza
cosimo
costa
cotta
cottage
cotton
cottonwood
council
count
counties
countries
country
county
countys
couplet
couplets
courier
couronne
course
court
courthouse
cousin
coutances
couverte
cove
coventry
cover
coverversion
covington
cow
cowboy
cox
cpu
craft
craig
crailsheim
cranach
cranbourne
crane
crassus
crawford
crazy
cre
creation
creative
credo
cree
creedence
creek
cremona
crescent
crest
cretaceous
creuse
creußen
cri
cricket
crime
cris
cristiano
cristo
critical
criticism
critics
croce
crockett
croix
crooked
cropped
crosby
cross
crossing
crossover
crossroad
crossroads
croupia
crow
crowley
crown
croydon
cruz
cry
crystal
cs
csh
csi
csn
csny
css
csu
ct
cu
cuba
cueva
cuicuilco
culhuacan
cultura
cultural
culture
cum
cumberland
cumbria
cunha
cunningham
cup
cupfinalist
cupsieger
cura
curac
curia
curie
curling
current
curry
curt
curtis
curupi
cusio
custer
custom
cut
cuzco
cv
cy
cypress
cyril
cz
czeike
cœur
d
da
daa
daad
daam
daas
dabai
dabaud
dabaut
dabei
dach
dachau
dachl
dachs
dachsberg
dacht
dad
dadad
dadat
dade
dadn
daduach
dadurch
dafau
dafia
dafir
dafo
dafoa
dafoigt
dafolg
dafrika
dafu
dag
dagblad
dageg
dagegn
dageng
dagibt
daglengt
dagmar
dagobert
dagog
dagoge
dagogik
dagogische
daha
dahaam
daham
dahea
daher
dahi
dahin
dahinta
dahl
daho
dahoam
dahoidane
dahoidn
dahoit
dahoitn
daholtn
dai
dailwais
daily
daimler
daisy
daiting
daitsch
daitschn
daj
dake
dakenna
dakennt
dakota
dal
dala
dalangt
dale
dalebt
dali
dall
dallas
dalmatien
dalton
dam
dama
damalige
damalign
damals
dame
damen
damerika
damerikas
damian
damid
damids
damisch
damit
damits
damiz
damm
damma
dammbach
damois
dampf
dampfnudln
dampfwagen
dan
dana
danach
danbury
dance
dancing
dandenong
dane
daneb
danebm
danebn
danem
daniel
daniela
dank
dann
dano
danoch
danou
dans
dante
danville
danz
danzer
danzig
danzn
danzt
dappscha
dar
dara
darauf
daraufhi
daraufhin
daraus
dare
dareicha
dareicht
darf
dargestellt
darichtt
darin
darinnat
dark
darkgrey
darkness
darling
darlington
darmstadt
darmstod
daro
darsteller
darstellung
darstellungen
daru
darum
darunta
darunter
darwin
das
dasa
daschduaf
dascheint
daschlogn
daschlong
daschossn
daschrim
dasetzt
dasida
dasing
dasma
dass
dassa
dassd
dasss
daste
dastn
dastreckt
dat
data
databa
database
dateformat
datei
dateien
datein
daten
datenbank
datenbankmanagementsystem
datenbankn
datenverarbeitung
datiad
datiat
datierung
dativ
datn
datnbank
datum
dau
daua
dauad
dauagreafla
dauahoft
dauan
dauand
dauat
dauer
dauert
daugt
daum
dauma
daumois
daun
daunk
daunn
dav
davau
dave
davenport
david
davids
davidson
davies
davis
davo
davoa
davon
davor
davua
dawa
dawai
dawal
dawei
daweidat
daweu
dawischn
dawischt
dawson
dax
daxberg
daxenberger
day
days
dayton
daz
dazellt
dazlwuam
dazo
dazou
dazu
dazua
dazuakema
dazuakemma
dazuakumma
dazuazo
dazwischn
daß
db
dbahngesellschaft
dbauhn
dbauhnhof
dbayern
dbei
dc
dchen
dd
dda
dde
ddeitschland
ddeitschn
ddeutsche
ddeutschen
ddeutscher
ddn
ddr
de
dea
deabe
dead
deadwood
deaf
deafa
deafad
deafan
deafat
deaffa
deafi
deafn
deafs
deafst
deal
deala
deam
dean
deana
deanan
deand
deandl
deandln
deane
deanst
deanstodl
deant
dear
deara
deas
deastle
deastweng
deata
deataschdikl
death
deaunlog
deazeid
deazeit
debatte
debattn
debian
debrecen
debu
dec
decade
decatur
december
dechansreiter
dechda
decht
dechta
deckl
deckn
deckt
deckungsgleich
ded
dee
deep
deer
dees
default
defense
definiad
definian
definiat
definiern
definiert
definition
definitive
definizion
defr
degen
deggadoaf
deggendorf
deggndoaf
deggndorf
deging
degl
degli
degndoaf
degndorf
dehio
dehnt
dehnung
dei
deia
deidades
deife
deifesgeing
deifi
deil
deim
dein
deina
deine
deinem
deinen
deiner
deisna
deit
deitle
deitli
deitlich
deitliche
deitn
deitsch
deitscha
deitsche
deitschen
deitscher
deitsches
deitschkreitz
deitschla
deitschland
deitschlands
deitschlaund
deitschn
deitscho
deitschs
deitschsprochiga
deitschsprochige
deitschsprochign
deitschsproching
deitung
deix
dej
deja
dejs
dek
dekadn
dekalb
dekanat
dekanate
deklination
dekret
del
delaware
delhi
dell
della
delle
delphi
dels
delta
deluxe
dem
dema
demand
demel
dementsprechend
demeter
demetrios
deml
demnoch
demo
democratic
demografie
demografische
demoiselle
demokraten
demokratie
demokratischa
demokratische
demokratischen
demokratischn
demokratn
demos
dems
den
dena
denan
denane
denau
dene
denemark
denen
denga
dengl
denglisch
denhausen
deni
denis
denk
denken
denkma
denkmal
denkmalpflege
denkmoi
denkmoischutz
denkn
denkschrift
denkt
denmark
denn
dennat
dennis
denno
dennoch
dens
dent
dentlein
denton
denver
deo
departamento
departamentos
departement
departements
department
depp
deppad
deppat
depression
der
dera
deran
deration
derb
derby
derek
deren
derer
derf
derfa
derfe
derfn
derl
dern
derrick
ders
derstandard
derzeid
derzeit
des
desa
descartes
deschnjow
description
desd
desert
deshoib
design
designated
designer
desktop
desmoi
deso
desoto
dess
dessau
dessen
dessn
desso
desto
destweng
desweg
deswegen
deswegn
desweng
deszweng
det
detail
detaillierte
details
detektiv
detlef
detmold
detroit
dettaglio
detter
dettingen
deu
deum
deus
deuticke
deutlich
deutsch
deutsche
deutschen
deutscher
deutsches
deutschland
deutschlandradio
deutschlands
deutschlandsberg
deutschn
deutschsprachige
deutschsprachigen
deutschsprachiger
deutung
deux
devafoahn
devanagari
deve
developed
development
device
devil
devon
dewey
dewitt
dexel
dexter
dez
dezemba
dezember
dezemma
df
dfb
dfo
dgriag
dgschehn
dhabi
dhcp
di
dia
diable
diaf
diafa
diafe
diafn
diafnsuach
diafste
diaggad
diagramm
diagraum
diahappn
diakei
diakritika
dial
dialect
dialekt
dialektbuch
dialekte
dialektgruppm
dialektgruppn
dialektik
dialektkontinuum
dialektn
dialektna
dialektologie
dialektt
dialog
dialoge
diamond
dian
diana
diand
diandl
diandlgwand
diandln
diano
diant
dianthus
diarekt
diaroi
diarola
dias
diaspora
dich
dichda
dichdarai
dicht
dichta
dichtarin
dichtarischa
dichte
dichter
dichters
dichtn
dichtung
dichtungen
dick
dicka
dicke
dickens
dickinson
dickn
dictionary
dictionnaire
did
didier
die
diebach
diego
diehl
diekirch
diem
dien
diena
dienan
dienen
diener
dienst
dienstag
dienste
dient
dieppe
dies
diesa
diese
diesel
diesem
diesen
dieser
dieses
diesltriabwogn
diesm
diesn
diesseits
dieter
dieterich
dieterskirchen
dietl
dietmar
dietramszell
dietrich
dietrichs
dietz
dieu
diezese
diezesn
diffarenz
different
differenz
dig
diga
dige
diger
digital
digitale
digitaler
digitalisat
digitalisierte
digitaln
diglossi
digt
digung
dijon
dikat
diktator
diktatur
dili
dillingen
dillon
dimension
diminutiv
din
ding
dinga
dinge
dingen
dinglfing
dingolfing
dinkelsbu
dinkelsbuehl
dinn
dinne
dino
dinosaur
dinosauria
dinosaurs
dintn
dio
diodn
dioecesis
diogenes
dionysos
diphthong
diphthonge
diplomarbeit
diplomat
diplomatie
dir
director
directorate
directory
direkd
direkt
direkta
direkte
direktn
direktor
dirigent
dirk
dirndl
dirty
dis
disch
dische
dischen
discher
disches
dischn
disco
discovered
discovery
discussion
diskografia
diskografie
diskographie
diskussion
diskussionan
diskutiert
disney
displaced
diss
dissertation
distanz
distaunzmessung
distribution
distributionen
district
districts
distrikt
distrikte
disziplin
disziplina
disziplinan
dit
ditch
dith
dition
ditions
dittwar
diva
divease
diverse
diversn
divertimento
divine
divisa
divisio
division
divisiona
diwan
dixie
dixon
dj
django
djibouti
djk
dk
dka
dkorea
dkriag
dkuituaeabe
dky
dl
dld
dle
dli
dlich
dliche
dlichen
dliches
dlichn
dling
dlingen
dlle
dln
dlr
dlweh
dm
dmastaschoft
dmid
dmitri
dmittn
dn
dna
dnb
dns
do
doa
doad
doaf
doaff
doafgemarkung
doag
doagsto
doal
doan
doana
doanaweat
doastejung
doasto
doat
doating
doatn
dobai
dobei
dobre
dobrovsky
dobry
doc
docg
doch
dochau
dochda
dochschbroch
docht
dochta
doctor
document
documenta
documentary
documents
dod
doda
dodabei
dodamid
dodazua
dode
dodge
dodn
dodobei
dodrunta
doduach
dodurch
dofia
dog
doge
dogeng
dogeszeidung
dogeszeidunga
dogn
dogs
dogstejt
doh
dohea
doher
dohi
dohinta
doi
dokta
doktor
doku
dokument
dokumentarfilm
dokumentarfuim
dokumentation
dokumente
dokumentiad
dokumentiat
dokumentn
dolasilla
dolce
dolla
dollar
dolmen
dolni
dolomit
dolomiten
dolomitn
dolorosa
dom
doma
domain
domaz
dombu
dome
domenico
domi
domid
domids
domine
domingo
dominiad
dominian
dominiat
dominica
dominik
dominikanische
dominikus
dominique
domino
dominum
dominus
domit
domitian
domm
domoiing
domois
domolige
domolign
domoling
domplatz
domstraß
don
dona
donald
donar
donato
donau
donaugrenz
donaukana
donaukurier
donaulimes
donauschiffoaht
donaustauf
done
donem
dong
donji
donk
donkey
donn
donna
donner
donnersdorf
donnerstag
donoch
doo
doog
door
doors
doppe
doppel
doppelt
doppet
doppezentrum
doppler
doppltrap
dor
dora
doraaf
doraafhi
doraufhi
doraus
dorchester
dordogne
dordrecht
dorf
dorfen
dorfes
dorfgu
dorfprozelten
dorgstejt
doriba
dorin
doris
dormitz
dorn
doro
dorothea
dort
dortmund
dortn
dorum
dorunta
dos
dosei
dosn
doss
dossa
dossetien
dossier
dost
dosta
dostasien
dosten
dostn
dostoi
dostojewski
doststeiermark
dot
dotn
dots
dou
douard
double
doubleclick
doubleday
doubtful
doud
doudabei
doudafia
doudamid
doudavo
doudazou
doudn
doudrunta
douglas
douro
dover
dovo
dovoa
dowa
down
download
downs
downtown
doyle
dozmois
dozua
dozumois
dp
dq
dr
dra
draabuach
draaf
draam
drabgreen
drack
dradition
dradizion
draf
drafhi
dragon
drahbuach
drahd
drahdiwaberl
drahn
draht
drai
drain
drama
dramatika
dramatiker
dramatisch
dramatische
dramatischen
dramen
drammen
drang
drangl
drangln
drau
drauf
draufhi
draufhin
draun
draus
draußn
drawings
draxlsriad
dre
drea
dream
dreams
dreck
dredn
drehbuach
drehbuachautor
drehbuch
drehbuchautor
dreht
drei
dreibeag
dreibund
dreieck
dreifaltigkeit
dreila
dreimoi
dreissgjaarign
dreizehn
dreißg
dreißgjaarign
dreißigja
drent
drenthe
drentse
dresden
dresdenar
dresdn
dreux
drexel
drexler
drey
driba
drickan
dridde
driddl
driddn
drin
drinad
dringa
drink
drinna
drinnad
drinnan
drinnat
driple
drite
dritt
dritta
dritte
dritten
dritter
drittgresste
drittgreßte
drittl
drittn
dritts
drive
driwa
dro
droad
drochn
droemer
droffa
drogd
drogen
drogn
drogt
droht
droite
drom
dromme
drong
droz
drozdem
drpei
drs
dru
druck
drucka
druckan
druckane
druckarei
drucke
druckerei
druckn
drucksocha
druckt
drug
druidn
drum
drummer
drums
drunga
drunt
drunta
drunter
druntere
druntern
druppn
drusus
dry
drze
ds
dsc
dschibuti
dschingis
dschnau
dscn
dss
dsta
dt
dta
dte
dtebuch
dten
dtepartnerschaftn
dter
dtirol
dtiroler
dtisch
dtische
dtischen
dtischn
dtlistn
dtn
dtpartnaschoft
dtpartnaschoftn
dtra
dtv
du
dua
duach
duachaus
duachbruch
duache
duachfiahrung
duachfliassd
duachfliaßt
duachflossn
duachfoi
duachg
duachga
duachgehand
duachgfiaht
duachgfiat
duachgsetzt
duachgsezt
duachlaffa
duachmessa
duachn
duachquead
duachqueat
duachquert
duachs
duachschnitt
duachschnittli
duachschnittliche
duachschnittlichn
duachschnittseihkumma
duachsetzn
duachzong
duad
duada
duadn
duads
duaf
dual
dualismus
duan
duania
duasd
duat
duathi
duatige
duatign
duatn
dublettn
dublin
dubois
dubrovnik
duc
duch
duck
duden
dudley
due
duell
duett
duette
duich
duisbuag
duisburg
duit
duke
dukt
dulce
dum
dumas
dumbarton
dumfries
dumm
dumont
duncan
duncker
dundee
dunes
dung
dungan
dunkl
dunkla
dunkle
dunkln
dunn
duo
duos
duplex
duplicating
dur
durch
durchaus
durchbruch
durchfall
durchfliasst
durchges
durchgesehene
durchgsetzt
durchlaucht
durchmesser
durchn
durchs
durham
during
durst
durt
durtatn
durting
durtn
dus
dust
duttln
duval
dux
dv
dva
dvd
dvds
dvor
dwarf
dweid
dweit
dwest
dwesten
dwestn
dx
dy
dylan
dynamik
dynamisch
dynamische
dynamit
dynamo
dynasti
dynastie
dynastien
dynasty
dyr
dz
dztwo
dzu
dzug
e
ea
eab
eabaud
eabaut
eabaute
eabe
eabfoigekriag
ead
eada
eadbebm
eadbebn
eadbem
eadkrustn
eadkund
eadkunde
eadn
eado
eadobafla
eads
eadteu
eadzeisal
eaeffnd
eaeffnet
eaeffnung
eaeignis
eaeignisse
eaffantliche
eaffantlichn
eafinda
eafindung
eafoahn
eafoarn
eafoart
eafoascht
eafoaschung
eafoig
eafoigd
eafoige
eafoigreich
eafoigreicha
eafoigreiche
eafoigreichn
eafoigreichstn
eafoigt
eafolgte
eafosst
eafu
eafuigt
eafundn
eaga
eagebnis
eagebnisse
eagem
eagibt
eagle
eah
eaha
eahebli
eahebt
eahebung
eahebunga
eahm
eahn
eahna
eahnam
eahnan
eahnana
eahnane
eahnara
eahnare
eaho
eahobm
eahoidn
eahoit
eahoitn
eaholungsort
eahom
eainnad
eainnan
eainnarung
eainnat
eakenna
eakennboa
eakennt
eakla
eaklead
eaklean
eaklearung
eakleat
ealaubnis
ealaubt
ealebnis
ealebt
ealedigung
ealo
ealossn
eam
eameglichn
eameglicht
eamittln
eamittlt
eamittlungan
eamoadet
eamoadung
ean
eana
eanam
eanan
eanana
eanane
eanara
eanare
eanaunnt
eaneit
eanennt
eanennung
eaner
eanere
eanst
eantn
eao
eaoban
eaobarung
eaobat
eaowad
eaowan
eaowarung
eaowarungan
eaowat
ear
eareichboa
eareichboakeit
eareichd
eareichn
eareicht
earichdd
earicht
earichte
earichtn
earichtung
earl
earlier
early
earowat
earp
earth
eas
easchd
easchda
easchde
easchdmois
easchdn
easchds
eascheina
eascheint
eascheinung
easchiena
easchienan
easchienen
easchlossn
eascht
easchta
easchtas
easchtauffu
easchte
easchtes
easchtmois
easchtmolig
easchtn
easchtns
easchts
easdn
easetzd
easetzn
easetzt
easotz
easotzsignoi
east
easta
eastareich
eastareicha
eastareichisch
eastareichischa
eastareichische
eastareichischn
easte
easter
eastern
eastland
eastle
eastlich
eastlichn
eastmois
eastn
easto
easton
eastreckd
eastreckt
easy
eat
eata
eatliche
eatlichn
eau
eaux
eawa
eawehnd
eawehnt
eaweidarung
eaweidat
eaweitarung
eaweitat
eawend
eawoabn
eaza
eazbischof
eazeign
eazeigt
eazheazog
eazo
eb
eba
ebanan
ebane
ebba
ebban
ebbas
ebber
ebbs
ebd
ebelsbach
eben
ebenau
ebene
ebenen
ebenezer
ebenfalls
ebenfois
ebensee
ebenso
eberhard
ebern
ebersbach
ebersberg
ebm
ebmfois
ebn
ebne
ebner
ebnfois
ebnso
ebo
ebrach
ebracher
ebs
ec
ecce
ech
eching
echo
echov
echt
echta
echte
echter
echtn
eck
ecke
eckental
eckl
eckn
eco
ecology
econ
economic
economics
economy
ecstasy
ecuador
ecw
ed
edda
eddie
eddy
edel
edelmetoie
edelschein
edelweiss
edelweiß
eden
eder
edgar
edge
edgewood
edicions
edikt
edinburg
edinburgh
edipus
edison
edit
edited
edith
edition
editions
editor
editore
editorial
edizioni
edl
edle
edler
edmond
edmund
edni
edo
eds
edt
edu
eduard
eduardo
education
educational
edv
edward
edwards
edwin
ee
eem
eemma
een
ees
efading
efangelische
efangelischn
efda
eferding
effadle
effantliche
effantlichn
effekt
effekte
effektiv
effentlicha
effentliche
effentlichkeit
effentlichn
effntlicha
effntliche
effntlichn
efmd
efta
eftan
eftas
efters
eg
egal
eger
egern
egg
egger
egglham
egiptn
egling
eglise
ego
egon
egypt
egypta
egyptischa
egyptische
egyptischn
egyptn
eh
eha
ehapa
ehe
ehefrau
ehem
ehema
ehemaliga
ehemalige
ehemaligen
ehemaliger
ehemaliges
ehemalign
ehemals
ehemo
ehemoiiga
ehemoiige
ehemoiigs
ehemoiing
ehemois
ehemoliga
ehemolige
ehemoligen
ehemolign
ehemoligs
ehemoling
eher
ehingen
ehir
ehnli
ehr
ehre
ehren
ehrenbu
ehrenburg
ehrenmitglied
ehrenwirth
ehrenzeichen
ehrenzeichens
ehrlich
ehrn
ehrnbiaga
ehrnbiarga
ei
eia
eibaud
eibaut
eibelstadt
eibl
eibrocht
eibruch
eibsee
eibundn
eich
eichborn
eichelsbach
eichenberg
eichenbu
eichenfu
eichn
eichsta
eid
eidruck
eidrunga
eier
eifasucht
eifiahrung
eifiarung
eifliss
eiflu
eifluss
eifluß
eifoahsignoi
eifoaht
eifoi
eifoin
eifu
eig
eiga
eigan
eigana
eiganan
eigane
eiganen
eiganga
eigans
eigantli
eigaung
eigeh
eigena
eigene
eigenen
eigenes
eigenha
eigens
eigensta
eigentle
eigentli
eigentlich
eigentliche
eigentu
eigenverlag
eigfiad
eigfiaht
eigfiat
eigfohn
eigfoin
eigfu
eighoidn
eight
eiglegt
eigleit
eigliadat
eigliedat
eiglodn
eigmeindet
eigmeindung
eigmeindunga
eigmeindungen
eigmoand
eigmoandunga
eigmoant
eigmoanunga
eigna
eignan
eigne
eignen
eignlich
eignomma
eigns
eignschaftn
eignschoft
eignschoftn
eignsta
eigntima
eigntli
eigntlich
eigntu
eigntum
eignumma
eigoadnta
eigricht
eigrom
eigschlossn
eigschra
eigschto
eigsetzt
eigsezt
eigstejt
eigstiegn
eigsto
eigstuft
eiguadnt
eigwaundat
eigweicht
eigweiht
eih
eihede
eiheit
eiheitn
eihfiahrung
eihfluss
eihgfiahd
eihgliedad
eihgliedarung
eihgliedat
eihgmoandd
eihgmoant
eihgmoanung
eihgmoanunga
eihgong
eihgrichdd
eihgricht
eihgsetzt
eihheit
eihheitn
eihheitsgmoa
eihoidn
eihrichtung
eihrichtunga
eihschliaßli
eihschlogkrata
eihteid
eihteit
eihteithttp
eihteiung
eihw
eihwo
eihwohna
eihwohnaentwicklung
eihwohnahttp
eihwohnan
eihwohnazahl
eihwohnazoi
eihwohnazoih
eihwohnazoihn
eihwohnazoin
eihwoner
eihzugsgebiet
eilwagenreise
ein
eina
eindeitig
eindruck
eine
einem
einen
einer
eines
einfa
einfach
einfluss
einfluß
einfu
eingabe
eingang
eingdli
eingesetzt
eingle
einglich
eingmeindet
eingna
eingne
eingricht
eings
eingschoftn
eingsetzt
eingsta
eingtli
eingtlich
eingtum
einheimische
einheimischn
einheit
einheiten
einheitliche
einheitn
einheitsstellwerk
einheitsu
einhorn
eini
einig
einige
einigen
einign
einigung
einleitung
einmal
eino
einrichtung
einrichtunga
einrichtungen
eins
einsa
einsatz
einschließlich
einsiedel
einsotz
einst
einstein
einstellung
einteilung
einteit
eintra
eintracht
eintrag
eintrog
einw
einweihung
einwohna
einwohnaentwicklung
einwohnan
einwohnazoi
einwohner
einwohnerzahl
einwohnerzahlen
einzelnachweise
einzelsiedlung
einzelsprache
einzige
einzug
einzugsgebiet
eirichtung
eirichtunga
eiro
eiropa
eiropamoasta
eiropapokal
eiropas
eiropastroß
eiropastroßn
eiropejischn
eiropejschn
eis
eisa
eisane
eisatz
eischließle
eischra
eisen
eisenach
eisenbahn
eisenberg
eisenburg
eisenhammer
eisenhans
eisenstadt
eisenstein
eiserne
eisetzn
eisetzt
eisgrube
eishockey
eishockeyspuia
eisingen
eisn
eisnbahn
eisnbauhn
eisnboh
eisnbohlinie
eisnbohstreckn
eisner
eisnstoa
eisnstod
eisnzeid
eiso
eisotz
eisto
eiszeid
eiszeit
eita
eiteiln
eiteilung
eiteit
eitensham
eitensheim
eiteut
eitra
eitretn
eitrog
eitrogn
eitrong
eiwandara
eiwo
eiwohna
eiwohnaentwicklung
eiwohnazoi
eiwona
eizogn
eizong
eizugsgebiet
ej
ejara
ejascht
ejaschta
ejaschtn
ejda
ejdan
ejdare
ejdasdn
ejdaste
ejdastn
ejdeste
ejdestn
ejf
ejg
ejm
ejta
ejtan
ejtare
ejtaste
ejtastn
ejtz
ejus
ek
ekd
ekkehard
ekliptik
ekseption
eku
el
ela
elastizita
elba
elbe
elbeuf
eldorado
ele
electric
electrical
electricity
electro
electrode
electronic
elektra
elektrisch
elektrischa
elektrische
elektrisches
elektrischn
elektrizita
elektro
elektrodn
elektromagnetische
elektron
elektronen
elektronik
elektronisch
elektronische
elektronischn
elektrotechnik
element
elemente
elementn
elements
elementt
elena
elend
eleonore
elf
elfenbeinku
elfriede
eli
elias
eliot
elis
elisabeth
elise
elizabeth
elk
elke
ell
ella
elle
ellen
elliott
ellis
ellsworth
elm
elmar
elmo
elmore
elmwood
elon
elpersdorf
els
elsa
elsass
elsava
else
elsenfeld
elst
elster
eltan
eltana
eltern
eltmann
elvis
elwood
em
ema
emanuel
emdo
emfois
emi
emil
emilia
emilie
emilio
emirate
emission
emma
emmanuel
emmeram
emmerich
emmerting
emmy
emoji
emotion
empfa
empfanga
empfaungsraum
empfindlich
empfindlichkeit
empfoin
empfundn
empire
empirismus
emsee
emskirchen
emso
en
ena
enagie
encyclopaedia
encyclopedia
encyclopædia
end
endan
endd
ende
endeckt
endet
endgu
endguitig
ending
endknupf
endli
endlich
endn
endorf
endpunkt
endsee
endt
endung
endunga
energie
energy
eng
enga
engagement
engagiat
engal
engan
enge
engel
engelbert
engelhardt
engelmann
engels
engine
engineering
engl
engla
england
englaund
englenda
englisch
englischa
englische
englischen
englischn
english
eni
enim
enk
enka
enkal
enkel
enkl
enklave
enklavn
enna
enns
ennstoi
enregistre
enrico
ens
ensemble
ensembles
enstandn
enstondn
ent
entdecka
entdeckd
entdecker
entdeckt
entdeckung
ente
enter
enterprise
entertainment
entfeand
entfeant
entfeante
entfeanung
entfernt
entfernte
entferntn
entfernung
entfoin
entfoit
entfu
entgeng
entha
entho
enthoid
enthoidn
enthoit
enthoitn
enthu
enti
entlang
entlaung
entlong
entlossn
entrance
entre
entropie
entrundung
entry
entscha
entschdaundn
entschded
entscheidend
entscheidn
entscheidt
entscheidung
entscheidunga
entscheidungen
entschidn
entschiedn
entschlossn
entsendn
entsprecha
entsprechand
entsprechande
entsprechandn
entsprechend
entsprechende
entsprechendn
entsprechn
entsprechnd
entsprechndn
entsprechung
entsprichd
entspricht
entspringa
entspringd
entspringt
entsprochn
entsta
entstand
entstanden
entstandn
entstaund
entstaundn
entsteh
entstehn
entsteht
entstehung
entstenga
entstengan
entstondn
entta
entwa
entwassad
entweda
entweder
entwickelt
entwicket
entwickla
entwickld
entwickln
entwicklt
entwicklte
entwicklung
entwicklunga
entwigget
entwigglung
entwiklung
entwu
entwuaf
entwurf
entzong
entzu
environment
environmental
eny
enzensberger
enzian
enziklopedi
enzo
enzyklopa
eo
eos
ep
epfendorf
ephraim
epi
epic
epidemie
epik
episcopal
episode
episoden
episodn
epn
epoche
epochn
epos
eppa
eppan
eppas
epping
epps
eps
equatorialguinea
equis
equivalente
er
era
eran
erasmus
erb
erba
erbaut
erbe
erben
erbfoigekriag
erd
erda
erdbeben
erde
erden
erding
erdn
erdo
ere
ereaffnat
erectus
ereffnung
ereignis
ereignisse
eremitage
erfinda
erfinder
erfindung
erfoig
erfoige
erfoigreich
erfoigreichste
erfoigreichstn
erfoigt
erfolg
erfolge
erfolgreich
erforschung
erfu
erfundn
erfurt
erg
erga
ergaster
ergebnis
ergebnisse
ergem
ergersheim
ergibt
ergo
ergolding
erha
erhalte
erhard
erhebt
erhebung
erho
erhobn
erhoit
erhoitn
erholungsgebiet
erhom
eric
erich
erie
eriesee
erik
erika
erinnad
erinnan
erinnat
erinnern
erinnert
erinnerung
erinnerungen
eriophorum
eris
eritrea
erkenna
erkennt
erkla
erl
erla
erlach
erlanga
erlangen
erlanger
erlaubt
erlbach
erlebt
erlenbach
erlenfurt
erlo
erm
erma
ermland
ermordung
ern
erna
ernannt
erneit
ernennung
ernest
ernesto
erni
ernst
ernte
erny
ero
erobert
eroberung
eros
erosion
erotische
erp
errega
erreicha
erreichn
erreicht
erricht
errichtet
errichtete
errichtn
errichtung
ersch
erschde
erschdn
erscheint
erscheinung
erschien
erschiena
erschienen
erschlossn
erscht
erschte
erschtn
ersetzt
erst
ersta
erstauflage
erstausgabe
erste
erstelln
ersten
erster
erstmois
erstn
erstreckt
ert
erw
erwa
erwartungen
erweitarung
erweitat
erweitert
erweiterte
erweiterung
erweschbo
erwin
erza
erzberg
erzbischef
erzbischo
erzbischof
erzbisdum
erzbistum
erzbistums
erzdio
erzengel
erzherzog
erziehung
erzo
erzstift
es
esbach
esch
eschau
eschenau
eschenbach
esclusa
esel
eselsho
eska
eske
eskimo
esky
esl
espan
esperanto
espinillo
esra
essai
essay
essays
esselbach
essen
essential
essex
essig
esslingen
essn
est
estadi
estancia
estareich
estareicha
estareichischa
estareichische
estareichischn
estarreich
estarreichischn
estates
este
ester
esterha
esterhazy
esterraich
esterreich
esther
esting
estland
estle
estli
estlich
estlicha
estliche
estlichn
estlinga
estnisch
estnische
estreich
estreichischa
estreichischn
estw
esv
eswatini
et
eta
etabliad
etablian
etabliat
etabliert
etappe
etappn
etc
etcs
eth
ethik
ethiopia
ethiopien
ethische
ethnic
ethnie
ethnien
ethnisch
ethnische
ethnischn
ethnogenese
ethnologie
ethnologue
etienne
etla
etliche
etruskische
etsch
etschta
ettal
ettenstatt
ettringit
etwa
etwas
etwoa
etwos
etymologie
etymologisch
etymologisches
etz
etzad
etzelwang
eu
euch
euge
eugen
eugene
eulenspiegel
euphrat
eur
eurasburg
eure
euregio
eureka
euro
europa
europamoastaschaft
europapokal
europarats
europas
europe
european
europeana
eurostat
eurovision
ev
eva
evang
evangelical
evangelisch
evangelischa
evangelische
evangelischen
evangelischer
evangelischn
evangelist
evangelium
evans
evci
eve
evelyn
even
evening
event
events
eventuej
eventuell
eventuo
ever
everest
everett
evergreen
every
evidence
evil
evo
evolution
evolutiona
evski
evtl
ew
ewald
ewane
ewig
ewige
ewigen
ewigkeit
ewign
ex
exakt
exakte
exchange
executive
exekutive
exemplar
exemplare
exemplarn
exhortatio
exil
exile
exisdiad
existenz
existiad
existian
existiat
existiern
existiert
exit
exklave
exklaven
exklavn
exkommunikation
exotische
expanded
expansion
expedition
experience
experiment
experimente
explizit
exploration
explorer
exponate
export
expositur
express
expressionismus
extended
extensive
externe
extra
extrem
extrema
extreme
extrig
exulantn
exzellenz
ey
eye
eyes
eyn
ez
f
fa
fabelwesen
faber
fabindung
fabius
fabrik
fabrikant
fabrikn
fabundn
face
facebook
fach
fachakademie
fachbereich
fachhochschui
fact
factbook
facto
factory
facts
fad
faden
fadreta
fadrim
faendat
fagaungenheit
fagessn
fahn
fahna
faho
fahr
fahrbahn
fahren
fahrn
fahrstroafa
fahrstroafan
fahrt
fahrzeig
fair
fairbanks
fairfax
fairfield
fairview
fait
faith
fakoly
faksimile
faksimiles
fakten
faktisch
faktn
faktoa
faktor
fakulta
fal
falco
falk
falkenbach
falkenberg
falkenstein
falklandinsln
fall
falle
fallen
falling
falls
fallt
faloan
falog
falossn
falsch
falsche
false
falsely
falter
fam
fame
famij
famijn
famijnam
famijnama
famijname
famil
familia
familie
familien
family
famu
fan
fand
fanderl
fanes
fang
fanga
fangt
fannin
fanny
fano
fans
fanseitn
fantasia
fantasie
fantasy
fao
faq
far
farb
farbe
farben
farbn
farch
farchant
farchat
farchn
farm
farmington
farms
faroe
faroeislands
fasan
fasbender
faschdee
faschidane
faschidanen
fasching
faschingsnacht
faschismus
faschwundn
fasezt
faso
fass
fassad
fassade
fassadn
fassbinder
fassl
fassung
fast
fasuacht
faszination
fatha
father
fatty
fauhnan
faulbach
faun
fauna
faungan
faungt
faust
fauteuil
favianis
favoriten
favoritn
favoritna
fawaunt
fawent
fawoitung
fayard
fayette
fayetteville
faz
fazit
fb
fc
fd
fdl
fdn
fdp
fe
fea
feabung
feadan
feadarung
feana
feansa
feanse
feansehfuim
feansehn
feansehsenda
feansehserie
feanseng
feanstroß
feat
feati
featich
featig
featiggstejd
feature
features
feba
februa
februar
february
fechenbach
fechter
feda
fedan
feder
federal
federation
federico
fedora
fee
feed
feedback
feeling
feen
feenball
fehde
fehla
fehler
fei
feia
feiad
feiadog
feialand
feialich
feian
feiat
feiawea
feiaweah
feiawehr
feiawehrhaus
feicht
feichte
feichten
feichtigkeit
feichtn
feier
feiern
fein
feina
feind
feinde
feindliche
feine
feingehoid
feint
feistritz
fej
fejara
fejd
fejda
fejder
fejdherr
fejdzug
fejn
fejs
fejsn
fejt
fekla
feklabruk
fekt
fektua
fektuan
fektur
feld
feldartillerieregiment
feldbach
felder
feldkahl
feldkirch
feldkirchen
felfing
felice
felipe
felix
fell
fellen
fellini
fellinis
felsen
felso
female
feminin
feminina
fen
fenberg
fendrich
fendt
feng
fenomen
fensta
fenstaln
fenster
fer
ferdinand
ferdinando
ferdinands
ferdl
ferenc
ferguson
ferien
fering
fermo
fern
ferna
fernand
fernando
fernbedienbereich
ferne
ferner
fernmu
fernrohr
fernseh
fernsehen
fernsehfilm
fernsehfuim
fernsehmoderator
fernsehn
fernsehpreis
fernsehsender
fernsehsendung
fernsehserie
fernsehserien
fernseng
fernsteiabetrieb
fernsteuerung
fernzu
ferrara
ferrari
ferry
fersental
ferte
fertegsto
fertestellung
fertig
fertige
fertiggstellt
fertign
fertigstejung
ferto
fesche
fescht
feschtung
fesde
fesl
fest
festa
feste
festg
festgelegt
festghoidn
festghoitn
festglegd
festglegt
festglegtn
festgnumma
festgstejt
festgsto
festigkeit
festigkeitsklassn
festival
festivals
festl
festland
festlegung
festln
festlond
festn
fests
festschrift
festsoi
festspiele
festspu
festspui
festspuihaus
feststo
festung
fet
fetscher
fett
fettn
fetzn
feuchtwangen
feuer
feuerbach
feuilleton
fewa
ff
ffa
ffel
ffentlich
ffentliche
ffentlichen
ffentlichkeit
ffentlichn
ffentlicht
ffentlichte
ffentlichten
ffentlichung
ffentlichungen
ffl
ffler
ffn
ffnet
ffnete
ffnung
fg
fh
fi
fia
fiacht
fiachtn
fiad
fiahd
fiahn
fiahra
fiahrastaund
fiahrt
fiahrung
fiaht
fiakimmt
fiama
fiamen
fian
fiar
fiara
fiaran
fiarstnfoidbruck
fiarung
fias
fiascht
fiaschtbischof
fiaschtn
fiaschtndum
fiaschtntum
fiaschtnzei
fiass
fiassa
fiastbischof
fiastn
fiat
fiate
fiath
fiaß
fibonacci
ficha
fichtelgebirge
fichtn
ficker
fiction
fidel
fidelis
fidschi
fiedler
field
fields
fier
fierek
fiesch
fiesta
fifa
fifth
fig
fight
fighter
fighting
figua
figuan
figueres
figur
figuren
figures
figurn
fihrt
fiisch
fiktion
fiktionen
fiktive
fil
filaicht
filament
filaments
file
files
filiale
filialkiach
filialkira
filialkirch
filip
filippo
fill
filling
fillmore
film
filme
filmkritik
filmografie
filmpreis
filmproduzent
filmregisseur
films
filosofi
filser
fimbf
fimf
fimfe
fimfte
fin
final
finale
finance
finanz
finanzamt
finanziad
finanziarung
finanziat
finanzielle
finanzio
finanzn
find
findd
finden
findet
findn
findst
findt
findts
fine
finf
finga
finger
finiste
fink
finlay
finn
finna
finnisch
finnische
finnischn
finnland
finnmark
finno
finsta
finsternis
fint
fintet
fir
fira
fire
firenze
firma
firmen
firmian
firn
firs
firscht
first
firth
fis
fisch
fischa
fischach
fischarei
fischau
fischer
fischn
fischweiher
fish
fisher
fishman
fitz
five
fix
fixe
fixpunkt
fjodor
fjodorowitsch
fjord
fjordane
fk
fl
fla
flaccus
flach
flache
flachn
flachs
fladungen
flag
flageolett
flagge
flaggn
flagstaff
flair
flames
flandern
flanitz
flash
flat
flathead
flatz
flatza
flaunknschutzeirichtungan
flavius
fle
fleah
flech
flechn
fleck
fleckn
fleisch
fleischmann
fleiß
flektian
flektiat
fleming
flensburg
fletcher
fletn
fleurs
fleury
flexion
fliaga
fliagn
fliang
fliangschwammal
fliassd
fliassn
fliasst
fliaßd
fliaßgrenzn
fliaßn
fliaßt
fliaßta
fliche
flichen
flichn
flichtling
flichtn
flickr
fliegen
flight
fligl
flint
flintn
fliss
flissigkeit
flo
floch
flochau
floche
flochgau
flochn
floh
flohic
flora
florence
florenz
flores
florian
florida
floridsdorf
floschn
flotte
flottn
flour
flower
flowers
floyd
floß
flu
flucht
flug
fluggsejschoft
flugha
flughafen
flughafn
flughofm
flughofn
flugplatz
flugplotz
flugzeig
flur
flus
fluss
flussbett
flussdichtn
flussla
flusslaff
flusssystem
flute
fluß
flying
fm
fn
fo
foa
foab
foabai
foabm
foah
foahdienstleita
foahea
foahn
foahplaun
foahra
foahst
foahstrossn
foahstrossnpru
foaht
foahtn
foahtrichtung
foahweg
foahwegende
foahzeig
foahzeign
foam
foama
foaman
foamat
foamen
foami
foamuliert
foan
foarb
foarbm
foarn
foart
foarzeig
foascha
foaschung
foastwiatschoft
foastwirtschoft
foat
foatsetzung
foch
fochn
fochweak
fochzeidschrift
fock
focus
fodn
fohra
fohrn
fohrzeig
foi
foid
foig
foigade
foigadn
foigande
foigandn
foigd
foige
foigende
foigenden
foigendes
foigendn
foign
foignde
foignden
foigndn
foigt
foigtn
foik
foin
foing
foingda
foingde
foingdn
fois
foisch
foische
foischn
foit
foiweis
fokus
foley
folge
folgen
folgende
folgenden
folgendn
folgt
folio
folk
folklore
folkways
foll
folngatn
folsom
fom
fon
fond
fondo
fonds
fonga
fongd
fongt
fons
fonseca
fontaine
fontainebleau
fontana
fontsize
food
foot
football
for
forall
forbes
force
forces
forchbach
forchheim
ford
fore
foreign
forest
forever
forint
fork
forks
forli
form
forma
formal
forman
format
formate
formation
formel
formen
forscha
forscher
forschung
forschungen
forschungszentrum
forst
forster
forsthaus
forstwiatschoft
forstwirtschafd
forstwirtschaft
forstwirtschaftli
forsyth
fort
forth
fortis
fortsatz
fortschritt
fortsetzung
fortuna
fortunatus
forum
forward
forøya
fosanegl
fosching
fosd
fosen
fossilien
fossn
fosst
fossu
fossung
fost
foster
fota
foto
fotogalerie
fotograf
fotografie
fotografien
fotos
foucault
found
foundation
fountain
four
fourth
fox
foxe
foßt
fpga
fpo
fr
fra
frac
frage
fragen
fragment
fragmente
fraind
fraising
fraisinga
fraktion
fraktiona
fraktionen
frakzio
frakzion
framed
fran
franc
franca
france
frances
francesco
franche
francis
francisco
franck
francke
franckh
franco
franconia
frangn
frank
franken
frankenho
frankenpost
frankenwald
frankenwinheim
frankfuat
frankfurt
frankfurta
frankfurter
franklin
frankn
franknkini
franknreich
frankreich
frans
frantis
franz
franza
franze
franzeasischa
franzeasische
franzeasischn
franzejsisch
franzesisch
franzesischa
franzesische
franzesischen
franzesischn
franzesischs
franzi
franziska
franziskana
franziskanerkloster
franziskus
franzl
franzo
franzos
franzose
franzosen
franzosn
frascati
frasdorf
fraser
frau
fraua
frauan
frauanau
frauen
frauenau
fraun
fraunberg
fraunhofer
fraunkn
fraunkreich
fraunz
frazioni
fre
frech
fred
freddie
freddy
frederic
frederick
frederik
fredl
free
freebsd
freedom
freeman
freestyle
freetown
fregattn
frei
freia
freibad
freiberg
freibod
freiburg
freid
freida
freidog
freie
freien
freier
freies
freigem
freigericht
freiheit
freiherr
freiherrn
freilassing
freile
freili
freiliachtmuseum
freilich
freilichtmuseum
freimaurer
freimut
frein
freinademetz
freind
freindin
freindli
freindlich
freindschoft
freing
freis
freising
freisinga
freisinger
freistaat
freistadt
freisto
freistod
freistoot
freitag
freitod
freiwillig
freiwillige
freiwillign
freiwu
freizeid
freizeit
frej
freja
fremd
fremda
fremde
fremden
fremdn
fremdnvakea
fremdweata
fremdwo
fremont
french
frenkisch
frenkische
frenkischn
frequenz
frequenzn
fresh
fresken
freskn
fresko
fressn
freu
freud
freude
freudenberg
freudenthal
freund
freunde
freundschaft
frey
freyr
freyung
fria
friaa
friaan
friaare
friacha
friachan
friachare
friah
friaha
friahan
friahare
friahe
friaher
friahn
friahra
friahre
frian
friara
friaran
friarane
friaras
friare
friaul
fribberg
friberg
fricha
fricht
frida
friday
fridl
fridn
fried
friedberg
friede
friedemann
frieden
friedens
friederike
friedho
friedhof
friedl
friedn
friednsvatrog
friedrich
friend
friends
friendship
fries
friesisch
friesland
friha
frija
frikativ
frisch
frische
frischn
friseur
frisst
frist
frisua
fritsch
fritz
friuli
fro
frog
frogn
frogt
froh
from
fromm
fromme
frommer
frong
frongafo
fronkreich
front
frontier
fronz
frosch
frosinone
frost
fru
fruah
fruahjoahr
fruahjoar
fruajoa
fruajoar
frucht
fruchtboa
fruchtboan
fruchtfleisch
fruchtsa
fruit
frz
fs
fsho
fstetten
ft
fta
fte
ften
fter
fticht
ftig
ftign
ftigt
ftigte
ftigtn
ftigung
ftlarn
ftler
ftlich
ftling
ftlinge
ftn
ftp
ftsfiahra
ftsfu
fu
fua
fuada
fuam
fuaman
fuaml
fuamln
fuas
fuascha
fuasnotn
fuass
fuassboi
fuassboispuia
fuassnotn
fuat
fuaß
fuaßballa
fuaßballer
fuaßballspiela
fuaßboi
fuaßboiklub
fuaßboimoaster
fuaßboinationalspieler
fuaßboispuia
fuaßboistadion
fuaßboitrainer
fuaßboivaein
fuaßboivarein
fuaßbolla
fuaßga
fuc
fuchs
fuchzente
fuck
fuerte
fuga
fuge
fugger
fughetta
fugue
fugues
fui
fuigandn
fuigendn
fuijm
fuim
fuime
fuimemocha
fuimfestspui
fuimmocha
fuimografie
fuimproduzent
fuimregisseur
fuin
fuissboispuia
fuit
fuji
fuks
fulda
fulgt
full
fuller
fulton
fum
fun
function
fund
fundament
funde
fundn
fundort
fung
fungiad
funk
funke
funktiaun
funktion
funktiona
funktionan
funktionen
funktioniad
funktioniat
funktioniert
funkzion
funkzioniad
furlanisch
furm
furma
furmt
furnace
furscha
furt
furta
furth
fury
fusion
fusioniad
fut
futbolo
futhark
futsal
futuna
futur
future
fux
fuß
fußball
fußballspieler
fv
fw
fwg
fy
fylke
fyr
føroya
g
ga
gab
gabi
gabriel
gabriele
gabun
gach
gachn
gackt
gadicht
gagarin
gai
gaia
gaibon
gailroth
gaines
gainesville
gaius
gal
gala
galaxie
galaxien
galaxy
galeri
galerie
galerien
galicia
galicien
galicisch
galien
galilei
galileo
galizien
gallatin
gallen
galleria
gallery
galli
gallia
gallien
gallienus
gallier
gallimard
gallischn
gallmeyer
gallo
galloway
gallus
galt
galvanic
galveston
gamba
gambia
gambn
game
games
gamma
gams
gamsboart
gamsna
gan
gana
ganda
gang
ganga
ganges
ganghofer
gangolf
gans
ganymed
ganz
ganza
ganze
ganzen
ganzn
gap
gar
garage
garbagnate
garbo
garching
garchinger
garci
garcia
gard
garda
garde
garden
gardens
gardner
garfield
gari
garibald
garibaldi
garin
garland
garmasch
garmisch
garnison
garonne
garrett
gars
garten
gartenbau
gartn
gary
gas
gaspar
gasse
gast
gastein
gasteiner
gastenfelden
gasthaus
gasthof
gaston
gastronomie
gaststa
gat
gate
gates
gateway
gato
gattendorf
gattin
gattung
gau
gaude
gaudi
gaues
gaugau
gauna
gaung
gaunga
gaungan
gauns
gaunz
gaunza
gaunze
gaunzes
gaunzn
gauting
gay
gazetteer
gb
gbar
gbuan
gbuat
gd
gde
gdicht
gdp
ge
gea
geabatra
geabt
geahn
geaht
geam
geamanen
geamanische
geamanischn
gean
geaschtn
geat
geatn
geb
geba
gebaide
gebaidn
gebaut
gebeide
geben
geber
gebet
gebhard
gebiag
gebiage
gebiagszug
gebiat
gebid
gebiet
gebiete
gebietn
gebietskeapaschoftn
gebietsrefoam
gebietsreform
gebietstei
gebirg
gebirge
gebm
gebn
geboan
geboren
geborn
gebot
gebote
gebra
gebracht
gebraichli
gebraichliche
gebrauch
gebru
gebsattel
gebt
gebts
gebu
gebuan
gebuat
gebuatsdog
gebuatshaus
gebuatsort
geburt
geburtsdog
geburtshaus
geburtstag
gecha
geck
ged
geda
gedanken
gedankn
gedda
geddabu
geddin
geddliche
geddlign
gedenkdog
gedenkmu
gedenkn
gedenksta
gedicht
gedichte
gedichten
gedichtl
gedichtln
geds
gee
geeignet
geeignetn
geem
geest
geet
gefa
gefahren
gefallen
gefiahrte
gefu
gefunden
geg
gega
gegan
gegand
gegandn
gegangen
gegeben
gegen
gegend
gegendn
gegensatz
gegensta
gegenu
gegenwa
gegenwart
gegn
gegna
gegnan
gegnd
gegndn
gegner
gegniba
gegniwa
gegnsatz
gegnsotz
gegnsta
gegntei
gegnwoat
gegnzugsicharung
gegr
gegru
geh
geha
gehd
gehds
geheim
geheima
geheime
geheimnis
geheimnisse
gehen
gehm
gehn
geho
gehrels
gehst
geht
gehts
geiastoi
geiersberg
geiga
geiger
geign
geis
geisa
geiselbach
geisenfeld
geist
geista
geistastod
geister
geistes
geistig
geistige
geistlicha
geistliche
geistlicher
geistlichn
geit
gejb
gejbe
gejd
gejt
gejtn
gekommen
geku
gel
gela
gelb
gelbe
geld
gele
gelegenheit
gelegentlich
gelehrta
gelenke
gelernt
gelesen
geliebte
geller
geln
gelt
gem
gema
gemacht
gemahlin
gemainsaum
gemarkung
gemarkunga
gemarkungsgebiet
gemarkungstei
gemeinde
gemeindebeziak
gemeindebezirk
gemeindefreies
gemeinden
gemeinderat
gemeinderod
gemeindeteile
gemeindeveraenderungen
gemeindeverzeichnis
gemeindn
gemeinnu
gemeinsam
gemeinsamen
gemeinsaum
gemeinschaft
gemeintn
gemessen
gemina
gemischten
gemu
gen
genannt
genannte
genaral
genarazion
genaro
genaroi
genau
genaua
genauaso
genaue
genauso
gend
gendat
gene
genealogie
genealogy
genehmigung
genera
generai
general
generalleutnant
generalmajor
generalsekreta
generalstab
generation
generator
generazion
generej
generell
generoi
generoirod
genesis
genetik
genetische
geneva
genevie
genf
geng
genga
gengad
gengan
gengans
gengd
gengdn
gengiba
gengiwa
gengsatz
gengsotz
gengsoz
gengsta
gengstand
gengstond
gengt
gengu
gengwa
gengwoat
geni
genie
genitiv
genius
genre
genres
gent
gentes
gentil
genua
genug
genus
genwiki
geo
geoda
geoffrey
geograf
geografie
geografisch
geografische
geografischn
geograph
geographic
geographie
geographisch
geographische
geographischer
geoid
geologe
geological
geologie
geologisch
geologische
geology
geometrie
geometrische
georg
george
georgen
georges
georgetown
georgi
georgia
georgien
georgios
geotop
gepidn
geplant
gepo
gepra
ger
gera
gerade
gerais
gerald
gerard
gerber
gerd
gerda
gerechtigkeit
gerhard
gerhart
gericht
gerichte
geringa
geringe
germ
germain
german
germanen
germania
germanisch
germanische
germanischen
germanischn
germanist
germanistik
germantown
germany
gern
gernot
gero
gerold
gerolzhofen
gerrit
gers
gerschn
gersta
gert
gertraud
gertrud
gertrude
geru
gerzen
ges
gesa
gesagt
gesammelt
gesammelte
gesamtausgabe
gesamte
gesamten
gesang
gescha
geschicht
geschichte
geschichten
geschichtliche
geschichtsbla
geschlecht
geschrieben
geschu
geschwister
gesdan
gesehen
gesellschaft
gesetz
gesicht
geslau
gespielt
gespra
gessertshausen
gessn
gest
gesta
gestalt
gestalten
gestaltung
gestein
gestell
gestern
gestn
gestorben
gesundheit
gesungen
get
geto
getra
getreide
getrennt
getreu
getta
gettin
gewa
gewalt
gewand
gewerbe
gewerbegebiet
gewerbesteia
gewesen
gewicht
gewichte
gewichtskunde
gewidmet
gewinn
gewinnung
gewisse
gewo
gewoadn
geworden
gewu
geyer
gfa
gfahrn
gfanga
gfangt
gfaunga
gfeadat
gfecht
gfeiad
gfeiat
gfeiert
gfejad
gfejat
gfengnis
gfiacht
gfiad
gfiahd
gfiahrt
gfiaht
gfiat
gfihrt
gfind
gflicht
gflohn
gflong
gflossn
gfo
gfoa
gfoadat
gfoah
gfoahn
gfoan
gfoar
gfoarn
gfohn
gfohrn
gfoig
gfoigd
gfoigt
gfoin
gfoina
gfoit
gfonga
gfongt
gfordat
gfosst
gfreid
gfreit
gfressn
gfrogt
gfu
gfui
gfuimt
gfulgt
gfund
gfunden
gfundn
gfunna
gfurmt
gg
gge
gger
ggf
gging
gha
ghaassn
ghaaßn
ghabt
ghairat
ghaltn
ghana
ghandlt
ghaut
ghaßn
ghead
ghean
gheand
gheandn
gheard
ghearn
gheart
gheascht
gheat
gheats
ghebt
ghega
gheirat
gheiratet
gheitsmaument
ghejad
ghejan
ghejat
ghengt
ghern
gherrscht
gherscht
ghert
ghetto
gho
ghoassn
ghoaßn
ghob
ghobd
ghobt
ghod
ghoid
ghoidn
ghoiffa
ghoifn
ghoissanan
ghoissn
ghoit
ghoitn
gholtn
ghom
ghost
ghot
gi
gia
giacomo
gian
gianni
giant
giata
giatl
gib
gibb
gibbs
gibd
gibds
gibraltar
gibs
gibson
gibst
gibt
gibts
gibz
gidius
giebelstadt
gießen
gif
gift
giftig
gig
gil
gilbert
giles
gilgamesch
gilles
gillespie
gilmore
gilt
gimel
gin
gina
ging
giordano
giorgio
giovanni
gip
gipfe
gipfel
gipfen
gipfl
gips
girard
girardi
girl
girls
giro
girolamo
girona
gironde
girtler
gisela
git
gita
gitarr
gitarre
gitarrist
gitarristn
gitarrn
gits
gitsch
gitta
gitti
giuliano
giulio
giuseppe
give
giz
gja
gje
gjo
gjogt
gl
gla
glaabt
glaam
glabt
glacier
gladbach
glaffa
glai
glaibiga
glaich
glam
glan
gland
glanda
glangt
glanz
glarinettn
glas
glaser
glasgow
glashu
glasl
glasofen
glass
glassham
glattbach
glaub
glaube
glauben
glaubm
glaubn
glaubst
glaubt
glaum
gle
gleanane
gleand
gleant
gleast
glebd
glebt
gleeng
glegane
glegd
glegn
glegt
glei
gleich
gleicha
gleiche
gleichen
gleichgsetzt
gleichgwicht
gleichheit
gleichlost
gleichma
gleichn
gleichnamige
gleichnamigen
gleichnamign
gleichnaming
gleichnomige
gleichnomign
gleicht
gleichung
gleichungan
gleichzeidig
gleichzeite
gleichzeiti
gleichzeitich
gleichzeitig
gleinamige
gleinaming
gleis
gleisfreimo
gleisn
gleisohschnitt
gleit
gleitet
gleizeiti
glen
glendale
gleng
glenga
glenge
glengna
glengne
glenn
glenwood
gler
glernt
glesn
gletscha
gletscher
gli
gliadat
glich
gliche
glichkeit
glichkeiten
glichkeitn
glichn
glichst
glick
glicklich
gliedad
gliedan
gliedarung
gliedat
gliederung
gliefad
gliefat
gling
glingt
glise
glistet
glittn
glland
glo
gloa
gloan
gloana
gloane
gloans
global
globe
glock
glockn
glockntuam
glodn
glogat
glogau
glongd
glongt
glonn
gloria
glory
glos
glosda
gloshittn
glosmocha
glossar
glossn
gloucester
gloucestershire
glousta
glu
glubbal
gluck
glunga
gm
gma
gmaant
gmachd
gmacht
gmail
gmant
gmbh
gmeakt
gmeinde
gmeindn
gmejde
gmejdegalerie
gmejdt
gmejt
gmessn
gmeß
gmias
gmina
gmisch
gmischt
gmischtn
gmo
gmoa
gmoabstond
gmoaedikt
gmoafreie
gmoafreien
gmoafreies
gmoafrein
gmoagebiet
gmoagebietsrefoam
gmoagebietsreform
gmoagemarkung
gmoagliadarung
gmoagliedarung
gmoagrenz
gmoagrindung
gmoah
gmoahaus
gmoan
gmoana
gmoand
gmoant
gmoapartnaschoft
gmoapartnaschoftn
gmoara
gmoarat
gmoarod
gmoarot
gmoasam
gmoasama
gmoasaman
gmoasame
gmoasaum
gmoaschaft
gmoaschoft
gmoaschoftn
gmoasom
gmoasome
gmoasteiaeinahma
gmoasteiaeinahmen
gmoatail
gmoatei
gmoateile
gmoavaband
gmoavabindungsstroß
gmoavabindungsstroßn
gmoavabond
gmoavawoitung
gmoawesn
gmoazentrum
gmochd
gmocht
gmoi
gmoin
gmoint
gmoit
gmu
gmunden
gmundn
gn
gna
gnack
gnaeus
gnannt
gnannte
gnanntn
gnau
gnaua
gnaunnt
gnaunt
gnauso
gnd
gneigd
gneis
gnejchtn
gnend
gnennd
gnennde
gnenndn
gnennt
gnennte
gnenntn
gnome
gnomma
gnonnt
gnou
gnt
gnu
gnua
gnuag
gnuma
gnumma
gnumman
gnutzd
gnutzt
gnutzte
gnutzten
gnutztn
gnuzd
gnuzt
gnuzzt
go
goa
goaned
goar
goartn
goas
goat
goatn
goawad
goawat
goaß
goaßlschnoizn
gob
god
godchaux
goddung
godehard
gods
godsmack
godward
goebbels
goes
goethe
goethes
gogh
goi
goid
goidana
goidanan
goidane
goidanen
goidmu
goidn
goidna
goidnan
goidne
goidnen
goidner
goif
going
goisern
goitn
gold
goldbach
goldberg
goldegg
golden
goldene
goldenen
goldener
goldmann
golf
gollhofen
golling
golo
gone
gong
gonga
gonna
gonz
gonza
gonzales
gonze
gonzn
good
google
goopy
goose
gopfad
gor
gora
gorbat
gorch
gordon
gorge
gorkha
gortn
gos
gosau
goschdei
goschdeina
goschn
goshen
goslar
gospel
gossn
gost
gosthaus
gosthof
got
goten
gotha
gothic
gotik
gotisch
gotische
gotischen
gotischn
gotland
gotn
gotnburg
gott
gottes
gotteshaus
gotteszell
gottfried
gotthard
gottheit
gottko
gottlieb
gottlob
gottschalk
gottsched
gottung
gotzai
goud
gouvernement
gouvernements
gouverneur
gov
government
governor
goya
gp
gpl
gps
gr
gra
grab
graben
grabfeld
grablege
grace
grad
gradation
gradis
graf
grafanau
grafen
grafenau
grafenwiesen
grafenwo
graffiti
grafik
grafika
grafikn
grafing
grafische
grafn
grafschaft
grafton
graham
gramatik
grameen
gramm
grammar
grammatik
grammatika
grammatische
grammy
gran
granada
grand
grande
grange
granit
granite
grant
grantham
grantla
granville
graph
graphische
graphn
graphntheorie
gras
grass
grasset
grat
grateful
gratis
grau
graubu
graue
graun
grave
graves
gravitation
gray
grays
grayson
graz
graza
grazer
gre
grea
grean
greana
greanan
greane
greanen
greans
great
greater
greatest
greawoid
greaß
greaßan
greaßare
greaßte
greaßtn
greaßtnteils
grechnat
grechnet
grechnt
gred
gredd
gredt
gree
greek
greeley
green
greene
greenfield
greenville
greenwich
greenwood
greeweiwal
grefefing
greg
gregg
greglt
gregor
gregorianische
gregorianischn
gregorio
gregory
greicht
greif
greifn
greifswald
greift
greisfreie
greiz
grejssan
grejssana
grejsst
grejssta
grejsste
grejsstn
gremium
grenada
grenadinen
grenland
grennt
grenoble
grenz
grenzboch
grenzd
grenze
grenzen
grenzfluss
grenzgebiet
grenzibagang
grenzmoakn
grenzn
grenzt
grenzwert
gress
gressa
gressan
gressane
gressare
gressas
gressde
gressdn
gressn
gressta
gresste
gresstn
gret
greta
grett
grettstadt
grevenmacher
grey
greß
greßa
greßan
greßane
greßare
greßn
greßta
greßte
greßten
greßtn
greßtnteis
griach
griachaland
griachisch
griachischa
griachische
griachischen
griachischn
griachn
griag
griagd
griagn
griagt
griang
grias
griasboch
griaß
grichisch
grichischn
gricht
grichte
grichteta
grichtete
grichtetn
grichtsbeziak
grichtsboakeit
grichtshof
grichtsmedizina
gridcolor
griech
griechen
griechenland
griechisch
griechischa
griechische
griechischen
griechischer
griechischn
griechn
gries
grieskirchen
grießer
griff
griffin
grifo
grigori
grigorjewitsch
grill
grillparzer
grimes
grimm
grimme
grimoald
grind
grinda
grindd
grindde
grinddn
grinder
grindet
grindn
grindt
grindte
grindtn
grindung
grindungsmitglied
gring
gringa
gringan
gringe
grinzing
grischun
grisdus
grissn
grist
gro
groamatl
groast
groaß
groaßa
groaße
groaßn
grob
grobe
grobm
grobmoi
grobn
grod
grode
grodn
groeneveld
groening
grof
grofanau
grofanaua
grofn
grofschoft
grofschoftn
groft
grois
grom
groner
groninga
groningen
gropius
gros
grose
grosn
gross
grossa
grosse
grosseto
grossn
grosso
grot
groth
grotn
grottn
ground
group
groupe
groups
grous
grouse
grousn
grouss
groussa
grousse
groussn
grouß
groußa
grouße
groußes
groußgreiz
groußkini
groußn
groußraum
groußs
groußsta
groußstod
groußtei
groußteil
grove
grover
growth
groß
großa
großbardorf
großbreitenbronn
großbritannien
große
großen
großer
großes
großgmoa
großhadern
großheubach
großkreiz
großkreuz
großlog
großn
großostheim
großraum
großrinderfeld
großsta
großstod
großta
großtei
großteil
großteu
großvater
großwallstadt
großwelzheim
gru
gruab
gruafa
gruafn
gruam
gruaß
grub
grubbm
grube
gruber
gruckt
grueber
gruenz
gruft
grund
grundbuach
grundd
grunde
grundfla
grundgesetz
grundgsetz
grundherrn
grundherrschoft
grundkra
grundlag
grundlage
grundlagen
grundlegande
grundlog
grundlogn
grundlong
grundmauan
grundriss
grundsa
grundschui
grundschuin
grundstick
grundstickl
grundsto
grundstoa
grundstu
grundwoat
grundwossa
grundwossaweak
grundy
grundzu
grunt
grupn
gruppe
gruppen
gruppm
gruppmausfoahsignoi
gruppn
gruyter
gruzinski
grytviken
gs
gsa
gsagt
gsammet
gsammlt
gsamte
gsamtn
gsang
gsatzl
gsaung
gscha
gschaffa
gschaffn
gschafft
gschaud
gschaut
gschbu
gschbuid
gschdaundn
gschdo
gschdoam
gscheft
gscheid
gscheida
gscheide
gscheidn
gscheit
gscheitat
gscheng
gschenk
gschenkt
gschetzt
gschiacht
gschichd
gschicht
gschichte
gschichtl
gschichtliche
gschichtln
gschichtn
gschichtsschreiba
gschichtsschreibung
gschichtt
gschick
gschickt
gschikt
gschissn
gschitzt
gschizt
gschlacht
gschlecht
gschlechtsvakea
gschlogn
gschlong
gschlossane
gschlossans
gschlossn
gschlossna
gschlossne
gschmack
gschmeckt
gschmickt
gschmissn
gschmo
gschmock
gschmockn
gschmu
gschnittn
gschoffa
gschoffm
gschoffn
gschofft
gschoft
gschoitn
gschossn
gschpu
gschpui
gschpuid
gschpusi
gschriam
gschrian
gschribm
gschribn
gschriebm
gschriebn
gschriem
gschrim
gschtaundn
gschto
gschtoam
gschtuam
gschu
gschwind
gschwindigkeit
gschwindigkeitn
gschwindigkeitsaunzoaga
gschwindigkeitsvuaaunzoaga
gschwista
gse
gsegn
gsehn
gsejschaft
gsejschoft
gsellschaft
gseng
gsessn
gsetz
gsetze
gsetzgebung
gsetzliche
gsetzlichn
gsetzt
gsez
gsezt
gsichad
gsichat
gsichatn
gsicht
gsiedlt
gsm
gso
gsoagt
gsogd
gsogt
gsomte
gsomtfla
gsomtn
gsong
gsorgt
gsoucht
gspanschoft
gspeichat
gspeist
gsperrt
gspoitn
gspra
gsprengt
gsprocha
gsprochn
gspu
gspuid
gspuit
gspusi
gsta
gstalt
gstandn
gstanzl
gstanzln
gstart
gstartet
gstaundn
gsteckt
gsteigat
gstejd
gstejt
gstellt
gstettn
gstiazt
gstiegn
gstieng
gstift
gstimmt
gsto
gstoa
gstoam
gstod
gstodn
gstoin
gstoit
gstoitn
gstoitt
gstoitung
gstolt
gstondn
gstorbm
gstorbn
gstorm
gstuam
gsturm
gsuacht
gsund
gsundheit
gsunga
gsungan
gsunkn
gt
gta
gte
gtev
gtn
gu
gua
guad
guada
guadalajara
guadalupe
guade
guadn
guads
guam
guangxi
guarani
guard
guardia
guardian
guat
guate
guatemala
guatn
guats
guaviyu
guayana
gudea
gudrun
gue
guerra
guerrero
guetta
guez
gugaruz
guglhupf
guglielmo
gugumma
guid
guida
guide
guidn
guido
guile
guillaume
guinea
guinness
guit
guitar
guitige
gulasch
gulden
guldn
gulf
gum
gummi
gun
gung
gunga
gunnar
gunst
gunstn
gunter
gunther
gunzenbach
gunzenhausen
gunzenhausn
guo
gup
gur
gurk
gurkha
gus
gustaf
gustav
gustave
gustl
gut
gute
guten
gutenberg
gutenstetten
guthrie
guttenberg
guy
guyana
gv
gwa
gwachsn
gwand
gwanda
gwandl
gwassa
gwaundat
gwe
gweabe
gwechselt
gwechslt
gween
gwehjd
gwehnlichn
gweicht
gweiht
gwej
gwejd
gwejde
gwejt
gwelt
gwen
gwend
gwendolyn
gwendt
gweng
gwenle
gwerbe
gwerbesteiaeinahma
gwesen
gwesn
gwest
gwexld
gwexlt
gwiakt
gwiaz
gwicht
gwichtinga
gwidmad
gwidmet
gwies
gwind
gwinn
gwinna
gwinnt
gwinscht
gwirkt
gwis
gwiss
gwissa
gwisse
gwissn
gwisst
gwiß
gwißt
gwo
gwoafa
gwoan
gwochsn
gwohnd
gwohnt
gwoit
gwond
gwonna
gwordn
gworn
gwoschn
gwoxn
gwu
gwuna
gwunga
gwunna
gwurtn
gwusst
gymnasien
gymnasium
gymnasiums
gyo
gypten
gyptische
gyptn
gyula
gz
h
ha
haag
haaling
haam
haamseitn
haar
haarmann
haas
haasst
haast
haat
haaßn
haaßt
hab
habe
haben
habening
habm
habn
habsbuag
habsbuaga
habsbuagischn
habsburg
habsburga
habsburger
habt
hachette
hacke
hacker
hackl
had
hader
hades
hadrian
hafa
hafenlohr
hafenlohrtoi
haferlschuah
hafez
haffa
haffner
hafis
hafn
hafner
haftung
hagen
hagenau
hagenauer
hager
hagerstown
hagge
haggraben
hagia
hagstova
hahn
hahnbach
hahnenkamm
hai
haibach
haid
haida
haider
haidhof
haifa
haife
haifi
haifig
haifiga
haifige
haifigstn
haikai
haiku
haikus
hailing
hain
haindling
hainrich
haint
haiptling
haisa
haisal
haisl
haisln
hait
haiti
hakoah
hal
halas
halb
halbinsel
hale
half
halifax
halinga
hall
halle
hallein
hallenbad
haller
hallertau
hallo
halloween
hallstatt
halm
hals
halsbach
halt
halten
ham
hama
hambuag
hamburg
hamburga
hamburger
hamd
hamds
hamilton
hamiltonkroas
hamlet
hamm
hamma
hammd
hammelburg
hammer
hammerschmiede
hammond
hamms
hampshire
hampton
hams
hamua
hamza
hamzatu
han
hana
hanau
hancock
hand
handboi
handbook
handbuch
handel
handels
handelskammer
handelt
handke
handl
handln
handlt
handlung
handlunga
hands
handschrift
handschriftensammlung
handschriftn
handschuh
handweak
handweaka
handwerk
handwo
handy
hanf
hang
hanna
hannah
hannelore
hannes
hanni
hannibal
hannova
hannover
hannoversche
hanns
hanoi
hanover
hans
hansa
hanse
hansedog
hansen
hanser
hansestadt
hansestod
hansi
hansjo
hansl
hansson
hant
hanus
happy
hapstod
hapt
haptbohhof
haptgiatl
haptgiatlasteroid
haptinsl
haptort
haptroin
haptsa
haptschui
haptsechle
haptsechli
haptsitz
haptsta
haptstod
haptstroß
hara
harald
harappa
harbor
harbour
harburg
harcourt
hard
hardcore
harde
hardin
harding
hardware
hardy
hare
harfn
harlan
harlem
harmattan
harmonie
harmony
harold
harper
harpsichord
harpsichords
harrassowitz
harri
harris
harrison
harry
hart
hartberg
hartford
harthausen
hartl
hartley
hartmann
hartmut
hartwig
harvard
harvest
harvey
harz
has
hasan
hase
haselbach
haskell
haslach
hasloch
haslochbach
hasmona
hass
hassan
hasse
hasselberg
hast
hastings
hat
hatje
hats
hatte
hatten
hau
haubdschtod
hauberrisser
haubtschtod
haud
hauenstein
haufa
hauffa
haufn
haug
haum
hauma
haums
haun
haund
haundbremsn
haundl
haundln
haundlsweg
haundlt
haundlung
haundorf
haundschrift
haundweaka
haung
hauns
haupsa
haupt
hauptartike
hauptartikl
hauptbahnhof
hauptbauhnhof
hauptbohhof
hauptdarsteller
hauptdoarsto
hauptfigua
hauptgleis
hauptgottheiten
hauptinsl
hauptkommissar
hauptmann
hauptoat
hauptort
hauptquartia
hauptroin
hauptsa
hauptschdod
hauptschui
hauptschuin
hauptsechli
hauptsechlich
hauptsigna
hauptsignoi
hauptsitz
hauptsta
hauptstadt
hauptstod
hauptstodt
haus
hausberg
hause
hausen
hauser
hauses
hausham
haushoit
haushoite
hausknecht
hausruck
haut
haute
hautes
hauts
have
havel
haven
haverhill
havli
havre
hawai
hawaii
hawaiian
hawaiisch
hawara
hawelka
hawk
hawkins
haxn
hay
haydn
hayes
hays
hayworth
hazel
haßberge
haßfurt
haßn
haßt
hbf
hc
hd
hdi
hds
hdt
he
hea
heabst
heach
heachste
heachstn
head
heag
heagem
heagnomma
heagnumma
heagod
heagricht
heagstejd
heagstejt
heagsto
heah
heahn
heakema
heakimmt
heakumft
heakunft
health
hean
heandl
heanemma
heanimmt
hear
heard
hearn
hearscha
heart
heascha
heaschafamu
heaschoft
heascht
heaspui
heasteja
heastejung
heasto
heat
heath
heaven
heavoa
heavy
heavyweight
heaz
heazn
heazo
heazog
heazogdum
heazogtum
heb
hebbel
hebdomadaires
hebe
hebenstreit
hebr
hebra
hebrew
hebron
hebt
hech
hecha
hechan
hechane
hechare
hechn
hechsde
hechsta
hechste
hechstn
hechstns
hecht
hector
hed
hedmark
hedn
hedwig
heer
hef
hefn
heft
hefte
heftig
hegel
heh
heha
hehan
hei
heiberg
heibtling
heid
heide
heidegger
heidelberg
heiden
heidenheim
heidenreich
heidi
heidige
heidign
heiding
heidlbeag
heidlberg
heidzdog
heifig
heigenbru
height
heights
heigl
heike
heiko
heil
heiland
heilbronn
heilig
heiliga
heilige
heiligen
heiliger
heiligkreiz
heiligkreuz
heilign
heiligtum
heiling
heilpflanze
heilsbronn
heim
heimat
heimatbla
heimatbuch
heimatmuseum
heimatpflege
heimbuchenthal
heimkehr
heimliche
heimsuchung
hein
heind
heine
heinemann
heiner
heini
heinrich
heinrichs
heinrichsthal
heint
heinz
heirat
heiratet
heiratn
heirichn
heisa
heise
heisenberg
heisl
heisln
heit
heite
heitich
heitiga
heitige
heitigen
heitign
heitigs
heiting
heitinga
heitz
heitzdog
heitztog
heitzutog
heiß
heißen
heißt
hej
hejchste
hejd
hejdn
hejfa
hejft
hejftn
hejm
hejn
hekta
hektar
hektolita
hel
held
helden
helen
helena
helene
helfrich
helga
helge
helios
helium
hell
hella
helle
heller
helligkeit
hellmut
hello
hells
helly
helm
helmensdorfer
helmstadt
helmut
helmuth
helsinki
hem
hemad
hemmschuach
hemsbach
hen
hend
henderson
hendl
hendrik
hendrix
heng
henga
hengersberg
hengt
henk
henkel
henle
henlinienbild
hennegau
henning
henri
henriette
henrik
henry
henryk
henschel
hent
hephaistos
hepp
hepunkt
her
hera
herakles
heraldik
heraldisch
heraldische
heraus
herausgeba
herausgeber
herausgegeben
herausgem
herb
herbert
herbig
herbst
herd
herder
here
heren
hergnomma
hergnumma
hergsto
heribert
herin
heritage
herkules
herkumft
herkunft
herleitet
herman
hermann
hermannstadt
hermes
hern
herna
hernando
hernemma
hernois
hernoisa
hero
herodes
herodot
heroes
herold
herr
herre
herred
herren
herrgod
herrgott
herrieden
herrmann
herrn
herrngiersdorf
herrnhaus
herrscha
herrschaft
herrscher
herrschoft
herrscht
hersbruck
hersfeld
hersta
hersteja
herstellung
hertha
hertz
herum
hervor
hervorganga
herwig
herz
herzeag
herzeg
herzegowina
herzen
herzo
herzog
herzogdum
herzogenaurach
herzogin
herzogliche
herzogstand
herzogtum
hesiod
hess
hesse
hesselbach
hessen
hessische
hessischn
hessn
hestur
het
hetzles
heu
heuberg
heulich
heumar
heures
heuss
heustreu
heut
heute
heutigen
heutz
hex
hexameta
hexde
hexn
hexte
hey
heyden
heyne
heßdorf
hf
hg
hgeschichte
hgg
hhq
hi
hia
hian
hianzisch
hias
hiasch
hiasl
hiat
hiata
hiatamadl
hiatn
hiawatha
hiaz
hibsch
hic
hickman
hickory
hidalgo
hidden
hide
hie
hieb
hieber
hier
hieroglyphn
hieronymus
hietzing
hig
hige
higgins
high
highland
highlands
highway
highways
higkeit
higkeitn
higl
higlland
higln
hign
higricht
higwiesn
hii
hilda
hilde
hildebrand
hildebrandsliad
hildebrandt
hildegard
hildesheim
hildn
hilf
hilfe
hilft
hill
hillary
hillcrest
hiller
hills
hillsboro
hilmar
hilton
hiltrud
him
himalaya
himme
himmel
himmelfahrt
himmelreich
himmels
himmeskeapa
himml
himmlische
hin
hinauf
hinaus
hindanis
hindenburg
hindi
hinduach
hinduismus
hingeng
hinsicht
hinstance
hint
hinta
hintagrund
hintalossn
hintam
hintan
hintaranaund
hinten
hinter
hintergru
hintergrund
hintern
hinterschmiding
hintn
hinton
hinwais
hinweg
hinweis
hinweise
hinz
hinzu
hinzua
hip
hiphop
hippie
hirakawa
hirichtung
hirmer
hirn
hirsch
hirschau
hirschling
hirt
hirtn
hirzel
his
hisdoarische
hisicht
histo
histoire
historia
historic
historical
historie
historika
historiker
historique
historisch
historischa
historische
historischen
historischer
historisches
historischn
historischs
historismus
history
hit
hitchcock
hitla
hitler
hitlers
hits
hittn
hitz
hitzn
hiweis
hja
hjørring
hl
hla
hlagruppn
hlau
hlbach
hlboch
hldorf
hle
hlen
hler
hlergemeinschaft
hlergmoaschaft
hlhausen
hlheim
hlhiasl
hlich
hling
hlkreis
hlmeyer
hln
hlt
hlte
hlung
hlunga
hlungen
hm
hmen
hmisch
hmische
hmischen
hms
hmt
hmte
hmten
hmtn
hmung
hmw
hn
hna
hnan
hnd
hne
hnen
hner
hnhof
hnle
hnli
hnlich
hnlicha
hnliche
hnlichkeit
hnlichkeitn
hnlichn
hnlichs
hnt
hnte
hnung
hnzug
ho
hoa
hoaba
hoach
hoachdeitsch
hoache
hoachn
hoachstift
hoachtaitsch
hoad
hoam
hoamad
hoamat
hoamatmuseum
hoamatstod
hoamgsuacht
hoamische
hoamli
hoamseitn
hoan
hoar
hoart
hoasd
hoass
hoassd
hoassn
hoasst
hoassts
hoast
hoasts
hoat
hoate
hoatn
hoazad
hoaß
hoaßn
hoaßt
hoaßts
hob
hobangoas
hobbach
hobbes
hobby
hobm
hobms
hobn
hoboken
hobt
hobts
hoch
hocha
hochaltar
hochbru
hochdeitsch
hochdeitsche
hochdeitschn
hochdeutsch
hoche
hochfla
hochgericht
hochhaus
hochkant
hochkuituan
hochkultur
hochland
hochlaund
hochmoor
hochn
hochquo
hochs
hochschui
hochschuilehrer
hochschuin
hochschule
hochschulen
hochschullehrer
hochschulschriften
hochsproch
hochstift
hochwassa
hochwossa
hochzeid
hochzeit
hockn
hod
hoda
hodie
hodina
hodma
hodn
hods
hodse
hoeneß
hof
hofa
hofbra
hofdog
hofer
hoffman
hoffmann
hoffnung
hofgarten
hofgoschdei
hofheim
hofkapej
hoflieferant
hoflieferanten
hofmann
hofmannsthal
hofmark
hofn
hofnstod
hofsta
hofstetten
hoft
hoftung
hogan
hogg
hogga
hoha
hohe
hoheit
hohem
hohen
hohenberg
hohenburg
hohenlohe
hohenschwangau
hohenstein
hohenzollern
hoher
hohm
hohn
hoi
hoib
hoiba
hoibbruada
hoibe
hoibfinale
hoibinsl
hoibinsln
hoibn
hoibs
hoibwegs
hoibzeig
hoid
hoidn
hoim
hoin
hois
hoissn
hoisst
hoit
hoitboa
hoitepunkt
hoitestej
hoitestejn
hoitesto
hoitn
hoitung
hoiwe
hoiwong
hoiz
hoizkiacha
hoizland
hoizschnitt
hoißt
hojadau
hokkaido
hokusai
hol
hold
holder
holding
holger
holiday
holla
holland
hollaund
holle
holledau
hollendisch
hollendischn
hollerhaus
hollfeld
holliday
hollow
holly
hollywood
holmes
holnstein
holocaust
holofernes
holstein
holt
holtei
holub
holy
holz
holzer
holzhausen
holzheim
holzkirchen
hom
homb
homburg
homd
home
homepage
homer
homerische
homestead
hominidn
homma
hommage
homme
homn
homo
homs
homse
hon
hond
honda
hondl
hondld
hondlt
honduras
honey
hong
hongkong
honig
honolulu
honore
hons
honshu
hood
hook
hooker
hoot
hop
hope
hopewell
hopfa
hopfner
hopkins
hopkinton
hopp
hora
horb
hordaland
hordeum
horizons
horizont
horizontal
horizonte
horizontoin
horn
horne
horni
hornkonzert
horno
hornung
horqueta
horror
horse
horst
horvath
hos
hosd
hosen
hoslbo
hosn
hospital
host
hot
hotej
hotel
hotels
hoto
hots
hou
houa
houch
houcha
houchdeitsch
houche
houchgsto
houchland
houchn
houchschui
houd
houe
houha
hound
hour
house
houston
hout
houten
houzad
how
howafejdtreim
howan
howard
howe
howell
howlin
hoyvi
hoz
hozad
hozat
hozata
hr
hra
hrabal
hrand
hrbru
hrd
hrdet
hrdung
hre
hren
hrend
hrende
hrer
hrg
hrhundat
hrhundert
hrhundrt
hrig
hriga
hrige
hrigen
hriger
hrign
hring
hringa
hringer
hrisch
hrische
hrischn
hrl
hrle
hrleistung
hrli
hrlich
hrliche
hrlichen
hrn
hrnd
hrr
hrsg
hrt
hrte
hrten
hrtin
hrung
hrungen
hrungseinheit
hs
hsg
hspeis
hspeisn
ht
hte
htm
html
hts
http
https
hu
hua
huaca
huad
huading
huaf
huang
huat
huawa
huaxtekn
hub
hubble
hube
huber
hubert
hubertus
hubertusho
huckelheim
huckt
hudson
hue
hugendubel
hugh
hughes
huglfing
hugo
hui
huif
huifsmiddl
huift
huish
huitzilihhuitl
huitzilopochtli
huiz
huiza
hula
hulk
hull
hulz
hum
human
humanismus
humanist
humblot
humboldt
hume
hummel
humor
humorist
humoristischa
humoristische
humoristischn
hund
hundad
hundat
hundate
hunderdorf
hundert
hundred
hundt
hung
hunga
hunger
hunnen
hunnischn
hunt
hunter
huntington
huntsville
hupft
huron
hurtigruten
hus
hussiten
hussitn
husum
hut
hutchinson
hutter
hutterer
hvalvi
hve
hviadl
hwinkel
hwnd
hy
hyde
hydratatiaun
hygiene
hymnan
hymne
hymnen
hymnus
hynek
hynka
hyperion
hypothesn
hz
i
ia
iaba
iabahapts
iabasetzung
iabatrong
iabooch
iad
iade
iagend
iagendwo
iah
iahm
iahn
iahr
iahra
iahre
ialaund
iam
ian
iar
iara
iare
iata
iatz
iatzt
iau
iaz
iazt
ib
iba
ibablick
ibafoi
ibagang
ibaganga
ibagem
ibahapts
ibahaupt
ibalegunga
ibaliefarung
ibaliefat
ibam
iban
ibanehma
ibanimmt
ibanomma
ibanumma
ibaquert
ibaroi
ibas
ibasetzt
ibasetzung
ibasetzunga
ibasicht
ibatrogung
ibatrong
ibazeigt
ibe
iber
iberetsch
iberische
iberischn
ibero
ibk
iblich
iblichaweis
ibliche
iblichn
ibm
ibn
ibr
ibrahim
ibre
ibrign
ibring
ibrunn
ibst
ibstlaute
ic
ica
icao
icd
ice
ich
icha
iche
icking
id
ida
idaho
idan
idaste
ide
ideal
ideale
idealismus
idean
ideas
idee
ideen
iden
identifikation
identifiziat
identisch
identische
identita
identity
ideologie
idgriag
idiot
idkriag
idl
idln
idn
idnes
idstock
idt
idung
idweid
ie
iec
ier
ies
if
ifa
ifszeichn
iftn
ig
iga
igl
iglbo
igling
igmoaner
ignacio
ignatius
ignatz
ignaz
igor
ih
ihausn
ihk
ihkopfvaschlusslaud
ihm
ihn
ihnen
ihr
ihra
ihram
ihran
ihrane
ihre
ihrem
ihren
ihrer
ihres
ihrm
ihrn
iht
ii
iii
iis
ij
ik
ika
ikaria
ikarung
ikh
ikone
iksgrubben
il
ila
ilanz
ildefonso
ile
iles
ilha
ilhas
ilhe
ilhuicamina
ilias
ilja
iljitsch
ill
illa
ille
iller
illinois
illmitz
illschwang
illusion
illustrated
illustration
illustrationen
illustrator
illustrierte
ilm
ilse
ilz
im
ima
image
images
imagesize
imagina
imagna
imdb
img
imma
immahin
immanuel
immer
immunita
impact
impeafekt
imperativ
imperfekt
imperial
imperialismus
imperium
import
impression
impuls
impulse
imst
in
ina
inan
inc
incandescent
incandescing
incertae
inchenhofen
incl
include
including
incorporated
increment
ind
inda
indem
indems
independence
independent
indettaglio
index
india
indian
indiana
indianan
indianapolis
indianer
indianische
indianischn
indians
indien
indigena
indigene
indigenen
indigenes
indikativ
indirekt
indisch
indischa
indische
indischn
indn
indo
indochina
indoeiropa
indogermanische
indogermanischn
indonesia
indonesien
indonesische
indre
induktivita
indus
industrial
industrialisierung
industrie
industriebetriebe
industriegebiet
industriella
industrielle
industriellen
industriestod
industrieviadl
industry
induzierte
ine
infandrieregiment
infanterie
infanterieregiment
infektion
inferior
inferiore
infinitiv
infiziert
inflation
influence
info
infoamazion
infocenter
infoige
informatik
information
informationa
informationen
informations
informationstechnik
informationstheorie
informationszentrum
informazion
informaziona
infos
infoseite
infrastruktua
infrastruktur
infty
ing
ingbert
inge
ingeborg
ingenieur
ingenieure
inglsta
inglstod
ingmar
ingo
ingoistod
ingolstadt
ingrid
inhalt
inhoba
inhoid
inhoide
inhoit
inhoite
inhoitsauga
inich
initiative
inka
inkl
inklusiv
inklusive
inland
inlet
inmiddn
inmittn
inn
inna
innahoi
innahoib
innan
innara
innare
innas
innastod
inne
innen
innenhof
innenraum
innenstod
inner
innere
inneren
innerhalb
innerhoib
innern
innkreis
innkroas
innovation
innsbruck
innschbruck
innschbrugg
innschprugg
inntal
innviadl
inoki
inquisition
inrana
ins
insa
insan
insane
insare
insbesondere
insbsondare
inschrift
inschriftn
inschtrument
insee
insekt
insektn
insel
inselgruppe
inseln
insgesamt
insgesaumt
insgesomt
insgsamt
insgsaumt
insgsomd
insgsomt
inside
insingen
insl
inslgruppe
inslgruppm
inslgruppn
inslkettn
insln
inslstoot
inslstootn
inspiration
inspiriad
inspiriat
inspiriert
installation
installiert
instant
instanz
institut
institute
institution
institutiona
institutionen
instituto
instituts
instrument
instrumental
instrumente
instruments
insurance
int
inta
intadisziplina
intanationale
intanationoie
intanationoin
intanazional
intanazionale
intanazionaln
intanet
intanetseitn
intapretn
intaressant
intaressante
intaresse
intaressn
intaschtitzung
intaschtizt
intavoi
inte
integration
integriad
integriat
integriert
intelligence
intelligenz
intendant
intensiv
inter
interactive
interaktive
interaktivn
intercontinental
interdisziplina
interessant
interessante
interesse
interessiat
interior
intermezzo
internat
international
internationala
internationale
internationalen
internationaler
internationales
internationaln
internationals
internationoi
internationoie
interne
internet
internetauftritt
internetpra
internetseite
internetz
interpret
interpretation
interpretationen
interstate
intervention
interview
interviews
into
intressant
intressante
intresse
intressiad
intressiat
intressn
introduction
inuit
inv
invasion
invention
inverness
inzell
inzersdorf
inzwisch
inzwischen
inzwischn
io
ioc
iokaste
ion
iowa
ip
ipa
ipba
iphone
ipod
ippesheim
ir
ira
irak
iran
iranische
irdning
ire
ireland
irene
irgendwann
irgendwie
iring
iris
irisch
irischa
irische
irischn
irish
irl
irland
irlmaier
irma
irmgard
irna
irnan
irnane
iro
irokesen
irokesn
iron
ironie
ironisch
irpinia
irpino
irrtum
irschnhausn
irving
irwin
is
isa
isaac
isaak
isabel
isabella
isar
isass
isbethn
isbn
isch
ischa
ischaft
ische
ischen
ischer
isches
ischl
ischn
ischoft
ischs
ischt
ise
isen
iseo
isernia
isin
isla
islam
islamic
islamisch
islamischa
islamische
islamischn
island
islands
islas
isle
isles
isleta
ism
ismaning
isn
iso
isola
isolde
isoliad
isoliade
israel
israeli
israelischa
israelische
israelischn
iss
issa
isses
issn
isst
issue
ist
ista
istanbul
istat
isthmus
istituto
istrien
isweis
it
ita
ital
italia
italian
italiana
italiani
italianisiatn
italiano
italica
italien
italiena
italiener
italienisch
italienischa
italienische
italienischen
italienischer
italienischn
italische
italy
ite
item
ithaca
ithaka
itich
itig
itin
itische
itischn
itn
itnis
its
itter
itz
itza
itzcoatl
itzling
iulia
iulius
iung
iunius
iuvavum
iv
iva
ivan
ivo
ivoire
ivot
ivota
ivrea
ivw
iwa
iwablick
iwad
iwadrong
iwafoin
iwagang
iwagaung
iwagaunga
iwagem
iwagob
iwagong
iwagonga
iwahaps
iwahapt
iwahapts
iwahaupt
iwalebt
iwalegt
iwaliefarung
iwaliefat
iwalifat
iwalifatn
iwalossn
iwam
iwan
iwanehma
iwanimmt
iwanowitsch
iwanuma
iwanumma
iwapru
iwaquead
iwaqueat
iwaregional
iwaregionale
iwaregionaln
iwareste
iwaroi
iwas
iwasa
iwaschrittn
iwasetza
iwasetzing
iwasetzn
iwasetzt
iwasetzung
iwasetzunga
iwasezt
iwasezung
iwasicht
iwatn
iwatrog
iwatrogn
iwatrogung
iwatrong
iwawejngt
iwawiegend
iwawiegnd
iwawiengd
iwawocht
iwazeigt
iwazol
iwe
iwer
iwrign
ix
ixtlilxochitl
iz
iza
izburg
izburga
izburger
ißt
j
ja
jaare
jaarige
jaarign
jacinto
jack
jackie
jackl
jackson
jacksonville
jacob
jacobi
jacobs
jacobus
jacopo
jacqueline
jacques
jade
jae
jaffa
jaga
jagd
jagdlichn
jagdpacours
jagua
jaguar
jah
jahn
jahr
jahrbuch
jahre
jahren
jahres
jahrgang
jahrhundat
jahrhundert
jahrhunderte
jahrhunderten
jahrhunderts
jahrign
jahrl
jahrlign
jahrln
jak
jakob
jakobsthal
jakobsweg
jakobus
jakub
jam
jamaika
james
jamestown
jan
jana
jandl
jane
janeiro
janes
janet
janez
janis
janitscharn
janka
janosch
jansen
januar
january
jap
japan
japana
japaner
japanese
japanisch
japanischa
japanische
japanischen
japanischn
jar
jarign
jaromi
jaromil
jaroslav
jaroslava
jarðarbo
jason
jasper
jatzek
jau
java
javier
jay
jazz
jazzmusika
jazztrompeter
jbe
jbn
jbst
jcha
jche
jd
jda
jde
je
jea
jean
jeanne
jed
jeda
jede
jedem
jeden
jeder
jedermann
jedes
jedm
jedn
jednfois
jedo
jedoch
jeds
jeff
jefferson
jeffrey
jehovas
jek
jelinek
jemand
jemandn
jemen
jemois
jen
jena
jene
jenkins
jenna
jenner
jennerwein
jennifer
jenny
jens
jenseits
jensen
jenson
jeremy
jericho
jerome
jerry
jersey
jerusalem
jerzy
jesenice
jesse
jessica
jesu
jesuit
jesuiten
jesuitn
jesus
jet
jetz
jetza
jetzad
jetzan
jetzat
jetzige
jetzt
jewa
jewails
jeweijing
jeweilige
jeweilign
jeweiling
jeweils
jeweis
jeweus
jewish
jez
jezd
jfalu
jft
jftn
jg
jh
jhd
jhdt
ji
jia
jiang
jidd
jiddisch
jiddischa
jiddische
jiddischn
jidisch
jidischa
jidische
jidischen
jidisches
jidischn
jim
jimbo
jimi
jimmy
jin
jindr
jine
jing
jinga
jingan
jingane
jingara
jingare
jingste
jingstn
jiny
jir
jira
jll
jlla
jn
jo
joa
joachim
joah
joahhundat
joahn
joahr
joahrhundart
joahrhundat
joahrzehnt
joahunad
joahundad
joahundat
joahundate
joan
joar
joare
joares
joaresdog
joaresende
joareszeidn
joarhundad
joarhundade
joarhundads
joarhundat
joarhundate
joarhundert
joarn
joartausnd
joarzehnt
joarzehnte
joatausnd
joazehnt
job
jobs
joch
jochberg
jochen
jodler
joe
joel
joesi
jog
jogd
jogn
joh
johan
johann
johanna
johannes
johannesberg
johannesburg
johanni
johannis
johannisburg
johannita
john
johnny
johns
johnson
johnston
johr
johreswexl
johrhundat
joint
joker
jolesch
jom
jon
jona
jonas
jonathan
jones
jonesboro
jong
joo
joor
joorhundat
joos
joplin
jor
jordan
jordanes
jordanien
jorge
jorhundert
jos
jose
josef
josefine
josefs
josefstadt
josefstod
joseph
josephine
josh
joshua
jost
jou
joua
jouana
jouer
joule
jour
journal
journalismus
journalist
journalistin
journalistn
journey
jours
jovice
joy
joyce
jozef
jp
jpeg
jpg
jr
js
jschoft
jsem
jt
jtkriag
jtn
jtnis
jtweit
ju
jua
juan
jubila
jubilate
jud
juda
judaica
judas
jude
juden
judentum
judith
judn
judndum
judntum
judo
jugand
jugend
jugendliche
jugendlichn
jugendliteratur
jugendstil
jugendstui
jugnd
jugoslawien
jule
jules
juli
julia
julian
julie
julien
julisch
julius
july
jump
jun
juncal
junction
june
juneau
jung
junga
jungan
jungd
junge
jungen
junger
jungfrau
jungmann
jungs
jungstoazeid
jungstoazeit
juni
junior
junius
juno
jupiter
jura
jurassic
juri
jurist
juristische
jury
just
justice
justify
justin
justinian
justiz
justus
jutta
jux
jza
k
ka
kaa
kaam
kaan
kaana
kaane
kaas
kabaka
kabale
kabarett
kabarettist
kabarettistin
kabarettistn
kabarettpreis
kabarettprogramm
kabinett
kabylisch
kada
kafa
kaffa
kaffee
kaffeehaus
kafft
kafka
kafkas
kaft
kahl
kahlgru
kahlgrund
kahlo
kai
kairo
kaisa
kaisabeag
kaisaliche
kaisalichn
kaisareich
kaisarin
kaiser
kaiserin
kaiserlich
kaiserreich
kaisers
kaiserslautern
kaisheim
kal
kalabrien
kalb
kaldbaksbotnur
kalenda
kalendasoatn
kalender
kaliba
kalidasa
kalif
kalifat
kalifn
kalifoanien
kalifornien
kaliningrad
kalligraphie
kalt
kalte
kaltenberg
kaltern
kalvarienberg
kam
kama
kambodscha
kamen
kamera
kameralamt
kameras
kamerun
kamin
kaminaljuyu
kaminsky
kamm
kamma
kammamusi
kammel
kammeltal
kammer
kammermusik
kammerspiele
kamo
kamp
kampagne
kampanien
kampe
kampf
kampl
kan
kana
kanada
kanadischa
kanadische
kanadischn
kanal
kanals
kanarischn
kanawha
kandidat
kandidatn
kane
kaneu
kankakee
kann
kannst
kannt
kanntn
kano
kanoi
kanon
kansas
kant
kantate
kantatn
kantn
kanton
kantone
kantonen
kantons
kantor
kanzla
kanzlei
kap
kapazita
kapej
kapejn
kapelle
kapelln
kapit
kapita
kapital
kapitalismus
kapitel
kapitl
kapitoi
kapitulation
kaplan
kapo
kappa
kaputt
kar
kara
karakalpakische
karakalpakistan
karakta
karantanien
karat
karate
karbach
kardina
kardinal
kardinoi
kardinoibischof
kardn
karel
karen
karger
karibik
karikatur
karikaturen
karikaturist
karin
karl
karla
karlheinz
karli
karlmann
karls
karlsho
karlsruhe
karlstadt
karlstein
karmel
karnataka
karner
karneval
karntn
karod
karol
karolinenstraß
karolinga
karolingischn
karpatn
karrier
karriere
karst
karsten
kart
karte
karten
kartenspiel
karthago
kartn
karton
karung
karungsdichtn
karungsentwicklung
karwendl
kas
kasachische
kasachstan
kasai
kasan
kasendorf
kasern
kaserne
kasimir
kaspanaze
kaspar
kasper
kasperl
kaspischn
kasra
kassel
kassl
kassla
kastel
kastell
kasten
kastilien
kastl
kasus
kat
katalanisch
katalanische
katalog
katalonien
katar
katastra
katastralgmoa
katastralgmoana
katastrophn
kate
kategorian
kategorie
kategorien
kater
kath
katharina
kathedrale
kathedralkirch
kathedraln
kathedroi
kathetn
kathi
katho
katholikn
katholisch
katholischa
katholische
katholischen
katholischer
katholischn
kathrin
katja
kato
katolischn
katrin
katsushika
katz
katze
kau
kauf
kaufbeiren
kaufbeuren
kaufering
kaufleit
kaufma
kaufmann
kaufmo
kaufn
kauft
kaukasus
kaukonen
kaulberg
kaum
kaumma
kaumpf
kaun
kaunas
kaunitz
kaunn
kauns
kaunst
kaus
kausalita
kaut
kautschuk
kavallerie
kawaundarung
kay
kazimierz
kb
kbs
kde
kdo
ke
kea
kead
kealn
kealna
kean
keana
keandl
keandln
keanigliche
keaniglichn
keanna
keannan
keantn
keantna
keapa
keat
keck
keeni
keep
kees
kefring
kegl
kehlmann
kehrt
kei
keilberg
keilor
kein
keine
keinen
keiner
keirat
keith
kejtische
kejtischn
kejtn
keks
kelheim
kella
keller
kelleygreen
kelly
kelten
keltische
keltischn
kem
kema
kemal
keman
kemische
kemma
kemmad
kemman
kemmand
kemmen
kemnath
kempf
kempfa
kempfn
kempft
kempten
ken
kena
kenan
kend
kendall
kenia
kenich
kenig
kenige
kenigin
keniglich
kenigliche
kenigreich
kenigshof
kenigssa
kenigstraß
kenigstuih
kenja
kenn
kenna
kennan
kennans
kennd
kenne
kennedy
kennen
kenneth
kennt
kennta
kenntad
kenntat
kenntn
kenntnis
kenny
kennzeichen
kennzeichn
kennzeichnat
kennzeichnet
kennzeichnt
kennzeichnung
kennzoichnat
kensington
kent
kentucky
kenya
kepf
kepler
ker
keramik
kern
kernel
kernland
kernort
kernstod
kernten
kerntner
kerpa
kerr
kerry
kerstin
kessel
kessl
kessn
kette
ketten
kettn
kettner
ketzing
keuschrift
kevelaer
kevin
key
keyboard
keys
kfz
kg
kh
kha
khagan
khan
khe
khk
kho
ki
kia
kiabeag
kiaberg
kiach
kiacha
kiachal
kiachan
kiachbeag
kiachdoaf
kiache
kiachliche
kiachlichn
kiachn
kiachngmoa
kiachngmoana
kiachnprovinz
kiachspui
kiah
kias
kiaza
kibbuz
kicker
kickers
kid
kiel
kiem
kienbeag
kiepenheuer
kiew
kilda
kildare
kilian
kilimandscharo
kill
killer
killing
kilo
kilogramm
kiloma
kilomeda
kilomedda
kilometa
kilometer
kim
kimb
kimd
kimi
kimm
kimmad
kimman
kimmat
kimmb
kimmd
kimme
kimmp
kimmst
kimmt
kimmts
kimp
kimpt
kimt
kimts
kin
kina
kinan
kind
kinda
kindabiacha
kindabuach
kindaga
kindagartn
kindagartnpla
kindagoartn
kindagoatn
kindagoatnpla
kindagortn
kindan
kinder
kinderga
kindern
kindheid
kindheit
kindl
kindler
kindln
kindskopf
kine
kinereich
kinesisch
kinesischa
kinesische
kinesischn
kinesn
king
kingdom
kingman
kings
kingston
kini
kinig
kinigin
kinigliche
kiniglichn
kinigreich
kinihof
kinireich
kinis
kinitum
kinna
kinnan
kinnand
kinnt
kinnts
kino
kinos
kinshasa
kinste
kinstla
kinstlan
kinstlarin
kinstlarisch
kinstlarische
kinstlarischn
kinstli
kinstliche
kinstlichn
kint
kintad
kinz
kinzig
kinzigtal
kiowa
kip
kira
kiran
kirch
kircha
kirchberg
kirchbichi
kirchdoaf
kirchdorf
kirche
kirchen
kirchengeba
kirchengemeinde
kirchenlamitz
kirchenmusik
kirchensittenbach
kirchenthumbach
kircher
kirchh
kirchheim
kirchliche
kirchlichn
kirchn
kirchnbau
kirchnprovinz
kirchturm
kirgisistan
kirjat
kirk
kirke
kirkjubøur
kirkwood
kirng
kirschfurt
kirwa
kiss
kissing
kissingen
kissinger
kistn
kit
kitts
kittsee
kitty
kitzbiche
kitzbichi
kitzbu
kitzinga
kitzingen
kj
kkstb
kl
kla
klaa
klaan
klaana
klaanan
klaanare
klaane
klaans
klaas
klagenfurt
klamman
klampfm
klampfn
klan
klana
klanan
klanare
klane
klang
klar
klara
klare
klarinettn
klass
klasse
klassifikation
klassifiziad
klassik
klassika
klassiker
klassisch
klassischa
klassische
klassischen
klassischer
klassisches
klassischn
klassischs
klassizismus
klassn
klauman
klaus
klause
klavia
klaviakonzeat
klavier
klaviersonate
klavierstu
klaviertrio
kleana
kleanan
kleanare
kleanere
kleanste
kleasta
klee
kleider
klein
kleinaschaff
kleine
kleinen
kleiner
kleines
kleinkahl
kleinkunstpreis
kleinlaudenbach
kleinostheim
kleinsendelbach
kleinwallstadt
kleist
kleopatra
klerus
klesmer
klesta
klett
klezmer
kli
klicka
klicpera
klima
klimadiagramm
klimazone
klimt
kling
klinga
klingan
klingen
klingenberg
klinger
klingt
klinik
klinikum
klinkaphasn
klischnigg
klo
kloa
kloabuachstob
kloagebiet
kloan
kloana
kloanan
kloanane
kloanare
kloane
kloanen
kloans
kloansde
kloanste
kloanstn
kloar
kloare
kloaschta
kloasta
kloastakira
kloastod
kloawogn
klog
klognfuat
kloina
klomm
klomman
klong
kloschta
kloss
klosta
kloster
klostermayr
klotz
klousda
klousta
klu
klub
klubas
kluge
klusacek
km
kn
kna
knapp
knaur
knecht
knedl
kneipp
kneißl
knia
knickt
knie
knieriem
knight
kniha
knipft
knm
kno
knob
knochn
knofe
knoll
knopf
knopp
knorkator
knorr
knoten
knotn
knotnmenge
knotnpunkt
know
knowledge
known
knox
knoxville
knu
knupf
knut
ko
koa
koal
koalition
koam
koan
koana
koane
koans
koarl
koartn
koasa
koasareich
koasarin
koasas
koatn
kobell
kobf
koblenz
kobt
koch
kocha
kochbuch
kochd
kochel
kochen
kocht
kod
kodex
kodiak
kodialistn
kogl
koh
kohl
kohler
kohlhammer
kohlhase
kohout
koi
koich
koichfoarb
koichputz
koichstoa
koid
koida
koide
koidn
koik
koikoipm
koikoipn
koin
koinbuag
koistoa
koitn
koiwamoor
kokel
kokoschka
kola
kolb
kolbermoor
kolitzheim
kolla
kollafjørður
kolleg
kollegiatstift
kollegin
kollegn
koller
kolo
kologie
kologisch
kologische
koloman
koloni
kolonia
kolonialzeid
kolonie
kolonien
kolonistn
koltur
kolumbien
kolumbus
koma
kombat
kombination
kombiniad
kombiniat
kombo
komedie
komet
kometn
komik
komika
komiker
komisch
komische
komischen
komitat
komitee
komm
komma
kommandant
kommandeur
kommandierender
kommando
kommen
kommentar
kommentare
kommentiert
kommentierte
kommerzielle
kommissar
kommissariat
kommissarin
kommission
kommt
kommun
kommuna
kommunale
kommunalwoi
kommune
kommunen
kommunikation
kommunismus
kommunistische
kommunistischn
kommunoie
kommunoin
kommunoireform
kommunoiwoi
kommunoiwoin
komo
komoren
komorn
kompakt
komparativ
kompendium
kompetenz
kompetenzn
kompf
kompilationen
komplet
komplett
komplette
komplettn
komplex
komplexa
komplexe
komplexn
kompliziad
komponentn
komponiad
komponiat
komponiert
komponist
komponisten
komponistn
komposition
kompositiona
kompositionen
komprimiate
kompromiss
kon
kona
kondakt
kondensatoa
konditorei
konferenz
konfession
konfessiona
konflikt
konflikte
konfo
konfuzianismus
konfuzius
kong
kongo
kongress
konjugation
konjunktiona
konjunktiv
konkret
konkrete
konkurrentn
konkurrenz
konkurs
konn
konnst
konnt
konnte
konom
konomie
konrad
konsens
konsequent
konsequenz
konsequenzn
konservative
konservativn
konservatorium
konsistenz
konsoin
konsoinumsetzunga
konsonant
konsonanten
konsonantn
konsonantna
konst
konstant
konstante
konstantin
konstantinopel
konstantinopl
konstanz
konstauntn
konstitution
konstruktion
konstrukzion
konsul
konsuln
konsum
konsumentn
kontakt
kontakte
kontext
kontinent
kontinentalklima
kontinente
konto
kontra
kontrabass
kontrast
kontroi
kontroin
kontrolle
kontrolliad
konversations
konya
konzeat
konzeate
konzentration
konzentrian
konzentriat
konzept
konzepte
konzern
konzert
konzerte
konzession
konzil
koo
kool
kooperation
koordinatn
kopenhagen
kopernikus
kopf
kopiaschutz
kopie
kopt
kor
koran
korb
korbinian
kore
korea
korean
koreanisch
koreanische
korinth
korl
korn
kornfelder
koronis
koros
korporierter
korps
korpus
korrekt
korsika
kortn
kos
kosinussotz
kosmetik
kosmologie
kosmos
kosovo
kost
kostn
kostnlose
kostu
kota
kotz
kotzebue
kou
kourtsch
kov
kova
kovac
koyukuk
kpd
kr
kra
kraas
krachal
kracherl
krafft
kraft
kraftwerk
krain
kraiz
kraj
krakau
krambambuli
kramer
krampal
krampus
kramsach
kranawittn
krangahaus
krank
kranke
krankheit
kranknhaus
kranz
kranzmayer
krapfenau
krasny
krata
kraudn
kraunk
kraus
krause
krausenbach
krauss
kraut
krauthauhn
kraxln
krebs
kredenbach
kredit
kreis
kreischgebiet
kreise
kreisfreie
kreisfreien
kreisky
kreisler
kreisstadt
kreisstod
kreisstroß
kreiz
kreiza
kreizberg
kreizn
kreiznd
kreizt
kreizung
kreizweg
kreizzug
krejg
krejgt
kremayr
kreml
kremnitz
krempl
krems
kremsmu
kren
krenkl
kreta
kretschmer
kreuth
kreutzmann
kreuz
kreuzberg
kreuze
kreuzer
kreuzes
kreuzlingen
kreuzwertheim
kri
kriag
kriaga
kriagadenkmoi
kriagd
kriagg
kriagn
kriags
kriagsend
kriagsschiff
kriagst
kriagt
kriang
krieg
krieger
krieges
krim
krimi
kriminala
kriminalroman
krimiserie
kris
krise
krisn
kriss
kristalle
kristi
kristin
kristlicha
kristliche
kristlichn
kristn
kristndum
kristntum
kristus
kriterien
kriterium
kritesiat
kritik
kritika
kritikn
kritisch
kritische
kritischen
kritisches
kritischn
kritisiad
kritisiat
kritisiert
kro
kroas
kroasamt
kroasdog
kroasfreie
kroasfreien
kroasfrein
kroasgebiet
kroasn
kroasstod
kroasstroß
kroatien
kroatisch
kroazien
kroetz
kroft
kroftrichtung
kroftweak
krogtra
kroin
krombach
krommenthal
kron
krona
kronach
krone
kronen
krongahaus
kronik
kronknhaus
kronla
kronos
kronprinz
kronstadt
kross
krowodisch
krowodische
krowodischn
krowodn
krowozien
krs
krtek
kru
kruag
krumbach
krumm
kruse
kruzifix
krypta
ks
ksa
ksv
ksw
kt
ku
kua
kuafiaschtndum
kuafiast
kuafiastntum
kuah
kuaz
kuaza
kuaze
kuazfoam
kuazfristig
kuazfuim
kuazgschichtn
kuazn
kuazs
kuba
kubikmeta
kubikzoll
kubrick
kuche
kuchen
kuchl
kuckuck
kuffner
kufstein
kufstoa
kugl
kuh
kuhn
kuimboch
kuin
kuinstoff
kuinwossastoffe
kuipergiatl
kuit
kuitua
kuituagschicht
kuituan
kuituareje
kuituarelle
kuituazentrum
kuitur
kuituro
kularisation
kulinarische
kulm
kulmbach
kult
kultua
kultur
kulturelle
kulturellen
kulturelln
kulturen
kulturerbe
kulturgeschichte
kulturgut
kulturlandschaft
kulturpreis
kuma
kumhausen
kumm
kumma
kumman
kummd
kummst
kummt
kummts
kumpfmu
kumt
kundera
kundl
kundn
kung
kunnt
kunntn
kunreuth
kunst
kunstareal
kunstdenkma
kunstdiena
kunstfu
kunstgeschichte
kunsthalle
kunsthistorisches
kunstmola
kunstmuseum
kunststoff
kunststoffe
kunststu
kunstverlag
kunstweak
kunstwerk
kunt
kunz
kunze
kunzmann
kupfa
kupfastich
kupfer
kupferberg
kur
kuraki
kuratie
kurdistan
kurfiarscht
kurfiarstntum
kurfiaschtn
kurfu
kurier
kuro
kurort
kurosawa
kurpark
kurpfalzbayerisches
kurs
kursbuachstreckn
kurse
kursiv
kurt
kurti
kurvn
kurz
kurza
kurze
kurzer
kurzfilm
kurzform
kurzgeschichte
kurzgeschichten
kurzn
kuwait
kv
kve
kvi
kvorecky
kw
kwa
kwh
ky
kyle
kymrisch
kyniker
kyo
kyoto
kyrene
kyrie
kyrill
kyrillisch
kyrillischer
kyrillischn
kyu
kz
kzn
l
la
laa
laab
laabbaam
laaber
laaer
laaf
laan
laar
lab
label
labor
laboratory
labour
labyrinth
lac
lacerta
lach
lachen
lacht
lackenbach
lada
laden
ladin
ladina
ladinisch
ladinische
ladinischn
ladislav
lady
laf
lafayette
laff
laffa
laffd
laffn
lafft
laft
lag
laga
lagasch
lage
lager
lago
lagomaggiore
lagoon
lagos
lagrange
laguna
lagune
lahm
lahn
lai
laibach
laiboch
laicht
laid
laien
laimbach
lait
lake
lakeland
lakes
lakeside
lakeview
lakewood
lakota
laktas
lam
lama
lamar
lamb
lambach
lambda
lambert
lambro
lamm
lammert
lamp
lampert
lamps
lan
lana
lancashire
lancaster
lanczkowski
land
landa
landau
landdog
landdogswoi
lande
landeck
landes
landesamt
landesbibliothek
landesgartenschau
landesgrenz
landeshaptstod
landeshauptstadt
landeshauptstod
landeskunde
landesliga
landeslistn
landesmoasta
landesmuseum
landesplanung
landesregiarung
landesregierung
landessteanwarte
landestheater
landesweidn
landesweitn
landfla
landgericht
landgmoa
landgmoana
landgricht
landig
landing
landkoatn
landkreis
landkreise
landkreises
landkroas
landl
landla
landler
landmark
landra
landrat
landratsamt
landrod
lands
landsad
landsberg
landsberger
landscape
landschaft
landschaftn
landschaftsschutzgebiet
landschberg
landschoft
landschoftn
landsdad
landshuad
landshuat
landshut
landshuter
landtag
landtagsabgeordneter
landwehr
landwiatschaft
landwiatschoft
landwiatschoftli
landwiatschoftlich
landwiatschoftliche
landwirtschafdlich
landwirtschafdliche
landwirtschaft
landwirtschaftlich
landwirtschaftliche
landwirtschoftliche
lane
lang
langa
langan
langasandur
langdoaf
lange
langen
langensendelbach
langer
langes
langfurth
langhaus
langja
langobarden
langobardische
langobardischn
langobardn
langs
langsam
langsama
language
languages
langue
langues
lanham
lanka
lanner
lanz
lao
laos
lara
larch
large
largo
larin
larinna
larry
lars
las
laser
laserniveau
lask
lass
lassen
lassn
lasst
last
lat
late
latein
lateinamerika
lateinisch
lateinischa
lateinische
lateinischen
lateinischer
lateinischn
later
latern
latex
latin
latino
latium
latn
latzfons
lau
laub
lauca
lauch
laud
lauda
laudate
laudenbach
lauderdale
lauer
lauf
laufach
laufboh
laufe
laufen
laufwidastaund
laund
laundeshauptstod
laundesregiarung
laundkreis
laundkroas
laundschoft
laundschoftn
laundtog
laundwiatschoft
laundwiatschoftliche
laundwirtschaft
laundwirtschoftli
laune
laung
launga
laungan
launge
laungen
laungs
laungsam
laungsaum
laungvokal
laura
laurel
laureles
laurens
laurent
laurentius
lauriacum
lauro
lausanne
lausitz
laut
lauta
laute
lauter
lauterbach
lautet
lautlehre
lautliche
lautn
lautrach
lautsta
lautt
lava
lavaca
laval
lavanttal
law
lawrence
layer
layout
lazarus
laßt
lb
lbe
lbm
lc
ld
lda
lde
lder
ldots
le
lea
lead
leader
leaf
league
leah
leahra
leam
leana
leanan
leander
leant
leara
learn
least
leavenworth
leb
lebakaas
lebandn
lebanon
lebd
lebe
leben
lebendig
lebendige
lebendn
lebens
lebensgefa
lebensgeschichte
lebenslauf
lebensmittel
lebenswertes
lebewesn
lebm
lebmsmiddl
lebn
lebt
lebzeidn
lebzeitn
lecco
lech
lecha
leche
lechfeld
lechner
leck
lecture
lectures
led
leda
ledahosn
lederhosn
ledger
ledig
ledigle
ledigli
lediglich
lee
leech
leeds
leem
leer
lees
left
leg
legacy
legal
legd
legend
legenda
legende
legendean
legenden
legendn
legio
legion
legiona
legionan
legionea
legionen
legionsloga
legislative
legn
legt
leh
lehen
lehm
lehmann
lehn
lehnt
lehnweata
lehr
lehra
lehrberg
lehrbuch
lehre
lehrer
lei
leib
leiberl
leibnitz
leibniz
leich
leicht
leichta
leichtathlet
leichtathletik
leichte
leichter
leichtn
leichts
leichttuam
leid
leida
leiden
leidenschaft
leider
leidersbach
leidln
leidn
leim
leinburg
leine
leino
leinwand
leinwaund
leipzig
leipziger
leise
leist
leisten
leistn
leistung
leistunga
leistungen
leistungsfa
leit
leita
leitd
leiter
leitet
leitfaden
leitha
leitln
leitn
leitner
leitung
lejb
lejd
lek
leksikon
lem
lemand
lemberg
lemke
lemma
lemon
lemsjoar
lemsraum
lemy
len
lena
lenape
lenbachhaus
lend
lenda
lendlichn
leng
lenga
lengan
lengfo
lengfurt
lengste
leni
lenin
leningrad
lenis
lenka
lennep
lent
lentz
lenz
leo
leoben
leogang
leon
leonard
leonardo
leonding
leone
leonhard
leonhardi
leonidas
leopoidskron
leopoidskrona
leopoidstod
leopold
leopoldi
leopoldina
leopoldsta
leopoldstadt
leopolstraße
ler
lerchenberg
lern
lerna
lernen
lernt
leroy
les
lesa
lesch
lesebuch
lesen
leser
lesh
leshahnl
leslie
lesn
lesotho
lessing
lesson
lest
lester
lesung
lesungen
leszek
let
letter
letters
lettland
lettres
letzan
letzde
letzdn
letzn
letzt
letzta
letztan
letztara
letztare
letzte
letzten
letzter
letztle
letztn
letzts
leuchtenberg
leuchtet
leuchtturm
leut
leute
leutenbach
leutershausen
levakusn
level
levi
levroux
levy
lew
lewin
lewinsky
lewis
lewiston
lex
lexicon
lexik
lexika
lexikon
lexington
leynar
lez
lezda
lezde
lezdn
lezte
leztn
lf
lfe
lff
lfte
lftn
lfu
lg
lheim
li
lia
liab
liaba
liabe
liabn
liabs
liabstn
liabt
liacht
liachta
liachtmess
liachtnstoa
liachtquelln
liachtsigna
liachtsta
liad
liada
liadamocha
liadl
liadln
liafaring
liagg
liagn
liagt
liang
liawa
libanon
liber
liberale
liberaln
liberia
liberty
library
libre
libretto
librivox
libya
libyen
libysch
license
lich
liche
licht
lichtenau
lichtenberg
lichtenfels
licinius
lick
lidaradua
lidove
lie
lieb
liebe
lieben
lieber
liebermann
liebes
liebhaber
liebig
liebknecht
liebling
liebster
liebt
liechtenstein
lied
lieder
liederbuch
liederfundkiste
liedermacher
liefan
liefat
lieg
liegd
liegen
liegg
liegn
liegt
liegts
lien
lieng
liengde
liengdn
lienz
lies
liesing
liesingba
liesl
liest
lieu
liezen
lif
life
lift
lig
liga
ligatua
ligd
lige
ligg
light
lightgrey
lighthouse
lighting
lightnin
lightning
lights
lign
ligt
ligurien
like
likea
lili
lilie
lilien
lilienfeld
lilienfo
lilith
lille
lillehammer
lim
lima
limauni
limbach
limbuag
limburg
lime
limes
limestone
limit
limited
limoges
limp
lin
lina
linawoi
lincoln
lincolnshire
lind
linda
lindach
lindau
lindberg
linde
lindemayr
linden
lindenberg
lindenfurterhof
linderhof
lindgren
lindn
lindner
line
linear
lineare
lines
ling
lingand
lingua
linguisdische
linguist
linguistic
linguistics
linguistik
linguistische
linguistn
linian
linie
linien
link
linka
linke
linken
linkin
linkn
links
linksammlung
linn
linnaeus
linne
linsn
lintlhof
linus
linux
linwood
linz
linza
linzer
lio
lion
lionel
lipp
lippe
lippi
lips
lis
lisa
lisberg
lisch
lische
lischn
lissabon
lissi
list
lista
liste
listen
listet
listn
liszt
lit
lita
litaradua
litaratua
litaratur
litarisch
litarische
litauen
litauisch
litaun
litchfield
liter
litera
literadua
literarisch
literarischa
literarische
literarischen
literarischer
literarisches
literarischn
literary
literatua
literatur
literatura
literature
literaturkritik
literaturpreis
literatury
lithographie
litocuphist
litratua
litratur
litte
little
liturgie
liu
liv
live
liverpool
living
livingston
livius
lix
lizenz
ljubljana
lk
lka
lkarung
lker
lkermarkt
lkerung
lkw
lky
ll
lla
llan
llano
llbach
llc
lle
llen
llenangst
ller
llerer
lles
llfeld
lli
llich
llig
llige
llign
lling
llionan
llionen
llkrippen
llmu
lln
llner
llo
lloyd
lls
llscha
llt
lltn
llung
llungan
llungen
lm
lmhult
lmu
ln
lna
lnb
lner
lni
lo
loa
loab
load
loam
loanwoat
loata
loavn
lob
lobau
lobt
local
localita
localitzacio
location
loch
lock
locka
locke
lockt
locust
lodain
lodainisch
lodainischn
lodge
lodi
lodn
lodron
lodung
lofer
log
loga
logan
logarithmus
loge
logic
logik
logisch
logische
logischn
logn
logo
logogramm
logos
logrechtsklick
loh
lohe
lohengrin
lohmeier
lohn
lohner
lohr
lohrbach
lohrerstraße
lohrhaupten
loiching
loir
loire
loiret
lois
loisach
lok
loka
lokal
lokalbahn
lokale
lokaln
lokativ
loki
lokoin
lola
lolland
loma
lombardei
lombardi
lombardia
lombardiabeniculturali
lombardisch
lombardo
lond
londesgrenz
londeshauptstod
londkroas
london
londona
londschoft
londschoftn
londstroß
lone
lonely
long
longa
longan
longe
longhaus
longinus
longrightarrow
longsom
look
loop
loos
loose
lorbeer
lord
lore
lorenz
lorenzen
lorenzo
loretto
loriot
loriots
lorraine
los
loss
lossa
lossd
lossn
losst
lost
lostn
lot
lothar
lothringen
lotte
lotus
lou
loua
loud
louis
louisa
louise
louisiana
louisville
loup
lourdes
lout
louvre
love
loving
low
lowell
lower
lowie
loyola
loze
loßt
lp
lpg
lps
lr
ls
lsch
lscher
lsheim
lso
lswais
lt
lta
ltbayern
ltd
lte
lten
lter
ltere
lteren
ltern
lteste
ltesten
ltho
lthoachtaitsch
ltig
ltige
ltigen
ltign
ltlich
ltn
ltnis
ltnisse
ltrer
ltrn
lu
luaft
lublin
luc
luca
lucas
lucca
luce
luchterhand
lucia
lucien
lucius
luck
luckn
lucky
lucy
ludger
ludium
ludvi
ludwig
ludwigs
ludwigsthoi
ludwigstraß
lufd
luft
luftaufnahme
luftbild
luftbilder
luftbuid
lufthansa
luftlinie
luftogriff
luftwaffe
lug
lugano
luhe
lui
luigi
luis
luisa
luise
luisenburg
luitpold
luka
lukas
luke
lulu
lump
lumpacivagabundus
lumpazivagabundus
luna
lunar
lund
lune
lung
lungan
lungapest
lungau
lungen
luo
luse
lusern
luserna
lust
lustig
lustige
lustspiel
luth
luther
lutheran
lutherischa
lutherische
lutherischen
lutherischn
lutsch
lutz
lux
luxemburg
luxemburgs
luxnbuag
luxnbuagisch
luxnbuagischn
luxus
luzern
luzifer
lv
lwa
lwiw
ly
lydia
lyga
lynch
lynn
lynyrd
lyon
lyons
lyrics
lyrik
lyrika
lz
lzb
lzer
lzl
m
ma
maana
maant
maar
maarten
maas
maasta
mac
macao
macau
macbeth
macdonald
macedonia
macerata
mach
macha
machan
machd
machen
machine
machines
machn
macht
machte
machtergreifung
machti
machtige
machtign
mack
macke
macmillan
macon
mad
madagascar
madagaskar
madame
madda
made
madeira
madeleine
mader
madera
madison
madl
madln
madonna
madre
madrid
mae
mafia
mag
magazin
magazine
magda
magdalena
magdebuag
magdeburg
magellan
maggiore
maghreb
magic
magie
magier
magische
magistrat
magna
magnet
magnetfo
magnetic
magnetische
magnetischn
magneto
magnolia
magnus
maha
mahayana
mahler
mahlers
mai
maibaam
maier
mail
mailand
main
mainaschaff
mainbruckn
maine
mainfrankn
mainleus
mainseitn
mainstream
maintoi
mainz
mainza
mainzer
maipo
mairie
mais
maisach
maisdns
maison
maistn
maistns
maj
maja
majesta
major
majuskel
make
makedonien
making
makkaba
mal
mala
malawi
malawisee
malaysia
malcolm
male
maler
malerei
mali
malik
mallersdorf
mallorca
malmesbury
malmo
malo
malta
malte
malvern
malwuaff
malwuaffal
maly
mama
mammadarf
man
mana
managa
managan
management
manager
manantiales
mancha
manchane
manche
manchester
manching
manchmal
manchmoi
manchn
manda
mandal
mandarin
mandat
mandate
manderl
mandl
mandln
manesse
manfred
mang
manga
mange
mangfall
mangmoi
manguera
manhattan
mani
manifest
manitoba
manitu
mann
manna
manndal
manner
mannheim
mannschaft
mannschaftn
manor
mans
mansfield
mant
mantua
manuel
manufacture
manufacturing
manung
manuscript
manuskript
manuskripte
manx
many
manz
mao
map
maple
maps
mapuche
maputo
mar
mara
marais
maran
marathon
marble
marbod
marburg
marc
marcel
marcello
marcellus
march
marcha
marche
marco
marcos
marcus
mare
marek
marga
margaret
margareta
margarete
margareten
margaretha
margarethe
margarethen
margarette
margarita
margilan
margit
margot
margret
marguerite
mari
maria
mariae
mariahu
marianne
mariazo
maribo
maribor
marie
marien
marienberg
marienbrunn
marienbrunna
marienplatz
marienplotz
mariensa
mariestad
marihuana
marilyn
marin
marina
marine
marino
mario
marion
maritime
marius
marjorie
mark
markant
markante
markantn
markatalsbygd
marke
marken
markenname
market
marketing
markgra
markgraf
markgrafn
markiad
markian
markiat
markn
marknzeichn
marko
markomanen
markomannen
marks
markt
marktbreit
marktes
marktgemeinde
marktheidenfeld
marktl
marktleugast
marktleuthen
marktplatz
marktrecht
marktredwitz
marktsteft
markus
marlene
marley
marloffstein
marmor
marne
maroc
marokkanischn
marokko
maron
marquartstoa
marquette
marquis
marrakesch
mars
marsch
marschall
marschlied
marseillaise
marseille
marsh
marshall
martell
martha
marti
martial
martin
martina
martinez
martini
martino
martins
martinsheim
martinsried
marty
maru
marx
marxheim
marxism
marxismus
mary
maryland
marys
mas
maschiin
maschin
maschina
maschinan
maschine
maschinen
maschinenbau
maseru
masirisch
masirische
masirischn
mask
maske
masken
maskn
maskulin
maskulina
maskulinum
mason
masowien
mass
massa
massachusetts
massaka
massaker
masse
massif
massig
massimo
massing
massiv
massive
massivn
massn
masson
masta
master
masters
mat
mataojo
match
matches
matching
mater
materia
materiai
material
materialien
materials
materie
materielle
mathbb
mathcal
mathematics
mathematik
mathematika
mathematiker
mathematisch
mathematische
mathematischn
mathias
mathieu
mathilde
mathrm
matisse
mato
matrei
matrikel
matrix
matsuo
matt
matteo
mattersburg
mattha
matthew
matthews
matthias
matura
matzing
matzleinsdorf
matzleinsduafa
mau
maua
mauan
maud
mauer
mauern
maule
maument
maumente
maumentn
maumentnlinian
maun
mauna
maunche
maunchmoi
maunchn
maunge
maura
mauren
maurer
mauretanien
maurice
mauritius
maurizio
mauro
maurus
maus
mausoleum
maut
mautern
mautner
max
maxgloan
maxgloana
maxi
maximal
maximale
maximilian
maximilians
maximoi
maximoin
maximole
maximum
maximus
maxl
maxtla
maxvorstadt
maxvorstod
maxwell
may
maya
mayalaund
mayall
mayaschtod
mayenne
mayer
mayfield
maynard
mayo
mayor
mayotte
mayr
mazda
mazedonien
mazeid
mazurka
maß
maßbach
maße
maßeinheit
maßnahma
maßstab
mb
mba
mbh
mbris
mc
mca
mcdonald
mcdowell
mcgraw
mcintosh
mckenzie
mcmahon
mcova
mcove
mcpherson
md
mdb
mdl
mdma
mdr
me
mea
meachn
meada
meade
meadow
meadows
meafoch
meafochkantn
meagle
meaglich
meah
meaheit
meahfoch
meahheit
meahr
meahra
meahran
meahrane
meahrare
meakmoi
meakt
meamois
mean
means
mear
meara
mearan
mearane
mearare
mearda
meastn
meaz
meazoi
mec
mecca
mechad
mechanik
mechanisch
mechanische
mechat
mechenhard
mecht
mechtat
mecklenbuag
mecklenburg
med
meda
medaille
medal
medda
media
mediathek
medical
medici
medicine
medien
medieval
medikament
medina
medio
meditation
medium
medizin
medizina
mediziner
medizinisch
medizinische
medizinischn
medizinmo
medizintechnik
meea
meearesspiagl
meer
meere
meeresspiagl
meeter
mega
megadeth
megle
megli
meglich
meglichaweis
megliche
meglichkeit
meglichkeitn
meglichn
meglichst
megligawoas
meglikeitn
megn
mehlspeise
mehr
mehra
mehran
mehrane
mehrare
mehre
mehrere
mehreren
mehrfach
mehrheit
mehrheitlich
mehrmois
mei
meidenbauer
meidling
meier
meigs
meiln
mein
meine
meinem
meinen
meiner
meines
meiningen
meinung
meischtns
meisd
meisdn
meisdns
meisl
meisner
meist
meiste
meisten
meistens
meister
meistn
meistns
meißen
mej
meja
mejara
mejdn
mejerer
mejnra
mejra
mejran
mejrann
mel
melancholie
melanochromis
melbourne
melchior
meldung
melilla
melk
mellrichstadt
melodie
melodien
melrose
melton
melville
mem
memmelsdorf
memmingen
memminger
memmingerberg
memoiren
memorial
memory
memphis
men
mench
mende
mendocino
mendoza
mendrisio
meng
mengan
menge
mengen
mensch
menschen
menschenopfer
menschenrechte
menschheid
menschheit
menschlicha
menschliche
menschlichen
menschlichn
menschlichs
menschn
menschnopfa
mensengesa
mensur
menu
menuet
menuetto
mer
mera
meran
merane
merare
mercedes
mercer
merchna
mercury
mercy
mergentheim
merian
meridian
mering
merkel
merkendorf
merkle
merkmoi
merkt
merkur
merlin
merz
mes
mesa
meso
mesoamerica
mesoamerika
mesopotamien
mespelbrunn
mess
messa
message
messe
messenger
messina
messn
messner
messung
mesto
met
meta
metal
metall
metallic
metallica
metamorphosen
metamorphosn
metan
metaphysik
meteora
meteorologie
meter
metern
method
methode
methoden
methodik
methodist
methodn
metod
metoi
metoie
metrik
metrisch
metro
metropoiregion
metropole
metropolitan
metropolitana
metropolitansitz
metropolitanstadt
metropolitanstod
metropoln
metropolregion
metternich
mettn
metz
metzga
metzger
metzler
meum
meurthe
meuse
mexi
mexica
mexico
mexikanische
mexikanischn
mexiko
meyer
meyerbeer
meyers
mez
mezi
mezo
mf
mfe
mg
mh
mhairi
mhd
mhz
mi
mia
miah
miami
miarz
miaschboch
miasn
miass
miassad
miassat
miassen
miassn
miaßn
mic
mica
mich
michael
michaela
michaels
michail
michailowitsch
michal
miche
micheal
michel
michelangelo
michelau
michelbach
michele
michelle
michelrieth
michelsberg
michigan
michl
michldorf
mick
mickey
mickhausen
mico
microsoft
mid
midanand
midananda
midanaund
midanaunda
midde
middl
middlamerika
middlan
middlara
middlare
middlawei
middlboarisch
middlboarischn
middle
middleiropa
middlesex
middletown
middlfra
middlfrankn
middlgebiag
middlhochdeitsch
middlhochdeitschn
middlmeea
middloida
middloita
middloitaliche
middloitalichn
middlpunkt
middls
middn
midglied
midglieda
midgmocht
midgnumma
midgwiakt
midi
midland
midlands
midm
midn
midnight
midrana
midsomt
midtown
midunta
midway
mie
mied
miesbach
migga
migration
miguel
mihi
mike
mikro
mikronesien
mil
milan
milanese
milano
milch
mile
miles
milford
milida
milidea
milita
military
militea
milje
miljonen
milk
mill
mille
millennium
miller
milli
milliarden
milliardn
millim
millimeta
million
milliona
millionan
millionen
millionenstadt
mills
milo
milos
miloslav
miltenberg
milton
mim
min
mina
minas
mind
mindaheit
mindaheitn
mindaheitnschbroch
mindaheitnsprochn
mindastens
mindastns
mindd
mindelheim
minden
minderheit
mindesdns
mindest
mindestens
mindestns
mindn
mindt
mindta
mindung
mine
mineral
mineralogie
minerva
ming
minga
mingaa
mingana
mingara
mingardo
mingna
minh
mini
miniatur
minigoif
minista
ministapra
ministapresident
minister
ministerium
ministerpra
ministerpresident
ministry
minneapolis
minnesota
minor
minori
minschda
minsta
minuet
minus
minuskel
minuten
minutn
minzn
mio
mir
mira
miranda
mirjam
mirko
miroslav
mirror
mis
misch
mischa
mische
mischen
misches
mischmasch
mischn
mischt
mischung
mise
miskolc
miss
missa
missen
mission
missionar
missionare
missisippi
mississippi
missn
missouri
misst
mist
mistelbach
mit
mitanand
mitananda
mitanaund
mitarbata
mitarbeit
mitarbeiter
mitchell
miteinanda
mitgliad
mitgliada
mitglid
mitglied
mitglieda
mitgliedan
mitglieder
mitgliedsgmoana
mitgliedsstootn
mitgliedstaat
mitgmocht
mitgnumma
mitgspuit
mithologie
mithridates
mitlhochdeitsch
mitloita
mitm
mitn
mitoabata
mitoabeita
mitorbata
mitsamt
mitt
mittanocht
mittasu
mittawoid
mitte
mitteilungen
mittel
mittelalter
mittelalterlichen
mittelalters
mittelamerika
mittelbach
mittelbayerische
mitteleuropa
mittelfranken
mittelstreu
mitten
mittenwald
mitterberg
mitterer
mitterfels
mittl
mittlamerika
mittlan
mittlara
mittlare
mittlaweil
mittlaweile
mittlboarisch
mittlboarischn
mittlern
mittlerweile
mittleuropa
mittlgebirg
mittlnidadeitsch
mittlnidadeitschn
mittloita
mittloitaliche
mittlpunkt
mittls
mittlschui
mittlzentrum
mittn
mittwoch
mitwitz
mix
mixed
mixtape
mixtekn
mizzi
mk
ml
mle
mli
mlich
mliche
mlige
mm
mma
mmat
mme
mmen
mmer
mmerler
mmerung
mmi
mmung
mn
mo
moa
moabogn
moachfo
moad
moak
moakt
moaktgmoa
moaktgmoana
moaktplotz
moaktrecht
moan
moana
moanan
moand
moanigung
moant
moanung
moar
moard
moarkt
moasa
moasd
moasdns
moast
moasta
moastaschaft
moastaschoft
moastaschoftn
moastatitl
moastaweak
moaster
moastn
moastns
mobil
mobile
mobilita
mobu
moc
moch
mocha
mochan
mochd
mochn
mochst
mocht
mochts
mod
modariat
mode
modean
modeana
modeanan
modeane
modeans
modej
model
modell
modelle
modena
moderato
moderator
moderatorin
moderiat
modern
moderna
modernan
moderne
modernen
moderner
modernes
moderns
modi
modo
modus
mog
mohamed
mohammad
mohammed
mohawk
mohl
mohr
moi
moidl
moin
moines
moint
moire
mois
mokka
mol
mola
molan
molarei
molarin
mold
moldau
moldawien
molden
mole
molecular
moleku
molekui
molie
molina
molino
molise
moll
molles
moloch
moltke
molto
moment
momentan
mon
mona
monaco
monad
monarch
monarchie
monarchn
monat
monate
monatn
monche
monchmoi
mond
monda
monde
mondgeddin
mondog
mondpyramidn
mondsee
money
mongabay
mongoin
mongolei
mongolische
mongolischn
mongoln
monheim
monica
monika
monna
mono
monographie
monographien
monolog
monroe
monrovia
mons
monsieur
monster
mont
montag
montage
montague
montan
montana
montbrison
monte
montenegro
monterey
montesquieu
montessori
montevideo
montez
montezuma
montgelas
montgomery
monthly
monti
monticello
montpellier
montre
montreal
montreux
montrose
montsoreau
montt
monument
monuments
monza
moon
moor
moore
moos
moosach
moosburg
moose
moosham
moosleitner
mor
mora
moral
morales
moralische
morbihan
morbio
mord
more
moreau
moreno
morgan
morgen
morgenstern
morges
morgn
moritz
morkt
morktgmoa
mormonen
morning
moro
moroder
morphologie
morra
morris
morrison
morrow
morsbach
mortal
morton
morty
mos
mosaik
mosambik
mosbach
mosch
moschee
moschoft
moscow
mose
mosel
moselle
moser
moses
moshammer
moskau
mosl
moslems
mosque
moss
most
mostviadl
motet
mother
motif
motilal
motion
motiv
motive
moto
motoa
motor
motorola
motors
motorsport
motte
mottn
motto
motu
mou
moulin
mound
mounds
mount
mountain
mountains
mouton
moutta
mov
movement
movements
moves
movie
movl
moyen
mozambique
mozart
mozarteum
mozarts
mozilla
moß
mp
mpeg
mpel
mpf
mpfa
mpfe
mpfer
mpfn
mpft
mpfung
mpi
mq
mr
mrd
mrs
ms
msg
msp
mt
mta
mter
mtlich
mtliche
mtn
mtv
mu
mua
muada
muadabualis
muadageddin
muadasproch
muadasprochla
muadda
muas
muass
muassd
muasst
muast
muater
muaß
muaßt
much
muddy
mueller
muenchen
mugabe
muhammad
muhr
mui
muiboch
muich
muichstrossn
muih
muihausn
muihdorf
muin
muitiplizian
mulberry
multi
multimedia
mumbai
mun
munchen
mund
mundart
mundarten
mundi
mundl
mundo
mundoart
mundoat
mundoatdichta
mundoatn
mung
munich
munici
municipal
municipalities
municipality
municipio
municipios
municipium
munster
mur
murau
mures
muret
murnau
murnberger
murphy
murr
murray
murtal
mus
musa
muschln
musculus
muse
museen
museo
museu
museum
museums
musi
music
musica
musical
musicale
musicians
musig
musigruppm
musik
musika
musikakademie
musikalisch
musikalische
musikalischn
musikant
musikanten
musikantn
musiker
musikgenre
musikgeschichte
musikinstrument
musikpa
musiksammlung
musikschui
musikvatrib
musikvideos
musique
musischui
musivideo
musk
muskln
muskogee
muslim
muslime
muslimischn
musn
muspilli
muss
must
musta
mustafa
mustaine
mut
mutter
muttersprache
mutzenbacher
muz
muzej
muzeum
muztagh
muß
mußt
mvv
mw
mx
my
myanmar
myers
mykolajiw
myra
myself
myspace
mysterio
mystery
mystic
myth
mythen
mythn
mythologie
mythologisches
mythology
mythos
mz
møre
n
na
naa
naab
nabburg
nach
nacha
nachad
nachan
nachand
nachbargmoana
nachbarn
nachbarschaft
nachdem
nachdruck
nachernd
nachfoiga
nachfolger
nachlass
nachm
nachn
nachricht
nachrichten
nachruf
nachstn
nacht
nachtigall
nachtra
nachts
nachwort
nacional
nad
nadine
nagel
nagerl
nagl
nah
naha
nahe
nahezu
nahezua
nahn
nahua
nahuatl
nahvakea
nai
naie
naimakk
nakamura
nakladatelstvi
nam
nama
naman
namasgeba
namatle
name
namen
namens
namensgeber
names
namibia
namur
nan
nana
nanama
nancy
nanjing
nanni
nanny
nano
nanotechnologie
nantes
naples
napole
napoleon
napoleonischen
napoleonischn
napoli
naranjo
narr
narrisch
nas
nasa
nasal
nase
nash
nashville
nassach
nassau
nat
nathan
natiale
natiali
natialich
natialicha
natialiche
natialichn
nation
nationa
national
nationalbibliothek
nationale
nationalen
nationales
nationalfeiadag
nationalfeiadog
nationalhymne
nationalita
nationalmannschaft
nationalmuseum
nationaln
nationalpaak
nationalpark
nationalparks
nationalsozialismus
nationalsozialistische
nationalsozialistischen
nationalsozialistischn
nationalsozialistn
nationen
nationoie
nationoin
nationoipark
nations
natirle
natirlich
native
nato
natt
natu
natua
natuadenkmoi
natuapark
natuaschutz
natuaschutzgebiet
natuawissnschoft
natuawissnschoftlichn
natuawissnschoftn
natur
natura
natural
naturdenkma
nature
naturpark
naturschutz
naturschutzgebiet
naturwissenschaft
naturwissenschaftlich
nau
nauf
naum
nauman
naumen
naunnt
nauru
naus
nautschnyj
navajo
naval
navarra
navarro
navigation
navy
naxte
naxtn
nazaret
nazca
nazi
nazion
naziona
nazionale
nazionaln
nazis
nb
nbach
nbeag
nberg
nboa
nborn
nbronn
nbrunn
nbu
nburg
nbusch
nc
nch
nchberg
nche
nchen
nchener
nchengladbach
nchens
nchenverlag
nchez
nchhof
nchn
nchna
nchner
nchsroth
nchsteinach
ncia
ncipe
nd
nda
ndad
ndaeck
ndaeckn
ndan
ndart
ndarung
ndarunga
ndarungan
ndarungen
ndat
ndatn
nde
ndel
nden
nder
ndercodes
ndere
nderinformationen
ndern
nders
ndert
nderte
nderung
nderunga
nderungen
ndet
ndete
ndetn
ndez
ndi
ndich
ndiche
ndicht
ndig
ndiga
ndige
ndigen
ndiger
ndiges
ndigkeit
ndign
ndigs
ndigt
ndigung
nding
ndisch
ndischa
ndische
ndischen
ndischer
ndisches
ndischn
ndl
ndla
ndle
ndler
ndli
ndlich
ndliche
ndlichn
ndn
ndnis
ndnisse
ndoaf
ndr
ndre
ndt
ndte
ndtn
ndung
ne
nea
neadle
neadli
neadlich
neadlicha
neadliche
neadlichen
neadlichn
neadlichste
neadlinga
neal
neama
neamd
neamma
neamt
neandatola
neandertaler
neapel
near
neb
neba
nebaeinanda
nebe
nebel
neben
nebm
nebman
nebmfoahtn
nebn
nebnfluss
nebra
nebraska
nebst
nech
nechn
nechnt
nechste
neck
neckar
ned
neda
nedamoi
nedig
needmore
neem
neff
neffe
negatiav
negativ
negative
negativn
negev
negro
negsdn
negstn
nehma
nehman
nehmen
nei
neia
neiadings
neian
neiare
neiauflog
neiausgob
neibau
neibautn
neiburg
neich
neicha
neichare
neiche
neichn
neichs
neie
neien
neier
neies
neigliedarung
neigotische
neigotischn
neigung
neihaus
neijoar
neil
neill
neimorkt
nein
neine
neinte
neioadnung
neiordnung
neiron
neironen
neis
neisa
neiseeland
neisiedl
neisiedla
neista
neistift
neistod
neistodt
neitor
neizeid
neizeit
neiße
nej
nejdn
nejedly
nek
nektar
nel
nelke
nelson
nem
nema
neman
nemann
nemark
nembei
nemfliss
nemfluss
nemle
nemli
nemlich
nemma
nemo
nen
nenbach
nend
nenna
nennan
nennansweate
nennd
nennt
nennung
nennwert
neo
neologismen
neon
nepal
nepali
nepomuk
neptun
ner
nerdli
nerdlich
nerdlichen
nerdlichn
nern
nero
neruda
nes
ness
nest
nestroy
nestroys
nesvi
net
neta
netta
nette
netter
netto
network
netz
netzkultur
netzseitn
netzweak
netzweakn
netzwerk
netzwerke
neu
neuauflage
neuausgabe
neubau
neubauer
neuburg
neuch
neuche
neudorf
neue
neuen
neuenburg
neuer
neues
neueste
neufahrn
neufcha
neuguinea
neuhaus
neuhausen
neuhof
neuhofen
neuhu
neukirchen
neumann
neumarkt
neumayer
neumeister
neumu
neun
neunburg
neuner
neunkirchen
neunter
neuseeland
neuses
neusiedl
neusiedler
neusta
neustadt
neustift
neustod
neutra
neutral
neutrum
neuwied
neuwirth
neuzeit
nevada
neve
never
nevis
new
newa
newark
newcastle
newman
newport
news
newsletter
newspaper
newspapers
newton
nexdn
next
nexte
nextn
nez
nezahualcoyotl
nezval
nf
nfa
nfeld
nfois
nfte
nftig
nftn
nfzehn
nfzig
ng
nga
ngan
ngane
ngare
ngarin
ngarung
ngat
ngau
ngazone
ngd
nge
ngel
ngen
nger
ngere
ngerin
ngert
ngerzone
ngg
ngi
ngig
ngiga
ngige
ngigkeit
ngigkeitn
ngigkeitsdog
ngign
ngka
ngl
ngle
ngli
nglich
ngliche
nglichn
ngn
ngnis
ngo
ngs
ngst
ngste
ngsten
ngstn
ngt
ngung
nguye
nh
nha
nheit
ni
nia
niad
niada
niadaboarischn
niadaestareich
niadahaus
niadalog
niadaoida
niadaschlog
niadriga
niagara
niambeag
niamberg
niamberga
niamois
niat
nibelungen
nica
nicaragua
niccolo
nice
nicholas
nicht
nichte
nichts
nick
nickel
nicki
nico
nicobar
nicoiai
nicola
nicolai
nicolas
nicolaus
nicole
nid
nidadeitsch
nidadeitschn
nidaestareich
nidalandn
nidalendisch
nidalog
nidalossn
nidao
nidasaksisch
nidasaksischa
nidasaksischn
nie
nied
nieda
niedabaiern
niedabayerischn
niedabayern
niedaboarischn
niedabrennt
niedaestareich
niedaglossn
niedahaus
niedala
niedalande
niedalog
niedao
niedaoida
niedasachsn
niedasaggsn
niedaschla
niedaschlesien
niedaschlog
nieder
niederaltaich
niederbayerisch
niederbayern
niederla
niederlande
niederlauer
niedero
niederoberbach
niedersa
niedersachsen
niederschlesien
niedersteinbach
niedrige
niedrign
niedrigsde
niedrigste
niels
niemand
niemeyer
nien
nietzsche
nieuw
nig
niga
nige
nigel
niger
nigeria
nigheim
night
nigin
niglich
nigliche
nigra
nigreich
nigreichs
nigs
nigsberg
nigsfeld
nigshausen
nigshofen
nigssee
nigstein
niihau
nik
niki
niklas
niklaus
nikola
nikolai
nikolajewitsch
nikolaus
nikosia
niks
nil
nils
nilsson
nima
nimm
nimma
nimmd
nimmer
nimmp
nimmr
nimmst
nimmt
nimmts
nin
nina
nine
ning
ningh
nino
nintendo
nio
niort
nirvana
nis
nisch
nischa
nische
nischen
nischn
nishida
nisi
nit
nita
nittenau
niveau
nix
nixe
nixon
nizza
nj
njpw
nk
nka
nke
nki
nkisch
nkischa
nkische
nkischen
nkischer
nkisches
nkischn
nkling
nkn
nksberg
nkt
nkte
nktn
nkung
nkunga
nl
nla
nland
nle
nlich
nliche
nlichkeit
nlichkeiten
nlichkeitn
nlichkeitsstearung
nlichkeitsstearunga
nm
nmorsbach
nn
nna
nnan
nne
nnen
nner
nnerchor
nnerstadt
nnlich
nnliche
nnlichn
nnt
nnte
nntn
no
noa
noad
noadafrika
noadamerika
noadamerikanische
noadamerikanischn
noadbauhn
noadboarisch
noadboarische
noadboarischn
noadeiropa
noadestle
noadestli
noadestlichn
noadgstod
noadirland
noadischn
noaditalien
noaditalienische
noadkorea
noadn
noadnoadwestli
noadost
noadostitalienische
noadostn
noadoustn
noadrhein
noadsa
noadsee
noadseitn
noadufa
noadwest
noadwestli
noadwestlicha
noadwestliche
noadwestlichn
noadwestn
noah
noam
noama
noamal
noamalaweis
noamale
noamaln
noamoi
nobel
nobelpreis
nobelpreisdra
nobelpreistra
noble
noc
noch
nocha
nochad
nochan
nochand
nochbagmoa
nochbagmoana
nochban
nochbargemarkunga
nochbargmoana
nochbau
nochboacountys
nochboadekanate
nochboadiezesn
nochboagemarkunga
nochboagmoa
nochboagmoana
nochboagmoaschoftm
nochboagmoaschoftn
nochboakroas
nochboalandkroas
nochboan
nochboaorte
nochboaraim
nochboaregiona
nochboaschoft
nochboaseejsorgeihheitn
nochd
nochdem
nochdems
nochdenga
noche
nochfoig
nochfoiga
nochfoige
nochfrog
nochfuiga
nochgfoigt
nochgsogt
nochgwiesn
nochhea
nochhoizeit
nochkriagszeit
nochm
nochn
nochricht
nochrichtn
nochruaf
nocht
nochta
nochtra
nochweis
nochweisboa
nochweisn
nockherberg
nodlbaam
nodln
nodlwoid
noe
noel
nofemba
nogent
nogl
noh
nohe
nohezua
nohn
nohvakea
nohvakeah
noi
noir
nola
nolan
nom
noma
nomal
noman
nomans
nomansgemdn
nomantli
nome
nomen
nomene
nomens
nomina
nominativ
nominiad
nominiarung
nominierung
nomma
nomoi
non
none
nonn
nonnberg
nonntoi
nooch
noorden
nora
norbert
nord
nordafrika
nordamerika
nordamerikanischn
nordbayern
nordboarisch
nordboarischn
norddeitschland
nordeastle
norden
nordenflycht
norderstedt
nordestli
nordfjord
nordheim
nordic
nordirland
nordische
nordischen
nordkorea
nordland
nordn
nordo
nordost
nordosten
nordostn
nordrhein
nordsee
nordseitn
nordtirol
nordwest
nordwesten
nordwestle
nordwestli
nordwestlich
nordwestliche
nordwestn
norfolk
norica
noricorum
noricum
norm
norma
normal
normalaweis
normale
normalerweis
normaln
norman
normandie
normen
norn
norris
norske
norte
north
northampton
northeast
northeim
northern
northfield
northumberland
northumbria
northwest
norton
norway
norwegen
norwegisch
norwegischa
norwegische
norwegischn
norwegn
norwegns
norwood
nos
nosn
noss
nost
nostra
not
notar
note
notebook
notes
notgeld
notgo
nothing
nothofagus
notiat
notiert
notitia
notiz
notizen
notker
notn
noto
notoc
notre
notwendi
notwendich
notwendig
notwendige
nou
nouch
noun
nouvelle
nov
nova
novara
novazzano
nove
noveijn
novel
novelle
novellen
novelln
novemba
november
novi
noviny
novo
novotna
novy
now
nowa
nowelln
nowgorod
nowosibirsk
np
nr
nra
nre
nrhp
nrw
ns
nsa
nsanduaf
nsbach
nsch
nscht
nschtn
nsdap
nsee
nserndorf
nsfeld
nsg
nsing
nso
nst
nsta
nste
nsten
nster
nstig
nstign
nstla
nstler
nstlerische
nstliche
nt
nta
nte
nter
ntgen
nthal
nther
ntn
ntrum
ntsch
nu
nua
nuadlign
nuadn
nuamea
nuamoi
nuar
nuclear
nueces
nuevo
nufemma
nuh
nui
nuie
null
nulth
numa
number
numbers
numeri
numerischn
numerus
numidien
numma
numman
nummariarung
nummer
nun
nunavut
nunc
nuneaton
nung
nunzinger
nuovo
nur
nus
nusa
nussdorf
nussn
nutrias
nuts
nutza
nutzan
nutzd
nutzen
nutzn
nutzpflanze
nutzt
nutzung
nuu
nuvemma
nuwas
nußdorf
nva
nw
nwa
nwald
nwossaleitung
ny
nya
nye
nyi
nymphe
nymphenburg
nymphenburger
nynorsk
nyon
nz
nza
nzarin
nzburg
nze
nzen
nzer
nzing
nzkira
nzn
nzpra
nzt
nzung
nzz
nørre
o
oa
oabat
oabatgeba
oabatn
oabatsoat
oabeka
oabling
oach
oacha
oachkatzl
oachl
oadandli
oadeitig
oadn
oadnung
oadnungsnumma
oadung
oafa
oafach
oafacha
oafache
oafachn
oafo
oafoch
oafocha
oafoche
oafochn
oafochs
oag
oagane
oaganisation
oaganisiad
oaginal
oaginaldext
oagl
oagna
oagnan
oagne
oagnen
oagnschoft
oaheit
oaing
oak
oakannt
oakannte
oakdale
oakland
oakley
oaks
oakwood
oaling
oam
oama
oame
oamoi
oan
oana
oanaseits
oane
oaner
oanige
oanign
oaning
oans
oansa
oansberg
oanzalna
oanzalnan
oanzalne
oanzelne
oanzig
oanziga
oanzige
oanzign
oanzigs
oanzing
oanzl
oanzlhandl
oanzlkroft
oanzln
oanzlna
oanzlnan
oanzlne
oanzlnen
oanzlpforrei
oanzlt
oar
oara
oarm
oart
oarten
oartn
oarzt
oas
oasch
oasn
oastahoafa
oat
oate
oatn
oatschaft
oatschoft
oatschoftn
oatskapo
oatsnama
oatstei
oatsteil
oatsteile
oawad
oawadn
oawat
oawata
oawatn
oaxaca
oazt
ob
oba
obaammagau
obabayerischn
obabayern
obaboarischn
obabuagamoasta
obabuargamoasta
obacht
obadeitschn
obafla
obafra
obafranken
obafrankn
obahausn
obahoib
obaitalien
obalaff
obaland
obalauf
obama
oban
obao
obapfa
obapfoiz
obar
obara
obaraa
obare
obas
obaschdoarf
obasoijzbeag
obastaffa
obaste
obau
obaud
obaut
obazentren
obazentrum
obb
obbau
obbaut
obbrocha
obbuidung
obe
obelix
oben
ober
oberafferbach
oberallga
oberammergau
oberamt
oberaurach
oberbayerisch
oberbayern
oberbergkirchen
oberbessenbach
oberbu
oberdeutsche
oberdorf
obere
oberelsbach
oberen
oberer
obereuerheim
oberfla
oberfranken
oberhausen
oberhembach
oberlaa
oberland
oberleichtersbach
oberliga
obermaier
obermayr
obermichelbach
obermu
obern
obernburg
oberndorf
obero
oberoesterreich
oberpfa
oberpfalz
oberpullendorf
oberscho
oberschwaben
obersinn
oberst
oberstdorf
oberstleutnant
oberstreu
obersulzbach
oberviechtach
oberwart
oberwittbach
obfa
obfluss
obfoart
obfoi
obgem
obghoidn
obghoitn
obglegt
obglehnt
obgleidd
obgleit
obgleitd
obgleitet
obglest
obgnumma
obgrenzt
obgrenzung
obgrissn
obgruafa
obgruafn
obgschlossn
obgschofft
obgseng
obgsetzt
obha
obi
obindung
obing
obispo
obj
object
objects
objekt
objekte
objektiv
objektive
objektivn
objektn
obkiazt
obkiazung
oblast
oblega
oblehnung
obleit
obm
obmau
obn
obnd
obnohme
oboe
obotn
obr
obra
obrazy
obrennd
obrennt
obrigkeit
obril
obrocha
obrocht
obruaf
obs
obschluss
obschnitt
obschnitte
obschoffung
obschrift
obsd
obseits
observatoire
observatorio
observatorium
observatory
obsetzung
obsicht
obsidian
obsolute
obspoitung
obst
obsta
obstammung
obstand
obstaund
obstieg
obstimmung
obstla
obstommung
obstond
obt
obteilung
obtretn
obu
obundn
obweichunga
obwohl
obwoi
obwoih
obwois
obwossa
obzug
ocean
och
ochn
ochs
ochsenfurt
ocht
ochte
ochtn
ockabau
ockham
oclc
octave
octavian
october
od
oda
odar
odara
odaraa
ode
odense
odenwald
odeon
oder
odessa
odilo
odin
odl
odla
odlige
odlign
odlkofa
odlshofa
odnet
odo
odoaker
odon
odr
odyssee
odysseus
oe
oecd
oed
oerkennung
oes
oesterreich
oettingen
of
ofa
ofang
ofanga
ofangend
ofangs
ofangt
ofd
ofen
off
offa
offan
offana
offanan
offane
offans
offenbach
offene
offenen
offenhausen
offezjell
office
officer
official
offizia
offiziare
offiziej
offizieja
offizieje
offiziejn
offiziell
offiziella
offizielle
offiziellen
offizieller
offizielln
offizier
offiziere
offizio
offn
offna
offnbacha
offset
ofiahra
ofiara
ofiziel
ofiziele
ofn
ofong
ofongend
ofongnd
ofongs
oft
oftmois
og
ogden
ogebli
ogebm
ogebn
ogebot
ogem
ogfanga
ogfangd
ogfangt
ogfiaht
ogfiat
ogfonga
ogfongd
ogfongt
oghead
oghearige
ogheat
oglegt
oglehnt
oglest
oglio
ognomma
ognumma
ogob
ogobm
ogobn
ogom
ogooue
ogreifa
ogrenzndn
ogriff
ogriffa
ogrissn
ogruafa
ogschlossn
ogschpu
ogsegn
ogseng
ogsetzt
ogsezt
ogsiedld
ogsiedlt
ogsprocha
ogstieng
ogsting
ogwendt
oh
oha
ohb
ohe
ohenga
ohfoaht
ohg
ohha
ohio
ohku
ohm
ohn
ohne
ohren
ohrn
ohschnitt
ohstaund
ohstoßn
oi
oia
oib
oibanien
oibm
oibn
oibrecht
oibum
oiching
oid
oida
oidach
oidamerikanische
oidbayern
oidboarisch
oidboarische
oidboarischn
oide
oiden
oidenmorkt
oidgriachisch
oidgriachischn
oidhochdeitsch
oidhochdeitschn
oidkroas
oidmui
oidn
oidnordisch
oidnordischn
oidog
oids
oidstod
oidweibasumma
oidwossa
oie
oiem
oierdings
oigemein
oigemeine
oigmoa
oigmoana
oigmoanan
oigmoane
oigmoans
oiing
oijm
oijs
oijwei
oikohoi
oil
oim
oima
oimekn
oin
oina
oinn
oins
oiphabet
oipina
oipine
oipinen
oipm
oipn
ois
oisa
oisamd
oisdann
oise
oiso
oiss
oita
oitadum
oitanative
oite
oitn
oitoa
oitor
oiumni
oiwa
oiwai
oiwei
oiweu
oiz
oj
ojibwe
ojs
ok
okinawa
okindigt
oklahoma
okres
okt
oktav
oktoba
oktobafest
oktober
oktoberfest
oktowa
oktower
oku
okzitanien
okzitanisch
ol
ola
olaf
olang
olaut
olav
olbrich
old
oldenbourg
oldenburg
older
oldham
ole
olehnung
oleng
olga
olive
oliver
olivia
olivier
oll
olla
ollading
olladings
ollaheilign
ollas
ollawa
ollawei
ollaweu
olle
ollem
ollerdings
olles
olleweu
ollm
olln
ollnfois
olm
olmekn
olms
olmu
olof
olog
ologemu
ologie
ologisch
ologische
ologischen
ologischn
ologn
olomouc
ols
olso
olsztyn
olt
olta
olte
olten
oltn
olympia
olympiapark
olympiasiega
olympic
olympische
olympischen
olympischn
om
oma
omaha
oman
omar
ombrone
omd
omeakung
omeakunga
omed
omega
omerkung
omersbach
omnes
omnibus
omt
omteia
on
ona
onakonnt
onan
onane
onard
ond
onda
ondam
ondan
ondana
ondane
ondara
ondare
ondas
ondere
ondern
ondr
ondre
one
onehma
oneida
onepage
onfang
onfong
onha
onkel
onkl
onla
online
only
ono
onondaga
ons
onsa
onschluss
onschlussstej
ontario
ontei
ontologie
onwesn
onzoi
oo
ooadnung
oobundn
ooch
ooe
ooegeschichte
oofang
oogfanga
ooglegt
oognumma
oogseng
oogsiedlt
oom
ooschaung
op
opa
opan
opasst
opassung
ope
open
opencola
opensocial
openstreetmap
oper
opera
operation
opere
operette
operettn
opern
opernhaus
opernsa
opfa
opfan
opfe
opfer
opladn
oppidum
oppland
opposition
opposizion
ops
optical
optik
optimal
option
optisch
optische
optischn
opus
or
ora
orange
orangerie
oratorium
orbadn
orbat
orbata
orbatn
orbeit
orbis
orchard
orchesta
orchester
orchestra
orchestral
orden
ordens
order
ordinal
ordinariates
ordinariats
ordn
ordnung
ordnungsamtes
ore
oregon
ores
orf
orff
org
organ
organe
organisation
organisationa
organisationen
organisazion
organische
organisiad
organisiat
organisiert
organismen
organist
organization
orgel
orginaltidl
orgl
ori
orient
oriental
orientales
orientalis
orientation
orientiad
orientiat
origena
origin
origina
original
originalausgabe
originale
originaln
originaltext
originaltitel
originoititl
origins
orkney
orlando
orle
orleans
orm
ornbau
orne
oro
orografisch
orscha
ort
orta
orte
ortehttp
orten
ortenburg
ortes
orthodox
orthodoxe
orthodoxn
orthographie
ortn
ortografi
orton
orts
ortsbuid
ortschaft
ortschaften
ortschaftn
ortschoft
ortschoftn
ortsdatenbank
ortsgebiet
ortsgeschichte
ortskean
ortskern
ortsmittn
ortsnam
ortsnama
ortsnamen
ortsnoma
ortsrond
ortssuche
ortstail
ortstei
ortsteibayerische
ortsteihttp
ortsteil
ortsteile
ortsteilen
ortstein
ortstoae
ortstoal
ortstoala
ortsumgehung
ortsverzeichnis
ortszentrum
orwad
orwat
orwatn
os
osa
osage
osaka
osb
oscar
osceola
oscham
oschaun
oschaung
oschauung
oschliaßnd
oschluss
oschlussstej
oschlusssto
oschn
osdn
oseng
osicht
osichtn
osiedlung
oskar
oslo
osmanen
osmanische
osmanischn
osnabru
osorno
ospruch
oss
ossa
osservatorio
ossola
ost
ostafest
ostafrika
ostallga
ostallgai
ostan
ostantarktischn
ostarrichi
ostasien
ostbahn
ostbauhn
ostbayern
ostbreissn
osteiropa
osten
osterbrunnen
osterinsel
ostern
osteuropa
ostfildern
ostfra
ostfrenkischn
ostgoten
ostgotn
ostgrenz
ostgstod
ostheim
ostia
ostieg
ostmark
ostmittelbairisch
ostn
ostoipm
ostoipn
ostrema
ostremischa
ostremischn
ostrom
ostrowski
ostsa
ostsee
ostseitn
ostsidestli
osttei
osttimor
osttirol
ostufa
ostwand
ostweats
osudy
oswald
ot
ota
otago
otei
oteil
other
otis
otnbuag
otnbuaga
otrennt
otretn
ots
otsa
ott
otta
ottakring
ottakringer
ottaviano
ottawa
otter
ottfried
otto
ottobrunn
ottokar
ottoman
ottowa
ou
ouachita
ouen
ouest
oun
our
oustafrika
oustan
oustn
out
outline
ouvertu
ouverture
ov
ova
ovce
over
overbeck
overijssel
overview
ovice
ovid
ow
owa
owabayern
owaboarischn
owaestareich
owafla
owahoib
owan
owandorf
owao
owapfoiz
owar
owara
owaraa
oware
owaschicht
owe
owei
owen
owendung
owendunga
ower
owerpfa
owerpfolz
owesn
owezua
owi
owl
own
ox
oxford
oxforder
oxnfuat
oyrareingir
oz
ozean
ozeane
ozeanien
ozoagt
ozoi
ozoih
ozong
p
pa
paar
paarl
pablo
pac
pacific
packt
pad
paderborn
padua
page
pages
pai
pain
paine
paint
paintings
paiute
pajas
pakistan
pakt
pala
palace
palacky
palais
palas
palast
palatschinkn
palau
palazzo
palenque
palermo
palestine
palestrina
palgrave
palisades
pallas
palm
palma
palmas
palmer
palmyra
palo
palomar
palost
palustris
pam
pamarantschn
pan
pana
panama
panda
pang
panhandle
pankofn
pannonia
pannonien
pannonischn
panola
panonien
panoptikum
panorama
panoramio
pantaleon
pantanosa
panteo
pantheon
panther
panza
panzer
paola
paolo
papa
paper
paperback
papers
papia
papiago
papier
papiere
paprika
papst
papua
par
para
parabel
parabl
parabola
parade
paradies
paradigma
paradise
paradiso
paradox
paraguay
parallej
parallel
parallele
paralleln
parallo
paramount
parana
parc
parchim
parco
parinacota
paris
parisa
pariser
parish
parishes
park
parkanlage
parker
parkhaus
parkpla
parks
parlament
parlamentarische
parma
parodi
parodie
parodien
paroles
part
partakurch
partei
parteien
parteifreie
partein
partement
partements
partenkirchen
partenstein
partetua
partha
partial
partido
partie
partikl
partita
partition
partiyası
partizip
partna
partnagmoa
partnaschoft
partnaschoftn
partnasta
partnastod
partner
partnerschaft
partnersta
parts
partschins
party
pas
pasadena
pascal
pascha
paschtunischn
pasing
paso
pass
passage
passagen
passaschiaschiff
passau
passauer
passeier
passeiertal
passendale
passiad
passian
passiat
passiert
passion
passiv
passive
passn
passt
past
pastor
pastoraler
pastoroia
pastoroie
pastoroiraum
pastoroivabund
pat
pata
patagonien
pate
patenschaft
patent
pater
paternoster
path
patmos
patnschoft
patriarch
patriarchn
patricia
patrick
patrimoine
patron
patrona
patronin
patterson
patton
pau
paul
paula
paulaner
paule
pauli
pauline
paulo
pauls
paulus
pauly
pause
paut
pavel
pavia
pavillon
pawel
pawlicki
pawlowitsch
pawnee
payne
pays
paz
pazifik
pazifikku
pazifischa
pazifischer
pazifischn
paznaun
paßt
pc
pdf
pe
peabody
peace
peach
peafekt
peak
pearl
pearson
peasa
peasaunan
peasaunanbefeadande
peasenliche
peasenlichkeitn
peasische
peasischn
peaso
peason
peasona
peasonan
peasonanvazeichnis
pech
peche
pecos
peda
pedaitet
pedro
peer
peeters
pegasus
pegel
pegnitz
pehlemann
peispiel
peka
peking
pele
pelham
pelzig
pen
pena
pendant
pendleton
penelope
penguin
peninsula
penis
penn
pennsylvania
penobscot
penrose
pension
penzendorf
penzing
people
peoples
peoria
pepi
peppi
per
perchtn
perchtoldsdorf
perchtoldsdorfer
percy
perdu
perfekt
perfekte
performance
perg
pergamon
perihel
perikaryon
period
periode
periodn
perkins
perl
perle
perlen
pernay
perpignan
perros
perry
persa
perseanlekeitn
persenlichkeit
persenlichkeitn
persenligkeitn
persephone
perseus
persian
persien
persisch
persischa
persische
persischn
perso
persoenlichkeiten
person
persona
personal
personalpronomina
personan
personanoma
personen
persons
perspective
perspectives
perspektiv
perspektive
perspektiven
perspektivn
perth
peru
perugia
pes
pesaro
pessach
pest
pestepidemie
pestis
pete
peter
peters
petersberg
petersburg
petersdorf
peterson
petit
petite
peto
petr
petra
petri
petrowitsch
petrus
pettau
pettendorf
pettenkofer
petting
pez
pezeichnt
pezeichnung
pf
pfa
pfad
pfaffenhofen
pfaffing
pfahl
pfahofa
pfakofen
pfalz
pfandl
pfarra
pfarre
pfarrei
pfarrer
pfarrhof
pfarrkiach
pfarrkiacha
pfarrkira
pfarrkirch
pfarrkircha
pfarrkirche
pfarrkirchen
pfatter
pfaundrecht
pfe
pfeffa
pfeffer
pfeiffer
pfeifn
pfeil
pfeila
pfel
pfen
pfer
pferd
pferde
pferdl
pferdln
pfeu
pfi
pfiff
pfingstn
pfinzda
pfl
pfla
pflanzen
pflanzn
pflanzna
pflaumheim
pflaunzn
pfleg
pflegamt
pflege
pflegt
pflicht
pflichtn
pfluag
pfn
pfner
pfo
pfoa
pfoad
pfoakiach
pfoakiacha
pfoara
pfoarkirchn
pfoarra
pfoi
pfoiz
pfoizgraf
pforr
pforra
pforrdoaf
pforrdorf
pforrei
pforrein
pforreingmoaschoft
pforreingmoaschoftn
pforreinse
pforreinvabund
pforrgruppn
pforrkiach
pforrkira
pforrkirch
pfreimd
pft
pfund
pfung
pg
ph
pha
phaidon
phalle
phantasie
pharao
phase
phasn
phi
phil
philadelphia
philharmonika
philip
philipp
philippe
philippinen
philippinische
philips
phillip
phillips
philolog
philologie
philosoph
philosophen
philosophical
philosophie
philosophisch
philosophischa
philosophische
philosophischen
philosophischn
philosophn
philosophy
pho
phoenix
phone
phonem
phoneme
phonetic
phonetischn
phonogram
phonograph
phonographic
phonographs
phonologie
phonology
photo
photograph
photographie
photographn
photon
photonen
photos
php
phrasn
physical
physics
physik
physika
physikalisch
physikalische
physikalischn
physiker
physiologie
pi
pia
piacenza
piaf
pianist
piano
piazza
picardie
picasso
piccolo
pichl
pichler
pick
pickering
pico
picture
pictures
piding
pie
piece
pieces
piedra
piedras
piefke
pielenhofen
piemont
piemontesisch
pier
pierce
piero
pierre
piet
pieta
pieter
pietro
pietsmiet
pieve
pigeon
pik
pike
pilar
pilga
pilger
pilgrim
pilot
pils
pilz
pilze
pin
pinakothek
pinal
pine
pines
piney
pinfall
ping
pingyuan
pink
pinocchio
pinto
pinus
pinzberg
pinzgau
pinzgauer
pio
pioneer
pionia
pionier
pioniere
piorecky
piotr
piper
pippin
piratenpartei
pis
pisa
pistn
pistoia
pistoiese
pistoin
pit
pithiviers
pitt
pittsburg
pittsburgh
piu
pius
pixel
pjotr
pkw
pl
pla
place
places
plain
plains
plakat
plan
plana
planck
plane
planegg
planet
planeten
planetn
planets
planma
planning
plano
plant
plantagen
plantation
plante
plantn
plants
planung
planunga
planungsregion
planungsregionan
planungsvaband
plastik
plata
plate
plateau
platen
platin
platinum
plato
platon
platoo
platt
plattdeitsch
plattdeitscha
platte
plattform
plattla
plattling
plattlinga
plattn
platz
platzal
platzl
platzln
plauen
play
player
playing
plays
playstation
plaza
ple
pleasant
plebem
plech
pleinfeld
pleite
plinius
plo
plogn
plon
plosiv
plotarea
plotdata
plottfoam
plottn
plotz
ploz
plu
pluarizentrische
plum
plural
plus
pluto
plymouth
pm
pmatrix
png
pnice
pnv
po
poa
poar
poarung
poatugal
poazn
pobst
poc
pocket
pocking
pockt
poco
pod
podcast
podest
podlachien
poe
poem
poems
poesi
poesie
poet
poetentaler
poetik
poetische
poetismus
poetry
poggio
poha
pohl
poiadium
poika
poimbuschn
poin
poinisch
poinischa
poinische
poinischn
point
pointe
points
poitiers
poitou
pok
pokal
pokalsiega
pokalsieger
pokoi
pokus
pol
pola
poland
polanski
polar
pole
polen
polgar
poli
police
policy
polis
political
politics
politik
politika
politikarin
politiker
politisch
politischa
politische
politischen
politisches
politischn
polizei
polizeiinspektion
polizist
polizistn
polk
polka
polling
poln
polnisch
polnischa
polnische
polo
polonaise
poloneise
polsingen
polt
poly
polydor
polygonzug
polynesien
polyphem
pommern
pomona
pompeius
pond
pongau
pongauer
pongaurisch
pons
pont
ponte
pool
poole
poor
pop
pope
poplar
popmusi
popmusik
popol
popovic
poppenlauer
popsa
popst
popula
popular
popularita
population
populea
populer
por
porcius
porsche
port
porta
portage
portal
porte
porter
portland
porto
portoi
portra
portrait
portraits
portret
portsmouth
portugal
portugiesisch
portugiesischa
portugiesische
portugiesischn
portuguesa
porzellan
pos
posaune
poschinger
poseidon
posen
posetiv
positiav
positiave
position
positiona
positionan
positionen
positions
positiv
positive
positivismus
positivn
positivs
posledni
poss
posse
possible
possibly
post
postbus
posth
posthum
postleitzoi
postmoderne
postn
posto
poststruktuaralismus
postum
potenusn
potenza
potenzia
potomac
potrero
potsdam
pottenstein
potter
poulischn
pound
pour
pove
povi
pow
powder
powell
power
powers
powhatan
powiat
powidl
pozuzo
pp
ppel
ppers
ppl
ppn
ppp
pr
pra
practice
prado
praesens
prag
praga
prager
pragmatische
pragmatismus
praha
prahy
prairie
praktikn
praktisch
praktische
praktischn
prater
prato
pratt
praxis
prayer
praze
pre
prean
prechtl
prediga
predigt
prefektua
prefix
pregt
preis
preise
preiser
preissische
preissn
preistra
preißischn
preißn
prell
prelude
preludes
preludie
prem
premier
premiere
premiered
premierminista
pres
presbyterian
prescott
presens
present
presenz
preservation
preserve
president
presidenten
presidential
presidentn
presley
press
pressath
pressburg
presse
pressemitteilung
presses
prestel
presto
preston
preußen
preußischen
previous
preysing
preßburg
pri
priasta
price
prien
pries
priesendorf
priest
priesta
priester
prima
primary
primera
primo
primus
prince
princess
princeton
principales
principles
print
printing
printmedien
prints
prinz
prinzessin
prinzip
prinzipien
prinzn
prinzregent
prior
priori
priorita
priv
privat
privatbesitz
privatbrauerei
private
privaten
privathaushoite
privatn
privileg
privilegien
prix
prixn
prize
pro
probably
probiat
problem
problematisch
probleme
probst
proceedings
process
proda
producing
production
produkt
produkte
produktion
produkzion
produzent
produzentn
produziad
produzian
produziat
produzierandn
produzierenden
produziert
prof
professa
professionelle
professoa
professor
professoren
professorn
profi
profil
profile
profis
profit
profu
profui
program
programm
programme
programmiasproch
programmierung
programmzeitschrift
progress
progressive
project
projekt
projekte
proklamation
proklamazion
prokopetz
prometheus
prominente
prominenz
promis
promo
promotion
promotions
promoviat
promu
prong
pronomen
propaganda
properties
prophet
prophetn
propst
propstei
propulsion
propyla
prosa
prosaschriftsteja
prosastick
prospect
prospects
prost
protection
protektorat
protest
protestanten
protestantisch
protestantische
protestantischen
protestantischn
protestantismus
protestantn
proteste
proto
protocol
protokoll
protokolle
proust
provence
providence
province
provinces
provincia
provins
provinz
provinzen
provinzhaptstod
provinzn
provinzna
prowinz
prowinzn
prozent
prozentualn
prozentuoin
prozess
prozesse
prozession
prozessor
pru
prunus
ps
psalm
psd
pse
pseudo
pseudonym
pseudotropheus
psi
pstlichn
psyche
psychiatrie
psychische
psychoanalyse
psychoanalytische
psychologie
psychologische
psychotherapie
pt
pta
ptolema
ptolemaios
pu
pua
pub
publekum
publeziad
publezirt
public
publications
publikation
publikationa
publikationen
publikum
publique
published
publishers
publishing
publius
publiziad
publizist
puccini
puch
puchheim
puchmair
puebla
pueblo
pueblos
puente
puerto
puesto
puff
puiva
pukira
pula
pulaski
pulau
pulchra
pulex
pullach
puma
pumpn
pumuckl
punischn
punk
punkband
punkt
punktal
punkte
punktn
punsch
punta
puppini
pur
pure
purple
puschkin
pust
pustet
putin
putnam
putsch
putz
puy
pv
pvc
px
pxhauptaartike
py
pymatuning
pyramid
pyramidn
pyrbaum
pyre
pyrena
pythagoras
python
pytli
pz
pzb
q
qark
qende
qi
qin
qr
qu
qua
quad
quadrat
quadrate
quadratischn
quadratkilomeda
quadratkilometa
quadratmeta
quadrotische
quae
qualifiziad
qualifiziert
qualita
qualitet
qualtinger
quam
quappal
quart
quarterly
quartet
quartett
quartette
quartier
quartucci
quase
quasi
quator
quatre
que
quea
queakroft
queaschnitt
queaschnittsfla
quebec
quechua
quedlinburg
queen
queens
queensland
quej
quejba
quejboch
quejfluss
quejgebiet
quejn
quell
quellcode
quelle
quellen
quelln
quelltext
quentin
quer
queri
query
quest
quetzalcoatl
qui
quickfacts
quicksilver
quijote
quincy
quinn
quintus
quirigua
quirin
quivalent
quo
quodlibet
quodlibets
r
ra
raa
raab
raas
rabat
rabbi
rabbit
rabe
rabenstein
raber
rabindranath
rables
rac
race
rache
rachel
rachl
racine
racing
rad
radar
rademacher
radi
radikaln
radio
radiosenda
radiowissen
radium
radius
radko
radl
radler
radln
radltreiba
radlweg
radschn
raetia
raetien
raf
rafael
raffael
rag
ragnaro
ragusa
rahat
rahm
rahma
rahman
rahmen
rahmenlos
rahn
rai
raiba
raich
raid
raiffeisen
rail
railjet
railroad
railway
raim
raime
raimund
rain
rainbow
rainer
rainhard
raisonne
raitenau
raiwadadschi
rajon
raketn
ral
ralf
ralph
ram
rama
ramat
rambold
ramita
ramo
ramon
ramsau
ramsauer
ramsey
ran
rana
ranch
rancheria
rancho
rand
randall
randers
randersacker
randolph
random
randy
rang
range
ranges
rankin
raoul
rap
rapa
raphael
rapid
rapids
rappa
rappach
rapper
rapperswil
rar
rard
rarita
ras
rasch
rass
rassismus
rassn
rat
rate
ratgeber
rathaus
ratibor
ratingen
ratio
ration
ratom
ratschkathl
rattelsdorf
rattiszell
ratzinger
ratzn
rau
raub
rauch
rauhenebrach
rauhman
rault
raum
raumschiff
raund
raung
rauris
raus
rausbrocht
rausch
rauskemma
rauskumma
rautn
raven
ravenna
ravensburg
raw
rax
ray
raymond
rayons
rb
rbb
rber
rbiger
rbo
rbt
rbuch
rbung
rc
rca
rch
rchen
rcher
rchn
rchten
rd
rde
rden
rder
rdern
rderpreis
rdert
rderung
rdigkeiten
rdigkeitn
rding
rdle
rdli
rdlich
rdliche
rdlichn
rdlingen
rdn
rdoba
re
rea
read
reader
reading
ready
reagan
reagian
reagiat
reaktiaun
reaktion
reakzion
real
reale
realismus
realita
realitet
reality
realm
realn
realschui
realschuin
ream
reama
reamisch
reamischn
rear
rebe
rebecca
rebellion
rebn
rechberg
rechd
rechdn
recheis
recherche
rechn
rechna
rechnan
rechnast
rechnat
rechnen
rechner
rechnet
rechnitz
rechnung
recht
rechta
rechte
rechteck
rechten
rechtli
rechtlich
rechtliche
rechtlichn
rechtma
rechtmehring
rechtn
rechts
rechtschreibung
rechtsfoam
rechtsgscha
rechtsklick
rechtsvaordnung
rechtwu
reckendorf
reclam
reclams
recom
reconstructed
reconstruction
record
recorded
recorder
recording
recordings
records
recreation
rect
rector
recycling
red
redade
redakteur
redaktion
redd
redding
rede
reden
redewendung
redewendungen
redn
redna
redt
reduziad
reduziat
reduziert
redwitz
reed
reef
reelle
reelln
reeves
reference
referendum
referenztabejn
reflexbogn
refoam
reform
reforma
reformation
reformator
reformiate
reformierte
reformiertn
reformpapsttum
refrain
refuge
reg
regal
regau
regel
regelma
regeln
regelung
regen
regensburg
regenstauf
regent
regentschoft
regenwald
reggae
reggio
regia
regiad
regiarung
regiarunga
regiarungsbeziak
regiarungszeid
regiat
regie
regierung
regierungsbeziak
regierungsbezirk
regierungschef
regija
regime
regiment
regimenta
regina
regine
regio
region
regiona
regional
regionale
regionalen
regionalinformation
regionalliga
regionaln
regionalvakea
regionan
regionen
regionoi
regionoia
regionoie
regionoiliga
regionoin
regionoiplanung
regionoirod
regionolsprouch
regis
regisseur
regisseurin
regista
register
registriad
regl
reglma
reglmassi
regln
reglt
reglweak
regn
regnitz
regnitzlosau
regnschburg
regnum
regula
regulator
reh
rehau
rehoboth
rehrn
rei
reibung
reich
reicha
reichahoi
reichd
reiche
reichen
reichenau
reichenbach
reichenhall
reichert
reichertshofen
reiches
reichn
reichs
reichsdog
reichsgau
reichsstadt
reichsstod
reichstn
reichswehr
reicht
reichtum
reichweitn
reid
reida
reidn
reif
reife
reiffenstein
reifn
reign
reih
reiha
reihe
reihn
reihnfoig
reihnfoige
reiht
reim
reimer
reimmichl
reims
rein
reina
reinbek
reindl
reine
reinen
reiner
reinhard
reinhardt
reinhart
reinheit
reinhold
reinigung
reinke
reinmuth
reins
reis
reisach
reischach
reise
reisefu
reisen
reisn
reissue
reistenhausen
reit
reita
reiter
reith
reitn
reiz
reißn
reißt
rejativ
rekonstruktion
rekord
rekorde
rektor
related
relatif
relation
relations
relativ
relative
relativita
release
relevant
relief
reliefs
religiese
religiesn
religio
religion
religiona
religionen
religionsgeschichte
religious
relikt
reliquien
reljeffkoatn
relocation
rem
rema
remains
remazeid
rembrandt
remisch
remischa
remische
remischen
remisches
remischn
remischnreich
remischs
remix
remlingen
remote
ren
renaissance
renate
renault
rence
rend
rendus
rene
reneissance
renessa
renfrewshire
reng
renga
renghittn
rengmoor
rengschbuach
rengschbuag
rengschburg
rengschburga
rengwoid
renn
renna
rennan
rennen
rennende
renner
rennes
rennfahra
rennfahrer
rennt
reno
renoviarung
renoviat
renovierung
renreiter
rentamt
rentweinsdorf
reoilita
rep
repablik
repertoire
report
reportage
reportagen
reports
repra
representantnhaus
reprint
reprinted
reprise
reproducer
reproducing
reptilien
repu
republic
republik
republika
republikana
republikanischn
requiem
rer
rers
res
resch
rescue
research
reserv
reservation
reserve
reservoir
resetarits
resi
reside
residenz
residenzstod
resistance
resolution
resort
resource
resources
resp
respektive
response
ressa
ressort
ressourcen
rest
restaurant
restaurants
restauriat
reste
restl
restliche
restlichn
restln
result
results
ret
retrieved
rettenbach
rettersheim
rettn
rettung
return
retzbach
retzstadt
reunion
reut
reuter
reuth
reutte
reuß
rev
reversible
revia
review
revised
revision
revival
revoluteaun
revolution
revolutiona
revolutionary
revoluzion
revue
rex
rey
reykjavi
reynolds
rez
rezat
rezensent
rezension
rezensionan
rezensionen
rezept
rezepte
rezeption
rf
rfa
rfc
rfe
rfen
rfer
rfl
rfles
rfn
rfndiaf
rft
rg
rga
rgb
rgemeindn
rgen
rger
rgerkrieg
rgermeister
rgeschichte
rgl
rgschoft
rgy
rhe
rhea
rhead
rheim
rhein
rheiner
rheinische
rheinland
rhetorik
rhin
rho
rhode
rhodos
rhythm
rhythmus
ri
ria
riad
rianburg
rias
ribe
ric
rica
ricardo
rice
rich
richard
richards
richardson
richdig
richdung
riches
richie
richland
richmond
richt
richta
richte
richter
richti
richtig
richtiga
richtige
richtigen
richtign
richting
richtlinie
richtlinien
richtn
richtung
richtunga
richtungan
richtungen
rick
rickzug
rico
rida
ridda
ride
rider
ridge
ridnaun
rie
ried
rieder
riedl
rieger
riemenschneider
rien
ries
riese
riesenslalom
riesige
riesign
riesn
rieti
riff
rifugio
rig
riga
rige
rigen
right
rights
rigkeit
rijn
riley
rimbach
rimini
rimpar
rin
rina
rinchnach
rind
rinda
rindn
rindviecha
ring
ringa
ringe
ringen
ringer
ringische
ringlspu
ringo
ringseis
ringsgwandl
rinnan
rinnd
rinnt
rio
ripley
ris
risch
rischa
rische
rischn
rise
risign
risiko
rising
riss
rita
ritchie
rite
ritn
ritta
ritter
ritual
ritus
ritz
riva
rivaln
rive
river
rivera
riverdale
rivers
riverside
rivie
riviera
rizzoli
rk
rka
rkan
rke
rkei
rken
rker
rkisch
rkische
rkischen
rkn
rkste
rkstn
rkt
rkte
rktn
rkung
rl
rlich
rliche
rlichn
rm
rma
rme
rmeda
rmeduachgaungswidastaund
rmekapazita
rmeleitfa
rmen
rmepumpn
rmer
rmeu
rmig
rmige
rn
rna
rnbach
rnbeag
rnberg
rnberger
rne
rner
rngen
rni
rnitz
rnstein
rnsteinbach
rnten
rntn
rntner
rnung
ro
roa
road
roadorf
roads
roald
roane
roanoke
roaring
roas
roasn
roat
roate
rob
robert
roberto
roberts
robertson
robin
robinson
robot
robota
robusta
roc
rocca
rocchetta
rocco
roch
roche
rochefort
rochelle
rocher
rochester
rochus
rock
rockband
rocket
rockford
rockin
rockmusi
rockmusik
rockmusiker
rocks
rocksa
rocky
rod
roda
rodach
rode
roden
rodeo
rodhaus
roding
rodn
rodney
rodni
rodrennfoahra
rodri
rodrigo
rods
rodung
roe
roet
rogaland
roger
rogers
rogt
roh
rohma
rohr
rohrbach
rohrbrunn
rohrwiesenbach
rohstoff
rohstoffe
roi
roider
roin
roiwa
rokoko
roku
roland
role
rolf
roll
rolle
rollen
rollin
rolling
rolln
rolls
rom
roma
romaan
romaann
romagna
romain
roman
romana
romane
romanen
romanes
romani
romanisch
romanischa
romanische
romanischn
romano
romans
romantik
romantische
romantischn
romanum
romanze
romanzen
rome
romeo
romma
rommel
roms
romsdal
romstoa
romulus
romy
ron
ronald
ronaldo
rond
ronde
rondo
rong
room
roos
roosevelt
root
roots
roque
rororo
ros
rosa
rosalia
rosalie
rosario
rosch
rose
rosebud
rosegga
rosegger
rosemarie
rosen
rosenau
rosenberg
rosengarten
rosenheim
rosenheimer
rosenmu
roskilde
rosler
rosn
rosnberg
rosnham
rosnheim
rosnheimer
rosnhof
ross
rosselbrunngraben
rossi
rossner
rosso
roster
rostn
rostock
rostow
roswitha
rot
rota
rote
roten
roter
rotgeba
roth
rothaus
rothenbuch
rothenburg
rothenfels
rother
rothneusiedl
rotn
rott
rottach
rottal
rotte
rottenberg
rottenbuch
rottenburg
rotterdam
rottoi
roud
rouda
roude
roudm
roudn
rouen
rouge
roulette
round
rousnam
roussillon
rout
route
routledge
routn
rovere
rovereto
rovigo
rowley
rowohlt
roy
royal
roz
roß
roßbach
roßbauhn
roßhaupten
roßtal
rp
rpa
rper
rperregion
rquez
rr
rre
rring
rrmorsbach
rrwangen
rs
rscht
rse
rshavn
rshavna
rspiel
rsssf
rst
rste
rstein
rsten
rstenfeld
rstenfeldbruck
rstentum
rster
rstlich
rstn
rt
rta
rte
rtel
rten
rter
rterbuch
rterbuchartikel
rtern
rth
rthersee
rtig
rtige
rtigen
rtign
rtl
rtlich
rtliche
rtlichen
rtn
rtna
rtner
rts
rttemberg
rtyra
rtyrer
ru
rua
ruaf
ruaft
ruah
ruahpading
ruam
ruanda
rubens
rubin
rubrik
ruby
ruchu
ruck
ruckn
ruckt
ruda
rude
ruderatshofen
rudi
rudolf
rudolph
rue
ruf
ruft
rufus
rugby
rugendorf
rugier
ruhe
ruhig
ruhm
ruhmannsfelden
ruhmeshoin
ruhr
ruhrgebiet
ruin
ruina
ruine
ruinen
rum
ruma
rumantsch
rumenien
rumford
rummansfain
rummasfain
rumpf
run
rund
runda
runde
rundfahrt
rundfunk
rundfunks
rundgang
rundn
rundschau
rundum
rundumadum
runen
rung
runga
rungen
running
rupert
rupertiwinke
rupertiwinkel
rupprecht
ruprecht
rural
rus
rush
rusk
russ
russe
russell
russia
russian
russisch
russischa
russische
russischen
russischer
russischn
russland
russlands
russlaund
russn
rust
rustica
rusticae
ruta
ruth
rutherford
rutland
rutsch
rv
rverlag
rvi
rw
ry
ryan
ryo
ryu
rz
rzbuag
rzburg
rzburger
rze
rzn
rzt
rztal
rzte
rzung
rzzuschlag
s
sa
saa
saal
saalach
saale
saalfeld
saan
saar
saarbru
saarland
saatn
saba
sabina
sabine
sabres
sabrina
sach
sacha
sachan
sache
sacher
sachn
sachrang
sachs
sachsen
sachsn
sachvahoit
sacra
sacramento
sacred
sad
saddam
sae
safety
safuat
sag
saga
sage
sagen
saggsn
sagn
sagt
sagte
sah
sahara
sai
said
saigon
sailauf
sain
saint
sainte
saintes
saints
saire
sairn
saiso
saison
saisonsieg
sait
saitn
saka
sakralbau
sakrisch
sal
sala
salado
salamanca
salamandra
salamis
sale
salem
salerno
sales
salesman
salia
salier
salieri
salin
saline
salisbury
salischn
salish
salle
salles
sally
salm
salmon
salod
salome
salomo
salomon
salomonen
salon
salt
salurn
salvador
salvator
salvatore
salve
salz
salzach
salzburg
salzburger
salzkammergut
sam
sama
samarkand
samba
sambia
same
samisch
samm
samma
sammebegriff
sammen
sammler
sammling
sammlinga
sammlung
sammlunga
sammlungen
samoa
samos
sampler
samsda
samsdog
samson
samstag
samsung
samt
samuel
samurai
san
sana
sancte
sanctis
sanctus
sand
sandberg
sander
sanders
sandhi
sandla
sandoval
sandra
sands
sandstein
sandstoa
sandstraß
sandy
sane
sanford
sang
sanger
sanh
sani
sanierung
sanita
sankt
sanktion
sann
sans
sanskrit
sansquartier
sant
santa
santana
santi
santiago
santo
santos
sao
saphir
sapiens
sappho
sar
sara
saragossa
sarah
sarandi
sarasota
saratoga
sardinien
sarntal
sarthe
sas
sascha
sassari
sasso
sat
satan
satb
satellit
satellite
satellitn
satire
satirika
satirisch
satirische
satu
satun
saturday
saturn
satyajit
satz
sau
saua
sauakraut
sauan
sauastoff
sauba
sauber
sauce
saudi
sauer
sauft
sauk
saul
saumlung
saumm
saumman
saummg
saummla
saummlung
saummt
saumriff
saumt
saund
saunders
saung
saunkt
saur
sauwa
sauzal
savage
savannah
save
savoie
savoyen
sawyer
saxn
saxon
saxophonist
say
sb
sbach
sbethen
sbl
sc
scala
scale
scalemajor
scaleminor
scales
scarborough
scarecrow
scene
scenic
sch
scha
schabernack
schabs
schach
schad
schadda
schaden
schadn
schaffa
schaffen
schaffn
schafft
schaffung
schaitberger
schall
schallabuag
schallaburg
schaller
scharf
scharing
scharnitz
schatten
schattn
schatz
schau
schaublotz
schaud
schaug
schaugn
schaugt
schaun
schaung
schauspiel
schauspiela
schauspieler
schauspielerin
schauspielhaus
schauspu
schauspui
schauspuia
schauspuiarin
schauspuija
schaust
schaut
schauts
schawis
schba
schbada
schbanien
schbanisch
schbeda
schbedan
schbidoi
schbrecha
schbroch
schbrochinsln
schbrochliche
schbrochn
schbrochraum
schbu
schbui
schbuia
schbuin
schda
schdaiamoak
schdandard
schdauman
schdaumt
schdaund
schdazioniad
schded
schdengan
schdet
schdift
schdikl
schdo
schdoak
schdod
schdu
schdudiad
schdudian
schdund
sche
schea
schean
scheazhoft
sched
schedl
schee
scheen
scheena
scheenan
scheenau
scheene
scheens
scheenstn
schef
scheffau
schei
scheibbs
scheibm
scheidn
scheidung
scheim
schein
scheinboa
scheinfeld
scheint
scheints
scheja
schell
schelling
schema
schen
schena
schene
schenk
schenkt
schenkung
schepfa
schepfung
scher
scheriau
scherz
scherzo
scheßlitz
schi
schia
schiach
schiache
schiachn
schiassn
schiaßn
schiaßt
schicht
schichtn
schick
schicka
schickn
schicksal
schicksoi
schickt
schief
schiele
schienan
schiene
schienen
schienenvakea
schienenverkehr
schif
schiff
schiffboa
schiffe
schifffahrt
schifffoaht
schifoahrn
schigebiet
schiki
schild
schiller
schillerplatz
schilling
schillingsfu
schimborn
schimpfwoat
schimpfwort
schin
schindler
schippach
schirennlaifa
schirennlaifarin
schirm
schirmer
schispoat
schispringa
schispringer
schissl
schitzn
schl
schla
schlacht
schlachthof
schlaf
schlafen
schlag
schlager
schlagersa
schlang
schlaung
schlecht
schlechta
schlechte
schlechtn
schlechts
schlegel
schleha
schleich
schleicher
schleifn
schleim
schleisn
schlern
schlesien
schlesisch
schlesische
schlessa
schleswig
schliassli
schliasslich
schliassn
schliasst
schliaßli
schliaßlich
schliaßn
schliaßt
schliaßung
schlicht
schlichtn
schliersee
schlierseer
schließle
schließli
schließlich
schlimma
schlingensief
schlissl
schlo
schlocht
schlochtn
schlochtruaf
schloft
schlog
schloga
schlogn
schlogt
schlogzeig
schlogzeiga
schlong
schloos
schlos
schloss
schlossa
schlossbeag
schlossberg
schlossbrauerei
schlosspark
schlossplotz
schloß
schloßberg
schlu
schlucht
schlus
schluss
schluß
schma
schmachtenberg
schmadel
schmankerl
schmarrn
schmeckt
schmei
schmeizla
schmeller
schmerleboch
schmerz
schmetterlinge
schmid
schmidkunz
schmidt
schmied
schmiede
schmitt
schmitz
schmo
schmoin
schmoiz
schmole
schmu
schmuck
schn
schna
schnabelwaid
schnaittach
schnaittenbach
schneck
schneckn
schnee
schneebeag
schneeberg
schneeberger
schnei
schneid
schneida
schneider
schneidn
schneidt
schnein
schneizlreith
schnej
schneje
schnell
schnella
schnelldorf
schnelle
schnelln
schneppenbach
schnidd
schnied
schnitt
schnittgressn
schnittpunkt
schnitzl
schnitzler
schno
schnoatbrax
schnoferl
schnoi
schnoin
schnops
schnupftabak
scho
schoaf
schoafe
schoatn
schod
schoda
schoder
schodn
schodneasotz
schof
schofar
schoffa
schoffn
schofft
schoft
schoftn
schogau
schogglad
schoh
schoi
schoiabsorptionsfla
schoida
schoidruck
schoidruckpegl
schoin
schoipegldiffarenz
schoiplottn
schoita
schoitjoan
schoitung
scholl
schollbrunn
scholung
scholz
schon
schondra
schonen
schongau
schonungen
schooda
school
schools
schoon
schopenhauer
schopfloch
schorsch
schott
schottisch
schottischa
schottische
schottischn
schottland
schottlaund
schottn
schou
schpania
schpanien
schpanisch
schpanischn
schpoda
schpodan
schpodare
schproch
schprochfamu
schprochn
schpu
schpuan
schra
schrader
schramm
schrammeln
schraubn
schraufn
schraunkn
schreckliche
schreib
schreiba
schreibd
schreiben
schreiber
schreibm
schreibn
schreibnamen
schreibt
schreibung
schreibwais
schreibweis
schreibweisn
schreim
schrein
schreiner
schreit
schreiwa
schrieb
schrieversronte
schrifd
schrift
schriftdeitsch
schriftdeudschn
schriften
schriftenreihe
schriftle
schriftli
schriftlich
schriftliche
schriftlichn
schriftn
schriftschbroch
schriftschdo
schriftsprache
schriftsproch
schriftsteja
schriftstejarin
schriftstella
schriftstellarin
schriftsteller
schriftsto
schriftsystem
schriftzeichen
schriftzeichn
schriftzug
schriib
schritt
schrittweis
schro
schrobenhausen
schroll
schroomhausn
schrott
schruppn
scht
schta
schtaumm
schtean
schtehd
schteht
schtengan
schteppn
schtift
schtn
schto
schtoa
schtoak
schtoana
schtod
schtodschtoot
schtodschtootn
schtodteu
schtoot
schtootn
schtr
schtreckn
schtu
schtund
schu
schuach
schuah
schuahplattla
schuasta
schubert
schubspaunnungan
schuh
schui
schuid
schuidhaupt
schuidl
schuidn
schuidna
schuihaus
schuikinda
schuin
schuina
schuita
schuizeid
schul
schuld
schule
schulen
schulte
schultz
schulz
schulze
schumacher
schumann
schun
schuss
schuster
schutt
schutz
schutzgas
schutzgebiet
schutzgebiete
schutzheilige
schutzpatron
schutzsigna
schutzsignoi
schutzweg
schuz
schwa
schwaa
schwaakroft
schwaan
schwaapunkt
schwaar
schwaara
schwaare
schwab
schwabach
schwabacher
schwaben
schwabing
schwabmu
schwabsroth
schwach
schwache
schwaig
schwaiz
schwaiza
schwamm
schwammal
schwammerl
schwan
schwandorf
schwanenkirchen
schwanz
schwar
schwara
schware
schwarn
schwarz
schwarza
schwarzach
schwarze
schwarzen
schwarzenberg
schwarzer
schwarzkopf
schwarzn
schwarzschild
schwaz
schwea
schweapunkt
schweat
schwebischn
schwechat
schweden
schwedisch
schwedischa
schwedische
schwedischen
schwedischn
schwedn
schwefel
schweigen
schweiggert
schwein
schweinfurt
schweinfurta
schweinfurter
schweiz
schweiza
schweizer
schweizerbart
schweizerische
schwejk
schwer
schwere
schwerin
schwerpunkt
schwert
schwerta
schwesda
schwesta
schwestan
schwester
schwestern
schwierig
schwimma
schwind
schwingan
schwo
schwoarz
schwoarze
schwoarzn
schwoaz
schwoaza
schwoaze
schwoazhof
schwoazn
schwoazz
schwoazzn
schwoaßn
schwobm
schwobn
schwoch
schwoche
schwochn
schwoga
schwoich
schwom
schwoom
schworz
schworzn
schwoschzach
schwung
schygulla
science
sciences
scientific
scipio
scorpion
scotia
scotland
scots
scott
scottish
screen
script
sculpture
sd
sdaisa
sde
sdn
se
sea
seabien
seah
seal
seamonkey
sean
sear
search
seas
seat
seattle
sebastia
sebastian
sebastiano
sec
secession
sech
sechs
sechse
sechsstroafe
sechste
sechstn
sechzehn
sechzga
second
secondary
secret
section
sections
security
sed
sedgwick
sediment
sedis
sedlaczek
sedlmayr
sedna
see
seebold
seebruck
seefahrt
seefoara
seehafen
seehausen
seehechn
seehofer
seej
seejsorgbereich
seejsorgeihheit
seeland
seele
seen
seenland
seeon
seeschlocht
seff
sega
seggs
segl
segment
segn
segnswiadigkeitn
segringen
segs
segt
seh
seha
sehen
sehenswu
seher
sehg
sehn
sehne
sehnsucht
sehnswiadigkeitn
sehr
sei
seiba
seibsd
seicherl
seichn
seid
seidel
seidelsdorf
seidher
seidl
seidm
seidn
seifert
seiger
seim
sein
seina
seinaseits
seinazeid
seinazeit
seind
seine
seinem
seinen
seiner
seines
seini
seinr
seinsheim
seit
seitdem
seite
seiten
seitenofong
seithea
seither
seitliche
seitm
seitn
seitna
seitnla
seitns
seitntoi
seits
seitz
sej
sejba
sejbe
sejbn
sejbsd
sejbst
sejbsta
sejbststa
sejbststendige
sejchane
sejg
sejm
sejn
sejtn
sejtna
sek
sekreta
sektion
sektoa
sektor
sekund
sekunda
sekunde
sekundealiteratua
sekundn
sel
selb
selba
selben
selber
selbn
selbr
selbst
selbsta
selbststa
selbstverlag
selbstzeugnissen
sele
selected
seleukidnreich
seleukidnreichs
self
selig
selinux
sell
sells
selm
selma
selmoling
selo
selsawet
selschaft
selten
seltn
selva
selwa
sem
semf
seminar
seminare
seminole
semitic
semitische
semitischn
semjon
semme
semmen
semmering
semmeringbahn
sen
senaata
senat
senator
send
senda
sender
senderaum
sendet
sendling
sendlinga
sendung
sendunga
sendungan
sendungen
seneca
senegal
senf
seng
senga
sengarin
sengmu
sengsweat
sengswiadigkeidn
sengswiadigkeit
sengswiadigkeitn
senioan
senior
senj
senke
senkn
senkrecht
senkrechte
senlis
senn
senna
sens
sense
sensor
sent
sentation
sentiat
sentiert
senz
seoul
sep
separat
separate
[...]
