!
"
#
##0
##1
##10
##11
##12
##13
##14
##15
##16
##17
##18
##19
##2
##20
##21
##22
##23
##24
##25
##26
##27
##28
##29
##3
##30
##31
##32
##33
##34
##35
##36
##37
##38
##39
##4
##40
##41
##42
##43
##44
##45
##46
##47
##48
##49
##5
##50
##51
##52
##53
##54
##55
##56
##57
##58
##59
##6
##60
##61
##62
##63
##64
##65
##66
##67
##68
##69
##7
##70
##71
##72
##73
##74
##75
##76
##77
##78
##79
##8
##80
##81
##82
##83
##84
##85
##86
##87
##88
##89
##9
##90
##91
##92
##93
##94
##95
##96
##97
##98
##99
$
%
&
'
(
)
*
+
,
-
.
/
0
00
000
001
003
006
007
01
013
0140
0166667
02
024
026
03
0333333
0362
04
05
06
0666667
07
08
0833333
09
093
1
10
100
1000
1001
1002
1007
101
1016
102
103
1038
104
105
1056
106
107
1075
108
1080
10873
109
1090
1093
11
110
111
1111
112
113
114
115
116
1166667
117
118
119
12
120
1200
121
12130
122
12240
123
12371
12372
124
12434
12485
125
126
127
128
129
129687
13
130
1304
131
132
133
1333333
134
135
136
137
1371
138
139
14
140
141
142
143
144
145
146
147
148
149
1492
1493
15
150
1500
1502
1503
151
152
153
1530
154
155
1550
156
1564
157
158
1585
159
16
160
1600
161
162
1625
163
164
1640
165
166
1666667
167
168
1680
1685
169
1694
1696
1697
1698
17
170
1700
171
1711
1712
172
1720
1721
17224
1725
173
1732
174
1740
1742
1743
1745
1746
1747
1748
1749
175
1750
1751
1752
1754
1755
1756
1757
1758
1759
176
1760
1761
1762
1763
1765
1766
17669
1767
1769
177
1770
1771
1772
1773
1774
1775
1776
1777
1778
1779
178
1780
1781
1782
1783
1784
1785
1786
1787
1788
1789
179
1790
1791
1792
1793
1794
1795
1796
1797
1798
1799
18
180
1800
1801
1802
1803
1804
1805
1806
1807
1808
1809
181
1810
1811
1812
1813
1814
1815
1816
1817
1818
1819
182
1820
1821
1822
1823
1824
1825
1826
1827
1828
1829
183
1830
1831
1832
1833
1833333
1834
1835
1836
1837
1838
1839
184
1840
1841
1842
1843
1844
1845
1846
1847
1848
1849
185
1850
1851
1852
1853
1854
1855
1856
1857
1858
1859
186
1860
1861
1862
1863
1864
1865
1866
1867
1868
1869
187
1870
1871
1872
1873
1874
1875
1876
1877
1878
1879
188
1880
1881
1882
1883
1884
1885
1886
1887
1888
1889
18893
189
1890
1891
1892
1893
1894
1895
1896
1897
1898
1899
19
190
1900
1901
1902
1903
1904
1905
1906
1907
1908
1909
191
1910
1911
1912
1913
1914
1915
1916
1917
1918
1919
192
1920
1921
1922
1923
1924
1925
1926
192688
1927
1928
1929
193
1930
1931
1932
1933
1934
1935
1936
1937
1938
1939
194
1940
1941
1942
1943
1944
1945
1946
1947
1948
1949
195
1950
1951
1952
1953
1954
1955
1956
1957
1958
1959
196
1960
1961
1962
1963
1964
1965
1966
1967
1968
1969
197
1970
197020
1971
1972
1973
1974
1975
1976
1977
1978
1979
198
1980
1981
1982
1983
1984
1985
19859
1986
1987
1988
1989
199
1990
1991
1992
1993
1994
1995
1996
1997
1998
1999
2
20
200
2000
2001
2002
2003
2004
2005
2006
2007
2008
20080303203650
2009
201
2010
2011
2012
2013
2014
2015
2016
2017
2018
2019
202
2020
2021
2021401196
2022
2023
203
204
205
206
207
208
209
21
210
211
212
213
214
215
216
2166667
217
218
219
22
220
221
222
223
224
225
226
227
228
229
23
230
2307
231
232
233
2333333
234
235
236
237
238
239
24
240
241
242
243
244
245
246
247
248
249
25
250
251
252
253
254
255
256
257
258
259
26
260
261
262
263
264
265
266
2666667
267
268
269
27
270
271
272
273
274
275
276
277
278
279
28
280
281
282
283
2833333
28390
284
285
286
287
288
289
29
290
291
292
293
294
295
296
297
298
299
3
30
300
3000
300000
30008
301
302
303
304
305
306
307
308
309
309967
31
310
311
312
313
314
315
316
3166667
317
3178
318
319
32
320
321
322
323
324
325
326
327
328
329
33
330
331
332
333
3333333
334
335
336
337
338
339
34
340
341
342
343
344
345
346
347
348
349
35
350
351
352
353
354
355
356
357
358
359
36
360
361
362
363
364
365
366
3666667
367
368
369
37
370
371
372
373
374
375
376
377
378
379
38
380
381
382
383
3833333
384
385
386
387
388
389
39
390
391
392
393
394
395
396
397
398
399
4
40
400
401
402
403
404
405
406
407
4075
408
409
41
410
411
412
413
414
415
416
4166667
417
418
419
42
420
421
422
423
424
425
426
427
428
429
43
430
4303
431
432
433
4331
4333333
434
435
436
437
438
439
44
440
441
442
443
444
445
446
447
448
449
45
450
451
452
453
454
455
456
457
458
459
46
460
461
462
463
464
465
466
4666667
467
468
469
47
470
471
472
473
474
475
476
477
478
479
48
480
481
482
483
4833333
484
485
486
487
488
489
49
490
491
492
493
494
495
496
497
498
499
5
50
500
5000
501
502
502568
503
504
505
506
507
508
509
51
510
511
512
513
513825
514
515
516
5166667
517
518
519
52
520
521
522
523
524
525
526
527
528
529
53
530
531
532
533
5333333
534
535
536
537
538
539
54
540
541
542
543
544
545
546
547
548
549
55
550
551
552
553
554
555
556
557
558
559
56
560
561
562
563
564
565
566
5666667
567
568
569
57
570
571
572
573
574
575
576
577
578
579
58
580
581
582
583
5833333
584
58432
585
586
587
588
589
59
590
591
592
593
594
595
596
597
598
599
6
60
600
601
602
603
604
605
606
607
608
609
61
610
611
612
613
614
615
616
6166667
617
618
619
62
620
621
622
623
624
625
626
627
628
629
63
630
631
632
633
6333333
634
635
636
637
638
639
64
640
641
642
643
644
645
646
647
648
6487
649
65
650
651
652
653
654
654534
655
656
656966
657
658
659
66
660
661
662
663
664
665
666
6666667
667
668
669
67
670
671
672
673
6736
674
675
676
677
678
679
68
680
681
682
683
6833333
684
685
686
687
688
689
69
690
691
692
693
694
695
696
697
698
699
7
70
700
701
702
703
704
705
706
707
708
709
71
710
711
712
713
714
715
716
7166667
717
718
719
72
720
721
722
723
724
725
726
727
728
728011
729
73
730
731
732
733
7333333
734
735
736
737
737040
738
739
74
740
741
742
743
744
745
746
747
7475
748
749
75
750
751
752
753
754
755
756
757
759
76
760
761
762
763
764
765
766
7666667
767
768
769
77
770
771
772
773
774
775
776
777
778
779
78
780
781
782
783
7833333
784
785
786
787
788
789
79
790
791
792
793
794
795
796
797
798
799
8
80
800
801
802
803
804
805
806
807
808
809
81
810
811
812
813
814
815
816
8166667
817
818
819
82
820
821
822
823
825
826
827
828
83
830
831
832
833
8333333
834
838
839
84
840
841
842
843
844
845
846
847
848
84876
849
85
850
851
852
853
855
856
857
858
859
86
861
862
863
864
8647
865
866
8666667
867
868
87
870
871
872
873
874
875
876
877
878
879
88
880
881
882
883
8833333
884
885
886
887
888
89
890
891
892
893
894
895
896
897
898
899
9
90
900
901
902
90210
903
904
905
906
907
908
909
91
910
911
912
913
914
915
916
9166667
917
918
919
92
921
922
923
924
925
926
927
928
929
93
930
931
932
933
9333333
934
935
936
937
938
939
94
940
941
942
943
944
945
946
947
948
949
95
950
951
952
953
954
955
956
957
958
959
96
960
961
962
963
964
965
966
9666667
967
968
969
97
970
971
972
973
974
975
976
977
978
979
98
980
981
9811
982
983
9833333
984
985
986
987
988
9892
9895
99
991
992
993
994
995
997
998
999
:
;
<
=
>
?
@
[
\
]
^
_
`
a
aaro
aaron
ab
abad
abajo
abandon
abandone
abandonne
abascal
abattre
abbaye
abbe
abbeville
abbey
abbott
abbou
abby
abc
abdallah
abdel
abdelkrim
abdellatif
abder
abderrahmane
abdou
abdoul
abdoulaye
abdul
abe
abed
abeille
abel
abelanski
abelardo
abello
aberdeen
abessolo
abi
abidjan
abierto
abigail
abilite
abismo
abit
abita
abitan
abitasyon
abite
abiteboul
abitid
abitye
abiye
abkarian
able
abner
abo
abogado
aboli
abolisyon
abolition
abondan
abord
abou
aboulker
about
abouti
above
abra
abraham
abrams
abre
abreu
abri
abril
absa
absan
absans
abse
absence
absent
absente
abso
absoli
absolu
absolument
abstre
abu
abuela
abuelo
abus
ac
aca
acade
academia
academic
academie
academy
acapulco
acce
access
accessdate
accessed
accident
accidental
accidente
accord
account
accueil
accuse
ace
aceite
acel
acero
aces
acevedo
aceves
acha
achab
achache
achard
achaval
ache
acheve
achille
achipe
achite
achitek
achitekti
achiv
achour
achte
ackerman
acorralada
acosta
acquisition
acres
across
act
acte
actes
acteur
acteurs
action
actions
active
activite
actor
actores
actress
actrice
actrices
actriz
actu
actuacio
actualite
acuerdas
acun
acute
ad
ada
adair
adal
adalberto
adam
adama
adamari
adame
adamo
adams
adamson
adan
adaptasyon
adaptate
adaptation
adapte
adas
adda
addams
addict
addison
addition
ade
adel
adela
adelaida
adelaide
adele
adelina
adeline
adelman
adentro
ades
adhe
adieu
adieux
adio
adisyon
adisyone
adja
adjani
adje
adjektif
adjidan
adjoint
adjudant
adjwen
adler
adlyne
adme
administrasyon
administrate
administratif
administration
administre
admiral
adn
ado
adolesan
adolesant
adolescent
adolescente
adolf
adolfo
adolphe
adonis
adopsyon
adopte
adoptif
adoption
ador
adora
adorable
adorables
adoras
adore
adre
adrese
adresse
adria
adrian
adriana
adriano
adrien
adrienne
adulte
adultes
adve
adventure
adventures
adversaire
ae
aewonotik
afe
afekte
affair
affaire
affaires
affairs
affiche
affinite
affleck
affrontement
affu
afganistan
afime
afliyan
afonso
afp
afraid
africa
africain
africaine
africaines
africains
african
africana
africine
africultures
afrik
afrika
afrike
afriken
afrique
afro
after
afton
ag
aga
again
against
agatha
agathe
age
agence
agency
agenda
agenin
agent
agente
agents
ages
aghion
agiman
agit
agite
aglae
agnant
agne
agnes
agnese
agnieszka
ago
agoni
agostini
agosto
agre
agrese
agriculture
agrikilti
agriko
agu
agua
aguacate
aguada
aguas
agudelo
aguen
aguilar
aguilera
aguirre
agujetas
agusti
agustin
agustina
agwonomi
ah
ahatti
ahead
ahmed
ahn
ahumada
ahyti
ahytian
ahytianna
ai
aid
aida
aidan
aide
aids
aigle
aigles
aiguilles
aile
aileen
ailes
ailles
ailleurs
aimais
aimait
aime
aimee
aiment
aimer
aimes
aimez
ain
aine
ainsi
ainsworth
air
aire
aires
airport
ais
aise
aises
ait
aitor
aix
aj
aja
ajan
ajans
ajanten
ajantin
aje
ajeno
ajenos
ajete
aji
ajil
ajiste
ajitasyon
ajou
ajoute
ak
aka
akademi
akademik
akademikreyol
akademisyen
ake
aken
akeri
akerman
akeyi
akeyolojik
aki
akil
akim
akimile
akissi
akiva
akizasyon
akize
aknine
ako
akonpaye
akonpli
akote
akouche
akouchman
akoz
akron
aks
aksan
akse
akselerasyon
akselere
aksepte
aksesib
aksidan
aksyon
akt
akte
aktif
aktion
aktivis
aktivite
aktout
aktouth
aktris
aktyalite
aktye
akwonim
al
ala
alabama
aladdin
aladin
alafwa
alain
alameda
alamo
alan
alane
alani
alantou
alarco
alarm
alas
alaska
alassane
alatriste
alay
alba
alban
albane
albany
albarra
albatros
albert
alberta
alberti
albertine
albertini
alberto
albi
albin
albion
albo
alborada
album
albums
alca
alcala
alcalde
alcanzar
alcaraz
alceste
alcide
alcides
alco
alcocer
alda
aldama
aldana
alden
aldo
aldrich
ale
alea
alec
alegre
alegri
alegrijes
aleida
alejandra
alejandro
alejo
aleksandr
alema
alerte
alessandra
alessandrin
alessandro
alessio
aletranje
alevosi
alex
alexa
alexander
alexandra
alexandre
alexandria
alexandrine
alexei
alexia
alexis
alf
alfa
alfabe
alfabetik
alfabetizasyon
alfaro
alfie
alfonsina
alfonso
alfred
alfredo
alga
algarrobo
alge
alger
algo
alguien
alguna
alhambra
alhe
ali
alianza
alias
alibi
alice
alicia
alida
alie
alien
aliens
alima
alimante
alina
aline
alioune
alirio
alisateur
alisateurs
alisation
alisatrice
alise
alisme
alison
aliste
alite
alive
alix
alize
alje
aljebrik
aljeri
aljeryen
alko
alkolik
all
alla
allah
allan
allard
alle
allegany
allemagne
allemand
allemande
allen
allende
aller
alles
alley
allez
alliance
allie
allio
allison
allmusic
allo
allocine
allons
allouache
allumettes
ally
alma
almada
alman
almanak
almas
almay
almaza
almeida
almeri
almirante
almodo
almond
almonte
almost
alnoy
alo
aloha
aloi
aloma
alondra
alone
along
alonso
alonzo
alors
alouettes
alpes
alpha
alphabe
alphabet
alphonse
alpine
alquiler
als
alsace
also
alta
altagracia
altai
altamira
altamirano
altamont
altar
altas
alte
altered
alternative
alterpresse
altitid
altman
alto
alton
altona
altos
alturas
alupcia
alvarado
alvarez
alvaro
alvear
alver
alves
alvin
always
alyans
alyas
alye
alyn
alyssa
am
ama
amada
amadeo
amadeus
amado
amador
amadou
amairani
amal
amalia
amalric
aman
amand
amanda
amandiers
amandine
amando
amanecer
amann
amant
amante
amantes
amants
amar
amara
amaral
amaranta
amare
amargo
amargura
amari
amaro
amarte
amas
amate
amateur
amateurs
amato
amaury
amaya
amazing
amazon
amazonas
amazone
amazones
ambassadeur
ambassadeurs
ambedkar
amber
ambicio
ambitieux
ambition
ambos
amboy
ambre
ambroise
ambrose
ambrosio
ame
amel
amelia
amelio
amelle
amelyorasyon
amelyore
amen
ameni
amenyen
amer
america
american
americana
americano
americans
americas
amerik
amerike
ameriken
amers
ames
amezcua
amherst
ami
amico
amidou
amie
amiens
amies
amiga
amigas
amigo
amigos
amin
amina
aminata
amine
amir
amira
amiral
amis
amistad
amitie
amizman
amleto
amne
amnesty
amnisti
amo
among
amoni
amor
amorcito
amore
amores
amos
amour
amoure
amoureuse
amoureuses
amoureux
amours
amoussou
amoxicillin
amparito
amparo
ampliacio
amste
amsterdam
amundaray
amuse
amy
an
ana
anabel
anahi
anai
anakawona
anali
analis
analiz
analize
analyse
analysis
anana
anand
anastasia
anatol
anatole
anatomi
anatomie
anatomy
anaya
anba
anbake
anbasad
anbasade
anbilansye
anbisyon
anble
anbouchi
anbriyon
ance
ancien
ancienne
anciens
ancient
ancira
anconina
ancre
and
anda
andalouzi
andan
andedan
andere
anders
andersen
anderson
andes
andeyo
ando
andover
andrade
andre
andrea
andreas
andrei
andres
andrew
andrews
andrieu
andrieux
andrzej
andueza
andy
ane
anette
anfans
anfas
anfe
anfen
anfle
anfo
ang
angaje
angajman
angarita
ange
angel
angela
angeles
angeli
angelica
angelina
angelique
angelita
angelitos
angelo
angels
anger
angers
anges
angie
anglade
anglais
anglaise
angle
anglete
angleterre
anglo
angoisse
angola
angole
angostura
angoule
angry
angus
angustia
angustias
anh
ani
anile
animal
animals
animasyon
animate
animation
animatris
animaux
anime
anita
anive
anj
anje
anjeneral
anjou
ankadreman
anke
ankete
anko
ankouraje
anle
anm
anmba
anme
anmenmtan
anmpi
ann
anna
annabella
annabelle
annakin
annales
annapre
annaud
anndan
anne
anneaux
annelise
annette
anni
annick
annicks
annie
annik
anniversaire
anniversary
anno
annonce
announces
annual
anny
ano
anonim
anons
anonse
anonyme
anonymes
another
anouilh
anouk
anpe
anpeche
anpere
anpi
anpil
anplis
anplwa
anplwaye
anrejistre
anrejistreman
anri
ans
ansanm
ansavo
ansdeno
anse
anselme
anselmo
ansent
anseye
ansiklopedi
anson
anspach
answit
ansy
ansye
ansyen
ant
antagonis
antan
antananarivo
antant
ante
antena
antenne
antere
antes
anthe
anthologie
anthology
anthony
anti
antibyotik
antidote
antigone
antigua
antiguo
antike
antikite
antiko
antillais
antillaise
antilles
antilye
antiquaire
antiseptik
antisipe
antite
antiy
antiye
anto
antoine
antoinette
antoli
antoloji
anton
antonella
antonelli
antoni
antonia
antonieta
antonietta
antonin
antonio
antonioni
antony
antorcha
antoure
antre
antrene
antreprann
antreprene
antrepriz
antretyen
ants
antu
antwopolo
antwopoloji
antye
anvalou
anvan
anvayi
anve
anvers
anvi
anviwo
anviwon
anvlo
anvwaye
anwo
any
anya
anye
anyen
anything
anzola
ao
aou
ap
apa
apache
aparan
aparans
apare
aparicio
aparisyon
apasionado
apati
apatman
apatow
ape
apepre
apeti
apfel
apfelglu
apg
apgaan
apguen
apguenhein
apguenllein
api
aplikasyon
aplike
apo
apocalypse
apolline
apollo
apollon
apolo
aponte
apostolik
appa
apparences
apparition
appartement
appartient
appel
appelait
appelez
appelle
apple
appleton
application
applications
applique
appou
appre
apprederis
apprendre
apprenti
apprentis
apprentissage
apprivoise
approach
approche
appui
aprann
apranti
aprantisaj
apre
aprei
aprendiendo
apresye
april
apted
apuesta
apwo
apwoche
apwopriye
apwouve
apy
apye
aqui
aquiles
aquino
ar
ara
arab
arabe
arabesque
arabi
araceli
aracely
arago
aragon
araigne
araiza
aram
aran
arana
aranda
arango
aranje
aranjman
arap
arath
arau
araujo
aravena
arawak
arbale
arbessier
arbillot
arboleda
arbre
arbres
arbuckle
arc
arcadia
arcadio
arcady
arcand
arcara
arce
arcelia
archambault
arche
archer
archibald
archie
archime
archinard
archipel
architecte
archive
archived
archives
arcila
arco
arcos
arcy
ard
ardant
arde
arden
ardiente
arditi
ardouin
are
area
arellano
arena
arenal
arenas
arens
arestasyon
arestrup
arete
aretha
argent
argenteuil
argentina
argentino
argento
argos
argu
argyle
ari
ariadna
ariadne
arian
ariana
ariane
arianna
arias
arie
ariel
arielle
arismendi
aristide
aristiguieta
aristiza
aristo
aristocrates
aristote
aritmetik
arive
ariza
arizmendi
arizona
ark
arkansas
arlaud
arlene
arlequin
arles
arleth
arlette
arletty
arlington
arly
arma
arman
armand
armande
armando
armas
arme
armel
armelle
armenda
armendariz
armenteros
armes
armoire
arms
armstrong
army
arn
arnal
arnaldo
arnaud
arnauld
arne
arno
arnold
arnoldo
arnoul
arnoux
arnulfo
aroldo
aroostook
around
arozamena
arpi
arquette
arrangement
arre
arredondo
arriaga
arriba
arrie
arrieta
arrive
arrondies
arrondissement
arrondit
arrow
arroyo
arse
arsenal
arsenio
art
artagnan
artaud
arte
arteaga
artemio
arthur
arthuys
article
articles
artificial
artik
artist
artista
artiste
artistes
artistique
artists
artois
arts
artur
arturo
artus
arvidson
ary
as
asalto
asanble
asanse
asante
asantewaa
asasen
asasina
asasine
asasinen
asbury
ascanio
ascaride
ascenseur
ascension
asdru
ase
asepte
asesinas
asesino
asesinos
ash
ashanti
asher
ashes
ashford
ashland
ashley
ashton
asi
asia
asid
asiento
asirans
asire
asistan
asistans
asistant
asiste
ask
asmara
asosiyasyon
asosyasyon
asosye
aspe
aspects
asphalte
ass
assa
assane
assassin
assassinat
assassination
assassine
assassines
assassins
assault
assaut
assayas
asselin
assemble
asseu
assistance
assistant
assistante
associated
association
associe
assous
asta
aste
asteraceæ
astier
astorga
astrid
astruc
astudillo
astwono
astwonomi
asu
asuncio
aswe
asye
asylum
at
ata
atache
atak
atakan
atake
atansyon
ate
atelier
ateliers
atelye
atenn
ateri
aterisaj
ateur
athe
athena
athens
athie
atho
atifisye
atik
atika
atikilasyon
atilio
ation
atire
atis
atistik
atitid
atizan
atizay
atkine
atkins
atkinson
atlan
atlanta
atlantic
atlantide
atlantik
atlantique
atlantis
atlas
atle
atmen
atmosfe
atmosferik
ato
atomic
atomik
atout
atraksyon
atrapada
atrave
atre
atribiye
atrice
ats
attache
attack
attal
attaque
attenborough
attend
attendant
attendra
attendre
attentat
attente
attention
attia
attica
attila
attorney
attraction
attrape
atures
atwood
au
aube
auber
auberge
aubergiste
aubert
aubier
aubrac
aubrey
aubry
auburn
auburtin
auclair
aucun
aucune
aud
aude
audiard
audience
audio
audran
audrey
audry
audubon
auer
auf
auge
auger
august
augusta
auguste
augustin
augustine
augusto
augustus
aujourd
aumont
aunque
aura
aurais
aurait
aure
aurel
aurelia
aurelio
aurora
aurore
aurouet
aus
ausgemusterte
aussi
aussoy
austerlitz
austin
australia
autant
aute
auteuil
auteur
auteurs
author
authors
auto
automne
automobile
autopsie
autorite
autoroute
autour
autre
autrement
autres
autriche
autumn
auvergne
aux
auzel
av
ava
avaient
avais
avait
avalon
avan
avance
avanse
avant
avantaj
avanti
avare
avatar
avati
ave
avec
avek
avelar
avellaneda
aven
avendan
avengers
avenir
aventura
aventuras
aventure
aventurera
aventures
aventurie
aventurier
aventuriers
avenue
averal
averty
avery
aveu
aveugle
aveugles
aveux
avez
avi
aviator
avignon
avila
avion
avis
aviv
avni
avoca
avocat
avocats
avoir
avoka
avokat
avon
avons
avril
avyon
awa
awakening
award
awards
away
awayi
awful
awondisman
axel
axelle
ay
aya
ayadi
ayala
ayant
aycardi
ayd
ayer
ayerye
ayeryen
ayewopo
ayisye
ayisyen
ayiti
ayli
ayme
aymeric
ayos
ayudan
az
azad
azai
azar
azca
aze
azela
azevedo
azi
azil
aziz
aziza
aznavour
azo
azor
azoulay
azteca
azu
azucena
azuela
azuelos
azul
azur
azyatik
azzeddine
b
ba
baal
bab
baba
babas
babe
babel
babette
babiney
babluani
babou
baby
babye
babylon
babylone
babysitting
bac
bach
bachelor
bachir
back
background
backstage
bacon
bacri
bactrocera
bad
badel
baden
badger
badie
badin
bado
bae
baegail
baegayi
baek
baena
baer
baez
baffie
bag
bagarre
bagay
bagdad
bagdadi
bagel
bages
bagne
bagnole
bago
bah
bahamas
bahia
bahloul
bahut
bai
baie
bail
baila
bailando
baile
bailey
bailliu
bailly
baily
bain
bainbridge
bains
baird
baire
baiser
baisers
baja
bajo
bak
bakaba
bakaloreya
bakary
baker
bakhita
bako
bakteri
baky
bal
bala
balada
balade
balaguer
balance
balans
balanse
balasko
balbi
balbo
balboa
balcon
baldi
baldomero
balducci
baldwin
bale
baledo
baleine
balekdjian
balibar
balise
balises
balistrad
baliz
ball
balla
ballad
ballade
ballard
balle
balles
ballesteros
ballet
ballon
balmaceda
balmer
balmori
balsan
baltasar
baltazar
balthazar
baltimore
balvanera
balza
balzac
balzaretti
bamako
baman
bamann
bamba
bambara
bambi
bambino
bambou
ban
bana
banana
banane
banc
banco
bancroft
bancs
band
banda
bande
bandera
banderas
bandes
bandi
bandida
bandidas
bandidos
bandit
bandits
bang
bangkok
banglade
bank
banke
bankole
banks
bankye
banlieue
bann
bannann
banne
banner
bannier
banque
banquells
banquet
banquie
bantou
baobab
baoruco
bapte
baptista
baptiste
baquet
bar
bara
barack
baracoa
barade
barahona
baraj
baraka
barata
baratier
barba
barbara
barbare
barbares
barbe
barbecue
barber
barberi
barberis
barbershop
barbet
barbichette
barbie
barbier
barbosa
barboza
barbule
barca
barcelona
barcelone
barclay
barco
bard
bardem
bardot
bare
barek
barge
barikad
barka
barker
barlow
barma
barman
barnabe
barnaby
barnard
barnes
barnett
barney
barny
baro
baron
barona
baroncelli
baronne
baroux
barquement
barr
barraga
barrage
barral
barras
barrat
barratier
barraud
barrault
barraza
barre
barreiro
barrera
barret
barreto
barrett
barrie
barrientos
barrier
barriga
barrington
barrio
barrios
barro
barrois
barron
barros
barroso
barry
barrymore
barsacq
bart
barthe
bartleby
bartlett
bartoli
bartolo
bartolome
barton
bary
barye
barzman
bas
basa
basan
bascule
base
baseball
based
basel
baselo
basen
basic
basil
basile
basilio
basis
bask
baske
basketball
basle
basler
basque
bass
basse
bassek
bassett
bassin
basta
bastia
bastid
bastidas
bastide
bastien
bastille
basurto
bat
bataille
batalla
batay
bate
bateau
bates
batey
bath
bati
batignole
batiman
batis
batista
batiste
batize
batman
bato
baton
batraville
batri
bats
battant
battement
battent
battery
battiato
battle
bauchau
bauche
baud
baudelaire
baudouin
baudry
bauer
baum
baumann
baur
bautista
bava
bavure
bawo
bawon
baxter
bay
baya
bayala
bayard
bayardo
baye
bayfield
bayidjan
bayili
bayona
bayonne
bayou
baz
baza
bazar
baze
bazile
bazin
bb
bbc
bc
be
bea
beach
bean
bear
beas
beast
beat
beatrice
beatriz
beatty
beau
beaubrun
beauchamp
beaucoup
beaudin
beaudoin
beaufort
beaulieu
beaumarchais
beaumont
beaune
beauregard
beausson
beaute
beautiful
beauty
beauvais
beauvoir
beauvois
beaux
beaver
beba
bebe
bec
became
because
becerra
becerril
beck
becker
beckett
becky
become
becomes
bed
bedford
bedia
bedos
bedoya
bee
beecher
beef
been
beenie
beer
beethova
beethoven
before
beginning
begins
begon
behind
bei
beigbeder
beigel
beineix
being
beizwein
bejarano
bejo
bekhti
bekolo
bel
bela
belai
bele
belge
belgique
belgium
belgrade
belhomme
believe
belin
belinda
beliz
belkacem
belknap
bell
bella
bellac
bellamy
bellanger
belle
bellegarde
belles
belleville
bellevue
belleza
bellezas
bello
bellocchio
bellon
bellone
bells
belly
belmondo
belmont
belmonte
belot
beloved
below
belphe
beltra
belvaux
belvidere
ben
benamou
benavides
benayoun
benchetrit
bend
bendita
bene
benedek
benedetta
benedetti
benedico
benedict
benefis
benefisye
benen
benes
benet
benglia
benguigui
beni
benicio
benigno
beninwa
benita
benito
benjami
benjamin
benji
benjumea
bennet
bennett
bennington
benny
benoi
benoin
benoist
benoit
bensalah
benson
bensoussan
bent
bentley
bento
benton
benyen
benz
benzaquen
ber
berbe
berberian
berceau
bercot
berenice
berenson
beres
beresford
berg
berge
bergen
berger
bergerac
bergeron
bergman
berista
beristain
berkeley
berlanga
berle
berlin
berliner
berling
berlioz
berman
bermu
bern
bernabe
bernadette
bernal
bernard
bernarda
bernardi
bernardino
bernardo
bernardos
bernd
berndt
berne
bernhard
bernhardt
bernheim
bernice
bernie
bernier
bernstein
berny
berri
berrocal
berroyer
berry
bert
berta
berteloot
bertha
berthaud
berthe
berthier
berthillot
berthomieu
bertie
bertin
bertini
berto
bertolt
bertolucci
berton
bertot
bertram
bertrand
bertuccelli
berwick
bes
besanc
besco
bescond
bese
besnard
besnehard
beso
besoin
besos
bess
bessie
besson
best
besta
bestia
bestias
bet
beta
betancourt
betbeder
bete
beth
bethany
bethel
bethke
bethlehem
beti
beto
betrayed
betsy
bette
better
bettina
betty
between
beur
beurre
beuze
beverly
bey
beyonce
beyond
bezace
bezanc
bezbo
bezwen
bfmtv
bi
bia
biaggio
bianca
bianchi
bianco
biassou
bib
bibal
bibcode
bibelot
bibi
bibiana
bible
biblik
bibliographie
bibliothe
bibliyote
bice
bicentenaire
bichir
bickerton
bicyclette
bid
bidasses
bideau
bidegain
bidje
bidon
bidonvil
bie
bieber
biedermann
bien
bienamado
bienheureux
biens
biento
bienvenida
bienvenu
bienvenue
bier
bierry
biette
big
bigelow
bigger
biggs
bihan
bijou
bijoutye
bijoux
bikini
bil
bilal
bilan
bilateral
bilding
bileng
bilgari
bilingual
bilingue
bilingues
bill
billancourt
billard
billboard
bille
billerey
billes
billet
billie
billings
billion
billon
billy
bilten
bin
binder
bine
binet
bing
bingen
bingham
bingo
binh
binisti
binoche
binta
bintou
bio
biodiversity
biografi
biographie
biographique
biography
biolay
bir
biras
biraud
birch
bird
birds
birkin
birmingham
birth
birthday
bis
bisciglia
bisektil
bishop
bisikle
bismarck
bison
bissainthe
bisson
bistro
bistrot
bistwo
bit
bite
bites
bitter
bitton
bivel
biwo
biye
biyodive
biyografi
biyografik
biyoloji
biyolojik
bizet
biznis
biznisman
biznismann
bjo
blache
black
blackburn
blacklist
blackout
blackton
blackwell
blade
blage
blague
blain
blaine
blair
blaise
blake
blame
blan
blanc
blanca
blancan
blancard
blanch
blanchar
blanchard
blanche
blanches
blanchet
blanchette
blanchot
blanco
blancos
blancs
blandine
blando
blank
blanquita
blanquizal
blanquizar
blas
blasband
blasetti
blaze
ble
blese
blesi
blesse
blessures
bleu
bleue
bleues
bleus
blica
blier
blin
blind
bliss
bliste
bliye
blo
bloch
block
blog
blokaj
bloke
blon
bloncourt
blond
blonde
blondeau
blondedy
blondel
blondes
blondy
blood
bloody
bloom
bloomfield
blooming
bloomingdale
bloomington
bloque
blossier
blot
blount
blow
blu
blue
blueberry
blues
bluff
bluffs
blum
blume
bluwal
bnf
bo
board
boardwalk
boat
bob
bobbie
bobby
bobigny
bobin
bobo
bobodiouf
bobollywood
boca
bocas
boda
bodas
bodega
bodin
body
bodyguard
boeing
bofre
bogart
bogdanovich
boggs
bogota
bohe
bohiri
boho
bohringer
boi
boileau
boiling
boire
bois
boisrond
boisselier
boisset
boissol
boisson
boist
boisvert
boit
boiteux
boivin
bok
bokma
bokse
bol
bolan
boland
bold
boli
bolivar
bolivi
bolloc
bolo
bolognini
bolt
bolton
bolva
bom
bomb
bombe
bomin
bompiani
bon
bona
bonamy
bonanza
bonaparte
bonaventura
bonaventure
bonavides
bonbon
bond
bondy
bondye
bone
bonello
bones
bonet
bonfiglio
bong
bonheur
bonheurs
bonhomme
boni
boniface
bonifacio
bonilla
bonita
bonito
bonitzer
bonjou
bonjour
bonm
bonn
bonnaffe
bonnaire
bonnard
bonnardot
bonne
bonnel
bonnell
bonnes
bonnet
bonnie
bonnot
bono
bons
bonsoir
bonte
bontemps
bontzolakis
bonus
bonvoisin
boogie
book
booker
books
boom
boomerang
boon
boone
boorman
boot
booth
bope
bora
borah
boramy
bord
borda
borde
bordeaux
bordel
borden
border
borderie
bordes
bordier
bordo
bore
borel
borelli
borg
borges
borghese
borgia
borgne
boris
borja
born
borne
borno
borowczyk
borrascosas
borrego
borrero
borsalino
borzage
bosch
bosco
bosque
boss
bossa
bossu
boston
bosworth
botanique
bote
botero
both
botswanga
bottes
bottle
bottom
bouaney
bouanich
boubacar
boubakar
bouboule
bouch
bouchaala
bouchard
bouchareb
bouche
boucher
bouchereau
bouches
bouchez
bouchitey
bouchon
bouchot
bouchy
boudali
boudape
boudet
boudis
boudu
boue
bouf
bouffe
bouffes
bouge
bougon
bouhnik
bouillaud
bouillette
bouillon
bouise
boujenah
boujwa
boujwaz
bouk
boukan
bouke
boukhrief
bouki
boukinabe
boukinafaso
boukman
boul
boulanger
boulanje
boulder
boule
boulet
boulevard
bouli
boulogne
boulot
boulve
boum
bound
bounty
bouquet
bourbon
bourboulon
bourdet
bourdiaux
bourdieu
bourdon
bourdos
bourg
bourgeois
bourgeoises
bourges
bourgogne
bourgoin
bourguignon
bourik
bourjolly
bourlem
bourne
bourreau
bourse
bourseiller
boursinhac
bourvil
bous
bousquet
bout
bouta
boute
bouteille
boutel
boutik
boutique
bouton
boutons
boutron
bouvard
bouvet
bouvier
bouyi
bouyon
bouzid
bovary
bow
bowen
bowers
bowling
bowman
box
boxer
boxing
boy
boyce
boyd
boyega
boyer
boyle
boys
boyz
boza
bozon
br
bra
brabant
brac
bracamontes
bracelet
bracelets
brach
bracho
braconnier
bracy
brad
braddock
bradford
bradley
bradshaw
brady
braga
bragaglia
brahim
brahima
brahms
braise
bral
branagh
branch
branche
brand
brando
brandon
brandstro
brandt
braoude
braquage
braque
braquo
brard
bras
brase
brasil
brasri
brass
brasseur
braulio
braun
brava
brave
braves
bravi
bravo
bray
brayan
brazil
brazos
bre
break
breakfast
breaking
breath
breau
brecht
breckenridge
breed
bref
breillat
breitman
brel
bremen
brenda
brendan
brennan
brenner
brenon
brent
brentwood
bres
bresson
brest
bret
bretagne
bretay
breto
breton
brett
breve
brewer
brewster
brezil
brezilye
brezilyen
bri
brialy
brian
brianc
brice
bricen
brick
brickman
bricoleurs
bride
bridge
bridgeport
bridges
bridget
bridgewater
brie
brief
brien
brierre
brieux
brigad
brigade
brigades
brigadier
brigadye
brigand
brigands
briggs
bright
brighton
brigitte
brikse
brillantissime
brillas
brille
bring
bringing
brion
briques
briquet
brisa
brise
brisen
brisseau
brisson
bristol
britain
brital
britanik
britannica
british
brito
brittany
briyan
brizard
brize
brizzi
broadcasting
broadway
broca
brocante
brocard
brochard
broche
brock
broderick
brody
broken
bromberger
brondolo
bronson
bronte
bronx
bronze
brook
brooke
brookfield
brookline
brooklyn
brooks
brooksville
brookville
broome
bros
brossard
brosset
brother
brothers
brouard
broue
brouillard
brousse
broute
brown
browning
brownsville
bru
bruce
bruel
bruit
bruja
brujas
brujo
brume
brumes
brun
bruna
brunard
brune
bruneau
brunel
brunet
bruni
bruno
brunswick
brus
brutas
brute
brutus
bruxelles
bruye
bryan
bryant
bryce
bseri
bu
bubble
buch
buchanan
buchet
bucio
buck
buckingham
buckland
buckley
bud
buda
budapest
buddy
buel
buen
buena
buenaventura
buenavista
buendi
buenfil
bueno
buenos
buenrostro
buffalo
buffet
buffy
bug
bugette
bugsy
buhr
building
built
buisson
buitrago
bull
bulle
bullet
bulletin
bullock
bum
bun
bunch
bunel
bunker
bunny
bunuel
buquet
burbank
burden
bureau
bureloup
buren
burger
burgess
burglar
burgo
burgos
burguet
buriez
burke
burkina
burlington
burma
burn
burnett
burnham
burning
burns
buron
burr
burrows
burt
burton
bus
busca
buscando
bush
bushman
bushnell
business
busquets
bussie
bustamante
buster
bustillo
bustos
but
butch
butcher
buteau
butler
buts
butte
butterfly
button
buzz
bv
bwa
bwason
bwat
bwe
bwo
bwonz
by
bye
byen
byenke
byenne
byento
byografi
byolojik
byrne
byron
byun
bœuf
c
ca
cab
caballe
caballero
caballeros
caballo
caban
cabanne
cabanon
cabaret
cabello
cabeza
cabezas
cabin
cabinet
cabo
cabot
cabral
cabrales
cabrera
cacao
cache
cachemire
cacher
cachero
cachito
cacho
cachu
cacique
cactus
cada
cadavid
cadavre
cadavres
cade
cadeau
cadena
cadenas
cadenatres
cadence
cadet
cadillac
cadix
cadiz
cadre
caen
caer
caesar
cafe
cafetal
cafiero
cage
cahier
cahiers
cahill
cai
caicedo
caicos
caillard
caille
caima
caimito
cain
caine
caire
cairo
caisse
caissie
caitlin
caja
cake
cal
calabazar
calais
calamy
calbe
caldero
calderon
caldwell
cale
caleb
caledonia
calef
calera
calero
calhoun
cali
calibre
caliente
california
calino
calixte
calixto
call
callahan
callamos
callao
callas
calle
called
calleja
callejas
callejo
calles
callie
calloway
calls
calme
calmos
calumet
calva
calvaire
calvario
calvert
calvet
calvin
calvo
calypso
calzada
cam
cama
camacho
camagu
camaguey
camajuani
camaleones
camara
camarades
camargo
camargue
camarones
cambiar
cambio
cambria
cambridge
cambrioleur
camden
came
camejo
camelia
cameo
camera
camerini
cameron
cameroon
cameroun
camerounaise
camil
camila
camilla
camille
camillo
camilo
camino
caminos
camion
camisards
cammage
camp
campa
campagne
campagnes
campan
campana
campanile
campanita
campbell
campeo
campeones
campero
campillo
camping
campion
campo
campomanes
campos
campus
campuzano
camus
can
cana
canaan
canada
canadian
canaille
canailles
canal
canale
canales
canalrcn
canape
canard
canary
cancer
cancio
canciones
candace
candela
candelaria
candelier
candice
candidat
candidata
candidate
candidato
candide
candy
cane
canela
canelo
canet
caney
canicule
canique
canne
cannes
cannon
cano
canon
canonge
canovas
canta
cantando
cantante
cantave
cantet
cantinflas
cantique
canto
canton
cantor
cantoral
cantu
canyon
cao
caoba
caos
cap
capadocia
cape
capellani
capetillo
capi
capiro
capita
capitaine
capital
capitale
capitan
capitani
capitaux
capitol
capo
capois
capone
caporal
capote
cappoix
caprice
caprices
capricho
capt
captain
captive
capucine
capulina
caputo
car
cara
caracas
caracol
caracoltv
caracte
carai
caraibes
caramelos
carapate
caras
caravaca
caravane
carax
carbajal
carbo
carbon
carbone
carbonell
carbonnaux
carcan
carcassonne
carce
card
carda
carden
cardenas
cardi
cardinal
cardinale
cardona
cardoso
cardozo
cards
care
career
carel
carewe
carey
cargo
caribbean
caribe
caricom
caridad
carimi
carina
carine
carion
carita
carl
carla
carlate
carle
carleton
carlin
carlisle
carlito
carlitos
carlo
carlos
carlota
carlotta
carlton
carly
carlyle
carme
carmel
carmela
carmelita
carmelo
carmen
carmencita
carmenza
carmet
carmichael
carmina
carmine
carmona
carnahan
carnaval
carne
carnegie
carnet
carnets
carney
carnival
caro
caroit
carol
carola
carole
carolina
caroline
carolyn
caron
carotte
carottes
carpenter
carpentier
carpi
carr
carranza
carrasco
carre
carrefour
carrel
carren
carrera
carreras
carrie
carrier
carrillo
carrington
carrio
carroll
carrollton
carron
carruaje
carrusel
cars
carson
cart
cartagena
cartas
carte
cartel
carter
cartes
carthage
cartier
carton
cartouche
caruso
carvajal
carvalho
carver
cary
cas
casa
casabianca
casablanca
casadesus
casado
casados
casal
casanova
casar
casaril
casarse
casas
casasola
casbah
cascade
case
caserini
caserio
cases
casey
cash
casi
casilda
casillas
casimir
casimiro
casino
caso
casos
casque
cass
cassagnol
cassamajor
cassandra
cassandre
cassard
cassavetes
casse
cassel
cassenti
casser
casseus
cassidi
cassidy
cassie
cassin
cassine
cast
casta
castagnetti
castaldi
castan
castel
castell
castella
castellani
castellano
castellanos
castelli
castello
castelo
castera
castile
castilla
castille
castillo
casting
castle
castor
castro
casualidad
casualty
cat
cata
catala
catalina
catalogue
catan
catarina
catastrophe
catch
cate
category
caterina
cathe
catherine
catholic
catholique
cathy
cato
caton
cator
cats
cattani
cattaraugus
cauchemar
cauchy
caudillos
cauduro
caught
caunes
causa
cause
causes
causse
cautiva
cautivo
cauto
cauvin
cavalcade
cavalcanti
cavale
cavalier
cavaliers
cavaye
cavazos
cave
caverne
caves
caviar
cay
cayatte
cayenne
cayes
cayetano
cayo
cayos
cayuga
cazador
cazeau
cazenave
cazeneuve
cbc
cbs
cc
cd
cdc
cdot
ce
ceballos
ceccaldi
ceci
cecil
cecile
cecilia
cedar
ceden
cedric
cedro
ceiba
cela
celaya
celebrity
celeste
celestin
celia
celina
celine
celle
celles
cellier
cellule
celso
celui
cembre
cemetery
cena
cendres
cendrillon
cenizas
census
cent
centauro
centennial
centeno
center
centers
centerville
central
centrale
centralia
centre
centro
cents
century
cepeda
ception
ceptionniste
cerca
cercle
cerda
ceres
cerf
cerisaie
cerise
cerises
cern
cero
cerro
certain
certaines
certains
cervantes
cerveau
cervi
ces
cesar
cesare
cessaire
cet
cette
ceux
cf
ch
cha
chaa
chabat
chabela
chabert
chabi
chabon
chabrier
chabrol
chacal
chacala
chacao
chache
chachita
chaco
chacun
chad
chadonye
chadwick
chae
chafaud
chagrin
chahbi
chahine
chai
chaillot
chain
chair
chaj
chaje
chak
chaka
chal
chale
chalet
chaleur
challenge
chalonge
cham
chamberlain
chambers
chambon
chamborant
chambord
chambre
chameau
chammah
chamois
chamoiseau
chamorro
champ
champagne
champion
champions
champreux
champs
chan
chanas
chance
chancy
chandelle
chandler
chandra
chane
chanel
chaney
chang
change
changement
changer
changes
chanj
chanje
chanjman
chanm
channel
channing
chanois
chanpiyon
chanpyon
chanpyona
chans
chanselye
chanson
chansons
chant
chantal
chantant
chante
chantent
chanter
chanteur
chanteuse
chantier
chants
chantye
chao
chaos
chapa
chaparro
chape
chapeau
chapeaux
chapel
chapelle
chaperon
chapiron
chapit
chapitre
chaplin
chapman
chapo
chapot
chappe
chappey
chapter
chapuis
chaque
char
character
charco
chard
charef
charente
charge
charhon
charite
charito
charity
charle
charlemagne
charlene
charles
charleston
charley
charlie
charlier
charline
charlot
charlots
charlotte
charlton
charly
charm
charmant
charme
charmed
charo
charon
charpentier
charrie
charrier
charro
chart
chartreuse
charts
chas
chase
chasing
chassagne
chasse
chasseur
chasseurs
chat
chata
chateau
chateaubriand
chatel
chatelais
chatham
chatiliez
chato
chatouilles
chats
chatte
chau
chaud
chaude
chauffeur
chaumeau
chaumeil
chaumette
chaussure
chautauqua
chauvaud
chauve
chauveau
chauveron
chauvet
chauvin
chava
chavannes
chavero
chaves
chavez
chay
chayo
chazel
che
chec
checa
check
checs
chedid
cheese
chef
chefs
cheick
cheik
cheikh
chela
chelle
chelo
chelsea
chema
chemen
chemin
cheminal
chemins
chemise
chemistry
chemla
chemung
chen
chenal
chenango
cheney
cheng
chenn
chente
cheo
chepe
cher
cherche
chercheur
cherchez
cherchi
cheri
cherif
cherokee
cherry
chers
chery
cheryl
ches
cheshire
chesnais
chester
chesterfield
chet
chette
cheur
cheval
chevalier
chevaliers
chevallier
chevalye
chevaux
cheve
cheveux
chevit
chevrier
cheyenne
chez
chi
chiara
chibane
chic
chica
chicago
chicas
chiche
chick
chicken
chico
chicos
chicot
chics
chief
chien
chiens
chif
chiffon
chiffre
chihuahua
chikago
child
childhood
children
chile
chili
chilye
chilyen
chimaras
chime
chimen
chimi
chimik
chimis
chimyoterapi
chin
china
chine
chinese
chino
chinois
chinoise
chinwa
chinwaz
chip
chippewa
chips
chirac
chire
chirijikal
chirijyen
chirino
chirure
chispita
chit
chita
chitl
chittenden
chivo
chloe
cho
choc
chocarro
chocolat
chocolate
chodye
chofe
chofer
choi
choice
choisi
choisis
choix
chole
cholera
cholo
chomaj
chomette
chomsky
chong
chony
chopin
choquette
choristes
chorus
chose
choses
chotin
chou
chouans
chouchan
chouchou
choucoune
choudens
chouraqui
choux
chre
chris
christ
christa
christelle
christensen
christian
christiane
christie
christina
christine
christmas
christoph
christophe
christopher
christy
chronicles
chronique
chroniques
chrono
chrysalis
chrystie
chu
chucho
chuck
chul
chula
chun
chung
church
churchill
chut
chute
chuy
chwa
chwal
chwazi
chy
chyen
chœur
ci
cia
cial
ciale
ciales
cialise
ciampi
cianci
ciangherotti
ciani
ciao
ciaux
cible
cicatrice
cicatrices
cicero
cid
cidihca
cie
ciega
ciegas
ciego
ciel
cielo
cielos
cien
cienfuegos
cif
cifuentes
cigarette
cigarettes
cigognes
cil
cile
cilia
cimarro
cimetie
cincinnati
cincinnatus
cinco
cinderella
cindy
cine
cinema
cinq
cinquante
cinquie
cinta
cinthia
cio
ciocchetti
cipriano
circe
circle
circo
circuit
circus
cire
cirilo
ciro
cirque
cisneros
cisse
cisterne
cit
cita
citadel
citadelle
citant
citation
cite
cities
citizen
citoyen
citoyens
citrus
cits
citta
citti
city
ciudad
civanyan
civeyrac
civil
civile
civilisation
civilization
ck
cl
cla
clair
claire
clairs
claisse
clami
clan
clancy
clandestin
clap
claquettes
clara
claration
clare
claremont
clarence
clarendon
clarer
clarisa
clarissa
clarisse
clarita
clark
clarke
clarks
clarkson
clarksville
claro
clary
clase
clash
class
classe
classes
classic
classics
classique
classiques
clat
claude
claudel
claudette
claudia
claudie
claudine
claudio
claudius
claus
clavel
claverie
clavier
clay
clayton
cle
clean
cleaner
clear
clef
clefs
clem
clemenceau
clemencia
clement
clemente
clementina
clements
cleo
cleopatra
cleotilde
clerk
clermont
cles
cleveland
cleven
clichy
client
cliente
cliff
clifford
clifton
climax
clin
clinical
clinique
clint
clinton
clio
clip
clive
clo
cloak
clochard
cloche
clock
cloclo
clon
clone
clooney
clos
close
closed
closer
clotaire
clothilde
clotilde
cloud
clouds
cloue
clouzot
clovis
clown
clowns
club
cluzet
clyde
cm
cnn
cnrs
co
coach
coahuila
coal
coast
cobarde
cobb
cobo
cobos
cobra
cobre
coca
cocal
coccinelle
coce
cochet
cochon
cochons
cochran
cocktail
coco
coconut
cocos
cocteau
cocu
code
codeswitching
cody
coen
coesens
coeur
coffee
coffey
coffre
coffret
cogan
coggio
cogitore
cohen
cohn
coi
coicou
coiffeur
coiffeuse
coiffure
coin
cois
col
cola
colas
colbeau
colbert
colby
cold
coldefy
cole
coleman
coles
colette
colfax
coli
coliers
colin
colina
coline
colinot
coll
colla
collaboration
collar
collard
colle
collectif
collection
collective
collector
colleen
college
collet
collette
collier
collin
colline
collines
collins
collision
colloque
colmenar
colmenares
colo
coloma
colomb
colomba
colombani
colombe
colombia
colombiana
colombier
colombo
colon
colonel
colonia
colonial
coloniale
colonie
colonies
colonna
colonnes
colony
color
colorada
colorado
colorina
colors
colpi
colt
colton
colucci
coluche
columba
columbia
columbiana
columbo
columbus
colunga
com
coma
comanche
comandante
comando
combat
combate
combats
combien
combine
combo
combret
come
comedia
comedy
comencini
comes
comic
coming
comique
comisario
comite
command
commandant
commandement
commandements
commander
commandeur
commando
comme
commence
comment
commentaire
commerce
commercial
commis
commissaire
commissariat
commission
committee
common
commons
commun
communaute
commune
communes
communication
communications
community
como
compadre
compagnie
compagnon
compagnons
compan
compane
companeez
companion
company
compaore
comparative
compare
compartiment
compas
compe
comple
complete
complex
complexe
complices
complot
compose
composition
comprado
comprend
comprendre
compris
compro
compte
comptes
comptoir
compton
computer
computing
comte
comtesse
comunicacio
con
conan
concacaf
concebido
concepcio
concept
conception
concert
concerto
concha
conchita
concierge
concord
concordia
concours
condamne
conde
condesa
condition
conditions
condominio
condon
condroyer
conduite
coney
confe
conference
confesio
confession
confessions
confiance
confiant
confidences
confidente
confidential
confirme
confirmed
confirms
conflict
conflit
conforte
confre
confusion
congo
congre
congress
conjonction
conjugal
conjugale
conklin
conmigo
connai
connaissance
connecticut
connection
connell
connelly
connexion
connie
connor
connu
conoce
conoci
conomie
conomique
conomiques
conque
conquest
conrad
conrado
conroy
cons
conscience
conse
conseil
conseiller
consejo
conservatoire
conside
consigny
conspiracy
constable
constance
constancia
constant
constantin
constantine
constantino
constanza
constitucio
constitution
construction
consuelo
consul
consulte
contact
contagion
conte
contemporain
contemporaine
contemporary
contenant
content
contes
contest
conti
contigo
continent
continental
continents
continue
continues
contra
contrainte
contraire
contraires
contrat
contrato
contre
contreras
contribution
contro
control
conuco
convention
conversation
conversations
conversi
conviction
convoi
convoyeur
conway
cook
cookie
cool
coolidge
coombs
coope
cooper
cooperation
cop
copa
copacabana
copain
copains
copie
copine
copines
coplan
copper
copperfield
coppola
cops
coq
cor
cora
corac
corail
coraje
coral
coralie
corazo
corazones
corbeau
corbetre
corbett
corbiau
corbin
corbucci
corcuera
corde
cordelia
cordero
cordes
cordiale
cordier
cordoue
cordova
cordy
core
corentin
corey
corina
corinne
corinth
coriolan
corleone
cormoran
corn
corne
corneau
corneille
cornelia
cornelius
cornell
corner
cornillac
corning
cornish
cornouaille
cornuau
cornwall
corojal
corojo
coromoto
corona
coronado
coronavirus
coronel
coronela
corp
corporation
corps
corpus
corrado
corral
corrales
corralillo
corre
correa
correia
correo
corres
correspondance
correspondante
corrida
corrigan
corruption
corsaire
corse
corsini
corso
corta
corte
cortes
cortex
cortez
corti
cortland
corto
cory
cosa
cosas
cosby
cosce
cosi
cosita
cosma
cosme
cosmoglotta
cosmos
cosse
cost
costa
costantini
costas
coste
costello
coster
cot
cote
cotillard
cottafavi
cottage
cottin
cotton
cottonwood
cou
couchard
couderc
couffin
could
coule
couleur
couleurs
coulibaly
coulin
coulisses
couloirs
coulter
council
count
countess
countries
country
county
coup
coupable
coupe
couple
couples
coups
coupures
cour
courage
couramment
courant
courau
courcel
courcol
courir
couronne
courrier
cours
course
court
courte
courteline
courtland
courtney
courtois
cousin
cousine
cousines
cousins
coutard
coute
couteau
couteaux
coutet
couton
coutteure
couture
couturier
couvelaire
couverte
couvertes
couvre
couzinet
cov
covadonga
covarrubias
cove
cover
covert
covid
covington
cow
cowan
coward
cowboy
cowboys
cowl
cox
coyote
cpi
cra
crab
crabe
crabes
crack
craig
cran
crane
craquer
crash
crauchet
cravate
craven
cravenne
crawford
crawley
crazy
cre
credo
creed
creek
creel
creighton
cremer
creo
creole
creoles
crescent
crespo
crest
cret
creton
crever
crew
cri
criada
cricket
crie
crim
crime
crimen
crimes
criminal
criminel
criminelle
criminelles
criminels
criollo
crire
cris
crise
crisis
crisp
cristal
cristi
cristia
cristian
cristiana
cristina
cristo
cristobal
crit
crite
crites
critical
critique
critiques
crits
criture
crivain
crivains
cro
crockett
crocodile
crocodiles
crois
croisade
croise
croisie
croix
cromwell
cronenberg
crook
crooked
croque
crosby
cross
crosse
crossing
crossroads
crow
crowd
crowe
crowley
crown
croze
crs
crucero
cruces
cruchot
cruel
cruise
crus
crusade
crusoe
cruz
cruzados
cruze
cry
crypte
crystal
cs
csi
ctor
ctv
cu
cual
cualquiera
cuando
cuanto
cuaro
cuartel
cuarto
cuatro
cuau
cuba
cuban
cubana
cubano
cubas
cube
cuca
cucaracha
cuche
cuco
cue
cuenca
cuenta
cuento
cuentos
cuero
cuerpo
cuervo
cuervos
cuesta
cueva
cuevas
cuidado
cuir
cuisine
cuisinier
cuisse
cukor
cul
cula
culkin
cullen
cullman
culotte
culpa
culpable
culpables
cultura
cultural
culture
culturel
culturelle
cultures
cumberland
cumbia
cumbres
cume
cumming
cummings
cumpson
cuna
cunningham
cuny
cuore
cup
cupid
cupidon
cuq
cura
cure
cureuil
curie
curiel
curite
curran
current
currie
curry
curse
curtelin
curtis
curtiz
curval
cusack
cushing
custer
custodia
cut
cution
cutler
cuyahoga
cuyer
cw
cy
cyborg
cycle
cyclone
cygne
cynthia
cyprien
cyr
cyrano
cyrielle
cyril
cyrille
cyrus
czajka
cæsalpiniaceæ
cœur
cœurs
d
da
dabo
dacia
dad
dada
daddy
dade
dadou
dae
daert
dagger
dagmar
dagoberto
dague
daguerre
dahan
daille
daily
daisy
dajabo
dajoux
daka
dakar
dako
dakota
dal
dalai
dalban
dale
dalembert
daley
dali
dalia
dalibert
dalida
dalila
dalilah
dalio
dallas
dalle
dallet
dalmacci
dalton
daly
dam
dama
damages
damant
damas
dame
dames
damia
damian
damiana
damiani
damiano
damien
damiens
damme
damne
damon
damou
dan
dana
danbury
dance
dancehall
dancer
dancing
dandin
dandridge
dandy
dane
danger
dangereuse
dangereuses
dangereux
dangerous
dani
danie
daniel
daniela
daniele
daniella
danielle
daniels
danilo
danis
danje
danjere
danmak
danna
danny
dano
dans
danse
danser
danseur
danseuse
dansite
dante
dantec
danticat
dantis
danton
danvers
danville
danwa
dany
danys
dao
daouda
daphne
dapre
daquin
dar
dara
darbon
darby
darc
darcy
dard
dardenne
dare
dari
darie
darien
dario
darius
dark
darke
darkest
darkness
darlan
darline
darling
darlington
darmon
darnell
daroy
darras
darraux
darrell
darren
darrieu
darrieux
darroussin
darrow
darry
darryl
dartiguenave
darwin
das
dash
dassin
dat
data
database
date
dates
dateurs
dating
dauchy
daughter
daughters
daumier
daunou
dauphin
davans
dave
davenport
david
davidson
davies
davila
davis
davison
davray
davy
dawley
dawn
dawout
dawson
dax
day
dayan
dayana
dayiti
daylight
days
dayton
dc
dchen
de
dea
deacon
dead
deadline
deadly
deadwood
deal
dealer
dean
dear
dearden
death
deaths
deauville
deba
debake
debann
debary
debate
debaz
debbie
debbouze
debi
debo
deborah
debout
debra
debt
debut
debwazman
dec
decatur
decaux
december
decente
deception
deche
decin
decine
decins
decision
decisiones
decker
declan
declaro
decoin
decoteau
decourt
dede
dediktiv
dedye
dee
deed
deep
deer
deerfield
defann
defans
defanse
defe
defense
deferre
defi
defiance
defile
defini
definisyon
definitif
definition
defo
defye
dega
degaje
degli
degradasyon
degraff
degrave
degre
dehors
dei
deirrye
deja
dejan
dejas
deje
dejean
dekalb
dekker
deklanche
deklarasyon
deklare
deko
dekole
dekonpoze
dekonpozisyon
dekorasyon
dekorate
dekouraje
dekouve
dekouvri
dekre
dekrete
dekri
del
dela
delacroix
delage
delahaye
delai
delamare
delambre
delaney
delannoy
delano
delaporte
delarive
delarue
delatour
delattre
delaunay
delaware
delbez
delcourt
dele
delegasyon
delege
delerme
deleuze
delfina
delfino
delgado
delgiudice
delhi
delia
deliba
delicias
delilah
delitto
delivre
dell
della
delle
delmar
delmas
delon
delorme
delpeyrat
delphine
delplanque
delpy
delrieux
delta
deluc
deluz
delva
delval
delvaux
dem
demain
demaison
demajagua
demand
demanda
demande
demange
demann
demasiado
dembe
dembo
demen
demenaje
demente
demetrio
demeure
demi
demia
demille
demisyon
demisyone
demme
democracy
demografi
demografik
demoiselle
demoiselles
demokrasi
demokrat
demokratik
demon
demongeot
demonio
demonstrasyon
demontre
demoustier
demy
den
deneuve
deniaud
denis
denise
denisot
denisse
denmark
denner
dennis
denny
denominasyon
denonse
dent
dental
dentelles
denton
dents
denver
denye
denys
denzel
depa
depandans
depann
depans
depanse
depardieu
department
depase
depasse
depatman
depatmantal
depe
depestre
depi
depite
deplase
deplasman
deplwaye
depo
depoze
depp
depresyon
depuis
der
derange
deranje
deray
derbez
derby
dercourt
derecho
derek
deris
derive
dernie
dernier
derniers
derrick
derrie
des
desafi
desagnat
desailly
desalin
desalmada
desamor
desandan
desanm
desann
desarthe
descamps
descanso
descarado
descas
desceindre
descend
descendants
descente
deschamps
desclous
desconocido
description
descriptive
desde
dese
deseada
desen
desencuentro
desengan
deseni
deseo
desert
desesperadas
desfontaines
deside
desierto
design
designer
desimal
desinate
desine
desir
desire
desiree
desizif
desizyon
desjardins
deskripsyon
deslauriers
desmarets
desmond
desmoulins
desnuda
despaux
desperate
despertar
desplechin
despue
desqueyroux
desrosie
desrosiers
dessalines
dessin
dessine
dessins
dessous
dessus
destiempo
destilando
destin
destinasyon
destination
destine
destino
destinos
destins
destiny
destriksyon
destruction
det
deta
detay
detaye
dete
detective
detectives
deteksyon
detekte
detektif
detektiv
detra
detre
detroit
dette
detwi
deuil
deutsch
deutschland
deux
deuxie
devaivre
deval
devan
devant
devaste
development
devenir
devenu
devereaux
devers
devient
devil
deville
devils
devine
deviz
devlin
devlo
devlope
devlopman
devni
devoir
devolde
devon
devos
devrait
devwa
dewaere
dewever
dewey
dewitt
dewolf
dexter
deye
deyo
dez
dezan
dezas
deze
dezenfeksyon
dezi
dezinye
deziyen
dezo
dezye
dgar
dhaene
dharma
dhe
di
dia
diabate
diabla
diable
diables
diablo
diabolique
diagne
diakite
diallo
dialo
dialogo
dialogue
dialogues
dialoguiste
diamant
diamante
diamantes
diamants
diamond
diamonds
diana
diane
diaries
diario
diarra
diary
dias
diaspora
diaste
diat
diavolo
diawara
diaye
diaz
dicale
dicaprio
dice
dich
diche
dicho
dicis
dick
dickens
dickie
dickinson
dickson
dico
dicos
dictator
dicte
diction
dictionary
dictionnaire
did
diderot
didi
didier
die
died
diefenthal
diego
dien
dienne
diens
dies
diesel
dieter
dieterle
dietrich
dieu
dieudonne
dieumerci
dieux
diez
dife
diferan
diferans
diferansye
diffe
difference
different
difficile
difficulte
diffuse
diffusion
difikilte
difisil
difize
difizyon
diga
digbeu
digicel
digital
dignite
digo
diguian
dihi
dijital
dijon
dik
dikian
diksyon
diksyone
diktate
diktati
dile
dilemma
dilettante
dillon
diluvio
dimanch
dimanche
dimanches
dimansyon
dimas
dimension
diminye
dimitri
dina
dinamik
dinasti
dinasyon
dinate
dindon
dine
dinero
dingo
dingue
dinner
dino
dinorah
dio
dioge
dion
dionisio
dionne
diop
dios
diosa
diouc
diouf
diplo
diplomasi
diplomat
diplomatik
diplomatique
diplome
dique
dir
dirab
dirai
dire
direct
directeur
direction
director
directora
directors
directrice
direksyon
direkte
direktris
diri
dirige
dirijan
dirije
dirk
dirt
dirty
dis
disaster
discipline
disco
discogs
discours
discovery
discre
discret
dise
disease
diseases
disen
disid
disip
disiplin
disk
diskisyon
diskite
diskografi
diskou
diskriminasyon
disney
disparai
dispare
disparisyon
disparition
disparitions
disparu
disparue
disparus
dispatch
displaystyle
disponib
dispozisyon
dispute
dissolue
distance
distans
distansyasyon
distenge
distenk
distenksyon
distrait
distri
distribisyon
distribite
distribiye
distribution
distribye
district
distrik
distrito
dit
dite
diterrane
dites
diteur
dith
dition
ditions
dito
ditou
dits
dium
diva
divalye
divan
dive
diven
divers
divertissement
divin
divina
divine
divinite
divino
division
divize
divizyon
divizyone
divo
divorce
divorcent
divwa
diwan
dix
dixie
dixon
diyite
dize
dj
djakout
djamel
djamila
django
djaz
dje
dji
djibouti
djibril
djo
dkda
dlo
dmytryk
dnl
do
doble
doc
doce
docks
docteur
doctor
doctora
doctors
document
documentaire
documentation
documents
dodge
doe
does
dofen
dog
dogs
doi
doigt
doigts
doillon
doinel
dois
doit
dokiman
dokimante
dokte
doktora
doktrin
dola
dolan
dolby
dolce
dolittle
doll
dollar
dollars
dolle
dolly
dolmen
dolo
dolor
dolore
dolores
dolos
dom
domaine
domaj
domaje
dombasle
dome
domenech
domeng
domenica
domenico
domestik
domestique
domi
domicile
dominan
dominasyon
domine
dominga
domingo
domingue
dominguez
dominic
dominicaine
dominican
dominici
dominik
dominika
dominikani
dominike
dominiken
dominique
domino
don
dona
donald
donaldson
donans
donate
donatien
donato
donc
donck
donde
dondon
done
donen
dong
doniol
donk
donn
donna
donnadieu
donnant
donne
donnell
donnelly
donner
donnez
donnie
donoso
donovan
dont
donzelli
doo
doom
door
dor
dora
dorado
doran
dorantes
dorce
dore
dorfeuille
doria
dorian
dorine
doris
dorle
dormael
dormant
dormir
dorotea
dorothe
dorothy
dors
dort
dorval
dory
dos
dosamantes
dossetti
dossier
dossiers
dostoi
dosye
dot
dote
dou
douala
douanes
douard
doub
doublage
doublaj
double
doubles
doublure
doubt
douce
doucet
douceur
douchand
douches
doudou
doue
doued
doueiri
douevan
doug
douge
douglas
doukoure
doule
douleur
douloure
doumbia
dounia
dous
dousman
dout
doute
doutey
douvan
doux
douz
douze
douzye
doval
dove
dover
down
doy
doyle
dp
dpe
dr
dra
drach
dracula
drage
drago
dragon
dragons
dragueur
drake
drale
dram
drama
dramatij
dramatik
dramatique
drame
draogo
drapeau
draper
drapo
dras
dray
dre
dread
dream
dreaming
dreams
drei
drenaj
dreoyt
dresden
dress
drew
drexel
dreyfus
dreyfuss
dric
dridi
dries
driez
drigeard
drimal
drink
driscoll
driss
drissa
drive
driver
dro
drogue
droit
droite
droits
dromadaire
drop
drot
drouet
drouot
drucker
drug
drugs
drummer
drummond
drunk
dry
ds
dtan
dtv
du
duane
duarte
dub
dublin
dubois
dubosc
dubost
dubourg
dubreuil
dubroux
duc
ducasse
ducastel
ducation
duccio
duchaussoy
duche
duchemin
duchesne
duchesse
ducis
duck
duclos
ducobu
ducournau
ducrest
ducteur
duction
duda
dudley
dudrumet
due
duel
duele
duelo
duen
duff
duffaut
dufilho
dufour
dufresne
dugain
dugan
dugowson
duguay
duhamel
duhour
duie
duiovan
duire
dujardin
duke
dulac
dulce
dule
dumarsais
dumas
dumb
dume
dumesle
dumont
dumoulin
dunbar
duncan
dundee
dune
dunham
dunia
dunlap
dunn
dunne
duo
duparc
duperey
dupeyro
dupeyron
dupieux
duplessis
dupont
dupontel
dupre
duprez
dupuis
dupuy
duque
duquesa
duquesne
dur
dura
duran
durand
durango
durant
duras
dure
duret
durfee
durham
durieux
during
duroc
durringer
durs
duse
dussaux
dussollier
dust
dustin
dutch
dutchess
duthilleul
dutronc
duty
duval
duvaleix
duvalier
duvall
duvauchelle
duverger
duvivier
dux
dvd
dwa
dwala
dwan
dwanye
dwat
dwayen
dwe
dwight
dwo
dwoge
dwyer
dyab
dyagnostik
dyagnostike
dyale
dyalo
dyalog
dyalogis
dyame
dyana
dyare
dyaspora
dye
dyer
dying
dyke
dylan
dynam
dynamite
dyo
dyodesimal
dyose
dyrek
e
each
eagle
eagles
earhart
earl
earle
early
earth
earthquake
earthquakes
east
eastman
easton
eastwood
easy
eat
eating
eaton
eau
eaux
eb
ebenezer
ebola
eboue
ebre
eca
ecas
echa
echanj
echanje
echantiyon
eche
echevarri
echeverri
echeverry
echo
echwe
ecker
eclipse
eco
ecole
economic
economy
ecuavisa
ed
eda
edad
eddie
eddy
ede
edelweiss
eden
edgar
edgard
edgardo
edge
edgerton
edgewater
edgewood
edi
edificio
edikasyon
edikate
edikatif
edikatris
edike
edilivre
edinburg
edison
edisyon
edite
edited
edith
edition
editions
editor
editorial
editoryal
edme
edmond
edmund
edmundo
edna
edner
edo
edouard
eds
edson
edu
eduard
eduardo
educa
educacio
educando
education
eduviges
edward
edwards
edwidge
edwige
edwin
edy
een
efase
efe
effect
effects
effenterre
effet
effets
effort
efikas
efikasite
efira
efo
efrai
egal
egalite
egalman
egan
egf
egg
egi
ego
egoi
egon
egurrola
egypt
egzak
egzakteman
egzamen
egzaminate
egzamine
egzanp
egze
egzekite
egzekitif
egzibisyon
egzijans
egzije
egzil
egzile
egzistans
egziste
eh
ehle
eiffel
eight
eileen
ein
eine
einer
eines
einmba
einseinmbe
einstein
eiro
eisenstein
ejip
ejipsyen
ek
ekasyon
ekilib
ekip
ekipaj
ekipe
ekipman
ekire
ekivalan
ekivalans
eklezyastik
eko
ekoloji
ekolojik
ekonomi
ekonomik
ekonomis
ekose
ekosiste
ekoulman
ekran
ekri
ekriti
ekriven
eksepsyon
eksepsyone
eksepte
ekspe
ekspedisyon
eksperyans
eksplikasyon
eksplike
eksplorate
eksplore
eksplozyon
eksplwatasyon
eksplwate
ekspo
ekspoze
ekspozisyon
ekspresyon
eksprime
ekstansyon
ekste
eksterye
ekstre
ekwasyon
ekwate
ekwazyon
ekzadesimal
ekzanp
ekzekitif
ekzil
ekziste
el
ela
eladio
elaine
elaji
elastik
elatriye
elatrye
elba
elbaz
elbe
elbittar
elder
eldorado
eldridge
ele
eleanor
eleazar
electra
electric
eleksyon
elektoral
elektrik
elektrisite
elektrisyen
elektwo
elektwomayetik
elektwon
elektwonik
eleman
elemante
elementary
elena
elenco
eleonora
elephant
elgin
eli
elia
eliana
eliane
elias
elie
elijah
elikopte
eliminasyon
elimine
eline
elio
eliot
eliott
elisa
elisabeth
elise
eliseo
elit
elite
eliza
elizabeth
elizabethtown
elizalde
elizondo
elk
elkai
elkin
elkton
ella
ellas
elle
ellen
elles
elli
ellie
ellington
elliot
elliott
ellis
ellsworth
elluz
elm
elmaleh
elmer
elmo
elmore
elodie
eloi
eloisa
elopement
eloy
elsa
elsevier
elsie
elt
eluniversal
elve
elvira
elvire
elvis
elwood
ely
elyse
em
emanuel
embarcadero
embarras
embassy
embil
embrasse
embrassez
eme
emeline
emerald
emergency
emerit
emerson
emery
emeterio
emi
emigre
emil
emile
emilia
emiliano
emilie
emilio
emily
emir
emira
emisfe
emisyon
emitai
emma
emmanuel
emmanuelle
emme
emmelie
emmenez
emmerdes
emmerdeur
emmerich
emmett
emmy
emory
emosyon
empe
emperatriz
empereur
emperor
empezar
empire
emploi
employe
empoisonneuse
emporte
empreinte
empreintes
empresa
empress
emprise
empty
en
enamora
enamorada
enamores
enamoro
encadenados
encanto
encarnacio
encendida
encendidas
ench
enchante
encinas
encino
encore
encre
encrier
encrucijada
encyclope
encyclopedia
encyclopædia
end
ende
endepandan
endepandans
endgame
endije
endikasyon
endikate
endike
endire
endis
endistri
endistriye
endistrye
endividi
endividye
endonezi
endormie
endroit
ends
endye
endyen
ene
enemies
enemiga
enemigo
enemy
enero
enfance
enfant
enfants
enfeksyon
enfekte
enfektye
enfer
enferme
enfermera
enfermeras
enfers
enferye
enfield
enfimye
enfin
enfirmye
enfliyan
enfliyans
enfliyanse
enfo
enfrastrikti
enfrente
engage
engagement
engan
engel
england
englewood
english
engracia
engredyan
engrenages
enid
enigma
enjenye
enkapasite
enki
enkli
enko
enkoni
enkyete
enkyetid
enle
enne
ennemi
ennemie
ennemis
ennes
ennui
enoc
enoch
enonse
enpak
enpe
enperatris
enperyal
enplike
enpo
enposib
enpoze
enpresyonis
enprime
enque
enrage
enragje
enregistre
enri
enrico
enrique
enriqueta
ens
ense
enseignants
enseignement
ensemble
ensen
ensenachos
ensidan
ensidans
ensije
enskri
enskripsyon
ensorcele
enspekte
enspektris
enspirasyon
enspire
enstabilite
enstalasyon
enstale
enstiti
enstitisyon
enstitisyone
enstriksyon
enstrikte
enstriman
entandan
entansif
entansite
entansyon
ente
entegre
entelektye
entente
entere
enteresan
enterese
enterim
enterprise
enterre
enterrement
entertainment
enterye
entesten
entie
entier
entim
entourage
entrai
entre
entreprise
entretenimiento
entretien
entretiens
entrevista
entronque
entwodiksyon
entwodui
envante
envazyon
enve
envers
envesti
envestigasyon
envestige
envestisman
envie
envies
environnement
envite
envol
envole
envoye
enz
enza
enzo
eol
eory
ep
epatit
epe
ephraim
ephron
epi
epidemi
epis
episkopal
episode
episodes
epitou
epizo
epizod
epo
epps
epstein
equalizer
equipo
er
era
erasmo
ercole
ere
eres
eric
erica
erich
erick
erie
erik
erika
erin
eritaj
eritye
ernest
ernestina
ernesto
ernie
ernst
ero
eros
erreur
errol
ertaud
ertha
erwan
erwin
es
esa
esansye
esca
escadron
escalante
escale
escalier
escalona
escambray
escando
escapade
escape
escargot
esce
escenario
esclae
esclava
esclavage
esclave
esclaves
escobar
escobedo
escondida
escondido
escroc
escudero
ese
eseye
eseyis
esfe
eske
eskilte
eskilti
esklav
esklavaj
esmas
esme
esmeralda
esmeraldas
espa
espace
espaces
espada
espagne
espagno
espagnol
espagnole
espan
espanyo
esparza
espas
espay
espe
especial
espejel
espejismo
espejo
espektak
espektate
espera
esperanto
esperanza
espere
espero
espesifik
espesyal
espesyalis
espesyalite
espesyalize
espesyalman
espi
espino
espinosa
espinoza
espion
espionne
espions
espiral
espiritye
espitia
esplike
espo
espoir
espoirs
esposa
esposito
espri
esprit
esprits
espwa
espyon
esquina
esquivel
essai
essais
essays
esse
essentiel
essex
essomba
est
esta
estab
estad
estado
estafa
estajye
estancia
estanda
estandadis
estas
estasyon
estasyone
estate
estates
estati
estatistik
este
esteban
estefani
estela
estelle
ester
estetik
esthe
esther
estidyo
estil
estilis
estimasyon
estime
esto
estoke
estoni
estrada
estrasbou
estrateji
estratejik
estre
estrella
estrellas
estrellita
estrena
estreno
estrikti
estriktire
estrougo
esway
et
eta
etabli
etablisman
etaj
etan
etap
etat
etats
etazini
etc
etcheverry
ete
eterna
eternal
eternamente
eternity
ethan
ethe
ethel
etid
etidyan
etidyant
etidye
etienne
etik
etike
etna
etnik
etnoloji
etowah
etranje
ettore
etudes
etwal
etyopi
etyopyen
etzer
eu
euge
eugene
eugenia
eugenio
eulalia
euler
eun
eunice
eure
eureka
eurent
euro
europa
europe
european
euros
euse
eustache
eux
euzhan
ev
eva
evaluation
evalyasyon
evalye
evan
evangelina
evans
evantye
evaristo
eve
evelyn
evelyne
even
evening
evens
ever
everest
everett
evergreen
evers
every
everybody
everything
evi
evidan
evidence
evil
evita
evite
evoke
evolisyon
evolution
evolving
evolye
evski
ewing
ewo
ewopeye
ewopeyen
ewozyon
ex
examen
excellence
excelsior
exception
exceptionnel
excepto
exe
executive
exemple
exemples
exercice
exeter
exige
exil
exile
existe
existence
existent
exit
exitosos
exp
expe
experience
experiment
expert
experts
explique
exploits
explore
explosion
expo
expose
exposition
express
expression
exte
extra
extrait
extran
extraordinaire
extraordinaires
extraordinary
extre
exupe
ey
eye
eyed
eyes
eyre
ez
ezau
ezequiel
ezra
f
fa
fabaceæ
fabbri
faber
fabia
fabian
fabiana
fabien
fabienne
fabio
fabiola
fable
fables
fabre
fabrice
fabricio
fabrikasyon
fabrike
fabrizi
fabrizio
fabuleuse
fabuleux
fabulous
fac
face
facebook
faces
fache
facile
facility
fact
facteur
factory
facts
faculte
faculty
facundo
fae
fagadau
fai
faibe
faible
failed
failevic
faim
fair
fairbanks
faire
fairfax
fairfield
fairmont
fairview
fairy
fais
faisons
fait
faite
faites
faith
faits
faivre
fajardo
fajnberg
fakilte
fakte
faktori
falco
falcon
falcone
falk
fall
falla
fallait
fallen
falling
fallingrain
fallon
falls
falsa
false
fama
famasi
famasye
famasyen
fame
famiglia
familia
familiale
familie
famille
familles
family
famosos
famous
fan
fanatik
fanfan
fang
fango
fani
fanm
fanmi
fanmsaj
fann
fanny
fanon
fans
fansten
fant
fanta
fantaisie
fantasma
fantasmes
fantastic
fantastik
fantastique
fantastiques
fantasy
fantin
fanto
far
faraday
farah
faraldo
farcy
fardin
fare
farewell
fargas
fargass
fargo
fari
farid
farida
farin
farina
farkas
farley
farm
farmer
farmington
farnum
faro
farrell
farrelly
farrow
farrugia
farwagi
fas
fasad
fascination
fashion
fasil
fasilite
fasilman
faso
fason
fassbinder
fassio
fast
fat
fata
fatal
fatale
fate
father
fathers
fatigue
fatima
fatiman
fatou
fatoumata
fatra
fatty
faubert
faubourg
faucher
faucon
faulkner
faure
faurez
fausse
fausses
faust
faustin
faustine
faustino
fausto
faut
faute
fautes
fauteuil
fauteuils
fauves
faux
favart
fave
favela
faveur
favier
favorab
favorite
favorize
favrat
favre
favreau
fay
fayard
faye
fayette
fayetteville
faz
fazer
fbi
fc
fdo
fe
fea
fear
feat
feature
features
featuring
febli
february
fecha
fechner
federal
federasyon
federica
federico
fedor
fedora
fedra
feel
feeling
feet
feid
feig
fein
feinme
feizhe
fejria
felice
felices
felicia
feliciano
felicidad
felicita
felicity
felina
felipa
felipe
felix
feliz
fellini
felt
felton
fem
female
feme
feminen
feminin
feminis
femme
femmes
fen
fene
fenk
fenlann
fenminein
fenome
fense
fenton
feo
fer
ferchaux
ferdinand
ferdinando
fergus
ferguson
feria
fermat
ferme
fermi
ferna
fernand
fernanda
fernande
fernandel
fernandes
fernandez
fernando
fernel
ferra
ferral
ferran
ferrand
ferrara
ferrari
ferre
ferreira
ferrer
ferreri
ferrero
ferret
ferrie
ferrier
ferris
ferriz
ferro
ferroni
ferroukhi
ferry
ferye
fescourt
fespaco
festa
festin
festival
fet
feu
feud
feuillade
feuille
feuilles
feuilleton
feux
fever
fevriye
fevrye
few
fewowe
fey
feydeau
feyder
feyton
ff
ffp
fhraze
fi
fiacre
fianc
fiance
fib
fich
ficha
fiche
fichye
fico
fiction
fide
fidel
fie
field
fielding
fields
fiera
fieras
fierro
fiesta
fiez
fifa
fifi
fifigrot
fifth
fifty
fig
figaro
figgis
fight
fighter
fighting
figi
figiran
figirant
figirasyon
figlio
fignole
figueroa
figure
figures
fiick
fiiny
fiks
fikse
fiksyon
fil
fila
filadelfi
file
files
filip
filipin
filippe
filippo
fille
filles
fillie
fillmore
film
filmaffinity
filme
filmography
films
filo
filomena
filozo
filozof
filozofi
filozofik
fils
fim
fime
fimen
fimografi
fin
fina
final
finale
finalis
finalman
finance
finans
finanse
finansman
finansye
finca
finch
fincher
find
finding
finds
fine
finger
fini
finie
finirons
finisman
finissent
finit
finition
finkiel
finley
finn
finnegan
fiona
fiore
fiorella
fire
firmin
firmine
firode
first
fiscal
fischer
fish
fisher
fisherman
fisi
fiskal
fiti
fito
fitoussi
fitzgerald
fitzmaurice
five
fixe
fiyanse
fizi
fizik
fizisyen
fizyon
fla
flaco
flag
flamand
flambe
flame
flammarion
flamme
flammes
flanagan
flanders
flandre
flanm
flash
flat
flaubert
flavia
flavio
fle
fleck
fleischer
fleiss
fleming
flers
flesh
fletcher
fleur
fleurot
fleurs
fleury
fleuve
flexion
flexions
flibustiers
flic
flics
flight
fliks
flingue
flint
flirt
flo
floch
flon
floor
floque
flor
flora
flore
florence
florencia
florencio
florent
florentino
flores
florette
florey
florian
floricienta
florid
florida
floride
florinda
florvil
flote
flou
flow
flower
flowers
floyd
flu
flugzeuge
fly
flye
flying
flynn
fm
fo
focus
foenkinos
foi
foire
fois
fokal
foley
folgoas
folie
folies
folio
folk
folklorik
folks
folle
folles
follet
follies
follow
following
folly
foma
fombrun
fon
fonction
fonctions
fond
fonda
fondamantal
fondasyon
fondate
fondateur
fondation
fonde
fondo
fonds
fone
fonetik
fonksyo
fonksyon
fonksyone
fonlladosa
fonn
fonolojik
fonovideo
fons
fonseca
font
fontaine
fontan
fontana
fontanes
fontenay
fonteyne
food
fool
fools
foot
football
footballdatabase
footofeminin
for
forall
forbes
forbidden
force
forces
forcier
ford
forde
fore
foreign
foreman
forero
forest
forestier
forever
forge
forges
forget
forgotten
fork
forks
form
forma
forman
format
formation
forme
former
formes
formidable
formula
formule
foro
forrest
forrester
forster
forsyth
forsythe
fort
forte
forteresse
fortes
fortier
fortin
fortuna
fortunat
fortunato
fortune
forty
forum
forward
fos
fosil
fosse
fossey
foster
foto
fotograf
fotografi
fotos
fou
fouad
foucaud
foucault
fouchard
fouche
foudre
fouet
fougerolles
foul
foule
foulon
found
foundation
founi
founise
fountain
fouquet
four
foure
fourme
fourmi
fournier
fourth
fous
foutbale
foutbo
foutbole
fouye
fowler
fowo
fox
foxx
foy
foyer
fr
fra
frac
fracasse
fracture
fraga
fragile
fragments
fragonard
frai
frais
fraise
fraises
frajil
fraksyon
fran
franc
franca
francais
francaise
france
franceinfo
frances
francesca
francesco
francetvinfo
franchi
francia
francine
francis
francisca
francisco
franck
francky
franco
francois
francophone
francophones
francophonie
francs
frangin
franju
frank
franke
frankel
frankenheimer
frankenstein
frankfort
frankfurt
frankie
franklin
frankofo
frankofoni
franky
frans
franse
frantz
franz
frape
frappe
fraser
frasier
frate
fratelli
frau
frauen
fray
fraz
fre
frears
frecuencia
fred
freda
freddie
freddy
frederic
frederick
fredi
fredo
fredonia
fredy
free
freedom
freeman
freeport
freire
freiss
freitas
frekans
fremont
french
frenesi
frente
fresco
fresh
fresnay
fresnel
fresno
fresson
freud
freund
frey
freyre
fri
fric
frica
frida
friday
fried
frieda
friedman
friedrich
friend
friends
friendship
frisco
frise
frison
fritz
fritzenwalden
fro
frog
froid
froide
froides
from
front
frontera
frontie
frost
frot
frou
fru
fruit
fruits
frydland
frydman
ft
fu
fuchs
fue
fuego
fuente
fuentes
fuera
fuerte
fuerza
fuga
fugitifs
fugitive
fugue
fuite
fulci
fulgencio
full
fuller
fulton
fume
fun
fune
funeral
funk
funky
funny
fuqua
furax
furet
fureur
furia
furie
furio
furious
furlong
furman
fury
fuse
fusil
fusille
fusils
fusion
fuste
fut
futbol
futur
future
fwa
fwans
fwaye
fwi
fwon
fwond
fwontye
fwote
fx
fyanse
fye
g
ga
gaan
gabe
gabin
gabino
gabon
gabone
gabor
gabriel
gabriela
gabriele
gabriella
gabrielle
gaby
gad
gade
gadebois
gadye
gadyen
gae
gael
gaetano
gaffe
gaga
gage
gagnant
gagne
gagner
gagnon
gai
gaiete
gail
gailland
gaillard
gaines
gainesville
gainsbourg
gainville
gaita
gal
gala
galabru
galan
galantes
galaxie
galaxy
gale
galeano
galement
galena
galeri
galerie
galette
gali
galicia
galile
galilea
galileo
galina
galindo
galite
gall
gallagher
galland
gallardo
gallego
gallegos
gallery
gallica
gallienne
gallimard
gallina
gallo
gallois
gallone
gallotte
galmot
galop
galri
galue
galva
gama
gamarra
gamba
gambler
gamblin
gamboa
game
games
gamine
gamma
gan
gana
ganafe
ganas
gance
gancho
gandera
gandhi
gang
gangs
gangste
gangster
gangsters
ganik
ganis
ganizasyon
ganizate
ganize
gans
gant
gantillon
ganyan
ganyen
ganz
gaona
gap
garaj
garajis
garance
garanti
garatuza
garay
garbarski
garc
garce
garceau
garci
garcia
garcin
gard
garde
gardel
garden
gardenia
gardens
garder
gardie
gardien
gardiens
gardin
gardiner
gardner
gardy
gare
garement
garenq
gareth
garfield
garibaldi
garin
garland
garmendia
garner
garnett
garnier
garonne
garou
garoute
garrel
garrett
garrido
garriga
garrison
garrivier
garry
gars
garson
garth
garwood
gary
garza
garzo
gas
gasco
gascogne
gasnier
gason
gaspar
gaspard
gast
gastambide
gasto
gaston
gata
gate
gates
gatica
gatineau
gatlif
gato
gatos
gatsby
gattorno
gaubert
gauche
gaucho
gauguin
gaulle
gaumont
gauntier
gauthier
gautier
gautry
gauvin
gavila
gavilanes
gavin
gaviria
gavras
gay
gayan
gaye
gayet
gaylor
gaylord
gayta
gaz
gazco
gazelles
gazette
gazon
gazzman
ge
gebhardt
gede
geffrard
geheimnis
geithner
gel
gelblat
geld
gema
gemelas
gemma
gen
gena
genaro
gendarme
gende
gender
gendes
gendre
gendron
gene
generacio
general
generation
genes
genesee
genesis
genet
geneva
genevie
genevieve
genevois
genina
genius
gennaro
genoa
genoveva
genre
genres
gens
gensac
gent
gentan
gente
gentil
gentilhomme
gentille
gentleman
gentlemen
genyen
geo
geoff
geoffrey
geoffroy
georg
george
georges
georgetown
georgette
georgia
georgie
georgina
geq
ger
gerald
geraldine
gerard
gerardo
gerber
gerd
gerhard
geri
germa
germain
germaine
german
germantown
germany
germinal
gero
geronimo
gerry
gert
gertrude
gertrudis
gervais
gervaise
ges
gesner
gessica
gessner
gestapo
geste
gestion
get
gets
getting
geum
geun
ghetto
ghil
ghislain
ghislaine
ghost
ghosts
gi
gia
giacomo
giafferi
gian
giancarlo
gianfranco
gianni
giannoli
giant
gibbs
gibraltar
gibson
gica
gico
gid
gida
gide
gideon
gie
gifford
gifle
gift
gigi
gigolo
gijol
gil
gilbert
gilberte
gilberto
gilda
giles
gill
gillain
gilles
gillespie
gillet
gilliam
gillian
gillibert
gillies
gilman
gilmore
gilot
gilou
gime
gimeno
giment
gin
gina
ginald
gine
ginen
ginette
ginger
ginny
gino
gioia
gion
gional
giono
giordano
giorgio
giorni
giorno
giovanna
giovanni
gir
girafe
giraldi
giraldo
girard
girardot
giraud
giraudeau
giraudoux
girault
girl
girlfriend
girlfriends
girls
giro
girod
gironde
giroud
giroux
gis
gise
gisela
giselle
gish
gisler
gita
gitai
gitan
gitana
gitane
gitano
gitaris
gitime
gitimus
giulia
giuliano
giulio
giuseppe
giusti
give
givray
giya
giyane
gje
gjeinre
gjeinry
glace
gladstone
gladys
glaive
glann
glas
glase
glasgow
glass
glasye
gle
gleason
glee
gleeson
gleize
gleman
glen
glencoe
glendale
glenn
glenville
glenwood
glez
gli
glif
glise
glissant
glm
glo
global
globe
globo
gloire
gloria
glory
gloucester
glove
glover
glu
gluck
gne
gnier
gnoan
go
goa
goal
gob
gobbi
gobernador
gobert
gobin
goble
goch
gociateur
god
godard
goddard
goddess
godeau
godefroy
godet
godfather
godfrey
godi
godin
godon
godoy
godre
gods
goes
goethe
goetz
goff
gogh
gogo
gohou
going
goire
gol
gold
goldberg
golden
goldenberg
goldman
goldschmidt
goldsmith
goldstein
goldwyn
golem
golf
goliath
golpe
gombo
gomes
gomez
gomi
gomis
gon
gonayiv
gonc
goncourt
gondry
gondwana
gone
gong
gonna
gontran
gonza
gonzaga
gonzague
gonzales
gonzalez
gonzalo
goo
good
goodbye
goode
goodman
goodnight
goodrich
goodwin
google
gook
goose
gor
gora
goran
gorda
gordo
gordon
gore
goretta
gorge
gorham
gori
gorie
gorille
gorilles
gorio
goriot
gorman
goron
goros
gory
goscinny
goshen
gosnell
gospel
gosse
gosses
gossip
got
gotesman
gotham
gotita
goto
gottfried
gou
goud
gouges
gould
goulding
goumen
goupil
gourguet
gourmet
gout
goutas
goutle
gouttes
gouv
gouve
gouvernement
gouverneur
gouverneurs
gov
govar
govare
government
governor
goya
goyo
goyri
gozlan
gpal
gr
gra
grabaciones
grace
grachi
gracia
graciela
grad
grade
grady
gradye
graenmaire
graf
grafe
graff
graffiti
grafik
grafton
graham
grain
graine
grajales
gralia
grall
gram
gramacks
gramatikal
grame
grammaire
grammy
gran
granada
granados
granby
grand
grandans
grande
grandes
grandet
grandeur
grandi
grandin
grandma
grandperret
grands
grandview
grange
granger
grangier
grangou
granier
granite
granma
granmanman
granme
granmoun
grann
granny
granpapa
granpe
grant
granville
gras
grasa
grass
grasse
grasset
grassian
grata
grate
gratis
grau
grav
grave
graves
gravet
gravey
gravite
gravity
gray
grayson
grazia
graziani
graziella
gre
great
greater
greatest
grec
grecia
greco
greek
green
greenaway
greene
greenfield
greengrass
greensboro
greensburg
greensleeves
greenville
greenwich
greenwood
greer
grefye
greg
gregg
greggory
gregor
gregoria
gregorio
gregory
gregoryen
grelca
grenad
grenade
grenier
grenn
grenoble
grenouille
gres
gret
greta
gretchen
gretna
grettell
grey
gri
grie
grieco
grifell
griffe
griffes
griffin
griffith
griffiths
grigori
grillet
grillo
grimaldi
grimas
grimblat
grimes
grimm
grinberg
gringo
griot
grip
gris
grisales
griselda
grises
grito
gritos
gritude
gro
groland
groom
groove
gros
grospierre
gross
grosse
grosses
grossesse
grosso
groton
ground
group
groupe
groupes
groups
grousset
grove
grover
groves
growing
grown
große
gru
gruber
grundy
grupo
gu
gua
guadagnino
guadalajara
guadalupe
guadeloupe
guajardo
guam
guana
guanabo
guanaja
guanajuato
guane
guano
guanta
guantanamo
guapos
guard
guardia
guardian
guardians
guasimal
guay
guayabal
guayabo
guazzoni
gucci
gudelia
gue
gueda
guedj
guen
guenhein
guenllein
gueorgui
guerdjou
guerin
guernsey
guerra
guerre
guerrero
guerres
guerrier
guerriers
guesmi
guessan
guest
guetta
gueule
gueules
guevara
gueye
guez
gui
guibert
guichard
guide
guido
guignabodet
guignard
guila
guilaine
guilhem
guillard
guillaume
guille
guillemin
guillemot
guillermina
guillermo
guillo
guillon
guillot
guillou
guilma
guilty
guimba
guin
guinein
guiomar
guirado
guiraudie
guire
guise
guissart
guit
guitar
guitare
guitry
guizar
gulch
gulf
guliers
gulliver
gum
gun
gunn
guns
gunther
gus
gust
gusta
gustav
gustave
gustavo
gut
gutenberg
gutie
gutierrez
gutierritos
guy
guyane
guybet
guyot
guys
guzma
guzman
gwadloup
gwadloupeyen
gwanm
gwatemala
gwen
gwendoline
gwendolyn
gwo
gwose
gwoup
gwoupe
gy
gyldendalske
gymnase
gynt
gypsy
gypte
gyu
h
ha
haas
habana
habib
habit
habitan
habitants
habite
hacer
hache
hachette
hacia
hacienda
hackett
hackford
had
haddad
hadj
hadji
hadley
hadmar
hadrien
hae
haendel
hafsia
haguet
hahn
hai
haile
haine
haines
hair
hais
haiti
haitian
haitiancreole
haitians
haitien
haitilibre
hajdi
hakim
hal
hale
haley
half
halidou
halifax
halimi
hall
halle
haller
hallows
hallstro
hallyday
ham
hambourg
hamburg
hame
hamid
hamidi
hamilton
hamina
hamlet
hamlin
hamm
hammer
hammond
hamon
hampa
hampshire
hampton
han
hanches
hancock
hand
handgod
handke
hands
handwerker
haneke
hanin
hank
hanks
hanna
hannah
hannibal
hanover
hans
hansel
hansen
hanson
hante
happened
happiness
happy
hara
harald
harbor
harbour
harcourt
hard
hardin
harding
hardwick
hardwicke
hardy
hare
harel
harem
hari
harker
harlan
harlem
harley
harmattan
harmon
harmony
haro
harold
haroun
harper
harriet
harrington
harris
harrisburg
harrison
harron
harry
hart
hartford
hartland
hartley
hartman
hartmann
hartree
harvard
harvest
harvey
has
hasard
hassan
hassane
hasta
hastings
hat
hatch
hate
hathaway
hato
hattie
hatton
hatuey
haudepin
haunted
haus
hauser
haut
haute
hautes
hauts
havana
havane
have
haven
havre
hawaii
hawk
hawkins
hawks
hawley
hawthorne
hay
haya
hayakawa
hayde
haydee
hayden
haydon
haye
hayek
hayes
haynes
hayser
hayward
haza
hazan
hazanavicius
hazard
hazel
hbo
he
head
health
hear
heart
heartbeat
hearts
heat
heath
heather
heaven
heavy
hebdo
hebron
hecht
hector
hee
heffron
heidelberg
heidi
heights
hein
heinrich
heinsberg
heinz
heir
held
helen
helena
helene
helga
helgeland
hell
heller
hello
hellphone
helm
helman
helmut
help
helpi
hemingway
hempstead
henao
henderson
hendrick
hendricks
hendrie
hendrik
henley
henning
hennion
henock
henri
henriet
henrietta
henriette
henrik
henrique
henriquez
henry
henson
heo
heon
her
herald
herbe
herbert
herbes
herbier
herbiet
herbulot
hercule
hercules
herdt
here
heredera
herederos
heredia
herencia
heriberto
herida
heridas
heritage
herkimer
herman
hermana
hermanas
hermann
hermano
hermanos
hermine
herminia
hermione
hermosa
hermosillo
herna
hernan
hernandez
hernando
hero
heroes
herold
herr
herradura
herranz
herrera
herrero
herry
hers
herve
hervil
herz
herzog
hesme
hess
het
heure
heures
heureuse
heureux
heurtelou
hewitt
hey
heylbroeck
heymann
heynemann
hh
hi
hibbert
hibou
hicham
hickman
hickory
hickox
hicks
hidalgo
hidden
hiena
hier
hierarchy
hierro
higareda
higelin
higgins
high
higher
highland
highlander
highlands
highway
higu
hija
hijas
hijo
hijos
hilaire
hilario
hilary
hilda
hilde
hill
hillary
hillel
hiller
hilliard
hilling
hills
hillsboro
hilton
him
himmel
hinche
hindi
hinds
hiner
hines
hinojosa
hip
hipo
hippie
hippocrate
hippolyte
hiram
hire
hirondelle
hirondelles
hirsch
his
hispaniola
histo
histoha
histoire
histoires
historia
historias
historical
historien
historique
historiques
history
hit
hitchcock
hitler
hitman
hits
hiv
hiver
hl
hler
ho
hoa
hobart
hobbit
hobbs
hobson
hocine
hockey
hodge
hodges
hoffman
hoffmann
hogan
hogar
hogares
hogg
hola
holbrook
hold
holden
hole
holgado
holgui
holguin
holiday
holland
hollander
hollis
hollister
hollow
holloway
holly
hollywood
holmes
holstein
holt
holy
homard
hombre
hombres
home
homecoming
homeland
homer
homero
homestead
homicide
hommage
homme
hommes
homo
hondo
honey
honeymoon
hong
honme
honne
honneur
honolulu
honor
honorable
honore
honorine
honour
honte
hoo
hood
hoofstadt
hook
hool
hoon
hooper
hoover
hop
hope
hopewell
hopkins
hopper
hora
horace
horacio
horas
horizon
horizons
horloger
horn
horne
horowitz
horreur
horror
hors
horse
horses
horst
hortense
hortensia
horton
hosmalin
hospital
hossein
host
hot
hotel
hou
hour
hours
house
housewives
houssin
houston
hove
how
howard
howe
howell
hoy
hoyo
hoyos
hoyt
hpnhaiti
hrer
hs
hss
ht
htm
html
http
https
hu
huang
hubbard
hubei
huber
hubermann
hubert
hudson
hue
huelva
huerta
huertas
huet
huff
huffington
huffingtonpost
hugh
hughes
hugo
hugon
hugues
huguette
hui
huile
huis
huissier
huit
huitie
hulk
hull
humain
humaine
humaines
humains
human
humanite
humbert
humberto
humble
humboldt
hume
humor
humour
humphrey
hun
hundred
hunebelle
hung
hunger
hunm
hunt
hunted
hunter
hunterdon
hunters
hunting
huntington
huntley
huntsville
huppert
hur
huraca
hurbon
hurley
huron
hurricane
hurst
hurt
hurtado
husband
hussard
hussein
husson
hustache
huster
hustle
huston
hutchinson
huth
hutton
hwa
hwan
hwang
hyacinthe
hyams
hyde
hye
hyo
hypnotist
hypothesis
hyppolite
hyuk
hyun
hyung
i
ia
iade
iain
ian
iba
iban
ibarra
ibarrola
ibe
iben
ibis
ibiza
ibn
ibrahim
ibrahima
ibsen
icare
icaza
ice
ich
ici
id
ida
idaho
idalia
idantifikasyon
idantifye
idantik
idantite
ide
idea
ideal
idem
identidad
identite
identity
ides
ideyal
ideyoloji
idiot
idir
idit
ido
idol
idole
idriss
idrissa
idwo
idwoje
ie
ier
if
iga
iglesias
iglesis
ignace
ignacia
ignacio
ignored
igo
igor
igoux
iguana
ihr
ihsi
ii
iii
ijans
ijye
ike
ikre
il
ilan
ilande
ilann
ildevert
ile
ileana
ilegal
iles
iliana
ilinwa
ilistrasyon
ilistre
ill
ille
illusion
illusions
illustrations
illustre
ils
ilse
iltravyole
im
ima
image
imagen
images
imaginaire
imagine
imaj
imajine
imanite
imanol
imaterye
imbc
imbert
imdb
ime
imedya
imedyatman
imelda
imen
imi
imid
imidite
imigran
imigrasyon
imigre
iminite
imite
immate
imme
immortel
imobilye
imoge
imoris
impact
impasse
impe
imperdonable
imperial
imperio
implacable
importance
important
importe
impossible
imposteur
impostora
imposture
impr
impre
imprimerie
imprimeur
in
ina
inacheve
inc
inca
ince
inch
incident
incla
including
inclusive
incognito
inconnu
inconnue
inconnus
incontro
incorrigible
incredible
incroyable
inde
independence
independencia
independent
indes
index
india
indian
indiana
indien
indienne
indiens
indies
indige
indigo
indio
indios
indiscre
indiscrets
individuelle
indochine
indomable
indomables
indonesia
industry
ine
inedi
inegalite
ines
inesko
inez
infamia
infante
infection
infections
infectious
infernal
infernale
inferno
infide
infieles
infierno
infiltre
infini
infinity
infirmie
influence
influenza
info
informador
information
informatique
informe
infortunes
infty
ing
inge
ingenio
ingle
ingobernable
ingraham
ingram
ingrat
ingrid
ini
inicia
inifo
inifye
inik
inisyal
inisyativ
inisye
inite
initiation
initiative
inive
inmaculada
inmpo
inn
innocence
innocent
innocente
innocents
inocencia
inocente
inocentes
inogirasyon
inogire
inondasyon
inovasyon
inquie
inquirer
ins
insaisissables
insatiable
inse
insee
inside
insiste
inslee
insolent
insoumis
insoumise
insoupc
inspecteur
inspector
inspire
instagram
installe
instant
instinct
instit
institut
institute
institution
institutions
instituto
institutrice
instruction
instrumental
int
inte
integra
intelligence
intenciones
inter
interdiction
interdit
interdite
interdits
interest
interlingua
interlingue
internacional
international
internationale
internationales
interne
internet
interpol
interpre
interpreta
intervention
interventions
interview
interviews
intime
intimes
intimite
into
intouchables
intre
intrigues
introduction
intruder
intrus
intrusa
invalide
invasion
inventaire
invente
invention
investigation
invincible
invincibles
invisible
invisibles
invitation
invite
inyon
inzu
io
ioah
ioha
ionesco
iowa
ip
iphicrate
ipi
ipote
ir
ira
irai
irak
iran
iranis
iras
ire
ireland
irene
iriarte
irigwe
irina
irineo
iris
irish
irlanda
irma
iron
irons
irrationalite
irre
irvin
irving
irvington
irwin
is
isa
isaac
isaach
isabel
isabela
isabella
isabelle
isadora
isai
isaiah
isaura
isbn
isela
isfel
ish
isidora
isidore
isidoro
isidro
isild
isis
isit
isker
isla
islam
islamik
island
islande
islands
islas
isle
isles
ismae
ismael
isme
iso
isola
ispanyola
ispayola
israe
israel
issa
issaka
issance
issermann
issn
issue
issues
ist
istanbul
istorik
istorikman
istoryen
istwa
it
ita
itabo
itali
italia
italian
italiana
italie
italien
italienne
italo
italy
italye
italyen
itati
ithaca
itil
itilizasyon
itilizate
itilize
itine
its
iturbe
iturbide
iturralde
iturriaga
iturrioz
itzel
iu
iv
iva
ivan
ivana
ivanov
ive
ivernel
ives
ivette
ivo
ivoire
ivonne
ivory
ivresse
ivry
ivwarye
ivwaryen
ivy
ix
iyon
iz
izaak
izaguirre
izin
iznogoud
izo
izolasyon
izole
izquierdo
izraye
izzy
j
ja
jacinta
jacinto
jack
jackie
jackpot
jackson
jacksonville
jacky
jacmel
jaco
jacob
jacobo
jacobs
jacoulot
jacq
jacqueline
jacques
jacquet
jacquin
jacquot
jacquou
jade
jaden
jadinye
jae
jaeckin
jaffrey
jagu
jagua
jaguar
jah
jahan
jai
jail
jaime
jair
jairo
jak
jake
jakme
jako
jakob
jakubowicz
jalil
jalisco
jalouse
jalousie
jam
jama
jamai
jamaica
jamaican
jamain
jamais
jamal
jamayik
jamayiken
jambes
jambon
jame
jamel
james
jameson
jamestown
jamet
jamie
jan
jana
jandam
jandamri
jane
janeiro
janerand
janet
jang
janice
janin
janina
janine
janis
janjak
janm
janneau
jansen
janson
janssen
jantile
january
janusz
janvier
janvye
jany
jaoui
japan
japon
japonais
japone
japy
jaque
jar
jara
jarabo
jarahueca
jaramillo
jardi
jardin
jardinero
jardinier
jardins
jared
jargal
jarmusch
jaro
jarrott
jarvis
jasmin
jasmine
jason
jaspeado
jasper
jaubert
jaula
jaume
jaune
jaunes
java
javier
javiera
javlo
jay
jayet
jayne
jazmi
jazz
jc
jci
je
jealousy
jean
jeanette
jeanine
jeanjean
jeanne
jeannette
jeannine
jeannot
jeans
jeanty
jed
jedi
jefa
jefe
jeff
jefferson
jeffersonville
jeffrey
jeffries
jekyll
jen
jene
jeneral
jeneralis
jeneralize
jeneralman
jenerasyon
jenere
jenerik
jenetik
jeni
jenifer
jenital
jenjanm
jenkins
jenn
jenna
jenner
jenni
jennie
jennifer
jennings
jenny
jenou
jensen
jeoji
jeon
jeong
jera
jeran
jere
jeremi
jeremiah
jeremy
jerez
jericho
jerizale
jero
jerome
jerry
jersey
jerusalem
jerzy
jesifra
jess
jesse
jessica
jessie
jessua
jessy
jesu
jesus
jesyon
jet
jetab
jete
jeu
jeudi
jeudy
jeune
jeuner
jeunes
jeunesse
jeunet
jeux
jewel
jewell
jewett
jewish
jewison
jewografi
jewografik
jewometrik
jewova
jeyografik
jezi
jezikri
jezikris
jhilmar
jhon
jhonny
ji
jibacoa
jica
jidisye
jij
jije
jijman
jill
jilyen
jim
jime
jimena
jimenez
jimmie
jimmy
jimnastik
jimo
jin
jinekolo
jinete
jing
jipite
jiqui
jire
jiri
jiridik
jis
jiska
jiskaske
jistifye
jistis
jitan
jiye
jo
joa
joachim
joan
joana
joann
joanna
joanne
joannon
joaqui
joaquim
joaquin
joaquina
joassin
job
jobert
jobo
jocelerme
jocelyn
jocelyne
jockey
jocuma
jodi
jodie
jodorowsky
jody
joe
joel
joey
joeystarr
joffe
johan
johann
johanna
johanne
johannes
john
johnny
johns
johnson
johnston
johnstown
johny
joie
joins
jojo
joker
jolene
joli
jolie
jolies
jolivet
jolly
joly
jon
jona
jonah
jonas
jonassaint
jonasz
jonatan
jonathan
jones
jong
jonny
joo
joon
joong
jorda
jordan
jordana
jordi
jorge
joris
jorre
josaphat
jose
josef
josefa
josefina
joseph
josephine
josette
josh
joshua
josiane
josie
joss
josselin
josue
josy
jota
jou
jouan
jouanneau
jouannet
joubert
joue
jouer
jouet
joueur
joueurs
joueuse
jouk
joumou
jounal
jounalis
jounen
jour
jourd
jourdain
jourdan
journal
journaliste
journalistes
journaux
journe
journey
jours
jousse
jouthe
jouvet
jouy
joven
jovenel
jovita
joy
joyce
joyeuse
joyeuses
joyeux
joze
jp
jr
jstor
jtbc
ju
jua
juan
juana
juanas
juancho
juanita
juanito
juanjo
juarez
judas
judd
jude
judex
judge
judiciaire
judicial
judith
judor
judy
juego
juegos
juez
jugando
juge
jugement
jugnot
juguete
juicio
juif
juillet
juin
juive
juju
jules
julia
julian
juliana
julie
julien
julienne
juliet
julieta
juliette
julio
julissa
julius
jullian
julliard
july
jumeaux
jumelle
jump
jun
junco
junction
june
juneau
jung
jungle
junior
juno
junquera
junta
juntos
jupe
jupes
jupiter
jupons
jurado
juramento
jurassic
jure
jurer
juro
jury
jusqu
just
juste
justice
justicia
justiciers
justin
justina
justine
justino
justo
juventud
jwe
jweinne
jwen
jwenn
jwenti
jwi
jwif
k
ka
kaamelott
kab
kaba
kabann
kabare
kabine
kabo
kabore
kaboul
kabrit
kache
kaciqat
kad
kadans
kadav
kade
kadejak
kader
kadi
kadinal
kado
kadre
kady
kadyak
kafe
kafka
kafou
kaha
kahane
kahn
kai
kail
kaka
kakawo
kako
kal
kalb
kale
kalfon
kali
kalifikasyon
kalifo
kalifye
kalite
kalkil
kalkile
kamal
kamalich
kamarad
kamel
kamera
kamewoun
kamewoune
kameyo
kaminka
kamper
kamwa
kamyon
kan
kanada
kanadye
kanadyen
kanal
kanaval
kandida
kandidat
kandidati
kane
kang
kangourou
kanmenm
kann
kanno
kanon
kanor
kanpay
kanpe
kanperen
kansas
kanse
kant
kantik
kantite
kanton
kao
kap
kapab
kapasite
kapital
kapite
kaplan
kapo
kaporal
kappabe
kappes
kapps
kaprisky
kaptire
kara
karakas
karakte
karakteristik
karakterize
karamazov
karant
karante
karate
karayib
kare
karel
karen
karibeyen
karidja
karim
karin
karina
karine
karl
karla
karma
karmann
karol
karole
karolin
karr
karsenti
karthala
karye
karyme
karyn
karyo
kas
kasasyon
kasdan
kase
kasik
kasika
kaskad
kaskade
kasmi
kassav
kassovitz
kast
kasting
kat
katalo
katastwo
kate
kateb
katedral
kategori
katell
katerine
katharina
katharine
katherine
kathleen
kathlyn
kathryn
kathy
katia
katie
katja
kato
katolik
katreven
katrian
katrina
katriye
katrye
katty
katy
katye
katz
kau
kaufman
kaufmann
kaurisma
kavalye
kavanagh
kavayon
kavite
kawolin
kay
kaye
kayiman
kayimit
kayla
kazan
kazandjian
kazino
kbs
ke
keach
kearns
keaton
kebe
kebekwa
kebekwaz
kechiche
keen
keene
keep
keeper
kei
keiko
kein
keita
keith
kelchie
kelif
keller
kellerman
kelley
kellogg
kelly
kelsey
kelvin
kemm
kemp
ken
kenbe
kendall
kendra
kendrick
kenean
kenia
kennebec
kennedy
kenneth
kenny
kensington
kent
kenton
kentucky
kenya
kenyon
kenz
kepler
kepombia
kerbrat
kerchbron
keren
kermadec
kermesse
kern
kerr
kerrigan
kerry
kervern
kessler
kesye
kesyon
kesyone
kettly
keufs
kev
kevin
kewaunee
key
keys
keystone
kf
kg
kh
khady
khaled
khalid
khalil
khan
kharmeliaud
khe
kheiron
kherici
khi
khojandi
khorsand
khotan
khtif
ki
kiara
kiba
kibe
kiben
kiberlain
kick
kid
kidnape
kidnapping
kidonk
kids
kieran
kies
kigali
kijan
kika
kike
kiki
kiko
kil
kildare
kildesak
kile
kill
killed
killer
killers
killing
kills
kilo
kilome
kilos
kiloz
kilti
kiltire
kiltivate
kiltive
kim
kimball
kimberly
kimmy
kimono
kin
kincaid
kind
kine
king
kingdom
kings
kingsley
kingston
kinney
kino
kinsey
kinshasa
kinski
kinsto
kira
kirby
kire
kirk
kirkland
kirkwood
kirsanoff
kisa
kise
kiskeya
kiss
kisyon
kisyonis
kit
kita
kitchen
kite
kitty
kiultiure
kiye
kizin
klainer
klang
klapisch
klarifye
klas
klase
klasifikasyon
klasik
klasman
klaus
klauss
klavye
kle
kleiman
klein
kleinbaum
kleine
kleist
klere
klib
klifa
klima
klimatik
klinik
klip
klitbo
kliyan
kliyant
klo
klotz
kloun
kloz
klyan
km
knife
knight
knights
knock
knopf
know
knowledge
knowles
known
knows
knox
knoxville
ko
kobhio
koch
kochon
kode
kodjo
koe
koffi
koko
kokoye
kola
kolaborasyon
kolaborate
kolabore
kole
koleksyon
kolekte
kolektif
kolektivite
kolera
kolizyon
kollo
kolo
kolokate
kolon
kolonbi
kolonbye
kolonbyen
kolone
koloni
kolonizasyon
kolonize
kolonmb
kolonyal
kolonyalis
kolorado
kolte
koly
kom
koma
komandan
komanse
komantate
komante
komboudri
kome
komedi
komedye
komedyen
komen
komik
komin
kominal
kominikasyon
kominike
kominis
kominote
komisarya
komise
komisyon
komisyone
komite
kommissar
komo
kon
konate
konba
konbat
konbatan
konbine
konbinezon
konbit
konbyen
konce
kondane
kondanse
kondikte
kondisyon
kondui
kondwi
kone
koneksyon
konekte
konesans
konfederasyon
konferans
konferansye
konfime
konfinman
konfizyon
konfli
konfo
konfonn
konfyans
konfye
kong
konga
kongo
kongole
kongre
konjekti
konjigezon
konjonksyon
konke
konkeri
konkiran
konkirant
konkli
konklizyon
konkou
konkre
konmanse
konmansman
konme
konmiunicasyon
konn
konne
konnen
konpa
konpanyi
konpare
konparezon
konpay
konpayi
konpayon
konpe
konpetans
konpetisyon
konpilasyon
konple
konplete
konplikasyon
konplike
konplis
konplo
konpo
konpoze
konpozisyon
konpozite
konpozitris
konprann
konpreyansyon
konrad
konsa
konsakre
konsantrasyon
konsantre
konse
konsekans
konsepsyon
konseye
konsiderasyon
konsidere
konsil
konsila
konsiltan
konsiltasyon
konsilte
konsiste
konso
konsolide
konsomasyon
konsomate
konsome
konstan
konstant
konstelasyon
konstitisyon
konstitisyone
konstitye
konstriksyon
konstwi
konsyans
konsyantizasyon
kont
kontab
kontabilite
kontablite
kontajye
kontak
kontakte
kontaminasyon
kontamine
kontan
kontanporen
konte
konteste
kontinan
kontinantal
kontinye
kontni
kontra
kontraksyon
kontrakte
kontre
kontreme
kontrent
kontribisyon
kontribite
kontribiye
kontribye
kontwo
kontwole
kontwove
konvansyon
konve
konvenk
konviksyon
koo
kool
kooperasyon
kope
koperasyon
kopi
kopwodiksyon
kopwodikte
kopwodui
kopye
koral
koralnik
koran
koray
korber
korda
kore
koregraf
korespondan
korespondans
koresponn
koreyalizate
koreyalize
koreyen
korije
koripsyon
kosenaris
kostarika
koster
kostim
kostimye
kot
kote
koto
koton
kotto
kotye
kou
koub
kouch
kouche
koud
koudeta
kougn
kougne
koukouy
koulbi
koule
kouman
koumanse
koumba
kounen
kounman
kounmanseid
kounmpreinhein
kounnein
kounsonnynce
kounya
kounye
kounzha
koup
koupab
koupe
kouraj
kouran
koure
kouri
kous
kout
koute
koutim
koutirye
kouto
koutouan
kouve
kouvrefe
kouvri
kouwo
kouwone
kouyate
kouzen
kouzin
kovacs
kowo
kowonaviris
kowoperasyon
koz
koze
kr
kra
krache
kraft
kramer
krapo
kras
kraus
krauss
krawczyk
kraze
kre
kredi
kredite
kreis
kremer
kretye
kretyen
kreyasyon
kreyate
kreyati
kreyatif
kreye
kreyo
kreyol
kri
krief
krieger
krier
krim
krimine
kris
kristen
kristin
kristina
kristo
krisyanis
krite
kritik
kritike
kriye
kriz
kru
kruger
krzysztof
ks
ksye
ksyon
kte
kteman
ktiko
ku
kubrick
kuizin
kuizinye
kung
kuno
kurc
kuri
kurt
kurys
kutu
kwa
kwade
kwadrilate
kwafe
kwafi
kwak
kwang
kwapis
kwasans
kwayan
kwayans
kwaze
kwazye
kwe
kwen
kwit
kwiv
kwizin
kwizinye
kwomozo
kwon
kwonik
kwonike
kwonoloji
kwout
ky
kyan
kye
kyle
kyo
kyrou
kyu
kyung
l
la
laad
laaddan
lab
laba
labarthe
labe
label
laberinto
laberintos
labib
labiche
labo
labor
laboratwa
laborde
labou
labouyi
labro
labrune
labuchin
labyrinthe
lac
lacan
lacaze
lacenaire
lacey
lachanm
lacheau
lachens
lachin
lacombe
lacoste
lacourt
lacroix
lacte
lacy
ladan
ladann
ladies
lado
ladoge
ladro
ladrones
lady
lae
laetitia
lafarge
lafayette
laferrie
laferye
laffargue
laffont
lafimen
lafitte
lafleur
lafont
lafontant
lafore
laforest
lafortune
lafosse
lafrans
lafrik
lafwa
lafye
laga
lagarde
lage
lago
lagon
lagonav
lagos
lagrange
lagre
laguardia
laguerre
laguna
lahens
lahmani
lahmi
lahnstein
lai
laine
lair
laisha
laisse
laisser
laissez
lait
laj
lajan
lajas
laje
lajistis
lajman
lajoie
lak
lakay
lakaye
lake
lakeland
lakes
lakeside
lakeview
lakewood
lakhdar
lako
lakou
lakre
lala
lalande
lalanne
laleau
lalin
lallemand
lalo
lalwa
lam
lama
lamac
lamar
lamarre
lamartine
lamas
lamb
lambda
lambert
lamberto
lame
lamen
lamine
lamo
lamont
lamothe
lamotte
lamour
lamoureux
lamp
lampin
lamprecht
lamy
lan
lana
lanati
lancaster
lance
lancelot
lancet
land
landa
landaeta
lande
lander
landero
landeros
landes
landeta
landing
landis
landon
landru
landry
lands
lane
lanester
lanfe
lanfranco
lang
langa
langage
langaj
langdon
lange
langeais
langer
langevin
langlade
langley
langlois
langmann
langston
language
languages
langue
langues
languichatte
lanie
lanier
lank
lanmbda
lanme
lanmo
lanmou
lanners
lannick
lannoo
lannwit
lanoe
lanoux
lans
lanse
lansing
lansman
lant
lantier
lantikite
lanvin
lap
lapawo
lape
lapenn
lapierre
lapin
laplace
lapli
laplipa
lapo
lapointe
lapolis
laport
laporte
lapparent
lapre
lapris
laptop
lapwent
laquelle
lara
laraj
laramie
laraque
larcher
lare
larenn
lares
larga
largas
large
largo
largue
lari
larie
larigot
larios
larisi
larissa
larive
larivie
larivye
larmes
laroche
laroque
larose
larousse
larquey
larrai
larran
larrea
larriaga
larrieu
larry
lars
larsen
larson
lartigau
larue
lary
las
lasante
lascars
lascura
lascurain
lase
lasestrellas
laskawobas
lasous
lass
lassalle
lasse
lasso
last
lasyans
laszlo
late
laten
later
latere
latest
latibonit
latimer
latin
latina
latine
latino
lation
latitid
lato
latortue
latouche
latour
latriye
latte
lattuada
lau
lauby
laudenbach
lauderdale
lauga
lauge
laughing
laugier
launay
laura
laure
laureano
laurel
lauren
laurence
laurens
laurent
laurette
laurie
laurier
laurita
lauro
lausanne
lautner
lautrec
lauvince
lauzier
lava
lavaine
laval
lavalas
lavalette
lavalle
lavanant
lavant
lavat
lavaud
lavaudant
lave
lavelli
lavi
laviche
lavigne
laviktwa
lavil
laville
lavinia
laviron
lavni
lavoie
law
lawn
lawo
lawrence
lawson
lawton
lawyer
lax
lay
laye
layevska
layla
lazare
lazareno
lazaro
lazcano
lazlo
lazo
lazos
lazy
lci
lda
le
lea
lead
leader
leading
league
leah
leal
lean
leandro
leap
lear
learn
learning
leary
leave
leaving
lebanon
lebas
lebasque
lebel
leben
lebens
leblanc
leblogtvnews
lebon
leboursier
lebowitz
lebrun
lec
lecaye
leche
lecle
leclerc
leclercq
lecluyse
lecomte
leconte
lecoq
lecouvreur
lection
lections
lectre
lectrique
lecture
lectures
lecuyer
leder
lederman
ledesma
ledezma
ledoux
ledoyen
leduc
lee
leeb
leeds
leenhardt
leesburg
lefe
lefebvre
lefevre
lefigaro
lefort
lefranc
left
leftrightarrow
legacy
legagneur
legal
legarreta
legba
legend
legendre
legends
legim
legion
legliz
lego
legrand
legras
legros
legs
lehe
lehman
lehmann
lehrer
lehrman
lei
leigb
leigh
leighton
leila
leingue
leinguistik
leinguy
leipzig
leisen
leitch
leiva
lejand
leje
lejeune
lejip
lejis
lejislasyon
lejislatif
lejitim
lejyone
leko
lekol
leksik
lekte
lekti
lektye
leland
lelie
lellouche
lelouch
lemai
lemaire
lemaitre
lemay
lement
lemercier
lemesle
lemmy
lemoine
lemon
lemond
lemonde
lemonn
lemort
lemy
len
lena
lenational
lenbe
lencquesaing
lendemain
lendemains
lendi
lengua
lengwis
lengwistik
lenki
lennox
lenny
lenoir
lenouvelliste
lenox
lent
lenzi
leo
leon
leona
leonard
leonardo
leoncio
leone
leonel
leonela
leonid
leonidas
leonor
leonora
leopold
leopoldo
leos
lepage
leparisien
lepetit
lepoint
leprince
leproux
leq
ler
leriche
lerner
leroi
leroux
leroy
les
lesage
lescaut
lescot
lesgensducinema
lesklavaj
lesley
leslie
lesly
leson
lespas
lespert
lespinasse
lespri
less
lesser
lessertisseur
lessons
leste
lester
lestin
lestins
lestomak
lestrade
let
leta
letalite
lete
letellier
leterrier
lethem
leticia
letoni
letourneur
letra
letter
letters
lettre
lettres
lety
letzte
leur
leurs
lev
levanjil
levant
levantal
levasseur
leve
level
lever
levi
levin
levine
levinson
levy
lew
lewin
lewis
lewiston
lewisville
lewkowicz
lex
lexington
lexpress
ley
leyenda
leyendas
leygonie
leyla
leyoga
leyva
lez
lezama
lf
lfim
lfloor
lfn
lhe
lhermite
lhermitte
li
lia
liaison
liaisons
liam
liana
liane
liar
liars
lias
liautaud
lib
liban
libane
libataire
libataires
libbe
libe
liberal
liberasyon
liberateur
liberation
libere
liberski
libertad
libertador
libertadores
liberte
liberty
liberya
libi
librairie
libraries
library
libre
libreri
libres
libro
lic
lica
licenciado
lices
licha
lichita
licie
licien
licite
lick
licking
lida
lide
lidia
lido
lidon
lie
liebe
lieberman
liebman
lien
liens
lier
lies
lieu
lieutenant
lieux
life
lifetime
lifshitz
lig
liga
ligarde
light
lightning
lights
ligia
lignac
ligne
lignes
ligny
ligue
liguoro
lijans
lik
like
likid
liksanbou
liksanboujwa
lil
lila
lilas
lilavach
lili
lilia
lilian
liliana
liliane
lilibeth
lilienfeld
lille
lilley
lilli
lillian
lilly
lilti
lily
lim
lima
liman
limanite
limantour
lime
limit
limitasyon
limite
limited
limites
limits
limo
limoges
limonad
limones
limosin
limpio
limur
limye
lin
lina
linares
linas
lincoln
lind
linda
linden
linder
lindo
lindon
lindsay
lindsey
line
lines
lineye
ling
lingua
linguiste
linguistes
linguistic
linguistics
linguistique
linive
link
linklater
linn
lino
lins
linux
lio
lion
lionel
lionnel
lions
lioret
liouville
lip
lipinska
lipinski
lique
lira
lire
lis
lisa
lisabeth
lisandro
lisans
lisardo
lisazo
lisbeth
lisbo
lisboa
lisbon
lisbonne
lise
lisette
lisi
lissa
lisset
lissier
list
lista
liste
listwa
lit
lita
litchfield
lite
literalman
literary
literati
literature
literatures
litere
lites
lito
litte
little
littleton
litvak
lityani
liu
lius
liv
live
livermore
liverpool
lives
livia
living
livingston
livingstone
livraison
livre
livres
livrezon
lix
liy
liz
liza
lizabeth
lizaire
lizalde
lizardo
lizzani
lizzie
lizzy
lj
ljik
lkan
lkeswa
ll
llama
llamada
llamado
llaman
llamas
llano
llanos
llar
llaves
lle
llega
llegado
llena
ller
llez
llopis
lloran
llorca
llorente
lloyd
lluvia
lly
lma
lman
lme
ln
lnn
lnp
lo
loane
loba
lobe
lobo
lobos
loca
local
locarno
locas
locataire
location
lochet
lock
lockhart
lockwood
loco
locos
locura
locust
locuteur
locuteurs
lodge
lodi
lodie
lodyans
log
logan
loge
logereau
logo
logos
loi
loin
lointain
loire
loiret
lois
loiseau
loisirs
loizillon
loje
lojik
lojisye
lojman
lokal
lokalite
lokalize
lokate
loki
lokite
lol
lola
loli
lolic
lolita
lolo
lom
loma
lomas
lombard
lombardi
lombardo
lome
lomeli
lon
lonbraj
lond
londez
london
londres
lone
lonely
lonesome
long
longchamp
longe
longest
longleftrightarrow
longoria
longtemps
longue
longues
longuet
longval
lonjitid
lonn
lonsdale
lontan
look
looking
loop
loophaiti
loose
lope
lopes
lopez
lopital
lora
lorain
lorca
lord
lore
lorelei
loren
lorena
lorente
lorenz
lorenza
lorenzi
lorenzo
loreto
loretta
loreya
lori
lorna
lorrain
lorraine
lors
lorsque
los
lose
losey
loss
losset
lost
lot
lote
loteri
lothar
lotoman
lotte
lou
louba
loubignac
loud
loue
louer
louie
louis
louisa
louise
louisette
louisiane
louison
louisville
loulou
louna
loup
loups
lourdes
loursais
loustau
louvain
louve
louverture
louvier
louvre
louvri
love
loved
loveland
lovell
lovely
lover
lovers
loves
loving
low
lowe
lowell
lower
lowry
lowski
loy
loyal
loyola
loza
lozada
lozano
lp
ls
lsiyis
lt
ltd
lte
ltima
ltimo
lu
lua
lubin
lubitsch
luc
luca
lucas
luce
lucero
luces
lucette
lucha
luche
luchini
luchino
lucho
luci
lucia
luciana
luciani
luciano
lucie
lucien
lucienne
lucifer
lucila
lucile
lucille
lucinda
lucio
lucius
luck
lucky
lucot
lucre
lucrecia
lucrezia
lucy
lude
ludivine
ludlow
ludmila
ludo
ludovic
ludovico
ludwig
ludwika
lue
luengas
lugar
luge
lugo
lui
luigi
luis
luisa
luisana
luise
luisi
luisito
luja
lukas
luke
lula
lulu
lumane
lumet
lumie
lumumba
luna
lund
lundi
lune
lunes
lunettes
luotd
lupe
luphete
lupin
lupita
luque
lure
lus
lustra
lute
luther
lutte
lutz
lux
luxe
luxembourg
luz
luzardo
lvarez
lvaro
lveda
lveig
lveme
lvez
lvoff
lvovsky
lwa
lwazi
lwe
lwen
lwi
lwil
lwizya
lwizyana
ly
lyann
lyce
lydia
lydie
lye
lyen
lyes
lyetnan
lyezon
lyle
lyman
lyme
lynch
lyndon
lyne
lynn
lynne
lyon
lyonel
lyonnais
lyons
lys
lyse
lysius
lytton
lætitia
løve
m
ma
maaskri
mabel
mabrouk
mac
macabra
macadam
macagua
macaigne
macarena
macaria
macario
macary
macbeth
macdonald
mace
macedo
maceo
macfarlane
macgregor
mach
macha
machado
machandiz
machann
mache
machin
machine
machinis
macho
machos
macht
maci
macintosh
mack
mackay
mackenzie
macmillan
macon
macotela
macpherson
macquarrie
macron
mad
madagascar
madam
madame
madan
madanm
maddalena
madden
maddie
maddin
made
madeleine
madeline
madelon
mademoiselle
madera
madero
madge
madi
madigan
madiou
madison
madmwaze
madness
mado
madonna
madrastra
madrazo
madre
madres
madrid
madrigal
madrugada
madsen
maduro
mady
mae
maestra
maestro
mafia
mafiosa
mag
maga
magaajyia
magali
magalie
magallanes
magaly
magan
magasin
magazen
magazin
magazine
magda
magdalena
magdalene
magellan
mages
maggi
maggie
maggy
magia
magic
magicien
magie
magimel
magique
magiques
magistrat
magloire
magma
magnan
magne
magnier
magnificent
magnifique
magnitude
magnolia
magnum
magnus
magny
mago
magre
magua
maguire
maguy
mahama
mahamat
mahe
mahmoud
mahoney
mai
maia
maid
maiden
maigret
mail
mailes
maillan
maillard
maille
maillet
maillot
main
maine
mains
maint
maintenant
maire
mairesse
mais
maison
maisons
maistre
maite
maitland
maj
maja
majagua
maje
majeste
majeur
maji
majik
majistra
majisyen
majo
major
majordome
majorite
mak
maka
makak
makaya
make
makeba
makena
maker
makes
maki
making
makiyaj
makiye
makiz
mako
makout
maksimo
makyaj
mal
mala
malad
malade
maladi
maladie
malakian
malarya
malaterre
malave
malavita
malavoi
malavoy
malcolm
malcriadas
malden
maldicio
maldita
maldonado
maldonne
male
maleficio
malek
malena
maleni
malere
malerezman
malet
malgre
malherbe
malheur
malheurs
mali
malibu
malice
malick
malik
malika
malin
maline
malis
malka
mallarino
malle
mallet
malleval
malley
mallorca
mallory
malman
malo
malone
malou
malquerida
malraux
malta
malte
malu
malvern
malyen
mam
mama
mamadou
maman
mambe
mambety
mambo
mame
mamet
mamey
mameyes
mami
mamie
mamife
mamlad
mamma
mamy
man
manacas
manadje
management
manager
manan
manantial
manati
manbo
manbra
mancera
manch
mancha
manche
manchester
mancilla
mancini
manco
mancuso
manda
mandamiento
mandan
mandasyon
mandat
mande
mandel
mandela
mandi
mandman
mandy
mane
manet
manfred
manga
mangane
mangas
mange
mango
mangold
mangolt
mangos
manguito
manhattan
mani
maniac
manie
manifestan
manifestasyon
manifeste
manigat
manipulations
manitowoc
manje
mank
manke
mankiewicz
mankita
manm
manman
mann
mannequin
mannequins
manni
manning
mannino
mannken
manno
manny
mannye
mano
manoel
manoir
manola
manolo
manon
manor
manos
manque
manri
manrique
mans
manse
mansfield
mansman
manson
mansour
mansur
mansyon
mansyone
mantal
mante
manteau
manterola
manti
mantilla
manto
mantua
manu
manual
manuel
manuela
manuelita
manuscrit
many
manye
manyen
manyo
manzanillo
manzano
manze
manzoni
manzor
manœuvres
mao
map
maple
mapleton
mapou
maps
maque
maquillage
maquillaje
mar
mara
marabou
marabout
marais
maran
marandin
marano
marasa
marat
marathon
maravilla
maravillas
marble
marbot
marbœuf
marc
marca
marcada
marcano
marcas
marceau
marcel
marcela
marcelin
marcelina
marcelino
marcelle
marcello
marcelo
march
marcha
marchal
marchand
marchands
marche
marches
marchetti
marchisio
marcia
marcial
marciano
marco
marcon
marconi
marcos
marcus
mardi
mare
marea
marechal
marek
marelli
maren
marengo
mareuil
marga
margaleff
margalida
margaret
margarethe
margarita
margaux
marge
margherita
marginal
margo
margolin
margot
marguenat
marguerite
mari
maria
mariachi
mariage
mariages
mariam
mariama
marian
mariana
marianela
mariani
marianna
marianne
mariano
maribel
maricarmen
marichal
maricruz
marido
maridos
marie
mariel
mariela
marielena
marielle
marier
marietta
mariette
marigny
marilou
marilu
mariluz
marilyn
marilyne
marimar
marin
marina
marine
marines
marinette
marino
marins
mario
marion
maripaz
mariposa
maris
marisa
mariscal
marisela
marisol
marissa
marita
maritim
maritime
maritimes
maritza
mariu
marius
marivaux
marivin
marjane
marjorie
mark
marken
marker
market
markham
markle
marko
marks
markus
marlborough
marle
marleau
marlene
marley
marlon
marlow
marlowe
marly
marmai
marmottes
marne
marnier
maroc
marois
maron
maroni
maroun
marple
marquand
marque
marques
marquesa
marquet
marquette
marquez
marquis
marquise
marraine
marrakech
marre
marrero
marriage
married
marrons
marry
mars
marsac
marsan
marseille
marsh
marshal
marshall
marston
mart
marta
marte
marteau
martel
martell
martelly
marten
martes
martha
marthe
marthouret
marti
martial
martillo
martin
martina
martine
martineau
martinelli
martinet
martinez
martini
martiniquais
martinique
martino
martins
martinsburg
marton
marty
martyr
martz
maru
maruca
maruja
marval
marvel
marvin
marwen
marx
mary
maryaj
marye
maryen
maryland
marylin
maryline
marys
maryse
marysville
marzo
mas
masachose
masak
masakre
masculein
masculin
mase
maselli
masiero
masif
masiv
mask
maso
mason
masque
masques
mass
massa
massachusetts
massacre
massart
masse
masset
massey
massif
massillon
massimo
masson
master
masters
masterson
mastrocinque
mastroianni
masyal
masyon
mat
mata
matador
matalon
matamoros
matan
matant
matanzas
matar
match
matchid
mate
matelot
matema
matematik
matematisyen
maten
mateo
mateos
mater
material
maternelle
materye
materyo
math
mathbb
mathe
mathematical
mathematics
matheus
mathias
mathieu
mathilda
mathilde
mathis
mathon
mathot
mathrm
mathurin
mathurins
mati
matias
matie
matik
matilda
matilde
matin
matinik
matinike
matins
matique
matiques
matirite
mato
matographique
maton
matos
matrimonio
matris
matrix
matt
matte
mattei
matteo
matter
matthew
matthews
matthias
matthieu
matti
mattoli
matton
mature
maty
matye
mau
mauclair
maud
maude
maudit
maudite
maudits
mauduit
maunier
maupassant
maupin
maura
maureen
maurel
maurey
mauri
maurice
mauricio
maurier
maurin
maurizio
mauro
maury
mausso
mauvais
mauvaise
mauvaises
mauve
maverick
mawo
mawoken
mawon
max
maxence
maxi
maxim
maxime
maximilian
maximiliano
maximilien
maximum
maximus
maxine
maxwell
may
maya
mayari
mayer
mayerling
mayetik
mayfield
mayi
maynard
mayo
mayor
mayra
mayri
mayrig
maysville
mayte
maza
maze
mazoyer
mazuy
mazzone
mba
mbar
mbaye
mbc
mbengue
mbula
mc
mcbride
mccalla
mccarthy
mccoy
mccutcheon
mcdermott
mcdonagh
mcdonald
mcdowell
mcg
mcgee
mcgill
mcgowan
mcgrath
mcgraw
mcgregor
mcguigan
mcguire
mchenry
mcintosh
mckay
mckee
mckenna
mckenzie
mckinley
mclaglen
mclaughlin
mclean
mcleod
mcnamara
mcpherson
mcquarrie
mcqueen
mcrae
mctiernan
me
mea
mead
meade
meadow
meadows
mean
means
measure
meat
meaulnes
meaux
mec
mechan
meche
mechri
mecs
med
meday
medeiros
medelli
meden
medford
medhi
media
medianoche
medical
medicine
medikal
medikaman
medina
medio
mediterane
medium
medrano
medsen
medsin
medya
medye
medyeval
meet
meeting
meets
meg
mega
megan
megaton
mehdi
mei
meier
meilhac
meilleur
meilleure
meilleures
meilleurs
mein
meine
meinme
meirelles
meissyei
meji
mejia
mejor
mekanik
mekanis
mekanisyen
meksik
meksike
meksiken
meksiko
mel
melanie
melanj
melanje
melba
melbourne
melchior
melchor
mele
melennec
melford
melilla
melina
melinda
meline
melissa
melki
melo
melodi
melody
melon
melrose
melvil
melville
melvin
mem
member
membre
membres
memo
memoria
memories
memory
memphis
memwa
men
mena
menace
menahem
menaj
menard
menas
menase
mence
menchaca
mende
mendes
mendez
mendieta
mendiola
mendiza
mendon
mendoza
mendy
mene
meneses
menez
menm
menmsi
mennaj
mennen
mens
mensch
mensonge
mensonges
ment
mentaire
mentaires
mental
mentale
mentalist
menteur
menteurs
menteuse
menthe
menti
mentine
mention
mentir
mentira
mentiras
mentor
ments
mentyen
menus
mer
merad
meraude
meraz
mercader
mercadier
mercado
mercanton
merce
mercedes
mercenaire
mercenaires
mercer
mercey
merchant
merci
mercie
mercier
mercredi
mercure
mercurio
mercury
mercy
merde
meredith
mereng
mergault
meri
meridian
merino
merite
merlant
merle
merlet
merlin
mermaid
mermoud
mero
merret
merrill
merry
mers
mersenne
merveilles
merveilleuse
merveilleux
mervyn
merzak
mes
mesa
mesaj
mesaje
mesdames
mesguich
mesi
mesnier
mesrine
message
messager
messe
messenger
messieurs
mesure
mesures
mesye
met
meta
metal
mete
metellus
method
methods
metis
meto
metre
metriz
metro
metropolis
mettre
metwo
metwopo
metwopoliten
metye
metz
metzger
meunier
meurent
meurisse
meurs
meurt
meurtre
meurtres
meurtrie
meurtrier
meurtriers
mexican
mexicana
mexicano
mexicanos
mexico
mexique
meyab
meye
meyer
meyers
meylan
meynard
mez
meza
mezi
mezire
mezon
mg
mhd
mi
mia
miami
mibale
mic
mica
micaela
mich
micha
michae
michael
michaels
michalik
michaud
miche
michel
michelangelo
michele
michelet
micheline
michell
michelle
michiga
michigan
michodie
michou
mick
mickae
mickael
mickey
micky
micmacs
mico
micro
mid
middle
middlebury
middlesex
middleton
middletown
midi
midland
midnight
midsummer
midway
midy
mie
miedo
miel
miens
miente
mientras
mier
miesch
mieux
mighty
mignon
migos
migrasyon
migration
migrations
migre
miguel
mihaileanu
mijares
mik
mika
mikaben
mikae
mikael
mike
mikhael
mikhai
mikhail
miksaj
mikwo
mikwosko
mil
mila
milady
milagro
milagros
milan
milano
milat
mildred
mile
milena
milene
milenio
miles
milford
milia
milie
milien
milieu
milieux
militaire
militan
militant
military
milite
milk
mill
milla
millar
millard
mille
miller
millersburg
millet
milliardaire
milliards
millie
million
millionaire
millionnaire
millions
millo
millon
millonario
millones
mills
millville
milo
milord
milos
milot
milou
miltip
miltipliye
milton
milwaukee
milya
milye
milyon
mimi
mimouni
mimran
min
mina
minaire
minaj
minal
minan
minas
minasyon
mince
mind
minden
minds
mindy
mine
miner
mineral
minerva
mines
mineur
mineurs
ming
minh
mini
minimo
minin
minine
minis
minisipal
minisipalite
ministe
minister
ministerye
ministre
ministro
ministry
minit
minnelli
minnesota
minnie
mino
minor
minorite
minot
minta
minter
minuit
minustah
minute
minutes
minutos
mio
miou
miquel
miquette
mir
mira
mirabal
miracle
miracles
mirada
miraflores
mirage
mirages
miragwa
mirak
miramar
miranda
mirande
miray
mirbeau
mire
mireille
mirella
miret
mireya
miriam
mirna
miro
miroir
mirror
mirta
mirtha
mirza
mis
misanthrope
mischka
mise
miserables
misha
mishalska
misio
misisipi
misk
miskile
misma
mismo
miss
missa
missiaen
missing
mission
missionnaire
missions
mississippi
missouri
missy
mistake
miste
mister
misterio
misterios
misterye
mistik
mistral
mistress
misty
misye
misyon
misyone
mit
mitad
mitan
mitasyon
mitch
mitchell
mite
mites
mitoloji
mitrani
mitterrand
mitzi
miwa
mix
mixed
mixte
miyami
miyo
miz
mize
mizik
mizikal
mizilman
mizisye
mizisyen
mizrahi
mlg
mlle
mls
mm
mme
mnich
mnouchkine
mo
moati
mob
mobil
mobile
mobilize
moc
mochila
mocky
mocratie
mocratique
moctezuma
mod
mode
model
modelo
modelos
models
modern
moderne
modernes
modesta
modeste
modesto
modibo
modifikasyon
modifye
modo
modot
moe
mofe
moglie
mogo
mogollo
moguy
mohamed
mohammed
mohicans
moi
moignage
moin
moine
moins
moira
moire
moires
mois
moise
moisson
moissons
moitie
moix
mokne
mol
moldavi
mole
molekil
molekile
molie
molina
molinaro
molino
moll
mollet
molly
molnar
moloch
molto
mom
moman
mome
moment
moments
momias
momie
momo
mon
mona
monachi
monaco
monak
monako
monasterio
monasterios
monca
moncada
moncayo
monceau
moncho
moncorge
mond
mondaine
monday
monde
mondedufoot
monden
mondes
mondiale
mondo
mondrago
mondy
mondyal
mone
monet
monete
money
monge
mongeville
mongo
monica
monicelli
monie
monika
moniman
monique
monite
moniteur
monja
monk
monkey
monmouth
monn
monnaie
monnen
monnet
monnier
monnin
mono
monocle
monod
monos
monreyal
monroe
monroy
mons
monsalve
monseigneur
monsell
monsenye
monserrat
monseye
monsieur
monster
monsters
monstre
monstres
mont
montage
montagne
montagnes
montague
montaigne
montaj
montalba
montaldo
montalier
montalvo
montan
montana
montand
montavon
montay
montazel
monte
monteagudo
montecristo
monteiro
montejo
montel
montellano
montemar
montemayor
montenegro
monterde
monterey
montero
monteros
monterrey
monterrubio
montes
montesinos
montessoro
monteverde
montevideo
montez
montezuma
montfermeil
montgomery
month
monti
monticello
montiel
montijo
montilla
montmartre
montmirail
montoute
montoya
montparnasse
montpelier
montpellier
montpensier
montre
montreal
montreuil
montrose
montserrat
monty
monuments
moo
moody
moolaade
moon
moonlight
moor
moore
moorestown
moosmann
mor
mora
moral
morale
morales
moran
morand
morane
morante
moravia
morceaux
morceo
mord
mordillat
more
moreau
moreira
morel
morelia
morell
morelli
morelos
morena
moreno
moret
morett
moretti
morgan
morgana
morgane
morgue
mori
morillo
morin
morir
moris
morisseau
morisyen
moritz
morley
morne
morning
moro
moroni
morpheme
morris
morrison
morristown
morro
morrow
morse
mort
mortal
mortality
morte
mortel
mortelle
mortensen
mortes
mortier
mortimer
morton
morts
morvan
mory
mosca
moscou
moscow
moser
moses
moshe
moskou
moso
mosquera
mosquito
moss
most
mot
mota
mote
motel
mother
mothers
motifs
motion
motive
moto
motor
motown
mots
motte
mou
mouch
mouche
mouchet
mouchoirs
mouettes
moulen
moulin
moullet
mouloud
moulton
moun
mouna
mound
mounde
mounir
mount
mountain
mountains
mounte
mounted
mourad
moure
mouret
mouri
mourir
mouse
mousquetaires
mouss
moussa
moussier
moussy
moustache
moustapha
moustik
moute
mouth
mouton
moutout
mouvement
mouvements
mouvman
mouye
move
moves
movie
movielakay
movies
moving
mowoni
moya
moyen
moyens
moyiz
mozanbik
mozart
mp
mplices
mpuiahp
mr
mrs
ms
mspp
mss
msye
mti
mtv
mu
muccino
much
muchacha
muchachitas
muela
muere
muero
muerta
muerte
muerto
muertos
muet
muhammad
mujer
mujercitas
mujeres
mujica
mula
mulcahy
mule
muller
mulligan
mulo
mulot
multe
multiple
mun
munch
mundi
mundo
mundos
mungui
munich
municipal
municipios
munoz
munro
munz
muppets
mur
muraille
murat
murayama
murder
murders
murdoch
murdock
murgui
muriel
murielle
murillo
muro
murphy
murray
murs
muse
museo
museum
music
musica
musical
musicale
musicien
musique
musketeers
musset
musso
musson
must
mustang
mustapha
mutant
mutter
mutual
muy
muyl
mw
mwa
mwatye
mwaye
mwayen
mwayennaj
mwein
mwen
mwens
mx
my
mye
myers
myle
myra
myriam
myrtle
myself
myste
myster
mysteries
mysterious
mystery
mystic
mystieux
mythe
mythes
mytho
myung
mœurs
n
na
naba
nabil
nabo
nacer
naceri
nach
nacho
nacht
nacional
nacro
nada
nadal
nade
nadeau
nader
nadia
nadie
nadine
nadir
nadja
nae
naff
nag
nage
nagement
nager
nages
nageur
naggar
nahon
nahum
nai
naidra
nailea
nains
nair
naissance
naje
najman
nakache
naked
naky
nal
nam
name
named
names
namo
namphy
nan
nana
nanas
nancy
nando
nanette
nanm
nannan
nanni
nanny
nanou
nans
nant
nanterre
nantes
nanty
naomi
nap
naples
napole
napoleo
napoleon
napoli
nara
naranjal
naranjo
narate
naratris
narciso
narcisse
narco
narcos
nard
nardier
nario
narios
nariste
narnia
narrateur
narrative
narva
nas
nasa
nash
nashville
nassau
nasser
nassim
nasyon
nasyonal
nasyonalis
nasyonalite
nasyonalman
nasyonzini
nat
natacha
natal
natale
natalia
natalie
natanson
natasha
nate
nateur
nathalie
nathan
nathaniel
nati
natif
nation
national
nationale
nationales
nations
natiralis
natiralize
natire
native
natividad
natural
nature
naturel
naturelle
nau
nauer
naufrage
naugatuck
nausea
naut
nava
naval
navanm
navarra
navarre
navarrete
navarro
navas
nave
navidad
navigate
navy
nayeli
naytklib
nazaire
nazareno
nazareth
nazario
nazi
nbc
nchez
ncia
ncipe
ncis
ncov
nd
ndalo
ndalos
nde
ndez
ndiaye
ndida
ndido
ndira
ndiz
ndola
ndome
ndorff
ndote
ndstro
ne
nea
neal
near
nebbou
nebraska
neck
ned
nee
need
nefi
nefit
negatif
negocio
negosyasyon
negosye
negra
negrete
negri
negritid
negro
negros
negulesco
nei
neige
neiges
neighbor
neighbors
neil
neilan
neill
neira
nel
nell
nella
nellie
nelly
nelson
nement
nements
nemes
nemo
nemoni
nemours
nen
nena
nene
nenpo
nent
neo
neonatal
neonato
nepal
nepomuceno
neptune
ner
nerfs
neri
nerina
nero
nerone
neruda
nerval
nes
nesans
nesbitt
nesese
nesesite
nesis
nesle
ness
nest
nestor
net
netflix
neto
nette
netwayaj
netwaye
network
neucha
neue
neuf
neuilly
neumann
neuve
neuvie
neuville
neuwirth
nevada
neve
never
nevers
neveu
neveux
neville
new
newark
newberry
newcastle
newell
newman
newport
news
newton
newtown
next
ney
neyelande
nez
nf
nfi
nfl
ng
nga
ngel
ngela
ngeles
nguez
ngulo
nguyen
nha
ni
nia
niagara
nial
nian
niane
niang
niat
nic
nica
nicandro
nicanor
nice
nicholas
nichols
nicholson
nichou
nicht
nick
nickelodeon
nicki
nicky
nicloux
nico
nicola
nicolai
nicolas
nicolasa
nicole
nicolson
nid
nidas
nie
niebla
niel
niels
nielsen
nier
niermans
nieto
nietzsche
nieur
nieves
nig
nigel
niger
nigh
night
nightingale
nightmare
nights
nigme
nije
nijerya
nika
nike
niki
nikiema
nikita
nikki
nikleye
nikola
nikolai
nil
nile
niles
nilmontant
nils
nima
nimas
nimerik
nimewo
nimewotasyon
nimo
nin
nina
nine
ninel
niney
nini
ninja
nino
ninon
nintendo
nio
nip
nique
niro
nis
nissage
nite
nitritif
niurka
niveau
nivo
nix
nixon
nl
nll
nln
nm
nmak
nman
nmantal
nme
nmi
nmp
nn
nner
no
noa
noah
noam
nobe
nobel
noble
noblet
nobody
nobuhiro
noce
noces
noche
noches
nocturne
noe
noel
noelia
noemi
noguera
noguerra
nohely
noir
noire
noires
noiret
noirey
noirs
noise
noisy
noix
nolan
noli
nolot
nom
nombre
nombres
nombril
nome
nominal
nominasyon
nomme
noms
non
nonb
nonce
nones
nonm
nonmen
nono
nons
noo
nor
nora
norah
norbert
norberto
nord
norfolk
noriega
norm
norma
normal
normale
norman
normand
normandie
normandy
norme
norris
nors
norte
north
northampton
northern
northfield
norton
norvind
norway
norwich
norwood
nos
nosotras
nosotros
nostalgie
nostra
nostradamus
nosyon
not
notaire
notamment
notasyon
note
notes
nothing
nothomb
notice
notices
noticias
notni
notorious
notre
notte
nottingham
nou
noun
nounou
nouri
nouris
nourrice
nous
nouve
nouveau
nouveaute
nouveaux
nouvel
nouvelle
nouvelles
nouvelliste
nouvo
nouyo
nova
novak
novanm
nove
novel
novela
novelas
novelli
november
novembre
noveno
novi
novia
novias
novio
novios
novo
novoa
now
nowhere
nox
noyce
noze
nozie
nrf
ns
nsel
nsilvani
nt
ntara
nte
nter
nther
ntico
ntimo
nu
nuage
nuages
nubia
nue
nuestra
nuestro
nuestros
nueva
nuevas
nueve
nuevo
nuevos
nugent
nuit
nuits
nul
nulle
numa
numb
number
numbers
nume
numero
nun
nunc
nunca
nuncio
nunes
nuno
nur
nuremberg
nuria
nurse
nury
nus
nuuk
nuytten
nw
nwa
nwayo
nwe
nwit
nwou
nwouh
ny
nyaj
nye
nyen
nyi
nyo
nytimes
o
oak
oakdale
oakland
oakley
oaks
oakwood
oasis
oath
obadia
obama
obas
obe
obeyi
obin
obispo
obje
objectif
objektif
objet
oblast
obligasyon
obligatwa
oblige
oblije
obo
obra
obrego
obrero
obscur
obscure
obse
observateur
observations
obsesio
obsession
obstak
oca
ocampo
ocan
occase
occasion
occident
occidental
occupation
oce
ocean
ocelot
ochmann
ocho
ochoa
oclc
oconto
octave
octavia
octavio
octavo
october
octobre
oculta
odd
ode
odell
oder
odessa
odette
odeur
odile
odilia
odin
odio
odiseo
odor
odore
odoutan
odyans
odyo
odysse
odyssey
oea
oelhoffen
of
ofansif
ofelia
off
offenbach
offenstein
office
officer
official
officiel
officielle
officier
officiers
offset
oficial
oficio
ofis
ofisye
ofri
og
oganizasyon
ogden
oge
ogier
ogmantasyon
ogmante
ogo
ogou
ographie
ographiques
ogre
ogres
oh
ohio
ohne
oil
ois
oise
oiseau
oiseaux
ojeda
ojo
ojos
ok
okap
okay
okazyon
oke
oken
okenn
okipasyon
okipe
oklahoma
oko
okontre
oksidantal
oksije
oksilye
oktal
okto
oktob
ol
ola
olaf
olande
olcott
old
ole
olean
oleg
olegario
olenpik
oles
olga
olias
oliv
oliva
olivares
olive
oliveira
oliver
olivera
oliveros
olivia
olivier
olivo
ollivier
olmedo
olmo
olmos
ologie
olophone
olophones
olpc
olsen
olvera
olvidare
olvidarme
olvidarte
olvido
olye
olympe
olympia
olympic
olympique
olympiques
om
oma
omaha
omaj
omar
ombre
ombres
ome
omega
omerta
omnibus
omoseksye
oms
omwen
on
ona
onard
once
oncle
ondes
ondine
ondiviela
one
oneida
ones
ong
ongri
ongwa
oni
onidas
onide
onie
online
only
onn
onnable
onne
onondaga
onor
onora
onore
ons
ont
ontario
onteniente
ontiveros
onu
onz
onze
op
opa
ope
open
openstreetmap
opera
operacio
operasyon
operate
operation
opere
ophe
ophile
ophu
opinion
opinyon
opium
opl
opo
opold
opozan
opoze
opozisyon
oppenheimer
oppose
opposition
opprime
ops
opsyon
optique
opuestos
or
ora
oracle
orage
orages
oral
orale
oran
orange
orate
orchard
orchestra
orchestre
orchide
order
ordinaire
ordinary
ordinateur
ordo
ordon
ordonnance
ordre
ordres
ordure
ore
oregon
oreille
oreilles
orellana
oreste
orestes
orfe
org
organic
organisation
organise
organization
orge
orgueil
orgullo
oriana
orie
orient
oriental
oriente
origel
origin
original
originale
originals
origine
origines
origins
orijin
orijinal
orijine
oriol
orion
orita
orizontal
orland
orlando
orle
orleans
orly
ornelas
ornella
ornellas
oro
oropeza
orozco
orpailleur
orphe
orpheline
orphelines
orphelins
orr
orsay
orsini
orso
orson
ortega
ortf
orthographe
orti
ortiz
orval
orville
oryan
oryantal
oryantasyon
os
osa
osage
osborn
osborne
oscar
osceola
oscuro
oseille
oseyan
oseyani
osi
osinon
osiris
ositou
oskar
osnon
osorio
ospina
oss
ossang
osterrieth
ostrali
ostralye
ostralyen
ostrosky
osuna
osvaldo
oswa
oswald
oswaldo
oswego
ot
ota
otage
otages
otaj
otard
otawa
ote
otelye
otero
othello
othenin
other
otilia
otis
otmezguine
oto
otobis
otobiyografi
otomatik
otomobil
oton
otono
otonomi
otorite
otorizasyon
otorize
otou
otra
otras
otreman
otrich
otrichyen
otro
otros
otsego
ottawa
otto
otzenberger
ou
ouaga
ouagadougou
ouattara
ouazani
oubli
oublie
oubyen
oue
ouedraogo
ouest
oui
oumar
oumou
oun
oungan
our
ouragan
ours
oury
ousmane
ouswa
out
outagamie
outbreak
outer
outlaw
outre
outside
outsider
ouve
ouvert
ouverte
ouverts
ouverture
ouvrage
ouvrages
ouvre
ouvri
ouvrier
ouvrye
ovando
ovarian
ove
over
overview
oviedo
ow
owayo
owen
owens
own
oxford
oyuki
oz
ozalantou
ozenne
ozep
ozetazini
ozileka
ozo
ozon
p
pa
pablo
pabo
pabst
paca
pace
pacha
pacheco
pacho
pacific
pacifique
pacino
pack
paco
pacte
pacto
paddy
padilla
padon
padre
padres
padro
pafe
pafwa
page
pages
paget
pagliero
pagnol
pah
pahkapa
pai
paid
paie
paige
pailhas
paille
pain
pains
paint
painted
pair
paire
pais
paisible
paix
paj
pajwe
pak
paka
pake
pakistan
pakora
pal
palabra
palabras
palace
palacio
palacios
palais
palas
palau
palazuelos
palcy
pale
palenfo
palenque
palermo
palestine
paleta
pallie
palm
palma
palmair
palman
palmante
palmar
palmarito
palmas
palmashow
palmer
palmes
palmira
palmis
palms
palmyra
palmyre
palo
paloma
palomares
palomeque
palomo
palos
palud
pam
pame
pamela
pami
pamtaba
pan
panama
paname
panamericana
panchita
pancho
panchot
panda
pandan
pandemi
pandemic
pandikile
pandora
pandye
paniagua
panic
panique
panisse
pankowsky
pann
pano
panorama
panse
pansyon
pansyone
pant
pantalon
pantalones
pantera
panthe
panther
panthers
pantin
pantoja
pants
panyen
panyo
paola
paolella
paoli
paolo
pap
papa
paparazzi
papas
pape
papel
paper
papers
papi
papier
papillon
papy
papye
paquet
paquin
paquita
paquito
par
para
parables
parad
parade
paradero
paradi
paradis
paradise
paradiso
paragraf
paragwe
parai
paraiso
parale
paralle
parame
parameter
paramilite
paran
parano
parapluie
parapo
parasites
paration
parazit
parc
parce
parcelacio
parcours
pardaillan
pardo
pardon
pardonnez
pare
paredes
pareja
parent
parenthe
parents
parfait
parfaite
parfaits
parfois
parfum
pari
parientes
parigi
paris
pariser
parisien
parisienne
parisiennes
parisiens
parisot
parite
park
parker
parking
parkinson
parks
parla
parlant
parle
parlement
parlent
parler
parlez
parma
parme
parmi
parodi
parole
paroles
parque
parra
parrain
parrains
parrish
pars
parsons
part
partage
parte
partement
parti
participation
particular
particulie
particulier
partido
partie
parties
partir
partner
partners
partout
partridge
parts
party
paru
pas
pasa
pasadena
pasado
pasaj
pasaje
pasan
pascal
pascale
pascual
pase
pasif
pasifik
pasio
pasiones
paske
paso
pasolini
pasos
paspo
pasquale
pasquali
pasquel
pasquet
pasquier
pass
passage
passageira
passageiro
passager
passagers
passages
passaic
passant
passante
passe
passent
passeport
passer
passeur
passing
passion
passionne
passions
past
paste
pasteur
pastor
pastora
pasyan
pasyant
pasye
pasyon
pasyone
pat
pata
pataje
patat
patch
pate
patel
patellie
patenarya
pater
paterson
path
pathe
pathogens
pati
patience
patient
patients
patikil
patikilye
patin
patio
patiraj
patisipan
patisipasyon
patisipe
patizan
patne
pato
patoje
patri
patria
patric
patrice
patricia
patricio
patrick
patrie
patrimoine
patrimwa
patriot
patriote
patriotes
patriyotik
patro
patrol
patron
patrona
patronne
patsy
patte
patterson
pattes
patton
patty
patwa
patwo
patwon
paty
pau
paul
paula
paule
paulet
paulette
pauli
paulin
paulina
pauline
paulino
paulo
pauly
pause
pauvre
pauvres
pave
pavel
paviot
pavo
pawa
pawas
pawn
pawo
pawol
pawolye
pax
paxton
pay
payan
paye
payer
payet
payi
payne
payot
pays
paysage
paysan
payton
paz
pcr
pdf
pdg
pe
peabody
peace
peach
peaky
pearce
pearl
pearson
peau
pecado
pecadora
pecados
pecan
peche
peck
pedestrian
pedi
pedraza
pedrera
pedret
pedro
pedroza
peebles
peer
peg
peggy
peindan
peine
peines
peinse
peintre
peintres
peinture
peken
pela
pelayo
pelham
peli
pelican
peligro
peligrosas
pelissier
pelle
pellegrin
pelletier
pellicer
pelo
peluche
peluffo
peman
pemberton
pembroke
peme
pen
pena
penal
pendance
pendances
pendant
pendleton
pendu
pene
penelope
penensil
penguern
penguin
peniche
penisilin
penn
pennington
pennsilvani
pennsylvania
penny
penobscot
pense
pensent
penser
pension
pensionnat
pent
pente
penthouse
penti
pentire
penvern
peo
people
peopleenespanol
peoria
pep
pepa
pepe
pepita
pepito
peple
peplum
pepper
pequen
per
peralta
peraza
perce
perception
perceval
perche
percy
perd
perdida
perdidos
perdigo
perdo
perdomo
perdona
perdone
perdre
perdrix
perdu
perdue
perdues
perdus
pere
perea
peregrina
pereira
peretjatko
peretti
pereyra
perez
perfect
perfecta
perfectas
perfecto
performance
performing
perfume
pergament
perico
perkins
perla
perle
perles
permanent
permis
permission
pernel
perni
pero
perou
perozo
perpe
perrault
perreau
perret
perrette
perrier
perrin
perrine
perro
perron
perroni
perros
perrot
perrotta
perry
perse
perseguidos
perseverancia
person
persona
personaje
personajes
personal
personnage
personnages
personnalite
personnaz
personne
personnel
personnes
perspective
perspectives
peru
peruana
peruano
pervenche
pervier
peryo
peryodik
pes
peste
pestisid
pete
peter
peters
petersburg
petersen
peterson
petion
petit
petite
petites
petits
petra
petri
petrie
petro
petwo
petyon
petyonvil
peu
peuple
peuples
peur
peut
peuvent
peux
pewou
pewouvye
pewouvyen
peye
peyi
peyiba
peyizaj
peyizan
peyrelon
peyton
pez
peze
pg
ph
pha
phan
phane
phanie
phant
phantom
phants
pharao
pharmacien
phe
phelps
phi
phil
philadelphia
philadelphie
philharmonia
philibert
philip
philipe
philipp
philippe
philippine
philippon
philips
phillip
phillipe
phillippe
phillips
philo
philocte
philome
philosophie
philosophique
philosophy
phine
phoebe
phoenix
phone
photo
photographe
photos
php
phrase
phrases
phu
phyllis
physics
physique
pi
pia
piaf
pialat
pianiste
piano
piat
pib
piblik
piblikasyon
piblisite
pibliye
pic
pica
picard
picasso
piccoli
piccolo
pichon
pick
pickens
pickford
pico
picture
pictures
pide
pidgin
pidjin
pidoux
pie
piece
pieces
pied
piedad
piedra
piedras
pieds
piel
pier
pierce
piernas
piero
pierre
pierres
pierrette
pierrot
pierson
pieter
pietro
pifo
pig
pigalle
pigaut
pigeon
pigeons
pignol
pignon
pignot
pihi
pijon
pik
pike
piki
pil
pila
pilar
pile
pili
pilmone
pilo
pilon
pilot
pilote
pilotes
piloto
pim
piman
pimentel
pimstein
pin
pina
pinal
pinar
pinares
pinaud
pine
pineau
pineda
pinedo
pines
pinheiro
pini
pinisyon
pink
pino
pinocchio
pinon
pinos
pinot
pinoteau
pins
pinson
pintan
pinter
pinto
pinzo
pio
pion
pioneer
piotr
pip
pipa
pipe
pipelet
piper
pipi
pipo
pippa
pique
piquer
piquet
piran
pirandello
pirat
pirata
pirate
pirates
pire
pires
pis
pisans
piscataquis
piscine
pisier
pisin
pisode
pisodes
pistachy
piste
pit
pita
pital
pitch
piti
pitie
pitit
pito
pitre
pitt
pittsburg
pittsburgh
pittsfield
piu
piublik
piye
pizarro
pizo
pizza
pj
pl
pla
placard
place
placer
places
placide
placido
plage
plai
plain
plaine
plainfield
plains
plainview
plainville
plaire
plaisir
plaisirs
plaj
plak
plan
plancher
planchon
plane
planet
planifikasyon
planifye
planque
plant
plantasyon
plantation
plantations
plante
plantes
plantier
plas
plase
plasma
plastik
plat
plata
platane
platas
plateados
plateau
platfo
platinum
plato
platon
platt
platte
play
playa
played
player
players
playhouse
playing
plays
plaza
ple
pleasant
pleasantville
please
plein
pleine
pleins
plen
plenn
plent
plenyen
plessis
pleure
pleurer
pleut
plezans
plezi
pli
plim
plirye
plis
plisye
plizye
plomb
plon
plonbye
plonje
plot
plu
pluie
plum
plume
plumes
plummer
plurye
plus
plusieurs
plutarco
pluto
plymouth
pm
pman
pmc
pmid
po
poblado
pobre
pobres
poca
pocahontas
pocas
poche
poches
pocholo
pocket
poco
podalyde
poder
podi
podium
poe
poelvoorde
poems
poetry
poids
poil
poing
point
pointe
points
poiraud
poire
poiret
poirier
poirot
poison
poisson
poissons
poitiers
poitou
poitrenaud
poivre
poke
poker
poko
pol
pola
polanco
poland
polanski
polar
pole
poli
police
polices
polici
policier
policy
poligny
polis
polish
polisse
polisye
polisyon
political
politician
politics
politik
politique
politiques
politisyen
polizeiruf
polk
polka
pollack
pollard
pollet
pollock
polly
polo
polone
polvo
polynice
pom
pomeroy
pomme
pommier
pompadour
pompe
pompes
pompidou
pompiers
pompilus
pon
ponce
ponch
poncho
pond
ponp
ponpis
ponpye
pons
ponse
pont
ponte
pontiac
ponts
pony
ponye
pool
poole
poor
pop
pope
popilarite
popilasyon
popile
populaire
popular
population
poque
poques
por
pore
porel
porfirio
porque
porras
porres
port
porta
portage
portail
portal
portant
porte
portent
porter
portes
porteur
porteuse
portier
portillo
portland
porto
portrait
portraits
portrayals
portsmouth
portugal
porvenir
posada
pose
posede
posesyon
posib
posibilite
posiblite
positif
position
posse
possession
possibilite
possible
post
postal
poste
posthume
postila
postim
pot
potansye
pote
poteau
potes
poto
potomitan
potoprens
potosi
potrero
potter
pottier
pou
poubel
poucet
pouctal
poud
poudre
pouget
pouic
poukisa
poukont
poul
poulain
poule
poulet
poulpe
poumon
pound
poupaud
poupe
poupou
pour
pouret
pouri
pourpre
pourpres
pourquoi
pourri
pourriat
poursuite
pous
pousan
pousantaj
pouse
pousse
poussie
poussin
pouswiv
pousye
poutan
poute
poutine
pouvoir
pouvwa
poux
pouzadoux
povrete
powdikte
powe
powell
power
powerbook
powers
powetik
poza
poze
pozisyon
pozitif
pozo
pp
pr
praa
practice
practices
prada
pradal
pradel
pradier
pradinas
pradines
prado
prague
prairie
prairies
pral
prale
pran
prann
prat
pratik
pratike
pratique
pratiques
prats
pratt
prayer
pre
preacher
preche
preciado
precio
preciosa
predesese
prefas
prefe
prefekti
preferans
prefere
prefieren
prefiks
pregnancy
preind
preinmyei
preizan
prekosyon
premie
premier
premiere
premiers
preminger
premio
premye
prend
prendre
prendront
prends
prenon
prens
prensa
prense
prensip
prensipal
prensipalman
prentan
preparasyon
prepare
prepozisyon
prescott
prese
presedan
present
presenta
presente
presents
presi
president
presidente
presidio
presipitasyon
presize
presizyon
preske
preskri
presle
presley
preso
presque
press
presse
presses
pression
prestige
preston
presyon
pretasyon
prete
pretty
preuve
preuves
preux
prevansyon
prevention
prevwa
prey
prezan
prezans
prezantasyon
prezantate
prezantatris
prezante
preze
prezidan
prezidans
prezidansye
prezidant
prezide
pri
price
pride
prie
priego
priest
prieto
prieur
prim
prima
primaire
primary
primavera
prime
primer
primera
primerahora
primero
primetime
primitif
primo
primoryel
prince
princes
princesa
princess
princesse
princesses
princeton
principal
principale
principe
principes
principessa
pringle
print
printemps
pris
prisca
priscila
priscilla
prise
prisionera
prison
prisoner
prisoners
prisonnie
prisonnier
prisonniers
prisons
privat
private
prive
privert
privile
privilegio
prix
priye
priyorite
prize
prizon
prizonye
pro
proble
problem
problemas
problems
proce
proceedings
process
processus
prochain
prochaine
proche
proches
proctor
procuna
procureur
prod
prodig
prodigios
prodigue
produ
produccio
producciones
producteur
production
productions
productrice
prof
profe
profesor
profesora
professeur
profession
professional
professionnel
professionnels
professor
profil
profilage
profile
profondes
profonds
profs
profundo
program
programme
progre
progreso
progress
prohibida
prohibido
prohibidos
proie
project
projection
projet
projets
prome
promenade
promesse
promis
promise
promotion
proof
prophe
prophecy
prophet
propia
propos
propose
proposition
propre
proprie
prose
prospect
prosper
prostitue
protagonista
protagonistas
protagonizara
prote
protection
protests
protocole
proust
provence
provens
providence
providencia
province
provincial
proviseur
provost
prudence
prudencia
prudencio
prueba
prune
pryor
psedonim
psi
psy
psych
psycho
psyon
psyonis
pt
pte
pu
pub
public
publication
publications
publics
publie
publimetro
publique
publiques
published
publisher
publishers
publishing
puce
puceau
pucelle
puch
pudor
puebla
pueblo
puente
puentes
puerta
puertas
puerto
puf
puga
puis
puissance
puissant
puits
pujol
pulaski
pulgas
pulido
pull
pullicino
pullman
pun
punch
punk
punta
punto
pupi
pupille
pur
pura
purcell
pure
purepeople
purial
puro
purple
pursuit
purviance
puscule
put
putain
pute
putnam
putzulu
puzzle
pwa
pwal
pwason
pwe
pwen
pwent
pwezi
pwisan
pwisansye
pwo
pwobabilite
pwobableman
pwoble
pwochen
pwodig
pwodiksyon
pwodikte
pwodiktris
pwodui
pwodwi
pwofe
pwofese
pwofesyon
pwofesyone
pwofi
pwofil
pwofite
pwofon
pwofonde
pwogram
pwogramasyon
pwograme
pwogre
pwogrese
pwoje
pwojeksyon
pwokire
pwoklamasyon
pwoklame
pwoksimite
pwolonje
pwome
pwomosyon
pwomote
pwonon
pwononse
pwononsyasyon
pwonoo
pwop
pwopagasyon
pwopaje
pwopo
pwopoze
pwopozisyon
pwopriyete
pwopryete
pwose
pwosedi
pwosesis
pwostitye
pwotagonis
pwote
pwoteje
pwoteksyon
pwotestan
pwoteste
pwoteyin
pwotoko
pwouve
pwove
pwovens
pwovize
pwovizwa
pwovizyon
pwovoke
pwoz
pyanis
pyano
pye
pyebwa
pyed
pyeton
pygmalion
pyon
pyonye
pyramide
pyre
python
q
qu
quadrille
quai
quais
qualite
quand
quang
quantum
quaranta
quarantaine
quarante
quarantine
quart
quartet
quartier
quartiers
quasimodo
quateur
quatre
quatrie
quattro
quavo
quay
que
quebec
queen
queens
quel
quelle
quelqu
quelque
quelques
quemado
quence
quences
quentin
querendo
querer
quererlo
quererte
querida
querido
ques
quesada
quest
question
questions
queta
queue
quevedo
queysanne
quez
quezada
qui
quichotte
quick
quie
quien
quiere
quiero
quiet
quijano
quilibre
quille
quilles
quin
quincean
quincy
quinn
quinta
quintana
quintanilla
quintero
quinto
quinton
quinzaine
quinze
quipe
quique
quiroga
quiroz
quisqueya
quita
quitman
quitte
quo
quoi
quotidien
r
ra
raba
rabah
rabate
rabbi
rabbit
rabe
raben
rable
rables
rabourdin
rac
racaille
racconti
race
rachael
rache
rachel
rachelle
rachid
rachida
racine
racines
racing
raconte
rad
rada
radame
radcliffe
radeau
radford
radio
radioformula
radu
radva
radyasyon
radyo
rae
raf
rafa
rafael
rafaela
rafaye
rafle
raga
ragazza
ragazzi
rage
ragueneau
rai
raid
raiders
rail
railles
railroad
raimbault
raimi
raimundo
rain
rainbow
rainer
raire
raires
raisin
raising
raison
raisons
raiza
raj
raja
rajes
rajot
rak
rake
rakonte
raksyon
ral
ralanti
rald
ralda
raldine
rale
rales
ralf
ralph
ralston
ralte
ram
rama
raman
ramanujan
rambal
rambaldi
rambert
ramblazo
rambo
rameau
rami
ramirez
ramiro
ramis
ramo
ramon
ramona
ramones
ramos
rampling
ramsay
ramse
ramsey
ramzy
ran
rana
ranc
rance
ranch
rancho
rand
randa
randall
randevou
randolph
randonne
randonneurs
randy
ranfo
rang
range
rangel
ranger
rani
ranje
rankin
rankont
rankontre
ranmase
rann
rannman
ranplasan
ranplase
ranpli
ranpo
ransom
ranson
rant
rantre
rants
ranve
ranvwaye
raoul
rap
rapatriye
rape
raphae
raphael
rapid
rapide
rapidman
rapids
rapie
raple
rapo
rapp
rappeneau
rapper
rapport
rapports
rapproche
rapt
raquel
raquin
rara
rard
rare
ras
rasanble
rasanbleman
rase
rasin
rasis
rasmane
raspoutine
rasse
rassoul
rasta
rastafari
rastro
rasyal
rasyon
rat
rata
rate
ratifye
ration
rations
ratner
raton
ratrice
rats
rature
ratures
rau
raud
raul
rault
raux
ravalec
rave
ravel
raven
ravin
raw
rawson
ray
rayito
raymond
raymonde
raymundo
raynal
raynald
raynaud
rayo
rayon
raza
razade
razo
razzia
rbara
rbd
rbiger
rbol
rby
rca
rcega
rcel
rcenas
rcn
rctv
rd
rdenas
rdoba
rdova
re
rea
reach
read
reading
ready
reagan
real
realengo
reali
realidad
reality
realize
really
reason
reau
rebati
rebbot
rebe
rebeca
rebecca
rebel
rebelde
rebelle
rebelles
rebellion
rebelyon
reboul
rebours
rebujos
rec
recent
recettes
reche
recherche
recherches
reckoning
reclusorio
recoing
recompensa
reconnai
reconstruction
record
recordings
records
recours
recreo
recueil
red
reda
redaksyon
redakte
redding
reddington
rede
redemption
redford
rediksyon
redisyon
redite
redmond
redonda
redondo
redouble
redui
redwi
reed
reedisyon
reem
rees
reese
reeves
ref
refaire
refe
referando
referans
refere
reference
references
refij
refijye
refize
reflechi
refleksyon
reflete
refo
reforma
refuge
refugio
refuse
regamey
regan
regard
regarde
regards
rege
regeneration
reggae
reggiani
reggie
regil
regilye
regina
reginald
regino
region
regis
regla
regle
regleman
rego
regresa
regreso
regrets
reguera
regular
rei
reich
reichenbach
reicher
reid
reign
reiguy
reile
reilly
reims
reina
reinaldo
reine
reiner
reinert
reines
reinhard
reinhardt
reinhold
reis
reitman
rejim
rejiman
rejis
rejise
rejte
rejwenn
rejyon
rejyonal
reke
rekey
rekiran
reklamasyon
reklame
reko
rekone
rekonesans
rekonpans
rekonstriksyon
rekrite
rekritman
rekte
relaciones
relasyon
related
relatif
relation
relations
relativite
relativman
rele
release
religieuse
religion
religions
relijye
relijyon
reliques
relye
remakab
remake
rembrandt
reme
remedios
remember
rement
remi
remigio
remington
remix
remo
remy
ren
rena
renaissance
renan
renard
renata
renato
renaud
renault
rence
rences
rencontre
rencontres
rencor
rencoret
rend
rendez
rendo
rendu
rene
renee
renesans
renge
renger
rengifo
renier
renmen
renn
rennes
reno
renoh
renoir
renouvlab
renouvle
rensselaer
rent
renta
renteri
rentes
rentre
rents
renucci
renzo
reo
reparasyon
reparto
repas
repe
repete
repetisyon
repiblik
repibliken
repitasyon
repo
reponn
repons
report
reporter
reporters
reports
repos
repoze
reprann
repre
represyon
reprezantan
reprezantasyon
reprezante
repris
reprise
reproduction
reproductive
repu
republic
repwodiksyon
repwodui
requena
requiem
requin
requins
requires
rer
res
resan
resanblans
resansman
rescate
rescue
rese
research
resepsyon
resepsyonis
resepte
reserva
resevwa
resi
residencial
resident
resipyan
resistance
resitan
reskonsab
resnais
resnikoff
resort
resources
resous
respe
respect
respekte
respektivman
respirasyon
respiratory
respiratwa
respire
responsab
responsabilite
responsable
responsablite
response
ressemblance
ressources
rest
restaurant
reste
restifo
restless
restoran
restorasyon
restorate
restrepo
restriksyon
results
resurrection
ret
reta
retabli
retana
rete
retes
retire
retiro
reto
retorno
retou
retounen
retour
retourne
retraite
retrato
retre
retrete
retrieved
retrouvailles
retrouve
rette
retue
return
returns
reuben
reunion
reusser
reuters
rev
revancha
revanche
reve
revelasyon
revele
revenant
revenants
revenge
revenir
reveran
revers
reveye
revi
reviens
revient
review
reviews
revista
revize
revizyon
revni
revo
revoir
revoke
revolisyon
revolisyone
revolution
revolutionary
revolver
revue
reward
rex
rey
reyaji
reyaksyon
reyalis
reyalite
reyalizasyon
reyalizate
reyalizatris
reyalize
reye
reyes
reyini
reyinyon
reyisi
reymond
reyna
reynaldo
reynaud
reynolds
reynoso
reyo
reyon
rez
reza
reze
rezidan
rezidans
rezilta
rezime
rezistan
rezistans
reziste
rezo
rezolisyon
rezon
rezone
rezonodwes
rezoud
rfanas
rfi
rfloor
rg
rgen
rhapsody
rhea
rhin
rhine
rho
rhode
rhodes
rhonda
rhum
rhums
rhys
rhythm
ri
ria
riaboukine
riad
rian
rias
riau
ribeiro
ribes
ribot
ribowska
ribowski
ric
rica
ricain
ricaine
ricaines
ricains
rican
ricard
ricardo
ricas
riccardo
ricci
ricco
rice
rich
richard
richards
richardson
riche
richebe
richelieu
richepin
richer
riches
richesse
richet
richfield
richie
richland
richmond
richter
rick
ricky
rico
ricorde
ricos
rida
riddim
ride
rideau
rider
riders
ridge
ridgely
ridgeville
ridgeway
ridicule
riding
ridley
rie
riel
riels
riemann
rien
rience
riendas
rienne
riens
rier
riera
ries
rieur
rieure
rieures
rieurs
rieuse
rieux
rif
rififi
rifkin
riga
rigadin
rigaud
rigaut
rigbi
right
rightarrow
rights
rigo
rigoberto
rigolo
rigord
rik
rika
ril
riley
rim
rimbaud
rime
rin
rina
rinaldi
rinco
ring
ringo
ringuet
rini
rio
riode
rioja
rios
riot
riou
rioufol
rip
riph
ripley
ripoll
ripoux
ripper
riq
rique
riquelme
riques
rir
riral
rire
ris
risa
risch
rise
rises
risi
rising
risk
riske
rispal
risque
risques
rissey
risson
rit
rita
ritable
ritage
ritchie
rite
ritie
ritier
ritiers
ritm
ritmik
riton
ritt
ritter
ritu
ritus
ritz
riva
rivadeneira
rivage
rival
rivales
rivalite
rivas
rive
rivelles
river
rivera
riverdale
rivero
rivers
riverside
riverton
rives
rivette
rivie
riviera
rivye
rix
riz
rkle
rle
rlei
rme
rmula
rn
rne
ro
roa
roach
road
roads
roamba
roanoke
roar
roard
rob
robada
robaina
robak
robbe
robbery
robbie
robbins
robe
robenson
roberson
robert
roberta
roberto
roberts
robertson
robespierre
robillard
robin
robineau
robinet
robins
robinson
roble
robledo
robles
robo
robot
robots
robson
roby
robyn
roc
roca
rocambole
rocca
rocco
roch
rocha
rochambeau
rochant
roche
rochefort
rochefoucauld
rochelle
rocher
roches
rochester
rocheville
rochild
roci
rocio
rock
rocket
rockford
rockingham
rockland
rocks
rockville
rockwell
rocky
rod
rodarte
rodas
rode
rodier
rodman
rodney
rodolfo
rodolphe
rodri
rodrigo
rodrigue
rodrigues
rodriguez
roe
roel
roes
rogelio
roger
rogers
rogue
rohan
rohmer
roi
roinsard
rois
roja
rojas
rojo
rokhaya
roland
rolande
rolando
rold
rolda
role
rolf
roll
rolla
rolland
rollin
rolling
rolls
rolph
rom
roma
romain
romaine
roman
romana
romance
romand
romane
romanesque
romani
romano
romans
romantic
romantique
rome
romelia
romeo
romero
romina
romo
romuald
romulus
romy
ron
ronald
ronaldo
ronan
rond
ronda
ronde
rondo
ronds
rone
ronet
ronique
ronnie
ronny
rony
roo
roody
rookie
room
rooney
roosevelt
roots
ropert
roport
roque
roquevert
roro
rory
ros
rosa
rosado
rosalba
rosales
rosali
rosalie
rosalind
rosalinda
rosanna
rosario
rosas
rosaura
roschdy
roscoe
rose
roseland
roseline
roselyne
rosemary
rosemond
rosen
rosenberg
rosenda
rosendo
rosenthal
roses
rosette
roseville
rosi
rosie
rosier
rosine
rosita
roslyn
rosny
ross
rossana
rossellini
rossi
rossif
rossignol
rossignon
rossini
rosso
rossy
rostand
rostro
rosy
rota
roth
rotinsulu
roto
rotzinger
rou
rouamba
rouaud
rouch
roue
rouen
rouffio
rouge
rougerie
rouges
rouget
rough
rouj
roule
rouleau
rouletabille
roulez
roumain
roumer
round
rourke
rousse
rousseau
roussel
rousselle
roussillon
roussin
route
routes
routledge
rouve
roux
rouzier
rove
roversi
row
rowan
rowe
rowena
rowland
roxana
roxane
roxanne
roxbury
roy
royal
royale
royalton
royaume
royce
royer
roze
rozier
rquez
rraga
rrez
rritu
rs
rse
rsf
rsonne
rss
rsula
rt
rtbf
rte
rti
rtl
rts
rttemberg
ru
rua
rube
ruben
rubens
rubi
rubia
rubiales
rubin
rubio
ruby
ruddy
rude
rudi
rudnicki
rudolf
rudolph
rudy
rue
rueda
rues
ruffo
rufina
rufino
rufus
ruggia
ruggles
rui
ruiz
rule
rules
rulli
rumba
rumeur
run
runaway
runner
running
runs
rupert
rupture
ruptures
rural
rusalem
rush
rushville
rusk
russ
russe
russek
russell
russellville
russes
russia
russian
russie
russo
rusty
ruta
ruth
rutherford
rutland
rutledge
rutshelle
ruvalcaba
ruy
rwanda
rwo
ry
ryan
ryder
rye
ryu
rzano
s
sa
saa
saada
saavedra
sab
saba
sabana
sabanas
sabanilla
sabatier
sabbagh
sabe
saber
sabido
sabina
sabine
sabino
sable
sables
sabor
sabrina
saby
sac
sacerdote
sacha
sache
sachs
sacramento
sacre
sacred
sacrifice
sacrificio
sada
saddle
sade
sadie
sadoyan
sae
safari
safe
safety
safi
safy
saga
sagamore
sagan
saganne
sage
sagesse
saget
saglio
sagnier
sagols
sagrario
sahara
sai
said
sailor
saint
sainte
saintes
saintil
saints
saire
sais
saison
saisons
sait
saj
sak
sake
sakho
sakre
saks
saksofo
saksofonis
sal
sala
salad
saladin
salado
salah
salaire
salamanca
salas
salaud
salauds
salazar
salcedo
saldan
saldi
sale
saleem
saleh
salem
salerno
sales
salfati
salgado
sali
salida
salif
salim
salimata
salina
salinas
salinger
salisbury
salle
salles
sallette
sally
salma
salmon
salnave
salo
salome
salomo
salomon
salon
salsa
salt
saltillo
salto
salud
salue
salut
salvador
salvadori
salvaje
salvajes
salvatierra
salvation
salvatore
salvatori
sam
sama
samaniego
samantha
samb
samba
samdi
same
samedi
sami
samia
samir
samira
sammy
samo
samourai
sampson
samson
samuel
samuell
samuels
samy
san
sanaa
sanabria
sanble
sanches
sanchez
sancti
sand
sandberg
sanders
sanderson
sandor
sandoval
sandra
sandre
sandrine
sandro
sands
sandwich
sandy
sanford
sang
sangare
sanger
sanglante
sangre
sangriento
sangue
sani
sanite
sann
sanogo
sanon
sanou
sans
sansa
sansasyon
sansib
sant
santa
santacruz
santamari
santamaria
santamarina
santana
santander
sante
santelli
santi
santiago
santiba
santiesteban
santilla
santillana
santim
santiman
santime
santini
santo
santoni
santos
santral
santre
santschi
santyago
sanz
sao
sapajou
saphia
sapho
sapin
sar
sara
sarafian
sarah
sarajevo
saratoga
sardou
sarfati
sarfatti
sargent
sargento
sarin
sarita
sarkozy
sarlat
sarmiento
sarr
sarraounia
sarraut
sars
sartre
sasha
saslavsky
sassy
sastre
sasyon
satan
satana
satelit
satin
satire
satisfe
sattouf
saturday
saturne
saturnin
sau
saucedo
sauf
sauk
saul
saunders
saura
saurel
sauret
saut
saute
sautet
sauvage
sauvages
sauvajon
sauve
sauver
sauveur
savage
savain
savait
saval
savan
savane
savann
savannah
savantes
savary
save
saved
savent
saves
saville
savin
saving
savoie
savoir
savon
savoy
savwa
saw
sawadogo
sawyer
say
says
sbs
sc
scali
scalp
scanda
scandal
scandale
scar
scara
scaras
scarlet
scarlett
scary
sce
scene
scenes
schaar
schaffner
schatten
schatz
schatzky
schedule
schell
schepisi
schickel
schiffman
schiller
schlesinger
schlo
schmid
schmidt
schmitt
schnabel
schneider
scho
schoeller
schoendoerffer
schoharie
scholars
school
schpountz
schrader
schreiber
schro
schroeder
schroeter
schu
schubert
schulmann
schultz
schulz
schumacher
schumann
schuster
schutt
schuyler
schwartz
schwarz
schweiger
schœlcher
sci
sciamma
science
sciences
scientific
scientifique
scientifiques
scob
scola
scolaire
scooby
scoop
score
scoresway
scorpion
scorsese
scotland
scott
scotto
scoumoune
scout
scranton
scream
screen
scrupules
sdj
se
sea
seal
sean
seara
search
searle
seas
seaside
season
seasons
seaton
seattle
seau
seb
seban
sebastia
sebastian
sebastien
sec
seche
seck
seco
second
seconde
secondes
secondi
seconds
secours
secre
secret
secreta
secretaria
secretario
secretary
secretas
secreto
secretos
secrets
section
secuestro
secundaria
security
sedgwick
sediman
seduccio
see
seed
segal
seghers
segman
segment
segon
segond
segonde
segonn
segovia
seguin
segunda
segundo
segura
sei
seid
seigner
seigneur
seigneurs
seiler
sein
seine
seins
seis
seiter
sejou
sekans
sekirite
sekou
sekre
sekrete
seksye
seksyon
sekte
sel
sele
selebrasyon
selebre
selebrite
seleccio
selected
seleksyon
seleksyone
selena
self
selfie
selil
selile
seller
sellers
selma
selon
selva
semaine
semaines
semantik
sembe
seme
semenoff
semi
semine
seminole
semoun
sempre
sen
sena
senaris
senaryo
senate
senbo
senbolik
senbolize
sence
senda
sendel
sendika
sendikalis
sendomeng
sendwo
sene
seneca
senecal
senegal
senegale
sengapou
senghor
sengilye
senior
senk
senkant
senkye
sennett
senos
senoussi
senp
senpleman
sens
sense
sent
senta
sentaks
sentant
sentation
sente
sentespri
senti
sentier
sentiers
sentiment
sentimental
sentimentale
sentimentales
sentiments
sentimientos
sentinel
sentinelle
sento
senyen
senza
seo
seoane
seok
seol
seon
seong
seoul
sepandan
separasyon
separe
sepsyon
sept
septanm
september
septembre
septie
septiembre
sepu
ser
sera
serafi
serafina
serai
serait
seras
sere
seremoni
serena
sereyal
sereys
serfaty
serge
sergeant
sergei
sergent
sergi
sergio
serguei
seri
serial
serie
series
serious
serment
serna
serpent
serpentine
serra
serradilla
serrano
serrault
serre
serreau
sert
serteur
servais
servando
servante
serve
served
serveur
serveuse
servi
service
services
servin
servir
serye
ses
sespe
session
sessue
set
setadi
setbon
sete
seth
sets
sette
setye
seuil
seul
seule
seulement
seuls
seung
seve
seven
seventh
severo
sevilla
seville
seward
sex
sexe
sexes
sexo
sexos
sexual
sexuelle
sexy
seydou
seydoux
seye
seymour
sezi
sezon
sezons
sfar
sgt
shade
shades
shadow
shadows
shady
shaft
shakespeare
shalim
shall
shane
shanghai
shannon
shapiro
sharis
shark
sharon
sharp
sharpe
shaun
shaw
shawano
shawn
shawnee
shay
she
shea
sheen
sheffield
sheila
shelby
sheldon
shell
sheller
shelley
shelly
shelton
shen
shenandoah
shepard
shepherd
sheridan
sheriff
sherlock
sherlyn
sherman
sherrill
sherry
sherwood
sheyla
shi
shield
shields
shift
shiloh
shim
shin
ship
shirley
shoals
shock
shoe
shoes
shoot
shooter
shooting
shop
shopping
shore
shores
short
shorty
shot
should
show
shrek
shrew
shrewsbury
shyamalan
si
sia
siachoque
sias
sib
sibe
sibi
sibley
sibo
siboney
sibra
sibstans
sibstiti
sibyl
sica
sicard
sich
sick
sicot
sid
sida
side
sidence
sident
sidente
sidentielle
sidi
sidibe
sidiki
sidkoreye
sidney
sidonie
sidwe
sie
siege
siegel
siegfried
siegrid
siempre
sierra
sies
siete
sieur
sifas
siffleur
sifrael
sight
siglo
sigma
sigmund
sign
signal
signature
signe
signes
signora
signoret
signs
sigo
sije
sijere
sik
sikilasyon
sikile
siklis
siklo
sikolo
sikoloji
sikolojik
sikonstans
sikse
siksede
siksese
siksesif
siksesyon
sikui
sikyat
sikyatrik
sil
sila
silab
silans
silas
silberfeld
silence
silences
silencieux
silencio
silent
silex
silhol
silk
silla
siller
silva
silvana
silvano
silver
silvera
silverio
silvestre
silvetti
silveyra
silvia
silvio
sim
sima
simancas
simas
simbi
sime
simenon
simeon
simitye
simmons
simms
simo
simon
simona
simone
simoneau
simonet
simonte
simple
simplement
simplemente
simples
simpson
sims
simuladores
sin
sinaloa
sinapi
sinbad
since
sinclair
sind
sinema
sinetik
sineyas
sing
singe
singer
singes
singh
singing
single
singleton
sings
sinisterra
sinon
sins
siodmak
sion
sioux
sipe
siperye
sipo
sipoze
sipre
siprime
sipriz
sir
siraba
sirakiz
sire
siren
sirena
sirgo
siri
sirilik
sirk
sirs
sirvent
sis
sispann
sispe
sissako
sisser
sissi
sissoko
sistance
siste
sistematik
sister
sisters
sistible
sit
sita
sitade
sitasyon
sitcom
site
sites
sitio
sitiyasyon
sitiye
sito
sitou
sitruk
sitter
situation
situations
sitwaye
sitwayen
sitwe
sitweb
sitwon
sitye
sive
siveyan
siveyans
sivik
sivil
sivilizasyon
siviv
sivivan
siwo
six
sixie
sixth
sixto
siy
siyal
siyati
siye
siyen
siyifi
siyifikasyon
siyifikatif
sizanka
size
sizye
sk
ske
sketch
sketches
ski
skies
skin
skip
skrip
sky
slade
slate
slater
slave
sleep
sleeping
sleepy
slevin
slim
slimane
sloan
sloane
slow
smai
smala
small
smalley
smallville
sman
smart
smathers
smet
smile
smiley
smit
smith
smithfield
smithville
smoke
smoking
sms
smyrna
snake
sncf
snow
snub
snyder
so
soap
sobe
sobel
sobero
sobrado
sobre
soccer
soccerway
social
sociale
sociales
socie
sociedad
society
socorro
socrate
socye
soda
soderbergh
sof
sofa
sofi
sofia
sofiane
soft
sohna
soi
soie
soient
soif
soigne
soir
soire
sois
soit
sojcher
soko
sol
sola
solal
solana
solange
solano
solar
solares
solaz
sold
solda
soldat
soldats
soldier
soldiers
sole
soledad
soleil
soleils
soler
soli
solid
solidarite
solignac
solis
solisyon
solitaire
solitaires
solitario
solite
solitude
solitudes
sollima
solo
solomon
solon
solter
soltera
soltero
solution
solveig
sombra
sombras
sombre
some
someone
somers
somerset
somerville
something
sometimes
somewhere
somme
sommeil
sommer
sommers
sommes
sommet
somos
son
sonaj
sonalite
sonate
sondaj
sone
song
songe
songes
songs
sonia
sonja
sonje
sonn
sonne
sonnenfeld
sonny
sono
sonodisc
sonora
sonrisa
sons
sonson
sont
sonthonax
sony
sonya
soo
sook
soon
sophia
sophie
sophocle
soprano
sor
sora
soral
soraya
sorbonne
sorcerer
sorcie
sorcier
sorciers
sordo
sordre
sore
sorel
sorgho
soria
soriano
sorrento
sorriaux
sorry
sors
sort
sortant
sorte
sorti
sortie
sortile
sortilegio
sortir
sos
sosa
sosyal
sosyalis
sosyete
sosyo
sosyolo
sosyoloji
sot
sote
sotha
soti
sotigui
soto
sotomayor
sotto
sou
souad
souagnon
soualem
soubeyrand
souchon
souci
soucis
soud
soudan
soudjian
souf
souffle
soufiane
soufle
soufrans
soufri
souke
soul
soulajman
soule
souleymane
soulier
soulouque
souls
soulye
soumanou
soume
sound
sounds
soup
soupc
soupe
souper
souplex
souprefekti
source
sources
sourire
souris
sourit
sous
sousa
souse
south
southampton
southeastern
southern
soutni
soutter
souvan
souvenir
souvenirs
souvent
souvere
souveren
souviens
souza
sovaj
sove
soviet
sovyetik
sow
sowie
soy
soyez
sp
spa
space
spade
spain
span
spanic
spanish
sparks
sparta
spe
speak
speaker
speakerine
spear
special
species
spectacle
spectacles
spectateur
spectre
spedes
speed
speitzer
spektiv
spell
spencer
spero
sphinx
spi
spider
spielberg
spiero
spies
spiesser
spike
spin
spinosa
spirale
spirit
spirits
spiritus
spirou
splash
split
sport
sporting
sports
spottiswoode
spring
springdale
springer
springfield
springs
spur
spy
sqrt
squad
square
squeda
squez
sr
sra
sras
sri
srta
ss
ssa
sse
ssica
st
sta
stacey
stacy
stade
staff
stafford
stage
stagiaire
stahl
stalin
staline
stalingrad
stalker
stan
stand
standard
standing
stanford
stanislas
stanislav
stanislavski
stanley
stanton
stapleton
star
stargate
stark
starr
starring
stars
start
starter
stas
state
states
station
statistical
statistics
statistique
statue
status
stavans
stavisky
stay
ste
steel
steele
steen
steenfort
stefan
stefani
stefano
stegui
stein
steinberg
steiner
steinhoff
steketee
stella
stelli
stellio
stengel
steno
step
stephan
stephane
stephanie
stephen
stephens
stephenson
steps
sterling
stern
sternberg
steuben
steve
steven
stevens
stevenson
stevie
steward
stewart
sthers
sti
stica
stil
still
stiller
stillwater
stines
sto
stock
stockbridge
stocker
stockholm
stockton
stockwell
stokes
stol
stolen
stoller
stone
stonewall
stony
stop
stor
stora
store
storey
storia
stories
storm
story
stow
stowe
straight
strange
stranger
strangers
strasbourg
strasburg
strate
stratford
strauss
stream
street
streets
strength
stress
strickland
strickler
strike
strikteman
strindberg
string
strip
strogoff
stroh
strong
structure
struggle
stu
stuart
stubbs
stuck
student
students
studies
studio
studios
study
sturges
stuttgart
style
styles
su
sua
suarez
sub
subiela
subject
sublime
subway
succe
success
such
suco
sucre
sud
sue
suen
suena
suerte
sueurs
suffit
suffolk
sugar
sugarcane
suggested
suicide
suif
suis
suissa
suisse
suit
suite
suits
suiv
suivant
suivante
suive
suivez
suivi
suivre
sujet
suk
sul
sullivan
sully
sulphur
sultan
sultats
sum
sume
summer
summers
summerville
summit
sumner
sun
sunday
sundown
sung
sunny
sunrise
sunset
sunshine
supe
super
supercondriaque
supergirl
superior
superiora
superman
supernatural
superstar
supple
support
supre
sur
surdoue
suresnes
surf
surface
surge
surprise
surprises
surre
surrection
sursis
surtout
surveillance
survey
survivor
sus
susan
susana
susanna
susanne
sushi
susie
suspect
suspectes
suspects
suspense
suspicion
sussex
sussfeld
susy
sutherland
sutter
sutton
suwa
suzanne
suze
suzie
suzy
sw
swa
swadizan
swahili
swaim
swamp
swan
swann
swanson
sware
swasant
sweden
sweeney
sweet
sweetheart
sweetwater
swen
swift
swimming
swing
swis
swisid
swiss
swit
switch
switching
swiv
swivi
swoe
sword
sy
syal
syans
syantifik
syantifikman
syantis
sybille
sycamore
sydney
sye
syedwa
sykes
sylla
sylvain
sylvan
sylvester
sylvestre
sylvia
sylviane
sylvie
sylvio
symphonie
syn
syndrome
syntaxe
syon
syracuse
syste
system
systematic
systems
szabo
szlo
szwarc
sœur
sœurs
t
ta
taank
tab
taba
tabak
tabes
table
tableau
tableaux
tabli
tablissement
tablo
tabor
tabou
tabuteau
tac
tacchella
tach
tache
tacher
taco
tacones
tad
tadeo
tadi
tae
taft
tag
tagbo
tage
tagle
tahar
tahi
tahiti
tai
taient
tail
taille
tailleur
tain
tainsy
taire
tais
tait
tak
take
taken
takes
taking
taks
taksi
tal
talan
talbot
tale
talent
talents
tales
talia
talin
talisma
talite
talk
talking
tall
talladega
talleyrand
talon
tam
tamahori
tamara
tamarindo
tamayo
tambie
tambour
tambours
taming
tammy
tamorphose
tampa
tan
tanbou
tancre
tancredi
tandans
tande
tandem
tandiske
tang
tanger
tango
tanguy
tania
tank
tankou
tann
tanner
tano
tanovic
tanp
tanpe
tanperati
tanpore
tans
tansyon
tant
tantativ
tante
tanto
tanya
tanzani
tap
tape
tapia
tappan
tapsoba
tara
tarabilla
tarantino
tard
tarde
tardieu
tarek
targaryen
target
taro
tarride
tarso
tartuffe
tarzan
tas
tasajera
tasma
tasse
tasyon
tat
tata
tate
tati
tatiana
tatie
tato
tatort
tatoue
tats
tau
taularde
taule
taunton
taupe
taureau
taurog
taux
tavare
tavares
tavernier
taviani
tavira
taxi
taxista
tay
taye
tayer
tayilann
tayino
taylor
taymor
taywann
tbo
tc
tch
tchad
tche
tchebycheff
tchekhov
tchernia
te
tea
teacher
teachers
teague
team
teams
tears
tease
teatro
teau
teaux
technique
techniques
technology
tective
tectives
ted
teddy
tedeschi
tee
teen
teenage
tegui
teid
teie
teihe
teil
teinde
teinmp
tejada
tejar
tejera
teknik
teknisyen
teknoloji
teks
teksas
tektonik
tel
telain
telch
tele
telecolombia
telefe
telefo
telegraph
telemundo
telenovela
telenovelas
telerama
telerman
teles
teleset
telesistema
telesko
telet
televen
televisa
televisio
television
televizyon
telfort
tell
telle
tellement
teller
telles
tellier
tello
tellus
tement
tempe
tempest
tempestad
temple
templeton
templiers
tempo
temporada
temprano
temps
temptation
temwanyaj
temwayaj
temwaye
temwen
ten
tend
tender
tendra
tendre
tendremos
tendres
tendresse
tene
tenerife
tengo
teni
teniente
tenis
tennant
tennessee
teno
tenorio
tension
tent
tentacio
tentaciones
tentation
tente
tenue
teo
teodora
teodoro
teori
tephritidae
tequila
ter
tera
terapi
teras
tercera
tere
teren
terence
teresa
teresita
teritoryal
teritwa
terme
terminal
terminator
termine
ternel
ternelle
ternite
terra
terrace
terrain
terrasse
terre
terrence
terres
terrestres
terreur
terrible
terribles
territoire
terror
terry
tersbourg
tes
tesoro
tess
tessa
tessari
tesse
tessier
test
testaman
testament
teste
testot
testud
tet
tete
teuf
teur
teworis
tex
texana
texas
text
texte
textes
teyat
teyoloji
teyore
teyori
teyorik
teyssier
tez
tf
tgv
th
tha
thaddeus
thai
thali
than
thank
that
thatcher
thayer
the
theater
theatre
theda
thefutoncritic
their
thelisma
thelma
them
then
theo
theodor
theodore
theory
there
theremin
theresa
therese
these
theta
they
thiago
thiam
thibaud
thibault
thibaut
thie
thief
thier
thierno
thierry
thieves
thin
thing
things
think
thique
third
thirteen
thirty
this
tho
thode
thom
thomas
thomassin
thomaston
thompson
thomson
thor
thorne
thornton
thorpe
those
thought
thousand
three
thriller
thrones
through
thumb
thunder
thune
thurman
thurston
thybaud
ti
tia
tiago
tiare
tib
tibe
tibebe
tiberio
tibet
tibiwon
tiburon
tic
tica
ticket
ticky
tico
tide
tidiane
tie
tiempo
tiempos
tien
tienda
tiendre
tiene
tienne
tiennes
tiens
tient
tier
tierra
tierras
tiers
ties
tif
tiffany
tifi
tifika
tifikasyon
tifye
tigal
tige
tiger
tigre
tigwav
tij
tijeras
tijuana
tik
tikal
tike
tiki
tikras
til
till
tillie
tillier
tillman
tilly
tim
tima
timber
time
timent
times
timid
timo
timothe
timothy
timoun
timsit
tin
tina
tine
tinieblas
tinis
tinite
tinizi
tinizyen
tinmound
tino
tinoco
tintin
tinto
tiny
tio
tioga
tion
tions
tioulong
tip
tiphaine
tipik
tipikman
tipton
tique
tiques
tir
tirard
tire
tirez
tiro
tirolien
tis
tisation
tise
tisi
tisman
tisse
tissier
tissot
tit
tita
titanic
titans
tite
titi
titia
tition
title
tito
titre
titres
tits
titus
tiu
tiye
tman
tnp
to
tobago
tobi
tobias
tobin
toby
toc
tod
toda
todas
today
todd
todeschini
todo
todos
toe
together
tognazzi
togo
togole
tograf
toi
toile
toiles
toit
toits
tokyo
told
tole
toledano
toledo
tolere
tolland
tolstoi
tolstoy
tom
toma
tomas
tomasa
tomat
tombe
tombeau
tomber
tome
tommasi
tommy
tomonn
tomorrow
tompkins
ton
tonbe
tonetti
tong
toni
tonie
tonight
tonino
tonio
tonnerre
tonque
tontas
tonto
tonton
tontons
tony
too
took
top
topoloji
toprens
toque
toribio
torike
toriken
toriko
tormenta
tornade
torne
toro
toronto
torrance
torre
torrealba
torreblanca
torreo
torres
torrija
torrini
torsten
tort
tortue
tory
tosca
toscano
tota
total
totale
totalite
totalman
toto
tou
toubab
toubib
toublanc
touch
touche
touched
touchez
toudenkou
toujou
toujoud
toujours
toulouse
toulouz
toune
tounen
tounwa
toupatou
toupre
tour
tourbillon
toure
touris
touristes
touristik
tourjansky
tourmente
tournage
tourne
tourneur
tournier
tours
tous
touse
tousen
toussaint
touswit
tout
toute
toutes
touth
toutouni
touving
touye
tovar
tower
towers
town
townsend
toxic
toy
toya
tr
tra
tracas
trace
traces
tracey
tracy
trad
trade
tradiksyon
tradikte
tradisyon
tradisyone
tradition
traducteurs
traduction
tradui
traduit
tradwi
traffic
trafic
trafik
trafikan
trage
tragedy
tragique
trahison
trahisons
trai
traicio
trail
trailer
trailera
train
trainer
trait
traite
traitement
trajedi
traka
tramp
trampa
trampas
tran
tranbleman
tranblemannte
tranche
tranches
trange
tranger
trangers
tranquille
tranquilles
trans
transfe
transfere
transfert
transferts
transfo
transformation
transformers
transit
transition
transkripsyon
translate
translation
transme
transmission
transmisyon
transparency
transpo
transporteur
trant
tranzaksyon
tranzisyon
traore
trap
trape
trapp
trapped
traque
tras
trase
traum
trauma
travail
travaille
travaux
travay
travaye
trave
travel
traven
travers
traverse
travesti
traviesa
travis
trayi
tre
treasure
treatment
trece
tree
treinta
treinte
treize
treizie
trejo
trek
tremblay
tremont
trempealeau
tren
trent
trente
trenton
trepadora
tres
tresse
trete
tretman
trevin
trevor
trevorrow
trey
trezo
tri
tria
trial
triana
triangle
triaz
tribes
tribi
tribinal
triboit
tribord
tribu
tribulations
tribunal
tribune
tricheurs
trie
trier
trieste
triet
trilogie
trilogy
triloji
trimble
trini
trinidad
trinite
trinity
trintignant
trio
triomphe
trip
triple
triporteur
triptyque
trise
tristan
triste
tristesse
triumph
triunfo
trividic
triyang
tro
troie
trois
troisie
troit
trojan
trole
trompe
trompette
trop
tropez
tropical
tropiques
trotignon
trottoirs
trou
trouble
troubles
trouillot
troupe
trousse
trousses
trouve
trouver
troy
troya
troyo
truand
truands
truc
trudeau
trudy
true
trueba
truffaut
trujillo
truman
trumbull
trump
trust
truth
try
ts
tsar
tt
tte
tu
tua
tual
tuaolo
tube
tuche
tuck
tucker
tucson
tude
tudes
tudiant
tudiante
tudiants
tudor
tue
tuel
tuer
tuerto
tuesday
tueur
tueurs
tueuse
tulio
tulipe
tullio
tully
tulo
tumba
tunas
tunisie
tunnel
turbulences
turc
turckheim
ture
turf
turin
turkey
turn
turner
turpin
turteltaub
turtle
turtles
tus
tuscaloosa
tuscarawas
tuset
tuteur
tutti
tuttle
tuya
tuyo
tv
tvazteca
tving
tvline
tvmag
tvn
tvynovelas
twa
twal
twale
twazye
twede
tweedy
twelve
twenty
twice
twilight
twin
twins
twist
twisted
twitter
two
twonpe
twopikal
twou
twoub
twoup
twouve
ty
tye
tyler
type
types
tyran
tyrone
tyson
tz
u
ubaldo
uchan
udo
ueh
uel
ugarte
ugly
ugo
ui
uisye
uit
uk
ulein
ulises
ulliel
ulloa
ulrich
ulrick
ulster
ultima
ultimate
ultimatum
ultime
ultimo
ulysse
ulysses
um
uma
uman
umberto
un
una
uncle
und
under
undercover
underground
understanding
underwood
une
unesco
uni
unicef
unidad
unies
unifrance
unilingue
unio
union
unionville
unique
uniquement
unis
unit
unite
united
unity
univers
universal
universalis
universe
universel
universelle
universidad
universitaire
universitaires
universitario
universite
university
univisio
univision
unknown
uno
unrecognized
uns
unter
until
uomini
uomo
uon
up
update
updated
upon
upper
upton
uqam
urbain
urban
urbana
urbano
urbina
urbini
urd
urdaneta
uregui
urgence
urgences
uriarte
uribe
uriel
urien
url
urquiza
urrutia
ursula
ursule
us
usa
usage
usai
use
used
usgs
usher
usine
using
usl
ussir
usted
usurpadora
utah
utica
utilisant
utilisation
utilise
uwe
uzan
uzca
uławski
v
va
vaca
vacaciones
vacances
vacation
vache
vaches
vaci
vade
vadim
vadrouille
vag
vagabon
vagabond
vagabundo
vagina
vague
vagues
vaillant
vais
vajda
vajen
vakans
vaksen
val
valab
valadez
valcin
valcourt
valcroze
valde
valderrama
valdes
valdez
valdiri
valdivia
valdivieso
valdman
vale
valence
valencia
valente
valenti
valentin
valentina
valentine
valentini
valentino
valenzuela
valera
valeria
valerie
valerio
valero
valery
valet
valette
valeur
valeurs
valide
validite
valiente
valientes
valise
valiz
valjean
valladares
valladolid
vallarta
valle
vallejo
valley
valli
vallier
valmont
valmy
valo
valois
valos
valparaiso
valse
valses
valtierra
value
values
valverde
valye
vamos
vampire
vampires
vampiro
van
vance
vancouver
vandal
vande
vander
vandredi
vane
vanegas
vanel
vanesa
vanessa
vania
vanier
vanille
vanina
vanite
vanity
vann
vannier
vano
vansyon
vant
vanyan
vape
vaquero
var
varante
varda
varela
varennes
vargas
variation
variations
varie
variety
various
varoni
varphi
vartan
varyab
varyant
varyasyon
varye
varyete
vas
vasco
vasconcelos
vaselina
vasion
vasquez
vasseur
vassili
vastey
vasyon
vate
vatel
vatikan
vattier
vatwa
vaucorbeil
vaudeville
vaudou
vaughan
vaughn
vaut
vautier
vazquez
vda
ve
vea
veber
vec
vecchiali
veces
vecina
vecindad
vecinos
vedado
vede
vedette
vedettes
vedrine
vega
vegas
veguita
veguitas
veil
veille
veilleur
veillon
veinards
veinte
veirby
vejyen
vekte
vel
vela
velarde
velasco
velazco
velez
velle
velo
veloppe
veloppement
velours
velvet
velyne
vement
ven
venait
venault
vencer
vendaval
vendetta
vendeur
vendeuse
vendo
vendre
vendredi
venegas
veneno
venero
venes
venet
venevisio
venevision
venezolana
venezuela
venezuelan
venezuelans
venezwela
venezwelye
venezwelyen
venezyela
venezyelyen
vengador
venganza
vengeance
veni
venice
venin
venir
venise
venn
vent
venta
ventail
vente
vento
ventre
vents
ventura
ventye
venu
venus
ver
vera
verac
veracruz
verano
verbe
verdad
verdaderos
verde
verdes
verdi
verdict
verdier
verduzco
vergara
vergez
vergne
vergu
verhaeghe
verheyde
verhoeven
verifye
verine
veritab
verite
verlag
verlaine
verley
vermillard
vermont
vernay
verne
verner
vernet
verneuil
verney
vernier
vernon
vernoux
vero
verona
veronica
veronika
verre
verrettes
verrier
vers
versa
versailles
versini
version
verso
versus
vert
verte
vertical
vertige
vertiges
verts
vertu
vervoort
very
ves
veso
vestiaire
vete
veteran
veterine
veuf
veulent
veur
veut
veuve
veuves
veux
veye
vez
vi
via
viager
viaggio
viaje
vial
vialle
vian
viana
vianey
vianney
viant
viard
vibrasyon
vic
vicario
vicas
vice
vicenta
vicente
vichy
vicki
vicky
vicomte
victim
victime
victimes
victims
victoire
victor
victoria
victorien
victorin
victorinos
victorio
victory
vid
vida
vidal
vidas
vide
videau
video
videos
videyo
videyoklip
vidocq
vidor
vie
vieil
vieille
vieilles
vieira
vieja
viejas
viejo
viel
viendra
viene
vienna
vienne
viens
vient
viento
vier
viera
vierge
vierges
viernes
vies
vieth
vietnam
vieux
view
vieyra
vif
vigan
vigi
vigil
vignac
vignal
vigne
vignola
vigo
vih
vii
viii
viing
viiny
vijil
vijini
viking
vikings
viktim
viktor
viktwa
vil
vila
vilain
vilaine
vilaire
vilaj
vilar
vilas
vilbrun
villa
villace
villafuerte
village
villagra
villain
villalba
villalobos
villalonga
villalpando
villamil
villamizar
villana
villano
villanova
villanueva
villar
villard
villareal
villarreal
villarroel
villars
villas
villasen
villaverde
villavicencio
ville
villegas
villela
villemin
villeneuve
villeret
villers
villes
villette
villiers
villon
vilma
vilsaint
vimala
vin
vinales
vince
vincennes
vincent
vincente
vincentelli
vincenzo
vinci
vine
vingt
vingts
vini
vinn
vinnie
vino
vint
vinton
vio
viol
viola
violaine
viole
violence
violencia
violent
violet
violeta
violetta
violette
violettes
violin
violon
violons
vip
vipe
viper
viral
vire
virgen
virgil
virgile
virgilio
virgin
virginia
virginie
virgu
viris
virna
virrey
virus
vis
visa
visage
visages
visconti
vise
vision
visions
visit
visita
visite
visiteur
visiteurs
vista
vit
vita
vital
vitale
vitali
vitaly
vitam
vitamin
vite
vitesse
vito
vitold
vitrant
vittoria
vittorio
viuda
viv
viva
vivan
vivanco
vivant
vivante
vivantes
vivants
vivas
vive
vivement
vivent
vives
vivian
viviana
viviane
vivianne
vivir
vivo
vivre
viza
vize
vizib
vizit
vizite
vizye
vizyon
vladimir
vlady
vle
vleid
vlope
vman
vni
vo
vocabulaire
vocation
voce
vocoret
vodou
vodouyizan
vogel
vogler
vogt
vogue
voice
voices
voici
voie
voila
voile
voir
vois
voisin
voisine
voisins
voit
voiture
voix
vokabile
vokal
vol
volant
volante
volants
volar
volca
volcan
volcy
vole
volet
voleur
voleurs
voleuse
volga
volim
volker
volo
volonte
volpone
volson
volt
volta
voltaire
volte
voltea
volume
volumes
volution
volutionnaire
volutionnaires
volver
vom
vomisman
vomiting
von
vont
voodoo
vor
vora
vos
voss
vost
vot
vote
votre
voudrais
voulait
voulez
vouloir
voulu
vous
voy
voyage
voyager
voyages
voyageur
voyageurs
voyante
voye
voyelles
voyez
voyou
voyous
voz
vp
vrai
vraie
vre
vreman
vres
vrier
vs
vtv
vu
vue
vuelo
vuelta
vueltas
vuelve
vues
vuillermoz
vwa
vwayaj
vwayaje
vwaye
vwayou
vwazen
vwazin
vwazinaj
vy
vyann
vye
vyetnam
vyo
vyolan
vyolans
vyolasyon
vyole
vyolonis
vyolonse
vyou
w
wa
wachinto
wachowski
waco
wade
wadsworth
waf
wagner
wagon
wagram
wah
wahl
wainwright
wait
waiting
wajda
wajeman
wake
wakefield
walcott
wald
waldemar
walden
waldo
waldron
walerian
wales
walid
walk
walker
walking
wall
wallace
waller
wallis
walls
wally
walnut
walsh
walt
walter
walters
walthall
walther
walton
waltz
walworth
wan
wanament
wanczycki
wanda
wang
want
wanted
wap
war
ward
warden
ware
wargnier
warm
warner
warning
warren
warrenton
warrior
warriors
wars
warsaw
warwick
was
wash
washburn
washington
watch
watching
water
waterford
waterhouse
waterloo
waters
watertown
waterville
watkins
watson
watteaux
watts
waugh
waukesha
waupaca
wave
waverly
waves
way
wayal
wayans
wayland
wayne
wayo
ways
we
weapon
weather
weaver
web
webb
webber
weber
website
webster
wedding
wednesday
weed
week
weekend
weekly
weeks
wei
weidenmann
weil
weill
weir
weiss
weitz
welch
welcome
weldon
well
welles
wellington
wellman
wells
wellsville
welsh
welt
welter
welz
wendell
wenders
wendy
wendyyy
wenn
wentworth
were
werewolf
wermus
werner
wes
wesley
wespieser
west
westbrook
westchester
western
westfield
westminster
westmoreland
weston
westphalia
westport
westville
westwood
wet
whale
wharton
what
wheatland
wheaton
wheel
wheeler
whelan
when
where
which
while
whiskey
whisperer
whitaker
white
whitehall
whiting
whitman
whitmore
whitney
whittaker
who
whose
why
wi
wick
wicked
wide
widow
widows
wie
wiene
wiener
wife
wiki
wikimedia
wikimedya
wikipe
wikipedia
wikipedya
wilbur
wilcox
wild
wilde
wilder
wildwood
wiley
wilfred
wilfrid
wilfried
wilhelm
wilkes
wilkins
wilkinson
will
willard
willem
willert
william
williams
williamsburg
williamson
williamstown
willie
willis
williston
willow
wills
willy
wilma
wilmer
wilmington
wilmore
wilms
wilson
wilton
wim
wimmer
win
winch
winchester
winckler
wind
windham
winding
window
windsor
wine
winfield
wing
winger
wings
winifred
winkle
winling
winnebago
winner
winnetou
winnie
winning
winocour
winona
wins
winslow
winston
winter
winterbottom
winters
winthrop
wir
wisconsin
wise
wish
wit
witch
with
witherspoon
within
without
witness
witt
wives
wizard
wladimir
wo
wobo
woe
woha
wojtowicz
wol
wolf
wolfe
wolff
wolfgang
wolfman
wolof
wolverine
woma
woman
womans
womansye
womantik
women
won
wonder
wonderful
wonderland
wong
wonm
wonn
wont
woo
wood
woodard
woodbine
woodbury
woodland
woodlawn
woodruff
woods
woodside
woodson
woodstock
woodville
woodward
woody
wook
woolf
woolrich
woon
woong
worcester
word
wordpress
words
woreth
work
working
workingirls
works
world
worlds
worms
worth
worthington
wote
wou
wouj
would
woule
woumani
wout
woz
wozo
wren
wright
writer
writers
writing
writings
written
wrong
wu
wuhan
wulschleger
www
wyatt
wyclef
wyler
wyn
wyoming
x
xabi
xaragua
xavier
xeinofhon
xi
xico
xiii
ximena
ximo
xiomara
xito
xiv
xix
xixe
xo
xv
xvi
xviie
xviii
xviiie
xxe
xxl
xy
y
ya
yaa
yaber
yacine
yadhira
yadir
yadira
yae
yago
yagua
yahoo
yajaira
yale
yam
yame
yameogo
yamil
yamile
yamina
yan
yang
yanick
yanis
yankee
yanm
yann
yanne
yannick
yanogo
yao
yaounde
yap
yaqui
yara
yard
yarey
yasmina
yasmine
yates
yaya
ye
year
years
yeguas
yellow
yellowman
yen
yeo
yeon
yeong
yeou
yepes
yerachi
yes
yesenia
yesterday
yeux
yheid
yi
yiddish
yman
yo
yoann
yoda
yohan
yolanda
yolande
yole
yoli
yon
yong
yoni
yonn
yoo
yoon
yordanoff
york
you
youn
young
younga
younger
your
youri
yours
youssef
youssouf
youth
youtube
yoyo
yton
yu
yucata
yul
yuliana
yuma
yun
yuri
yvan
yvelines
yves
yvette
yvon
yvonne
z
za
zabala
zabaleta
zaboka
zabou
zacari
zacatillo
zaccai
zach
zacharie
zachary
zack
zadi
zafe
zafi
zai
zaide
zak
zakka
zaldi
zam
zambrano
zame
zamor
zamora
zamore
zampa
zamudio
zan
zanchetta
zane
zanetti
zanj
zanmi
zanne
zannimo
zanse
zantiy
zanzibar
zapata
zar
zaragoza
zard
zardi
zaro
zarur
zauberman
zavala
zavaleta
zaza
zazie
zbo
ze
zeffirelli
zein
zeit
zeitoun
zeke
zekle
zelann
zelda
zelle
zeller
zem
zemeckis
zemi
zemmouri
zen
zend
zenda
zendejas
zenglen
zenith
zepeda
zepo
zerbo
zero
zeta
zetina
zetwal
zeus
zewo
zh
zha
zhang
zi
zia
ziad
zidi
zie
ziegfeld
zig
zigoto
zika
zilbermann
zile
ziley
zili
zim
zimbabwe
zimmer
zimmerman
zin
zina
zinedine
zingg
zini
zinnemann
zion
zita
zlotowski
zo
zobda
zodiaque
zoe
zoey
zoila
zola
zoltan
zombi
zombie
zon
zona
zonbi
zonca
zone
zongo
zonyon
zonzi
zoo
zoom
zora
zoraida
zoranj
zorrilla
zorro
zouk
zouti
zouzou
zozo
zquez
zu
zubizarreta
zucca
zucker
zuckermann
zulema
zuleta
zully
zulma
zulu
zum
zun
zuno
zur
zurita
zurlini
zuylen
zwazo
zwei
zweig
zwick
zwobada
zy
zye
zylberstein
{
|
}
~
¡
£
§
¨
ª
«
­
®
¯
°
±
²
´
·
º
»
½
¿
×
ø
œil
œuf
œufs
œuvre
œuvres
ǃ
ɑ
ɔ
ɛ
ˈ
ː
ˑ
̀
́
̂
̃
̄
̆
̇
̈
̊
̋
̌
̓
̔
̛
̠
̣
̥
̧
̨
̸
͂
͡
α
β
γ
δ
ε
ζ
η
θ
ι
λ
μ
ν
ο
π
ρ
ς
σ
τ
φ
ψ
ω
а
в
д
е
з
и
м
с
ч
ь
я
ָ
ה
ח
י
ا
َ
ٔ
ٕ
ก
ช
น
ม
ร
ส
ั
ิ
ี
ื
ุ
็
่
้
์
​
‎
‑
–
—
‖
‘
’
“
”
„
†
•
…
‭
′
″
‹
›
⁡
€
№
™
→
↔
↷
⇒
⇔
∀
∂
∃
∈
∏
∑
−
∗
∞
∣
∧
∫
≈
≡
≤
≥
⊂
⋅
⋯
⌊
⌋
③
④
⑦
●
⟨
⟩
⟺
⺀
⺄
⺆
⺈
⺊
⺌
⺕
⺝
⺸
⺼
⿰
⿱
⿲
⿳
⿴
⿵
⿶
⿷
⿸
⿹
⿺
⿻
〢
の
゙
コ
テ
ヒ
ユ
ル
レ
ン
ー
㇁
㇂
㇄
㇇
㇈
㇉
㇓
㐁
㐄
㐅
㐌
㐫
㐬
㐭
㐮
㐱
㑒
㒵
㒸
㒼
㓁
㓞
㔾
㕛
㕣
㖾
㘝
㚅
㚇
㚔
㚘
㝉
㝡
㝴
㝵
㞋
㞢
㞷
㠩
㠭
㠯
㡀
㡭
㡿
㢲
㢴
㣇
㣺
㥯
㪅
㫄
㫐
㫒
㫺
㬅
㬎
㬥
㬰
㲋
㳄
㷠
㸒
㸚
㸦
㼌
㼲
㽞
㿟
䀠
䂞
䍃
䏍
䒑
䖍
䖒
䖝
䖵
䙴
䚻
䜌
䝿
䡛
䧹
䪞
一
丁
丂
七
丄
丅
丆
万
丈
三
上
下
丌
不
与
丏
丐
丑
专
且
丕
世
丘
丙
业
东
丞
丢
丣
两
严
並
丨
丩
个
丫
丬
中
丮
丰
丱
串
丵
丶
丷
丸
丹
为
主
丽
丿
乀
乂
乃
久
乆
乇
么
义
之
乌
乍
乎
乏
乐
乑
乔
乖
乗
乘
乙
乚
乛
乜
九
乞
也
习
乡
乳
乾
亀
亅
了
亇
予
争
事
二
亍
于
亏
亐
云
互
亓
五
井
亘
亚
亜
亞
亟
亠
亡
亢
交
亥
亦
产
亨
亩
享
京
亭
亮
亯
亰
亲
亳
亶
亷
人
亻
亼
亾
仁
今
介
仌
从
仐
仑
仒
仓
仕
他
付
仝
代
令
以
任
企
伊
伏
伐
休
会
伯
但
位
何
佘
余
作
佥
使
來
侈
侌
侖
侯
侵
便
保
俞
信
修
倉
倍
候
倠
備
僉
僕
儿
兀
允
兂
元
兄
充
兆
兇
先
光
兊
克
兌
免
兑
兒
兓
兔
党
兜
兟
入
全
兩
兪
八
公
六
兮
兰
共
关
兵
其
具
典
兹
兼
冀
冂
冃
冄
内
冈
冉
冊
冋
册
再
冎
冏
冐
冒
冓
冖
冗
冘
军
农
冝
冡
冥
冫
冬
冷
几
凡
凢
凵
凶
凷
凸
凹
出
函
凾
刀
刁
刂
刃
刄
刅
分
切
刍
刑
刕
刖
列
刘
则
初
別
利
别
到
制
刺
則
削
剌
前
剡
剽
劉
力
功
加
劦
助
劫
劳
劵
勃
勇
勉
勒
動
務
勞
勤
勹
勺
勻
勾
勿
匀
匂
包
匆
匈
匊
匋
匍
匕
化
北
匚
匝
匡
匪
匱
匸
匹
区
医
匽
匿
區
十
卂
千
卄
卅
卆
升
午
卉
半
卌
华
卑
卒
卓
单
卖
南
卜
卝
卞
占
卡
卢
卣
卤
卦
卩
卪
卬
卯
印
危
即
却
卵
卷
卸
卻
厂
厃
厄
历
厈
厉
厌
厓
厘
厚
原
厤
厥
厨
厭
厲
厶
厷
厸
去
厼
厽
叀
参
參
叅
又
叉
及
友
双
反
叐
发
叒
叔
叕
取
受
叚
叜
叟
口
古
句
另
叩
只
召
可
台
叱
史
右
叵
号
司
叹
吂
各
吅
合
吉
吊
吋
同
名
后
吏
向
吕
君
吝
吞
否
含
启
吳
吴
吹
吾
呂
呆
呈
告
员
呙
周
命
咅
和
咎
咠
咢
咨
咸
咼
哀
品
哉
員
哥
哲
唐
商
啇
問
啚
啬
啻
善
喜
喬
單
喿
嗇
噩
嚴
囊
囗
囘
囙
囚
四
回
囟
因
囧
囬
困
囱
囷
固
国
圂
圅
國
圍
圓
土
圡
圣
圥
在
圭
地
圶
圼
坐
坒
坚
坴
垂
垔
垚
埀
埋
城
埶
執
基
堂
堅
堆
堇
堯
塞
墨
壘
士
壬
壯
声
壳
壴
壹
壺
壽
夂
处
夅
夆
备
夊
夋
夌
复
夏
夒
夕
外
夗
夘
多
夜
夢
大
夨
天
太
夫
夬
夭
央
失
夲
头
夷
夸
夹
夻
夾
奂
奄
奇
奈
奉
奎
奏
奐
契
奓
奔
奚
奞
奠
奢
奥
奭
女
奴
奻
好
如
妄
妙
妟
妥
妻
妾
姑
委
姜
威
娄
婁
婴
嬰
嬴
子
孑
孔
孕
孖
字
存
孚
孛
孝
孟
季
孤
学
孫
孱
學
宀
宁
宂
它
宅
宇
守
安
宋
完
宏
宓
宗
官
定
宛
宜
宝
客
宣
室
宮
宰
害
家
容
宾
宿
寄
寅
密
富
寒
察
寧
審
寫
寬
寮
寸
对
寺
寻
寽
対
寿
封
尃
射
将
將
專
尉
尊
尋
尌
對
小
少
尒
尓
尔
尖
尗
尚
尞
尢
尣
尤
尧
尨
尭
就
尸
尹
尺
尻
尼
尽
尾
尿
局
居
屈
屋
屎
屏
屑
展
屖
屚
属
屠
屡
屬
屮
屯
屰
山
屵
屾
岁
岂
岑
岡
岩
岳
岸
峯
島
崇
崑
崔
崖
崙
崩
嵬
嶲
巂
巛
川
州
巟
巠
巢
巤
工
左
巧
巨
巩
巫
差
己
已
巳
巴
巷
巸
巽
巾
巿
帀
市
布
希
帚
帛
帝
带
師
席
帶
常
干
平
年
幵
并
幷
幸
幺
幻
幼
幽
幾
广
広
庄
床
底
店
庚
府
度
庫
庭
庶
康
庸
廉
廌
廛
廣
廩
廴
延
廷
建
廾
廿
开
弁
弃
弄
弇
弋
式
弓
弔
引
弗
弘
弜
弟
弥
弦
弱
張
強
强
彊
彌
彎
彐
彑
当
彔
录
彖
彗
彡
形
彥
彦
彧
彭
彳
役
彼
往
待
律
徒
得
徙
從
復
微
徵
心
忄
必
忌
忍
志
忝
忠
忩
快
念
忽
忿
思
怠
急
怱
恆
恒
恩
恭
息
悉
患
悤
悲
悶
惠
惡
惢
愁
愈
意
愛
感
慈
慧
慮
憂
憲
應
戀
戈
戉
戊
戋
戌
戍
戎
成
我
戒
戔
或
戚
戠
戢
截
戲
戶
户
戹
戼
戾
房
所
扁
扇
手
扌
才
打
托
执
承
折
拉
拜
拿
掌
推
提
摩
支
攴
攵
收
攸
改
放
政
敄
敏
敕
敖
敗
敝
敞
敢
散
敦
敫
敬
数
敷
數
斂
文
斉
斊
斗
斤
斥
斩
斬
斯
新
方
於
施
斿
旁
旋
族
无
旡
既
旣
日
旦
旧
旨
早
旬
旱
旲
时
旾
昆
昇
昌
昍
明
昏
易
昔
昗
昜
星
春
昬
是
昱
昴
昷
時
晃
晋
晏
普
景
晶
智
暑
暴
曇
曩
曰
曲
曳
更
曷
書
曹
曼
曾
替
最
朁
會
月
有
朋
服
朔
朕
朗
望
朝
木
朩
未
末
本
札
朮
术
朱
朵
朶
朿
杀
杏
杜
束
条
来
東
杲
杳
松
析
林
枚
果
枝
枲
枼
某
柔
查
柬
柰
柴
栗
桀
桑
桼
梁
條
梟
梨
棘
棠
棥
森
楚
業
楽
榮
樂
樊
欠
次
欣
欮
欲
欶
欽
款
歆
歇
歛
止
正
此
步
武
歨
歪
歮
歯
歰
歲
歴
歷
歸
歹
歺
死
殳
段
殷
殸
殹
殺
殻
殿
毋
毌
母
每
毒
比
毕
毚
毛
毳
氏
氐
民
气
氣
水
氵
氶
氷
永
氺
氾
求
汝
汞
江
沃
沓
沙
沝
泉
法
波
泣
泥
泰
洛
洪
活
派
流
浦
浪
浮
淡
淮
清
渚
渠
湯
滿
漸
火
灬
灭
灰
灵
灷
炅
炎
炏
炗
炙
炭
為
烈
烏
烝
焉
無
焦
焱
然
煞
熊
熏
燕
營
燮
爪
爫
爭
爯
爰
爱
爲
爵
父
爻
爽
爾
爿
片
牙
牚
牛
牜
牟
牢
牧
牪
牽
犀
犬
犭
犮
狂
狄
狊
独
狺
猋
猒
猪
献
獻
玄
率
玉
王
玟
玨
珎
班
琴
瑟
瑩
瓜
瓦
甘
甚
生
産
用
甫
甬
田
由
甲
申
电
甶
男
甸
甹
画
甾
畀
界
畏
畐
留
畜
畟
畢
畧
畨
番
畫
異
畱
當
畺
畾
疊
疋
疌
疑
疒
疾
癶
癸
癹
登
發
白
百
皀
皃
的
皆
皇
皋
皐
皕
皮
皷
皿
盃
盆
盇
盈
益
盍
盎
监
盒
盖
盛
盡
監
盤
盧
目
直
相
盾
省
眇
眉
看
眔
眞
真
眷
眼
眾
着
睘
睪
睿
瞏
瞢
瞿
矍
矛
矞
矢
矣
知
矦
短
石
破
碎
磊
磨
示
礻
礼
祟
票
祭
禀
禁
禸
禹
禺
离
禽
禾
禿
秀
秃
秉
秋
科
秝
秦
移
稟
穀
穌
穴
究
穹
空
穿
突
窄
窒
立
竒
竜
竝
竟
章
童
竹
笑
笠
筆
等
答
箕
算
箴
節
篤
篭
米
粉
粛
粟
粤
粦
粲
糞
糸
糹
系
約
納
素
索
紫
累
細
絜
絫
絲
維
綿
縣
繇
纍
纟
缶
网
罒
罔
罕
罗
罙
罡
罢
罪
署
罷
羅
羊
羌
羍
美
羔
羕
羗
羞
羡
羣
群
義
羲
羸
羽
翁
翏
習
翕
翟
翠
翼
老
耂
考
者
耆
而
耎
耑
耒
耳
耴
耶
耷
聂
聊
聖
聚
聶
聿
肀
肃
肅
肉
肖
肙
肥
肩
肯
育
肴
胃
背
胡
胥
能
脊
脩
膚
臣
臤
臧
自
臬
臭
臯
臱
至
致
臺
臼
臽
臾
臿
舀
舂
舄
與
興
舉
舌
舍
舛
舜
舞
舟
般
艮
良
色
艸
艹
艾
芒
芔
芬
芮
花
芳
芺
芻
苔
苗
苟
若
苦
英
茶
茸
荅
草
荒
荣
荼
莆
莧
莫
莽
菆
菊
菐
華
萬
落
葉
著
葛
董
葵
蒙
蒦
蒼
蓋
蓬
蓺
蔑
蔡
蕉
蕭
薄
薛
薦
薰
藍
藏
藥
蘭
虍
虎
虐
虒
虔
處
虖
虗
虘
虚
虛
虜
虞
虫
虽
蚤
蚩
蜀
蜜
蟲
蠡
血
行
衍
衛
衣
衤
表
衮
衰
袁
袞
褭
褱
襄
襾
西
覀
要
覃
見
規
覓
覧
親
覽
见
角
解
言
訁
訇
計
詹
誩
諸
讠
谷
豆
豈
豊
豐
豕
豖
豙
象
豦
豩
豪
豸
貇
貝
貞
貟
負
貢
貧
貪
貫
責
貳
貴
買
費
賁
資
賈
賏
賓
賔
賛
賞
賢
賣
質
賴
贊
贝
贡
责
贯
贲
贵
赖
赞
赤
赦
走
越
足
路
蹇
身
躬
車
軍
軎
軟
輦
车
辛
辜
辟
辥
辰
辱
農
辵
辶
边
达
过
近
连
迷
追
退
送
逆
逐
通
速
造
逢
連
逮
進
遀
遂
過
道
達
遣
適
遷
遺
邊
邑
邕
那
邦
邪
郎
部
郭
都
鄉
酉
酋
配
酓
釆
采
里
重
野
量
金
釒
錢
钅
長
镸
长
門
閃
閉
開
閏
閑
閒
間
閔
閵
閻
闌
门
间
闷
阑
阜
阝
阿
降
陳
隆
隊
隋
隡
隨
隱
隶
隹
隺
隻
隼
隽
难
雀
雁
集
雈
雋
雍
雐
雔
雙
雚
雜
雝
離
難
雨
雩
雪
雲
零
雷
需
霍
霜
霝
霞
霸
靈
靑
青
非
靡
面
靣
革
韋
韦
韭
韯
韱
音
頁
頃
項
須
頗
頡
頻
顛
页
風
风
飛
飞
食
飠
養
饣
首
香
馬
馮
駦
马
骨
高
髟
鬥
鬯
鬲
鬼
魚
魯
鮮
鱼
鲁
鳥
鳳
鸟
鹵
鹿
麃
麗
麥
麦
麻
黃
黄
黍
黎
黑
黒
黨
黹
黽
黾
鼎
鼓
鼠
鼻
齊
齋
齐
齒
齿
龍
龙
龜
龟
龠
龰
龱
龴
龵
龶
龷
龸
龹

者
艹
？
￼
�
𠀁
𠀃
𠀆
𠀉
𠀎
𠀐
𠁁
𠁣
𠂆
𠂇
𠂈
𠂉
𠂊
𠂋
𠂎
𠂒
𠂔
𠂛
𠂡
𠂢
𠂤
𠂬
𠂭
𠂹
𠃊
𠃋
𠃌
𠃍
𠃎
𠃑
𠃓
𠃔
𠃜
𠄌
𠄎
𠄠
𠄢
𠆢
𠆥
𠇍
𠈌
𠌵
𠓜
𠔉
𠔥
𠔼
𠔽
𠔿
𠕀
𠕁
𠕋
𠘧
𠘨
𠙻
𠙼
𠚏
𠚒
𠚤
𠚪
𠣏
𠤎
𠤕
𠥓
𠦄
𠦑
𠦝
𠧒
𠧗
𠧪
𠩺
𠪚
𠫓
𠫔
𠫤
𠬛
𠬝
𠬞
𠬢
𠬤
𠬶
𠮛
𠮦
𠮷
𠯑
𠱠
𠳮
𠷎
𡈼
𡉀
𡉵
𡌥
𡍮
𡏳
𡕒
𡕩
𡕰
𡖅
𡗗
𡗜
𡘆
𡘤
𡧱
𡨄
𡩧
𡬠
𡭽
𡰣
𡰥
𡰪
𡰯
𡰱
𡷈
𡸁
𡿨
𡿩
𡿪
𡿺
𢀖
𢀛
𢀩
𢁙
𢆉
𢆰
𢆶
𢇁
𢇇
𢉖
𢌬
𢌿
𢏚
𢑑
𢑚
𢖻
𢙣
𢛳
𢦏
𢦒
𢧵
𢼄
𢾕
𣁋
𣄼
𣅀
𣅽
𣍘
𣎳
𣎵
𣏋
𣏼
𣗥
𣥂
𣥖
𣦵
𣦼
𣧄
𣪊
𣪠
𣬉
𣳾
𣶒
𤇾
𤊽
𤐫
𤓰
𤔔
𤕨
𤣩
𤰇
𤰔
𤰞
𤴓
𤴔
𤽄
𥁑
𥁕
𥃦
𥃩
𥃭
𥇡
𥑟
𥘅
𥘈
𥝢
𥫗
𥱡
𦈢
𦉪
𦉬
𦉼
𦍌
𦍒
𦎧
𦐇
𦓔
𦔮
𦘒
𦙃
𦚏
𦣝
𦣞
𦣻
𦥑
𦥔
𦥯
𦨉
𦭝
𦰩
𧆞
𧈧
𧘇
𧰨
𧴪
𧴮
𧵩
𧾷
𨸏
𨾴
𩙿
𩠐
𩫏
𩵋
𪉷
𪜀
𪟽
𪠲
𪩲
𫇦
𫔭
𫜸
𫝀
𫠣
𫠩
𫢉
𫥞
𫩏
𫩠
𫪡
𫲽
𫶧
𬀷
𬐘
𬗌
𬙙
𬛸
𬜯
𬟩
𬯁
𬴘
𬺻
𬼉
𬼖
𭀰
𭁈
𭁨
𭅰
𭑈
𭕄
𭗼
𭤨
𭥫
𭻾
𮅕
𮊿
𮍌
𮍏
𮓗
𮥼
𮧮
廾
𰀁
𰀄
𰀈
𰀉
𰀕
𰀠
𰀡
𰀢
𰀪
𰁜
𰃮
𰆊
𰆘
𰋙
𰕎
𰢴
𰧭
𰯲
00--
01--
02--
03--
04--
05--
06--
07--
08--
09--
106--
120--
470--
82--
881--
99--
a--
aal--
ab--
abdel--
abe--
abi--
abo--
abst--
absti--
abu--
aby--
ac--
aca--
ache--
achi--
actu--
acu--
ad--
ade--
admira--
ado--
adu--
advo--
ae--
af--
aff--
affec--
affirma--
ag--
aga--
age--
ago--
agrip--
agu--
ah--
ai--
air--
ais--
ait--
ak--
aka--
ako--
akt--
al--
ala--
alci--
ale--
aleks--
alf--
algo--
ali--
all--
alma--
almen--
alo--
aly--
am--
ama--
ambass--
ambu--
amer--
ami--
an--
ana--
anar--
and--
anda--
andi--
ando--
ane--
ang--
anglo--
angui--
ani--
ank--
ankhe--
anna--
annu--
ano--
ans--
ant--
anthro--
anti--
any--
ao--
ap--
apa--
apart--
aph--
apo--
appa--
apwo--
aqu--
aqui--
ar--
ara--
aran--
arc--
ard--
are--
argu--
ari--
ark--
arme--
arna--
aro--
arre--
arroy--
art--
arti--
artif--
as--
ase--
ash--
asi--
ass--
assu--
astro--
astu--
at--
ata--
ate--
atte--
au--
aud--
auf--
aug--
aus--
ausen--
auto--
av--
ava--
ave--
avi--
ay--
aya--
ayewo--
az--
b--
ba--
bab--
baby--
bac--
bach--
back--
bad--
bae--
bag--
bah--
bai--
bak--
bal--
bam--
ban--
bar--
bara--
barri--
bart--
bas--
bat--
bau--
bay--
baz--
be--
bea--
beau--
bec--
beck--
bed--
bee--
beha--
bei--
bel--
bell--
belle--
ben--
bene--
ber--
berg--
bern--
bert--
bet--
beu--
bey--
bi--
bia--
bib--
bid--
bien--
big--
bil--
bim--
bin--
bio--
bir--
bis--
bit--
biyo--
biz--
bla--
black--
ble--
blo--
blu--
blue--
bly--
bo--
bocc--
bod--
boe--
bog--
bois--
bol--
bom--
bon--
boon--
bor--
borg--
bos--
bou--
boug--
boui--
bour--
bourd--
bourn--
bous--
bout--
bouy--
bow--
boy--
boz--
br--
bra--
bram--
bran--
bre--
bri--
brig--
brill--
bro--
broad--
brom--
bron--
brou--
broui--
brown--
bru--
bry--
bu--
bucc--
buck--
bud--
bug--
bul--
bull--
bum--
bun--
bur--
burg--
bus--
but--
buy--
bwe--
bwo--
by--
bye--
c--
ca--
cab--
caff--
cagua--
cai--
caill--
cal--
calami--
call--
calom--
cam--
cama--
can--
cana--
canni--
cao--
cap--
car--
cara--
card--
care--
cart--
cas--
cass--
cat--
cau--
cay--
ce--
cele--
celebra--
cell--
cen--
cent--
cer--
ces--
ceu--
ch--
cha--
chal--
cham--
chan--
chap--
char--
chas--
chat--
chau--
che--
cher--
chev--
chi--
chim--
cho--
chu--
chy--
ci--
cid--
cil--
cine--
cio--
cir--
cit--
ck--
cl--
cla--
cle--
clear--
cler--
cli--
clo--
clover--
clu--
clus--
cn--
co--
coal--
cog--
col--
cold--
cole--
com--
come--
compa--
compo--
con--
concur--
confide--
confir--
cons--
consom--
contamina--
cop--
copenha--
coq--
cor--
corn--
corp--
cos--
cot--
cou--
cour--
coutu--
cov--
cow--
cra--
cran--
cre--
creat--
cri--
cro--
cru--
cry--
cu--
cuad--
cue--
cul--
cum--
cump--
cur--
cut--
cy--
d--
da--
dac--
dag--
dago--
dagogi--
dal--
dam--
dan--
dar--
dare--
das--
dau--
day--
de--
dead--
debu--
dec--
dei--
dek--
del--
dela--
deli--
dem--
demes--
demo--
den--
der--
derud--
des--
desay--
det--
dete--
deu--
dez--
di--
dia--
diag--
diar--
dic--
die--
dieu--
dig--
dik--
dill--
dio--
diput--
dis--
disappe--
discrimina--
diwe--
dix--
diz--
dj--
dje--
dji--
do--
dob--
doc--
dog--
dom--
don--
doo--
dor--
dou--
dow--
dr--
dra--
dream--
dro--
drum--
du--
dub--
duc--
dun--
dur--
dy--
dya--
e--
east--
eb--
eber--
ecc--
eche--
eck--
eco--
ed--
eddy--
ede--
edge--
edi--
edo--
eff--
eg--
eh--
ehr--
ei--
eich--
ein--
einmp--
eis--
eisen--
eit--
eje--
eji--
ek--
eksp--
ekwa--
ekze--
el--
ela--
ele--
elec--
elek--
eleu--
eli--
elk--
elm--
ely--
em--
eme--
emi--
emple--
en--
end--
ende--
endi--
enfla--
enmas--
ens--
enseig--
ente--
entre--
environ--
ep--
epi--
epis--
equ--
equi--
er--
ere--
erip--
es--
esca--
escu--
est--
este--
estu--
et--
eta--
etche--
eth--
eu--
euph--
euphor--
euro--
ev--
eva--
eve--
evi--
ex--
exclus--
exe--
exhi--
exoti--
exp--
expe--
expend--
explora--
exter--
exzi--
ey--
ez--
f--
fa--
fabri--
fac--
fact--
fah--
fai--
fair--
fal--
fals--
fan--
far--
fas--
fast--
fat--
fau--
faus--
fe--
feld--
fem--
fen--
fer--
fet--
feu--
fhilo--
fi--
fie--
figu--
fik--
fil--
film--
fin--
fini--
fir--
fire--
fish--
fitz--
fla--
flash--
flat--
fle--
flo--
flor--
flu--
fo--
fol--
folk--
fon--
fonda--
for--
fos--
fou--
four--
fox--
fra--
frac--
frag--
france--
fre--
fred--
free--
fres--
fri--
fro--
fu--
fugi--
ful--
fun--
func--
fur--
furn--
furt--
g--
ga--
gag--
gai--
gal--
gali--
gam--
gan--
gar--
gas--
gau--
gay--
gaz--
ge--
gel--
gen--
gene--
geo--
ger--
ges--
get--
ghi--
gi--
gia--
gian--
gig--
gil--
gin--
gio--
gior--
gis--
giu--
gla--
gle--
glen--
gli--
glo--
go--
gob--
god--
gol--
gold--
gon--
good--
gor--
got--
gou--
gour--
gra--
gram--
gran--
grand--
gravita--
gray--
gre--
green--
gri--
gro--
groen--
gros--
gru--
gu--
gua--
guay--
gue--
guer--
gui--
guil--
gun--
gur--
gut--
guy--
gy--
gyne--
h--
ha--
hab--
hack--
had--
hae--
haff--
hag--
hai--
haiti--
hal--
hall--
ham--
hamp--
han--
hand--
har--
hard--
hart--
harts--
has--
hat--
hau--
haver--
hay--
haz--
he--
head--
heart--
hed--
hel--
hels--
helve--
hem--
hen--
hend--
henn--
her--
here--
heu--
hey--
hh--
hi--
hiawa--
hick--
high--
hil--
hill--
him--
hin--
hip--
his--
hit--
hl--
ho--
hob--
hoch--
hol--
holl--
home--
hon--
hoo--
hop--
hor--
horri--
hot--
hou--
how--
hu--
hue--
hun--
hur--
hy--
hym--
hyp--
hypo--
i--
ia--
ib--
ibe--
id--
if--
ig--
il--
ilist--
ill--
im--
ima--
imi--
immi--
impli--
in--
ina--
inc--
incom--
incor--
indi--
indust--
ine--
infor--
ing--
inge--
ini--
inol--
ins--
insu--
int--
intellec--
inter--
invas--
inves--
io--
ip--
ir--
ira--
ire--
is--
iskan--
iso--
ist--
it--
ita--
iv--
ix--
iz--
izo--
j--
ja--
jae--
jai--
jam--
jan--
jar--
jau--
jay--
je--
jean--
jen--
jer--
jewo--
jeyo--
ji--
jim--
jin--
jis--
jo--
job--
joff--
joli--
jon--
jou--
joy--
ju--
juri--
k--
ka--
kaep--
kai--
kal--
kali--
kam--
kan--
kant--
kap--
kar--
kas--
kat--
kay--
ke--
kei--
ken--
ker--
key--
kh--
ki--
kid--
kil--
kim--
kin--
kir--
kirs--
kit--
kiult--
kle--
kno--
knu--
ko--
koe--
kom--
kome--
kon--
konst--
konsti--
kont--
kontra--
kor--
kore--
koreya--
kos--
kot--
kou--
koundis--
kouns--
koval--
kowa--
koye--
kr--
kra--
kre--
kri--
kro--
kry--
ks--
ku--
kur--
kwa--
kwo--
ky--
l--
la--
lab--
laby--
lac--
lad--
ladis--
laff--
lagun--
laj--
lak--
lake--
lamo--
lan--
land--
lang--
lans--
lap--
lar--
larti--
las--
lau--
law--
lay--
le--
lea--
lec--
led--
lee--
leg--
lei--
lemm--
len--
leo--
leon--
ler--
les--
let--
lev--
lexi--
ley--
li--
lia--
lib--
libe--
lic--
licen--
lie--
lig--
lik--
lim--
lime--
lin--
lind--
lio--
lip--
lis--
lit--
liv--
liz--
ll--
lle--
lo--
lock--
log--
logi--
lom--
lon--
long--
lor--
los--
lot--
lou--
low--
lp--
ls--
lu--
luc--
luce--
lud--
lum--
lus--
ly--
lynn--
m--
ma--
mac--
macau--
mack--
mad--
mae--
maf--
mag--
mah--
mai--
mak--
mal--
mala--
male--
mali--
mam--
man--
mando--
mani--
mano--
manu--
map--
mar--
mari--
maria--
marsh--
mary--
mas--
mat--
matrim--
mau--
max--
may--
maz--
mc--
mccor--
mcfar--
mcg--
mcmu--
me--
mea--
mec--
med--
meg--
meh--
mei--
mek--
mel--
men--
mer--
meri--
mes--
met--
meta--
meu--
mey--
mi--
mid--
mie--
miff--
mig--
mik--
mil--
mill--
min--
mini--
mio--
mir--
mira--
mire--
mis--
mit--
mix--
mm--
mo--
mob--
moc--
mod--
moi--
mol--
mom--
mon--
monia--
mono--
mont--
monte--
moon--
moor--
mor--
more--
mos--
mosc--
mot--
motiva--
mou--
mous--
move--
moy--
mp--
mu--
mul--
mun--
mur--
my--
n--
na--
nag--
nai--
nan--
nap--
nar--
nas--
nasci--
nat--
natas--
nati--
nau--
nay--
nd--
ne--
neces--
nee--
nel--
ner--
nes--
net--
neu--
new--
news--
ng--
ni--
nic--
nico--
nie--
nig--
nin--
nip--
nis--
no--
noa--
noc--
nom--
non--
noncia--
nor--
nord--
north--
nos--
not--
note--
nou--
nour--
ns--
nt--
nu--
nuo--
nur--
ny--
o--
oak--
ob--
obe--
ober--
obste--
oc--
oca--
occ--
octa--
ocu--
odi--
odis--
oeu--
of--
off--
og--
oh--
oji--
ok--
ol--
ola--
old--
oly--
om--
on--
one--
ont--
op--
opport--
or--
org--
ori--
oro--
orr--
ortho--
os--
oss--
ot--
oto--
otta--
ou--
out--
ouv--
over--
ow--
ox--
oxy--
oz--
p--
pa--
pag--
paj--
pak--
pal--
palla--
palm--
palo--
pam--
pan--
pap--
papa--
par--
para--
park--
pas--
past--
pat--
pau--
pay--
pe--
peace--
ped--
peda--
peder--
pel--
pen--
penn--
pep--
per--
perio--
pes--
pesca--
pey--
ph--
pha--
phe--
phi--
phil--
pho--
phon--
phonologi--
phy--
physi--
pi--
pia--
pic--
pick--
pie--
pier--
pig--
pil--
pin--
pine--
pis--
pisto--
pit--
pitts--
pl--
pla--
plan--
play--
ple--
pli--
plu--
pneum--
po--
poe--
poit--
pol--
poli--
poly--
pom--
pon--
pont--
pop--
por--
posit--
post--
pot--
pou--
pour--
pow--
pr--
pre--
prein--
pri--
princi--
pro--
protag--
pru--
pry--
pse--
psi--
pt--
pu--
pul--
pun--
pur--
put--
pwa--
pwe--
pwo--
py--
q--
qit--
qu--
quad--
quali--
que--
quent--
qui--
quin--
r--
ra--
rac--
rad--
radi--
radio--
radyo--
raf--
rag--
rai--
rain--
raison--
rak--
ram--
ran--
rap--
ras--
rat--
rau--
raw--
ray--
rd--
re--
rea--
rec--
rece--
recep--
recom--
red--
redout--
ref--
reg--
rei--
rek--
rela--
relati--
rem--
remo--
remp--
ren--
rend--
repre--
repwo--
res--
resi--
rest--
ret--
rev--
reve--
revi--
rey--
rez--
rg--
rhy--
ri--
ria--
rich--
rid--
ridge--
rie--
rif--
rig--
ril--
rim--
rin--
ring--
rio--
rip--
ris--
rit--
riva--
rn--
ro--
rob--
roca--
rock--
rod--
rode--
roe--
rom--
ron--
roo--
ros--
rose--
ross--
rou--
row--
rt--
ru--
rue--
rug--
rui--
rum--
run--
rush--
ry--
s--
sa--
sab--
sac--
sad--
sai--
sak--
sal--
sala--
sam--
sama--
san--
sand--
sang--
sani--
sar--
sara--
satis--
sau--
sauve--
say--
sc--
scan--
scand--
scap--
scar--
sce--
sch--
scha--
schaus--
sche--
schi--
schl--
schu--
sci--
sco--
scor--
scotts--
scru--
scu--
sculp--
scye--
se--
sea--
seb--
sec--
see--
seg--
sei--
sek--
sel--
sem--
sen--
sens--
ser--
ses--
seu--
seve--
sex--
sey--
sh--
sha--
shag--
sham--
shan--
shar--
she--
sher--
shi--
shl--
sho--
show--
shu--
si--
sib--
sid--
sie--
siff--
sik--
sil--
sim--
sin--
sir--
sis--
sit--
sk--
ske--
sky--
slip--
slo--
smo--
smug--
snow--
so--
socio--
sog--
sol--
sola--
som--
son--
sor--
sou--
souf--
soup--
sp--
spa--
spar--
spe--
spi--
spin--
spo--
spont--
squ--
squi--
ss--
st--
sta--
stan--
star--
ste--
ster--
sti--
sto--
strat--
stu--
su--
sub--
sud--
sue--
suff--
sul--
sum--
sun--
super--
supp--
sur--
surveil--
sus--
sw--
swa--
swan--
swe--
sy--
syl--
sym--
symp--
syn--
t--
ta--
tab--
tac--
taf--
tag--
tai--
tak--
tal--
tam--
tan--
tap--
tar--
tart--
tas--
tat--
tau--
tay--
te--
tea--
teau--
tech--
tel--
tele--
ten--
tend--
ter--
tet--
teu--
tex--
tey--
th--
tha--
the--
ther--
thi--
thio--
thu--
ti--
tib--
tif--
tig--
tij--
tik--
til--
tim--
time--
tin--
tir--
tis--
to--
toc--
tom--
ton--
too--
top--
topog--
tor--
torn--
tou--
tour--
tout--
town--
tr--
tra--
trac--
trans--
tre--
trem--
tremble--
tres--
tri--
tro--
tron--
trou--
tru--
ts--
tsu--
tt--
tu--
tur--
tus--
tv--
twe--
two--
ty--
tz--
u--
ucc--
ui--
uk--
ul--
ull--
ult--
um--
un--
una--
under--
uni--
uns--
up--
ur--
us--
usu--
v--
va--
vain--
val--
van--
var--
vas--
vau--
ve--
vec--
vel--
ven--
vende--
ver--
ves--
vey--
vi--
via--
vic--
vig--
vil--
villa--
ville--
vin--
vine--
vir--
virtu--
vis--
vit--
viv--
viz--
vo--
vocabu--
vol--
volont--
volun--
von--
vor--
vou--
voy--
vrai--
vs--
vu--
vwa--
vyo--
w--
wa--
wai--
wal--
wall--
wan--
wap--
war--
was--
water--
wau--
way--
waynes--
we--
web--
wei--
wein--
wer--
wert--
wes--
west--
wex--
wey--
whis--
whit--
white--
wi--
wid--
wie--
wig--
wiki--
wil--
wild--
win--
wind--
wir--
wis--
witt--
wo--
wol--
woo--
wood--
wou--
wu--
wy--
x--
xi--
xo--
y--
ya--
yam--
yan--
yar--
yas--
yaz--
ye--
yer--
yi--
yo--
york--
you--
yu--
z--
za--
zam--
zan--
zar--
ze--
zen--
zer--
zh--
zi--
zie--
zo--
zoo--
zou--
zu--
zur--
zwi--
œdi--
--0
--00
--01
--02
--03
--04
--05
--0556
--06
--07
--08
--09
--1
--10
--11
--111
--12
--13
--14
--15
--16
--17
--18
--19
--2
--20
--21
--22
--23
--24
--25
--26
--27
--28
--29
--3
--30
--31
--32
--33
--34
--35
--36
--37
--38
--39
--4
--40
--41
--42
--43
--44
--45
--46
--47
--48
--49
--5
--50
--51
--52
--53
--54
--55
--56
--57
--58
--59
--6
--60
--61
--62
--63
--64
--65
--66
--67
--68
--69
--7
--70
--71
--72
--73
--74
--75
--76
--77
--778
--78
--79
--8
--80
--81
--82
--83
--84
--85
--86
--87
--88
--89
--9
--90
--91
--92
--93
--94
--95
--96
--97
--98
--99
--a
--ab
--aba
--able
--abo
--ac
--aceæ
--ach
--acio
--ack
--aco
--acre
--ad
--ada
--ade
--adero
--adine
--ado
--ados
--adou
--ady
--ae
--af
--afa
--ag
--aga
--age
--ager
--ah
--ai
--aient
--ain
--aine
--aire
--aires
--ais
--ait
--aj
--aje
--ak
--al
--ala
--ale
--ales
--alis
--alite
--als
--alt
--aly
--am
--ame
--an
--ana
--and
--ane
--ani
--ano
--ans
--ant
--ante
--ao
--ar
--ara
--ard
--ardo
--ards
--are
--ares
--ari
--aries
--arite
--aro
--art
--ary
--as
--asyon
--at
--ata
--ate
--ated
--ath
--ati
--atif
--atin
--ation
--ato
--atou
--atra
--au
--aud
--auer
--ault
--aut
--aux
--av
--ave
--aw
--awo
--ay
--aya
--ayas
--aye
--ayo
--az
--aza
--azzo
--b
--ba
--back
--bacoa
--bad
--bal
--ball
--ban
--bar
--basyon
--baum
--bbe
--be
--bel
--ber
--berg
--bes
--bi
--bia
--bird
--ble
--bo
--bois
--bon
--boro
--bos
--bot
--bou
--box
--boy
--bra
--bre
--bro
--brook
--bs
--bst
--bt
--bu
--bule
--bur
--burg
--burgh
--bury
--bush
--bwa
--by
--c
--ca
--cal
--car
--cas
--cci
--ccio
--cco
--ce
--ceau
--ced
--cef
--cel
--celo
--cer
--ces
--ceæ
--ch
--cha
--che
--chi
--chka
--cho
--chon
--cht
--chy
--ci
--cia
--cias
--cier
--cilla
--cin
--cing
--cini
--cino
--cio
--ciones
--cito
--ck
--cker
--cki
--cks
--cky
--co
--cock
--cos
--cott
--cq
--cs
--ct
--cta
--cte
--cted
--cto
--ctor
--cts
--cu
--cuit
--cus
--cussions
--cy
--d
--da
--dad
--dah
--dal
--dale
--dan
--das
--day
--dd
--ddy
--de
--ded
--den
--der
--dera
--dero
--des
--dge
--di
--dia
--die
--dilla
--dillo
--din
--ding
--dini
--dis
--dita
--dj
--dle
--dman
--do
--dog
--dom
--don
--doni
--dor
--doro
--dos
--dou
--down
--dre
--ds
--dt
--du
--dun
--dy
--dz
--e
--ea
--ead
--ean
--eau
--eaux
--eb
--ec
--ece
--ech
--eck
--ed
--ee
--ega
--egas
--eh
--ei
--eira
--ejo
--ek
--eka
--el
--eld
--elet
--elf
--ell
--ella
--elle
--elli
--ello
--els
--ely
--em
--eman
--emann
--ement
--en
--ena
--ence
--ens
--enson
--ent
--enta
--eo
--ep
--er
--era
--eras
--erdam
--ere
--eri
--erie
--erly
--erman
--ern
--erne
--ero
--eron
--ers
--erson
--ert
--ery
--es
--esco
--ese
--ess
--est
--et
--eta
--ete
--eth
--eto
--ets
--ett
--etta
--ette
--ettes
--etti
--etto
--eu
--euil
--eur
--eurs
--eux
--ev
--ey
--eye
--ez
--eze
--eæ
--f
--fa
--fas
--fe
--feld
--fer
--ff
--ffe
--ffer
--ffi
--fi
--field
--fik
--fo
--fonik
--ford
--fort
--fre
--ft
--fton
--ful
--fy
--g
--ga
--gan
--gar
--gate
--gaud
--ge
--ged
--gen
--ger
--ges
--gg
--ggs
--gh
--ghem
--ghlin
--ght
--ghter
--ghton
--gi
--gic
--gie
--gio
--git
--gje
--gjy
--glia
--gn
--gna
--gnac
--gne
--gni
--gnol
--gnon
--gny
--go
--gos
--goso
--graphe
--graphie
--graphy
--gro
--gs
--gt
--gton
--gu
--gua
--gue
--gues
--guette
--gui
--gy
--h
--ha
--ham
--han
--he
--head
--heim
--heit
--hel
--hen
--her
--hes
--hey
--hi
--hia
--hian
--hic
--hie
--hill
--hin
--hio
--hip
--hl
--hm
--hn
--ho
--hoe
--hoff
--hol
--hon
--hood
--hos
--hr
--ht
--hte
--huga
--hy
--hya
--i
--ia
--iaceæ
--ial
--ian
--iana
--iar
--iard
--ias
--ib
--ibi
--ible
--ic
--ica
--ical
--ich
--iche
--ici
--ick
--ico
--icot
--ics
--icus
--id
--ida
--idad
--ide
--ido
--ie
--iel
--ien
--iendo
--ienne
--iens
--ienta
--ier
--iers
--ies
--ieu
--ieux
--iez
--if
--ification
--ifie
--ifs
--ifye
--ig
--igan
--ige
--igh
--ign
--ignac
--igne
--igny
--igo
--ih
--ihe
--ik
--ika
--iko
--il
--ila
--ilar
--ilasyon
--ile
--ilh
--ilite
--ilizasyon
--ilize
--illa
--illat
--ille
--illo
--illon
--illy
--ilo
--ily
--im
--ima
--ime
--imo
--in
--ina
--ine
--inet
--ing
--ings
--ington
--ini
--inman
--ino
--ins
--iny
--io
--ion
--ions
--ior
--ios
--iot
--ious
--ioz
--ipe
--ique
--ir
--ira
--ire
--ires
--iri
--iro
--irs
--is
--isation
--ise
--ises
--ish
--isi
--ism
--isme
--ison
--iss
--isse
--ist
--ista
--iste
--ister
--istes
--it
--ita
--itas
--itch
--ite
--itha
--iti
--ities
--ition
--itis
--ito
--itor
--itos
--its
--itt
--itude
--ity
--itz
--ium
--iura
--ius
--iv
--ive
--ix
--iy
--iye
--iz
--iza
--izasyon
--ize
--ized
--j
--ja
--jac
--jal
--jan
--jano
--jas
--jay
--je
--jevic
--ji
--jik
--jil
--jn
--jo
--jol
--ju
--jye
--k
--ka
--kan
--kar
--ke
--kel
--ken
--ker
--kers
--kes
--ki
--kia
--kie
--kil
--kin
--kis
--kman
--ko
--koff
--kos
--kou
--kov
--kri
--ks
--ksi
--kte
--ktif
--ktiv
--ky
--l
--la
--lace
--lag
--lah
--lais
--lake
--lan
--land
--lao
--lar
--lard
--las
--lasyon
--lat
--lay
--lby
--ld
--lde
--ldi
--ldo
--le
--leaf
--led
--lem
--len
--ler
--les
--less
--let
--ley
--lfi
--lford
--lho
--li
--lia
--lie
--lier
--lin
--line
--ling
--lini
--lio
--lis
--lite
--lize
--ll
--lla
--llas
--llat
--lle
--lles
--lli
--llion
--llo
--llon
--llos
--llou
--lloux
--lls
--lm
--lo
--loff
--logie
--logue
--logy
--loji
--lon
--lor
--los
--lot
--ls
--lson
--lt
--lta
--lto
--lton
--lu
--lus
--lvo
--ly
--lye
--lyen
--lyn
--m
--ma
--man
--mann
--mar
--mas
--mba
--mbe
--mbo
--me
--mel
--men
--ment
--mento
--mer
--mere
--mes
--mi
--mik
--min
--mis
--mly
--mm
--mme
--mo
--mon
--mont
--more
--mos
--mov
--mpe
--ms
--mu
--mus
--my
--n
--na
--nable
--nac
--nado
--naire
--nais
--naise
--nal
--nam
--nan
--nar
--nas
--nat
--nay
--nbo
--nburg
--nc
--nce
--nces
--ncey
--nch
--ncie
--ncier
--ncio
--nck
--nco
--ncy
--nd
--nda
--ndan
--nday
--nde
--nder
--nders
--ndes
--ndi
--ndia
--ndio
--ndo
--ndon
--ndra
--ndre
--ndro
--nds
--ndu
--ne
--neau
--nec
--nel
--nelle
--nen
--ner
--nera
--nes
--ness
--net
--neur
--news
--ney
--nez
--nfeld
--ng
--nga
--nge
--nger
--ngo
--ngue
--ni
--nia
--nie
--nier
--nik
--ning
--nio
--nir
--nis
--niste
--nita
--nito
--nj
--nje
--njito
--nk
--nka
--nke
--nko
--nks
--nman
--nn
--nna
--nne
--nnen
--nnent
--nnes
--no
--nois
--nold
--non
--nor
--nos
--not
--nova
--noy
--ns
--nsa
--nse
--nsky
--nso
--nson
--nstein
--nt
--nta
--ntal
--nte
--ntes
--nthal
--nti
--ntial
--ntie
--ntiel
--ntin
--nto
--ntro
--ntry
--nts
--nture
--nty
--nu
--num
--nus
--nx
--ny
--nye
--nyme
--nz
--nza
--nze
--nzo
--o
--oa
--oah
--ob
--obi
--oc
--occo
--och
--ock
--od
--oe
--oeur
--off
--oga
--ografi
--oi
--oin
--oir
--oire
--ois
--oit
--oji
--ojik
--ok
--okan
--oke
--ol
--ola
--ole
--oli
--olo
--ology
--oloji
--olojik
--olon
--om
--omb
--ome
--omo
--on
--ona
--ond
--onde
--one
--oni
--ono
--ons
--ont
--oo
--ood
--oon
--op
--opi
--or
--ora
--ord
--ore
--ori
--oria
--orio
--orne
--oro
--ors
--ort
--ory
--os
--osa
--ose
--oso
--osto
--ot
--ota
--ote
--otte
--otti
--ou
--oud
--oui
--ouk
--oul
--oup
--ourt
--ous
--out
--oux
--ov
--ova
--ovi
--ovski
--ow
--owicz
--owsky
--oy
--oye
--oz
--oza
--p
--pa
--pan
--pe
--ped
--pel
--pen
--per
--pet
--phe
--phie
--phy
--pi
--pin
--ping
--plus
--pn
--po
--pole
--port
--pp
--ppa
--ppe
--pra
--pre
--ps
--pt
--ption
--py
--q
--qe
--que
--quera
--quet
--qui
--r
--ra
--rab
--rah
--rai
--rait
--ral
--ran
--rand
--rans
--rao
--ras
--rat
--ratif
--ray
--raz
--razi
--rbe
--rc
--rca
--rce
--rcie
--rcio
--rcy
--rd
--rda
--rdan
--rde
--rdi
--rdin
--rdis
--rdo
--rdon
--rds
--rdy
--re
--reau
--red
--ree
--rel
--rell
--relle
--ren
--res
--ress
--ret
--reux
--rez
--rf
--rfeld
--rfield
--rg
--rge
--rgis
--rgue
--ri
--ria
--ric
--rido
--rie
--rier
--rik
--rillo
--rin
--rine
--rino
--rio
--ris
--rit
--rito
--rium
--rive
--riye
--rk
--rley
--rm
--rman
--rme
--rn
--rne
--rno
--rnos
--ro
--ron
--rop
--ros
--rot
--roy
--rr
--rra
--rre
--rri
--rro
--rry
--rs
--rson
--rt
--rta
--rte
--rth
--rti
--rtin
--rto
--rton
--ru
--rugo
--rum
--rve
--ry
--rye
--ryen
--rz
--s
--sa
--sad
--sah
--san
--sance
--sas
--sboro
--sburg
--sbury
--sby
--sca
--sch
--sco
--se
--sed
--sen
--ses
--set
--seur
--seurs
--sey
--sez
--sfe
--sh
--sha
--ship
--shire
--si
--sia
--sian
--sic
--side
--sier
--sif
--sio
--sis
--ska
--ski
--skri
--sky
--slav
--sm
--sman
--sme
--so
--son
--sov
--spot
--ss
--ssa
--sse
--ssen
--ssent
--ssi
--ssion
--ssions
--sson
--ssure
--ssus
--st
--sta
--star
--ste
--sted
--stein
--ster
--stes
--stic
--stin
--stle
--ston
--stone
--stown
--stra
--sty
--sus
--sville
--sy
--syan
--sye
--syen
--syon
--syone
--sz
--t
--ta
--tal
--tan
--tano
--tant
--tar
--tas
--tasyon
--te
--teca
--ted
--tein
--tel
--ten
--teo
--ter
--tes
--teur
--teyis
--th
--the
--ti
--tia
--tib
--tic
--tid
--tie
--tier
--tif
--tik
--tin
--ting
--tini
--tinie
--tion
--tis
--tisye
--tiv
--tive
--tize
--tl
--tle
--tman
--to
--tola
--ton
--tone
--top
--tor
--tora
--tore
--tos
--tou
--town
--tra
--track
--tre
--tree
--tri
--trice
--tris
--ts
--tt
--tta
--tte
--ttes
--tti
--tto
--tton
--ttre
--tu
--tua
--tus
--tut
--tute
--tv
--twa
--ty
--tye
--tz
--tzer
--tzky
--u
--ua
--ual
--uan
--uard
--uas
--ub
--ube
--uc
--uca
--ucci
--uce
--uch
--uche
--ucht
--uco
--ud
--ude
--udy
--ue
--uel
--uen
--uer
--ues
--uet
--uette
--uf
--ug
--uga
--ugh
--ui
--uier
--uil
--uille
--uin
--uis
--uk
--uka
--ul
--ula
--ule
--ulo
--ult
--um
--ume
--umi
--un
--une
--ung
--unt
--up
--ur
--ura
--ure
--urel
--urg
--urge
--uri
--uro
--urs
--urt
--ury
--us
--use
--uses
--ussi
--ust
--uste
--ut
--ute
--uto
--uve
--uvre
--ux
--uy
--uye
--uz
--uzet
--v
--va
--vada
--vado
--vait
--val
--vale
--van
--var
--vat
--vator
--ve
--ven
--ver
--ves
--vet
--vez
--vi
--vic
--view
--vil
--ville
--vin
--vitch
--vna
--vo
--voke
--vsky
--vy
--w
--wa
--way
--we
--web
--well
--wer
--west
--wi
--wig
--wl
--wn
--wo
--woje
--wold
--wood
--ws
--wski
--x
--xe
--xyon
--y
--ya
--yah
--yaj
--yal
--yalis
--yan
--yas
--ye
--yen
--yer
--yik
--yin
--yl
--yn
--yne
--yo
--yon
--yr
--yre
--ys
--yt
--z
--za
--zac
--zal
--zan
--zar
--zas
--zasyon
--ze
--zel
--zer
--zet
--zi
--zia
--zif
--zio
--zit
--zite
--zman
--zo
--zon
--zt
--zu
--zy
--zyen
--zyon
--zz
--zza
--zzi
--zzo
--ß
--ße
--æ
--œur
