!
"
#
##0
##1
##10
##11
##12
##13
##14
##15
##16
##17
##18
##19
##2
##20
##21
##22
##23
##24
##25
##26
##27
##28
##29
##3
##30
##31
##32
##33
##34
##35
##36
##37
##38
##39
##4
##40
##41
##42
##43
##44
##45
##46
##47
##48
##49
##5
##50
##51
##52
##53
##54
##55
##56
##57
##58
##59
##6
##60
##61
##62
##63
##64
##65
##66
##67
##68
##69
##7
##70
##71
##72
##73
##74
##75
##76
##77
##78
##79
##8
##80
##81
##82
##83
##84
##85
##86
##87
##88
##89
##9
##90
##91
##92
##93
##94
##95
##96
##97
##98
##99
$
%
&
'
(
)
*
+
,
-
.
/
0
00
000
003
007
01
0166667
02
026
03
0333333
04
05
06
0666667
07
08
0833333
09
093
1
10
100
1000
1001
101
102
103
104
105
106
107
108
109
11
110
111
112
113
114
115
116
1166667
117
118
119
12
120
1200
121
122
123
124
125
126
127
128
129
129687
13
130
1304
131
132
133
1333333
134
135
136
137
138
139
14
140
141
142
143
144
145
1450
146
147
148
149
1492
15
150
1500
151
152
153
154
155
1550
156
157
158
159
16
160
1600
161
162
163
164
165
166
1666667
167
168
169
1697
17
170
1700
171
172
173
174
1749
175
1750
1751
1755
1756
1757
1758
176
1763
1765
1766
1767
177
1770
1772
1773
1774
1775
1776
1777
1778
178
1780
1781
1782
1783
1784
1786
1787
1788
1789
179
1790
1791
1792
1793
1794
1795
1796
1797
1798
1799
18
180
1800
1801
1802
1803
1804
1805
1806
1807
1808
1809
181
1810
1811
1812
1813
1814
1815
1816
1817
1818
1819
182
1820
1821
1822
1823
1824
1825
1826
1827
1828
1829
183
1830
1831
1832
1833
1833333
1834
1835
1836
1837
1838
1839
184
1840
1841
1842
1843
1844
1845
1846
1847
1848
1849
185
1850
1851
1852
1853
1854
1855
1856
1857
1858
1859
186
1860
1861
1862
1863
1864
1865
1866
1867
1868
1869
187
1870
1871
1872
1873
1874
1875
1876
1877
1878
1879
188
1880
1881
1882
1883
1884
1885
1886
1887
1888
1889
189
1890
1891
1892
1893
1894
1895
1896
1897
1898
1899
19
190
1900
1901
1902
1903
1904
1905
1906
1907
1908
1909
191
1910
1911
1912
1913
1914
1915
1916
1917
1918
1919
192
1920
1921
1922
1923
1924
1925
1926
1927
1928
1929
193
1930
1931
1932
1933
1934
1935
1936
1937
1938
1939
194
1940
1941
1942
1943
1944
1945
1946
1947
1948
1949
195
1950
1951
1952
1953
1954
1955
1956
1957
1958
1959
196
1960
1961
1962
1963
1964
1965
1966
1967
1968
1969
197
1970
1971
1972
1973
1974
1975
1976
1977
1978
1979
198
1980
1981
1982
1983
1984
1985
1986
1987
1988
1989
199
1990
1991
1992
1993
1994
1995
1996
1997
1998
1999
2
20
200
2000
2001
2002
2003
2004
2005
2006
20060225
2007
2008
20080303203650
2009
201
2010
2011
2012
2013
2014
2015
2016
2017
2018
2019
202
2020
2021
2022
2023
203
204
205
206
207
208
209
21
210
211
212
213
214
215
216
2166667
217
218
219
22
220
221
222
223
224
225
226
227
228
229
23
230
231
232
233
2333333
234
235
236
237
238
239
24
240
241
242
243
244
245
246
247
248
249
25
250
251
252
253
254
255
256
257
258
259
26
260
261
262
263
264
265
266
2666667
267
268
269
27
270
271
272
273
274
275
276
277
278
279
28
280
281
282
283
2833333
284
285
286
287
288
289
29
290
291
292
293
294
295
296
297
298
299
3
30
300
3000
300000
301
302
303
304
305
306
307
308
309
31
310
311
312
313
314
315
316
3166667
317
318
32
320
321
322
323
324
325
326
327
328
329
33
330
331
332
333
3333333
334
335
336
337
338
34
340
341
342
343
344
345
346
347
348
349
35
350
351
352
353
354
355
356
357
358
359
36
360
361
362
363
364
365
366
3666667
367
368
369
37
370
371
372
373
374
375
376
377
378
379
38
380
381
382
383
3833333
384
385
386
387
388
39
391
392
393
394
395
396
399
4
40
400
401
402
403
404
405
406
407
408
41
410
411
412
413
414
415
416
4166667
417
418
419
42
420
421
422
423
424
425
426
427
429
43
430
431
432
433
4333333
435
436
437
438
439
44
440
441
442
443
444
445
446
447
448
45
450
451
452
453
454
455
456
457
46
460
461
462
463
464
465
466
4666667
467
468
47
470
471
472
473
474
475
476
477
478
48
480
481
483
4833333
484
485
487
488
49
490
491
492
493
495
496
498
499
5
50
500
5000
501
502
502568
503
504
505
506
507
508
509
51
510
511
512
513
514
515
516
5166667
517
519
52
520
521
522
523
524
525
526
527
528
53
532
533
5333333
534
535
536
537
538
54
540
541
542
543
544
545
546
547
548
55
550
551
552
553
554
555
556
557
558
56
560
561
563
564
565
566
5666667
567
568
569
57
570
571
572
573
574
575
576
58
580
582
5833333
584
5843
58432
585
586
587
588
59
590
591
592
593
595
596
599
6
60
600
601
602
603
604
605
608
61
610
611
612
613
614
615
616
6166667
617
62
620
621
622
623
624
625
626
627
628
629
63
630
631
632
633
6333333
634
635
636
637
64
640
642
643
644
645
646
647
648
65
650
651
652
653
654
655
656
66
660
661
662
663
664
665
666
6666667
667
67
670
673
674
675
676
677
68
680
681
682
683
6833333
685
686
688
69
692
693
694
695
696
697
698
7
70
700
701
702
703
704
705
706
707
708
71
711
712
713
714
715
716
7166667
717
718
719
72
720
721
722
724
725
726
727
729
73
731
732
733
7333333
734
735
736
737
738
74
740
742
743
744
745
746
747
75
750
752
754
755
756
757
76
760
761
762
763
764
765
7666667
767
77
770
771
772
773
774
775
776
777
778
78
780
781
782
783
7833333
784
785
786
788
79
792
793
795
797
798
8
80
800
805
806
807
808
81
812
813
814
815
816
8166667
817
818
819
82
823
825
826
827
83
831
833
8333333
838
84
842
845
846
85
850
855
858
86
861
865
866
8666667
868
87
871
88
8833333
887
89
891
9
90
900
902
90210
903
905
908
91
911
914
915
916
9166667
92
921
924
925
926
929
93
932
9333333
935
936
94
944
945
946
947
95
950
952
953
955
957
958
96
962
965
9666667
97
975
977
978
98
980
981
983
9833333
987
988
99
999
:
;
<
=
>
?
@
\
^
_
`
a
aaro
aaron
ab
abad
abadi
abajo
abandon
abandonada
abandone
abandonne
abascal
abattre
abbaye
abbe
abbey
abbott
abbou
abby
abc
abdallah
abdel
abdelkrim
abdellatif
abder
abderrahmane
abdou
abdoul
abdoulaye
abdul
abe
abed
abeille
abel
abelanski
abelardo
abello
abi
abidjan
abierto
abigail
abismo
abit
abita
abitan
abitasyon
abite
abitye
abiye
abkarian
able
abner
abo
abogado
abois
aboli
abolisyon
abolition
abominable
abord
abou
aboulker
about
above
abra
abraham
abrams
abre
abreu
abri
abril
absa
absans
abse
absence
absences
absent
absente
abso
absoli
absolument
abstre
abu
abuela
abuelo
abus
ac
aca
acade
academia
academy
acapulco
acce
access
accessdate
accessed
accident
accidental
accidente
accord
accueil
accuse
ace
aceite
acel
acero
acevedo
acha
achab
achache
achard
ache
acheve
achille
achipe
achite
achitekti
achiv
achour
achte
acier
ackerman
acorralada
acosta
acquisition
across
act
acte
actes
acteur
acteurs
action
actions
active
activite
actor
actress
actrice
actrices
actriz
acts
acuerdas
acun
ad
ada
adalberto
adam
adama
adame
adamo
adams
adamson
adan
adaptasyon
adaptate
adaptation
adapte
adas
add
adda
addams
addict
addison
addition
additional
ade
adela
adelaida
adelaide
adele
adelina
adeline
adelman
ades
adhe
adieu
adieux
adio
adisyon
adisyone
adjani
adje
adjektif
adjidan
adjoint
adjudant
adjwen
adler
adme
administrasyon
administrate
administratif
administration
admiral
adn
ado
adolesan
adolescent
adolescente
adolf
adolfo
adolphe
adonis
adopsyon
adopte
adoptif
ador
adora
adorable
adorables
adoras
adore
adre
adrese
adresse
adria
adrian
adriana
adriano
adrien
adrienne
adulte
adultes
adve
adventure
adventures
adversaire
ae
aewonotik
afe
afekte
affair
affaire
affaires
affairs
affinite
affleck
affreux
affrontement
affu
afliyan
afonso
afraid
africa
africain
africaine
africaines
africains
african
africine
africultures
afrik
afrika
afrike
afriken
afrique
afro
after
aga
again
against
agatha
agathe
age
agence
agency
agent
agente
agents
aghion
agit
agite
aglae
agne
agneaux
agnes
agnieszka
agoni
agonie
agostini
agosto
agrese
agression
agrikilti
agriko
agu
agua
aguas
agudelo
aguen
aguilar
aguilera
aguirre
agujetas
agusti
agustina
ah
ahatti
ahmed
ahn
ahyti
ahytian
ahytianna
ai
aida
aidan
aide
aigle
aigles
aiguilles
aile
ailes
ailles
ailleurs
aimais
aimait
aime
aimee
aiment
aimer
aimes
aimez
ain
ainsi
air
aire
aires
airport
ais
aise
aises
aisner
aix
aj
aja
ajan
ajans
ajanten
ajantin
aje
ajeno
ajenos
ajete
aji
ajil
ajoute
ak
aka
akademi
akademik
akademikreyol
akademisyen
ake
aken
akeri
akerman
akeyi
aki
akil
akim
akimile
akissi
akiva
akizasyon
akize
aknine
ako
akonpaye
akonpli
akouche
akouchman
akoz
aks
aksan
akse
akselerasyon
akselere
aksepte
aksesib
aksidan
aksyon
akt
akte
aktif
aktivis
aktivite
aktris
aktyalite
aktye
al
ala
alabama
aladdin
aladin
alafwa
alain
alamo
alan
alane
alantou
alarco
alarm
alas
alaska
alassane
alay
alba
alban
albany
albarra
albatros
albert
alberta
alberti
albertine
albertini
alberto
albi
albicocco
albin
albo
alborada
album
alca
alcala
alcalde
alcanzar
alceste
alcide
alcocer
aldama
aldana
alden
aldo
aldrich
ale
alea
alec
alegre
alegri
alegrijes
alejandra
alejandro
alejo
aleksandar
aleksandr
alema
alerte
alessandra
alessandrin
alessandro
alessio
aletranje
alevosi
alex
alexa
alexander
alexandra
alexandre
alexei
alexia
alexis
alf
alfabe
alfabetik
alfabetizasyon
alfaro
alfie
alfonsina
alfonso
alfred
alfredo
alga
alge
alger
algo
alguien
alguna
alhambra
alhe
ali
alianza
alias
aliases
alibi
alice
alicia
alie
alien
aliens
alimante
alina
aline
alirio
alisateur
alisateurs
alisation
alise
alisme
alison
aliste
alite
alive
alix
alize
alje
aljeri
aljeryen
alko
alkolik
all
alla
allah
allan
allard
alle
allegany
allemagne
allemand
allemande
allen
allende
aller
alles
alley
allez
alliance
allie
allio
allison
allo
allocine
allons
allouache
allumettes
ally
alma
almada
alman
almanak
almas
almay
almaza
almeida
almereyda
almeri
almodo
almonte
almost
alnoy
alo
aloha
aloi
alondra
alone
along
alonso
alonzo
alors
alouettes
alpes
alpha
alphabe
alphonse
alquiler
als
alsace
also
alt
alta
altagracia
altamira
altamirano
altar
altas
alte
altitid
altman
alto
alton
altona
alvarado
alvarez
alvaro
alvear
alves
alvin
always
alyans
alyas
alye
alyn
alyssa
am
ama
amada
amadeus
amado
amador
amadou
amalia
amalric
aman
amanda
amandiers
amandine
amando
amanecer
amant
amante
amantes
amants
amar
amara
amaranta
amare
amargo
amargura
amaro
amarte
amas
amate
amateur
amateurs
amato
amaury
amaya
amazing
amazon
amazonas
amazone
ambassadeur
ambassadeurs
amber
ambicio
ambitieux
ambos
ambre
ambroise
ambrosio
ame
amel
amelia
amelio
amelle
amelyore
amen
ameni
amenyen
amer
america
american
americano
americans
americas
amerik
amerike
ameriken
amers
ames
amezcua
ami
amico
amidou
amie
amiel
amies
amiga
amigas
amigo
amigos
amiguet
amin
amina
aminata
amir
amira
amiral
amis
amistad
amitie
amizman
amne
amnisti
amo
among
amoni
amor
amorcito
amore
amores
amos
amour
amoure
amoureuse
amoureuses
amoureux
amours
amoussou
amoxicillin
amparo
amste
amsterdam
amuse
amy
an
ana
anabel
anahi
anai
anali
analis
analiz
analize
analyse
analysis
anand
anastasia
anatol
anatole
anatomi
anatomie
anatomy
anaya
anba
anbasad
anbasade
anbilansye
anble
ance
ancien
ancienne
anciens
ancient
ancre
and
anda
andalouzi
andan
andedan
andere
anders
andersen
anderson
andes
andeyo
ando
andrade
andre
andrea
andreas
andrei
andres
andrew
andrews
andrieu
andrieux
andromaque
andrzej
andueza
andy
ane
anette
anfans
anfo
ang
angaje
angajman
angarita
ange
angel
angela
angeles
angeli
angelica
angelina
angelita
angelo
angels
anger
angers
anges
angie
anglade
anglais
anglaise
angle
anglete
angleterre
angoisse
angola
angole
angoule
angry
angus
angustia
angustias
anh
ani
anile
animal
animals
animasyon
animate
animation
animatris
animaux
anime
anita
anive
anjeneral
anjou
ankadreman
anke
ankete
anko
ankouraje
anle
anm
anme
anmpi
ann
anna
annabella
annabelle
annakin
annapre
annaud
anndan
anne
anneaux
annette
anni
annick
annie
anniversaire
anniversary
anno
annonce
annual
anny
ano
anonim
anonse
anonyme
anonymes
anonymous
another
anouilh
anouk
anpe
anpeche
anpere
anpi
anpil
anplis
anplwa
anplwaye
anrejistre
anrejistreman
anri
ans
ansanm
ansavo
anse
anselme
anselmo
ansent
anseye
ansiklopedi
ansiklopedik
anspach
answit
ansye
ansyen
ant
antagonis
antan
antananarivo
antant
ante
antena
antenne
antere
antes
anthe
anthologie
anthology
anthony
anti
antibyotik
antidote
antigone
antikite
antiko
antillais
antillaise
antilles
antilye
antiquaire
antisipe
antite
antiviral
antiy
antiye
anto
antoine
antoinette
antoloji
anton
antonella
antonia
antonieta
antonin
antonio
antonioni
antony
antorcha
antoure
antre
antrene
antreprene
antrepriz
antretyen
ants
antu
antwopolo
antwopoloji
antye
anvalou
anvan
anvayi
anve
anvers
anvi
anviwo
anviwon
anwo
any
anya
anye
anyen
anything
anzola
ao
aou
ap
apa
apache
aparan
aparans
apare
aparicio
aparisyon
apasionado
apati
apatman
apatow
ape
apepre
apertura
apfelglu
apguen
apguenllein
aphrodite
api
aplikasyon
aplike
apo
apocalypse
apolline
apollo
apollon
apollonide
aponte
apostolik
appa
apparences
apparent
apparition
appartement
appartient
appel
appelait
appelez
appelle
appellent
apple
application
applique
appou
appre
apprederis
apprendre
apprenti
apprentis
apprentissage
apprivoise
approche
appui
aprann
aprantisaj
apre
aprei
aprendiendo
apresye
april
apted
apuesta
apwo
apwoche
apwopriye
apwouve
apy
aquaman
aqui
aquiles
aquino
ar
ara
arab
arabe
arabesque
arabi
araceli
aracely
arago
aragon
araigne
araiza
aram
aran
arana
aranda
arango
aranjman
arau
araujo
aravena
arawak
arbale
arbid
arbitre
arbre
arbres
arbuckle
arc
arcadia
arcadio
arcady
arcand
arce
arcelia
archambault
arche
archer
archibald
archie
archime
archinard
archipel
architecte
archive
archives
arco
arcos
arcy
ard
ardant
arden
ardente
ardiente
arditi
ardouin
are
arellano
arena
arenas
arens
arestasyon
arestrup
arete
aretha
argent
argenteuil
argentina
argento
argos
argu
ari
ariadna
ariadne
arian
ariana
ariane
arias
arie
ariel
arielle
arismendi
aristide
aristiguieta
aristiza
aristo
aristocrates
aristos
aristote
aritmetik
arive
ariza
arizmendi
arizona
ark
arkansas
arlene
arlequin
arles
arlette
arletty
arlington
armand
armande
armando
armas
arme
armel
armelle
armenda
armendariz
armes
armoire
arms
armstrong
army
arnal
arnaldo
arnaque
arnaud
arnauld
arnault
arne
arno
arnold
arnoux
aroostook
around
arpi
arquette
arrangement
arre
arredondo
arriaga
arriba
arrie
arrieta
arrive
arriver
arrondies
arrondit
arrow
arroyo
arse
arsenio
art
artagnan
artaud
arte
arteaga
artemio
arteta
arthur
arthuys
article
articles
artik
artist
artiste
artistes
artistique
artists
artois
arts
arturo
artus
arvidson
ary
as
asalto
asanble
asasen
asasina
asasinay
asasine
asasinen
ascanio
ascaride
ascenseur
ascension
asdru
ase
asepte
asesinas
asesino
asesinos
ash
ashanti
asher
ashes
ashland
ashley
ashton
asi
asia
asid
asile
asirans
asire
asistan
asistans
asistant
asiste
ask
asmara
asosiyasyon
asosyasyon
asosye
aspe
asphalte
ass
assassin
assassinat
assassination
assassine
assassines
assassino
assassins
assault
assaut
assayas
assemble
assistant
assistante
association
associe
assous
aste
astier
astragale
astrid
astruc
astudillo
astwono
astwonomi
asuncio
aswe
asye
asylum
at
atache
atak
atakan
atake
atansyon
ate
atelier
ateliers
atelye
atenn
ateri
ateur
athe
athena
athens
atho
atifisye
atik
atika
atikilasyon
ation
atire
atis
atistik
atitid
atizay
atkine
atkins
atlan
atlanta
atlantic
atlantide
atlantik
atlantique
atlantis
atlas
atle
atletis
atmosfe
ato
atomik
atout
atraksyon
atrapada
atrave
atre
atribiye
atrice
attache
attack
attal
attaque
attaquent
attenborough
attend
attendant
attendra
attendre
attends
attentat
attente
attention
attia
attila
attitude
attorney
attraction
attrape
atures
au
aube
auber
auberge
aubergiste
aubert
aubier
aublanc
aubrac
aubrey
aubry
auburtin
auclair
aucun
aucune
aud
aude
audiard
audience
audio
audran
audrey
audry
auf
auger
august
augusta
auguste
augustin
augustine
augusto
augustus
aujourd
aumont
aunque
aura
aurais
aurait
aure
aurel
aurelia
aurelio
aurez
aurora
aurore
aurouet
aus
aussi
aussoy
austerlitz
austin
australia
autant
aute
auteuil
auteur
auteurs
author
authorlink
authors
auto
automatically
automne
automobile
autopsie
autoroute
autour
autre
autres
autriche
autumn
auvers
aux
auzel
av
ava
avais
avait
avan
avanse
avant
avantaj
avanti
avare
avati
ave
avec
avek
avelar
aven
avendan
avengers
avenir
aventura
aventuras
aventure
aventurera
aventures
aventurie
aventurier
aventuriers
avenue
averal
averty
avery
aveu
aveugle
aveugles
aveux
avez
avi
aviateur
aviator
avignon
avila
avion
avis
aviv
avnet
avni
avocat
avocate
avocats
avoir
avoka
avokat
avons
avril
avventura
avyon
awa
awakening
award
awards
away
awful
awondisman
axel
axelle
ay
aya
ayache
ayala
aycardi
ayd
ayer
ayewopo
ayisye
ayisyen
ayisyenkategori
ayiti
ayme
aytl
ayudan
az
azar
aze
azela
azi
azil
aziz
aziza
aznavour
azor
azoulay
azteca
azucena
azuelos
azul
azur
azyatik
azzeddine
b
ba
baal
bab
baba
babas
babe
babel
babette
babluani
baby
babylon
babylone
babysitting
bac
bach
bachelor
bachir
back
backstage
bacon
bacri
bactrocera
bacunayagua
bad
badel
baden
badham
bado
bae
baegail
baek
baena
baer
baez
baffie
bag
bagarre
bagay
bagdad
bagdadi
bagel
bages
bagne
bagnole
bago
bah
bahamas
bahia
bahloul
bahut
bai
baie
bail
baila
bailando
baile
bailey
bailliu
bailly
baily
bain
bains
baird
baiser
baisers
bajo
bak
bakaba
bakaloreya
bakary
baker
bakhita
bakteri
baky
bal
bala
balada
balade
balance
balasko
balbi
balbo
balboa
balcon
baldi
baldomero
balducci
baldwin
bale
baledo
baleine
balekdjian
balibar
ball
ballad
ballade
ballard
balle
balles
ballesteros
ballet
ballon
balmer
balsan
baltasar
baltazar
balthazar
baltimore
balvanera
balzac
bamako
baman
bamann
bamba
bambi
bambino
bambou
ban
banana
banane
banc
banco
bancroft
bancs
band
banda
bandade
bande
bandera
banderas
bandes
bandi
bandida
bandidas
bandidos
bandit
bandits
bang
bangkok
banglade
bank
banke
bankole
banks
bankye
banlieue
bann
bannann
banne
banner
bannier
banque
banquells
banquet
banquie
banquier
banzai
bapte
baptista
baptiste
bar
bara
barade
baraj
baraka
barassat
barata
baratier
barba
barbara
barbare
barbares
barbe
barbecue
barber
barberis
barbershop
barbet
barbichette
barbie
barbier
barbosa
barbouzes
barca
barcelona
barclay
barco
bard
bardem
bardinet
bardot
bare
barge
barikad
barka
barker
barlow
barma
barman
barnabe
barnaby
barnes
barnett
barney
barny
baro
barocco
baron
baroncelli
baronne
baroux
barquement
barr
barraga
barrage
barras
barrat
barratier
barraud
barrault
barraza
barre
barrera
barreto
barrett
barrie
barrientos
barrier
barriga
barrio
barrios
barro
barrois
barron
barros
barroso
barry
barrymore
barsacq
bart
barthe
barthes
bartleby
bartlett
bartoli
bartolome
barton
bary
barye
barzman
bas
bascule
base
baseball
based
basel
basen
basic
basil
basile
basilio
baske
basketball
basle
basler
basque
bass
basse
bassek
bassett
basta
basterds
bastia
bastid
bastien
bastille
basurto
bat
bataille
batalla
batay
bate
bateau
bates
batey
bath
bati
batignole
batignolles
batiman
batis
batista
batize
batman
bato
baton
batraville
batri
bats
battant
battement
battent
battery
battiato
battle
bauche
baud
baudelaire
baudry
bauer
baum
baumann
baumbach
baur
bautista
bava
bavure
bawo
bawon
baxter
bay
baya
bayala
bayard
bayardo
baye
bayidjan
bayona
bayou
baz
baza
bazar
baze
bazile
bazin
bb
bbc
bc
be
bea
beach
bean
bear
beast
beasts
beat
beatrice
beatriz
beatty
beau
beaubrun
beaucoup
beaudin
beaufort
beaulieu
beaumarchais
beaumont
beauregard
beaute
beautiful
beauty
beauvais
beauvoir
beauvois
beaux
beaver
beba
bebe
bec
because
becca
becerra
becerril
beck
becker
beckett
becky
becomes
bed
bedford
bedia
bedos
bee
beef
been
beenie
beer
beethoven
before
beginning
begins
begon
begotti
behavior
behind
bei
beigbeder
beigel
beineix
being
beirnaerdt
bel
bela
belai
bele
belge
belgique
belhomme
believe
belinda
bell
bella
bellac
bellamy
bellanger
belle
bellegarde
belles
belleville
bellevue
belleza
bellezas
bello
bellocchio
bellocq
bellon
bells
belmondo
belmont
belmonte
belot
below
belphe
beltra
belvaux
ben
benamou
benavides
benayoun
benchetrit
bend
bendita
bene
beneath
benedek
benedict
benefis
benefisye
benen
benes
benguigui
beni
benicio
benigni
benigno
beninwa
benita
benito
benjami
benjamin
benji
benjumea
bennet
bennett
benny
benoi
benoin
benoist
benoit
bensalah
benson
bensoussan
bent
bentley
benton
bentoumi
benyen
benz
benzaquen
beowulf
ber
berbe
berberian
berceau
bercot
berenice
beresford
berg
berge
bergen
berger
bergerac
bergeron
bergman
berista
berkeley
berlanga
berle
berlin
berliner
berling
berlioz
berman
bermu
bernabe
bernadette
bernal
bernard
bernarda
bernardi
bernardino
bernardo
bernardos
bernd
bernhard
bernhardt
bernheim
bernie
bernier
bernstein
berny
berr
berri
berrocal
berroyer
berry
bert
berta
berteloot
bertha
berthaud
berthe
berthier
berthomieu
bertie
bertin
berto
bertolt
bertolucci
berton
bertot
bertram
bertrand
bertuccelli
bes
besanc
besco
bescond
bese
besnard
besnehard
beso
besoin
besos
bess
bessie
besson
best
bestia
bestias
bet
beta
betancourt
betbeder
bete
beth
bethany
beto
betsy
bette
better
bettina
betty
between
beur
beurre
beuze
beverly
bey
beyonce
beyond
bezanc
bezbo
bezwen
bi
bianca
bianchi
bianco
biassou
bib
bibal
bibi
bibiana
bible
bibliothe
bibliyografi
bibliyote
bichir
bicyclette
bidasses
bideau
bidegain
bidje
bidochon
bidon
bie
bieber
biedermann
bien
bienamado
bienheureux
biens
biento
bienvenida
bienvenue
bier
bierry
biette
big
bigas
bigelow
biggs
bihan
bijou
bijoutye
bijoux
bikini
bil
bilal
bilan
bilateral
bilding
bileng
bilingue
bilingues
bill
billancourt
billard
billboard
bille
billes
billet
billie
billon
billy
bilten
bimboland
bin
binder
bine
bing
bingen
bingo
binh
binisti
bintou
bio
biographie
biography
biolay
biras
birch
bird
birds
birkin
birmingham
birth
birthday
bis
bisektil
bishop
bisikle
bison
bissainthe
bisson
bistro
bistrot
bistwo
bit
bitsch
bitter
bitton
bivel
biwo
biye
biyo
biyodive
biyografi
biyografik
biyoloji
biyolojik
biz
bizet
biznis
biznisman
biznismann
bjo
blache
black
blackburn
blacklist
blackout
blackton
blackwell
blade
blage
blague
blagues
blain
blair
blaireau
blaise
blake
blame
blan
blanc
blanca
blanch
blanchar
blanchard
blanche
blanches
blanchet
blanchette
blanchot
blanco
blancos
blancs
blandine
blando
blank
blas
blasband
blasetti
blaze
ble
blese
blesi
blesse
blessures
bleu
bleue
bleues
bleus
blica
blier
blin
blind
bliss
bliste
bliye
blo
bloch
block
blog
blokaj
bloke
blomkamp
blon
blond
blonde
blondeau
blondes
blondie
blondy
blood
bloods
bloody
bloom
bloomfield
bloomington
blossier
blot
blount
blow
blu
blue
blueberry
blues
bluff
blum
blume
bluwal
bnf
bo
boardwalk
boat
bob
bobby
bobigny
bobin
bobo
bobodiouf
bobollywood
boca
boda
bodas
bodies
bodin
body
bodyguard
bofre
bogdanovich
bogota
bohe
bohiri
boho
bohringer
boi
boileau
boire
bois
boisrond
boisset
boissol
boist
boit
boiteux
boivin
bojack
bok
bokse
bol
bolan
boland
bold
boli
bolivar
bolivi
bolloc
bolo
bolognini
bolton
bolva
bom
bomb
bombe
bomin
bompiani
bon
bona
bonaparte
bonavides
bonbon
bond
bondy
bondye
bone
bonello
bones
bonet
bonfiglio
bong
bonheur
bonheurs
bonhomme
boni
boniface
bonilla
bonita
bonito
bonitzer
bonjour
bonnaffe
bonnaire
bonnard
bonnardot
bonne
bonnell
bonnes
bonnet
bonnie
bonnot
bons
bonsoir
bonte
bontemps
bontzolakis
bonus
bonvoisin
boogie
book
booker
books
boom
boomer
boomerang
boon
boone
boorman
boot
booth
bope
bora
borah
boramy
bord
borde
bordeaux
bordel
border
borderie
borderline
bordes
bordier
bordo
bore
borel
borelli
borg
borges
borghese
borgia
boris
borja
borleteau
born
borne
borno
borowczyk
borrascosas
borrego
borsalino
borzage
bosch
boscheron
bosco
bosque
boss
bossa
bossu
boston
bosworth
botanique
bote
botero
both
botswanga
bottes
bottle
bottom
boubacar
boubakar
bouboule
bouch
bouchaala
bouchard
bouchareb
bouchaud
bouche
boucher
bouches
bouchitey
bouchon
boucle
boudali
boudet
boudis
boudu
boue
bouf
bouffe
bouffes
bouge
bougon
bouhnik
bouillaud
bouillon
boujenah
boujwa
bouk
boukan
bouke
boukhitine
boukhrief
bouki
boukinabe
boukinafaso
boukman
boul
boulanger
boulanje
boule
boulet
boulevard
bouli
boulogne
boulot
boum
bound
bounty
bouquet
bourbon
bourboulon
bourdet
bourdiaux
bourdieu
bourdon
bourdos
bourg
bourgeois
bourgeoises
bourges
bourgogne
bourgoin
bourguignon
bourlem
bourne
bourreau
bourse
bourseiller
boursinhac
bourvil
bous
bousquet
bout
bouta
boute
bouteille
boutel
boutik
boutique
bouton
boutonnat
boutons
boutron
bouvard
bouvet
bouvier
bouyi
bouyon
bovary
bow
bowen
bowling
bowman
box
boxe
boy
boyard
boyd
boyer
boyle
boys
boyz
bozon
bra
brabant
brac
bracamontes
bracelets
brach
bracho
braconnier
bracq
brad
bradford
bradley
bradshaw
brady
braga
bragaglia
brahim
brahima
brahms
braise
bral
brami
branagh
branch
branche
brand
brando
brandon
brandstro
brandt
braoude
braquage
braque
braqueurs
braquo
brard
bras
brasil
brasri
brass
brasseur
braulio
braun
brava
brave
bravi
bravo
bray
brazil
bre
break
breakfast
breaking
breath
brecht
breed
bref
breillat
breitman
brel
brenda
brendan
brennan
brenner
brent
bres
bresson
brest
bret
bretagne
bretay
breton
brett
breve
brewer
brewster
brezil
brezilye
brezilyen
bri
brialy
brian
brianc
briant
brice
bricen
brick
brickman
bricoleurs
bride
bridge
bridges
bridget
brie
brief
brien
brigad
brigade
brigades
brigadier
brigadye
brigand
brigands
briggs
bright
brighton
brigitte
brikse
brill
brillantissime
brille
bring
bringing
brion
briques
brise
brisseau
brisson
brital
britanik
british
brito
brittany
brize
brizzi
broadcasting
broadway
broca
brocante
brocard
broce
brock
broderick
brody
broke
broken
bromberger
brondolo
bronson
bronte
bronx
bronze
brook
brooke
brooklyn
brooks
bros
brossard
brosset
brother
brothers
brouard
broue
brouillard
brouille
brousse
brown
browning
bru
bruce
bruel
bruit
bruja
brujas
brume
brumes
brun
bruna
brunard
brune
bruneau
brunel
brunet
bruni
bruno
brunswick
brus
brutas
brute
brutus
bruxelles
bruye
bryan
bryant
bryce
bseri
bu
bubble
buch
buchanan
buchet
bucio
buck
buckley
bud
buda
budapest
buddy
buel
buen
buena
buenaventura
buendi
buenfil
bueno
buenos
buenrostro
buffalo
buffet
buffy
bug
bugsy
building
built
bula
bull
bulle
bullet
bulletin
bullock
bun
bunch
bunel
bungles
bunker
bunny
bunuel
buquet
burden
bureau
bureaux
burger
burglar
burgos
burguet
burgundy
burke
burlesque
burlington
burma
burn
burnett
burning
burns
buron
burr
burroughs
burrows
burt
burton
bus
busca
buscando
bush
bushman
business
bussie
bustamante
buster
bustillo
bustos
but
butant
butch
butcher
butler
buts
butt
butterfly
button
buzz
bwa
bwason
bwat
bwe
bwo
bwonz
by
bye
byen
byenke
byento
byografi
byrne
byron
bythewood
bœuf
c
ca
cab
caballe
caballero
caballeros
caballo
cabanne
cabanon
cabaret
cabello
cabeza
cabezas
cabin
cabinet
cabo
cabot
cabourg
cabral
cabrera
cache
cachemire
cacher
cachito
cacho
cachu
cactus
cada
cadavid
cadavre
cadavres
cade
cadeau
cadena
cadenas
cadence
cadet
cadillac
cadix
cadre
caen
caer
caesar
cafe
cafiero
cage
cahier
cahiers
cahill
cai
caicedo
caille
cailley
cain
caine
caire
caisse
caissie
caitlin
caja
cake
cal
calbe
caldero
calderon
caldwell
cale
caleb
calef
calero
calhoun
cali
calibre
caliente
california
calino
calixto
call
callahan
callamos
callao
callar
calle
called
calles
callie
calls
calme
calmos
calvaire
calvario
calvert
calvet
calvin
calvo
calypso
cam
cama
camacho
camagu
camaguey
camajuani
camaleones
camara
camarades
camargo
camargue
cambiar
cambio
cambridge
cambrioleur
camden
came
camejo
camelia
cameo
camera
camerini
cameron
cameroun
camil
camila
camilla
camille
camillo
camilo
caminante
camino
caminos
camion
camisards
cammage
camp
campa
campagne
campagnes
campan
campana
campanile
campanita
campbell
campeo
campeones
campillo
camping
campion
campo
campomanes
campos
campus
campuzano
camus
can
canada
canaille
canailles
canal
canape
canard
canards
canary
canaveral
cancer
cancio
canciones
candace
candela
candelaria
candice
candidat
candidata
candidate
candidato
candide
candy
cane
canela
canelo
canet
canicule
canique
cannabis
canne
cannes
cannon
cano
canon
canonge
canta
cantando
canterville
cantet
cantinflas
cantique
canto
canton
cantor
cantoral
cantu
canyon
caos
cap
capadocia
cape
capellani
capetillo
capiro
capita
capitaine
capital
capitale
capitan
capitani
capitaux
capitol
capo
capois
capone
caporal
capote
caprice
caprices
capricho
capt
captain
captive
capucine
capulina
caputo
car
cara
caracalla
caracas
caracol
caracte
carai
carambolages
caramelos
carapate
caras
caravaca
caravane
carax
carbajal
carbon
carbone
carbonell
carbonnaux
carcassonne
carce
card
cardi
cardinal
cardinale
cardona
cardoso
cardozo
cards
care
carel
carey
cargo
caribbean
caribe
caricom
caridad
carina
carine
carion
carita
carl
carla
carlate
carle
carlisle
carlito
carlitos
carlo
carlos
carlota
carlotta
carlson
carlton
carly
carlyle
carme
carmel
carmela
carmelita
carmelo
carmen
carmenza
carmet
carmichael
carmina
carmine
carmona
carnahan
carnaval
carne
carnegie
carnet
carnets
carnival
caro
carol
carola
carole
carolina
caroline
carolyn
caron
carotte
carottes
carpenter
carpentier
carpi
carr
carranza
carrasco
carre
carrefour
carren
carrera
carreras
carrese
carrie
carrillo
carrington
carroll
carron
carruaje
carrusel
cars
carson
cart
cartagena
cartas
carte
cartel
carter
cartes
carthage
cartier
carton
cartouche
caruso
carvajal
carvalho
carver
cary
cas
casa
casabianca
casablanca
casado
casados
casal
casanova
casar
casaril
casarse
casas
casasola
casbah
case
casembroot
caserini
cases
casey
cash
casi
casilda
casillas
casimir
casino
caso
casos
casque
cass
cassandra
cassandre
cassard
cassavetes
casse
cassel
cassenti
casser
casseus
cassidi
cassidy
cassie
cassine
cassius
cast
casta
castagnetti
castaing
castan
castel
castell
castella
castellano
castellanos
castelli
castello
castelo
castera
castille
castillo
casting
castle
castor
castro
casualty
cat
cata
catala
catalina
catalogue
catan
catastrophe
catch
cate
category
caterina
cathe
catherine
catholic
catholique
cathy
caton
cats
cattaraugus
cauchemar
caudillos
caught
caumon
caunes
cause
causes
causse
cautiva
cautivo
cauvin
cauwelaert
cavalcade
cavalcanti
cavale
cavalier
cavaliers
cavani
cavassilas
cavaye
cave
caverne
caviar
cay
cayatte
cayenne
cayes
cayetano
cayo
cayuga
cazador
cazenave
cazeneuve
cbs
cd
cdc
cdot
ce
ceballos
ceccaldi
ceci
cecil
cecilia
cedar
cedric
ceiba
cela
celebrity
celeste
celestina
celia
celina
celle
celles
cellier
cellule
celso
celui
cembre
cemetery
cena
cendres
cendrillon
cenizas
cent
centauro
centennial
center
central
centrale
centre
centro
cents
century
cepeda
ception
ceptionniste
cerca
cercle
cerda
cerdan
ceres
cerf
cerisaie
cerise
cerises
cern
cero
certain
certaines
certains
cervantes
cerveau
cervi
ces
cesar
cesare
cet
cette
ceux
cf
ch
cha
chaa
chabat
chabela
chabert
chabon
chabrol
chacal
chacala
chache
chaco
chacun
chad
chadwick
chae
chafaud
chagrin
chahbi
chahine
chai
chaillot
chain
chair
chaj
chaje
chak
chaka
chal
chale
chaleur
challenge
chalonge
chamberlain
chambers
chambon
chamborant
chambre
chambres
chameau
chammah
chamois
chamoiseau
champ
champagne
champion
champions
champreux
champs
chan
chanas
chance
chandelle
chandler
chane
chanel
chaney
chang
change
changement
changer
changes
chanj
chanje
chanjman
chanm
channel
chanois
chanpyon
chanpyona
chans
chanselye
chanson
chansons
chant
chantage
chantal
chante
chantent
chanter
chanteur
chanteuse
chantier
chants
chantye
chao
chaos
chaparro
chapdelaine
chape
chapeau
chapeaux
chapel
chapelle
chaperon
chapiron
chapit
chapitre
chaplin
chapman
chapo
chapot
chappe
chappey
chapter
chapuis
chaque
char
character
characters
charef
charente
charge
charhon
charite
charito
charity
charle
charlemagne
charlene
charles
charley
charlie
charlier
charlot
charlots
charlotte
charly
charmant
charme
charmed
charon
charpentier
charrie
charrier
charro
chart
chartreuse
charts
chase
chasing
chassagne
chasse
chasseur
chasseurs
chat
chateaubriand
chatel
chatiliez
chato
chatouilles
chats
chatte
chatterley
chau
chaud
chaude
chauffeur
chaumeil
chaumette
chaussette
chaussure
chautauqua
chauve
chauveau
chauveron
chauvet
chauvin
chava
chavero
chavez
chay
chayo
chazel
che
chec
check
checs
chedid
cheese
chef
chefs
cheick
cheik
cheikh
chela
chelle
chelo
chelsea
chelsom
chema
chemen
chemin
cheminal
chemins
chemise
chen
chenal
cheng
chenn
chepe
cher
cherche
chercheur
cherchez
cherchi
cheri
cherif
cherokee
cheron
cherry
chers
chery
cheryl
ches
chesnais
chester
chet
chette
cheur
cheval
chevalier
chevaliers
chevallier
chevalye
chevaux
cheve
cheveux
chevrier
cheyenne
chez
chi
chiara
chibane
chic
chica
chicago
chicas
chiche
chick
chicken
chico
chicos
chicot
chics
chief
chien
chiens
chif
chiffon
chiffre
chihuahua
chikago
child
childhood
children
chile
chili
chilyen
chime
chimen
chimi
chimik
chimis
chimyoterapi
chin
china
chine
chinese
chino
chinois
chinoise
chinwa
chinwaz
chip
chippewa
chips
chirac
chire
chirijikal
chirijyen
chirino
chirure
chispita
chit
chita
chivo
chloe
cho
choc
chocolat
chocolate
chofe
chofer
choi
choice
choisis
choisy
choix
chole
cholo
chomaj
chomette
chomsky
chong
chopin
choquart
choquette
choristes
chorus
chose
choses
chou
chouans
chouchan
chouchou
choucoune
choudens
chouraqui
choux
chre
chris
chrissy
christ
christelle
christensen
christian
christiane
christie
christina
christine
christmas
christoph
christophe
christopher
christy
chronicles
chronique
chroniques
chrono
chrysalis
chu
chucho
chuck
chul
chun
church
churchill
chut
chute
chuy
chwa
chwal
chwazi
chyen
chœur
ci
cia
cial
ciale
ciales
ciampi
cianci
ciangherotti
ciao
ciaux
cible
cicatrice
cicatrices
cid
cidihca
cie
ciegas
ciego
ciel
cielo
cielos
cien
cienfuegos
cif
cifuentes
cigarette
cigarettes
cigognes
cil
cile
cilia
cimarro
cimetie
cinco
cinderella
cindy
cine
cinema
cinq
cinquante
cinquie
cinthia
cinzia
cio
ciocchetti
circle
circo
circuit
circus
cire
ciro
cirque
cision
cisneros
cisse
cisterne
cit
cita
citadelle
citant
citation
citations
cite
citizen
citoyen
citoyens
cits
citta
citti
city
ciudad
civanyan
civeyrac
civil
ck
cke
cla
clair
claire
clairs
clan
clancy
clandestin
clap
claques
claquettes
clara
claration
clare
clarence
clarer
clarisa
clarissa
clarisse
clarita
clark
clarke
clarkson
clary
clase
clash
class
classe
classes
classics
classique
classiques
clat
claude
claudel
claudette
claudia
claudie
claudine
claudio
claudius
claus
clavel
clavier
clay
clayton
cle
clean
cleaner
clear
clef
clefs
clem
clemenceau
clemencia
clement
clemente
clementina
cleo
cleopatra
cleotilde
clerk
clermont
cles
cleveland
cleven
clichy
client
cliente
cliff
clifford
clifton
clin
clinique
clint
clinton
clip
clive
clo
clochard
cloche
clock
cloclo
clon
clone
clooney
clos
close
closed
closer
clothilde
clotilde
cloud
clouds
clouzot
clovis
clown
clowns
club
cluse
cluzet
clyde
cm
co
coach
coast
cobarde
cobb
cobo
cobos
cobra
coca
coccinelle
coce
cochet
cochon
cochons
cocktail
coco
coconut
cocottes
cocteau
cocu
code
cody
coen
coeur
coffee
coffre
coffret
cogan
coggio
cogitore
cohen
cohn
coi
coicou
coiffeur
coiffeuse
coiffure
coin
coins
col
cola
colas
colbeau
colbert
colby
cold
coldefy
cole
coleman
coles
colette
coliers
colin
colina
coline
colinot
coll
colla
collaboration
collar
collard
colle
collectif
collection
collectionneur
collective
collector
colleen
college
collet
collier
collin
colline
collines
collins
collision
colloque
colmenares
colo
colomb
colomba
colombani
colombe
colombia
colombiana
colombier
colombo
colon
colonel
colonia
colonial
coloniale
colonie
colonies
colonna
color
colorado
colorina
colors
colpi
colpo
colt
colton
colucci
coluche
columbia
columbo
columbus
colunga
com
coma
comanche
comandante
comando
combat
combate
combats
combien
combo
combret
combs
come
comedia
comedy
comencini
comes
comic
coming
comique
comisario
comite
command
commandant
commandement
commandements
commander
commanderie
commandeur
commando
comme
commence
commencement
comment
commentaire
commerce
commercial
commis
commissaire
commissariat
common
commons
commun
communaute
commune
communication
community
como
compadre
compagnie
compagnon
compagnons
compain
compan
compane
companeez
companion
company
compartiment
compe
comple
complete
complexe
complices
complot
compose
comprado
comprend
comprendre
compris
compro
compte
comptes
comptoir
compton
computer
comte
comtesse
comunicacio
con
conan
concebido
concepcio
concept
conception
concernant
concert
concerto
concha
conchita
concierge
concorde
concours
condamne
conde
condesa
condition
conditions
condominio
condon
condroyer
conducteur
conduit
conduite
confe
conference
confesio
confession
confessions
confiance
confiant
confidences
confidente
confidential
conflict
conflit
conforte
confre
confusion
confusions
congo
congre
conjugal
conjugale
conmigo
connai
connaissance
connecticut
connection
connell
connelly
connexion
connie
connolly
connor
connu
conoci
conomie
conomique
conor
conque
conrad
conrado
conroy
cons
conscience
conse
conseil
conseiller
conservatoire
conside
conspiracy
conspiration
constable
constance
constant
constantin
constantine
constantino
constanza
constitucio
constitution
construction
consuelo
consul
consulte
contact
conte
contemporaine
contemporary
content
contenu
contes
conti
contigo
continent
continental
continue
continues
contra
contrabando
contrainte
contraire
contraires
contrat
contre
contreras
contribution
contro
control
convention
conversation
conversations
conversi
conviction
convoi
convoyeur
conway
coogler
cook
cookie
cool
coolidge
coombs
cooper
cop
copa
copacabana
copain
copains
copie
copine
copines
coplan
copper
copperfield
coppola
cops
coq
cor
cora
coraci
corail
coraje
coral
coralie
coran
corazo
corazones
corbeau
corbetre
corbiau
corbin
corbucci
corcuera
corde
cordelia
cordero
cordes
cordiale
cordier
cordoue
cordy
core
corelli
corentin
corey
corina
corinne
corleone
cormoran
corne
corneau
corneille
cornelia
cornelius
cornell
corner
cornillac
cornouaille
cornuau
coromoto
corona
coronado
coronavirus
coronel
coroner
corp
corporate
corporation
corps
corrado
corral
corrales
corre
correa
correct
correcte
correia
correspondance
corrida
corrido
corruption
corsaire
corse
corsini
corso
corta
corte
cortes
cortex
cortez
corti
corto
cory
cosa
cosas
cosby
cosce
cosi
cosita
cosma
cosmatos
cosme
cosmoglotta
cosmonaute
cosmos
cosse
cost
costa
costas
coste
costello
coster
cot
cote
cotillard
cottafavi
cotton
cou
couderc
couffin
could
coule
couleur
couleurs
coulibaly
coulin
coulisses
couloirs
coulter
council
count
country
county
coup
coupable
coupe
couple
couples
coups
coupures
cour
courage
couramment
courant
courau
courcel
courir
couronne
courre
courrier
cours
course
court
courte
courteline
courtes
courtisane
courtney
courtois
courts
cousin
cousine
cousines
cousins
coutard
coute
couteau
couteaux
coutteure
couture
couturier
couvelaire
couverte
couvre
couzinet
cov
covarrubias
cover
covert
covid
covington
cow
cowan
coward
cowboy
cowboys
cowl
cox
coyote
cra
crabe
crabes
crack
craig
cran
crane
craquer
crash
cravate
craven
cravenne
crawford
crazy
cre
creed
creek
cremer
creo
creole
creoles
crespo
creton
crever
crew
cri
criada
crie
crim
crime
crimen
crimes
criminal
criminel
criminelle
criminelles
criminels
crire
cris
crise
crisis
cristal
cristia
cristian
cristiana
cristina
cristo
cristobal
crit
crites
critical
critique
critiques
crits
criture
crivain
crivains
cro
croc
crockett
crocodile
crocodiles
crois
croisade
croise
croisie
croix
cromwell
cronenberg
crooked
crop
cropped
croquant
croque
crosby
cross
crossing
crow
crowe
crowley
crown
croze
crs
cruces
cruchot
cruchten
cruel
cruise
crus
crusoe
cruz
cruzados
cruze
cry
crying
crypte
crystal
cs
csi
ctimas
ctor
ctv
cu
cual
cualquiera
cuando
cuanto
cuaro
cuarto
cuatro
cuau
cuba
cube
cucaracha
cuche
cuco
cue
cuenta
cuento
cuentos
cuerpo
cuervo
cuervos
cuesta
cueva
cuevas
cuidado
cuir
cuisine
cuisinier
cuisse
cukor
cul
cula
culkin
cullen
culotte
culpa
culpable
culpables
culture
culturel
cultures
cumberland
cumbia
cumbres
cume
cummings
cuna
cunningham
cuny
cuore
cup
cupid
cupidon
cuq
cura
cure
cureuil
curie
curiel
curite
curran
current
curry
curse
curtelin
curtis
curtiz
curval
custodia
cut
cution
cutler
cutter
cuyahoga
cuyer
cy
cyborg
cycle
cyclone
cygne
cynthia
cyprien
cyr
cyrano
cyril
cyrille
cyrus
czajka
cœur
cœurs
d
da
dabo
dacia
dad
daddy
dade
dae
daert
dafri
dagger
dagobert
dague
daguerre
dahan
dahl
daisy
dajoux
dakar
dako
dakota
dal
dalai
dalban
dale
dalembert
daley
dalia
dalida
dalila
dallas
dalle
dallet
dalton
daly
dam
dama
damages
damas
dame
dames
damia
damian
damiana
damiani
damiano
damien
damiens
damme
damne
damned
damon
damou
dan
dana
dance
dancehall
dancer
dancing
dandin
dandridge
dandy
dane
danger
dangereuse
dangereuses
dangereux
dangerous
dani
danie
daniel
daniela
daniele
daniella
danielle
daniels
danilo
daninsky
danis
danje
danjere
danmak
danna
danny
dans
danse
danser
danseur
danseuse
dansite
dante
dantec
dantis
danton
danvers
danwa
dany
danys
dao
daouda
daphne
dapre
daquin
dar
dara
darbon
darby
darc
darcy
dard
dardenne
dare
dari
darie
dario
darius
dark
darkest
darkness
darlan
darling
darmon
darnell
daroy
darras
darraux
darrell
darren
darrieux
darroussin
darrow
darry
darryl
darwin
daryl
das
dash
dassin
dat
data
database
date
dates
dateurs
dating
dauchy
daughter
daughters
daunou
dauphin
dave
davenport
david
davidson
davies
davila
davis
davison
davy
dawn
dawson
dax
day
dayan
dayana
dayiti
days
dayton
dc
dchen
dd
de
dea
deacon
dead
deadly
deadwood
deal
dealer
dean
dear
dearden
death
deathly
deauville
deba
debake
debann
debaz
debbie
debbouze
deborah
debout
debra
dec
decaux
december
deception
decin
decine
decins
decisiones
decker
declan
declaro
decoin
decoteau
decourt
decout
dediktiv
dedye
dee
deep
defande
defann
defans
defanse
default
defe
defense
deferre
defi
defini
definisyon
definitivman
defo
defye
dega
degaje
degli
degrassi
degre
dehors
dei
deirrye
deja
dejan
dejas
dejean
dekker
deklarasyon
deklare
deko
dekonpozisyon
dekorate
dekouve
dekouvri
dekre
dekrete
dekri
del
dela
delacroix
delage
delahaye
delai
delaire
delamare
delannoy
delano
delaporte
delarive
delattre
delaunay
delaware
delbez
delcourt
dele
delegasyon
delege
delerme
deleuze
delfina
delfino
delgado
delia
deliba
delicias
delilah
delitto
delivre
dell
della
delle
delmas
delon
delorme
delphine
delplanque
delpy
delrieux
delta
deluc
deluz
delva
delval
delvaux
dem
demain
demaison
demanda
demande
demange
demann
demasiado
dembe
dembo
demen
demenaje
demente
demetrio
demeure
demi
demia
demille
demisyon
demisyone
demme
demografi
demoiselle
demoiselles
demokrasi
demokratik
demon
demongeot
demonio
demonstrasyon
demontre
demoustier
demption
demy
den
deneuve
denis
denise
denisot
denisse
dennis
denny
denonse
dent
dentelles
dents
denver
denys
denzel
depa
depandans
depann
depans
depanse
depardieu
department
depase
depasse
depatman
depe
depestre
depi
depite
deplase
deplasman
depo
depoze
depresyon
depuis
der
deray
derbez
dercourt
derecho
derek
deris
derive
dernie
dernier
derniers
derrick
derrie
deruas
deruddere
des
desafi
desagnat
desailly
desalin
desamor
desandan
desanm
desann
desarthe
descamps
descarado
descas
descend
descendants
descente
deschamps
desclous
desconocido
description
desde
desen
desencuentro
deseni
deseo
desert
desesperadas
desfontaines
deside
desierto
desimal
desinate
desine
desire
desiree
desizif
desizyon
desjardins
deskripsyon
deslauriers
desmond
desmoulins
desnuda
despaux
desperate
despertar
desplechin
despue
desqueyroux
desrosie
desrosiers
dessalines
dessin
dessine
dessins
dessous
dessus
destilando
destin
destinasyon
destination
destine
destino
destinos
destins
destiny
destriksyon
desvilles
det
deta
detay
detaye
dete
detective
detectives
deteksyon
detekte
detektiv
detra
detre
detroit
dette
detwi
deuil
deutch
deutsch
deutschland
deux
deuxie
devaivre
deval
devan
devant
development
devenu
devereaux
devers
devient
devil
deville
devine
deviz
devlin
devlo
devlope
devlopman
devoir
devolde
devon
devos
devrait
devwa
dewaere
dewever
dewey
dewolf
dexter
deye
deyo
dez
dezas
deze
dezi
deziyen
dezo
dezye
dgar
dhaene
dharma
dhe
di
dia
diabate
diabla
diable
diables
diablo
diabolique
diaboliques
diagne
diagonale
diakite
diallo
dialo
dialogo
dialogue
dialogues
dialoguiste
diamant
diamante
diamantes
diamants
diamond
diamonds
diana
diane
diaries
diario
diarra
diary
dias
diaspora
diaste
diat
diavolo
diaye
diaz
dicale
dicaprio
dice
diche
dicho
dicis
dick
dickens
dickie
dickinson
dickson
dico
dicos
dicte
diction
dictionary
dictionnaire
did
diderot
didi
didier
die
died
diefenthal
diego
dien
dienne
diens
dies
diesel
dieter
dieterle
dietrich
dieu
dieudonne
dieumerci
dieux
diez
dife
diferan
diferans
diferansye
diffe
different
difficile
difficulte
diffuse
diffusion
difikilte
difisil
difize
difizyon
digbeu
digital
dignite
digo
diguian
dihi
dijital
dik
diksyon
diksyone
diktate
diktati
dile
dilettante
dillon
dim
dimanch
dimanche
dimanches
dimansyon
dimension
diminye
dimitri
dina
dinamik
dinasti
dinasyon
dinate
dindon
dine
dinero
dingo
dingue
dinner
dino
dio
dion
dionisio
dionne
diop
dios
diosa
diouf
diplo
diplomat
diplomatik
diplomatique
diplome
dir
dirab
dirai
dire
direct
directeur
direction
director
directora
directors
directrice
direksyon
direkte
direktiv
direktris
diri
dirijan
dirije
dirk
dirt
dirty
dis
disaster
discipline
disco
discogs
discours
discovery
discret
discussion
dise
disen
disid
disip
disiplin
disk
diskisyon
diskite
diskografi
diskou
diskriminasyon
disney
disparai
dispare
disparisyon
disparition
disparu
disparue
disparus
dispatch
display
displays
disponib
dispozisyon
dispute
dissolue
distance
distans
distansyasyon
distenge
distenksyon
distrait
distri
distribisyon
distribution
distribye
district
distrik
distrito
dit
dite
diterrane
dites
diteur
dith
dition
ditions
dito
ditou
dits
dium
diva
divalye
divan
divas
dive
diven
divers
divertissement
divin
divina
divine
divino
division
divize
divizyon
divizyone
divo
divorce
divorcent
divorces
divwa
diwan
dix
dixie
dixon
dize
dj
djamel
djamila
django
djaz
dje
dji
djibril
djo
dkda
dlo
dmytryk
do
dobermann
doble
doc
doce
docks
docteur
doctor
doctora
doctors
documentaire
documentation
documents
dodge
doe
does
doesn
dog
dogs
doi
doigt
doigts
doillon
dois
doit
doivent
dokiman
dokimante
dokte
doktora
doktrin
dola
dolan
dolce
dolittle
doll
dollar
dollars
dolle
dolly
dolmen
dolo
dolor
dolore
dolores
dolos
dom
domain
domaine
domaj
domaje
dombasle
dome
domenech
domeng
domenica
domenico
domestik
domestique
domi
domicile
dominan
dominasyon
domine
dominga
domingo
domingue
dominguez
dominic
dominicaine
dominici
dominik
dominika
dominikani
dominike
dominiken
dominique
domino
don
dona
donald
donaldson
donans
donate
donatien
donc
donck
donde
done
donen
dong
doniol
donk
donna
donnadieu
donnant
donne
donnell
donner
donnez
donnie
donoso
donovan
dont
donzelli
doo
doom
door
dor
dora
dorado
doran
dorantes
dore
doria
dorian
dorine
doris
dorle
dormael
dormant
dormir
dorotea
dorothe
dorothy
dors
dort
dorval
dory
dos
dosamantes
dossier
dossiers
dostoi
dosye
dot
dote
dou
douala
douanes
douanier
douard
doub
doublaj
double
doubles
doublure
doubt
douce
doucet
douceur
douchand
douches
doudou
doue
doueiri
doug
douglas
doukoure
doule
douleur
doumbia
dounia
dous
dousman
dout
doute
doutey
douvan
doux
douz
douze
doval
dove
dover
down
doy
doyle
dpe
dr
dra
drach
dracula
drage
drago
dragon
dragons
drague
dragueur
drake
drale
dram
drama
dramatij
dramatik
dramatique
drame
draogo
drapeau
drapo
dray
dre
dread
dream
dreamers
dreams
drei
dreoyt
dress
drew
dreyfus
dreyfuss
drhey
dric
dridi
driez
drigeard
drimal
drink
driscoll
driss
drive
driver
dro
drogue
droit
droite
droits
drop
drouet
drouot
drucker
drummer
drummond
drums
drunk
dry
ds
dtan
dtv
du
duane
duarte
dub
dublin
dubois
dubosc
dubost
dubreuil
dubroux
duc
ducastel
ducation
duccio
duchaussoy
duchemin
duchesne
duchesse
ducis
duck
duclos
ducobu
ducournau
ducrest
ducs
ducteur
ductibles
duction
duda
dudley
dudrumet
due
duel
duele
duelo
duen
duettistes
duff
duffy
dufilho
dufour
dufresne
dugain
dugan
dugowson
duguay
duhamel
duhour
duiovan
duire
dujardin
duke
dulac
dulce
dule
dumas
dumb
dumbo
dumont
dumoulin
dunant
dunbar
duncan
dune
dunham
dunia
dunn
dunne
dunphy
duo
duparc
duperey
dupeyro
dupeyron
dupieux
duplessis
dupont
dupontel
dupre
dupuis
dupuy
duque
duquesa
duquesne
duquet
dur
dura
duran
durand
durant
duras
dure
duret
durfee
durieux
during
duroc
durringer
durs
duse
dussaux
dussollier
dust
dustin
dutch
dutronc
duty
duval
duvalier
duvall
duvauchelle
duverger
duvivier
dux
dvd
dwa
dwan
dwanye
dwat
dwayen
dwayne
dwe
dwight
dwo
dwyer
dy
dyab
dyagnostik
dyagnostike
dyale
dyalo
dyalog
dyalogis
dyana
dyare
dyaspora
dye
dying
dyke
dylan
dynam
dynamite
dynastie
dyodesimal
dyose
e
each
eagle
earl
earle
early
earth
earthquake
earthquakes
east
eastwood
easy
eat
eating
eau
eaux
eb
ebenezer
ebola
eboue
ebre
eca
ecas
echa
echanj
echanje
echantiyon
eche
echevarri
echeverri
echo
echwe
eclipse
ecole
ed
eda
edad
eddie
eddy
ede
edel
edelweiss
eden
edgar
edgard
edgardo
edge
edificio
edikasyon
edikate
edikatris
edike
edilivre
edison
edisyon
edite
edith
edition
editions
editor
editors
editoryal
edme
edmond
edmund
edmundo
edna
edo
edouard
eds
edson
edu
eduard
eduardo
educando
education
edward
edwards
edwige
edwin
edy
een
efase
efe
effect
effenterre
effet
effets
effort
efikas
efikasite
efira
efo
efrai
egal
egalite
egalman
egan
egf
egg
egi
ego
egoi
egon
egurrola
egypt
egzak
egzamen
egzaminate
egzanp
egze
egzekite
egzekitif
egzibisyon
egzijans
egzije
egzil
egzile
egzistans
egziste
eh
ehle
eiffel
eight
eighth
eileen
ein
eine
einer
eines
einseinmbe
einstein
eisenstein
ekasyon
ekilib
ekip
ekipaj
ekipman
ekire
ekivalan
eko
ekoloji
ekonomi
ekonomik
ekonomis
ekosiste
ekoulman
ekran
ekri
ekriti
ekriven
eksepsyon
eksepsyone
eksepte
ekspe
ekspedisyon
eksperyans
eksplikasyon
eksplike
eksplorate
eksplore
eksplwatasyon
eksplwate
ekspo
ekspoze
ekspozisyon
ekspresyon
eksprime
ekstansyon
ekste
ekstre
ekwasyon
ekwate
ekzadesimal
ekzanp
ekzekitif
ekzil
el
ela
eladio
elaine
elaji
elatriye
elba
elbaz
elbe
elder
eldorado
ele
eleanor
eleazar
electric
elefant
eleksyon
elektoral
elektrik
elektrisite
elektrisyen
elektwon
elektwonik
eleman
elemante
elementary
elena
elenco
eleonora
elephant
eleven
eli
elia
eliana
eliane
elias
elie
elijah
elikopte
elimine
eline
elio
eliot
eliott
elisa
elisabeth
elise
eliseo
elit
eliza
elizabeth
elizalde
elizondo
elkai
ella
ellas
elle
ellen
elles
elli
ellie
elliot
elliott
ellis
elmaleh
elmer
elodie
eloi
elopement
eloy
elsa
elsie
elt
elvira
elvire
elvis
ely
elyse
em
emanuel
embarras
embellie
embil
embrasse
embrassent
embrassez
eme
emeline
emerald
emerit
emerson
emery
emeterio
emi
emigre
emil
emile
emilia
emiliano
emilie
emilio
emily
emir
emira
emisfe
emisyon
emitai
emma
emmanuel
emmanuelle
emme
emmenez
emmerdes
emmerdeur
emmerich
emmett
emmy
empe
emperatriz
empereur
emperor
empezar
empire
emploi
employe
empoisonne
empoisonneuse
emporte
emporter
emporterez
empreinte
empreintes
empress
emprise
empty
en
enamora
enamorada
enamores
enamoro
encadenados
encanto
encendida
encendidas
ench
enchante
encore
encre
encrier
encrucijada
encyclope
encyclopedia
end
ende
endepandan
endepandans
endgame
endije
endikate
endike
endire
endis
endistri
endistriye
endividye
endonezi
endormie
endroit
ends
endyen
ene
enemies
enemiga
enemigo
enemy
enfance
enfances
enfant
enfants
enfeksyon
enfekte
enfektye
enfer
enferme
enfermera
enfermeras
enfers
enferye
enfimye
enfin
enfliyan
enfliyans
enfliyanse
enfo
enfrastrikti
enfrente
engage
engagement
engan
engel
england
english
engredyan
engrenage
engrenages
enigma
enjenye
enki
enkli
enko
enkoni
enkyetid
enle
enne
ennemi
ennemie
ennemis
ennui
enoc
enoch
enpak
enpe
enperatris
enperyal
enplike
enpo
enposib
enpoze
enpresyonis
enprime
enque
enrage
enragje
enri
enrico
enrique
enriqueta
ens
ense
enseignants
enseignement
ensemble
ensen
ensenachos
ensidan
ensidans
ensije
enskri
enskripsyon
ensorcele
enspekte
enspektris
enspirasyon
enspire
enstabilite
enstalasyon
enstale
enstiti
enstitisyon
enstitisyone
enstriksyon
enstrikte
enstriman
entandan
entansite
entansyon
ente
entebbe
entegre
entelektye
entente
entere
enteresan
enterese
enterre
enterrement
entertainment
enterye
entesten
entie
entier
entim
entourage
entrai
entre
entreprise
entretien
entretiens
entwodiksyon
entwodui
envante
envazyon
enve
envers
envesti
envestisman
envie
envies
envite
envol
envole
envoye
enz
enza
enzo
eory
ep
epe
ephron
epi
epic
epidemi
epis
episode
epitou
epizo
epizod
epo
epps
epstein
equalizer
equipo
er
era
eran
ercole
ere
eres
eric
erica
erich
erick
erie
erik
erika
erin
eritaj
eritye
ernest
ernestina
ernesto
ernie
ernst
ero
eros
erreur
erreurs
errol
error
ertaud
erwan
erwin
es
esa
esansye
esca
escadron
escalante
escale
escalier
escalona
escambray
escapade
escape
escargot
esce
escenario
esclavage
esclave
esclaves
escobar
escobedo
escroc
escudero
ese
eseye
eseyis
esfe
eske
eskilte
eskilti
esklav
esklavaj
esmas
esme
esmeralda
esmeraldas
espa
espace
espaces
espada
espagne
espagnol
espagnole
espan
espanyo
esparza
espas
espay
espe
especial
espejismo
espejo
espektak
espektate
espera
esperanto
esperanza
espere
espesifik
espesyal
espesyalis
espesyalite
espesyalize
espesyalman
espi
espino
espinosa
espinoza
espion
espionne
espions
espiral
espiritye
esplike
espo
espoir
espoirs
esposa
esposito
espri
esprit
esprits
espwa
espyon
esquivel
essai
essais
essaye
essays
esse
essentiel
essex
est
esta
estab
estad
estado
estafa
estajye
estanda
estas
estasyon
estate
estati
estatistik
este
esteban
estefani
estela
estelle
ester
esterilizasyon
estetik
estevez
esthe
esther
estidyo
estil
estimasyon
estime
estivants
esto
estoke
estrada
estrateji
estratejik
estre
estrella
estrellas
estrellita
estrikti
estriktire
estrougo
esway
et
eta
etabli
etablisman
etaj
etan
etap
etat
etazini
etc
ete
eternal
eternamente
eternity
ethan
ethel
etid
etidyan
etidyant
etidye
etienne
etik
etimoloji
etnik
etranje
ettore
etudes
etwal
etzer
eu
euge
eugene
eugenia
eugenio
eulalia
euler
eun
eurent
europa
europe
european
eustache
eux
euzhan
ev
eva
evalyasyon
evalye
evan
evangelina
evans
evantye
evaristo
eve
evelyn
evelyne
even
evening
event
ever
everett
evers
every
everybody
everything
evidan
evidence
evil
evita
evite
evoke
evolisyon
evolye
evski
ewing
ewo
ewopeye
ewopeyen
ewozyon
ex
examen
example
excellence
exception
exceptionnel
excepto
exe
exemple
exemples
exercice
exes
exige
exil
exile
existe
existence
existing
exit
exitosos
expe
expendables
experience
experiment
expert
experts
explique
exploits
explore
explosion
expo
expose
exposition
express
expression
exte
extra
extran
extraordinaire
extraordinaires
extraordinary
extre
extreme
extremis
exupe
ey
eye
eyes
eyre
ez
ezau
ezequiel
ezra
f
fa
fabbri
faber
fabia
fabian
fabiana
fabien
fabienne
fabio
fabiola
fable
fables
fabre
fabrice
fabricio
fabrizio
fabuleuse
fabuleux
fabulous
fac
face
faces
fache
facile
facteur
factory
faculte
facundo
fae
faenza
fagadau
fai
faible
faibles
failevic
faim
fair
fairbanks
faire
fairfax
fairfield
fairy
fais
faisons
fait
faite
faites
faith
faits
faivre
fajardo
fajnberg
fakilte
fakte
faktori
falaise
falco
falcon
falcone
falk
fall
falla
fallait
fallen
falling
fallingrain
fallon
fallout
falls
falsa
false
fama
famasi
famasye
famasyen
fame
famiglia
familia
familiale
familie
famille
familles
family
famous
fan
fanatik
fanfan
fango
fanm
fanmi
fanmsaj
fann
fanny
fanon
fansten
fanta
fantaisie
fantasio
fantasma
fantasmes
fantastic
fantastik
fantastique
fantastiques
fantasy
fantin
fanto
far
faraday
farah
faraldo
farce
farceur
fardin
fare
farewell
fargas
fargass
farges
fargo
fari
farid
farida
farin
faris
farkas
farm
farmer
farnum
faro
farrell
farrelly
farrow
farrugia
farwagi
fas
fascination
fashion
fasil
fasilite
fasilman
fason
fassbinder
fassio
fast
fat
fata
fatal
fatale
fate
father
fathers
fatigue
fatima
fatou
fatoumata
fatra
fatty
faubert
faubourg
faucher
faucon
faure
faurez
faussaires
fausse
fausses
faust
faustin
faustine
faustino
fausto
faut
faute
fautes
fauteuil
fauteuils
fauves
faux
favart
fave
favela
faveur
favier
favor
favorab
favorite
favorize
favrat
favre
favreau
fay
fayard
faye
fayette
faz
fazer
fbi
fc
fe
fea
fear
feat
featuring
febli
fechner
federal
federasyon
federica
federico
fedora
fedra
feel
feeling
feet
fehr
feid
feig
feizhe
fejria
felice
felices
felicia
feliciano
felicita
felicity
felina
felipa
felipe
felix
feliz
fellini
felt
felton
fem
female
feme
feminis
femme
femmes
fen
fendu
fene
fenlann
fenminein
fenome
fense
fenton
fer
ferchaux
ferdinand
ferdinando
ferguson
fermat
fermaud
ferme
fermi
ferna
fernand
fernanda
fernande
fernandel
fernandes
fernandez
fernando
ferra
ferrailleurs
ferral
ferran
ferrand
ferrara
ferrare
ferrari
ferre
ferreira
ferrer
ferreri
ferret
ferrier
ferro
ferroni
ferroukhi
ferry
fescourt
fespaco
festa
festin
festival
fet
feu
feud
feuillade
feuille
feuilles
feuilleton
feux
fever
fevriye
fevrye
few
fewowe
fey
feydeau
feyder
feyton
ff
ffp
fi
fiacre
fianc
fiance
fices
fich
fiche
fichye
fico
fiction
fide
fidel
fie
field
fielding
fields
fiera
fieras
fierro
fierte
fiesta
fiez
fifa
fifi
fifigrot
fifth
fig
figaro
figgis
fight
fighter
fighting
figi
figiran
figirant
figirasyon
figlio
fignole
figueroa
figuration
figure
figures
fiick
fiks
fikse
fiksyon
fil
filadelfi
file
files
filipin
filippe
filippo
fille
filles
fillie
film
filmaffinity
filme
films
filo
filozo
filozof
filozofi
filozofik
fils
fim
fime
fimen
fimografi
fin
fina
final
finale
finalis
finalman
finance
finans
finanse
finansman
finansye
finca
finch
fincher
find
finding
finds
fine
fini
finie
finirons
finisman
finissent
finit
finkiel
finley
finn
fiona
fire
firmin
firmine
firode
first
fiscal
fischer
fish
fisher
fisi
fiskal
fiti
fitoussi
fitzgerald
five
fixe
fizik
fizisyen
fizyon
fla
flaco
flag
flamand
flame
flammarion
flamme
flammes
flanagan
flanders
flandre
flash
flavia
flavio
fle
fleck
fleischer
fleming
flers
flesh
fletcher
fleur
fleurot
fleurs
fleury
fleuve
flexion
flexions
flic
flics
flight
flingue
flingueurs
flint
flirt
flo
floch
flon
floor
floque
flor
flora
flore
florence
florencia
florencio
florent
flores
florette
florey
florian
floricienta
florid
florida
floride
flou
flow
flower
flowers
floyd
flu
fly
flye
flying
flynn
fm
fo
focus
foenkinos
foi
foire
fois
foley
folgoas
folie
folies
folio
folk
folle
folles
follet
follow
fombrun
fon
fonction
fond
fonda
fondamantal
fondasyon
fondate
fondation
fonde
fondo
fonds
fone
fonetik
fonksyo
fonksyon
fonksyone
fonlladosa
fonn
fonolojik
fons
fonseca
font
fontaine
fontan
fontana
fontanes
fontanille
fonteyne
fontsize
food
fool
fools
foon
foot
football
footballdatabase
for
forall
forbes
forbidden
force
forces
forcier
ford
fore
foreign
foreman
forero
forest
forestier
forever
forges
forget
forgotten
form
forma
forman
format
formation
forme
former
formes
formidable
formule
forrest
forrester
forster
forsythe
fort
forte
forteresse
fortier
fortin
forts
fortuna
fortunat
fortunato
fortune
fortunes
forum
forward
fosil
fosse
fossey
foster
foto
fotograf
fotografi
fou
fouad
foucaud
foucault
fouche
foudre
fouet
foul
foule
foulon
found
foundation
founi
founise
fountain
fouquet
four
fourastie
fourme
fourmi
fournier
fourth
fous
foutbale
foutbo
foutbole
fouye
fowler
fox
foxx
foy
foyer
fr
fra
frac
fracasse
fracture
fragile
fragments
fragonard
frai
frais
fraise
fraises
fran
franc
franca
france
francen
frances
francesca
francesco
franchi
francia
francine
francis
francisca
francisco
franck
francky
franco
francois
francophone
francophones
francophonie
francs
frangin
franju
frank
franke
frankel
frankenheimer
frankenstein
frankie
franklin
frankofo
frankofoni
franky
frans
franse
frantz
franz
frape
frappe
fraser
frasier
frate
fratelli
frau
frauen
fray
fraz
fre
freak
frears
frecuencia
fred
freda
freddie
freddy
frederic
frederick
fredo
free
freedom
freeman
freire
freitas
frekans
french
frenesi
frente
fresh
fresnay
fresno
fresson
freud
freund
frey
fri
fric
friche
fricot
frida
friday
friedkin
friedman
friedrich
friend
friends
friendship
fringe
frise
fritz
fro
frog
froid
froide
froides
from
front
frontera
frontie
frost
frot
frou
frozen
fru
fruit
fruits
frydland
frydman
ft
fu
fuchs
fue
fuego
fuente
fuentes
fuera
fuerte
fuerza
fuga
fugitifs
fugitive
fugue
fuite
fulci
fulgencio
full
fuller
fulton
fume
fun
fune
funk
funky
funny
fuqua
furax
furet
fureur
furia
furie
furious
furman
fury
fuse
fusil
fusille
fusils
fusion
fut
futur
future
futurs
fwa
fwans
fwaye
fwi
fwon
fwond
fwontye
fwote
fyanse
fye
g
ga
gaan
gabe
gabi
gabin
gabino
gabon
gabone
gabor
gabriel
gabriela
gabriele
gabriella
gabrielle
gaby
gachet
gad
gade
gadye
gadyen
gae
gael
gaetano
gaffe
gag
gaga
gage
gaghan
gagnant
gagne
gagnon
gai
gaiete
gail
gailland
gaillard
gaines
gainsbourg
gainville
gaita
gal
gala
galabru
galan
galantes
galaxie
galaxy
gale
galeano
galement
galeri
galerie
galette
galicia
galile
galileo
galindo
galite
gall
gallagher
galland
gallardo
gallego
gallegos
gallery
gallica
gallienne
gallimard
gallo
gallois
gallone
galmot
galop
galri
galva
galwa
gama
gamba
gambler
gamblin
gamboa
game
games
gamine
gamins
gan
gana
ganas
gance
gancho
gandhi
gang
gangs
gangste
gangster
gangsters
ganik
ganis
ganizasyon
ganizate
ganize
gans
gant
gantelmi
gantillon
gants
ganyan
ganyen
ganz
gaona
gap
garagiste
garajis
garance
garanti
garatuza
garay
garbarski
garc
garce
garceau
garci
garcia
garcin
gard
garde
garden
gardenia
garder
gardien
gardiens
gardner
gardy
gare
garel
garement
garenq
gareth
garfield
garibaldi
garin
garland
garnett
garnier
garonne
garou
garrel
garrett
garrido
garrison
garry
gars
garson
garth
gary
garza
garzo
gas
gasco
gascogne
gason
gaspar
gaspard
gast
gastambide
gasto
gaston
gata
gate
gates
gatica
gatineau
gatlif
gato
gatsby
gattorno
gauche
gaucho
gauguin
gaulle
gauntier
gauthier
gautier
gavila
gavin
gaviria
gavras
gay
gayan
gaye
gayet
gaz
gazelles
gazon
ge
gebhardt
gede
geffrard
geheimnis
geithner
gel
gelblat
gema
gemelas
gemma
gen
genaro
gendarme
gende
gendes
gendre
gendron
gene
generacio
general
generale
generation
genesis
genet
geneva
genevie
genevieve
genina
genius
gennaro
genoveva
genre
genres
gens
gent
gentan
gente
gentil
gentilhomme
gentille
gentleman
gentlemen
genyen
geoff
geoffrey
geoffroy
georg
george
georges
georgette
georgia
georgie
georgina
ger
gerald
geraldine
gerard
gerardo
gerber
gerd
gerhard
gerhardt
geri
germa
germain
germaine
german
germinal
gero
geronimo
gerry
gertrude
gertrudis
gervais
ges
gessner
gestapo
geste
get
getaway
gets
getting
geum
ghetto
ghislain
ghislaine
ghost
ghosts
gi
gia
giacomo
giafferi
gian
giancarlo
gianfranco
gianni
giannoli
giant
gibaja
gibier
gibraltar
gibson
gica
gico
gid
gida
gide
gideon
gie
gies
gif
gifford
gifle
gift
gigi
gigolo
gijol
gil
gilbert
gilberte
gilberto
gilda
giles
gill
gilles
gillespie
gillet
gilliam
gillian
gillies
gilmore
gilou
gilson
gime
gimeno
giment
gin
gina
gine
ginette
ginger
gino
gioia
gion
giono
giordano
giorgio
giorni
giorno
giovanna
giovanni
gir
girafe
giraldi
giraldo
girard
girardot
giraud
giraudeau
giraudoux
girault
girl
girlfriend
girlfriends
girls
giro
girod
girolami
giroux
gis
gise
gisela
giselle
gish
gita
gitai
gitan
gitana
gitane
gitano
gitaris
gitime
gitimus
giulia
giuliano
giulio
giuseppe
giusti
give
given
givray
giya
gje
gjeinre
gjeinry
glace
glaces
gladys
glaeser
glaive
glann
glas
glase
glass
gle
gleason
glee
gleize
gleman
glen
glencoe
glenn
glenville
gles
gli
glif
glise
glissant
glm
global
globe
globo
glogg
gloire
gloria
glory
gloucester
glover
glu
gluck
gne
gnier
gnoan
go
goa
goal
gob
gobbi
gobernador
gobert
goble
goch
gociateur
god
godard
goddard
goddess
godeau
godet
godfather
godfrey
godi
godin
godot
godoy
godre
gods
goes
goethe
goff
gogh
gogo
gohou
going
goire
gold
goldberg
golden
goldenberg
goldman
goldoni
goldschmidt
goldsmith
goldstein
goldwyn
golem
goliath
golpe
gomes
gomez
gomis
gon
gonayiv
gonc
goncourt
gondry
gondwana
gone
gong
gonna
gontran
gonza
gonzague
gonzales
gonzalez
gonzalo
goo
good
goodbye
goode
goodman
goodnight
goodwin
google
gor
goran
gorda
gordo
gordon
gore
goretta
gorge
gorgeart
gori
gorie
gorille
gorilles
goriot
goron
goros
gory
goscinny
gosnell
gospel
gosse
gosses
gossip
got
gotesman
gotham
gotik
gotita
gottfried
gou
goud
gouges
gould
goulding
goumen
goupil
gourguet
gourmet
gout
goutas
goutle
gouttes
gouve
gouvernement
gouverneur
gouverneurs
gov
govar
govare
goya
goyri
gozlan
gr
gra
grabuge
grace
gracia
gracie
graciela
grad
grade
grady
gradye
graenmaire
graf
graffin
graffiti
grafik
graham
grain
graine
grajales
gral
grall
gram
gramacks
gramatikal
grame
grammaire
grammes
gran
granada
granados
grand
grandans
grande
grandes
grandet
grandeur
grandi
grandma
grandperret
grands
grange
granger
granges
grangier
grangou
granier
granma
granmanman
granme
granmoun
grann
granpapa
granpe
grant
granville
gras
grasa
grass
grasset
grassian
grata
grate
gratis
grau
grav
grave
graves
gravet
gravite
gravity
gray
grayson
grazia
graziani
graziella
gre
great
greater
greatest
grec
grecia
greco
greek
green
greenaway
greene
greenfield
greengrass
greensleeves
greenwood
grefye
greg
gregg
greggory
gregor
gregorio
gregory
gregoryen
grelca
grenad
grenade
grenier
grenn
grenoble
grenouille
grenouilles
gres
gret
greta
gretchen
grey
gri
grie
grifell
griffe
griffes
griffin
griffith
griffiththe
grillet
grimaldi
grimas
grimault
grimblat
grimes
grimm
grinberg
gringo
grip
gris
griselda
grises
grito
gritos
gritude
grivois
gro
groeningen
groland
groom
groove
gros
grospierre
gross
grosse
grosses
grossesse
ground
group
groupe
grousset
grove
groves
grown
große
gru
gruber
grupo
gu
gua
guadagnino
guadalajara
guadalupe
guadeloupe
guanajuato
guanta
guantanamo
guapos
guard
guardia
guardian
guardians
guay
gue
guedj
guen
guenhein
guenllein
guerdjou
guerin
guerra
guerre
guerrero
guerrier
guerriers
guesmi
guesnier
guest
guetta
gueule
gueules
guevara
gueye
guez
gui
guibert
guichard
guide
guido
guignabodet
guignard
guignol
guila
guilaine
guilhem
guillard
guillaume
guille
guillemin
guillemot
guillermina
guillermo
guillo
guillon
guillot
guillou
guilma
guilty
guin
guinein
guinguette
guirado
guiraudie
guise
guissart
guit
guitar
guitare
guitry
guliers
gulliver
gum
gun
gunn
guns
gunsmoke
gunther
gus
gust
gusta
gustav
gustave
gustavo
gutie
gutierrez
gutierritos
guy
guyane
guybet
guyot
guys
guzma
guzman
gwadloup
gwadloupeyen
gwanm
gwen
gwendoline
gwo
gwose
gwoup
gwoupe
gy
gyldendalske
gyllenhaal
gymnase
gynt
gypsy
gypte
h
ha
haas
habana
habib
habit
habite
hache
hachette
hacia
hackett
hackford
had
hadmar
hadrien
hae
hagen
haguet
hahn
hai
haine
haines
hair
hais
haiti
haitian
haitiancreole
haitien
hakim
hal
hale
haley
half
halifax
halimi
hall
hallaf
halle
haller
hallows
hallstro
hallyday
hambourg
hamburg
hame
hamid
hamidi
hamilton
hamina
hamlet
hamm
hammer
hammond
hamon
hampshire
hampton
han
hanches
hancock
hand
handke
hands
handwerker
haneke
hanin
hank
hanks
hanna
hannah
hannibal
hans
hansen
hanson
hante
happened
happily
happiness
happy
hara
harald
harbor
harcourt
hard
hardi
harding
hardwicke
hardy
hare
harel
harem
hari
harker
harlan
harlem
harley
harmattan
harmon
harmony
haro
harold
haroun
harper
harriet
harrington
harris
harrison
harron
harry
hart
hartford
hartley
hartman
hartmann
harvard
harvest
harvey
has
hasard
hassan
hasta
hastings
hat
hate
haters
hathaway
hato
hattie
haudepin
haunted
haunting
haus
hauser
haut
haute
hautes
hauts
havane
have
haven
havre
hawaii
hawk
hawke
hawkins
hawks
hawthorne
hay
haya
hayde
hayden
haye
hayes
haynes
hayser
hazan
hazanavicius
hazel
hbo
he
head
health
hear
heart
heartbeat
heartbreak
hearts
heat
heather
heaven
heavy
hecht
heckerling
hector
hee
heffron
heidelberg
heidi
heights
hein
heinrich
heinz
heir
held
helen
helena
helene
helga
helgeland
hell
helle
heller
hello
hellphone
helm
helman
helmut
help
hemingway
henao
henderson
henning
hennion
henri
henrietta
henriette
henrik
henrique
henry
henson
her
herbe
herbert
herbes
herbier
herbiet
herbulot
hercule
hercules
herdt
here
heredera
herederos
heredia
herek
herencia
heriberto
herida
heridas
herman
hermana
hermanas
hermann
hermano
hermanos
hermine
herminia
hermione
herna
hernandez
hernando
hero
heroes
herr
herrera
herrero
herry
hers
herve
hervil
herz
herzfeld
herzog
hesme
hess
hessique
heston
het
heure
heures
heureuse
heureux
hewitt
hex
hey
heylbroeck
heymann
heynemann
hh
hi
hibou
hicham
hickox
hicks
hidalgo
hidden
hiena
hier
hierro
higareda
higgins
high
higher
highlander
highway
hija
hijas
hijo
hijos
hilaire
hilario
hilary
hilda
hilde
hill
hillel
hiller
hilliard
hilling
hills
hilton
him
himmel
hiner
hines
hinojosa
hip
hipo
hippie
hippocrate
hippolyte
hire
hirondelles
hiroz
hirsch
his
hispania
hispaniola
histoha
histoire
histoires
historia
historias
historique
history
hit
hitchcock
hitchhiker
hitler
hitman
hits
hiver
hler
ho
hobart
hobbit
hobbs
hoblit
hocine
hodge
hodges
hoffman
hoffmann
hogan
hogar
hogares
hogg
holbrook
holby
hold
holden
holding
hole
holgado
holger
holgui
holguin
holiday
holland
hollander
hollis
hollow
holloway
holly
hollywood
holm
holmes
holt
holy
homard
hombre
hombres
home
homecoming
homeland
homer
homero
homicide
hommage
homme
hommes
homo
hondo
honey
honeymoon
hong
honme
honne
honneur
honolulu
honor
honorable
honore
honoreras
honorine
honour
honte
hood
hoofstadt
hook
hooks
hoon
hooper
hoover
hop
hope
hopkins
hopper
hora
horace
horacio
horas
horizon
horizons
horloger
horn
horowitz
horreur
horrible
horror
hors
horse
horseman
horses
horst
hortense
hortensia
horton
hospital
hossein
host
hot
hotel
hou
hour
hours
house
housewives
houssin
houston
how
howard
howell
hoy
hoyo
hoyos
hoyt
hrer
hs
hss
ht
htm
html
http
https
hu
huang
hubei
huber
hubert
hudson
hue
huelva
huerta
huertas
hugh
hughes
hugo
hugon
hugues
huguette
hui
huile
huis
huissier
huit
huitie
hulk
humain
humaine
humaines
humains
human
humanite
humbert
humberto
humboldt
humor
humour
humphrey
hunebelle
hung
hunger
hunm
hunt
hunted
hunter
hunters
hunting
huppert
hur
huraca
hurlevent
hurley
hurricane
hurst
hurt
hurtado
husband
husbands
hussard
hussein
husson
hustache
huster
hustle
huston
huth
hutton
hwa
hwan
hwang
hyacinthe
hyams
hyde
hye
hyo
hypothesis
hyppolite
hyuk
hyun
hyung
i
ia
iade
iain
ian
iba
ibarra
ibarrola
ibe
iben
ibis
ibiza
ibn
ibrahim
ibrahima
ibsen
icare
icaza
ice
ich
ici
id
ida
idaho
idantifikasyon
idantifye
idantite
ide
ideal
idem
identidad
identifier
identite
identity
ideyal
ideyoloji
idiot
idir
idit
ido
idol
idole
idriss
idrissa
idwo
idwoje
ie
iela
ier
if
iga
igaal
iglesia
iglesias
iglesis
ignace
ignacia
ignacio
igor
igoux
ihr
ii
iii
ijans
ijye
ike
ikre
il
ilan
ilande
ilann
ile
ileana
ilegal
iles
iliana
ilinwa
ilistrasyon
ilistre
ill
ille
illusion
illusions
illustre
ils
ilse
ilusiones
im
image
images
imaginaire
imaginarium
imagine
imaj
imajine
imanite
imanol
imaterye
imbc
imbert
imdb
ime
imedya
imedyat
imedyatman
imelda
imen
imid
imigran
imigrasyon
iminite
immate
imme
immortel
imobilye
imoge
imoris
impact
impasse
impe
imperdonable
imperial
imperio
impitoyable
implacable
importance
important
importe
impossible
imposteur
impostora
imposture
impr
impre
imprimerie
imprimeur
in
ina
inacheve
inc
inca
ince
incertain
inch
incident
incla
inclusive
incognito
inconnu
inconnue
inconnus
incontro
incorrigible
incredible
incroyable
inde
independence
indes
index
india
indian
indiana
indien
indienne
indiens
indies
indige
indigo
indio
indiscre
indiscrets
indochine
indomable
indomables
ine
inedi
inegalite
ines
inesko
infamia
infante
infernal
infernale
inferno
infide
infieles
infierno
infiltre
infini
infinity
infirmie
infirmier
influence
info
information
informatique
infortunes
infty
inge
ingenios
inglourious
ingobernable
ingram
ingrid
ini
inifo
inifye
inik
inisyal
inisyativ
inisye
inite
initials
inive
innocence
innocent
innocente
innocents
inocente
inocentes
inogirasyon
inogire
inondasyon
inquie
ins
insaisissables
insatiable
inse
inside
insiste
insolent
insoumis
insoumise
insoupc
inspecteur
inspector
inspire
instant
instead
instinct
instit
institut
institute
instituteur
institutions
institutrice
instruction
instrumental
insurge
inte
intelligence
intenciones
intent
intentions
inter
interdiction
interdit
interdite
interdits
interest
interlingua
interlingue
internacional
international
internationale
interne
internet
interpol
interpre
intervention
interview
interviews
intime
intimes
intimite
into
intouchables
intre
intrigues
introduction
intruder
intrus
intrusa
invasion
inventaire
invente
invention
investigation
invincible
invincibles
invisible
invisibles
invitation
invite
inyon
io
ioah
ionesco
iosseliani
iowa
ip
ipote
ira
irai
irak
iran
iranis
iras
ire
ireland
irene
iriarte
irigwe
irina
iris
irish
irma
iron
irons
irrationalite
irre
irvin
irving
irwin
is
isa
isaac
isabel
isabela
isabella
isabelle
isadora
isai
isaiah
isaura
isbn
isela
ish
isidore
isidoro
isidro
isild
isis
isit
isker
isla
islam
islamik
island
islande
islas
isle
isles
ismae
ismael
iso
ispanyola
ispayola
israe
israel
issa
issance
issermann
issn
issue
ist
istanbul
istorik
istorikman
istoryen
istwa
it
ita
itali
italia
italian
italiana
italie
italien
italienne
italy
italye
italyen
itati
itil
itilizasyon
itilizate
itilize
itine
its
iturbe
iturbide
iturralde
itzel
iv
iva
ivan
ivana
ivanov
ive
ivens
ivernel
ives
ivette
ivo
ivoire
ivonne
ivory
ivre
ivresse
ivwarye
ivwaryen
ivy
ix
iyon
iz
izaak
izaguirre
izin
iznogoud
izo
izolasyon
izole
izolman
izquierdo
izraye
izzy
j
ja
jacinta
jacinto
jack
jackie
jackpot
jackson
jacky
jacmel
jacno
jaco
jacob
jacobo
jacobs
jacoulot
jacqueline
jacques
jacquet
jacquin
jacquot
jacquou
jade
jaden
jadinye
jae
jaeckin
jagu
jagua
jaguar
jah
jahan
jai
jaime
jairo
jak
jake
jakme
jako
jakob
jakubowicz
jalil
jalisco
jalouse
jalousie
jam
jama
jamaica
jamain
jamais
jamal
jamayik
jamayiken
jambes
jambon
jame
jamel
james
jameson
jamet
jamie
jamin
jan
jana
jandam
jandamri
jane
janeiro
janet
jang
janice
janin
janina
janine
janis
janm
janneau
jansen
janson
jantile
january
janvier
janvye
jaoui
japan
japon
japonais
japone
japy
jaque
jara
jarabo
jaramillo
jardi
jardin
jardinero
jardinier
jardins
jared
jargal
jarmusch
jaro
jarrott
jasmin
jasmine
jason
jasper
jaubert
jaula
jaume
jaune
jaunes
java
javier
javlo
jay
jayet
jazmi
jazz
jc
je
jean
jeanette
jeanine
jeanjean
jeanne
jeannette
jeannine
jeannot
jeans
jed
jedi
jefa
jefe
jeff
jefferson
jeffrey
jeffs
jekyll
jen
jene
jeneral
jeneralis
jeneralman
jenerasyon
jenere
jenetik
jeni
jenital
jenkins
jenn
jenna
jennie
jennifer
jennings
jenny
jensen
jeoloji
jeong
jera
jeran
jere
jeremi
jeremiah
jeremy
jerez
jericho
jerizale
jero
jerome
jerry
jersey
jerzy
jesifra
jess
jesse
jessica
jessie
jessua
jessy
jesu
jesus
jesyon
jet
jetab
jete
jeu
jeudi
jeudy
jeune
jeuner
jeunes
jeunesse
jeunet
jeux
jewel
jewell
jewison
jewografi
jewografik
jewoloji
jewometri
jeyografik
jezi
jezikri
jhilmar
jhon
ji
jidisye
jij
jije
jijman
jill
jilyen
jim
jime
jimena
jimenez
jimmy
jimnastik
jimo
jin
jinekolo
jinete
jintara
jire
jiri
jiridik
jis
jiska
jiskaske
jistifye
jistis
jitan
jiye
jo
joa
joachim
joan
joana
joann
joanna
joanne
joannon
joaqui
joaquim
joaquin
joaquina
joassin
job
jobert
jocelyn
jocelyne
jockey
jodi
jodie
jodorowsky
jody
joe
joel
joey
joffe
johan
johann
johanna
johanne
johannes
john
johnny
johns
johnson
johnston
johr
joie
joins
jojo
joker
joli
jolie
jolies
jolivet
joly
jon
jona
jonah
jonas
jonasz
jonatan
jonathan
jones
jong
jonny
jonques
jonze
joo
joon
joong
jorda
jordan
jordi
jorge
joris
jorre
josaphat
jose
josef
josefa
josefina
joseph
josepha
josephine
josette
josh
joshua
josiane
josie
joss
josselin
josue
josy
jou
jouan
jouannet
jouant
joubert
joue
jouer
jouet
joueur
joueurs
joueuse
jouk
jounal
jounalis
jounen
jour
jourd
jourdain
jourdan
journal
journaliste
journaux
journe
journey
jours
jousse
jouvet
jouy
joven
jovenel
jovita
joy
joyce
joyeuse
joyeuses
joyeux
joze
jp
jpeg
jpg
jr
jtbc
ju
jua
juan
juana
juanas
juancho
juanita
juanito
juanjo
juarez
judas
judd
jude
judge
judgment
judiciaire
judicial
judith
judor
judy
juego
juegos
juez
jugando
juge
jugement
jugnot
juguete
juicio
juif
juillet
juin
juive
juju
jules
julia
julian
juliana
julie
julien
juliet
julieta
juliette
julio
julissa
julius
jullian
julliard
july
jumbo
jumeaux
jump
jun
junco
junction
june
jung
jungle
junior
juntos
jupe
jupes
jupiter
jupons
jurado
juramento
jurassic
jure
jurer
juro
jury
jusqu
just
juste
justice
justicia
justiciers
justin
justina
justine
justinien
justino
justo
juventud
jwe
jwen
jwenn
jwi
jwif
k
ka
kaamelott
kab
kaba
kabann
kabare
kabine
kabo
kabore
kaboul
kabrit
kache
kaciqat
kad
kadav
kadejak
kader
kadinal
kado
kadre
kady
kadyak
kafe
kafka
kafou
kagan
kahane
kahn
kai
kale
kalfon
kali
kalifa
kalifikasyon
kalifo
kalifye
kalite
kalkil
kalkile
kamal
kamalich
kamarad
kamel
kamera
kamewoun
kamewoune
kameyo
kamikaze
kaminka
kaminski
kamyon
kan
kanada
kanadye
kanadyen
kanal
kanaval
kandida
kandidati
kane
kang
kangourou
kanmenm
kann
kanor
kanpay
kanpe
kansas
kanse
kant
kantite
kanton
kao
kap
kapab
kapasite
kapital
kapite
kaplan
kapo
kaporal
kappabe
kappauf
kappes
kapps
kaptire
kar
kara
karakas
karakte
karakteristik
karakterize
karant
karante
karate
karayib
kare
karel
karen
karim
karin
karina
karine
karl
karla
karma
karmann
karole
karsenty
karthala
karye
karyo
kas
kasasyon
kasdan
kase
kasik
kasika
kaskad
kaskade
kasmi
kassav
kassovitz
kast
kasting
kat
kate
kateb
katedral
kategori
katell
katerine
katharina
katharine
katherine
kathleen
kathryn
kathy
katia
katie
katja
kato
katolik
katrian
katrina
katriye
katrye
katy
katye
katz
kaufman
kaufmann
kaurisma
kavalye
kavanagh
kavayon
kawolin
kay
kaye
kayiman
kayla
kazandjian
kazino
kbs
ke
keach
kean
keaton
kebe
kebekwa
kebekwaz
kechiche
keen
keep
keeper
kei
keita
keith
keksyon
keller
kellerman
kelley
kellogg
kelly
kelsey
kemm
kemp
ken
kenbe
kendall
kendra
kenean
kennedy
kenneth
kenny
kent
kentucky
kenya
kenz
kepler
kepombia
kerbrat
kerchbron
keren
kermadec
kermesse
kern
kerr
kerry
kervern
kessler
kesye
kesyon
keufs
kevin
key
keys
kg
kh
khaled
khalid
khalil
khan
khe
kheiron
kherici
khi
khojandi
ki
kiba
kibe
kiben
kiberlain
kick
kid
kidnape
kidnapping
kidonk
kids
kies
kijan
kika
kike
kiki
kiko
kil
kile
kill
killed
killer
killers
killing
kills
kilome
kilos
kiloz
kilti
kiltire
kiltivate
kiltive
kim
kimberly
kin
kind
kine
king
kingdom
kings
kingsley
kingston
kinsey
kinshasa
kinski
kinsto
kira
kirby
kire
kirk
kirkwood
kirsanoff
kirsten
kisa
kise
kiskeya
kiss
kisyon
kit
kitchen
kite
kitty
kiye
kizin
klainer
klapisch
klas
klase
klasifikasyon
klasik
klasman
klaus
klavye
kle
klein
kleine
kleist
klere
klib
klifa
klike
klima
klinik
klip
klitbo
kliyan
kliyant
klo
klotz
kloun
kloz
klyan
km
knight
knights
knock
knopf
know
knowles
known
knows
knox
ko
kobhio
koch
kochon
koe
koffi
kojak
koko
kola
kolaborasyon
kolaborate
kolabore
kole
koleksyon
kolekte
kolektif
kolektivite
kolera
kolo
kolokate
kolon
kolonbi
kolonbye
kolonbyen
kolone
koloni
kolonizasyon
kolonize
kolonyal
kolorado
kolte
kom
koma
komandan
komanse
komantate
komante
komboudri
kome
komedi
komedye
komedyen
komen
komik
komin
kominal
kominikasyon
kominike
kominis
kominote
komisarya
komise
komisyon
komisyone
komite
kommissar
kon
konate
konba
konbat
konbine
konbinezon
konbit
konbyen
kondane
kondisyon
kondui
kondwi
kone
koneksyon
konekte
konesans
konferans
konfime
konfinman
konfizyon
konfli
konfo
konfonn
konfyans
konfye
kong
konga
kongo
kongole
kongre
konjekti
konjonksyon
konke
konkeri
konkiran
konkirant
konkli
konklizyon
konkou
konkre
konmanse
konmansman
konn
konnen
konpa
konpare
konparezon
konpay
konpayi
konpayon
konpetans
konpetisyon
konpilasyon
konple
konplete
konplikasyon
konplike
konplis
konplo
konpo
konpoze
konpozisyon
konpozite
konpozitris
konprann
konpreyansyon
konrad
konsa
konsakre
konsantrasyon
konsantre
konse
konsekans
konsepsyon
konseye
konsiderasyon
konsidere
konsil
konsila
konsiltasyon
konsilte
konsiste
konso
konsolide
konsomasyon
konsomate
konsome
konstan
konstitisyon
konstitisyone
konstitye
konstriksyon
konstwi
konsyans
kont
kontab
kontabilite
kontajye
kontajyon
kontak
kontakte
kontaminasyon
kontamine
kontan
kontanporen
kontchalovski
konte
konteste
kontinan
kontinantal
kontinye
kontni
kontra
kontrakte
kontre
kontrent
kontribisyon
kontribite
kontribiye
kontribye
kontwo
kontwole
kontwove
konvansyon
konve
konvenk
konviksyon
konvoke
koo
kooperasyon
kope
koperasyon
kopi
kopwodiksyon
kopwodikte
kopwodiktris
kopwodui
kopye
koral
koralnik
koray
korber
korda
kore
koregraf
koregrafi
koreksyon
korespondan
korespondans
koresponn
koreyalizasyon
koreyalizate
koreyalize
koreyen
korije
koripsyon
korma
kosenaris
koster
kostim
kostimye
kot
kotcheff
kote
koton
kou
kouch
kouche
koud
koudeta
kougn
koule
kouman
koumanse
koumba
kounen
kounnein
kounye
kounzha
koup
koupe
kouraj
kouran
koure
kouri
kous
kout
koute
koutim
koutirye
kouto
kouve
kouvri
kouwo
kouwone
kouyate
kouzen
kouzin
kovacs
kowo
kowonaviris
koze
kr
kra
krache
kraft
kramer
kras
kraus
krauss
krawczyk
kraze
kre
kredi
kredite
kremer
kretye
kretyen
kreyasyon
kreyate
kreye
kreyo
kreyol
kri
krief
krieger
krier
krim
krimine
kris
kristen
kristin
kristina
kristo
krisyanis
krite
kritik
kritike
krivine
kriz
kru
kruger
krzysztof
ks
ksye
ksyon
kte
kteman
ku
kubrick
kuizinye
kung
kur
kurc
kuri
kurt
kurtz
kurys
kurzel
kwa
kwade
kwadrilate
kwafe
kwapis
kwasans
kwayans
kwaze
kwazye
kwe
kwen
kwit
kwiv
kwizin
kwizinye
kwomozo
kwon
kwonik
kwonike
kwonoloji
ky
kyan
kyle
kyrou
kyung
l
la
laad
lab
laba
labarthe
labe
label
laberinto
laberintos
labiche
lable
labo
labor
laboratwa
laborde
labro
labrune
labute
labyrinthe
lac
lacan
lacaze
lacenaire
lacey
lachanm
lacheau
lachin
lacombe
lacoste
lacourt
lacroix
lacte
ladan
ladann
ladies
ladislas
lado
ladoge
ladro
ladrones
lady
lae
laetitia
lafarge
lafayette
laferrie
laffargue
laffont
lafimen
lafitte
lafont
lafontant
lafore
lafortune
lafosse
lafrans
lafrik
lafwa
lafye
laga
lagarde
lage
lago
lagonav
lagos
lagrange
laguardia
laguerre
laguna
lahmani
lahnstein
lai
laine
lair
laisse
laisser
laissez
lait
laj
lajan
laje
lajistis
lajman
lajoie
lak
lakay
lakaye
lake
lakes
lakhdar
lako
lakou
lala
lalande
laleau
lalin
lalo
lalwa
lam
lama
lamar
lamarre
lamatye
lamb
lambda
lambert
lamberto
lame
lamen
lamine
lamo
lamont
lamothe
lamotte
lamour
lamoureux
lampin
lamy
lan
lana
lanati
lancaster
lance
lancelot
land
landa
landaeta
lande
lander
landero
landeros
landes
landeta
landing
landis
landru
landry
lane
lanester
lanfe
lang
langa
langage
langaj
langdon
lange
langeais
langer
langevin
langlois
langmann
langston
language
languages
langue
langues
lanie
lanmbda
lanme
lanmo
lanmou
lanners
lannoo
lannwit
lanoe
lanoux
lans
lanse
lansman
lant
lantier
lantikite
lanvin
lap
lapawo
lape
lapierre
lapin
laplace
lapli
laplipa
lapolis
laporte
lapre
laptop
lapwent
laquelle
lara
laraque
larcher
lare
larenn
larga
largas
large
largo
largue
lari
larie
larigot
larios
larisi
larissa
larivie
larivye
larmes
laroche
laroque
larose
larousse
larrai
larrea
larriaga
larrieu
larry
lars
larsen
larson
lartigau
larue
lary
las
lasante
lascars
lascura
lase
lass
lassalle
lasse
last
lasyans
laszlo
late
laten
later
latibonit
latin
latina
latine
latino
lation
lations
latitid
lato
latortue
latouche
latour
latriye
latte
lattuada
lau
lauby
laudenbach
lauderdale
lauga
laughing
laugier
laura
laure
laureano
laurel
lauren
laurence
laurent
laurette
laurie
laurier
lauro
lausanne
lautner
lautrec
lauzier
lavaine
laval
lavalas
lavalle
lavanant
lavant
lavardin
lavat
lavaudant
lave
lavi
laviche
lavigne
laviktwa
lavil
laville
lavinia
laviron
lavni
lavoie
law
lawrence
lawson
lawyer
lay
laye
layla
lazare
lazareno
lazaro
lazarus
lazcano
lazlo
lazo
lazos
lazy
lda
le
lea
lead
leader
league
leah
leal
lean
leandro
lear
learning
leary
leave
lebasque
lebel
leben
lebens
leblanc
lebon
leboursier
lebowitz
lebrun
lec
lecaye
leche
lecle
leclerc
leclercq
lecluyse
lecoeur
lecomte
leconte
lecoq
lecouvreur
lection
lectre
lecture
lectures
leder
lederman
ledesma
ledoux
ledoyen
leduc
lee
leeds
leenhardt
lefe
lefebvre
lefevre
lefort
lefranc
left
leftrightarrow
legacy
legagneur
legal
legend
legendre
legends
legim
legliz
lego
legrand
legras
legros
legs
lehe
lehman
lehmann
lehrer
lei
leigb
leigh
leila
leingue
leinguy
leipzig
leisen
leitch
lejand
leje
lejip
lejis
lejislasyon
lejislatif
lejitim
lejyone
leko
lekol
leksik
lekte
lekti
leland
lellouche
lelouch
lemai
lemaire
lement
lemercier
lemesle
lemmy
lemoine
lemon
lemond
lemonn
lemort
lemy
len
lena
lenbe
lencquesaing
lendemain
lendemains
lendi
lengwis
lengwistik
lennox
lenny
lenoir
lenouvelliste
lent
lenzi
leo
leon
leona
leonard
leonardo
leone
leonel
leonela
leonidas
leonor
leonora
leopold
leopoldo
leos
lepage
lepetit
lepic
leprince
lerin
lerner
leroi
leroux
leroy
les
lesage
lescaut
lescot
leslie
leson
lespas
lespert
lespinasse
lespri
less
lesser
lessertisseur
leste
lester
lestin
lestins
lestomak
lestrade
let
leta
letellier
leterrier
lethal
lethem
leticia
letourneur
letra
letter
letters
lettre
lettres
letty
lety
letzte
leur
leurs
levanjil
levant
levantal
levasseur
leve
level
leven
levent
lever
levi
levin
levine
levinson
levy
lew
lewin
lewis
lewkowicz
lex
ley
leyenda
leyendas
leygonie
leyla
leyoga
leyva
lez
lezama
lf
lfim
lfloor
lfn
lhc
lhe
lhermite
lhermitte
li
lia
liaison
liaisons
liam
liana
liane
liang
liar
liars
lias
liautaud
lib
liban
libataire
libataires
libbe
libe
liberal
liberasyon
liberateur
libere
liberski
libertad
libertador
liberte
libertin
liberty
librairie
library
libre
libres
libro
lic
lica
licence
licenciado
lices
lichita
licie
licien
licite
licorne
lide
lidia
lidon
lie
liebe
lieberman
liebman
lien
liens
lier
lies
lieu
lieutenant
lieux
life
lifetime
lifshitz
lig
ligarde
light
lightning
lights
ligia
lignac
ligne
lignes
ligue
lijans
lik
like
likid
liksanbou
liksanboujwa
lil
lila
lilas
lili
lilia
lilian
liliana
liliane
lilienfeld
lille
lilli
lillian
lilly
lilti
lily
lim
lima
liman
limanite
limantour
lime
limit
limite
limited
limites
limits
limo
limosin
limpio
limur
limye
lin
lina
linares
linceul
lincoln
lind
linda
linden
lindo
lindon
lindsay
lindsey
line
lines
ling
lingua
linguiste
linguistes
linguistics
linguistique
linive
link
linklater
links
lino
lins
lio
lion
lionel
lions
lioret
liouville
lip
lipinska
lipinski
lique
lire
lis
lisa
lisabeth
lisandro
lisans
lisardo
lisbeth
lisbon
lisbonne
lise
lisette
lisi
lissa
lissier
list
lista
liste
listwa
lit
lita
litchfield
lite
literary
literati
literature
litere
lites
lito
litte
little
litvak
lityani
liu
lius
liv
live
lives
livia
living
livingston
livraison
livre
livres
livrezon
lix
liy
liz
liza
lizabeth
lizalde
lizzani
lizzie
lizzy
lj
ljik
lkan
lkeswa
ll
llama
llamada
llamado
llaman
llamas
llano
llar
lle
llega
llegado
llena
ller
llez
llopis
lloran
llorca
llorente
lloyd
lluvia
lman
lme
ln
lo
loba
lobelle
lobet
lobo
lobos
loca
local
locas
locataire
location
lock
locke
lockwood
loco
locos
locura
locuteur
locuteurs
lodge
lodie
log
logan
loge
logereau
logo
logos
loi
loin
lointain
loire
loiret
lois
loiseau
loizillon
loje
lojik
lojisye
lokal
lokalite
lokalizasyon
lokalize
lokate
loki
lokite
lol
lola
loli
lolita
lolo
loma
lomacapiro
lombard
lombardi
lombardo
lome
lomeli
lon
lonbraj
lond
londez
london
londres
lone
lonely
lonergan
lonesome
long
longchamp
longe
longest
longoria
longtemps
longue
longues
longval
lonjitid
lonn
lonsdale
lontan
look
looking
loose
lope
lopes
lopez
lopital
lora
lorca
lord
lore
lorelei
loren
lorena
lorenz
lorenza
lorenzi
lorenzo
loreto
loretta
loreya
lori
lorna
lorraine
lors
lorsque
los
lose
losey
loss
losset
lost
lot
lote
lotte
lou
louba
loubignac
loud
loue
louer
louie
louis
louisa
louise
louison
loulou
louna
loup
loups
lourdes
loursais
loustau
louve
louverture
louvre
louvri
love
loved
lovely
lover
lovers
loves
loving
low
lowe
lowell
lowski
loy
loyola
lozada
lozano
lp
ls
lt
lte
ltima
ltimo
lu
lubin
lubitsch
luc
luca
lucas
luce
lucero
luces
lucette
lucha
luche
luchini
luchino
lucho
luci
lucia
luciana
luciani
luciano
lucie
lucien
lucienne
lucifer
lucila
lucile
lucille
lucinda
lucio
lucius
luck
lucky
lucot
lucre
lucrecia
lucrezia
lucy
lude
ludivine
ludlow
ludmila
ludo
ludovic
ludovico
ludwig
lugar
luge
lugo
lui
luigi
luis
luisa
luise
luja
lukas
luke
lula
lullaby
lulu
lumet
lumie
lumumba
luna
lundi
lune
lunes
lunettes
luotd
lupe
lupin
lupita
lupo
luque
lure
lus
lussi
lute
luther
lutte
lutz
lux
luxe
luxembourg
luxure
luz
luzardo
lvarez
lvaro
lveda
lveig
lveme
lvez
lvoff
lvovsky
lwa
lwazi
lwe
lwen
lwi
lwil
lwizyana
ly
lyce
lydia
lydie
lye
lyen
lyetnan
lyezon
lyle
lynch
lyndon
lyne
lynn
lynne
lyon
lyonel
lyonnais
lyons
lys
lyse
lætitia
løve
m
ma
mabel
mabrouk
mac
macabra
macadam
macaigne
macarena
macaria
macario
macary
macbeth
macdonald
mace
macedo
macfarlane
macgregor
mach
macha
machado
machandiz
machann
mache
machin
machine
macho
machos
macht
maci
macintosh
mack
mackay
mackenzie
mackinnon
macon
macquarrie
mad
madagascar
madam
madame
madan
madanm
maddalena
madden
maddie
maddin
maddox
made
madeleine
madeline
madelon
mademoiselle
madera
madero
madge
madigan
madison
madmwaze
madness
mado
madonna
madrastra
madre
madres
madrid
madrigal
madrugada
madsen
maduro
mae
maestra
maestro
mafia
mafiosa
mag
maga
magali
magalie
magaly
magan
magasin
magazen
magazin
magazine
magda
magdalena
magdalene
magellan
mages
maggie
magia
magic
magicien
magie
magimel
magique
magiques
magistrat
magloire
magma
magnan
magne
magnier
magnificent
magnifique
magnolia
magnum
magnus
mago
magre
magua
maguire
maguy
mahama
mahamat
mahe
mahmoud
mahoney
mai
maia
maid
maiden
maigret
mail
maillan
maillard
maille
maillet
maillot
main
maine
mains
maintenant
maire
mairesse
mais
maison
maisons
maistre
maite
maj
majeste
majeur
majik
majistra
majisyen
majo
major
majordome
majorite
mak
makaya
make
maker
maki
making
makiyaj
makiye
makiz
makout
maksimo
mal
mala
malad
malade
maladi
maladie
malakian
malandrin
malarya
malaterre
malavita
malavoy
malcolm
malcriadas
maldicio
maldita
malditos
maldonado
maldonne
male
maleficio
malek
malena
malerezman
malet
maley
malgre
malherbe
malheur
malheurs
mali
malibu
malice
malick
malik
malika
malin
maline
malka
malkovich
malle
mallet
malleval
malley
mallory
malman
malo
malone
malou
malquerida
malraux
malu
malyen
mam
mama
mamadou
maman
mambety
mambo
mame
mamet
mami
mamie
mamife
mamma
mammuth
mamy
man
manadje
management
manager
manan
manantial
manbo
manbra
mancha
manche
manchester
mancini
mancuso
manda
mandamiento
mandan
mandar
mandasyon
mandat
mande
mandel
mandela
mandico
mandman
mandoline
mandy
mane
manet
manfred
mangane
mange
mango
mangold
mangolt
manhattan
mani
maniac
manie
manifestan
manifestasyon
manifeste
manigat
manipulation
manipulations
manivelle
manje
mank
manke
mankiewicz
manm
manman
mann
mannequin
mannequins
manning
mannken
manno
manny
mannye
mano
manoel
manoir
manola
manolo
manon
manos
manoukian
manque
manquer
manri
manrique
mans
manse
mansfield
mansman
manson
mansour
mansyon
mansyone
mantal
mante
manteau
manterola
manti
mantique
manto
manu
manual
manuel
manuela
manuscrit
many
manye
manyen
manyo
manzano
manzor
manœuvres
mao
map
maps
maque
maquillage
maquillaje
mar
mara
marabout
marais
marandin
marano
marat
marathon
maravillas
maravilloso
marbœuf
marc
marca
marcada
marcation
marceau
marcel
marcela
marcelin
marcelino
marcelle
marcello
marcelo
march
marcha
marchal
marchand
marchande
marchands
marche
marcher
marches
marchetti
marcia
marcial
marciano
marco
marconi
marcos
marcus
mardi
mare
marea
marechal
marek
marelli
maren
mareuil
marga
margaret
margarethe
margarita
margaux
marge
margherita
marginal
margo
margolin
margot
marguenat
marguerite
mari
maria
mariachi
mariage
mariages
mariam
mariama
marian
mariana
marianela
mariani
marianna
marianne
mariano
maribel
maricarmen
maricruz
marido
maridos
marie
mariela
marielena
marielle
marier
mariette
marigny
marilou
marilu
marilyn
marilyne
marimar
marin
marina
marine
marinette
marino
marins
mario
marion
maripaz
mariposa
maris
marisa
mariscal
marisela
marisol
marissa
marita
maritim
maritime
maritza
marius
marivaux
marjane
marjorie
mark
marker
markes
market
markham
markle
marko
marks
markus
marle
marleau
marlene
marley
marlon
marlowe
marly
marmottes
marne
marnier
maron
maroni
maroun
marple
marquand
marque
marques
marquesa
marquet
marquez
marquis
marquise
marraine
marrakech
marre
marrero
marriage
married
marrons
marry
mars
marsac
marsan
marseille
marsh
marsha
marshal
marshall
marta
marte
marteau
martel
martelly
martes
martha
marthe
marthouret
marti
martial
martin
martina
martine
martineau
martinelli
martinet
martinez
martini
martiniquais
martinique
martino
martins
martiny
marton
marty
martyr
maru
maruja
marval
marvel
marvin
marwen
marx
mary
maryaj
marye
maryen
maryland
marylin
maryline
maryse
mas
masachose
masak
masculein
masculin
mase
maselli
masiero
masif
mask
mason
masque
masques
mass
massachusetts
massacre
massart
masse
masset
massillon
massimo
masson
master
masters
masterson
mastrocinque
mastroianni
masyal
masyon
mat
mata
matador
matalon
matamoros
matan
matant
matanzas
matar
match
matche
mate
matelot
matema
matematik
matematisyen
maten
mateo
mateos
mater
material
maternelle
materye
materyo
math
mathbb
mathe
mathematical
mathematics
mathias
mathieu
mathilda
mathilde
mathis
mathon
mathot
mathrm
mathurin
mathurins
mati
matias
matie
matik
matilda
matilde
matin
matinik
matinike
matins
matique
matiques
matirite
matlock
mato
matographique
maton
matrimonio
matris
matrix
matt
matte
mattei
matteo
matter
matthew
matthews
matthias
matthieu
mattoli
matton
mature
matye
mauclair
maud
maude
maudit
maudite
maudits
mauduit
maupassant
maupin
maura
maureen
maurey
mauri
maurice
mauricio
maurin
maurizio
mauro
maury
mausso
mauvais
mauvaise
mauvaises
mauve
maverick
mawo
mawoken
mawon
max
maxence
maxi
maxim
maxime
maximilian
maximiliano
maximilien
maximum
maxine
maxwell
may
maya
mayer
mayerling
mayfield
mayi
mayo
mayor
mayra
mayri
mayrig
mayte
maze
mazoyer
mazuy
mazzone
mbar
mbaye
mbc
mbula
mc
mcbride
mccarthery
mccarthy
mcclane
mccoy
mcdermott
mcdonagh
mcdonald
mcdowell
mcg
mcgee
mcgowan
mcgrath
mcgregor
mcguckian
mcguigan
mcguire
mckay
mckee
mckenna
mckenzie
mclaglen
mclean
mcleod
mcnamara
mcneil
mcquarrie
mcqueen
mctiernan
me
mea
meadows
mean
means
meat
meaulnes
meaux
mec
mechan
meche
mechri
mecs
med
meday
medeiros
medelli
medhi
media
medianoche
medical
medicine
medikal
medikaman
medina
medio
mediterane
medium
medrano
medsen
medsin
medya
medye
meet
meeting
meets
meg
mega
megan
megaton
mehdi
mei
meier
meilleur
meilleure
meilleures
meilleurs
mein
meine
meinme
meirelles
meji
mejor
mekanik
mekanis
mekanisyen
meksik
meksike
meksiken
meksiko
mel
melanie
melanj
melanje
melba
melchior
mele
melennec
melina
melinda
melissa
melki
melo
melodi
melody
melon
melrose
melvil
melville
melvin
member
membre
membres
memo
memoria
memories
memory
memphis
memwa
men
mena
menace
menahem
menaj
menas
menase
mence
mende
mendes
mendez
mendieta
mendiola
mendiza
mendoza
mene
meneses
menez
menm
menmsi
mennaj
mennen
mens
mensch
mensonge
mensonges
ment
mentaire
mental
mentale
mentalist
menteur
menteurs
menteuse
menthe
menti
mentine
mention
mentir
mentira
mentiras
mentor
ments
menus
mer
merad
meraude
meraz
mercader
mercadier
mercado
mercanton
mercedes
mercenaire
mercenaires
mercer
merchant
merci
mercier
mercredi
mercure
mercurio
mercury
mercy
merde
meredith
mergault
meri
merino
merite
merle
merlet
merlin
mermoud
mero
merret
merry
mers
mersenne
merveilles
merveilleuse
merveilleux
mervyn
merzak
mes
mesa
mesaj
mesaje
mesdames
mesguich
mesi
mesnier
mesrine
message
messager
messe
messenger
messieurs
mesure
mesures
mesye
met
meta
metal
mete
method
meto
metre
metriz
metro
metropolis
mettre
metwo
metye
metz
metzger
meunier
meurent
meurisse
meurs
meurt
meurtre
meurtres
meurtrie
meurtrier
meurtriers
meute
mexican
mexicana
mexicano
mexico
mexique
meye
meyer
meyers
meynard
mez
meza
mezi
mezire
mezon
mg
mhd
mi
mia
miami
mibale
mic
mica
micaela
mich
micha
michae
michael
michaels
michalik
michaud
miche
michel
michelangelo
michele
micheline
michell
michelle
michigan
michodie
michou
mick
mickae
mickael
mickey
micky
micmacs
micro
mid
middle
middlesex
midi
midnight
midsummer
midy
mie
miedo
miel
miens
miente
mientras
mier
miesch
mieux
mighty
migrasyon
migrations
migre
miguel
mihaileanu
mijares
mik
mika
mikae
mikael
mike
mikey
mikhael
mikhai
mikhail
miksaj
mikwo
mikwosko
mil
mila
milady
milagro
milagros
milan
milano
milat
mildred
mile
milena
milene
miles
milie
milieu
militaire
militan
militant
milite
milk
mill
milla
millar
mille
miller
millet
milliard
milliardaire
milliards
millie
million
millionnaire
millions
millon
millonario
mills
milo
milos
milou
miltip
miltipliye
milton
milwaukee
milya
milye
milyon
mimi
mimouni
mimran
min
mina
minaire
minaj
minal
minan
minasyon
mince
mind
minds
mindy
mine
miner
mineral
minerva
mineur
mineurs
ming
minghella
minh
mini
minimo
minin
minine
minis
minisipal
minisipalite
ministe
minister
ministre
minit
minnelli
minnesota
minnie
mino
minor
minorite
minta
minuit
minustah
minute
minutes
minutos
mio
miou
miquel
miquette
mir
mira
mirabal
miracle
miracles
mirada
mirage
mirages
miragwa
miranda
mirande
mire
mireille
miret
mireya
miriam
mirna
miro
miroir
mirror
mirta
mirza
mis
misanthrope
mischka
mise
miserables
misio
misk
misma
mismo
miss
missa
missiaen
missing
mission
missionnaire
missions
mississippi
missouri
missourii
missy
mister
misterio
misterios
mistik
mistral
mistress
misye
misyon
misyone
mit
mitad
mitan
mitch
mitchell
mite
mites
mitoloji
mitrani
mitterrand
mix
mixte
miyami
miyo
miz
mize
mizik
mizikal
mizilman
mizisye
mizisyen
mizrahi
mkwa
mlg
mlle
mm
mme
mnouchkine
mo
moati
mob
mobil
mobile
mobilize
mochila
mocky
mocratie
mocratique
mod
mode
model
modelo
modelos
models
modern
moderne
modernes
modeste
modesto
modiano
modibo
modifikasyon
modifye
modigliani
modo
modot
moe
moglie
mogo
mogollo
moguy
mohamed
mohammed
mohicans
moi
moignage
moin
moine
moins
moira
moire
moires
mois
moise
moisson
moissons
moitie
moix
mokne
mol
mole
molekil
molia
molie
molina
molinaro
moll
molly
moloch
mom
moman
mome
moment
moments
momias
momie
momo
moms
mon
mona
monachi
monaco
monak
monako
monasterio
monca
moncada
monceau
moncorge
mond
mondaine
monday
monde
monden
mondes
mondiale
mondo
mondrago
mondy
mondyal
mone
monet
monete
money
monfils
monge
mongeville
mongo
monica
monicelli
monie
monika
moniman
monique
monite
moniteur
monk
monkey
monkeys
monmouth
monn
monnaie
monnen
monnet
monnier
monnin
mono
monocle
monod
monologues
monos
monreyal
monroe
monroy
mons
monsalve
monseigneur
monsenye
monserrat
monseye
monsieur
monster
monsters
monstre
monstres
mont
montage
montagne
montagnes
montaj
montalba
montaldo
montalier
montalvo
montan
montana
montand
montavon
montay
montazel
monte
monteagudo
montecristo
montejo
montel
montemar
montemayor
montenegro
monterde
montero
monteros
monterrey
monterrubio
montes
montesinos
monteverde
montez
montfermeil
montgomery
month
monti
montiel
montijo
montilla
montmartre
montmirail
montoute
montoya
montparnasse
montpellier
montpensier
montre
montreal
montreuil
montserrat
monty
moody
moolaade
moon
moonlight
moore
moorestown
moosmann
mor
mora
moral
morale
morales
moran
morand
morane
morante
morceaux
mord
mordillat
more
moreau
moreira
morel
morelia
morell
morelli
morelos
morena
moreno
moret
moretti
morgan
morgana
morgane
morgue
mori
morillo
morin
morir
morire
moris
morisseau
morisyen
morley
morne
morning
moro
morpheme
morris
morrison
morro
morrow
mors
morse
morsures
mort
mortal
morte
mortel
mortelle
mortelles
mortels
mortensen
mortes
mortier
mortimer
morton
morts
morvan
mory
mosca
moscou
moses
moshe
moskou
moso
mosquera
moss
most
mot
mota
mote
motel
mother
mothers
motifs
motion
motive
moto
motor
motown
mots
motte
mou
mouch
mouche
mouchoirs
mouettes
moulen
moulin
moullet
mouloud
moun
mouna
mound
mounir
mount
mountain
mountains
mourad
mouret
mouri
mourie
mourir
mouse
mousquetaires
mouss
moussa
moussier
moussy
moustache
moustapha
moute
mouth
mouton
moutons
moutout
moutre
mouvement
mouvements
mouvman
mouye
move
moves
movie
movielakay
movies
moving
mowoni
moya
moyen
moyens
mozart
mp
mplices
mr
mrs
ms
mspp
mss
msye
mti
mtv
mu
muccino
much
muchacha
muchachitas
muere
muero
muerta
muerte
muerto
muertos
muet
muhammad
mujer
mujercitas
mujeres
mujica
mula
mulcahy
mule
mulet
muller
mulligan
mulo
mulot
multe
mun
munch
mundi
mundo
mundos
mungui
munich
municipal
municipios
munoz
munro
munz
muppets
mur
muraille
murat
murder
murders
murdoch
murdock
murgui
muriel
murielle
murillo
muro
murphy
murray
murs
muse
museo
museum
music
musica
musical
musicale
musicien
musique
musketeers
musset
musso
mussolini
musson
must
mustapha
mutant
mutter
muy
muyl
mw
mwa
mwatye
mwaye
mwayen
mwayennaj
mwein
mwen
mwens
mx
my
mye
myers
myle
myriam
myrtle
myself
myste
myster
mysteries
mysterious
mystery
mystic
mystieux
mythe
mythes
mytho
myung
mœurs
n
na
nabil
nacer
naceri
nach
nacho
nacht
nacional
nada
nade
nadeau
nader
nadia
nadie
nadine
nadir
nadja
nae
naff
nag
nage
nagement
nager
nages
nageur
nah
nahon
nahum
nai
nailea
nains
nair
naissance
naje
najman
nakache
naked
nal
nam
name
named
names
namo
nan
nana
nanas
nancy
nando
nanm
nanni
nanny
nanou
nans
nant
nanterre
nantes
nanty
naomi
nap
naples
napole
napoleon
napoli
nara
naranjo
narate
naratris
narciso
narcisse
narco
narcos
nard
nardier
nario
narios
nariste
narnia
narrateur
narratrice
narva
nas
nasa
nash
nashville
nassau
nasser
nassim
nasyon
nasyonal
nasyonalis
nasyonalite
nasyonalman
nasyonzini
nat
natacha
natal
natale
natalia
natalie
natasha
nate
nateur
nathalie
nathan
nathaniel
nati
natif
nation
national
nationale
nationales
nations
natiralize
natire
native
nativity
natural
nature
naturel
naturelle
nau
nauer
naufrage
naut
nava
naval
navanm
navarre
navarrete
navarro
navas
navidad
navigate
navire
navy
nazareth
nazi
nbc
nchez
ncia
ncipe
ncis
ncov
nd
ndalo
ndalos
nde
ndez
ndiaye
ndida
ndido
ndira
ndiz
ndola
ndome
ndorff
ndote
ndstro
ne
nea
neal
near
nebbou
nebraska
neck
ned
nee
need
negatif
negocio
negosyasyon
negosye
negra
negrete
negri
negritid
negro
negros
negulesco
nei
neige
neiges
neighbor
neighbors
neil
neilan
neill
nel
nell
nella
nelly
nelson
nement
nements
nemes
nemo
nemoni
nemours
nen
nena
nene
nenpo
nent
neo
neptin
neptune
ner
nera
nerfs
neri
nero
nerval
nes
nesans
nesese
nesesite
nesle
ness
nestor
net
netflix
neto
nette
netwayaj
netwaye
network
neue
neuf
neuilly
neumann
neuve
neuvie
neuville
nevada
neve
never
nevers
neveu
neveux
neville
new
newell
newman
newport
news
newton
next
neyelande
nez
nfi
ng
ngel
ngela
ngeles
nguez
ngulo
nguyen
ni
nia
niagara
nial
nian
niang
nic
nica
niccol
nice
nicholas
nichols
nicholson
nicht
nick
nickelodeon
nicki
nicklaus
nicky
nicloux
nico
nicola
nicolai
nicolas
nicole
nicolson
nid
niddam
nie
niebla
niel
niels
nielsen
nier
niermans
nieto
nietzsche
nieur
nieves
nig
nigel
niger
night
nightmare
nights
nigme
nije
nijerya
nika
nike
niki
nikita
nikki
nikleye
nikola
nikolai
nikolaj
nil
nile
nilmontant
nils
nima
nimerik
nimewo
nimewotasyon
nimo
nin
nina
nine
niney
nini
ninja
nino
ninon
ninth
nio
nip
nique
niro
nis
nite
niurka
niveau
nivo
nix
nixon
nl
nman
nmantal
nme
nmi
nn
nner
no
noah
noam
nobe
nobel
noble
noblet
nobody
nobuhiro
noce
noces
noche
noches
nocturne
noe
noel
noemi
noguera
noir
noire
noires
noiret
noirs
noise
noix
nolan
noli
nolot
nom
nombre
nombres
nombril
nome
nominal
nominasyon
nomme
noms
non
nonb
nonce
none
nonm
nonmen
nono
nons
noo
nor
nora
norbert
norberto
nord
noriega
norma
normal
normale
norman
normand
normandie
normandy
normaux
norme
norris
nors
norte
north
northern
norton
norvind
nos
nosotras
nosotros
nostalgie
nostra
nostradamus
nosyon
not
notaire
notasyon
note
notes
nothing
notice
noticias
notorious
notre
notte
nou
noun
nounou
nouri
nouris
nourrice
nous
nouve
nouveau
nouveaute
nouveaux
nouvel
nouvelle
nouvelles
nouvelliste
nouvo
nouyo
nova
novak
novanm
nove
novel
novela
november
novembre
noveno
novia
novias
novio
novios
novo
novoa
now
nowhere
nox
noyce
noze
nozie
nrf
nrj
ns
nsel
nt
ntara
nte
nther
ntico
ntimo
nu
nuage
nuages
nubia
nue
nuestra
nuestro
nuestros
nueva
nuevo
nugent
nuit
nuits
nul
nulle
numb
number
numbers
nume
numero
nun
nunc
nunca
nuno
nur
nuremberg
nuria
nurse
nury
nus
nuuk
nuytten
nw
nwa
nwayo
nwe
nwit
nwou
nwouh
ny
nye
nyen
nyi
nyo
nœuds
o
oak
oasis
obadia
obama
obas
obe
obeyi
obin
obispo
obje
objectif
objektif
objet
obligasyon
obligatwa
oblige
oblije
obra
obrego
obrero
obscur
obscure
obse
observateur
obsesio
obsession
oca
ocampo
occase
occasion
occhi
occident
occidental
occupation
occupe
oce
ocean
ocelot
och
ochoa
oclc
ocs
octave
octavia
octavio
octavo
october
octobre
oculta
odd
ode
oder
odessa
odette
odeur
odile
odilia
odio
odiseo
odor
odore
odoutan
odyans
odyo
odysse
odyssey
oea
oelhoffen
of
ofelia
off
offenbach
offenstein
office
officer
official
officiel
officielle
officier
officiers
offset
oficial
oficio
ofisye
ofri
og
ogier
ogmantasyon
ogmante
ogo
ogou
ographie
ogre
ogres
oh
ohio
ohne
oil
ois
oise
oiseau
oiseaux
ojeda
ojo
ojos
ok
okap
okay
okazyon
oke
okenn
okipasyon
okipe
oklahoma
oko
oksidantal
oksije
oksilye
oktal
okto
oktob
ol
ola
olaf
olande
olcott
olcottthe
old
ole
oleg
olegario
olenpik
oles
olga
olias
oliv
oliva
olivares
olive
oliveira
oliver
olivera
olivia
olivier
ollivier
olmedo
olmo
olmos
ologie
olophone
olophones
olpc
olsen
olvera
olvidare
olvidarme
olvidarte
olvido
olye
olympe
olympia
olympiques
om
oma
omaj
omar
ombre
ombres
ome
omega
omerta
omnibus
omoseksye
oms
omwen
on
ona
onard
once
oncle
ondes
ondine
ondiviela
one
oneida
ones
ong
ongri
ongwa
oni
onidas
onide
onie
online
only
onn
onnable
onne
onondaga
onor
onore
ons
ont
ontario
onteniente
ontiveros
onu
onz
onze
op
opa
ope
open
opera
operacio
operasyon
operate
operation
opere
ophe
ophelia
ophile
ophu
opinion
opinyon
opium
opo
opold
opozan
opoze
opozisyon
oppenheimer
oppose
ops
opsyon
opuestos
or
ora
oracle
orage
orages
oral
orange
orate
orchestra
orchestre
orchide
order
ordinaire
ordinaires
ordinary
ordinateur
ordo
ordonnance
ordre
ordres
ordure
ore
oregon
oreille
oreilles
orellana
oren
oreste
orfe
org
organisation
organise
orge
orgueil
oriana
orie
orient
oriental
original
originale
originals
origine
origines
origins
orijin
orijinal
orijine
oriol
orion
orita
orizontal
orlando
orle
orleans
orly
ornelas
ornella
oro
oropeza
orozco
orpailleur
orphe
orpheline
orphelines
orphelins
orsay
orsini
orso
orson
ortega
ortf
orthographe
orti
ortiz
oryan
os
osborne
oscar
oseille
oseyan
osi
osinon
osiris
oskar
osorio
ospina
oss
ossang
osterrieth
ostrali
ostralyen
ostrosky
osuna
osvaldo
oswa
oswald
oswaldo
oswego
ot
ota
otage
otages
otaj
otar
otard
ote
otero
othello
othenin
other
others
otis
otmezguine
oto
otobis
otobiyografi
otomatik
otomatikman
otomobil
oton
otono
otorite
otorizasyon
otorize
otra
otrich
otrichyen
otro
otros
otsego
ottawa
otto
otzenberger
ou
ouaga
ouagadougou
ouattara
oubli
oublie
oubyen
oue
oued
ouedraogo
ouest
oui
oumar
oun
our
ouragan
ours
oury
ousmane
out
outer
outlaw
outre
outside
outsider
ouve
ouvert
ouverte
ouverts
ouverture
ouvrage
ouvri
ouvrier
ouvrye
ove
over
oviedo
ow
owen
owens
own
oxford
oye
oyuki
oz
ozalantou
ozetazini
ozileka
ozon
p
pa
pablo
pabst
pace
pacha
pacheco
pacho
pacific
pacifique
pacino
pack
paco
pacte
pacto
pactole
paddy
padilla
padre
padres
padro
pafe
pafwa
pagaille
page
pages
pagliero
pagnol
pah
pai
paid
paie
paige
paille
pain
pains
painting
pair
paire
pais
paisible
paix
paj
pajwe
pak
pake
pakistan
pakula
pal
palabra
palabras
palace
palacio
palacios
palais
palazuelos
palcy
pale
paleta
paleyfest
pallie
palm
palma
palmair
palman
palmante
palmare
palmas
palmashow
palmer
palmis
palo
paloma
palomo
palos
palud
pam
pame
pamela
pami
pan
panama
paname
panchita
pancho
panchot
panda
pandan
pandemi
pandillas
pandora
paniagua
panic
panier
panique
panisse
panne
panorama
panse
pansyon
pantalon
pantera
panthe
panther
panthers
pantin
pantoja
pants
panyo
paola
paoli
paolo
pap
papa
paparazzi
papas
pape
papel
paper
papers
papi
papier
papillon
papy
papye
paquet
paquita
par
para
parables
parade
paradi
paradis
paradise
paradiso
paragraf
paragwe
parai
parale
paralle
parame
parameter
parameters
paran
parano
paranoi
parapluie
parasites
paration
parazit
parc
parce
parcours
pardaillan
pardo
pardon
pardonnez
pare
paredes
pareja
parent
parenthe
parenthood
parents
parfait
parfaite
parfaits
parfois
parfum
pari
parientes
parigi
paris
pariser
parisien
parisienne
parisiennes
parisiens
parisot
parite
park
parker
parking
parkinson
parks
parla
parlant
parle
parlement
parlent
parler
parlez
parme
parmi
parole
paroles
paronnaud
parque
parra
parrain
parrains
parrish
pars
parsons
part
partage
parte
partement
parti
participation
particulie
particulier
partido
partie
parties
partir
partners
partout
parts
party
paru
pas
pasa
pasado
pasaj
pasaje
pasan
pascal
pascale
pascual
pase
pasif
pasifik
pasio
pasiones
paske
paso
pasolini
paspo
pasquale
pasquali
pasquel
pasquier
pass
passage
passageira
passageiro
passager
passagers
passages
passant
passante
passe
passent
passer
passeur
passing
passion
passionne
passions
past
paste
pasteur
pastor
pastora
pasyan
pasyant
pasye
pasyon
pat
pataje
patch
pate
patellie
patenarya
pater
path
pathe
pathogens
pati
patience
patient
patients
patikil
patikilye
patin
patio
patiraj
patisipan
patisipasyon
patisipe
patizan
patne
pato
patoje
patria
patrice
patricia
patricio
patrick
patrie
patrimwa
patriot
patriote
patriotes
patriyotik
patro
patron
patrona
patronne
patrouille
patsy
patte
patterson
pattes
patton
patty
patwa
patwo
patwon
paty
pau
paul
paula
paule
paulette
pauli
paulin
paulina
pauline
paulo
pauly
pause
pautonnier
pauvre
pauvres
pave
pavel
paviot
pavo
pawas
pawn
pawo
pawol
pawolye
pax
pay
paye
payer
payet
payi
payne
pays
paysage
paysan
paz
pcr
pdf
pdg
pe
peabody
peace
peach
pearce
pearl
pearson
peau
pecado
pecadora
pecados
peche
peck
pedestrian
pedi
pedraza
pedro
peebles
peer
peg
peggy
peindre
peine
peines
peinse
peintre
peintres
peinture
pela
pelayo
peli
peligro
peligrosas
pelle
pelletier
pellicer
pelo
peluche
peman
pen
penal
penalite
pendance
pendances
pendant
pendu
pene
penelope
penensil
penguern
peniche
penn
pennsilvani
penny
penobscot
pense
pensent
pension
pensionnat
pent
pente
penthouse
penti
pentire
peo
people
pep
pepa
pepe
pepita
pepito
peple
peplum
pepper
pequen
per
peralta
peraza
perce
perception
perceval
perche
percy
perd
perdida
perdidos
perdigo
perdition
perdo
perdona
perdone
perdre
perdrix
perdu
perdue
perdues
perdus
pere
perea
peregrina
peregrine
pereira
peretjatko
peretti
pereyra
perez
perfect
perfecta
perfectas
perfecto
performance
performances
perfume
pergament
perico
perkins
perla
perle
perles
permanent
permet
permis
permission
pernel
pero
perou
perpe
perrault
perreau
perret
perrier
perrin
perro
perron
perroni
perros
perrot
perrotta
perry
perse
perseguidos
person
persona
personal
personnage
personnages
personnaz
personne
personnel
personnelle
personnes
perspectives
peru
pervenche
pervier
peryo
peryodik
pes
peste
pete
peter
peters
petersen
peterson
petit
petite
petites
petits
petra
petri
petrie
petwo
petyonvil
peu
peuple
peur
peut
peuvent
peux
pewou
pewouvye
pewouvyen
peye
peyi
peyiba
peyizaj
peyizan
peyton
pez
peze
pg
ph
phan
phane
phanie
phant
phantom
phants
pharao
phare
pharmacien
phazing
phe
phelps
phi
phil
philadelphia
philadelphie
philharmonia
philibert
philip
philipe
philipp
philippe
philippine
philippon
philips
phillip
phillipe
phillips
philocte
philome
philosophie
philosophique
philosophy
phine
phoebe
phoenix
phone
photo
photographe
photos
php
phrase
phrases
phu
phyllis
physics
physique
pi
pia
piaf
pialat
pianiste
piano
piat
piblik
piblikasyon
piblisite
pibliye
pic
picard
picasso
picault
piccoli
piccolo
pichon
picier
pick
pickett
pickford
pico
picture
pictures
pide
pidgin
pidjin
pidoux
pie
piece
pieces
pied
piedad
piedra
pieds
piel
pier
pierce
piernas
piero
pierre
pierres
pierrette
pierric
pierrot
piers
pierson
pieter
pietrangeli
pietro
pifo
pig
pigalle
pigaut
pigeon
pigeons
pignol
pignon
pihi
pijon
pik
pike
pil
pila
pilar
pile
pilgrim
pilo
pilot
pilote
pilotes
piloto
pim
piman
pimentel
pimstein
pin
pina
pinal
pinar
pinaud
pine
pineau
pineda
pinedo
pines
pinheiro
pini
pinisyon
pink
pino
pinocchio
pinon
pinot
pinoteau
pins
pinson
pintan
pinter
pinto
pinzo
pio
pion
piotr
pip
pipe
piper
pipi
pippa
pique
piquer
piquet
pirandello
pirat
pirata
pirate
pirates
pire
pires
pirot
pis
pisans
piscine
pisier
pisin
pisode
pisodes
pissenlits
piste
pistoleros
pit
pita
pital
pitch
piti
pitie
pitit
pito
pitof
pitre
pitt
pittsburgh
pittura
piu
piublik
piye
pizarro
pizo
pizza
pj
pla
placard
place
placed
placer
places
placido
plage
plai
plain
plaine
plains
plaire
plaisir
plaisirs
plaj
plak
plan
plancher
planchon
plane
planet
planifikasyon
planifye
planque
plans
plant
plantasyon
plantations
plante
plantes
plas
plase
plastik
plat
plata
platane
platas
plateados
platfo
platin
platinum
plato
platon
platt
play
playa
played
player
players
playhouse
playing
plays
plaza
ple
pleasant
please
pledge
plein
pleine
pleins
plen
plenn
plessis
pleure
pleurer
pleurnichard
pleut
plezans
plezi
pli
plim
plirye
plis
plisye
plizye
plomb
plombier
plon
plonbye
plonje
plu
pluie
plume
plumes
plummer
plurye
plus
plusieurs
plutarco
pluto
pman
png
po
poblado
pobre
pobres
poca
pocahontas
pocas
poche
poches
pocholo
pocket
poco
podalyde
poder
podi
podium
poe
poelvoorde
poems
poetry
poids
poil
poing
point
pointe
points
poiraud
poire
poiret
poirier
poirot
poison
poisons
poisson
poissons
poitiers
poitou
poitrenaud
poivre
poke
poker
poko
pol
pola
polanco
polanski
polar
pole
poli
police
polices
polici
policier
poligny
polis
polish
polisse
polisye
polisyon
political
politics
politik
politique
politiques
politisyen
polizeiruf
polk
polka
pollack
pollard
pollet
polly
polo
polone
poltergay
polvo
poly
polydor
pom
pomme
pommes
pompadour
pompe
pompes
pon
ponce
ponch
poncho
pond
pondiche
ponge
ponpis
ponpye
pons
ponse
pont
ponte
pontecorvo
pony
pool
poole
poor
pop
pope
popilarite
popilasyon
popile
poppins
poppy
populaire
popular
population
poque
poques
por
pore
porel
porfirio
porque
porras
porres
port
porta
portage
portal
portant
porte
portent
porter
portes
porteur
porteurs
porteuse
portier
portillo
porto
portrait
portraits
portugal
porvenir
posada
pose
posede
posesyon
posib
posibilite
posiblite
positif
position
posse
possession
possibilite
possible
possibles
post
postal
postcards
poste
posthume
postila
postim
pot
potansye
pote
potes
poto
potomitan
potte
potter
pottier
pou
poubel
poucet
pouctal
poud
poudre
pouic
poukisa
poul
poulain
poule
poulet
poulpe
poumon
pound
poupaud
poupe
poupou
pour
pouret
pourpre
pourpres
pourquoi
pourri
poursuite
pous
pousan
pousantaj
pouse
pouser
pousse
poussie
poussin
pouswiv
pousye
poutan
poute
pouvoir
pouvwa
poux
pouzadoux
povrete
powdikte
powe
powell
power
powerbook
powers
powetik
poza
poze
pozisyon
pozitif
pozo
pp
praa
practice
prada
pradal
pradel
pradinas
prado
prague
prairie
prairies
pral
pran
prat
pratik
pratike
pratique
prats
pratt
pre
preacher
preche
preciado
precinct
precio
preciosa
predesese
prefas
prefe
preferans
prefere
prefieren
preind
preinmyei
preizan
prekosyon
premie
premier
premiere
premiers
preminger
premio
premye
prend
prendre
prendront
prends
prens
prense
prensip
prensipal
prensipalman
prentan
preparasyon
prepare
prepozisyon
prescott
prese
presedan
present
presents
president
presidente
presize
presizyon
presle
presley
preso
presque
press
presse
pressentiment
presses
pression
prestige
preston
presyon
pretasyon
prete
pretty
preuve
preuves
preux
prevansyon
prevwa
prey
prezan
prezans
prezantasyon
prezantate
prezantatris
prezante
preze
prezidan
prezidans
prezidansye
prezidant
prezide
pri
price
pride
prie
priest
prieto
prieur
prim
prima
primaire
primary
primavera
prime
primer
primera
primero
primo
primoryel
prince
princes
princesa
princess
princesse
princesses
princeton
principal
principale
principe
principes
principessa
print
printemps
pris
prisca
priscila
priscilla
prise
prisionera
prison
prisoner
prisoners
prisonnie
prisonnier
prisonniers
prisons
private
prive
privile
privilegio
prix
priye
priyorite
prize
prizon
prizonye
pro
proble
problem
problemas
problems
proce
processus
prochain
prochaine
prochaska
proche
proches
proctor
procuna
procureur
prodigios
prodigue
producciones
producteur
production
productions
productrice
prof
profesor
professeur
profession
professionnel
professionnels
professor
profil
profilage
profile
profondes
profs
program
programme
progre
prohibida
prohibido
prohibidos
proie
project
projection
projet
projets
prome
promenade
promesse
promis
promise
promised
promotion
proof
prophe
prophecy
prophet
propia
propos
proposition
propre
proprie
prosper
prostitue
prote
proteau
protection
protocole
proust
provence
provens
providence
province
proviseur
provost
prudence
prudencia
prune
prunes
psedonim
pseudonyme
psi
psy
psych
psycho
psyon
psyonis
pt
pte
pu
pub
public
publication
publications
publics
publie
publique
publiques
published
publisher
publishing
puce
puceau
pucelle
pueblo
puente
puerta
puertas
puerto
puf
puis
puissance
puissant
puits
pujol
pulgas
pulido
pull
pullicino
pullman
punch
punk
punta
punto
pupi
pupille
pur
pura
purcell
pure
purge
puro
purple
pursuit
puscule
put
putain
pute
putnam
putzulu
puzzle
pwa
pwal
pwason
pwen
pwent
pwentapit
pwezi
pwisansye
pwo
pwobabilite
pwobableman
pwoble
pwochen
pwodiksyon
pwodikte
pwodiktris
pwodui
pwodwi
pwofe
pwofese
pwofesyon
pwofesyone
pwofi
pwofil
pwofite
pwofon
pwofonde
pwogram
pwogramasyon
pwograme
pwogre
pwoje
pwojeksyon
pwokire
pwoklamasyon
pwoklame
pwolonje
pwome
pwomosyon
pwonon
pwononse
pwop
pwopagasyon
pwopaje
pwopo
pwopoze
pwopozisyon
pwopriyete
pwopryete
pwose
pwosedi
pwosesis
pwostitye
pwotagonis
pwoteje
pwoteksyon
pwotestan
pwoteyin
pwotoko
pwouve
pwove
pwovens
pwovize
pwovizwa
pwovoke
pwoz
px
pyanis
pyano
pye
pyebwa
pyeton
pygmalion
pyonye
pyramide
pyre
python
q
qu
quad
quadrille
quai
quais
qualite
quand
quando
quantum
quarantaine
quarante
quart
quartet
quartier
quartiers
quasimodo
quateur
quatre
quatrie
quattro
quatuor
quavo
que
quebec
queen
queens
quel
quelle
quelqu
quelque
quelques
quence
quences
quentin
querendo
querer
quererlo
quererte
querida
querido
ques
quest
question
questions
queta
queue
quevedo
queysanne
quez
quezada
qui
quichotte
quick
quie
quien
quiere
quiero
quiet
quijano
quilibre
quille
quilles
quin
quincean
quincy
quinn
quintana
quintanilla
quintero
quinto
quinton
quinzaine
quinze
quipe
quique
quiring
quiroga
quiroz
quisqueya
quita
quitte
quoi
quotidien
r
ra
raba
rabah
rabate
rabbi
rabbit
rabe
raben
rable
rables
rac
racaille
racconti
race
rachael
rache
rachel
rachelle
rachid
rachida
racine
racines
racing
raconte
rad
rada
radeau
radford
radin
radio
radiostars
radot
radu
radva
radyasyon
radyo
rae
raf
rafa
rafael
rafaela
rafaye
raffy
rafle
raga
ragazza
ragazzi
rage
rai
raid
rail
railles
railroad
raimbault
raimi
rain
rainbow
rainer
raire
raires
raisin
raising
raison
raisonnable
raisons
raja
rajes
rak
rakonte
raksyon
ral
ralanti
rald
ralda
raldine
rale
ralf
ralph
ralte
ram
rama
raman
ramanujan
rambal
rambaldi
rambert
rambo
rame
rameau
rami
ramirez
ramiro
ramis
ramo
ramon
ramona
ramos
rampling
ramsay
ramse
ramsey
ramzy
ran
ranc
rance
ranch
rancho
rand
randa
randal
randall
randevou
randolph
randonne
randonneurs
randy
ranfo
rang
range
rangel
ranger
rani
ranje
rankin
rankont
rankontre
rann
ranplasan
ranplase
ranpli
ranpo
ransom
rant
rantre
rants
ranve
ranvwaye
raouf
raoul
rap
rape
raphae
raphael
raphin
rapid
rapide
rapidman
rapie
raple
rapo
rapp
rappeneau
rapper
rapport
rapports
rapproche
rapt
raquel
raquin
rara
rard
rare
ras
rasanble
rasanbleman
rase
rasin
rasis
rasmane
raspoutine
rasse
rasta
rastro
rasyal
rasyon
rat
rate
ratifye
ration
rations
ratner
ratrice
rats
rature
ratures
rau
raud
raul
rault
raux
ravalec
rave
ravel
raven
ravin
raw
rawson
ray
rayito
raymond
raymonde
raymundo
raynal
raynald
rayo
rayon
raza
razade
razzia
rbara
rbd
rbol
rby
rca
rcega
rcel
rcn
rctv
rd
rdenas
rdoba
rdova
re
rea
read
reading
ready
reagan
real
reali
realidad
reality
really
reason
reau
rebati
rebbot
rebe
rebeca
rebecca
rebel
rebelde
rebelio
rebelle
rebelles
rebellion
rebelyon
rebours
rebujos
rec
recettes
reche
recherche
recherches
reckless
reckoning
reclusorio
reconnai
record
recordings
records
recours
recueil
red
reda
redaksyon
redakte
rede
redemption
redford
rediksyon
redisyon
redite
redler
redouble
redui
redwi
reed
reedisyon
reem
rees
reese
reeves
refaire
refe
referando
referans
refere
reference
refij
refijye
refize
reflechi
refleksyon
reflete
refo
refuge
refugio
refuse
regamey
regan
regard
regarde
regards
rege
reggae
reggiani
reggie
regilye
regina
reginald
region
regle
regleman
rego
regresa
regreso
regret
regrets
reguera
regular
rei
reich
reichenbach
reid
reign
reilly
reina
reinaldo
reine
reiner
reinert
reines
reinhard
reinhardt
reinhold
reis
reitman
rejim
rejiman
rejis
rejise
rejte
rejwenn
rejyon
rejyonal
reke
rekey
rekiran
reklamasyon
reklame
reko
rekone
rekonesans
rekonpans
rekonstriksyon
rekrite
rekte
relaciones
relasyon
related
relatif
relations
relative
relativman
rele
religieuse
religion
relijye
relijyon
reliques
remakab
remake
rembrandt
reme
remedios
remedioschurch
remember
rement
remigio
remington
remix
remo
remy
ren
rena
renaissance
renard
renata
renato
renaud
renault
rence
rences
rencontre
rencontres
rencor
rend
rendez
rendo
rendu
rene
renee
renesans
renger
renier
renmen
reno
renoh
renoir
renouvle
rent
renta
renteri
rentes
rentre
rents
renucci
renzo
reo
reparto
repas
repe
repentie
repete
repiblik
repibliken
repitasyon
repo
reponn
repons
report
reporter
reporters
repos
repoze
reprann
repre
represyon
reprezantan
reprezantasyon
reprezante
repris
reprise
repriz
reproche
repu
republic
repwodiksyon
requa
requena
requiem
requin
requins
rer
res
resan
resanblans
resansman
rescate
rescue
rese
research
resepsyon
resepsyonis
resepte
reserva
resevwa
resi
resident
resistance
resitan
reskonsab
resnais
resolve
resort
resorts
resous
respe
respect
respekte
respektivman
respiratwa
respire
responsab
responsabilite
responsable
responsablite
ressemblance
ressources
rest
restaurant
reste
restless
restoran
restorasyon
restrepo
restriksyon
resurrection
ret
reta
retabli
retana
rete
retes
retire
reto
retorno
retou
retounen
retour
retourne
retraite
retrato
retre
retrete
retrieved
retrouvailles
retrouve
rette
retue
return
returns
reuben
reunion
reusser
rev
revancha
revanche
reve
revele
revenant
revenants
revenge
revenir
reveran
revi
reviens
revient
review
revista
revize
revizyon
revni
revo
revoir
revoke
revolisyon
revolisyone
revolution
revolver
revue
rex
rey
reyaji
reyaksyon
reyalis
reyalite
reyalizasyon
reyalizate
reyalizatris
reyalize
reye
reyes
reyini
reyinyon
reyisi
reymond
reyna
reynaldo
reynaud
reynolds
reynoso
reyo
reyon
rez
reza
reze
rezidan
rezidans
rezilta
rezime
rezistan
rezistans
reziste
rezo
rezolisyon
rezon
rezoud
rfanas
rfi
rfloor
rg
rgen
rhapsody
rhe
rhin
rho
rhode
rhodes
rhonda
rhum
rhys
rhythm
ri
ria
riad
rian
rias
riau
ribeiro
ribes
ribowski
ric
rica
ricain
ricaine
ricains
ricardo
ricas
riccardo
ricci
rice
rich
richard
richards
richardson
riche
richebe
richelieu
richepin
richer
riches
richesse
richet
richie
richland
richmond
richter
rick
ricky
rico
ricorde
ricos
rida
riddim
ride
rideau
rider
riders
rides
ridge
ridicule
riding
ridley
rie
riel
riemann
rien
rience
riendas
rienne
riens
rier
ries
rieur
rieure
rieures
rieurs
rieuse
rieux
rif
riff
rififi
rifkin
riga
rigaud
rigaut
right
rightarrow
rights
rigo
rigoberto
rigolo
rigord
rik
rika
ril
riley
rim
rimbaud
rime
rin
rina
rinaldi
rinco
ring
ringer
ringo
rini
rio
riode
rios
riot
rip
riph
ripley
ripoll
ripoux
rique
riquelme
riques
rir
riral
rire
riri
ris
risa
rise
rises
risi
rising
risk
risque
risques
rissey
risson
rit
rita
ritable
ritage
ritchie
rite
ritie
ritier
ritiers
ritm
ritmik
riton
ritt
ritter
ritu
ritus
ritz
riva
rivadeneira
rivage
rival
rivales
rivas
rive
rivelles
river
rivera
rivero
rivers
riverside
rives
rivette
rivie
riviera
rivye
rix
riz
rme
rn
ro
roa
roach
road
roar
rob
robada
robade
robaina
robak
robbe
robbery
robbie
robbins
robe
robelin
robenson
robert
roberta
roberto
roberts
robertson
robespierre
robillard
robin
robineau
robinet
robinette
robinson
robledo
robles
robo
robot
robots
robson
roby
robyn
roc
roca
rocambole
rocca
rocco
roce
roch
rocha
rochambeau
rochant
roche
rochefort
rochefoucauld
rochelle
rocher
roches
rochester
rocheville
rochild
roci
rock
rocket
rocks
rockwell
rocky
rod
rodas
rode
rodier
rodin
rodney
rodolfo
rodolphe
rodri
rodrigo
rodrigue
rodrigues
rodriguez
roe
roel
roes
rogelio
roger
rogers
rogue
rohan
rohmer
roi
roinsard
rois
roja
rojas
rojo
roland
rolande
rolando
rold
rolda
role
rolf
roll
rolland
rollin
rolling
rolls
roma
romain
romaine
roman
romana
romance
romand
romane
romani
romano
romans
romantic
romantique
rome
romeo
romero
romina
romo
romuald
romy
ron
ronald
ronan
rond
ronda
ronde
rondo
ronds
rone
ronet
ronin
ronique
ronnie
ronny
ronssin
rony
roody
room
rooney
roos
roosevelt
roots
ropert
roport
roque
roquevert
rory
ros
rosa
rosado
rosalba
rosales
rosali
rosalie
rosalinda
rosanna
rosario
rosas
rosaura
roschdy
roscoe
rose
roselyne
rosemary
rosemond
rosemonde
rosen
rosenberg
rosenda
rosendo
rosenthal
roses
rosette
rosi
rosie
rosier
rosine
rosita
rosny
ross
rossana
rossellini
rossi
rossif
rossignol
rossini
rosso
rostand
rostro
rosy
rota
roth
rou
rouaud
rouch
roue
rouen
rouffio
rouge
rougerie
rouges
rouget
rough
roule
rouleau
rouletabille
roulez
roumain
round
rouquier
rourke
rousse
rousseau
roussel
rousselle
roussillon
roussin
route
routes
rouve
roux
rove
row
rowan
rowe
rowland
roxana
roxane
roxanne
roy
royal
royale
royaume
royce
royer
roze
rozier
rquez
rraga
rrez
rritu
rrrrrrr
rs
rsf
rss
rsula
rt
rte
rti
rts
ru
rua
rube
ruben
rubens
rubi
rubin
rubio
ruby
rude
rudi
rudnicki
rudolf
rudolph
rudy
rue
rueda
rues
ruffo
rufina
rufino
rufus
ruggia
rui
ruiz
rule
rules
rumba
rumeur
rumeurs
run
runaway
runner
running
runs
rupert
rupture
ruptures
rural
rusalem
rush
russ
russe
russell
russes
russia
russie
russo
rusty
ruta
ruth
rutherford
rutland
ruvalcaba
ruy
rwanda
ry
ryan
ryder
rye
ryl
ryu
rzano
s
sa
saa
saada
saavedra
sab
saba
sabana
sabatier
sabbagh
sabe
sabina
sabine
sable
sables
sabor
sabrina
saby
sac
sacerdote
sacha
sachs
sacre
sacred
sacrifice
sacrificio
sacrifie
sade
sadie
sae
safari
safe
safety
safi
safy
saga
sagamore
sagan
saganne
sage
sagesse
saget
saglio
sagnier
sagols
sagrario
sahara
sai
said
saint
sainte
saintes
saints
saire
sais
saison
saisons
sait
sak
sakho
saksofo
sal
sala
salah
salaire
salaires
salamanca
salas
salaud
salauds
salazar
salcedo
saldan
saldanha
saldi
sale
saleem
saleh
salem
salengro
salerno
sales
salfati
salgado
sali
salida
salif
salim
salina
salinas
salinger
salis
salle
salles
sally
salma
salnave
salo
salome
salomo
salomon
salon
salsa
salt
salto
salud
salue
salut
salvador
salvadori
salvaje
salvajes
salvatierra
salvation
salvatore
sam
samaniego
samantha
samb
samba
samdi
same
samedi
sami
samia
samir
samira
sammy
samo
samourai
sampson
samson
samuel
samuell
samy
san
sanaa
sanble
sanchez
sancti
sand
sandberg
sanders
sanderson
sandor
sandoval
sandra
sandrine
sandro
sands
sandwich
sandy
sanford
sang
sangare
sanger
sanglante
sangre
sangriento
sangue
sani
sanite
sanksyon
sanon
sanou
sans
sansib
sant
santa
santacruz
santamari
santamaria
santamarina
santana
santander
sante
santelli
santi
santiago
santiba
santiesteban
santilla
santillana
santim
santiman
santini
santo
santoni
santos
santral
santre
sanz
sao
sapajou
saphia
sapho
sapin
sar
sara
sarafian
sarah
sarajevo
saratoga
sardou
sargent
sargento
sarin
sarita
sarkozy
sarlat
sarmiento
sarr
sarraounia
sarraut
sars
sartre
sasha
saslavsky
sassy
sastre
sasyon
satan
satana
satelit
satin
satire
satisfe
satrapi
sattouf
saturday
saturnin
sau
saucedo
sauf
saul
saunders
saura
saurel
sauret
saut
saute
sauter
sautet
sauvage
sauvages
sauvajon
sauve
sauver
sauveur
savage
savait
saval
savane
savannah
savantes
savary
save
saved
savent
saville
savin
saving
savoie
savoir
savon
savwa
saw
sawadogo
sawyer
say
sayles
sbs
sc
scale
scali
scalp
scanda
scandal
scandale
scaphandre
scar
scara
scaras
scarlet
scarlett
scary
sce
scene
scenes
schaar
schaefer
schaffner
schatten
schatzky
schepisi
schickel
schiffman
schiller
schlesinger
schlo
schmid
schmidt
schmitt
schnabel
schneider
scho
schoeller
schoendoerffer
school
schpountz
schrader
schreiber
schro
schroeder
schroeter
schu
schubert
schulmann
schulmeister
schultz
schulz
schumacher
schumann
schwartz
schwarz
schweiger
schweitzer
schœlcher
sciamma
science
sciences
scientific
scientifique
scola
scolaire
scooby
scoop
score
scorpion
scorsese
scotland
scott
scotto
scoumoune
scout
scream
screen
script
scrupules
sdj
se
sea
seal
sean
search
searle
seas
season
seattle
seau
seb
seban
sebas
sebastia
sebastian
sebastien
sec
seche
seck
second
seconde
secondes
secondi
seconds
secours
secre
secret
secreta
secretaria
secretario
secretary
secretas
secreto
secretos
secrets
section
secuestro
secundaria
security
sediman
seduccio
see
seed
seeking
segal
seghers
segman
segment
segon
segond
segonde
segonn
segovia
segreto
seguin
segunda
segundo
segura
sehr
sei
seid
seigner
seigneur
seigneurs
seiler
sein
seine
seins
seis
seiter
sejou
sekans
sekirite
sekou
sekre
sekrete
seksye
seksyon
sekte
sel
sele
selebrasyon
selebre
selected
seleksyon
seleksyone
selena
self
selfie
selil
selile
sellers
selma
selon
selva
semaine
sembe
seme
semi
semine
semoun
sempre
sen
sena
senaris
senaryo
senate
senbo
senbolik
sence
senda
sendel
sendika
sendomeng
sendwo
sene
seneca
senegal
senegale
senghor
sengilye
senior
senk
senkant
senkye
sennett
senos
senoussi
senp
senpleman
sens
sense
sent
senta
sentaks
sentateur
sentation
sentatrice
sente
sentence
sentespri
senti
sentier
sentiers
sentiment
sentimental
sentimentale
sentimentales
sentiments
sentimientos
sentinelle
sento
senyen
senza
seo
seoane
seok
seoul
sepandan
separasyon
separate
separator
separe
sepsyon
sept
septanm
september
septembre
septie
sepu
ser
sera
serafi
serai
serait
seras
sere
seremoni
serena
sereyal
sereys
serge
sergeant
sergei
sergent
sergi
sergio
serguei
seri
serial
serie
series
serment
serna
seron
serpent
serra
serrano
serrault
serre
serreau
sert
serteur
servando
servante
serve
serveur
serveuse
service
services
servir
sery
serye
ses
sespe
sespoir
session
set
setadi
setbon
sete
seth
sette
setye
seuil
seul
seule
seulement
seuls
seung
seve
seven
seventh
severo
sevilla
seville
sewo
sex
sexe
sexes
sexo
sexos
sexual
sexuelle
sexy
seydou
seye
seymour
sezi
sezon
sezons
sfar
sgt
shades
shadow
shadows
shadyac
shaft
shake
shakespeare
shall
shane
shanghai
shankman
shannon
shapiro
shari
shark
sharon
sharp
sharpe
shart
shaun
shaw
shawn
shay
she
shea
sheen
sheila
shelby
sheldon
sheller
shelley
shelly
shelton
shen
shepard
shepherd
sheridan
sheriff
sherlock
sherman
sherry
sherwood
shi
shield
shift
shin
ship
shirley
shock
shoe
shoes
shoot
shooter
shooting
shop
shopping
shore
short
shot
should
show
shrek
shrew
shut
shyamalan
si
sia
siachoque
sib
sibe
sibi
sibo
sibra
sibstans
sica
sicard
sich
sick
sicot
sid
sida
side
sidence
sident
sidibe
sidiki
sidkoreye
sidney
sidonie
sidwe
sie
siege
siegel
siegfried
siegrid
siempre
siens
sierra
sies
siete
sieur
sifas
siffleur
sifrael
sight
siglo
sigmund
sign
signal
signature
signe
signes
signora
signoret
signs
sigo
sije
sijere
sik
sikilasyon
sikile
siklis
siklo
sikolo
sikoloji
sikonstans
sikse
siksese
siksesif
siksesyon
sikyat
sikyatrik
sil
sila
silans
silas
silence
silences
silencieux
silencio
silent
silhol
silk
silla
silva
silvana
silvano
silver
silvera
silvestre
silvia
silvio
sim
sima
simancas
simas
sime
simenon
simitye
simmons
simms
simo
simon
simona
simone
simoneau
simonet
simoni
simple
simplement
simplemente
simples
simpson
sims
simuladores
sin
sinaloa
sinapi
sinbad
since
sinclair
sind
sinema
sineyas
sing
singe
singer
singes
singh
singing
single
singles
singleton
sings
sinisterra
sinon
sins
siodmak
sipe
siperye
sipo
sipoze
sipre
siprime
sir
sirakiz
sire
siren
sirena
sireuil
sirgo
siri
sirilik
sirk
sirocco
sirs
sis
sispann
sispe
sissako
sisser
sissi
sissoko
sistance
sistances
siste
sistematik
sister
sisters
sistible
sit
sitade
site
sitio
sitiyasyon
sitiye
sito
sitou
sitruk
sitter
situation
situations
sitwaye
sitwayen
sitwe
sitweb
sitwon
sitye
sive
siveyans
sivik
sivil
sivilizasyon
siviv
sivivan
siwo
six
sixie
sixth
sixto
siy
siyal
siyati
siye
siyen
siyifi
siyifikasyon
siyifikatif
sizanka
sizye
sk
ske
sketch
sketches
ski
skidmore
skies
skin
skip
skolimowski
skrip
sky
skylab
slade
slater
slave
sleep
sleeping
sleepy
slevin
slim
slimane
sloan
sloane
slow
smai
smala
small
smallville
sman
smart
smash
smet
smile
smiley
smit
smith
smoke
smoking
sms
snake
snow
snub
snyder
so
sobe
sobero
sobre
soccer
soccerway
social
sociale
sociales
socie
sociedad
society
socorro
socrate
soda
soderbergh
sof
sofi
sofia
sofiane
soi
soie
soient
soif
soigne
soir
soire
sois
soit
sojcher
soko
sol
sola
solal
solamente
solange
solano
solar
solares
solda
soldat
soldati
soldats
soldier
soldiers
sole
soledad
soleil
soleils
soler
soli
solid
solidarite
solis
solisyon
solitaire
solitaires
solitario
solitude
solitudes
sollima
solo
solomon
solter
soltera
soltero
solution
solveig
sombra
sombras
sombre
some
somebody
someone
somerset
something
sometimes
somewhere
somme
sommeil
sommer
sommers
sommes
sommet
somos
son
sonaj
sonalite
sonate
sone
song
songe
songes
songs
sonia
sonja
sonje
sonn
sonne
sonnenfeld
sonny
sono
sonora
sonrisa
sons
sont
sonthonax
sony
sonya
soo
soon
sophia
sophie
sophocle
soprano
sor
sora
soral
soraya
sorbonne
sorcie
sorcier
sorciers
sordre
sorel
soria
soriano
sorriaux
sorry
sors
sort
sortant
sorte
sorti
sortie
sortile
sortilegio
sortir
sos
sosa
sosyal
sosyalis
sosyete
sosyo
sosyolo
sosyoloji
sot
sotha
soti
sotigui
soto
sotomayor
sotto
sou
souad
soualem
soubeyrand
souchon
souci
soucis
soudain
soudan
soudjian
souf
souffle
souffleur
soufle
soufri
souke
soul
soule
souleymane
soulier
soulouque
souls
soulye
soumanou
soume
sound
sounds
soundtrack
soup
soupc
soupe
souper
souprefekti
source
sources
sourire
souris
sourit
sous
sousa
south
southern
soutni
soutter
souvan
souvenir
souvenirs
souvent
souviens
souza
sovaj
sove
soviet
sovyetik
sow
soy
soyez
sp
spa
space
spaces
spade
spanic
spanish
sparks
sparrow
spartacus
spe
speakerine
spear
special
spectacle
spectateur
spectre
speed
speitzer
spektiv
spencer
sphilippe
sphinx
spi
spider
spielberg
spiero
spies
spiesser
spike
spin
spinosa
spirale
spirit
spirits
spiritus
spirou
split
sport
sporting
sports
sposa
spottiswoode
spring
springer
springs
spy
sqrt
squad
square
squeda
squez
squitieri
sr
sra
sras
ss
ssa
sse
sseldorf
ssica
st
sta
stacey
stacy
stade
stafford
stage
stagiaire
stahl
staline
stalingrad
stan
stand
standard
standing
stanford
stanislas
stanislav
stanley
stanton
star
stargate
stark
starr
starring
stars
start
starter
stas
state
states
station
statue
stavisky
stay
ste
steel
steele
steenfort
stefan
stefano
stein
steinberg
steiner
steinhoff
steketee
stella
stelli
stellio
stengel
steno
step
stephan
stephane
stephanie
stephen
stephenson
steps
sterling
stern
sternberg
steuben
steve
steven
stevens
stevenson
stevie
steward
stewart
sthers
sti
stica
stickell
still
stiller
sto
stock
stockholm
stockwell
stokes
stol
stolen
stoller
stone
stop
stor
stora
store
storia
stories
storm
story
straight
strange
stranger
strangers
strasbourg
strate
strauss
street
streets
stress
strickland
strickler
strike
strindberg
string
strip
strogoff
strong
structure
struggle
stu
stuart
stubbs
stuck
student
studies
studio
studios
study
sturges
sturm
style
styles
su
sua
suarez
sub
subiela
subject
sublime
subway
succe
such
suco
sucre
sud
sue
suen
suena
suerte
sueurs
suffit
suffolk
sugar
sugarcane
suggested
suicide
suicides
suif
suis
suissa
suisse
suit
suite
suits
suiv
suivant
suivante
suive
suivez
suivi
suivre
sujet
suk
sul
sullivan
sully
sultan
sultats
sum
sume
summer
summers
summit
sumner
sun
sunday
sung
sunny
sunrise
sunset
sunshine
supe
super
supercondriaque
supergirl
superiora
superman
supernatural
superstar
supple
supporter
supre
sur
surdoue
sure
suresnes
surfer
surname
surprise
surprises
surre
surrection
sursis
surtout
surveillance
surveillant
surveille
survie
survivor
sus
susan
susana
susanna
susannah
susanne
sushi
susie
suspect
suspectes
suspects
suspicion
sussex
sussfeld
susy
sutherland
sutter
sutton
suwa
suzanne
suze
suzie
suzy
sv
svg
swa
swahili
swaim
swamp
swan
swann
swanson
sware
swasant
sweeney
sweet
sweetheart
swen
swift
swimming
swing
swis
swisid
swiss
swit
switch
swiv
swivi
swoe
sword
sy
syal
syans
syantifik
syantifikman
syantis
sybille
sydney
sye
syedwa
sykes
sylla
sylvain
sylvestre
sylvia
sylviane
sylvie
sylvio
symphonie
syn
syndrome
syntaxe
syon
syracuse
syste
system
systems
szabo
szlo
szwarc
sœur
sœurs
t
ta
taank
tab
taba
tabak
tabes
table
tableau
tableaux
tabli
tablissement
tablo
tabou
tabuteau
tac
tacchella
tach
tache
tacher
tacones
tad
tadeo
tadi
tae
tag
tagbo
tage
tagle
tahar
tahiti
tai
taient
tail
taille
tailleur
tails
tain
taire
tais
tait
tak
take
taken
takes
taking
taks
taksi
tal
talan
talbot
tale
talent
talents
tales
talisma
talite
talk
talking
tall
talon
tam
tamahori
tamara
tamayo
tambie
tambour
tambours
taming
tammy
tamorphose
tan
tanbou
tandans
tande
tandem
tang
tanger
tango
tanguy
tania
tank
tankou
tann
tanner
tano
tanovic
tanp
tanpe
tanperati
tanpore
tans
tansyon
tant
tantativ
tante
tanto
tanya
tap
tape
tapia
tapsoba
tara
tarantino
tard
tarde
tardieu
tarek
targaryen
target
taro
tarso
tartuffe
tarzan
tas
tasma
tasse
tasyon
tat
tata
tate
tati
tatiana
tatie
tatort
tatoue
tats
tattoo
tau
taularde
taule
taupe
taureau
taurog
tavare
tavernier
taviani
tavira
taxi
taxis
taxista
tay
taye
tayer
tayilann
tayino
taylor
taymor
taywann
tbo
tch
tchad
tche
tchebycheff
tcheke
tchekhov
tchernia
te
tea
teacher
teachers
teague
team
tears
tease
teatro
teau
teaux
technique
techniques
technology
tective
tectives
ted
teddy
tedeschi
tee
teen
teenage
tegui
teid
teihe
teil
teinde
teinmp
tejada
teknik
teknisyen
teknoloji
teks
teksas
tel
telch
tele
telecolombia
telefe
telefo
telekominikasyon
telemundo
telenovela
telenovelas
telerman
teles
telesistema
televen
televisa
televisio
television
televisyon
televizyon
tell
telle
tellement
teller
telles
tellier
tello
tellus
tement
tempe
tempest
tempestad
template
templates
temple
templiers
tempo
temps
temptation
temwanyaj
temwayaj
temwen
ten
tend
tender
tendre
tendremos
tendres
tendresse
tene
tenerife
tengo
teni
teniente
tenis
tennant
tennessee
teno
tenorio
tension
tent
tentacio
tentaciones
tentation
tente
tenue
teo
teodoro
teori
tephritidae
tequila
ter
tera
terapi
teras
tercera
tere
teren
terence
teresa
teresita
teritoryal
teritwa
terme
terminal
terminator
termine
terminus
ternel
ternelle
ternite
terra
terrain
terre
terrence
terres
terrestres
terreur
terrible
terribles
territoire
terror
terry
tersbourg
tes
tesoro
tess
tessa
tessari
tesse
tessier
test
testaman
testament
teste
testot
testud
tete
teuf
teufel
teur
teworis
tex
texana
texas
text
texte
textes
teyat
teyoloji
teyore
teyori
teyorik
teyssier
tez
tf
tgv
th
tha
thaddeus
thai
than
thank
that
thatcher
the
theater
theatre
their
thelma
them
then
theo
theodor
theodore
theory
therapy
there
theremin
theresa
these
theta
they
thiam
thibaud
thibault
thibaut
thie
thief
thiele
thier
thierno
thierry
thieves
thin
thing
things
think
third
thirteen
thirty
this
thode
thom
thomas
thomassin
thompson
thomson
thor
thorne
thornton
thorpe
those
thought
thousand
three
thriller
thrones
through
thumb
thumbnail
thunder
thune
thursday
thybaud
ti
tia
tiago
tiare
tib
tibe
tibebe
tiberio
tibet
tibiwon
tic
tica
ticket
ticky
tico
tie
tiempo
tiempos
tien
tiene
tienne
tiennes
tiens
tient
tier
tierra
tierras
tiers
ties
tif
tiff
tiffany
tifi
tifika
tifye
tigal
tige
tiger
tigo
tigre
tigwav
tij
tijeras
tijuana
tik
tikal
tiki
til
till
tillie
tillman
tilly
tim
tima
time
timent
times
timid
timide
timo
timothe
timothy
timoun
timsit
tin
tina
tine
tinieblas
tinis
tinite
tinizi
tinizyen
tino
tinoco
tintin
tiny
tio
tion
tions
tioulong
tip
tipik
tipikman
tique
tiques
tir
tirard
tire
tirez
tiro
tis
tisi
tisman
tisse
tissier
tissot
tit
tita
titanic
titans
tite
titi
titia
tition
title
tito
titre
tits
titus
tman
tnp
to
tobacco
tobago
tobi
tobias
tobin
toby
toc
tod
toda
todas
today
todd
todeschini
todo
todos
toe
together
tognazzi
togo
togole
tograf
toi
toile
toiles
toit
toits
tokyo
told
tole
toledano
toledo
tolere
tolstoi
tolstoy
tom
toma
tomas
tomasa
tomb
tombe
tombeau
tomber
tome
tommasi
tommy
tomorrow
ton
tonbe
tonetti
toni
tonie
tonight
tonino
tonio
tonnerre
tontas
tonto
tonton
tontons
tony
too
top
topoloji
toprens
toque
torbellino
toribio
toriken
toriko
tormenta
tornade
tornatore
toro
toronto
torre
torrealba
torres
torrini
torsten
tort
tortue
tosca
toscano
tota
total
totale
totalite
totalman
toto
tou
toubib
toublanc
touch
touche
touched
touchez
toudenkou
toujou
toujours
toulouse
toulouz
toune
tounen
tounwa
toupatou
toupre
tour
tourbillon
toure
touris
touristik
tourjansky
tourmente
tournage
tourne
tourneur
tournier
tours
tous
touse
tousen
toussaint
tout
toute
toutes
touth
toutotou
touye
tovar
tower
town
townsend
toxic
toy
toya
toys
tra
tracas
trace
traces
tracey
tractions
tracy
trad
trade
tradiksyon
tradikte
tradisyon
tradisyone
tradition
traducteurs
traduction
tradui
traduit
tradwi
traffic
trafic
trafik
trafikan
trage
tragedia
tragedy
tragique
trahison
trahisons
trai
traicio
trail
trailer
trailera
train
trait
traite
traitement
trajedi
traka
tramont
tramp
trampa
trampas
tran
tranbleman
tranblemannte
tranche
tranches
trange
tranger
trangers
tranges
trangleur
tranquille
tranquilles
tranquillite
trans
transfe
transfere
transfert
transferts
transfo
transformers
transit
transkripsyon
translated
translation
transme
transmisyon
transpo
transporteur
trant
tranzisyon
traore
trap
trape
traque
tras
trase
traum
trauma
travail
travaille
travaux
travay
travaye
trave
traveling
traven
travers
traverse
travesti
traviesa
travis
trayi
tre
treasure
treat
trece
tree
treinte
treize
treizie
trejo
trek
tremblay
tren
trent
trente
trepadora
tres
tresse
trete
tretman
trevin
trevor
trevorrow
trey
trezo
tri
tria
trial
triangle
tribeca
tribi
tribinal
triboit
tribu
tribulations
tribunal
tricheurs
trick
trie
trier
triet
trilogie
trilogy
triloji
trimble
trindad
trini
trinidad
trinite
trintignant
trio
triomphe
trip
triple
triporteur
triptyque
trise
trish
tristan
triste
tristesse
triumph
triunfo
trividic
triyang
tro
troie
trois
troisie
trojan
trole
trompe
trompette
tron
trop
tropez
tropical
tropiques
troppo
trotignon
trou
trouble
troubles
trouillot
troupe
trousse
trousses
trouve
trouver
troy
truand
truands
truc
truck
trudeau
trudy
true
trueba
truffaut
trujillo
truman
trump
trust
truth
try
ts
tsar
tu
tua
tual
tuche
tuck
tucker
tude
tudes
tudiant
tudiante
tudor
tue
tuel
tuer
tuerto
tueur
tueurs
tueuse
tuiles
tulio
tulipe
tullio
tumba
tunas
tung
tunnel
turbulences
turc
turckheim
ture
turf
turkey
turn
turner
turno
turpin
turteltaub
turtles
tus
tuteur
tutti
tuttle
tuya
tuyo
tv
tving
tvn
twa
twal
twale
twazye
twede
tweedledum
tweedy
twelve
twenty
twice
twilight
twin
twins
twist
twisted
two
twonpe
twopikal
twou
twoub
twoup
twouve
ty
tye
tykwer
tyler
type
types
tyran
tyrone
tyson
u
uchan
uel
ugarte
ugly
ugo
ui
uisye
uit
uk
ulein
ulises
ulloa
ulrich
ultima
ultimate
ultimatum
ultime
ultimo
ultra
ulysse
um
uma
uman
umberto
un
una
uncle
und
under
undercover
underground
underwood
une
unesco
uni
unicef
unicorn
unifrance
unilingue
union
unique
uniquement
unis
unit
unite
united
univers
universal
universe
universel
universidad
universitaire
universitaires
universite
university
univisio
univision
unknown
uno
uns
unter
until
uomini
uomo
uon
up
upload
upon
upright
uranus
urbain
urban
urbina
urd
urdaneta
uregui
urgence
urgences
uriarte
uribe
uriel
url
urquiza
urrutia
ursula
ursule
us
usa
usage
usai
use
used
user
usher
usine
using
usl
ussir
usted
ustinov
usual
usurpadora
ut
utah
utilisation
utilise
uwe
uzan
uławski
v
va
vacaciones
vacances
vacation
vache
vaches
vaci
vade
vadim
vadrouille
vag
vagabon
vagabond
vagabundo
vagina
vague
vagues
vaillant
vais
vajda
vajen
vakans
vaksen
val
valadez
valcourt
valcroze
valde
valderrama
valdez
valdivia
valdman
vale
valence
valencia
valente
valenti
valentin
valentina
valentine
valentini
valentino
valenzuela
valera
valeria
valerie
valerio
valero
valet
valette
valeur
valide
validite
valiente
valientes
valise
valjean
valladares
valladolid
valle
vallejo
valley
valleycamajuani
valli
vallier
valmont
valmy
valo
valois
valos
valparaiso
valse
valses
valseuses
valtierra
value
values
valverde
vamos
vampire
vampires
vampiro
van
vance
vancouver
vandal
vande
vander
vandredi
vanel
vanesa
vanessa
vania
vanier
vanille
vanina
vanite
vann
vannier
vansyon
vant
vanzina
vape
vaquero
var
varante
varda
varela
varennes
vargas
variations
varie
various
varoni
varyab
varyasyon
varye
varyete
vas
vasco
vasconcelos
vaselina
vasion
vasions
vasseur
vassili
vastey
vasyon
vate
vatel
vattier
vatwa
vaucorbeil
vaudeville
vaudou
vaugand
vaughan
vaughn
vaut
vautier
vc
vda
ve
veber
vecchiali
veces
vecina
vecindad
vecinos
vecœur
vedette
vedettes
vedrine
vega
vegas
veil
veille
veilleur
veillez
veillon
veinards
vekte
vel
vela
velarde
velasco
velle
velo
veloppement
velours
velvet
velyne
vement
ven
venait
venault
vencer
vendanges
vendaval
vendetta
vendeur
vendeuse
vendo
vendre
vendredi
venegas
veneno
venes
venet
venevisio
venevision
venezolana
venezuela
venezwela
venezwelye
venezwelyen
venezyela
venezyelyen
vengador
vengadora
venganza
vengeance
veni
venice
venin
venir
venise
venn
vent
ventail
vente
vento
ventre
vents
ventura
ventye
venu
venus
ver
vera
verac
veracruz
verano
verb
verbe
verdad
verdadera
verdaderos
verde
verdi
verdict
verdier
verduzco
vergara
vergez
vergne
vergu
verhaeghe
verheyde
verhoeven
verifye
verine
verite
verlag
verlaine
vermillard
vermont
vernay
verne
verner
vernet
verneuil
verney
vernier
vernon
vernoux
vero
verona
veronica
veronika
verre
verrier
vers
versa
versailles
versini
version
verso
versus
vert
verte
vertical
vertige
vertiges
verts
vertu
vervoort
very
ves
veso
vete
veterine
veuf
veulent
veur
veut
veuve
veuves
veux
veye
vez
vi
via
viager
viaggio
viaje
vial
vian
vianey
vianney
viant
viard
vic
vicario
vicas
vice
vicente
vichy
vicki
vicky
vicomte
victim
victime
victims
victoire
victor
victoria
victorien
victorinos
victorio
victory
vid
vida
vidal
vidas
vide
videau
video
videyo
videyoklip
vidocq
vidor
vie
vieil
vieille
vieilles
vieira
vieja
viejo
viendra
viene
vienne
viens
vient
viento
vierge
vierges
viernes
vies
vietnam
vieux
view
vieyra
vif
vigan
vignal
vigne
vigneron
vignette
vignola
vigo
vih
vii
viii
viing
viiny
vijil
vijini
viking
vikings
viktim
viktor
viktwa
vil
vila
vilain
vilaine
vilains
vilaire
vilaj
vilar
vilbrun
villa
villace
village
villain
villalba
villalobos
villalonga
villamizar
villanueva
villar
villard
villareal
villarreal
villasen
villaverde
villavicencio
ville
villegas
villemin
villeneuve
villeret
villers
villes
villette
villiers
villon
vilma
vin
vinales
vince
vincennes
vincent
vincente
vincenzo
vinci
vingt
vingts
vini
vinn
vinnie
vino
vint
viol
viola
viole
violence
violencia
violent
violet
violeta
violetta
violette
violettes
violin
violon
violons
vip
vipe
viper
virage
viral
vire
virgen
virgil
virgile
virgilio
virgin
virginia
virginie
viris
virna
virus
virzi
vis
visa
visage
visages
visconti
vise
vision
visions
visit
visita
visite
visiteur
visiteurs
vista
vit
vita
vital
vitaly
vitam
vite
vitesse
vito
vitold
vittoria
vittorio
viuda
viv
viva
vivan
vivanco
vivant
vivante
vivantes
vivants
vivas
vive
vivement
vivent
vivere
vives
vivian
viviana
viviane
vivica
vivir
vivo
vivre
viza
vize
vizib
vizigot
vizit
vizite
vizye
vizyon
vladimir
vle
vleid
vlope
vman
vo
vocabulaire
vocation
voce
vocoret
vodou
vogel
vogue
voice
voices
voici
voie
voila
voile
voir
vois
voisin
voisine
voisins
voit
voiture
voix
vokabile
vol
volant
volante
volants
volca
volcan
vole
volet
volets
voleur
voleurs
voleuse
volim
volker
volo
volonte
volpone
volson
volta
voltaire
volte
voltea
volume
volumes
volution
volver
vom
vomisman
von
vont
voodoo
vor
vora
vos
voss
vost
vot
vote
votre
voudrais
voudrez
vouivre
voulait
voulez
vouloir
voulu
vous
voy
voyage
voyager
voyages
voyageur
voyageurs
voyante
voye
voyelles
voyez
voyou
voyous
voz
vp
vrai
vraie
vre
vreman
vres
vrier
vs
vtv
vu
vue
vuelo
vuelta
vuelve
vues
vuillermoz
vuol
vwa
vwayaj
vwayaje
vwaye
vwayou
vwazen
vwazin
vwazinaj
vy
vyann
vye
vyetnam
vyo
vyolan
vyolans
vyolasyon
vyole
vyolonis
vyou
w
wa
wachinto
wachowski
wade
wagner
wagon
wah
wahl
wainwright
wait
waiting
wajda
wajeman
wake
wald
waldemar
waldo
walerian
wales
walk
walker
walking
wall
wallace
waller
walls
wally
walsh
walt
walter
walters
walthall
walther
walton
waltz
wan
wanament
wanda
wang
want
wanted
wap
war
ward
warden
wargnier
warner
warning
warren
warrior
warriors
wars
warwick
was
washburn
washington
watch
watching
water
waterhouse
waterloo
waters
watkins
watson
watteaux
watts
waugh
wave
waves
way
wayal
wayans
wayne
wayo
ways
we
weapon
weather
weaver
web
webb
webber
weber
webseri
website
webster
wedding
week
weekend
weeks
wei
weidenmann
weil
weill
weinberg
weir
weiss
weitz
welcome
well
welles
wellington
wellman
wells
welsh
welt
welter
welz
wendell
wenders
wendy
wenn
wens
were
werewolf
wermus
werner
wes
wesley
west
westchester
western
weston
wet
wexler
whale
what
wheel
wheeler
whelan
when
where
which
while
whiskey
whisperer
whitaker
white
whitmore
whitney
whittaker
who
whole
why
wi
wick
wicked
wicker
wide
widow
widows
width
wie
wiener
wife
wiki
wikidata
wikilink
wikimedia
wikimedya
wikipe
wikipedia
wikipedya
wilbur
wilcox
wild
wilde
wilder
wiley
wilfred
wilfried
wilhelm
wilkes
wilkins
will
willard
willem
william
williams
williamson
willie
willis
willy
wilmer
wilson
wim
wimmer
win
wincer
winch
winchester
winckler
wind
windham
winding
window
windsor
wine
wing
winger
wings
winkle
winkler
winner
winnetou
winnie
winning
winocour
wins
winslow
winston
winter
winterbottom
winters
winthrop
wir
wirth
wisconsin
wise
wish
witch
with
within
without
witness
wives
wladimir
wo
woe
wol
wolf
wolfe
wolff
wolfgang
wolfman
wolverine
woma
woman
womansye
womantik
women
won
wonder
wonderful
wonderland
wong
wonm
wonn
wont
woo
wood
woodard
woods
woodside
woodward
woody
wook
woolf
word
words
woreth
work
working
workingirls
works
world
worlds
worms
worth
wote
wou
wouj
would
woule
woumani
wout
wren
wright
writer
writing
written
wrong
wu
wuhan
wulschleger
www
wyatt
wyclef
wyler
wyn
wyoming
x
xabi
xavier
xi
xico
xiii
ximena
ximo
xitos
xiv
xix
xixe
xo
xv
xvi
xviie
xviii
xviiie
xxe
xxl
xy
y
ya
yacine
yadir
yadira
yago
yame
yamile
yamina
yan
yang
yanick
yanis
yankee
yann
yanne
yannick
yao
yaounde
yara
yard
yasmina
yasmine
yates
yaya
ye
year
years
yele
yellow
yellowman
yen
yeo
yeon
yeou
yerachi
yes
yesenia
yesterday
yeux
yheid
yi
yiddish
yman
yo
yoann
yoda
yohan
yolanda
yolande
yon
yong
yoni
yonn
yoo
yoon
york
you
youn
young
younga
younger
your
youri
yours
yourself
youssef
youssouf
youth
youtube
yoyo
yton
yu
yul
yuri
yvan
yves
yvette
yvon
yvonne
z
za
zabaleta
zabou
zacari
zacatillo
zaccai
zach
zacharie
zachary
zack
zadi
zafe
zai
zaide
zak
zakia
zakka
zaldi
zam
zambrano
zame
zamora
zamore
zampa
zan
zane
zanmi
zanne
zannimo
zanse
zantiy
zanzibar
zapata
zar
zaragoza
zard
zardi
zaro
zauberman
zavala
zaza
zazie
zbo
ze
zeffirelli
zeitoun
zeke
zekle
zelann
zelda
zelle
zeller
zem
zemeckis
zemmouri
zen
zend
zendejas
zepeda
zero
zeta
zetwal
zeus
zewo
zh
zha
zhang
zi
ziad
zidi
zig
zigoto
zilbermann
zile
zim
zimmer
zin
zina
zinedine
zingg
zini
zinnemann
zlotowski
zo
zodiaque
zoe
zoey
zoila
zola
zoltan
zombi
zombie
zona
zonbi
zonca
zone
zongo
zoo
zoom
zora
zoraida
zoranj
zorrilla
zorro
zouk
zouti
zouzou
zquez
zu
zucca
zucker
zulawski
zulema
zuleta
zully
zulma
zulu
zum
zun
zur
zurita
zurlini
zuydcoote
zwazo
zwei
zwick
zy
zye
zylberstein
{
|
}
~
¡
£
§
¨
ª
«
­
°
±
²
´
·
º
»
½
¿
×
œdipe
œil
œuf
œufs
œuvre
œuvres
ǃ
ɑ
ɛ
ˈ
ː
˙
̀
́
̂
̃
̄
̆
̇
̈
̊
̌
̓
̔
̛
̠
̣
̧
̨
͂
α
β
δ
ε
ζ
η
θ
ι
λ
μ
ν
ο
π
ς
φ
ψ
ω
в
е
з
и
м
н
с
у
ч
ь
я
ָ
ה
ح
ा
ர
ா
ு
்
ก
ช
ท
น
ม
ร
ส
ั
ิ
ี
ื
ุ
ู
็
่
้
์
​
‎
–
—
‘
’
“
”
„
†
•
…
‭
‰
″
€
№
→
↔
↷
∀
∃
∈
−
∧
≤
⊂
③
④
⑦
─
█
⺀
⺄
⺆
⺈
⺊
⺌
⺕
⺝
⺸
⺼
⿰
⿱
⿲
⿳
⿴
⿵
⿶
⿷
⿸
⿹
⿺
⿻
〢
か
の
ら
゙
ウ
コ
ハ
ユ
ル
ン
ー
㇁
㇂
㇄
㇇
㇈
㇉
㇓
㐁
㐄
㐅
㐌
㐫
㐬
㐭
㐮
㐱
㑒
㒵
㒸
㒼
㓁
㓞
㔾
㕛
㕣
㖾
㘝
㚅
㚇
㚔
㚘
㝉
㝡
㝴
㝵
㞋
㞢
㞷
㠩
㠭
㠯
㡀
㡭
㡿
㢲
㢴
㣇
㣺
㥯
㪅
㫄
㫐
㫒
㫺
㬅
㬎
㬥
㬰
㲋
㳄
㷠
㸒
㸚
㸦
㼌
㼲
㽞
㿟
䀠
䂞
䍃
䏍
䒑
䖍
䖒
䖝
䖵
䙴
䚻
䜌
䝿
䡛
䧹
䪞
一
丁
丂
七
丄
丅
丆
万
丈
三
上
下
丌
不
与
丏
丐
丑
专
且
丕
世
丘
丙
业
东
丞
丢
丣
两
严
並
丨
丩
个
丫
丬
中
丮
丰
丱
串
丵
丶
丷
丸
丹
为
主
丽
丿
乀
乂
乃
久
乆
乇
么
义
之
乌
乍
乎
乏
乐
乑
乔
乖
乗
乘
乙
乚
乛
乜
九
乞
也
习
乡
乳
乾
亀
亅
了
亇
予
争
事
二
亍
于
亏
亐
云
互
亓
五
井
亘
亚
亜
亞
亟
亠
亡
亢
交
亥
亦
产
亨
亩
享
京
亭
亮
亯
亰
亲
亳
亶
亷
人
亻
亼
亾
仁
今
介
仌
从
仐
仑
仒
仓
仕
他
付
仝
代
令
以
任
企
伊
伏
伐
休
会
伯
但
位
何
佘
余
作
佥
使
來
侈
侌
侖
侯
侵
便
保
俞
信
修
倉
倍
候
倠
備
僉
僕
儿
兀
允
兂
元
兄
充
兆
兇
先
光
兊
克
兌
免
兑
兒
兓
兔
党
兜
兟
入
全
兩
兪
八
公
六
兮
兰
共
关
兵
其
具
典
兹
兼
冀
冂
冃
冄
内
冈
冉
冊
冋
册
再
冎
冏
冐
冒
冓
冖
冗
冘
军
农
冝
冡
冥
冫
冬
冷
几
凡
凢
凵
凶
凷
凸
凹
出
函
凾
刀
刁
刂
刃
刄
刅
分
切
刍
刑
刕
刖
列
刘
则
初
別
利
别
到
制
刺
則
削
剌
前
剡
剽
劉
力
功
加
劦
助
劫
劳
劵
勃
勇
勉
勒
動
務
勞
勤
勹
勺
勻
勾
勿
匀
匂
包
匆
匈
匊
匋
匍
匕
化
北
匚
匝
匡
匪
匱
匸
匹
区
医
匽
匿
區
十
卂
千
卄
卅
卆
升
午
卉
半
卌
华
卑
卒
卓
单
卖
南
卜
卝
卞
占
卡
卢
卣
卤
卦
卩
卪
卬
卯
印
危
即
却
卵
卷
卸
卻
厂
厃
厄
历
厈
厉
厌
厓
厘
厚
原
厤
厥
厨
厭
厲
厶
厷
厸
去
厼
厽
叀
参
參
叅
又
叉
及
友
双
反
叐
发
叒
叔
叕
取
受
叚
叜
叟
口
古
句
另
叩
只
召
可
台
叱
史
右
叵
号
司
叹
吂
各
吅
合
吉
吊
吋
同
名
后
吏
向
吕
君
吝
吞
否
含
启
吳
吴
吹
吾
呂
呆
呈
告
员
呙
周
命
咅
和
咎
咠
咢
咨
咸
咼
哀
品
哉
員
哥
哲
唐
商
啇
問
啚
啬
啻
善
喜
喬
單
喿
嗇
噩
嚴
囊
囗
囘
囙
囚
四
回
囟
因
囧
囬
困
囱
囷
固
国
圂
圅
國
圍
圓
土
圡
圣
圥
在
圭
地
圶
圼
坐
坒
坚
坴
垂
垔
垚
埀
埋
城
埶
執
基
堂
堅
堆
堇
堯
塞
墨
壘
士
壬
壯
声
壳
壴
壹
壺
壽
夂
处
夅
夆
备
夊
夋
夌
复
夏
夒
夕
外
夗
夘
多
夜
夢
大
夨
天
太
夫
夬
夭
央
失
夲
头
夷
夸
夹
夻
夾
奂
奄
奇
奈
奉
奎
奏
奐
契
奓
奔
奚
奞
奠
奢
奥
奭
女
奴
奻
好
如
妄
妙
妟
妥
妻
妾
姑
姓
委
姜
威
娄
婁
婴
嬰
嬴
子
孑
孔
孕
孖
字
存
孚
孛
孝
孟
季
孤
学
孫
孱
學
宀
宁
宂
它
宅
宇
守
安
宋
完
宏
宓
宗
官
定
宛
宜
宝
客
宣
室
宮
宰
害
家
容
宾
宿
寄
寅
密
富
寒
察
寧
審
寫
寬
寮
寸
对
寺
寻
寽
対
寿
封
尃
射
将
將
專
尉
尊
尋
尌
對
小
少
尒
尓
尔
尖
尗
尚
尞
尢
尣
尤
尧
尨
尭
就
尸
尹
尺
尻
尼
尽
尾
尿
局
居
屈
屋
屎
屏
屑
展
屖
屚
属
屠
屡
屬
屮
屯
屰
山
屵
屾
岁
岂
岑
岡
岩
岳
岸
峯
島
崇
崑
崔
崖
崙
崩
嵬
嶲
巂
巛
川
州
巟
巠
巢
巤
工
左
巧
巨
巩
巫
差
己
已
巳
巴
巷
巸
巽
巾
巿
帀
市
布
希
帚
帛
帝
带
師
席
帶
常
干
平
年
幵
并
幷
幸
幺
幻
幼
幽
幾
广
広
庄
床
底
店
庚
府
度
庫
庭
庶
康
庸
廉
廌
廛
廣
廩
廴
延
廷
建
廾
廿
开
弁
弃
弄
弇
弋
式
弓
弔
引
弗
弘
弜
弟
张
弥
弦
弱
張
強
强
彊
彌
彎
彐
彑
当
彔
录
彖
彗
彡
形
彥
彦
彧
彭
彳
役
彼
往
待
律
徒
得
徙
從
復
微
徵
心
忄
必
忌
忍
志
忝
忠
忩
快
念
忽
忿
思
怠
急
怱
恆
恒
恩
恭
息
悉
患
悤
悲
悶
惠
惡
惢
愁
愈
意
愛
感
慈
慧
慮
憂
憲
應
戀
戈
戉
戊
戋
戌
戍
戎
成
我
戒
戔
或
戚
戠
戢
截
戲
戶
户
戹
戼
戾
房
所
扁
扇
手
扌
才
打
托
执
承
折
拉
拜
拿
掌
推
提
摩
支
攴
攵
收
攸
改
放
政
敄
敏
敕
敖
敗
敝
敞
敢
散
敦
敫
敬
数
敷
數
斂
文
斉
斊
斗
斤
斥
斩
斬
斯
新
方
於
施
斿
旁
旋
族
无
旡
既
旣
日
旦
旧
旨
早
旬
旱
旲
时
旾
昆
昇
昌
昍
明
昏
易
昔
昗
昜
星
春
昬
是
昱
昴
昷
時
晃
晋
晏
普
景
晶
智
暑
暴
曇
曩
曰
曲
曳
更
曷
書
曹
曼
曾
替
最
朁
會
月
有
朋
服
朔
朕
朗
望
朝
木
朩
未
末
本
札
朮
术
朱
朵
朶
朿
杀
杏
杜
束
条
来
東
杲
杳
松
析
林
枚
果
枝
枲
枼
某
柔
查
柬
柰
柴
栗
桀
桑
桼
梁
條
梟
梨
棘
棠
棥
森
楚
業
楽
榮
樂
樊
欠
次
欣
欮
欲
欶
欽
款
歆
歇
歛
止
正
此
步
武
歨
歪
歮
歯
歰
歲
歴
歷
歸
歹
歺
死
殳
段
殷
殸
殹
殺
殻
殿
毋
毌
母
每
毒
比
毕
毚
毛
毳
氏
氐
民
气
氣
水
氵
氶
氷
永
氺
氾
求
汝
汞
江
沃
沓
沙
沝
泉
法
波
泣
泥
泰
洛
洪
活
派
流
浦
浪
浮
淡
淮
清
渚
渠
湯
滿
漸
火
灬
灭
灰
灵
灷
炅
炎
炏
炗
炙
炭
為
烈
烏
烝
焉
無
焦
焱
然
煞
熊
熏
燕
營
燮
爪
爫
爭
爯
爰
爱
爲
爵
父
爻
爽
爾
爿
片
牙
牚
牛
牜
牟
牢
牧
牪
牽
犀
犬
犭
犮
狂
狄
狊
独
狺
猋
猒
猪
献
獻
玄
率
玉
王
玟
玨
珎
班
琴
瑟
瑩
瓜
瓦
甘
甚
生
産
用
甫
甬
田
由
甲
申
电
甶
男
甸
甹
画
甾
畀
界
畏
畐
留
畜
畟
畢
畧
畨
番
畫
異
畱
當
畺
畾
疊
疋
疌
疑
疒
疾
癶
癸
癹
登
發
白
百
皀
皃
的
皆
皇
皋
皐
皕
皮
皷
皿
盃
盆
盇
盈
益
盍
盎
监
盒
盖
盛
盡
監
盤
盧
目
直
相
盾
省
眇
眉
看
眔
眞
真
眷
眼
眾
着
睘
睪
睿
瞏
瞢
瞿
矍
矛
矞
矢
矣
知
矦
短
石
破
碎
磊
磨
示
礻
礼
祟
票
祭
禀
禁
禸
禹
禺
离
禽
禾
禿
秀
秃
秉
秋
科
秝
秦
移
稟
穀
穌
穴
究
穹
空
穿
突
窄
窒
立
竒
竜
竝
竟
章
童
竹
笑
笠
筆
等
答
箕
算
箴
節
篤
篭
米
粉
粛
粟
粤
粦
粲
糞
糸
糹
系
約
納
素
索
紫
累
細
絜
絫
絲
維
綿
縣
繇
纍
纟
缶
网
罒
罔
罕
罗
罙
罡
罢
罪
署
罷
羅
羊
羌
羍
美
羔
羕
羗
羞
羡
羣
群
義
羲
羸
羽
翁
翏
習
翕
翟
翠
翼
老
耂
考
者
耆
而
耎
耑
耒
耳
耴
耶
耷
聂
聊
聖
聚
聶
聿
肀
肃
肅
肉
肖
肙
肥
肩
肯
育
肴
胃
背
胡
胥
能
脊
脩
膚
臣
臤
臧
自
臬
臭
臯
臱
至
致
臺
臼
臽
臾
臿
舀
舂
舄
與
興
舉
舌
舍
舛
舜
舞
舟
般
艮
良
色
艸
艹
艾
芒
芔
芬
芮
花
芳
芺
芻
苔
苗
苟
若
苦
英
茶
茸
荅
草
荒
荣
荼
莆
莧
莫
莽
菆
菊
菐
華
萬
落
葉
著
葛
董
葵
蒙
蒦
蒼
蓋
蓬
蓺
蔑
蔡
蕉
蕭
薄
薛
薦
薰
藍
藏
藥
蘭
虍
虎
虐
虒
虔
處
虖
虗
虘
虚
虛
虜
虞
虫
虽
蚤
蚩
蜀
蜜
蟲
蠡
血
行
衍
衛
衣
衤
表
衮
衰
袁
袞
褭
褱
襄
襾
西
覀
要
覃
見
規
覓
覧
親
覽
见
角
解
言
訁
訇
計
詹
誩
諸
讠
谷
豆
豈
豊
豐
豕
豖
豙
象
豦
豩
豪
豸
貇
貝
貞
貟
負
貢
貧
貪
貫
責
貳
貴
買
費
賁
資
賈
賏
賓
賔
賛
賞
賢
賣
質
賴
贊
贝
贡
责
贯
贲
贵
赖
赞
赤
赦
走
越
足
路
蹇
身
躬
車
軍
軎
軟
輦
车
辛
辜
辟
辥
辰
辱
農
辵
辶
边
达
过
近
连
迷
追
退
送
逆
逐
通
速
造
逢
連
逮
進
遀
遂
過
道
達
遣
適
遷
遺
邊
邑
邕
那
邦
邪
郎
部
郭
都
鄉
酉
酋
配
酓
釆
采
里
重
野
量
金
釒
錢
钅
長
镸
长
門
閃
閉
開
閏
閑
閒
間
閔
閵
閻
闌
门
间
闷
阑
阜
阝
阿
降
陳
隆
隊
隋
隡
隨
隱
隶
隹
隺
隻
隼
隽
难
雀
雁
集
雈
雋
雍
雐
雔
雙
雚
雜
雝
離
難
雨
雩
雪
雲
零
雷
需
霍
霜
霝
霞
霸
靈
靑
青
非
靡
面
靣
革
韋
韦
韭
韯
韱
音
頁
頃
項
須
頗
頡
頻
顛
页
風
风
飛
飞
食
飠
養
饣
首
香
馬
馮
駦
马
骨
高
髟
鬥
鬯
鬲
鬼
魚
魯
鮮
鱼
鲁
鳥
鳳
鸟
鹵
鹿
麃
麗
麥
麦
麻
黃
黄
黍
黎
黑
黒
黨
黹
黽
黾
鼎
鼓
鼠
鼻
齊
齋
齐
齒
齿
龍
龙
龜
龟
龠
龰
龱
龴
龵
龶
龷
龸
龹
者
艹
？
𠀁
𠀃
𠀆
𠀉
𠀎
𠀐
𠁁
𠁣
𠂆
𠂇
𠂈
𠂉
𠂊
𠂋
𠂎
𠂒
𠂔
𠂛
𠂡
𠂢
𠂤
𠂬
𠂭
𠂹
𠃊
𠃋
𠃌
𠃍
𠃎
𠃑
𠃓
𠃔
𠃜
𠄌
𠄎
𠄠
𠄢
𠆢
𠆥
𠇍
𠈌
𠌵
𠓜
𠔉
𠔥
𠔼
𠔽
𠔿
𠕀
𠕁
𠕋
𠘧
𠘨
𠙻
𠙼
𠚏
𠚒
𠚤
𠚪
𠣏
𠤎
𠤕
𠥓
𠦄
𠦑
𠦝
𠧒
𠧗
𠧪
𠩺
𠪚
𠫓
𠫔
𠫤
𠬛
𠬝
𠬞
𠬢
𠬤
𠬶
𠮛
𠮦
𠮷
𠯑
𠱠
𠳮
𠷎
𡈼
𡉀
𡉵
𡌥
𡍮
𡏳
𡕒
𡕩
𡕰
𡖅
𡗗
𡗜
𡘆
𡘤
𡧱
𡨄
𡩧
𡬠
𡭽
𡰣
𡰥
𡰪
𡰯
𡰱
𡷈
𡸁
𡿨
𡿩
𡿪
𡿺
𢀖
𢀛
𢀩
𢁙
𢆉
𢆰
𢆶
𢇁
𢇇
𢉖
𢌬
𢌿
𢏚
𢑑
𢑚
𢖻
𢙣
𢛳
𢦏
𢦒
𢧵
𢼄
𢾕
𣁋
𣄼
𣅀
𣅽
𣍘
𣎳
𣎵
𣏋
𣏼
𣗥
𣥂
𣥖
𣦵
𣦼
𣧄
𣪊
𣪠
𣬉
𣳾
𣶒
𤇾
𤊽
𤐫
𤓰
𤔔
𤕨
𤣩
𤰇
𤰔
𤰞
𤴓
𤴔
𤽄
𥁑
𥁕
𥃦
𥃩
𥃭
𥇡
𥑟
𥘅
𥘈
𥝢
𥫗
𥱡
𦈢
𦉪
𦉬
𦉼
𦍌
𦍒
𦎧
𦐇
𦓔
𦔮
𦘒
𦙃
𦚏
𦣝
𦣞
𦣻
𦥑
𦥔
𦥯
𦨉
𦭝
𦰩
𧆞
𧈧
𧘇
𧰨
𧴪
𧴮
𧵩
𧾷
𨸏
𨾴
𩙿
𩠐
𩫏
𩵋
𪉷
𪜀
𪟽
𪠲
𪩲
𫇦
𫔭
𫜸
𫝀
𫠣
𫠩
𫢉
𫥞
𫩏
𫩠
𫪡
𫲽
𫶧
𬀷
𬐘
𬗌
𬙙
𬛸
𬜯
𬟩
𬯁
𬴘
𬺻
𬼉
𬼖
𭀰
𭁈
𭁨
𭅰
𭑈
𭕄
𭗼
𭤨
𭥫
𭻾
𮅕
𮊿
𮍌
𮍏
𮓗
𮥼
𮧮
廾
𰀁
𰀄
𰀈
𰀉
𰀕
𰀠
𰀡
𰀢
𰀪
𰁜
𰃮
𰆊
𰆘
𰋙
𰕎
𰢴
𰧭
𰯲
00--
01--
02--
03--
04--
05--
06--
07--
08--
09--
45--
48--
513--
58--
59--
63--
64--
65--
66--
67--
68--
72--
75--
79--
80--
82--
83--
84--
85--
86--
87--
88--
89--
90--
91--
92--
93--
94--
95--
96--
97--
98--
99--
a--
ab--
abdel--
abe--
abi--
abo--
abso--
abst--
abu--
aby--
ac--
aca--
accom--
ace--
achi--
act--
actu--
ad--
ada--
ade--
adic--
admira--
ado--
adu--
advo--
ae--
af--
aff--
affec--
affirma--
after--
ag--
aga--
age--
agi--
ago--
agri--
agu--
agua--
agwo--
ah--
ai--
aig--
ains--
air--
ais--
aj--
aji--
ak--
aka--
ako--
akt--
al--
ala--
ale--
aleks--
alf--
ali--
all--
alma--
almen--
alo--
alt--
aly--
am--
ama--
amb--
ambass--
ami--
amphi--
an--
ana--
anar--
and--
anda--
andi--
ane--
ang--
anglo--
ani--
anna--
anne--
annu--
ano--
ans--
ant--
anthro--
anti--
any--
ao--
ap--
apa--
apart--
apo--
appro--
aqu--
aqui--
ar--
ara--
arc--
archi--
ard--
are--
argu--
ari--
ark--
aroz--
arre--
art--
arti--
artif--
as--
ase--
ash--
asi--
aspi--
ass--
assig--
assist--
asso--
assu--
astu--
at--
ate--
ath--
ato--
atrap--
atu--
au--
aud--
auf--
aug--
aus--
auto--
autri--
av--
ava--
ave--
avell--
avi--
awa--
ay--
ayewo--
az--
b--
ba--
bab--
baby--
bac--
bach--
back--
bad--
bae--
bag--
bah--
bai--
bail--
bak--
bal--
bam--
ban--
bank--
bar--
bara--
barri--
bartho--
bas--
bat--
bau--
bay--
be--
bea--
beau--
bec--
beck--
bed--
bee--
bei--
bel--
belle--
ben--
bene--
ber--
berg--
bert--
bes--
bet--
beth--
beu--
bey--
bi--
biag--
bib--
biblio--
bien--
big--
bil--
bilin--
bin--
bio--
biogra--
bir--
bis--
bit--
biyo--
biz--
bla--
black--
blan--
ble--
blo--
blu--
blue--
bly--
bo--
bob--
boc--
bod--
bog--
boi--
bois--
bol--
bom--
bon--
bona--
bor--
bos--
bot--
bou--
boug--
boui--
bour--
bourd--
bous--
bout--
bow--
box--
boy--
boz--
bra--
bram--
bran--
bre--
bri--
bro--
broad--
bron--
brou--
bru--
bry--
bu--
buc--
buck--
bud--
bug--
buis--
buit--
bul--
bull--
bun--
bur--
burg--
bus--
but--
bwo--
by--
c--
ca--
cab--
cac--
caci--
caff--
cai--
caill--
cal--
calami--
call--
calom--
cam--
cama--
can--
canni--
cap--
car--
cara--
cart--
cas--
cat--
cau--
cay--
ce--
cele--
celebra--
cell--
cer--
ces--
ch--
cha--
chal--
cham--
chan--
char--
chat--
chau--
che--
cher--
chev--
chi--
chiqui--
cho--
choi--
chry--
chu--
chy--
ci--
cic--
cil--
cio--
cipri--
cir--
cit--
ck--
cla--
cle--
clo--
clu--
cn--
co--
coch--
cog--
col--
com--
compa--
compli--
compo--
con--
concur--
confi--
confide--
conju--
cons--
consom--
cop--
copy--
coq--
coqui--
cor--
corio--
cort--
cos--
cot--
cou--
cour--
coutu--
cov--
cow--
cra--
crau--
craw--
cre--
cri--
cris--
cro--
cru--
cs--
cu--
cuad--
cue--
cul--
cultu--
cump--
cur--
curt--
cut--
cy--
d--
da--
dac--
dad--
dae--
dag--
dago--
dagogi--
dal--
dam--
dan--
dar--
dare--
das--
dau--
daw--
dawley--
day--
de--
dead--
dec--
dee--
defi--
dei--
dekon--
del--
dela--
deli--
dem--
demo--
demok--
den--
dep--
der--
des--
desay--
desi--
destruc--
det--
dete--
deu--
dev--
dez--
di--
dia--
diag--
dic--
die--
dieu--
dig--
dik--
dill--
dim--
dio--
dis--
disappe--
discrimina--
dit--
diwe--
dj--
dje--
dji--
do--
dob--
doc--
dog--
doi--
doku--
dol--
doll--
dom--
don--
dona--
doo--
dor--
dos--
dou--
dow--
down--
dr--
dra--
dre--
dream--
dro--
dru--
drug--
drum--
du--
dub--
duc--
due--
dul--
dun--
dur--
dut--
duth--
dy--
dyak--
e--
ear--
eb--
eber--
ec--
eck--
ed--
edi--
edici--
edu--
educa--
eduvi--
eff--
eg--
egzam--
eh--
ei--
eich--
ein--
eis--
eisen--
eji--
ek--
eks--
eksp--
ekwato--
ekze--
ekzi--
el--
ela--
ele--
elec--
elek--
eli--
ely--
em--
eme--
emi--
emos--
en--
enci--
end--
ende--
endi--
enfla--
eng--
enmas--
ens--
ente--
entre--
enva--
environ--
eo--
ep--
epi--
epis--
equ--
equi--
er--
ero--
es--
esca--
escon--
escu--
est--
estu--
et--
eta--
etche--
eth--
etno--
etyo--
eu--
euph--
euro--
ev--
eva--
eve--
ever--
evol--
ex--
exc--
exe--
exhi--
exp--
expe--
expec--
expli--
explora--
explos--
exter--
extra--
ey--
ez--
f--
fa--
fabri--
fabu--
fac--
face--
fah--
fai--
fair--
fal--
fals--
fan--
far--
fas--
fast--
fat--
fau--
fe--
febru--
feld--
fem--
fen--
fer--
fet--
feu--
ff--
fhra--
fi--
fie--
fig--
figu--
fik--
fil--
film--
filo--
fin--
finn--
fir--
fire--
fitz--
fla--
flag--
flam--
flash--
flat--
fle--
flibus--
flo--
flor--
flu--
fo--
fol--
folk--
fon--
fonda--
font--
foot--
for--
foto--
fou--
four--
fox--
fra--
frac--
frag--
fre--
fred--
free--
fres--
fri--
fried--
fro--
fu--
fugi--
ful--
fun--
func--
fur--
furn--
furt--
fy--
g--
ga--
gad--
gai--
gal--
galac--
gall--
gam--
gan--
gar--
gas--
gat--
gau--
gaut--
gay--
gaz--
ge--
gel--
gen--
gene--
geome--
ger--
ges--
gi--
gia--
gian--
gibb--
gil--
gin--
gio--
gion--
gior--
gis--
giu--
gla--
gle--
glen--
gli--
glo--
go--
gob--
god--
gode--
gol--
gold--
gom--
gon--
goo--
good--
gor--
got--
gou--
gour--
gover--
gra--
gram--
gran--
grand--
gre--
green--
gri--
grim--
gro--
gros--
gru--
grum--
gu--
gua--
gue--
guer--
gui--
guil--
gul--
gun--
gur--
gut--
guy--
gy--
h--
ha--
hab--
had--
hae--
haf--
haff--
hag--
hai--
haiti--
haj--
hal--
ham--
han--
hand--
happ--
har--
hard--
has--
hat--
hau--
hay--
haz--
he--
head--
heb--
hed--
heim--
hel--
hem--
hen--
hend--
hens--
her--
here--
heu--
heurte--
hey--
hi--
hick--
high--
hil--
him--
hin--
hip--
his--
histo--
hit--
ho--
hoch--
hol--
holl--
home--
hon--
hop--
hor--
hot--
hou--
how--
hu--
hud--
hue--
hum--
hund--
hur--
hutch--
huy--
hy--
hym--
hyp--
hypnot--
i--
ia--
ibe--
ice--
id--
ida--
if--
ig--
il--
ill--
illustra--
im--
ima--
in--
ina--
inat--
inc--
incom--
inde--
indepen--
indi--
indust--
ine--
infan--
infec--
infil--
infor--
ing--
inge--
ini--
initia--
ino--
inqui--
ins--
inse--
insom--
instru--
insu--
intellec--
inter--
intri--
intro--
invas--
investi--
io--
ip--
ir--
ire--
is--
iso--
ist--
it--
itur--
iv--
ix--
iz--
j--
ja--
jac--
jacque--
jae--
jag--
jai--
jam--
jan--
jar--
jau--
jay--
je--
jean--
jeff--
jen--
jer--
jeyo--
ji--
jim--
jin--
jis--
jo--
job--
jon--
jou--
joy--
ju--
jun--
jut--
k--
ka--
kad--
kai--
kal--
kam--
kan--
kap--
kar--
kas--
kat--
katas--
kath--
kay--
ke--
kei--
kel--
ken--
ker--
ket--
kett--
key--
kh--
ki--
kid--
kil--
kim--
kin--
kir--
kirk--
kit--
kiu--
kle--
kni--
ko--
koe--
kohl--
kol--
koliz--
kom--
kon--
kontra--
kor--
kos--
kot--
kou--
kouns--
koval--
kowa--
kr--
kra--
kre--
kreya--
kri--
kro--
kru--
kry--
ks--
ku--
kur--
kwa--
kwo--
ky--
l--
la--
lab--
laby--
lac--
lady--
lae--
lag--
lah--
laj--
lak--
lake--
lalle--
lam--
lamb--
lan--
land--
lang--
lap--
lar--
larti--
las--
lau--
law--
lay--
laz--
le--
lea--
lec--
lee--
leg--
lei--
lek--
lem--
len--
leo--
ler--
les--
let--
lexi--
ley--
li--
lia--
lib--
libe--
lic--
licen--
lie--
life--
lig--
lik--
lim--
lin--
lind--
lio--
lip--
lis--
lit--
liv--
liz--
ll--
lle--
lo--
lock--
lody--
log--
logi--
loj--
lom--
lon--
long--
lor--
los--
lot--
lou--
love--
low--
loy--
ls--
lu--
luc--
lud--
lus--
ly--
lys--
m--
ma--
mac--
mad--
mae--
mag--
mah--
mai--
main--
maj--
mak--
mal--
mala--
male--
mali--
mam--
man--
mani--
map--
mar--
mari--
mas--
mat--
matrim--
mau--
may--
maz--
mazar--
mc--
mccor--
mcg--
mckin--
me--
mea--
mec--
med--
meg--
meh--
mei--
mel--
men--
mer--
mes--
met--
meta--
meu--
mexi--
mey--
mi--
mic--
mid--
mig--
migra--
mik--
mil--
min--
mini--
mio--
mir--
mira--
mis--
mit--
miya--
mm--
mo--
mocking--
mod--
moi--
mol--
mom--
mon--
monia--
mono--
mont--
monte--
moon--
mor--
mos--
mosc--
mot--
moto--
mou--
mous--
moy--
mp--
mu--
mul--
mult--
mun--
mur--
my--
n--
na--
nag--
nah--
nai--
nal--
nan--
nar--
nas--
nat--
natas--
nati--
nau--
nay--
nd--
ne--
neces--
neo--
ner--
nes--
net--
neu--
neut--
new--
news--
ney--
ng--
ni--
nic--
nie--
nig--
nin--
nis--
nitri--
nn--
no--
noc--
nom--
non--
nor--
nos--
not--
notam--
note--
nou--
ns--
nt--
nu--
nue--
nuo--
nur--
nut--
ny--
o--
oak--
ob--
obe--
oblig--
observa--
oc--
och--
octa--
odis--
of--
off--
og--
ographi--
oh--
ok--
ol--
ola--
old--
oly--
om--
on--
ont--
op--
open--
or--
ora--
org--
ori--
os--
osi--
oss--
ot--
oto--
ou--
out--
ouv--
over--
ow--
ox--
oxy--
oz--
p--
pa--
pag--
pah--
paj--
pak--
pal--
palla--
pam--
pan--
pankow--
pap--
papa--
par--
para--
paro--
part--
pas--
pat--
pau--
pax--
pay--
pe--
peace--
pec--
peda--
pein--
pel--
pem--
pen--
pep--
per--
perio--
pes--
pet--
petro--
pey--
peyre--
ph--
phe--
phi--
phil--
philos--
pho--
phonologi--
phy--
pi--
pia--
pic--
pick--
pie--
pier--
pig--
pil--
pin--
pio--
pis--
pisto--
pit--
pla--
plan--
play--
ple--
pli--
plu--
po--
poe--
pog--
poi--
poit--
pol--
poli--
poly--
pom--
pon--
pont--
pop--
por--
porno--
port--
post--
pot--
pou--
pour--
pp--
pra--
pre--
pri--
princi--
pro--
prodi--
protag--
pru--
pry--
psi--
psycho--
pt--
pu--
pub--
pug--
pul--
pur--
put--
pwi--
pwo--
py--
q--
qu--
que--
quent--
qui--
quin--
r--
ra--
rac--
rad--
radi--
raf--
rag--
rai--
rain--
raison--
rak--
ral--
ram--
ran--
rap--
ras--
rat--
rau--
raw--
ray--
raz--
rd--
re--
rea--
rec--
recom--
red--
redout--
reg--
rege--
regil--
rei--
rein--
rek--
relati--
rem--
remo--
remp--
ren--
repre--
requi--
res--
rest--
ret--
rev--
reve--
revi--
rey--
rez--
rg--
rhapso--
rhy--
ri--
ria--
rich--
rie--
rif--
rig--
rim--
rin--
rio--
rip--
ris--
riva--
rme--
rn--
ro--
road--
rob--
roca--
rock--
rod--
rode--
roe--
rom--
romu--
ron--
ros--
rose--
rot--
rou--
row--
rox--
rs--
rt--
ru--
rue--
rug--
rui--
rum--
run--
rut--
ry--
s--
sa--
sab--
sac--
sad--
sag--
sai--
sain--
sak--
sal--
sala--
sam--
samari--
san--
sand--
sang--
sani--
sar--
sara--
sau--
saul--
sauve--
sc--
scan--
scand--
scar--
sce--
sch--
scha--
schaus--
sche--
schi--
scho--
schu--
schwe--
schwei--
sco--
scor--
scu--
sculp--
se--
sea--
seb--
sec--
see--
seg--
sei--
sel--
sem--
semi--
sen--
sens--
ser--
ses--
seu--
sev--
seve--
sex--
sey--
sh--
sha--
shan--
shank--
shar--
she--
sher--
shi--
sho--
show--
shu--
shy--
si--
sib--
sid--
sie--
sig--
sik--
sil--
silen--
sim--
sin--
sir--
sis--
sit--
sk--
ske--
sku--
sky--
sle--
slo--
smith--
smo--
smug--
snow--
so--
socio--
sof--
soft--
sog--
sol--
som--
son--
sop--
sor--
sou--
souf--
soup--
sourd--
sp--
spa--
spar--
spe--
spec--
spi--
spo--
spont--
squ--
sr--
ss--
st--
sta--
stan--
star--
statis--
ste--
ster--
sti--
sto--
strat--
stric--
strip--
stu--
sty--
su--
sub--
suc--
sud--
sue--
suff--
sul--
sum--
sun--
super--
supp--
sur--
sus--
sv--
swa--
swan--
swe--
sy--
syl--
sym--
symp--
syn--
t--
ta--
tac--
tag--
tai--
tak--
tal--
tam--
tan--
tap--
tar--
tara--
tart--
tas--
tau--
tay--
tch--
te--
tea--
teau--
tech--
tek--
tel--
tele--
temp--
ten--
tend--
teo--
ter--
tex--
tey--
th--
tha--
the--
ther--
thi--
thio--
thu--
thur--
ti--
tib--
tig--
tik--
til--
tim--
time--
tin--
tip--
tir--
tis--
to--
tob--
toc--
toi--
tol--
tom--
ton--
too--
top--
topog--
tor--
torn--
tou--
tour--
tra--
trans--
tre--
trem--
tremble--
tri--
trin--
tro--
tron--
trot--
trou--
tru--
trum--
ts--
tsu--
tu--
tuc--
tun--
tur--
tus--
tut--
tv--
twe--
twit--
two--
ty--
u--
uc--
ui--
uk--
ul--
ull--
ult--
um--
un--
una--
under--
uni--
uns--
up--
ur--
us--
ut--
uz--
v--
va--
vac--
vain--
vais--
val--
van--
var--
varia--
vas--
vau--
ve--
vec--
vei--
vel--
ven--
vende--
ver--
ves--
vey--
vi--
via--
vie--
vig--
vil--
villa--
ville--
vin--
vir--
virtu--
vis--
visi--
vit--
viv--
viz--
vo--
vol--
volont--
von--
vor--
vou--
voy--
vrai--
vs--
vu--
vul--
vwa--
vy--
vyo--
w--
wa--
wai--
wal--
wall--
wan--
war--
was--
wat--
water--
way--
we--
web--
wei--
wel--
wen--
wer--
wert--
wes--
west--
whip--
whis--
whit--
white--
wi--
wid--
wie--
wig--
wiki--
wil--
wild--
win--
wind--
wis--
wit--
wo--
woj--
wol--
woo--
wood--
wou--
wu--
wy--
x--
xi--
xo--
y--
ya--
yan--
yas--
ye--
yer--
yi--
yo--
you--
yu--
yul--
yvel--
z--
za--
zac--
zah--
zak--
zam--
zan--
zar--
ze--
zen--
zer--
zh--
zi--
zie--
zim--
zin--
zo--
zon--
zoo--
zou--
zu--
zwi--
zwo--
zy--
æ--
--0
--00
--01
--02
--03
--04
--05
--0556
--06
--07
--08
--09
--1
--10
--11
--12
--13
--14
--15
--16
--17
--18
--19
--2
--20
--21
--22
--23
--24
--25
--26
--28
--29
--3
--30
--31
--32
--33
--34
--36
--37
--38
--39
--4
--40
--41
--42
--43
--44
--45
--46
--47
--48
--49
--5
--50
--51
--52
--53
--54
--55
--56
--57
--58
--59
--6
--61
--62
--63
--64
--65
--66
--67
--68
--69
--7
--70
--71
--72
--73
--74
--75
--77
--78
--79
--8
--80
--81
--82
--83
--84
--85
--86
--87
--88
--8889
--889
--89
--9
--90
--91
--92
--93
--94
--95
--96
--97
--98
--99
--a
--aan
--ab
--aba
--able
--ables
--ac
--aceæ
--ach
--acio
--aco
--acre
--ad
--ada
--ade
--ado
--ados
--ady
--ae
--af
--afa
--ag
--aga
--age
--ager
--ah
--ai
--aient
--aigne
--ail
--aillon
--ain
--aine
--aire
--aires
--ais
--aise
--ait
--aj
--aje
--ajman
--ak
--al
--ala
--alan
--ale
--ales
--ali
--alis
--alite
--all
--als
--am
--amba
--an
--ana
--and
--ane
--ang
--ani
--anje
--ano
--ans
--ant
--ante
--anz
--ao
--ap
--ar
--ara
--archy
--ard
--ards
--are
--ari
--aria
--aries
--aro
--arro
--arry
--art
--ary
--as
--ase
--asyon
--at
--ata
--ate
--ati
--atif
--ation
--ato
--atra
--ature
--au
--aud
--auer
--ault
--aut
--aux
--ave
--aw
--awo
--ay
--aye
--ayo
--az
--aza
--azzo
--b
--ba
--back
--bad
--bal
--ball
--ban
--bar
--basyon
--baum
--be
--bel
--ben
--berg
--bes
--bi
--bia
--bik
--bilite
--bird
--ble
--bles
--bo
--board
--bois
--bon
--boro
--bot
--bou
--box
--boy
--bra
--bre
--bs
--bt
--bu
--bule
--bur
--burg
--bury
--by
--bz
--c
--ca
--cal
--can
--cao
--car
--cas
--cat
--cca
--cci
--ccio
--cco
--ce
--ceau
--cel
--celli
--cence
--ceo
--cer
--cera
--ces
--cet
--cey
--ceæ
--ch
--cha
--che
--chi
--chka
--cho
--cht
--chu
--chy
--ci
--cia
--cias
--cin
--cing
--cini
--cino
--cio
--ciones
--cita
--cito
--ck
--cki
--cks
--cky
--co
--coat
--cock
--col
--cos
--cot
--cq
--cs
--ct
--cta
--cted
--ctive
--cto
--cts
--cu
--cus
--cy
--d
--da
--dad
--dah
--dal
--dale
--dam
--dan
--das
--day
--de
--ded
--den
--deo
--der
--dero
--des
--detta
--deur
--dge
--di
--dia
--die
--dieu
--dig
--dilla
--din
--ding
--dini
--dis
--disc
--dj
--dle
--dler
--dman
--do
--dog
--dom
--don
--dor
--doro
--dos
--dou
--down
--dra
--dre
--ds
--dt
--du
--dun
--dy
--dz
--e
--ea
--ean
--eastern
--eau
--ec
--eck
--ed
--ee
--ef
--eff
--eg
--ega
--eh
--ei
--eix
--ejo
--ek
--el
--eld
--elet
--ell
--ella
--elle
--elli
--ello
--elo
--elot
--els
--em
--ema
--eman
--ement
--en
--ena
--ence
--eng
--eno
--ens
--enstein
--ent
--enta
--ento
--eo
--ep
--er
--era
--ere
--eri
--ern
--erne
--ero
--ers
--erson
--ert
--ery
--es
--esco
--ese
--ess
--est
--et
--eta
--ete
--eth
--eto
--ets
--ett
--etta
--ette
--ettes
--etti
--ety
--etz
--eu
--euil
--eur
--eurs
--euse
--eux
--ev
--ew
--ex
--ey
--eye
--ez
--eza
--eæ
--f
--fa
--fas
--fe
--feld
--fer
--ff
--ffe
--ffer
--ffi
--ffre
--fi
--field
--fik
--film
--fim
--fo
--fort
--foy
--fre
--ft
--ful
--fy
--fye
--g
--ga
--gan
--gar
--gari
--gas
--gasyon
--gd
--ge
--ged
--gen
--geon
--geot
--ger
--ges
--gg
--ggi
--ggs
--gh
--gham
--ghem
--ghi
--gho
--ght
--ghter
--ghton
--gi
--gic
--gie
--gio
--gjy
--glia
--gn
--gna
--gnac
--gne
--gnol
--gnon
--gny
--go
--gos
--goso
--gra
--graphe
--graphie
--gro
--gs
--gt
--gth
--gton
--gu
--gua
--gue
--guer
--gues
--gui
--gy
--h
--ha
--ham
--han
--har
--haw
--he
--head
--heim
--heit
--hel
--hen
--her
--hes
--het
--hi
--hia
--hian
--hie
--hik
--hin
--hio
--hip
--his
--hl
--hm
--hn
--ho
--hoe
--hoff
--hol
--hon
--hood
--hos
--hr
--ht
--hte
--http
--hy
--hya
--i
--ia
--iaceæ
--ial
--ian
--iana
--iane
--ians
--iar
--ias
--iat
--iau
--iaud
--ib
--ible
--ic
--ica
--ical
--ich
--ici
--ick
--ico
--ics
--icus
--id
--ida
--idad
--ide
--ido
--ie
--iel
--ien
--iendo
--ienne
--iens
--ient
--ier
--iers
--ies
--ieu
--ieux
--iez
--if
--ife
--ification
--ifie
--ifs
--ifye
--ig
--iga
--igan
--ige
--igh
--ign
--ignac
--igne
--igny
--igo
--ih
--ihe
--ii
--ija
--ik
--ika
--iko
--il
--ila
--ilasyon
--ilate
--ile
--ilh
--ili
--ilis
--ilite
--ilizasyon
--ilize
--illa
--ille
--illo
--illon
--illy
--ilo
--im
--ima
--iman
--ime
--imi
--imo
--in
--ina
--inda
--ine
--ing
--ingham
--ings
--ington
--ini
--inman
--inne
--ino
--ins
--inski
--int
--inx
--iny
--io
--ion
--ions
--ior
--ios
--iot
--iou
--ious
--ioz
--ip
--ipe
--ique
--ir
--ira
--ire
--ires
--iri
--iro
--irs
--is
--isation
--ise
--iser
--ises
--ish
--isi
--isio
--ism
--isme
--ison
--iss
--isse
--ist
--ista
--iste
--ister
--istes
--ists
--it
--ita
--itas
--itch
--ite
--ith
--iti
--ities
--itif
--ition
--ito
--itor
--itos
--itt
--itude
--ity
--itz
--iu
--ium
--iura
--ius
--iv
--ive
--ivity
--ix
--iy
--iye
--iz
--iza
--izasyon
--ize
--ized
--j
--ja
--jac
--jan
--jas
--je
--jean
--jes
--ji
--jik
--jil
--jn
--jo
--jol
--ju
--jye
--k
--ka
--kal
--kan
--ke
--kel
--ken
--ker
--kers
--kes
--ket
--ki
--kian
--kie
--kis
--kman
--ko
--koff
--kos
--kov
--kri
--ks
--ksyon
--kte
--kti
--ktif
--ktiv
--ku
--ky
--l
--la
--lace
--lad
--lade
--lag
--lah
--lais
--lan
--land
--lao
--lar
--lard
--las
--lasyon
--lat
--late
--lay
--lb
--lbi
--ld
--lde
--ldi
--ldo
--le
--led
--lee
--lem
--len
--ler
--les
--less
--let
--leux
--ley
--lfi
--lhac
--li
--lia
--lida
--lie
--lier
--lin
--line
--lini
--lio
--lis
--lite
--lize
--ll
--lla
--llanes
--llas
--llat
--lle
--lles
--lli
--lling
--llo
--llon
--llot
--lloux
--lls
--lly
--lma
--lo
--loff
--logie
--logue
--loji
--lon
--lor
--los
--lot
--love
--lp
--ls
--lson
--lt
--lto
--lton
--lu
--lus
--ly
--lye
--lyn
--m
--ma
--man
--mann
--mar
--mas
--masi
--mb
--mba
--mbe
--mbo
--mbre
--me
--mel
--men
--ment
--mento
--mer
--mes
--mi
--mic
--mie
--mik
--mis
--mly
--mm
--mma
--mme
--mo
--mont
--mos
--mov
--mp
--mpe
--ms
--mt
--mu
--mus
--my
--n
--na
--nac
--nado
--naire
--naires
--naise
--naj
--nal
--nan
--nar
--nas
--nat
--nay
--nberg
--nburg
--nc
--nca
--nce
--nces
--nch
--ncio
--nco
--ncy
--nd
--nda
--ndan
--nde
--nder
--nders
--ndi
--ndia
--ndo
--ndon
--ndra
--ndre
--ndro
--nds
--ndu
--ne
--neau
--nec
--ned
--nel
--nelle
--nen
--ner
--nera
--nes
--nesi
--ness
--net
--neur
--ney
--nez
--nfeld
--ng
--nga
--nge
--nger
--ngle
--ngo
--ngton
--ngue
--ni
--nia
--nie
--nier
--niers
--nik
--nilla
--ning
--nio
--nir
--nis
--niste
--nita
--nj
--nja
--nje
--nk
--nka
--nke
--nko
--nks
--nky
--nm
--nman
--nn
--nna
--nne
--nnen
--nnent
--nnes
--no
--noff
--nois
--noke
--non
--nor
--nos
--not
--nova
--noy
--ns
--nsa
--nse
--nski
--nsky
--nso
--nson
--nstein
--nt
--nta
--ntal
--nte
--ntes
--nti
--ntial
--ntiel
--ntik
--ntin
--ntini
--nto
--nton
--ntre
--ntro
--nts
--nu
--num
--ny
--nya
--nye
--nz
--nza
--nzo
--o
--oa
--ob
--obi
--oc
--ock
--od
--odi
--odt
--oe
--of
--off
--oge
--ogo
--oi
--oin
--oine
--oing
--oir
--oire
--ois
--oji
--ojik
--ok
--ol
--ola
--ole
--oli
--olin
--olo
--ology
--oloji
--olojik
--olon
--om
--ome
--on
--ond
--onde
--ondo
--one
--ong
--oni
--ono
--ons
--ont
--ony
--oo
--ood
--oon
--op
--opi
--or
--ord
--ore
--ori
--ors
--ort
--ory
--oryal
--os
--osa
--ose
--oso
--ot
--ote
--otte
--otti
--ou
--oud
--oui
--ouin
--ouk
--oul
--oup
--ourt
--ous
--out
--oux
--ouze
--ov
--ova
--ovski
--ow
--ows
--oy
--oya
--oz
--oza
--p
--pa
--pe
--ped
--pel
--pen
--per
--pers
--pet
--phe
--phie
--phy
--pi
--pin
--ping
--po
--port
--pp
--ppe
--ppen
--pper
--pra
--pre
--ps
--pt
--ption
--ptive
--py
--q
--qe
--qu
--que
--quet
--r
--ra
--rab
--rah
--rai
--rait
--raj
--ral
--ralis
--ram
--ran
--rana
--rand
--rans
--rapi
--ras
--rat
--rata
--ratif
--rato
--ray
--raz
--razo
--rc
--rca
--rce
--rcio
--rcy
--rd
--rda
--rde
--rdi
--rdis
--rdo
--rdon
--rds
--rdy
--re
--reau
--red
--ree
--rel
--rell
--relle
--relli
--rem
--ren
--res
--ress
--ret
--reux
--rey
--rf
--rg
--rga
--rge
--rgue
--ri
--ria
--ric
--rid
--rie
--ries
--rik
--rin
--rine
--rio
--ris
--rit
--rito
--rium
--riye
--riyo
--rk
--rly
--rm
--rman
--rme
--rmin
--rn
--rna
--rne
--rno
--rnos
--ro
--rol
--ron
--ros
--rot
--rov
--roy
--rr
--rra
--rre
--rri
--rro
--rry
--rs
--rse
--rsion
--rson
--rt
--rta
--rte
--rti
--rto
--rton
--ru
--rue
--rum
--rus
--rve
--ry
--rya
--rye
--ryen
--s
--sa
--sac
--saj
--san
--sard
--sas
--sboro
--sburg
--sby
--sca
--sch
--schaft
--schi
--sco
--se
--sed
--see
--sel
--sen
--ser
--ses
--set
--seur
--seurs
--sey
--sez
--sfe
--sh
--sha
--sham
--si
--sia
--sian
--sie
--sier
--sif
--sin
--sio
--sion
--sis
--sit
--sk
--ska
--ski
--skri
--sky
--slav
--sler
--sm
--sman
--sme
--smo
--so
--son
--sos
--sov
--sque
--ss
--ssa
--sse
--ssen
--ssent
--ssi
--ssier
--ssion
--ssions
--sso
--ssolo
--sson
--ssure
--ssus
--ssy
--st
--sta
--star
--ste
--sted
--stein
--ster
--stes
--stle
--ston
--stown
--stra
--stre
--stro
--sty
--su
--sus
--sville
--sy
--syan
--syasyon
--sye
--syen
--syon
--sz
--t
--ta
--table
--tal
--tan
--tano
--tant
--tar
--tas
--tasyon
--tation
--taz
--te
--ted
--tein
--tel
--teman
--ten
--ter
--tero
--ters
--tes
--tet
--teur
--tez
--th
--the
--ti
--tia
--tian
--tib
--tic
--tician
--tics
--tid
--tie
--tier
--tif
--tik
--time
--tin
--tine
--ting
--tini
--tion
--tis
--tisyon
--tius
--tiv
--tive
--tize
--tle
--tler
--tly
--tman
--to
--tola
--ton
--tone
--tor
--tora
--tore
--tori
--tos
--tot
--tou
--town
--tr
--tra
--tre
--tri
--tris
--tro
--try
--ts
--tt
--tta
--tte
--ttes
--tti
--tto
--ttre
--tu
--tur
--tura
--tus
--tut
--tute
--tv
--ty
--tye
--tz
--tzer
--tzky
--u
--ua
--ual
--uan
--ub
--uc
--ucci
--uch
--uche
--ucht
--uco
--ud
--uda
--ude
--udo
--ue
--uel
--uer
--ues
--uet
--uette
--uf
--ug
--uge
--uh
--ui
--uil
--uin
--uis
--uk
--ul
--ula
--ular
--ule
--ullo
--ulo
--ult
--um
--umba
--ume
--ument
--umento
--un
--una
--une
--ung
--unt
--up
--ur
--ura
--ure
--ured
--ures
--uri
--uro
--urs
--urt
--ury
--us
--use
--uses
--ussi
--ust
--uste
--usz
--ut
--ute
--uto
--uve
--uvre
--ux
--uy
--uz
--uzzi
--v
--va
--vada
--vado
--vain
--val
--van
--var
--vas
--vat
--vator
--vaud
--ve
--veau
--ven
--ver
--verry
--verse
--ves
--vet
--vey
--vi
--via
--vic
--vich
--vil
--ville
--vin
--vio
--vo
--vska
--vsky
--vu
--vy
--w
--wa
--was
--way
--we
--wen
--wer
--wi
--wich
--wicz
--wig
--wit
--witz
--wl
--wn
--wo
--wood
--ws
--wski
--x
--xa
--xe
--xel
--xte
--xyon
--y
--ya
--yaj
--yal
--yalis
--yan
--yas
--yati
--ye
--yen
--yer
--yi
--yik
--yin
--yis
--yl
--yle
--yme
--yn
--yne
--yo
--yol
--yon
--yr
--yre
--ys
--z
--za
--zac
--zada
--zal
--zan
--zar
--zas
--zasyon
--zate
--ze
--zel
--zer
--zet
--zi
--zia
--zie
--zier
--zif
--zio
--zo
--zon
--zoni
--zos
--zt
--zu
--zy
--zyen
--zyon
--zz
--zza
--zzi
--zzo
--ß
--æ
--œur
