!
"
#
##0
##1
##10
##11
##12
##13
##14
##15
##16
##17
##18
##19
##2
##20
##21
##22
##23
##24
##25
##26
##27
##28
##29
##3
##30
##31
##32
##33
##34
##35
##36
##37
##38
##39
##4
##40
##41
##42
##43
##44
##45
##46
##47
##48
##49
##5
##50
##51
##52
##53
##54
##55
##56
##57
##58
##59
##6
##60
##61
##62
##63
##64
##65
##66
##67
##68
##69
##7
##70
##71
##72
##73
##74
##75
##76
##77
##78
##79
##8
##80
##81
##82
##83
##84
##85
##86
##87
##88
##89
##9
##90
##91
##92
##93
##94
##95
##96
##97
##98
##99
$
%
&
'
(
)
*
+
,
-
.
/
0
00
000
0000
001
002
004
00598
01
01376
016
017
018
02
021
03
031
033
04
05
06
0645
07
08
09
1
10
100
1000
10000
100000
1000000
1001
10011
1002
1003
10031
10035
1004
1005
1006
1007
10076
1008
1009
101
1010
10100
101000
1011
10113
1012
1013
10134
1014
1015
1016
101655
1017
10179
1018
10184
1019
10190
10194
102
1020
102000
1021
1022
10224
1023
1023000
1024
10249
1025
1025000
1026
10269
1027
10273
10275
10278
1028
1029
103
1030
10300
1031
10315
103181
1032
1033
10333
1034
1035
1036
10368
1037
1038
10384
1039
104
1040
10400
104000
1041
1042
1043
1044
1045
1046
1047
1048
1049
105
1050
10500
105000
1051
1052
1053
1054
1055
1056
105690470
1057
10575
1058
1059
106
1060
10600
106000
1061
10611
1062
1063
10634
1064
1065
1066
10666
1067
1068
1069
10697
107
1070
10700
10704
1071
1072
1073
1074
1075
1076
1076000
1077
1078
1079
108
1080
10800
108000
1081
1082
1083
10834
1084
1084000
1085
10851
1086
10860
10866
1087
10872
1088
10884
1089
109
1090
10900
10903
1091
10916
1092
1092000
1093
1093000
1094
1095
10953
1096
10965
1097
10985
1099
10992
10993
11
110
1100
11000
110000
1101
11010
11027
1103
11034
1104
1105
1105000
11051
11052
1106
1107
11072
1108
1109
111
1110
11100
1111
1112
11120
1113
11132
1114
1115
11153
1116
1117
11174
11177
1118
11180
11186
1119
112
1120
11200
112000
11206
1121
1122
1123
1124
11244
11247
1125
1126
11260
1127
1128
1129
113
1130
11300
113000
1131
11315
1132
1133
1134
1135
1136
1137
11370
11371
1138
1139
114
1140
11400
114000
1141
11412
1142
1143
11439
1144
11449
1145
1146
1147
1148
1149
115
1150
115000
11503
1151
1152
1153
1154
11546
1155
1156
11561
1157
1158
116
1160
11600
116000
1161
1162
1163
1163000
1164
1165
11651
11652
11653
1166
11660
1167
1167000
11675
1168
1169
117
1170
11700
117000
11707
1171
1172
1173
1174
1175
1176
11766
1177
11777
1178
1179
11792
118
1180
11800
118000
11801
11812
11814
1182
1183
1184
1185
11854
1186
1187
11875
1188
1189
11898
119
1190
11900
119000
11908
1191
11918
1192
11924
1193
1194
1195
11955
1196
1197
11973
1198
11980
1199
12
120
1200
12000
120000
120044418
1201
1202
12025
1203
1204
1205
1206
12062
12064
12065
1207
12070
12078
1208
1209
121
1210
121000
1211
12110
1212
1213
12137
1214
1215
1216
1217
1218
1219
12199
122
1220
12200
122000
1221
1222
1223
1224
1225
1226
1227
1228
1229
12291
123
1230
12300
123000
1231
1232
1233
1234
12345
123456
12345678
1235
12355314
1236
1237
1238
1239
124
1240
12400
1241
1242
1243
1244
1245
1246
1247
12471
1248
12482
1249
12494
125
1250
125000
12501
1251
1252
1253
1254
1256
1257
1258
12589
1259
12595
126
12600
126000
1261
12614
1262
1264
1265
1266
1267
1268
1269
127
1270
127000
1271
12719
1272
1273
12734
1274
1275
1276
12769
1277
1278
12789
1279
12797
128
1280
12800
128000
12802
12806
1281
12815
1282
1283
1284
1285
1286
1288
12893
129
1290
12900
129000
1291
1292
129207
1293
1295
1296
1297
1298
1299
12998
13
130
1300
130000
1301
1302
1303
1304
1305
1306
1307
1308
1309
131
1310
131000
1311
1312
13121
1313
1314
13146
1315
1316
1317
1318
132
1320
132000
1321
1322
1323
1324
1325
1326
1327
1328
13281
1329
13293
133
13300
1331
1332
1333
1334
1335
13358
1336
1337
1338
13389
1339
13395
134
1340
134000
13405
1341
13414
1342
1343
1345
1346
1347
1348
1349
135
1350
1351
1352
13529
1353
1354
1355
1356
1357
1358
1359
136
1360
1361
1362
1363
1364
1365
1366
13661
13670
1368
1369
137
1370
13700
137000
1371
1372
1373
13734
1374
1375
1376
1377
1378
13788
138
1380
1381
1382
13823
13824
1383
1384
1385
1386
1387
1388
1389
139
1390
13900
1391
1392
1393
1394
1395
1397
1397000
1398
1399
14
140
1400
14000
140000
14005
1401
1402
1403
1404
1405
1406
1407
1408
14085
1409
141
1411
1412
1413
1414
1415
1416
1417
1418
1419
142
1420
142000
1421
14211
1422
1423
1424
1425
1427
1428
1429
143
1430
1431
1432
1433
14330
14331
1434
1435
14350
1436
1437
1438
1439
144
1440
14400
1441
1442
1443
1444
1445
1446
1447
1448
1449
145
1450
14500
145000
1451
1453
1454
1455
1456
1457
1458
1459
146
1460
1461
1462
1464
1465
1466
14666
1467
1468
1469
147
1470
14700
1471
1472
1473
1474
1475
1476
14761
1477
1478
1479
148
1480
14800
1481
1482
1483
1485
1486
1487
1488
1489
149
1490
1491
1492
1493
1494
14947
1495
1496
1497
14973
1498
1499
15
150
1500
15000
150000
15008
1501
1502
1503
1504
15047
1505
1506
15063
1507
1508
1509
15097
151
1510
15100
151000
1511
1512
1513
1514
1515
1516
1517
1518
1519
152
1520
15200
152000
1521
15218
1522
1523
1524
15249
1525
1526
1527
1528
1529
153
1530
15300
1531
1532
15323
1533
1534
1535
15356
1536
1537
1538
1539
154
1540
154000
1541
1542
1543
1544
1545
1546
1547
1548
1549
155
1550
15500
155000
1551
1552
15529
1553
1554
1555
1556
1557
1558
1559
156
1560
156000
1561
15616276
1562
15623
1563
156376
1564
1565
156500
1566
1567
15679
1568
1569
157
157000
1571
1572
15726348
1573
1574
1575
1576
1577
1578
1579
158
1580
15800
158000
1581
1582
1583
1584
1585
15851
1586
1587
1589
159
1590
15900
1591
1592
1593
1594
1595
1596
15966
1597
1598
1599
16
160
1600
16000
160000
1601
1602
1603
1604
1605
1606
1607
1608
1609
161
1610
16100
161000
1611
1612
1613
1614
1615
1616
1617
16177
1618
1619
162
1620
16200
162000
1621
1622
1623
1624
1625
1626
1627
1628
1629
163
1630
1631
1632
1633
1634
1635
1636
1637
1638
1639
164
1640
16400
164000
1641
1642
1643
1644
1644241313
1644888810
1645
1646
1647
1648
16485
1649
165
1650
16500
165000
1651
1652
1653
1654
1655
1656
1657
1658
1659
166
1660
166000
1661
16616
1662
1663
1664
1665
1666
1667
1668
1669
167
1670
167000
1671
1672
1673
1674
1675
1676
1677
1678
1679
168
1680
16800
1681
1682
1683
1684
16847
1685
16857
1686
1687
1688
1689
169
1690
16900
1691
1692
1693
1694
1695
1696
1697
1698
1699
17
170
1700
17000
170000
1701
1702
1703
1704
1705
1706
1707
1708
1709
171
1710
171000
1711
1712
1713
1714
1715
1716
1717
1718
1719
172
1720
1721
1722
1723
1724
1725
1726
1727
1728
1729
173
1730
1731
1732
1733
1734
1735
1736
1737
1738
1739
174
1740
174000
1741
1742
1743
1744
1745
1746
1747
1748
1749
175
1750
17500
1751
17515
1752
1753
1754
1755
1756
1757
1758
1759
176
1760
1761
1762
17623
1763
1764
1765
17656
1766
1767
1768
1769
177
1770
17700
177000
1771
1772
1773
17734
1774
1775
1776
1777
1778
1779
178
1780
178000
1781
1782
1783
1784
1785
1786
1787
1788
1789
179
1790
179000
1791
1792
1793
1794
1795
17958
1796
1797
1798
1799
18
180
1800
18000
180000
1801
1802
1803
1804
1805
1806
1807
1808
1809
181
1810
18100
1811
1812
1813
1814
1815
1816
1817
1818
1819
182
1820
1821
1822
1823
1824
1825
1826
18261
1827
1828
1829
183
1830
183000
1831
1832
1833
1834
1835
1836
1837
1838
1839
184
1840
1841
1842
1843
1844
1845
1846
1847
1848
1849
185
1850
1851
1852
1853
1854
1855
1856
1857
1858
1859
186
1860
186000
1861
1862
1863
1864
1865
1866
1867
1868
1869
187
1870
1871
1872
1873
1874
1875
1876
1877
1878
1879
188
1880
188000
1881
1882
1883
1884
1885
1886
1887
18872
1888
1889
189
1890
1891
1892
1893
1894
1895
1896
1897
1898
1899
19
190
1900
19000
1901
1902
1903
1904
1905
1906
1907
1908
1909
191
1910
19100
1911
1912
1913
1914
1915
1916
1917
19173
1918
1919
192
1920
19200
192000
1921
1922
1923
1924
1925
1926
1927
1928
1929
193
1930
1931
1932
1933
1934
1935
1936
1937
1938
1939
194
1940
194000
1941
1942
1943
1944
1945
1946
1947
1948
1949
195
1950
19500
1951
1952
1953
1954
1955
1956
1957
1958
1959
196
1960
196000
1961
1962
1963
1964
1965
1966
1967
1968
1969
197
1970
19700
1971
1972
1973
1974
1975
1976
1977
1978
1979
198
1980
198000
1981
1982
1983
1984
1985
1986
1987
1988
1989
199
1990
1991
1992
1993
1994
1995
19954077001
1996
1997
1998
1999
2
20
200
2000
20000
200000
2001
20013
2002
2003
2004
2005
2006
2007
2008
2009
201
2010
20100
2011
2012
2013
2014
2015
2016
2017
2018
2019
202
2020
20200
202000
202015
2021
2022
2023
2024
2025
2026
2027
2028
2029
203
2030
20300
2031
2032
2033
2034
2035
2036
2037
2038
2039
20399
204
2040
2042
2043
2044
2045
2046
2047
2048
2049
205
2050
2051
2052
2053
2054
2055
2056
2057
20575
2058
2059
206
2060
2061
2062
2063
20631656
2064
2065
2066
2067
2069
207
2070
207000
2071
2073
2074
2076
2077
2078
2079
207987840001732
208
2080
208000
2081
2082
2083
2085
2086
2087
2088
2089
209
2090
209000
2091
2092
2093
2094
2095
2096
2097
2098
2099
21
210
2100
21000
2101
2103
2104
2105
2106
2108
2109
211
2110
211000
2111
2112
211274
2113
2114
2115
2116
2117
2118
2119
212
2120
2121
2122
2123
2124
2125
2126
2127
2128
2129
213
2130
213000
2131
2132
2133
2134
2135
2136
213660
2137
2138
2139
214
2140
214000
2142
214286
2143
2144
2145
2147
2148
2149
215
2150
215000
2153
2154
2155
2157
2158
2159
216
2160
2161
2162
2164
2165
2167
2168
2169
217
2170
217000
2171
2172
2173
2174
2175
2176
2177
2178
218
2180
2182
2183
2184
2185
2186
2188
2189
219
2190
219000
2191
2192
2193
21935
2194
2195
219523
2196
2198
2198484
22
220
2200
22000
220000
2201
2202
2203
2205
220509
2206
2207
2209
221
2210
2211
2212
2214
2215
2216
2217
2218
22187
2219
222
2220
222000
2221
2222
2224
2225
2226
2227
2228
2229
223
2230
22300
2231
2232
2233
2234
2235
2236
2237
2238
2239
224
2240
224000
2241
2243
2244
2245
2246
2247
2248
2249
225
2250
2251
2253
2254
2255
2256
2257
2258
2259
226
2260
226000
2261
2262
2263
2264
2265
2266
2267
2269
227
2270
2271
2272
2275
2276
2277
2278
2279
228
2280
228000
2281
2282
2283
2284
2285
2286
2287
2288
2289
229
2290
229000
2291
2292
2293
2294
2295
2296
2297
2298
2299
23
230
2300
23000
23001
2301
2302
2303
2304
2305
2306
2307
2308
2309
231
2310
23100
231000
2311
2312
2313
2314
2316
2317
2318
232
2320
23200
232000
2321
2322
2324
2326
2327
2328
2329
233
2330
233000
2332
2334
2336
2337
2338
2339
234
2340
23400
234000
2341
2342
2343
2344
2345
23456789
2346
2347
2348
235
2350
2351
2352
2353
2354
2355
2356
2357
2358
2359
236
2360
236000
2361
2363
2364
2365
2366
2367
2369
237
2370
237000
23701
2371
2372
2373
2374
2375
2376
2377
2378
2379
238
23800
2381
2382
2383
2384
2385
2386
2388
2389
239
2390
239000
2391
2392
2393
2394
2395
2396
2398
24
240
2400
24000
240000
2402
2404
2405
2406
2407
2409
241
241000
2411
2412
2413
2414
2415
2415901
2416
2417
2418
2419
242
2420
242000
2421
2422
2423
2424
2425
2427
2428
243
2430
243000
2431
2433
2434
2435
2436
2437
2438
2439
244
2440
2442
2443
2444
244413
2445
2446
2447
2448
2449
245
2450
24500
245000
2451
2452
2453
2454
2455
2457
2458
2459
246
2460
24600
2461
2463
2464
2465
2466
2467
2469
247
2470
2471
2472
2474
2475
2476
2477
2478
2479
248
2480
24800
248000
2481
2482
2483
24841
2485
2486
2489
249
2490
2491
2492
2493
2494
2495
2496
2497
2499
25
250
2500
25000
250000
2501
2502
2504
2505
2506
2507
2508
25085
2509
251
2510
251000
2511
2512
2514
2516
2517
2518
2519
252
2520
252000
2521
2523
2524
2525
252520
25258
252580
252581
25259
2526
2528
2529
253
2530
2531
2532
2535
2536
2537
2538
254
2540
2542
2544
2545
2547
2548
2549
255
25500
2552
2553
2555
2557
2558
2559
256
2560
256000
2561
2562
2563
2564
2565
2567
2568
2569
257
2570
2571
2572
2574
2575
2576
2577
258
2580
2581
2582
2583
2585
2586
2587
2588
259
2590
25900
2591
2592
2593
2594
2595
2596
2597
2598
26
260
2600
26000
2601
2602
2603
2604
2605
2606
2607
2608
2609
261
2612
2613
2614
2615
2616
2617
2618
2619
262
2622
2624
2625
2626
2627
2629
2629164
263
2630
2636
2637
2638
264
2640
2641
2642
2643
2644
2645
2646
26461
2647
2648
2649
265
26500
265000
2651
2652
2654
2655
2656
2658
2659
266
2662
2665
2666
2668
2669
267
2670
26700
267000
2674
2676
2677
2678
2679
268
2680
2681
2682
2683
2684
2685
2687
2688
2689
269
2690
26900
2691
2692
2693
2694
2695
2696
27
270
2700
27000
270000
2703
2706
2707
2708
2709
271
2710
27100
2713
2715
2717
272
2720
27200
2721
2722
2723
2724
2726
2727
2728
273
2730
2731
2732
2733
2734
2735
2736
2737
274
2740
2744
2746
2747
27478
2749
275
27500
2753
2757
2759
276
2760
276000
2761
2762
2763
2764
2769
277
2772
2773
2774
2777
2779
278
2780
278000
2781
2782
2783
2784
2785
2786
2788
278800
2789
279
2790
279000
2791
2792
2794
2797
2798
2799
28
280
2800
280000
2801
2802
2803
2804
2804309
2805
2806
2807
2808
2809
281
2810
28100
281000
2812
2813
2814
2816
2818
282
2820
282000
2823
2825
2827
2828
2829
283
2830
283000
2831
2836
2838
2839
284
2840
284000
2842
2843
2844
2846
2847
2848
2849
285
2850
2851
2853
2854
2855
2857
2858
2859
286
2860
28600
286000
2861
2862
2864
2865
2867
2868
2869
287
2870
28700
287000
2871
2872
2874
2875
288
2880
28800
2882
2883
2886
2887
2888
289
2890
289000
2893
2894
2895
2896
2897
29
290
2900
29000
290000
2901
2903
2904
2908
2909
291
2910
2911
2914
2915
2916
2917
2918
2919
292
292000
2923
2924
2925
2926
2927
293
293000
2931
2934
2935
2936
2939
294
2940
29401
2941
2942
2943
2944
2945
2947
2949
295
2950
2952
2953
2954
2955
2957
2958
2959
296
296000
2963
2964
2968
2969
297
297000
2971
2972
2973
2975
2976
2977
2978
2979
298
2980
2983
2985
2986
2987
2989
299
2990
29900
299000
2991
2992
2993
2999
3
30
300
3000
30000
300000
3001
3002
3003
300318
3004
3005
3006
3007
3008
301
3010
3011
3012
3013
3015
3016
3017
3018
3019
302
3020
302000
3021
3022
3024
3025
3026
3027
3028
3029
303
3030
3031
3032
3033
3034
3035
3036
3037
3038
304
3040
3041
3043
3044
3045
3046
3047
3048
3049
305
3050
3053
3054
3056
3057
3059
306
3060
306000
3062
3065
3066
3067
3068
3069
307
3070
3073
3075
3078
3079
308
3080
308000
3081
3082
3083
3084
3085
3086
3087
3088
3089
309
3090
3091
3092
3093
3094
3095
3096
3099
31
310
3100
31000
310000
3101
3102
3104
3105
3106
3107
3108
3109
311
311000
3116
31165
31167
31181
312
3120
312000
3121
3123
3124
3126
313
3130
313000
3131
3132
3137
31377
3138
3139
314
314000
3141
3142
3143
3145
3147
3149
315
3150
315000
3151
3152
3154
31558
3156
3157
316
316000
3161
3162
3165
3166
3169
317
3171
3174
3177
3178
318
318000
3182
3183
3185
3186
3188
319
3190
319000
3192
3193
3194
3195
3196
31964
3197
3199
32
320
3200
32000
320000
3202
3208
321
3210
32100
321000
3211
3212
3215
3216
3217
32172
322
322000
3221
3222
3223
3224
3226
3227
323
3230
3232
3233
3235
3236
3238
324
3240
324000
3241
3242
3246
3247
3249
325
3250
325000
3253
3254
3255
3256
3257
3258
3259
326
3260
326000
3261
3262
3263
3264
3265
3269
327
327000
3271
3273
327500
328
328000
3281
3283
3285
3286
3288
3289
329
3291
3294
3295
3296
3297
3298
3299
33
330
3300
330000
3301
3303
3304
3305
3307
331
331000
3313
3314
3316
3317
3319
332
33207
3321
3322
3324
3327
333
3330
333000
3331
3335
3336
3337
3338
3339
334
3340
3342
3343
3344
3347
335
3352
3356
3358
3359
336
3362
3363
3365
3366
3367
3368
337
3372
3376
338
338000
3385
3387
339
3390
339000
3392
3393
3394
3395
3396
3397
3398
3399
34
340
3400
34000
340000
34011
3402
3404
3406
341
3410
34100
3412
3414
3417
3418
3419
3419343
342
3420
342000
3422
3423
3427
3428
3429
343
3430
34300
343000
3431
3432
3434
3438
344
344000
3443
3444
3445
3446
3447
3448
345
34500
345000
3452
3454
3456
345678910
3457
346
34600
346000
3461
3469
347
347000
3471
3473
3475
3476
348
348000
3481
3484
3485
3486
3488
3489
349
3493
3495
3498
3499
35
350
3500
35000
35005
3501
3502
3508
351
351000
3511
3512
3519
352
352000
3522
3523
3524
3525
3526
3528
353
35300
353000
3533
3535
3536
3537
3538
3539
354
3540
3541
3542
3543
3545
3546
3547
3548
355
3550
35500
3551
3552
3554
3555
3556
356
35600
356000
3564
3565
3567
357
3570
3573
3574
3575
3576
3577
358
35800
3585
3587
359
3591
3593
3594
3597
3598
36
360
3600
36000
3603
3606
3607
3608
361
361000
3612
3619
362
36200
3624
3625
3627
363
363000
3632
3633
3634
3636
3637
3639
364
364000
3642
3645
3646
3647
365
365000
3651
3654
3655
3657
3659
366
3660
366000
3663
3665
3666
3667
367
367000
3672
3673
3674
3675
3677
3678
368
368000
3681
3684
36864
3687
3689
369
3693
3695
3696
3699
37
370
3700
37000
370000
3701
3702
3704
3709
371
371000
3719
372
3721
3726
3727
3728
373
3731
3732
3733
3736
3737
37371
374
3743
3745
3746
3747
3748
375
3752
3755
376
376000
3761
3762
3763
3764
3765
3766
377
3770
377000
3771
3774
3779
378
3781
3783
3786
3789
379
3791
3793
3794
3795
3799
38
380
3800
38000
3802
3804829
3805
3806
3807
3809
381
38100
3817
382
3820
38200
3827
3829
383
3830
3831
3833
3834
3835
3837
384
384060
3843
3845
3849
385
3851
3852
3858
386
386000
3863
3867
3868
3869
387
3872
3874
3875
3876
3877
3879
388
38800
388000
3883
3884
3886
3887
3889
389
3892
3897
3899
39
390
3900
3904
3905
3909
391
3913
3915
3916
3919
392
392000
3921
3923
3925
3926
3928
393
3932
3933
3937
3938
3939
394
39400
3941
3944
3946
3947
3949
395
39500
3954
3956
3957
3958
396
3962
3963
3964
3967
3969
397
3975
3976
3978
39794
398
3980
3987
399
3990
3992
3993
3994
3996
3998
4
40
400
4000
40000
400000
4001
4003
4005
4006
4007
401
40100
4013
4014
4017
4018
4019
402
4020
4021
4022
4023
4024
4026
4027
4029
403
40300
4031
4035
4037
4038
4039
404
40400
4041
4043
4045
4048
405
4052
4054
4056
406
4060
406000
4062
40629
4065
4066
407
407000
4071
4073
4074
4079
408
408000
4081
4083
409
40900
4094
4099
41
410
4100
41000
4105
4106
4107
4109
411
411000
4112
4115
412
41200
4121
413
41304
4132
41385
4139
414
4140
4143
4147
4148
415
415000
4157
416
4160
4161
4163
4165
4169
417
4175
4179
418
4183
4185
4186
419
4192
4193
4197
42
420
4200
420000
4203
4208
4209
421
421000
4212
4217
422
4220
4221
4225
4226
4227
4228
423
4233
4237
4239
424
4245
4246
4248
425
4251
4252
4253
426
426000
4262
4266
4267
4269
427
4270
4278
428
4282
4286
4289
429
4292
4293
4299
43
430
4300
43000
430000
4301
4303
4304
4305
4306
4308
431
4313
4314
4315
4317
4319
432
432000
4321
4324
4326
4327
433
433000
4331
4332
4333
4336
4337
434
4340
4343
4344
4346
4347
4348
435
4350
435000
43527
4354
4355
4357
4359
436
4362
4364
4365
437
4370
4374
4375
4376
438
438000
4381
4386
4387
439
4395
4396
4397
44
440
4400
44000
441
4412
4415
4416
4418
442
442000
4421
4423
443
4431
4433
4437
444
4440
444000
4444
4449
445
4451
4453
446
4469
447
447000
4472
4474
4478
4479
448
4481
4483
4484
4486
4489
449
4490
449000
4492
4493
4499
45
450
4500
450000
4501
4503
4508
451
4515
4516
4517
452
452000
4523
453
4537
454
4540
454000
4548
4549
455
455000
4551
4552
4554
456
4560
456000
4561
4567
457
4570
458
458000
4585
4587
459
459000
4597
4599
46
460
4600
4605
4606
461
4610
46100
4617
4619
462
463
4632
4637
46372
4638
464
464000
4641
4645
4646
4647
465
465000
4654
4659
466
4661
467
4676
4677
4678
468
4688
4689
469
469000
4693
4696
47
470
4700
47000
47054
471
4712
4716
4718
472
4720
472000
4721
473
473000
4735
474
4740
474000
4747
475
4756
4757
4759
476
4765
4769
477
4775
4779
478
478000
4781
4782
4783
4786
4788
479
4790
4791
4794
48
480
4800
4803
4804
4808
4809
481
4816
4817
482
4821
4823
4824
4825
4827
4828
483
4830
4834
4835
4839
484
4841
4843
4848
485
4851
4855
4857
4859
486
486000
4861
4865
4866
487
4870
48700
4872
4873
4876
4877
488
4881
4884
489
4890
4893
4897
4899
49
490
4900
49000
4904
4907
4908
4909
491
491000
4916
492
4923
4924
4929
493
493000
4936
494
494000
4943
4947
4949
495
4950
495000
4955
4957
496
496000
4963
497
4972
4976
4977
498
499
4990
499000
4994
4997
4998
5
50
500
5000
50000
500000
5003
5004
5005
501
5011
5012
5015
5016
5019
502
502000
5026
5027
5028
503
5030
50300
5032
5033
5036
5039
504
5040
504063
5041
5042
505
505000
5055
5056
5057
5059
506
5060
5061
5062
5063
5065
5067
507
5070
5073
5075
5076
5077
5078
5079
508
508000
5081
5086
509
509000
5093
5094
5095
5096
51
510
5100
510000
5101
5103
5104
5105
5106
5107
511
511000
5113
5114
5118
5119
512
512000
5122
5125
5129
513
5132
5133
5136
5137
5139
514
5145
5146
5147
5148
515
5150
51555
5158
516
516000
5162
5163
5164
5169
517
5170
518
5181
5185
519
5195
52
520
5200
52000
520000
5202
5203
5205
5206
5207
5208
521
521000
5211
5212
5213
5214
5215
5218
522
523
52300
5231
5236
5238
5239
524
5242
5244
5245
5247
525
5250
525000
5252
5254
526
5267
527
5271
5275
5277
528
5281
5284
5289
529
5290
529000
5294
5296
5297
53
530
5300
530000
5302
5305
531
5310
53100
5312
5313
532
5322
5327
5329
533
5330
5333
5338
534
5340
5344
5345
5347
5348
535
535000
5355
5357
5358
5359
536
5362
5365
5369
537
5378
538
538000
5389
539
5390
5391
5397
54
540
5400
54000
5402
5404
5406
5409
541
5410
5415
5417
5418
5419
542
5421
5425
5428
543
5431
544
5440
5441
5444
5449
545
5456
5458
5459
546
5464
5467
547
5472
5473
5478
548
5483
5484
549
5493
5494
5498
55
550
5500
55000
5504
5505
551
5511
5513
5516
5517
552
5520
552000
5522
5523
5524
553
5531
5533
5534
5538
554
5540
5547
5549
555
5550
555000
5551
5552
5553
556
5564
5567
55685
5569
557
557000
5572
5574
558
5587
559
5591
5599
56
560
5600
56000
5601
5604
561
5610
56100
5612
5615
5619
562
5620
5622
5629
563
5630
5631
5632
5636
5637
564
5642
5644
5646
565
5657
5659
566
567
5673
5676
5677
5678
568
5682
5687
568769
569
5691
5698
57
570
5700
57000
5703
5704
571
5710
5713
5716
5718
572
5726
5727
5728
5729
573
5732
5734
57340
5735
5739
574
5747
575
5750
5751
5753
5758
5759
576
576000
5762
5763
5765
5766
5767
577
5770
5771
5775
5778
578
5783
5784
5787
5789
579
5790
579000
5798
58
580
5800
58000
5803
5805
5806
581
582
583
5835
584
5849
585
5850
5851
5851582170
5856
5857
5858
5859
586
5866
5867
587
5871
588
5884
5886
589
5892
5895
59
590
5900
59000
5907
591
591000
592
5921
5922
5923
5927
593
5931
5934
5935
594
5946
5947
5949
595
5951
5954
5955
596
5960
597
5970
5971
598
5980
5983
5984
5985
5986
599
5993
5998
5999
6
60
600
6000
60000
600000
6001
601
6012
6019
602
6020
602243
603
6034
604
6040
6044
605
6053
6055
606
6063
607
6071
6072
608
6080
6087
609
6091
6097
61
610
61000
611
6112
6114
6115
612
6120
612000
613
61329
614
61400
614000
6141
6148
615
61500
615000
6155
6156
616
6160
6163
6166
617
6171
6174
618
6182
6186
6188
6189
619
619000
6194
6197
62
620
62000
6207
6208
621
6210
6214
6218
622
623
623000
624
625
625000
6253
6257
626
6266
6269
627
6272
6273
6279
628
629
6296
6297
63
630
6300
63000
6303
6305566
631
631000
6312
6315
632
633
6339
634
635
635000
6359
636
6362
6365
637
63700
637000
6374
6377
638
639
639000
6393
64
640
64000
640000
6404
6406
641
642
6421
6428
6429
644
6441
645
646
6461
6465
647
647000
6478
648
648000
649
6492
6494
65
650
6500
6502
651
6514
6517
652
6523
6528
653
6530
6532
6539
654
654000
655
6554
656
6567
657
6573
6576
658
6582
6583
6588
659
6590
66
660
6600
6605
661
661000
6611
662
6620
6625
663
6632
6636
664
6641
665
6657
666
667
6675
6678
668
6680
6688
669
6691
67
670
6701
6705
671
6711
6715
672
6726
6729
673
6734
6739
674
6744
675
6754
676
6760
6763
6765
677
6770
6771
6775
6779
678
6780
6783
6784
679
679000
68
680
68000
6803
681
6810
6812
6818
682
6824
683
6835
6837
684
685
6850
6859
686
6862
6865
687
688
6880
6882
6887
6888
689
6892
6897
69
690
6900
691
6914
6919
692
6927
693
6937
694
6942
695
6959
696
697
698
6983
699
6999
7
70
700
7000
70000
701
7017
702
7020
7023
703
704
705
7054
7057
706
7060
707
708
7080
7084
709
71
710
7100
7102
711
7112
7115
712
7129
713
714
715
7152
7153
716
7163
717
7171
7174
7179
718
719
72
720
7200
72000
721
7219
722
723
7231
724
7249
725
72526
7258
726
7265
7268
727
7277
72777
728
7288
7289
729
7292
7294
7299
73
730
73000
731
7314
7316
7318
732
7327
7328
733
734
7343
735
7352
736
7362
7365
7369
737
7370
7371
7378
738
7389
739
7397
74
740
74000
7405
7409
741
742
742000
743
7430
7437
7439
744
7447
7448
745
7450
7454
746
7463
7468
747
7471
7473
748
7489
749
7492
75
750
7500
75000
751
7518
7519
752
753
7530
7533
754
754454
755
7551
756
757
758
7583
758471
7588
759
76
760
7600
76000
761
7618
762
7620
763
7633
7637
764
7647
765
7659
766
767
7671
768
7683
769
7691
7698
77
770
7700
77000
7708
771
7710
7712
7715
772
773
7737
774
7744
7749
775
7759
776
7769
777
778
7780
7786
779
7795
78
780
78000
781
7817
782
7824
783
784
7843
785
7854
786
787
788
789
7899
79
790
79000
791
791360
7918
792
7925
793
794
795
796
7970
7976
798
7986
799
7998
8
80
800
8000
8006
801
8018
802
803
8034
804
8047
805
806
8067
807
808
8086
809
81
810
8100
81000
811
8112027
812
8121
813
814
815
816
8165
8168
817
8178
818
819
82
820
8200
82000
821
822
8229
823
8233
824
825
8258093
826
827
828
829
8299
83
830
83000
831
8310
832
833
8336
8337
8338
834
835
836
837
8377
838
839
8393
84
840
84000
8403
841
8417
842
843
8438
844
8446
845
8456
8457
846
847
848
8481
849
85
850
8500
851
8519
852
853
8536
8537
854
855
856
8569
857
858
859
8590
8591
8596
86
860
8600
86000
8601
8608
861
862
8629
863
864
8641
8646
865
866
867
8676
868
8680
869
87
870
87000
8703
871
872
8728
873
8731
87317
874
875
876
877
877000
8772
8778
8779
878
879
8798
88
880
8800
881
881000
882
883
8837
884
8849
885
8859
886
887
888
889
89
890
8900
891
892
893
894
8944
89476
895
896
8962
8966
897
8972
898
898000
899
8990
8995
9
90
900
9000
90000
900000
901
902
9029
903
903000
904
904000
9043
905
9051
906
9061
9062
9063
9068
907
908
9080
9088
9089
909
91
910
9100
91000
911
912
9120
913
914
915
916
917
9172
918
9185
919
92
920
9200
92000
921
9216
922
9222
923
924
924000
9246
925
926
9264
927
9276
928
929
9292
93
930
9300
93000
9302
9306
9309
931
932
933
934
935
936
9362
937
9378
938
938726
939
94
940
9400
941
942
9422
9427
943
944
945
9458
946
947
948
949
95
950
9500
95000
951
9510
9515
952
9529
953
9535
954
955
956
957
958
959
959000
96
960
9600
96000
961
9610
962
963
964
9641
965
966
967
9672
968
969
97
970
9700
97000
971
972
9725
973
9749
975
976
977
9777
978
9787
979
98
980
98000
981
982
9826
9829
984
9843
985
986
9860
9862
987
988
989
99
990
991
992
993
994
995
996
9964
997
998
999
999000
9998
9999
999999
:
;
<
=
>
?
@
\
^
_
`
a
aa
aaa
aaude
ab
abandoned
abap
abbr
abendsonne
ablon
ablono
about
above
abovestyle
abs
absolute
absorption
ac
academic
acanthamoebidae
acantharia
acanthoecidae
acb
accepted
accepts
access
accessdate
accessed
accessyear
accumsan
accusative
acd
ace
acidobacteria
acme
acr
across
act
actinobacteria
action
actions
actionscript
active
activeusers
actm
actual
actualdate
actualdateboundariesproperties
ad
ada
adam
add
addcat
addclass
added
addition
additional
addkey
addnas
addnewline
addpipe
addpreambula
addres
address
adds
addslice
addstatuses
addstatusesarms
addstatusesfinal
addtable
addtext
addyear
adg
adipiscing
adjust
adjusted
adl
adm
admcenter
admcenterexist
admcentername
administrators
admins
advanced
ady
ae
aenean
aerial
af
afab
afar
africa
african
africana
africano
after
afterparam
ag
again
against
agama
age
ageimpl
agnomen
agra
ah
ai
aid
aif
air
airport
ak
al
alaska
alba
album
alcedo
alces
aleph
alexa
algol
algorithm
ali
alias
aliases
aliaseslist
align
alike
aliquam
aliquet
all
allcat
alleseiten
allied
allmovie
allmusic
allocine
allow
allowblankparams
allowed
allowing
allows
allowsmall
allowtables
allpages
allpropertyclaims
allsnaks
alpha
alphabetstatus
alphaproteobacteria
already
als
also
alt
alter
although
alto
altstadt
always
am
amber
ambox
american
amet
ami
amire
among
amount
amsterdam
amu
an
anchor
anchorencode
anchorsi
and
ang
angeles
angle
anidb
animal
animales
animali
animalia
animals
animated
animation
anime
animedb
animenewsnetwork
another
ansicht
antarctica
ante
anum
any
anything
ao
aobase
aonb
ap
apache
apatura
api
appear
appears
append
appendimpl
appendqualifiers
appendsnaks
appendtimestamp
appendtocategory
apple
applescript
applications
apply
apps
apr
april
apsnyteka
apt
aqpk
aqua
aquificae
ar
arabia
arabic
aral
arashiyama
arc
arcdate
archaeoglobi
archaeplastida
architect
archive
archived
archivedate
archives
archiveurl
arclink
arctic
arcu
are
area
areaplace
areas
aren
arg
argkeys
argname
argnumber
args
argsarg
argsi
argsii
argsindex
argsitem
argsk
argskey
argsname
argsnumcell
argsnumdata
argsnumrecord
argsnumredirects
argsparam
argsprefix
argsstep
argstempstring
argsv
argtables
argtableval
argument
arguments
aria
ariel
ark
arm
armeniaca
arms
armsgen
armstorender
army
around
arr
array
arraydatas
arrayfd
arraypopcur
arraypopcurv
arrayreg
arrayru
arraytemps
arraytempsv
arraytocheck
arrives
art
arthur
article
articlecount
articles
articlestsaritsyn
artist
artists
arxiv
ary
arz
as
ascii
asgroups
asia
ask
asm
asp
aspekt
aspx
assertnotnull
assigned
associated
assume
ast
aster
astranet
asv
asymptote
at
ateles
athlete
athletes
athletics
atj
atlas
atleta
atthis
attr
attributes
attribution
attrs
attrstring
au
audio
auf
aug
augue
august
australia
aut
author
authority
authoritycontrol
authorlink
authormain
authorname
authors
auto
autocollapse
autocollapsed
autoconf
autoheaders
autohotkey
autoit
automatically
autotype
autovalue
av
available
avec
aves
avisynth
avk
avoid
aw
awa
award
awarddata
awardentity
awardfields
awardid
awardorder
awards
awardsorder
awardtype
awardtypes
awb
awk
ax
axtypara
ay
az
azb
azerbaijan
b
ba
babel
baby
bacilli
background
backtranslate
backwards
bacteria
bacteroides
bacteroidetes
bad
badge
badges
badtwins
bahi
ballet
baltimore
ban
bananas
band
bank
banner
bar
barcelona
barchart
barheight
barwidth
bary
bas
bascomavr
base
baseball
based
baseresult
basestyle
bash
bashstat
basic
basket
basketball
bat
battle
bay
bb
bbc
bc
bcl
bcmark
bd
bdateend
bdatestart
bday
bdfutbol
be
beach
bear
because
bee
been
before
beforeparam
beginning
behalf
behavior
behaviour
behind
beilstein
being
beinn
bel
belarus
belfort
belief
below
belowstyle
bengal
benin
ber
bergtocht
berkenzwam
berlin
bernhardt
best
bestchange
beststart
beststop
beta
betaproteobacteria
better
betulinus
between
bez
bf
bg
bgcolor
bh
bho
bi
biathlon
biathlonrus
bibcode
biblioteca
biblioteka
bibtex
big
bigenc
bilingualism
bin
bingen
biografico
biography
biological
biology
birds
birth
bit
bj
bjn
bk
bl
black
blacklist
blagodarinskiy
blank
blanks
blender
blick
blitzbasic
blob
block
blockargs
blocklineconnectionx
blockposition
bloem
blood
blue
blueberries
bluemarble
blues
bm
bms
bn
bnf
bo
body
bodyclass
bodyrow
bodystyle
bold
bomb
bond
boo
book
books
bookseries
bookseriesentity
bookseriesissue
bookseriesvolume
booksite
bool
boolean
border
bot
botanical
both
bots
botsuana
bottom
bound
boundaries
boundariesi
bovinae
box
boxdate
boxes
boxtable
boxtype
bp
bprecision
bpy
bq
br
brachyteles
bracket
brackets
branch
brasil
break
bridge
brief
bright
brighton
brillonline
britain
britannia
britannica
british
brk
broadway
brown
browse
brt
brts
bru
brussels
bry
bs
bst
bstructure
bt
btable
btname
bua
buddha
budget
bug
build
builder
building
bulbus
bulgaria
bump
bumps
bunker
bur
burg
burung
bush
business
but
button
buttonlabel
bv
bvalue
bw
bx
bxdate
bxor
bxr
by
bytemplate
bz
c
ca
cache
cached
caddcl
cadlisp
caffer
cal
calatayud
calculateage
calculatedage
calculateenddatetimestamp
calculation
calendar
calendarmodel
california
call
callargs
called
callisto
callparserfunction
calls
callsite
camera
can
canada
canescens
canis
cannot
canonicalname
canorus
cant
canterbury
canvas
cap
capital
capitalid
capitalsnak
capitalsnaks
capofstate
caption
card
care
caricyna
carpenters
case
cases
castle
cat
catalana
catalog
catambiguousgeochains
cate
catedral
categori
categoria
categorie
categories
categoriesns
categorisation
categorise
categorizebyplace
category
categorybigcurrentage
categorybiographiesoflivingpersons
categoryhandler
categoryitem
categorylinkstoentitieswithmissinglabel
categorymanualwikification
categorynameprefix
categorynegativeage
categoryunknowndeathdate
catentity
catentityid
catholic
catloopingeochains
catmain
catname
cato
catonly
cats
catsitelink
cattemp
cattitle
cattolook
catwikibaseerror
cause
cavalier
cave
cb
cbk
cc
ccccff
ccd
ccf
cd
cdo
ce
ceb
cebus
cee
ceil
cell
cellcount
cellpadding
cells
cellspa
cellspacing
cellstyle
cellstylehide
center
centered
central
centralnotice
centre
century
cercomonadida
cercopithecidae
cercozoa
ceres
cet
cf
cfdg
cfe
cfg
cfgvalue
cfgvaluetype
cfm
cframe
cg
cgi
ch
cha
chain
chaiscript
chameleon
change
changer
changes
changeselectclaims
chao
character
characters
charon
chart
chartheight
chartwidth
che
chechen
check
checkaliases
checkelaliases
checker
checking
checks
checktype
checkvalue
chenille
chess
chicago
chicken
chief
child
childconnectionindex
childnode
childnodes
children
childwidth
china
chislennost
chislennosti
chlamydiae
chlorarachniophyta
chlorobi
chloroflexi
cho
choanomonada
chobe
chocolate
chopin
chr
christchurch
christian
christianity
christmas
chrysiogenetes
chrysomelas
chu
chupa
chups
church
chv
chy
ci
cia
cil
circle
circumstances
cite
citeref
citethispage
cithakan
cities
citoid
city
cityes
ckb
cke
ckt
cl
claim
claimid
claimranks
claims
claimspropertyid
class
classes
classical
classification
clean
cleannumber
clear
click
client
clinging
clojure
clone
cloneoptions
close
clostridia
clouds
club
cm
cmake
cmbox
cmp
cms
cn
cnt
cntendsmb
co
coa
coach
coaches
coalabel
coast
coat
coauthors
cobol
coccinella
code
codepage
codepoint
coders
codes
codesbyid
codonosigidae
coffee
coffeescript
col
colclass
colfooter
colgroup
colheader
colheaderstyle
collapse
collapsed
collapsible
collapsiblenumbers
collections
coln
colnfooter
colnfootercolspan
colnfooterstyle
colnheader
colnheadercolspan
colnheaderstyle
colnstyle
colnwidth
colon
color
colorarg
colors
colour
cols
colspan
colstyle
column
columns
colwidth
com
comata
come
comma
commands
commas
commemo
comment
commentedtext
comments
commodo
common
commonparentshorposition
commonparentsresult
commonparentsverposition
commons
commonsmedia
community
compact
company
compare
compatibility
competition
competitions
competitorid
complete
completely
complex
complexdate
composed
compresssparsearray
compute
computer
comu
concat
concatenated
concatstyles
concert
condition
conf
conference
config
configuration
congress
conjlist
conjunction
connect
connected
conor
cons
consectetuer
consequat
consider
considerasexists
considerasredirect
considered
consilium
consisting
console
constantia
constitution
container
containing
contains
content
contenthostingproperties
contentlanguagecode
contents
contes
context
contrast
contraststyle
contributions
control
conversiontosiunit
convert
converted
converting
converttodate
converttodatecommonpart
converttodatenewstylepart
cook
coord
coordinate
coordinates
coordinatespec
coords
coordscale
copy
copyargstosnaks
copydeepcopy
copyrendered
copyright
copyto
core
coredata
coregen
cornerdiv
coronavirus
corone
corvus
cos
cost
could
count
counting
countries
countrownum
country
countryentity
countryentityid
countryentityorid
countryflags
countryoptions
couple
covers
covid
cp
cpp
cq
cr
cras
cream
create
creategrouplist
creative
crenarchaeota
crh
cristatus
croatia
cropped
cross
crosses
cryptographic
cs
csb
csharp
css
csstext
cst
ct
ctat
cu
cuba
cuculus
cuesheet
cultural
cum
cup
curr
current
currententity
currentframe
currentindex
currentnumber
currenttitle
cursor
custom
customtitle
cv
cw
cx
cy
cyanobacteria
cyberleninka
cycle
cycles
cyprus
cz
d
da
dag
dagestan
dagestana
dalnem
dance
danilov
dapibus
dar
dark
dart
darwin
data
database
datalabel
datalength
datapage
datatype
datatypes
datavalue
date
datecat
dateclaims
datein
daten
datenbanken
dateofbirth
dateofcreation
dateofdeath
dateofpublication
dateout
datepart
dates
datesfromqualifier
datetime
datevalue
davich
david
day
days
daysiy
db
dbinet
dbscripts
dc
dcebff
dcl
dcpu
dcs
dd
ddateend
ddatestart
dday
ddddff
ddf
ddocx
de
dead
deadlink
deal
dealing
death
debug
dec
december
decimal
decimals
declension
decode
decoded
deepcopy
deezer
default
defaultinfobox
defaultkey
defaults
defaultstr
defcolor
deferribacteres
define
deg
degrees
deimos
deinococcus
del
delays
delete
deletion
delimiter
delink
delinklinkclass
delphi
delta
deltaproteobacteria
dem
demo
demodocus
demofunc
demograficheskaya
demograficheskih
demograficheskiy
demograficheskogo
demomodule
demonstration
demopage
demoscope
demospace
den
denmark
depending
deprecated
depth
der
des
desc
descent
descr
description
desde
design
desired
detag
detail
details
detect
detected
detects
deutsche
devpac
dewikisource
df
dg
dgpt
dh
dhttps
di
dia
dictionaries
dictionary
dictum
dictyoglomi
die
dies
diff
different
diffy
digital
digits
diliff
din
dinamika
dione
diq
dir
direct
direction
directly
directory
dis
disabled
disablewdlookup
disambig
disambiguate
disambiguationspage
disambiguator
disc
discogs
discussion
disinherit
disk
disp
display
displaycount
displaying
displays
displaytitle
dispterrcheck
disputed
dissernet
district
districtname
districtq
div
divend
division
dizionario
dj
djvu
dk
dm
dmdist
dms
do
doc
docs
document
documentary
documentation
documents
docx
does
doesn
doesnt
doi
doignore
doing
dolor
dolore
dom
don
done
donec
donepairs
donrumata
dos
dot
double
doubleredirects
down
dp
dpboxbase
dpboxempty
dpdf
dprecision
dq
dr
draft
draw
drawhead
drawn
dre
dream
driver
drone
dru
ds
dsb
dsc
dspl
dst
dstructure
dt
dtable
dty
du
due
dui
duis
duisburg
dump
duplicates
during
dusk
dv
dvalue
dw
dx
dy
dyr
dz
e
ea
each
eaecf
eaf
eagle
eao
early
earth
easier
east
eastern
easy
eat
eating
eb
ec
eclipse
ecmascript
econom
ecsocman
ect
ed
edcp
edirne
edit
edited
editintro
editintrobox
edition
editions
editnotice
editor
editpage
edits
edu
edward
edłoga
edłoha
ee
een
ef
effect
eg
eget
egret
egrnnum
egypt
eh
ehem
ehrenberg
ei
eiffel
einer
eishockey
either
ej
ek
el
electronic
eleifend
element
elementid
elements
elib
elibrary
elis
elit
elite
elizabeth
elizamag
else
elseif
em
email
embbordercss
embclass
emblem
embwidth
emend
eml
empire
empty
emptywikidataentity
emu
en
enable
enceladus
enciclope
enciclopedia
encode
encoded
encodedvalue
encyclopaedia
encyclopedia
encyclopædia
end
enddates
enddatetimestamp
endformat
ending
engine
england
engler
english
engr
enim
entamoebida
entities
entity
entityid
entityids
entityoptions
entityorid
entries
entriestolookupcategory
entriestolookupcategoryfor
entry
enwiki
enwikisource
eo
eol
epc
episodes
epops
epsilionproteobacteria
equal
equals
er
erlang
ernst
eros
err
errmsg
error
errorbox
errorcat
errors
errortext
eruption
es
esa
esc
escape
escapepattern
espan
espn
espritbleu
est
estados
estonia
et
etc
ethno
ethnologue
etiam
eu
eumycetozoa
euphoria
euro
eurobasket
euroleague
europa
europe
european
euryarchaeota
eve
even
evencolstyle
evenodd
evenstyle
event
ever
every
ew
ex
example
exampleargs
examplecode
examples
exampletitle
exceptions
exclude
excude
exist
existence
existing
exists
expand
expanded
expandspecialsqualifiers
expandtemplate
expected
expectstring
expensive
explicitly
explore
export
expr
express
expression
ext
extends
extension
extensiontag
externa
external
extra
extractcategory
ey
eye
ezh
ezhegodnik
f
fa
facebook
factbook
factor
failed
fair
fairuse
fakefathernode
fakemothernode
faktory
falcon
fall
fallback
falls
false
famberhorst
fame
family
fantlab
fargs
faroesoccer
fathersy
faucibus
fb
fc
fcrimea
fd
fdl
fdlist
fe
feature
featured
features
feb
february
federation
fee
feldweg
felis
female
feminism
femlabels
femoralis
festival
fetch
fetching
fetchvalue
fete
feugiat
few
ff
fff
fg
fh
fi
fiblock
fibrobacteres
fiction
field
fifa
figure
fil
file
filedefaultsize
filename
files
fill
filling
film
filter
filterbylanguage
filterbyrank
filtercapitalof
filtered
filteredclaims
fin
final
find
findclaimsbyvalue
finds
finished
firefox
fireworks
firmicutes
first
firstcatcell
firstcatflag
firstchar
firstinvokearg
firsttime
firstword
firstwordcat
fis
fish
fiu
five
fix
fj
fkhabarovsk
fkhabarovskiy
fl
flabellinea
flag
flagbegindate
flagclaims
flagimage
flagimagestatement
flaglabel
flags
flagstarttime
flashscore
flavobacteria
flex
flickr
flight
float
floatleft
floatright
floatstyle
floor
flu
flush
flying
fm
fmbox
fmediabank
fmod
fmt
fn
fo
focus
fog
fol
folk
folklore
following
font
fontcolor
fontsize
fontstyle
fontunit
foo
food
fooentity
foot
football
footballdatabase
footballfacts
footer
for
foradejogo
forall
forallimpl
foraminifera
force
forceaocheck
forceemptycategorization
foreground
forest
form
format
formatangle
formatcategories
formatcategory
formatcommonsmedia
formatcountryclaimwithflag
formatdatavalue
formatdate
formatdateimpl
formatdaterefclaim
formatentityid
formatentitywithgenderclaim
formatextension
formatexternalid
formatf
formatlangrefs
formatmath
formatn
formatnum
formatoneitems
formatoutput
formatplacewithqualifiers
formatproperty
formatpropertydefault
formatpropertyvalues
formatpropertywithmostrecentclaimandindicator
formatquantitywithdateclaim
formatredlink
formatredlinkwithinfobox
formatrefs
formats
formatsnak
formatsnakdeafult
formatstatement
formatstatementdefault
formatstatements
formatt
formatted
formattedcaption
formattedclaims
formatteddata
formattedkey
formattedredirect
formattedstatement
formatter
formatterfunction
formattest
formatting
formattquantityrefclaim
formattquantitywithoutrefclaim
formaturlimpl
formaturlsingle
formaturlvalue
formatvaluedefault
formatversionclaim
formdate
forsee
fortran
found
foundation
four
fq
fr
frac
fracpart
frame
frameless
frameonly
frames
framestr
frametable
framework
france
frankfurt
free
freebasic
freeswitch
frhdkazan
frica
friday
fringilla
frog
from
fromoccupation
front
frp
frr
fsharp
fstorage
fu
fuchsia
fuglar
full
fullcontent
fullname
fulltext
fullwidth
fun
func
function
functions
functiontocall
fupload
fur
fuscata
fusobacteria
fussballdaten
fy
g
ga
gadget
gag
gallery
gambas
game
games
gamespot
gan
gandhi
ganymede
ganz
garamond
garden
gate
gaugn
gb
gcr
gd
gdate
gdb
ge
gear
gelaltar
gemmatimonadetes
gen
gencat
gencatlink
gender
general
generate
generated
generatelink
generation
genero
genie
genigraves
genitive
genitivusmonthesnm
genitivusmonthesom
genius
genmunicipality
genstatus
genus
geo
geographic
geoinfobox
george
georgia
german
germany
gerrit
get
getallmedals
getallstatements
getarg
getargs
getbeststatements
getboolean
getcategory
getcategorybycode
getcode
getconfig
getcontent
getcontentlanguage
getcurrentframe
getcurrenttitle
getdate
getelementlink
getentity
getentityfromid
getentityidforcurrentpage
getentityidfortitle
getentityidsfromstatement
getentityobject
geterrormessage
getflag
getimagefromclaims
getimagefromentity
getimagelink
getlabel
getlabelwithlang
getlangcode
getline
getlinkdata
getlinkedtemplatenamerecursive
getmetatable
getn
getnamespaceparameters
getnodefunc
getparam
getparameters
getparammappings
getparamslist
getparent
getparentsinboundariessnak
getparentsinboundariessnakimpl
getpeopleasauthorwikitext
getpersonnameasauthorlabel
getproperty
getpropertydatatype
getpropertyinboundaries
getpropertyparams
getrefhtml
getregiondatas
gets
getsingle
getsinglestringqualifiervalue
getsisterprojectlink
getsitelink
getsourcingcircumstances
gettarget
gettaxpar
gettemplate
gettemplatename
gettext
gettimeboundariesfromproperties
gettimeboundariesfromqualifier
gettimeboundariesfromqualifiers
getting
gettitle
gettitleobject
gettt
getuserfunction
getvaluefromsnak
getwikiquotelink
getwikisourcelink
gewo
gf
gfdl
gfind
gg
gh
ghalgh
ghazæqi
gi
giant
gif
girl
github
given
gives
gje
gkeyfromval
gks
gl
glaciar
glacier
glass
glk
global
globalframe
globals
globe
globecoordinate
glossary
glsl
gmatch
gmcrosstata
gml
gn
gnd
gnu
gnuplot
go
god
goda
gods
gody
goes
going
gold
golden
goldschmidt
gom
good
goodflag
google
gor
gorie
goroda
gorodmo
gorodov
gorodskoe
got
gov
government
gpl
gr
grab
gran
graph
grateful
gray
grc
great
greater
greece
green
gregorian
grell
grey
grid
griffin
grifom
grin
gromia
groovy
group
groupbounds
groupdata
groupelements
grouplabel
grouplist
groupn
groupname
groupnames
groupnstyle
groups
groupschildaliases
groupstyle
groupwidth
großer
gsub
gu
guard
gub
gubernii
guess
guide
guru
gutenberg
guy
gv
gwbasic
h
ha
habstat
hack
haeckel
hak
halka
hall
halobacteria
hand
handball
handle
handler
hands
haplosporidia
happen
happy
harbour
has
hasadditionalqualifiers
hasfathers
hash
haskell
hasloop
hasmothers
hasnotdeprecated
haspreferred
haspreffered
hatnote
hausdu
have
having
haw
haxe
haystack
hcard
hd
hdr
he
head
header
headers
heading
headline
health
heart
heidelberg
height
heightwithfathers
heightwithmothers
hell
hello
help
helper
hence
hendrerit
henry
herbst
here
hero
heron
hertwig
het
hexadecimal
hh
hi
hibberd
hicest
hidden
hiddencat
hide
hidegrouplegends
hidepartoflabels
hidesamelabels
hideunitsforcapitals
hif
high
hill
hir
his
historic
history
hlist
ho
hockey
hof
holder
hole
holy
home
honey
hong
hopkins
horizontal
horpositions
hortus
hosei
hospital
host
hostdelimeterposition
hoststartposition
hotel
hour
hourmin
hours
house
hover
how
howard
however
hozyaystvo
hphrases
hpref
hq
hr
hrac
href
hs
hsb
hse
ht
htm
html
http
https
hu
hubblecast
hue
huge
hugo
human
hunga
hy
hydrologybook
hydrologycode
hyperion
hypoxanthus
hyw
hz
i
ia
iapetus
iat
ibdb
ice
iceland
ich
icon
ictv
id
idaslabel
ideas
ident
identities
idl
idr
ie
if
ifeq
ifexist
ifexists
ifexpr
ifnil
ifredirect
ifsc
ig
iglesia
ignore
ignoreblank
ignored
ignoredtypes
ii
iii
ik
il
ilezgalga
illhkomisc
illustration
ilo
im
image
imagecaption
imagecelldiv
imagecheckblank
imageclaims
imageclass
imageemptycell
imageemptycellstyle
imageformatted
imageleft
imageleftcell
imageleftstyle
imagelink
imagemap
imagephysical
imageright
imagerightcell
imagerightnone
images
imagesize
imagestyle
imagetemplate
imbox
imbricatea
imdb
img
imgwidth
impact
imperdiet
imperii
implement
implements
import
important
impression
improve
improvements
improving
in
inbord
incat
include
included
includemetatable
including
inclusion
incnis
incomplete
incorrect
ind
indent
index
indexed
indexing
indexo
indexowv
india
indicating
indicator
indices
inetlink
infiniteempty
info
infobox
infocard
infocardclass
infocards
infocardtemplate
inform
information
infty
ing
ingdate
ingouche
ingush
ingushetia
inh
inherit
inherits
ini
init
initcontext
initpos
injdate
inline
inlist
innamespace
innenraum
innerstyle
inno
input
insensitive
insert
insertfromsnak
inserttags
inside
insignia
inspect
instanceproperty
instead
institution
int
integer
intended
intercal
interface
interlaken
intermedia
internal
international
internet
interprojects
interval
interwiki
inthemiddle
into
intro
introduction
invalid
invalidtypeerror
invargs
invariant
inverse
inversed
inversion
invisible
invocation
invoke
invoked
inyear
io
iof
ip
ipa
ipairs
ipsum
ir
ira
iran
irbis
irc
ireland
irh
iris
irk
is
isabsorptionfound
isauthoritycontrol
isblank
isblockformatted
isbn
iscountry
isdate
isdeprecated
isempty
isfd
isfdb
isfemale
isfinished
isgoodformat
isimportantrank
isinstanceof
isinversed
islam
island
islands
ismatchlanguage
ismatchunit
isn
isnew
isni
isnotempty
iso
ispartdate
ispartofnext
isqualifierfound
israel
isranked
isrc
isredirect
isreferencedeprecated
iss
isskiptoplevel
issmall
issn
issubpage
issubsting
issubstituted
issue
issues
ist
istable
istableandhaskey
istalkpage
istanbul
istemplatepage
istestpage
istmat
istop
istoriya
istr
isunion
isvalidrank
isyear
it
italic
italy
item
itemid
itemimagesize
items
itemstyle
iterator
itis
its
itself
iu
iucn
iv
iva
ivanovo
ivotinje
iw
iwiki
iwikiall
ix
izmeneniy
j
ja
jam
james
jan
jane
january
japan
japanese
java
javascript
jbo
jbwr
jdate
jean
jew
john
johns
join
joueur
journal
jp
jpg
jquery
js
json
jsp
juan
jugularis
jul
julian
juliancomment
jultimeiso
july
jun
june
jungle
jupiter
just
justified
justify
justo
jv
k
ka
kaa
kab
kag
kaganer
kai
kak
kal
kam
kao
kaohsiung
kar
karpov
kartolog
kashmir
kastanje
katego
kategori
kategoria
kategorie
kategorija
kategorio
kategoriya
kath
kavkaz
kavkaze
kazakhstan
kazan
kb
kbd
kbp
keep
kefermarkt
kem
kent
key
keycell
keyno
keys
keyvalue
keyword
keywords
kg
kh
kha
khk
khmaopop
khw
ki
kickass
kiel
kill
kingdom
kingfisher
kir
kirche
kirchspiel
kirovskoy
kixtart
kj
kk
kl
klonec
klonecpp
km
kn
know
known
knownflag
ko
koi
kolonnen
kom
komi
kong
korarchaeota
korea
korfu
kos
kr
kra
kray
krc
krm
ks
ksh
ku
kubanskoy
kug
kunst
kur
kurax
kv
kw
ky
kya
kyoto
kz
l
la
label
labelclass
labellanguagecode
labels
labelslangcode
labelstyle
labor
labs
lad
lady
ladybird
laea
lago
lake
land
landing
landschaftspark
lang
langcode
langentity
langentityid
langrefcodeclaims
langrefentity
langrefs
langs
langsval
language
languageicon
languages
languagescode
languageslang
laos
lar
largest
last
lastheight
lastnum
lastnumber
lastrecord
lasttemplate
lasttime
lat
later
latex
latin
latitude
latname
latrus
launch
law
layc
layout
lazily
lb
lbe
lc
lcfirst
ldif
le
leading
leaf
league
learn
least
leave
left
lefthidelink
lefttitle
legends
leipzig
len
length
leo
les
less
let
letter
level
levskisofia
lez
lfn
lg
li
lib
libero
library
libraryutil
libris
licence
license
life
liga
light
ligula
lij
like
limit
limitations
limitdouble
limited
limits
line
lineconnectionx
lineconnectiony
lineend
lineendconnectto
lines
linestart
linestartconnectfrom
link
linkdata
linkedin
links
linksi
linktarget
linktext
linktitle
linnaeus
lip
lisp
list
listadmins
listalgorithms
listaliases
listclass
listfiles
listforcheck
listitem
listn
listnstyle
listofcountries
listofprofessions
listpadding
lists
liststyle
liststyletype
listtag
listtotext
listtype
listusers
little
live
livejournal
ll
lld
llvm
lmen
lmo
ln
lng
lngstr
lo
load
loaddata
loaded
loading
loadrunner
loc
local
localcaption
localvalue
located
locatie
location
lock
locobasic
log
logo
logtalk
lolcode
lon
london
long
longitude
look
lookup
loop
lorem
los
loss
lost
lotusformulas
lotusscript
louis
love
loves
low
lower
loxodonta
lr
lrc
lscript
lsl
lt
ltg
lu
lua
luaargs
luaisredirect
luamain
luctus
ludwig
lughæt
lum
lupus
lv
lviv
lw
lx
ly
lz
lzh
m
ma
mac
macaca
machaon
machine
macmillan
mad
made
mademoiselle
maecenas
mag
magas
magic
magiksf
magna
magnis
mahal
mai
mail
mailto
main
maincat
mainnsname
mainsnak
mainsnakdatavaluevalue
mainsnakdatavaluevalueunit
maintext
major
make
makegeneralcategories
makehash
makeinvokefunc
makeinvokefunction
makelist
makes
maketext
maketitle
makewhereplace
makgadikgadi
mal
male
mall
mallard
malus
mammal
man
manager
manif
mannheim
manual
many
map
mapbasic
mappings
mappingskey
mappingsnsname
mappingsordered
maps
mar
marathon
march
marcoaurelio
mare
margin
marguments
mari
marine
mark
marker
markers
markup
mars
marshmallych
martin
massa
master
mastigamoebidae
match
matched
matches
matchesblacklist
matchestitle
matching
matchper
material
materialah
math
mating
matlab
matter
mauris
max
maxarg
maximum
maxnumber
maxspan
maxtimestamp
may
maybe
mb
mbox
mc
mcstrtest
md
mdf
me
means
medal
medals
media
mediabank
mediawiki
medicum
medium
melalophos
meleagris
member
members
memo
memoized
memorial
men
menudropdown
menutoggle
menyalas
mercury
merfeld
merge
mergeargs
merror
mesomycetozoa
message
messagebox
messages
messagesinh
mest
met
meta
metaargs
metaargskey
metal
metallica
metallum
metatable
metatables
methanobacteria
methanococci
methanopyri
metro
metus
mf
mg
mh
mhatlist
mhatnote
mhnt
mhr
mi
michael
micro
microsoft
middle
mig
might
mikrjukov
million
mimas
mime
min
minerva
mini
minut
minutes
miranda
mirc
mis
missed
missing
mission
mit
mk
ml
mlb
mm
mmix
mmm
mn
mngz
mni
mnlang
mnum
mnw
mo
mobilesearch
mobygames
mod
mode
model
modern
modf
modula
module
moduledate
modulelanguages
modulenavbox
moduleredlink
moduleround
modules
modulesitem
moduleurl
modulewikidata
mojgorod
mollicutes
mollis
moment
moname
monastery
monday
monlan
monoaut
monobook
monolinguallangtemplate
monolingualtext
monosigidae
monotheism
mont
montage
montes
month
monthgm
monthgom
months
moon
mor
more
morning
mos
moscow
moset
mosque
most
mot
moth
mothernodes
mothersx
mothersy
motion
motorsportstats
mount
mountain
mountains
move
movie
mow
moz
mp
mpasm
mr
mredirect
mrj
mrsi
ms
msg
mshared
msk
mst
mt
mtabletools
mtemplateinvocation
mtype
mu
mult
multilingual
multiple
multistatuses
mume
munarmsid
munarray
muncatexist
munconfig
munconfigstring
municipal
municipality
munid
munins
muninsmunid
munplaceid
munst
mur
mural
mus
musa
museum
music
musicbrainz
muslim
must
mustelidae
mw
mwcustomeditbuttons
mwl
mwlang
mxml
my
myanmar
mycetozoa
mylnikov
myspace
mysql
myv
mzn
n
na
naar
nacional
nado
nadterechny
nagios
nah
nam
name
named
nameformat
names
namespace
namespaces
namibia
nan
nanoarchaeota
naoarg
naocheck
naopop
nap
narhoz
narod
narodnoe
nasa
nascetur
naselenie
naseleniya
naselennyie
naselennyx
nasledie
nation
national
natm
natoque
natural
nature
nav
navbar
navbox
navboxdata
navboxes
navigation
navy
nazca
nazi
nb
nbc
ncbi
nchen
nd
ndefaultlanguage
ndn
nds
ne
near
neas
nec
necessary
neditors
need
needed
needle
negative
nem
neque
nest
nested
net
netherlands
netrexx
network
neutral
never
new
newarticletext
newattributes
newchild
newclaim
newclaims
newdate
newindex
newlisp
newoptions
newparentsnaks
newplacesindex
newplacestr
newrecord
newrow
news
newton
next
nextlabel
nextwikitext
ng
ngr
ngrk
nia
niac
nick
nigeria
night
nigra
nih
nil
nilargs
nilargskey
nilastab
nile
nils
nisi
nissue
nitrospirae
niz
nkey
nl
nlm
nlr
nm
nmn
nn
nnn
nnnnnn
nnumberofpages
no
noaocheck
noble
nobr
nocat
nocatcoord
nocoord
node
nodeargs
nodefunc
nodepropertykey
nodes
nodis
nodot
nodyn
noe
noeditsection
noflip
nogallery
nogoogle
nolast
nolink
nolinks
nomatch
nomenclature
nominativeyear
non
none
nonempty
nonfunc
nonummy
noosm
nooverwrite
nor
nord
normal
normativetitle
norris
north
northern
norway
not
notaxtempl
note
notes
nothing
nothovar
notice
notification
notoc
nov
nova
novalue
november
novgorod
now
nowiki
nowikidataentity
nowrap
noyandex
np
npages
npc
nqo
nr
nrm
ns
nscategory
nsid
nsis
nsname
nso
nstable
nster
nstext
nt
nth
nucleohelea
nuit
null
nulla
nullam
nulorwhitespace
num
numarray
number
numbero
numberof
numberofloops
numberofpages
numbers
numcell
numcolumns
numdata
numeric
numerical
numerize
numgroups
numida
numonly
numparam
numrecord
numredirects
nums
numstr
numsubarray
numvalues
numwvarray
numyear
nunc
nupedia
nus
nuvola
nv
nvolume
nvs
nw
nwt
ny
nya
o
oa
oberon
obj
objc
objeck
object
obl
oblasti
obschee
obsolete
oc
ocaml
occupation
occupied
occurs
oceans
oclc
octave
october
octopus
od
odd
oddcolstyle
oddeven
oddstyle
oeis
of
off
office
official
offset
often
oga
ogg
ogv
oh
oj
ojkum
ok
okorneva
oktober
okulovka
ol
old
oldest
oldformatstatement
oldformatstatementdefault
oldrecord
oldresult
olive
olo
olympic
olympics
om
ombox
omit
oms
on
once
one
ones
onevar
online
only
onlyparams
onlythesekeys
oobas
oorexx
op
opac
opacity
open
opendatabase
opener
openstreetmap
opera
operator
opinion
opisthokonta
oppose
option
optional
optionalarg
options
optionsaslinks
oq
or
oracle
orange
orci
ord
order
ordered
ordereddata
ordermag
orders
ore
org
organization
orig
original
orl
orphan
orphancat
orphaned
os
osn
osobennoe
ota
otechestvennoy
other
otherprojects
others
otheruse
otherwise
otvetstv
otvetstvennie
otvetstvennye
ouput
our
out
output
outtype
outvalue
over
overflow
overridden
override
overview
overwritten
own
oxford
oxygene
oy
oz
p
pa
padding
padlock
pag
page
pageid
pagename
pageobject
pagepointer
pages
pair
pairs
paisaje
pakistan
pal
palace
palau
pam
pan
panorama
pans
panthera
pap
papilio
par
para
parade
param
paramaterlength
paramaward
parameter
parameterdata
parametername
parameternames
parameters
paramkeyformat
paramname
paramorder
paramrank
params
paramsi
paramtarget
paramvalue
paramvalueformat
parasail
parent
parentargs
parentclaim
parententities
parententityid
parententityids
parentfirst
parentheses
parentid
parentnode
parentnodes
parentonly
parentoptions
parentproperty
parentsnak
parentsnaks
parentstartline
pargs
parigp
paris
park
parliament
parque
parse
parseclaim
parsed
parseddate
parseddateofdeath
parsedec
parsedflagstarttime
parsedms
parsedtime
parsedvalue
parseformattednumber
parseiso
parserfunctions
parsetimefromsnak
part
partdist
partial
parts
parturient
party
pascal
pasport
pass
passed
passing
path
pattern
patterns
paulo
pavonia
pb
pcall
pcd
pcre
pd
pdc
pdf
pdx
pe
peace
pede
pellentesque
pelomyxa
penatibus
pengo
people
per
percent
percentage
perepis
perepisi
performance
performed
period
perl
permanent
permission
persian
person
personal
personname
personnameasauthor
personnametoauthorname
persons
peru
peter
pf
pfarrkirche
pfennig
pfg
pfl
pframe
ph
phab
phaeodarea
phase
phasellus
phe
phobos
phoebe
photo
photocount
photos
photosk
php
phr
phylum
physical
phytomyxea
pi
pic
picture
pid
pieces
piechart
pih
pike
pincat
pipe
piped
pipes
piptoporus
pithecia
pixelbender
pk
pl
place
placedata
placedatanumrecord
placeentity
placehash
placeholder
placeid
placename
places
plain
plaindata
plainlinks
plainlist
plains
planctomycetes
planets
plant
plantilla
plate
player
playerid
players
playing
playmarkerstats
plaza
please
pli
plsql
plural
plus
pluto
pmid
pms
pn
pname
pnb
png
pnt
pntype
pnz
po
poche
point
poland
polar
policy
polish
polovine
polveka
polycystinea
pont
popplace
populatedatafromclaims
populatesourcedataimpl
population
populus
portal
portland
portrait
portugal
pos
poselenie
position
positional
possible
possibleage
possiblebookseriesentityid
possibledatestring
post
poster
postfix
postfixdelimeterposition
postgresql
posuere
potenziani
poter
pov
povliyavshie
povray
pow
power
powerbuilder
powershell
pp
pphrases
pr
practice
prague
prantl
pre
prec
preceding
precision
predefinic
predloga
predloz
preferably
preferids
preferred
prefix
prefixedtext
prefixindex
prefsection
preload
premierliga
prep
prepositional
preprocess
presbytis
present
presentation
preservation
preserve
preserves
preset
presets
president
press
pretium
prev
preview
prevlabel
prey
pri
pride
prime
primelink
primstat
printf
privacy
prize
prizes
prlib
pro
probably
problem
problems
problemy
process
processed
processing
processtext
productsymbol
prof
professions
professionscategories
professionslist
profil
profile
proftpd
progress
project
projectinterwikilettter
projectname
projects
projecttocheck
prolog
prom
promodj
prop
propclaim
properly
properties
property
propertyclaims
propertyentity
propertyid
propertyids
propertyname
propertyofproperty
propertyparams
propertyselector
proportional
proposals
propvalue
propvalues
prospect
prospects
protection
proteobacteria
protsessah
proveit
provided
providedlabel
provides
providex
province
pru
prunus
ps
pseudo
psk
pst
pt
ptice
puasa
pubentity
public
publication
published
publisher
publishing
pula
punktyi
purebasic
purge
purif
purple
purpose
purposes
pusher
pushing
put
puzzle
pv
pwn
px
pxxx
pycon
pyri
pyrrhula
pys
python
q
qbasic
qh
qid
qnnn
qq
qqq
qt
qu
qualconfig
qualifier
qualifierentity
qualifierentityid
qualifierid
qualifierids
qualifiername
qualifierpropertyid
qualifiers
qualifiervalue
qualifiervalues
quam
quant
quantity
que
qui
quiet
quis
quito
quotate
quote
quotes
qur
qxxx
r
ra
racine
racing
radio
radius
rails
railway
rain
raionii
rajoni
ralfr
ran
random
rang
rangcolors
range
rangs
rank
ranklabel
ranknamedefault
ranks
rar
rate
rather
ratings
ratio
rawbase
rawdata
rawrule
rawrulepattern
rawset
rayonset
razvitie
razvitiya
rb
rd
rdplace
rdtext
re
read
reader
readonly
ready
real
realgm
reasons
rebol
recalc
recipientcategory
recognition
recommended
record
rect
red
redirect
redirects
redlink
redtaxlink
redundant
reeder
ref
refanchor
refanchoryear
referee
reference
references
referenceworks
refs
reftext
reg
regarg
regcatword
regconfig
regdisp
regdot
regex
regexp
regexps
regid
regidexists
regido
regidrender
regidword
reginsregid
region
regiona
regionalnaya
regiondata
regionpage
regions
regionset
regionsetstring
regnote
regnum
regpass
regular
regwordtooltip
rel
relationtype
relative
relativenode
release
religion
religions
rem
remainingbytes
removal
removalnotice
remove
removeblanks
removed
removes
render
rendercategories
renderdoc
rendered
rendering
renderlabel
renderline
renderlink
renderlinkwithref
renderlist
rendernum
renderprojects
renderreferenceimpl
renderresult
rendersnak
rendersource
rendertrackingcategories
rendervalue
renderwithchildren
rep
repeat
repetitions
repl
replace
replaced
replacement
report
reported
republic
request
requested
requests
require
required
requiring
res
research
researchgate
residents
resk
resolution
resource
resourcedata
resourcedatas
resourceid
resourcelabel
resources
responsive
restored
result
resultchildconnectionline
resultclaims
resultheight
resultid
resultliney
resultlist
resultproperty
resultresultproperty
results
resulttail
resulttails
resultwidth
resultwikitext
resulty
ret
retrieved
return
returned
returning
returnnotnil
returns
reusestr
reusestrname
reverse
reversed
reverseorder
rexx
rfc
rgba
rhea
rhizaria
rhoncus
ri
ria
ride
rider
ridiculus
riga
right
righthidelink
rights
righttitle
rimbaud
rinse
rio
river
rm
rmy
rn
rname
rnste
ro
roa
road
robert
robots
rock
role
roll
roman
romania
rooster
root
ros
rosa
roskazna
rossii
rossijskoj
rossiyskiy
rosstat
rouge
round
rover
row
rowargs
rowindex
rownum
rownumm
rownumr
rows
rowspan
rpmspec
rq
rrggbb
rsfsr
rsl
rsplus
ru
rubicunda
rubus
ruby
rue
rugby
rule
rulename
rules
run
rup
rus
russia
russian
rutrum
rutube
ruwiki
ruwikisource
ruza
rv
rw
rya
s
sa
sabana
safe
sagittis
sah
saint
sak
sakhalinstat
salpingoecidae
salvatore
sam
samaritaine
same
san
sana
sand
sandbox
sapien
sar
sarah
sas
sat
saturnia
saudi
save
savestr
sawyer
say
sb
sbornik
sc
scala
scale
scalepergroup
scalewidth
scheda
scheme
schemedelimeterposition
schloss
schlossgarten
schwetzingen
science
scientific
scilab
scn
sco
scope
score
scoreboxes
scoresumbox
scoresway
scorewasher
scorewidth
scotland
screen
scribunto
script
scripts
scroll
sd
sdlbasic
se
sea
seal
search
searchbuttonlabel
sec
second
secondcat
secondmostrecentvalue
seconds
sect
section
sections
sectiontable
sectorcode
secttitlestyle
sed
see
seen
seite
sekretno
sel
sela
select
selectclaims
selected
selectedsnakes
selecting
selector
selectors
selectorsstring
self
selffunc
selfx
selo
selomo
selskoe
sem
semper
senior
sensation
sep
separ
separatelabel
separator
seps
september
sequence
sequences
serdalo
serdælo
series
serif
serious
serpparams
service
set
setmetatable
setoffset
sets
setting
settings
settlement
settlements
setwidth
sev
sevens
sevosetia
sex
sf
sfn
sg
sgs
sh
shadow
shali
shallbefirst
shanghai
share
sharealike
shared
sharepoint
shi
shift
shiftchildren
shiftparents
shinjuku
ship
shl
shn
short
shortfix
shortminiview
should
show
showinvalidtypeerror
shown
shownproperties
shows
shpl
shr
shtml
shu
si
siamensis
siconversion
side
sienna
sigfig
sign
signs
silicofilosea
silver
simbad
similar
similarly
simple
simpledate
simplelabel
sin
since
singapore
single
sint
sit
site
sitelink
sitelinks
sitelinkss
sites
situations
situatsiya
six
size
sizing
sjabloon
sk
skater
ski
skin
skip
skipempty
skipmatch
skipmatchcol
skipped
skippropertyids
skr
sky
skyline
sl
slice
slices
slow
sm
small
smallimage
smallimageright
smallparam
smalltalk
smalltext
smarty
smb
smg
smirnov
smith
smn
smo
smth
sn
snak
snaks
snaktype
snakvalue
snow
so
soauthors
soccerbase
soccerdonna
soccerway
socialnetworkproperties
society
sociis
sodales
software
solar
solid
some
somestring
something
sometimes
somevalue
son
song
soon
soria
sort
sortasnumber
sortcolumn
sorted
sortedkeys
sortonerank
sossusvlei
soul
sound
soundcloud
source
sourceentity
sourceid
sources
south
southern
sp
space
spaced
spacer
spaces
spacing
spain
span
spark
sparql
sparseconcat
sparts
spb
speaking
spec
special
species
specific
specification
specified
specifies
specify
specifying
specimen
speclen
specline
speclines
speclinesi
specprinter
specstart
speculative
speedy
spetsifika
sphingobacteria
spid
spider
spieler
spin
spiral
spirochaetes
spiski
split
splitcoord
splitiso
splitline
splitparam
sport
sports
spotify
spring
springer
spx
sq
sql
square
sr
srang
src
srn
ss
ssp
sssr
sst
sstyle
st
sta
stable
stack
staff
stalingrad
stampa
standard
standardelementaliases
stanovlenie
star
stars
start
startboundaries
startlen
startnum
starts
state
statedas
statement
statements
statementvalue
states
statesstate
static
station
statistical
statisticheskih
statisticheskiy
statistics
statistik
stats
statue
status
statusarms
statusarray
statuscatsstatusid
statuscatsstatusidfirstcatcell
statusfirstword
statusid
statussuppress
statustemp
statusword
statuswordrender
stavregion
stavropolskoy
stavstat
std
steam
step
stereomyxida
steward
sticholonche
stiftskirche
stihi
still
stl
stolovaya
stonescript
stop
storage
stq
str
strana
street
streets
stretch
strformat
strict
strin
string
stringifylist
strings
stringtoreturn
strip
strong
strpatterni
strtotime
struc
structurae
structure
strvalue
stub
stubs
studies
study
style
styleratio
styles
su
sub
subdivision
subf
subgroup
subject
subjectns
subpage
subpageno
subpageonly
subpages
subrule
subrules
subsp
subst
substring
subtitle
subvalue
success
such
suda
suffix
suggested
sum
sumbox
summary
summits
sun
sunrise
sunset
sup
supplement
support
supported
suppressage
suppressed
suppression
suppressrender
sure
surface
surnamedisambig
survey
sv
sve
svedeniy
sverdlovskoy
svg
sw
swan
swap
sweet
switch
switzerland
sydney
symbol
syn
synagogue
syntax
system
systematics
systemverilog
szablon
szl
szy
t
ta
tab
tabi
table
tablecount
tablefunction
tablelength
tables
tablestructure
tabletools
tabletostr
tablevalue
tabs
tag
tags
tail
taipei
taiwan
taj
take
takes
tales
talk
talkargistalkpage
talktext
talktitle
tam
tanzania
tara
tarask
target
targettitle
targs
targsk
tarnovo
tasm
tat
taxobox
taxon
taxonomy
taxonrankclaims
taxons
taxopodida
taxrecursion
taxstring
tay
tbl
tcl
tcols
tcon
tcy
td
te
team
teamboxpadding
teams
tech
techniques
technology
tel
tellus
temperature
templat
template
templatecallcode
templatecat
templatecategory
templatecategoryrequirename
templatedata
templateentityid
templateerrorcategory
templateformat
templatename
templates
templatesort
templatestring
templatestyles
templatetext
templatetitle
temple
temporary
temppopulation
temprow
tempstring
temptd
tempus
tempyears
teraterm
termoprotei
terms
ternary
territorialdivision
test
testing
tests
tet
tethys
text
textcell
textcelldiv
textprefix
textsareempty
textsi
textsmall
textsmallcelldiv
textsproperties
textstyle
textthird
tf
tff
tg
th
than
that
thatta
the
thecgf
thefinalball
their
them
theme
themeprofilesproperties
then
theobjword
theory
there
theregword
thermococci
thermodesulfobacteria
thermomicrobia
thermoplasmata
thermotogae
thermus
these
they
thinbasic
things
third
thirdcat
this
thislocationonly
thomas
those
though
thought
three
through
throwerror
thumb
thw
ti
tidal
tidiedval
tidyval
tiger
tigris
tilastopaja
tim
time
timedec
timelapse
timeless
timeline
timestamp
timezone
tincidunt
titan
titania
title
titlearea
titlebackground
titleclass
titledelimeterposition
titleforeground
titlegroup
titlegroupstyle
titleobj
titleobject
titleparts
titlestyle
titletemplate
titletemplateq
titlewerepresent
titul
tjc
tk
tl
tld
tlinks
tm
tmbox
tmp
tn
tname
tnavbar
to
tobase
toboolean
toc
today
todo
together
toggle
toiso
tokyo
tom
tomatoes
tonga
tonumber
too
tool
toolbaricon
tools
tooltip
tooltips
top
topbranch
topframe
topic
topimage
topt
tostring
tostringsnak
tot
totable
total
totextwithtip
tower
towikibaseentityidsnak
town
tp
tpi
tplargs
tr
track
tracked
tracking
traffic
trail
trailer
trailing
train
transfermarkt
transform
translate
translatedate
translatenext
translatewiki
transparent
transwiki
travel
tre
treat
treated
treccani
tree
trees
trent
trg
trick
trim
trimmed
trimming
trims
trimstr
trimwhitespace
trip
triple
triplet
tripletpos
tripletstr
tripletunit
tripylea
triton
truck
true
trv
try
ts
tsclass
tsn
tsql
tt
tu
tubulinea
tul
tum
tumblr
tunica
turdus
turkey
turpis
tusholi
tuttocalciatori
tuv
tv
tve
tw
twice
twitter
two
txt
txtdatein
txtdateout
ty
tylovogo
type
typedata
typefilter
typeid
typek
types
typev
typoscript
tyu
tyv
tzs
u
ua
uboundary
ucfirst
udm
uefa
uezd
ug
ui
uk
ul
ullamcorper
ultrices
ultricies
uly
umbriel
ume
un
unbulleted
unchanged
uncollapsed
und
undate
under
underscores
underside
understand
understood
undo
une
unflex
uni
unicode
unicon
unidos
unignoredtypes
union
uniq
unit
united
unitentity
unitentityid
unitplural
units
unitsprefix
unitssuffix
unittester
unittests
universal
university
unknown
unless
unlock
unnamed
unordered
unpack
unstable
unstripnowiki
until
unwarp
up
upc
upload
uploads
upon
upper
upperbound
upperplace
upright
ups
upwards
ur
urbi
uri
uricomponents
url
urlnum
urls
us
usa
usage
uscript
usda
use
usecollapsibletextfields
used
useful
user
users
uses
usescurrenttitle
using
ussr
ustring
ustringlower
usually
usuan
ut
utc
utcin
utf
utitle
uwu
uz
v
val
vala
valerytishkov
valid
validate
valley
vals
value
valuedepr
valuefunc
valuenorm
valuepref
values
valuetofind
van
var
variable
variables
varius
varstr
vb
vbnet
vcard
ve
vec
vector
vedit
veitam
vel
veliko
velikoy
velit
venenatis
venezuela
venue
venus
vep
ver
verilog
verpositions
verrucomicrobia
version
vertical
vesta
vestibulum
veugel
vflip
vgg
vhdl
vi
via
viaf
victor
victoria
vid
video
vie
vienna
vietnam
view
viewer
views
vii
viii
village
vim
vimeo
violet
viroid
virtual
virus
visbeck
visible
visitors
vista
visualfoxpro
visualprolog
vitae
vivaldi
viverra
vk
vla
vlei
vlg
vls
vlz
vo
vogelartinfo
voice
vol
volcano
volgograda
vologod
vologodskoy
volume
volumes
von
vor
voronov
vostoke
votes
voy
voyagecode
voyne
voynumber
voyny
vp
vpn
vro
vt
vtoroy
vulgaris
vulputate
vyp
w
wa
walking
wall
want
war
warning
warsaw
was
wash
washington
water
way
wayback
wbstatus
wcm
wcos
wd
wde
wdprops
wds
wdstatus
we
web
webapi
webb
webcite
webgeo
webkit
webm
website
week
weekly
weibchen
weight
weimar
welcome
wells
were
west
wet
wgtitle
what
when
where
whether
which
while
white
whitespace
who
whois
whose
wide
wider
widescore
width
widthoffathers
widthofmothers
widths
wien
wiki
wikibase
wikibooks
wikidata
wikidataitemid
wikidataselectors
wikidatavaluetoarray
wikidate
wikilink
wikilinks
wikimedia
wikipedia
wikipedias
wikiprefix
wikiquote
wikis
wikisource
wikispecies
wikitable
wikitext
wikivalue
wikiversity
wikivoyage
wikivoyageid
wikivoyageido
wikivoyageword
wiktionary
wildpark
will
william
willoverride
wilson
win
winbatch
windows
wing
winter
with
withchildrenconnectionx
withchildrenheight
withchildrenwidth
within
without
withoutparams
withparentsconnectionx
withparentsheight
withparentswidth
wm
wmde
wmf
wmru
wo
woman
women
won
word
words
wordseparator
work
working
works
world
worldcat
worldfootball
would
wp
wps
wptextbox
wrap
wrapinurl
wrapper
wrapperextraargs
wrappers
wrapqualifier
wraps
wrapsnak
wrapstatement
wrapvalue
write
writing
written
wroclaw
wrong
ws
wsin
wsource
wt
wuu
wvnote
wvrender
wvsubarray
wvwikidata
www
wy
x
xa
xal
xbasic
xg
xh
xi
xii
xiii
xiv
xix
xls
xmf
xml
xn
xorg
xpp
xpx
xv
xvi
xvii
xviii
xx
xxi
xxvi
xxx
y
yakutii
yaml
yandex
yar
year
yearconv
yearform
yearmark
years
yellow
yes
yesno
yet
yi
ym
ynaopop
yo
yoakkhag
yola
york
you
young
your
yourist
youtube
yscales
yscalesgi
yscalesi
yue
yuko
yyyy
z
za
zab
zam
zcz
zea
zealand
zeli
zero
zh
zhiromskaya
zhukov
zimbabue
zip
zoo
zoological
zoom
zopf
ztrb
zu
zugl
zur
zxbasic
{
|
}
~

§
©
«
¬
­
®
°
±
²
³
¶
·
»
¼
½
¾
×
æ
ɒ
ʰ
ʼ
ʾ
ʿ
ˈ
ˌ
ː
̀
́
̂
̃
̄
̆
̇
̈
̉
̊
̋
̌
̍
̓
̔
̛
̣
̦
̧
̨
̭
̸
͡
α
γ
ε
θ
ο
π
ρ
ς
σ
τ
φ
а
аа
аарони
аб
аба
абабукара
абадиев
абазбика
абаканово
абакановское
абат
абате
абаьданаькъан
аббасидскии
аббр
аббревиатур
абв
абдул
абдулкарим
абдурахьмана
абзац
абзаца
абзаце
абзои
аби
абоаг
аболабу
аборт
абрек
абрека
абсолютно
абстрактни
абу
абубакар
абукар
абукара
абхазе
абхазии
абхазию
абхазия
абхазо
абхазои
абхазскии
август
августа
авдеево
авеча
авиаце
авиацен
авиации
австралии
австралия
австрии
австро
автномеш
автобус
автобуса
автограф
автографа
автоматическая
автоматически
автоматических
автоматического
автоматическое
автоматическои
автомобиль
автомобильныи
автономе
автономи
автономная
автономни
автономного
автономнои
автономные
автономныи
автономных
автопатрулируемыи
автоподтвержде
автор
автора
авторе
авторизованни
автории
авторитетные
авторитетныи
авторитетными
авторитетных
авторов
автором
авторски
авторские
авторским
авторских
авторского
авторское
авторском
авторы
автохаьхо
аг
ага
агент
агентство
агинскии
агломерации
агломерация
агра
агрессии
агульскии
агӏа
агӏои
ад
ада
адам
адама
адамаш
адамашта
адамии
адамле
адамлен
адамо
адар
адаш
адвентици
адвокат
аддикция
адиль
админ
админдеи
административни
административно
административнои
административные
административныи
административных
администратор
администратора
администраторами
администратораш
администратории
администраторов
администратором
администраторы
администраце
администрацен
администраци
администрации
админов
адоаг
адольфа
адрахьмана
адрес
адреса
адресов
адресу
адриатическое
аду
адыгея
ае
аенна
аех
аж
ажа
ажаг
ажара
ажаш
аже
ажии
аз
аза
азакхои
азакхстане
азакхстанеи
азамат
азап
азар
азас
азбука
азе
азеи
азен
азени
азера
азербаи
азех
ази
азии
азимутальная
азин
азия
азлецкое
азо
азов
азовского
азовское
азот
аи
аии
ак
акадаме
академе
академен
академи
академии
академик
академика
академические
акан
аки
акка
аккуратнее
аккха
акнада
аксе
аксентьево
акт
акташ
акте
актерии
активное
активности
активные
активныи
актриса
актрисса
актуальнои
акулы
акушинскии
акха
акхабоабашк
акхаи
акхакотамии
акхарех
акхача
акхетача
акхоачаш
акхтарг
акхтарга
акхувлара
акционерни
акционерное
ал
ала
алагирскии
алам
алама
аламбекъаш
аламбик
алан
алания
аланои
алап
алапа
алапат
алапата
алапатах
алапатацара
алапаташ
алапате
алапатеи
алапатии
алапах
алапаца
алапаш
алапашца
алапи
алапии
алар
алара
аларах
алараш
алаудин
алаш
алаьца
албанскии
албаста
албастович
албик
албика
албохчанаькъан
алг
алгебра
алгоритм
алдезал
алдезала
але
александр
александра
александрии
александрович
александрово
александровская
александровскии
александровское
алексеево
алексеевская
алексеевское
алексеи
алексино
аленускалаш
алероев
алеф
алжир
али
алинг
алифатика
алихан
алкадиенаш
алкенаш
алкеп
алкинаш
алкун
алкхашк
алл
алла
аллара
аллах
аллаха
аллахом
аллаху
аллахӏ
аллахӏа
аллерои
аллея
алма
алмаз
алме
алмозерское
алоаг
алоац
алоацаш
алтаеи
алтаи
алтоаба
алтоабан
алфавит
алфавита
алфавитном
алфавитов
алфавиту
алферово
алферовская
алха
алхазар
алхазарии
алхан
алхара
алхасте
алхасты
алхха
алъоаг
аль
альберт
альбом
альборан
альвеола
альдегидаш
альма
альманах
альманаха
альпаш
альпии
альтернатива
альтернативная
альтернативного
альтернативнои
альтернативную
альтернативные
альтернативныи
альтернативных
альтернативу
альфа
альцгеи
альянс
алюминии
ам
ама
амаг
амаи
амал
амала
амалаш
амале
амалт
аман
амар
амара
амарах
амарца
амат
аматах
аматаш
амах
амаш
амаши
амбулатори
амг
аме
амеи
америка
америкаи
американ
американскии
американского
америке
америкеи
америкера
америкерча
америки
америкьхои
ами
амига
амигаг
амигача
амии
аминаш
аминокислоташ
амир
амма
амосово
ампер
амплуа
амстердам
амундсена
амур
амурская
амурскои
амфибии
амхарои
амца
ан
ана
анаи
анализ
анализа
анализе
аналитическая
аналог
аналоги
аналогии
аналогично
аналогичное
аналогичнои
аналогичную
аналогичны
аналогичныи
ананино
ананьино
анара
анатолии
анатоме
анатоми
анатомии
анатомия
анах
анаш
анашкино
анаэробашта
анаюх
ангела
ангелов
англ
англии
англо
англоязычного
ангушт
андаманское
анджеи
анджелеса
андии
андомское
андорра
андраково
андреевская
андреевское
андреи
андроново
андроповскии
андрюшино
анды
ане
анеми
анз
анза
анзара
анзарча
ании
анимальни
анимального
анимальном
анимаци
аниме
анионаши
анисимово
анисимовская
анишино
анна
аннино
анны
аностомозаш
анри
ансамбла
ансамбль
антарктида
антарктидан
антарктиде
антарктиды
антарктика
антибиотики
антипово
античнии
антон
антонии
антонио
антоново
антроповскии
антропологе
антропологен
антропологи
антропологических
антушево
антушевское
анхимовское
анца
анциферово
анциферовская
ао
аорта
аортан
ап
апартеид
апковна
апостол
апостро
апострофы
аппарат
апреле
апрель
апреля
ар
ара
арабии
арабист
арабицы
араблинское
арабо
арабов
арабская
арабские
арабскии
арабских
арабского
арабское
аравала
араваьлча
аравии
аравия
арадаккха
арадаха
арадаьккхар
арадаьлар
арадаьнна
арадаьннад
арадаьннача
арадии
арадирих
арадувл
араи
аракса
араксеи
аралера
аран
арапхананаькъан
арарат
арафурское
арах
арахеца
арахецад
арахецадоб
арахецар
арахецарца
арахецача
арахецаш
арахи
арахии
арахои
арахьа
арахьара
арахьарча
арац
араш
арашдуарга
арашта
араялии
араяьлар
араяьлча
араяьнна
араяьннаи
араяьннача
араяьха
арбат
арбии
арбитражного
арбитражныи
арг
арга
аргаго
аргазем
аргаземаш
аргахои
аргаш
аргдац
аргентина
аргентины
аргумент
аргумента
аргументам
аргументами
аргументов
аргументом
аргументы
аргун
аргуновское
аргӏа
аргӏан
аргӏах
ардара
ардон
ардонскии
аре
ареал
ареи
арен
аренах
аренаш
аренаши
аренашка
аренга
аренца
арех
ареяр
аржбериевич
арз
арза
арзаш
арзгирскии
аристово
аристотель
арк
арктика
армении
армения
армии
армстронг
армхи
арсмакнаькъан
артагӏа
артере
артереш
артереши
артерешка
артерии
артерию
артиллерии
артист
артиста
артюшинское
архангельская
архангельское
археи
археиш
архентерон
археолог
археологе
археологен
археологи
археологии
археологических
архив
архиве
архивирования
архивированнои
архивнои
архимед
архимеда
архитектор
архитектории
архитектура
архитектураи
архитектурни
архитектуры
арча
арчаков
арчакханаькъан
арчча
аршты
ас
аса
асаш
асламбек
аслан
асланбек
аслаханов
аспект
аспирант
аспирантуре
аспирин
асрс
ассалам
ассамблеи
ассамблея
ассамскии
ассистент
ассоциаце
ассоциаци
ассоциации
ассоциация
асср
ассра
аст
астараш
астарха
астархан
астен
астериск
астерисков
астра
астраи
астрале
астрален
астралера
астрали
астралии
астралин
астрахани
астраханская
астраханскии
астраханскои
астрахань
астрономе
асхаб
асхьаб
асхьабаш
асхьабии
ася
ат
ата
атагӏа
атагӏе
атаи
аташ
аташта
атд
ате
атеросклероз
атерча
атии
атикамек
атлантическии
атлас
атласа
атласов
атлетика
атлетики
атмосферы
ато
атовжам
атовжамаш
атовжмаш
атолл
атомо
атоха
атохаш
атрибут
атрибута
атрибуте
атрибутом
атрибуту
атта
аттаг
аттагӏа
атф
атх
аудио
аудиостатьяш
аудиофаи
аул
аульское
аусб
аусии
аушев
аушева
афанасово
афанасьевская
афганистан
афганистана
афганистане
афонино
афонинская
африк
африка
африкаанс
африкаи
африкан
африканскии
африке
африкеи
африкера
африкерча
африки
ах
аха
ахар
ахархои
ахбура
ахвахскии
ахг
ахгерга
ахгӏаи
ахи
ахии
ахка
ахкан
ахкарг
ахки
ахмадие
ахмат
ахмед
ахмедович
ахмедовна
ахмет
ахметович
ахметовна
ахо
ахриев
ахтыпаринского
ахувца
ахча
ахчан
ахчано
ахчах
ахчацара
ахчаш
ахчо
ахьа
ахьехам
ахьмад
ахьмада
ахьмадеи
ахьожам
ахьожаяргаш
ахьош
ац
аца
ацаэцар
ацтеки
ач
ача
ачалкхе
ачалкхен
ачалуки
ачамаза
ачулкхии
ачунга
ачхои
аш
аша
ашаг
ашага
ашараш
ашарии
аши
ашии
ашт
ашта
аштехьа
аь
аьбартои
аьга
аьге
аьгекхалара
аьгии
аьда
аьдаг
аьдагӏии
аьдагӏче
аьдагӏчеи
аьдагӏчен
аьдал
аьдала
аьзе
аьи
аьккхии
аькх
аькха
аьла
аьлан
аьланпхьа
аьлар
аьлбоарз
аьлданаькъан
аьле
аьли
аьлии
аьлле
аьлтамаранаькъан
аьлте
аьлтии
аьлх
аьлча
аьнаш
аьнна
аьннад
аьннар
аьннача
аьннеи
аьприкии
аьраска
аьрда
аьрдача
аьрдехьа
аьрдехьара
аьрдиг
аьржа
аьржача
аьрзе
аьрзелг
аьрзена
аьрзеш
аьрзи
аьрх
аьрхӏии
аьрште
аьрштеи
аьсет
аьстен
аьсти
аьстинг
аьта
аьтта
аьттача
аьттехьа
аьттиг
аьттигаш
аьттинга
аьттув
аьха
аьхаг
аьхарте
аьхартенах
аьхафоарташ
аьхеи
аьхии
аьхки
аьшаре
аьшарен
аьшера
аьшераш
аьшерашка
аьшк
аьшка
аьшкан
аьшкнаькъа
аьшу
аэробаш
аэропорт
аэцаш
аюп
аюпа
аюпович
ая
аязбара
аязбарах
аяздаь
аяккха
аят
аята
аятах
аяташ
аяте
аятов
аяты
аяха
б
ба
бабаево
бабаевскии
бабаюртовскии
бабино
бабушкинскии
бабушкинское
бабье
бав
бавари
баг
бага
багара
багаудин
багах
багахбувцам
багахбувцама
баге
багровые
багӏа
багӏдаде
баех
база
базанна
базар
базара
базарах
базаш
базе
базовому
базовые
базовыи
базовых
базоркин
базу
базы
баи
баканаькъан
баккха
бакланово
баклановская
бакр
бактерии
баку
бакъ
бакъара
бакъахьа
бакъахьара
бакъбаьб
бакъваьв
бакъвеш
бакъда
бакъдар
бакъдац
бакъдаь
бакъде
бакъдеш
бакъъе
бакъъеш
бакъъяь
бала
балано
балансирование
баларах
бале
балеарское
балет
балех
бали
балии
балка
балкария
балкарская
балкарскии
балковскии
балте
балти
балтикера
балтимора
балтиморах
балуево
балха
балхара
балхах
балхаца
балхаш
балхашка
балхех
баматгире
бамут
бан
бангладеш
банда
банк
банка
баннер
баппа
бар
бара
бараи
бараково
бараниха
бараново
барановская
барановское
барах
барахоев
бараш
барг
бард
баренцеви
баренцево
баржар
барзкъа
барзкъаш
барии
баркал
баркинхои
барское
барсуки
барт
барта
барх
барханчак
бархӏ
барца
басар
басараш
баскетбол
баскскии
бассеи
батальона
батареи
батецкии
батецкое
батлух
батӏал
баффина
бах
баха
бахаб
бахар
бахара
бахарах
бахараш
бахархоех
бахархои
бахархоша
бахархошта
бахача
бахаш
бахии
бахреи
бахрома
баххалца
бахьан
бахьанаш
бахьане
бахьанех
бахьаудин
бахьаудина
бац
бацар
бацои
бачеи
бачии
баш
башаш
башир
башира
башкирская
башкирскии
башкортостан
башня
башх
башха
башхало
баь
баьб
баьде
баьккха
баьккхаб
баьккхача
баьланзар
баьлча
баьнна
баьннаб
баьрел
баьржа
баьржача
баьри
баьсса
баьха
баьхаб
баьхараш
баьхача
баьхачул
баьхка
баьхкаб
баьхкача
баьца
баьцаи
баьцамеа
баьцара
баьцахаьс
баьцаш
баьцаюрталг
баьцовг
баьцовгӏа
баьцовгӏаи
баьцовгӏаш
баьцовгӏаши
баьцовгӏашта
баьцовгӏии
баьццара
баьча
бб
бд
бдмоеколно
бе
бегаш
беглово
беда
бежан
без
беза
безам
безама
безаман
безаме
безамца
безар
безача
безаш
безумие
безупречную
беи
бек
бека
беканаькъан
бекарг
бекарга
беке
бекетово
бекетовское
беки
беков
бекренево
бексултан
бекхам
бекъ
бекъа
бекъии
бела
белавино
беларусь
белая
белгал
белгала
белгалбаккхар
белгалбаь
белгалбаьккхабац
белгалбаьннача
белгалбу
белгалдаккха
белгалдаккхар
белгалдар
белгалдаха
белгалдаьккха
белгалдаьккхад
белгалдаьккхар
белгалдаьнна
белгалдаьхараш
белгалде
белгалдеш
белгалдоаккхаш
белгалдоах
белгалду
белгали
белгало
белгалонах
белгалонаш
белгалонаши
белгалонашка
белгалонех
белгалъеш
белгалъи
белгалъю
белгалъяь
белгалъяьккха
белгатои
белггала
белгородская
белиджи
белиз
белки
белков
белла
беллинсгаузена
белого
белое
белозерскии
белок
белокаш
белокаша
белокаши
белокии
белоруссии
белорусскии
белха
белхарои
белхаш
белхашта
белые
белыи
бель
бельгии
бельгия
бельково
бембулат
бена
беназир
бенгалои
бенгальскии
бенна
беннаб
бенои
бер
бера
берал
бераш
берашка
берашта
берашца
бергба
бергболаш
бергболаши
берд
берда
бердаш
бердаши
бердашта
берди
бере
берег
бережок
березицы
березник
березниковскии
березниковское
березовка
березово
беременность
берется
берех
берза
берзах
берии
бериллии
беринга
берия
беркат
берката
беркате
берлин
берлина
бернар
бернара
беррига
берригача
берригаш
берс
берса
берсии
берснакъа
берснакъии
бертех
бертии
берутся
беса
бесаех
бесара
бесах
бесаш
бесашца
беседы
бесконечности
бесконечность
беслан
бесо
беспозвоночных
бесса
бессаш
бессрочно
бета
бетт
бетта
беттага
беттаех
беттаи
беттах
бетташ
бетташка
беха
бехк
бехка
бехкаб
бехкам
бехкама
бехкамаш
бехкамашта
бехке
бехктокхам
бехктокхаме
беце
беча
беш
беша
бешамаш
беши
бешлелаяр
бешпагир
би
библе
библии
библиографическая
библиографическии
библиографических
библиографическое
библиографическои
библиография
библиотек
библиотека
библиотекаи
библиотекаш
библиотеке
библиотеки
библия
бизза
бизнес
бизнесмен
бии
бикольскии
билла
биллаб
био
биобиблиографическии
биогеографии
биографи
биографические
биографическии
биографических
биографическои
биография
биол
биоло
биолог
биологе
биологеи
биологен
биологени
биологи
биологии
биологически
биологические
биологическии
биологических
биологического
биологическои
биология
биота
бир
биричево
бирса
биряковское
бисау
бискаи
бисмал
бисмилля
бита
битвы
бича
бишт
биъ
бл
благовещенск
благодаринского
благодарненскии
благодарность
благодарю
благодаря
бластодерма
бластодермы
бластомеры
бластопора
бластопором
бластоцель
бластула
бластулои
бластулы
бласть
блестящии
ближаи
блика
блиново
блок
блока
блокада
блоки
блокировка
блокировке
блокировки
блокировку
блокировок
блоков
блы
блюда
бниц
бо
боабашкаш
боабашкии
боабаьб
боабеш
боагӏ
боагӏа
боагӏаш
боадо
боадонгара
боаккх
боаккха
боал
боала
боалахи
боалаш
боалии
боалл
боалла
боарам
боарама
боарамал
боарамаш
боарамаши
боарамга
боараме
боаржабу
боарз
боарза
боарзаш
боарзе
боахам
боахама
боахаман
боахаш
боахкача
боаца
боацача
боацаш
бобровское
бовз
бовзара
бовзаш
бовзии
бовхамаш
бовхьаш
бог
богатства
богатые
богатыре
богданово
боглус
богородское
богослов
богослово
богословское
бода
бодача
бодаш
боевое
боевых
божественная
божиеи
божьих
божья
бои
боканаькъан
боккха
боккхаг
боккхагӏа
боккхача
боккхии
боккъал
боккъонца
боков
боковая
бокс
бокса
боксах
боксе
бокъо
бокъолелораш
бокъон
бокъонах
бокъонаш
бокъонаши
бокъонии
бокъонца
бола
болабаьб
болабеннаб
болабу
болалу
болалуш
болам
болама
болар
боларагӏа
болаш
болашагӏа
болаши
болванка
болга
болгари
болгарии
болгарои
болгарская
болгарскии
более
болезни
болезнь
бологовскии
болотница
болх
болхаш
болхбеш
болхло
болхлои
болхлоша
болхлошта
болхлошца
болча
болчара
болчарех
боль
больница
больнице
больному
большая
больше
большевик
большеи
большие
большим
большинства
большинстве
большинство
больших
большого
большое
большои
бомбаш
бомбры
бонэи
боподобные
бор
бора
борг
бордаза
бордз
борец
борз
борзах
борзои
борилово
борис
бориса
борисово
борисовская
борисовское
борки
боров
борове
боровецкое
боровичскии
боровское
боровщина
борозды
борок
бортник
борша
борьба
борьбе
бос
босе
босен
босенах
босенаш
боснии
босния
босхувцарг
бот
бота
ботами
ботаника
ботаникаи
ботанике
ботаники
ботаническии
ботанических
боташ
боташи
боташта
ботех
ботии
ботлихскии
ботов
ботопедии
ботт
боты
бофорта
боха
бохабаьб
бохам
бохтаранаькъан
боча
бочабӏарах
боярская
боярское
брагино
бразилен
бразилии
браи
брамс
брат
братское
братском
братья
браузер
браузера
браузерах
браузере
браузеров
брачныи
брестскои
бригады
бриссон
британе
британи
британии
британская
британскии
брод
брокгауза
бронзовыи
брызгово
брэ
брюссель
брянская
бсарское
бсэ
бу
бувзабенна
бувзам
бувзама
бувзамаш
бувзамца
бувлаш
бувц
бувца
бувцар
бувцараш
бувцача
бувцаш
бугии
бугры
бугӏа
бугӏаш
бугӏии
буддизм
буддисташ
буде
будем
будет
буду
будут
будущее
будущем
будущих
будьково
бузуртанаькъан
буи
бук
букв
буква
буквально
буквами
буквах
буквенныи
буквосочетание
букву
буквы
букъ
букъа
букъат
букъатӏехк
букъатӏехка
букъатӏехки
букъатӏехкьяраш
букъчкъаьра
булама
бумаги
бунак
буне
бур
бура
бураково
буран
бурдуково
буреги
буро
бурон
бурцево
бурч
бурятия
бурятскии
бурятского
бус
бусалба
бусалбаш
бусс
бусса
бустам
бусулба
бусулбаш
бут
буташ
бутт
бутув
буфер
бух
буха
бухари
бухе
бухта
бухь
буц
бушуиха
буъ
буэнос
бхутто
бы
бывает
бывают
бывшая
бывшее
быково
быковское
был
была
были
было
быстрее
быстро
быстрого
быстрое
быстрои
быстрому
быть
бычково
бюджет
бюллетень
бюро
бюрократ
бюрократа
бюрократов
бюрос
бӏ
бӏалгӏа
бӏар
бӏара
бӏарахои
бӏарахьежаш
бӏарг
бӏарга
бӏаргаваи
бӏаргаго
бӏаргагуш
бӏаргадаи
бӏаргаш
бӏаргашца
бӏаргаяи
бӏаргии
бӏарго
бӏаргса
бӏаргтоха
бӏарчча
бӏарччача
бӏаь
бӏаьи
бӏаьннех
бӏаьсти
бӏаьстии
бӏаьхии
бӏаьшаре
бӏаьшера
бӏаьшерал
бӏаьшераш
бӏаьшерашка
бӏаьшерашкара
бӏаьшере
бӏаьшерии
бӏаьшу
бӏеха
бӏорахои
бӏу
бӏубенна
бӏукъатӏехки
бӏул
бӏуматеи
бӏун
бӏуна
бӏунхо
бӏунхои
бӏын
в
ва
вавилон
ваг
вагнер
вагӏа
вагӏача
вагӏаш
вада
вададаи
важиб
важнее
важнеи
важно
важное
важнои
важном
важности
важность
важные
важными
важское
ваи
вал
вала
валар
валдаи
вале
валерии
валлалца
валлии
валюта
валютныи
вам
вами
вампал
вампалаш
ван
вандализм
вандализма
ванделя
вандея
ванзар
вано
вар
вараи
вариант
варианта
варианте
вариантов
вариантом
варианту
варианты
вариетет
вас
василе
василево
васильев
васильево
васильевская
васильевскии
васильевское
васильково
васкет
васьково
васюково
васютино
ваттовое
вах
ваха
вахав
вахар
вахара
вахарах
вахаре
вахари
вахарцара
вахача
вахаш
вахии
вахнево
вахневское
вахрушево
вац
вацар
ваша
вашего
вашеи
вашем
ваши
вашингтон
ваших
вашкинскии
вашу
ваь
ваьв
ваьг
ваьга
ваьгӏа
ваьгӏав
ваьккха
ваьккхав
ваьллав
ваьлча
ваьнна
ваьннав
ваьр
ваьра
ваьрал
ваьрах
ваьраш
ваьро
ваьха
ваьхав
ваьхар
ваьхача
ваьча
вблизи
вв
введе
введена
введение
введением
введения
введите
вверх
вверху
ввести
ввод
ввода
вводить
вводное
вводном
вводных
ввс
вг
вд
вдо
ве
веб
вегетативн
вегетативни
вегетативнича
вегетативного
вегетативныи
ведажанаькъан
веде
ведено
веденскии
веденское
ведется
ведзижев
ведомости
ведомственни
вежарии
веза
везац
везача
везаш
везде
веззача
век
века
веке
великая
великие
великии
великих
велико
великобритании
великобритания
великодворское
великое
великои
великосельское
великоустюгскии
великуша
велильское
величина
величине
величины
велча
вена
венача
венгерская
венгрии
венда
венди
венера
венесуэла
венетскии
венна
веннав
веннача
венначул
вену
вены
вепсскии
вепсское
вер
вера
верблюды
вергилии
вересковые
веретье
вермахта
верне
верно
вернуться
верныи
вероисповедании
вероятно
вероятность
версальскии
версии
версию
версия
вертикального
вертикальнои
вертикальную
вертикальных
верующии
верхне
верхнего
верхнее
верхнеи
верхнекокшеньгскии
верхнем
верхнешарденгское
верхние
верхнии
верхняя
верховажскии
верховного
верховское
верховье
верху
вершин
вершина
вершинах
вершинои
вершину
вершины
веры
вес
весе
весна
весны
весовои
вести
вестибулярни
вестник
весь
весьегонскии
весьма
ветеран
веха
веце
вечное
вечность
веш
вешагуров
вешех
вешии
вешкаранаькъан
вешки
вешта
вещание
вещания
вещеи
веществ
вещества
вещество
вещи
взаимное
взаимодеи
взаимозаменяемы
взвода
взрослому
взято
взять
ви
вига
вид
вида
видаш
виде
видео
видеть
видим
видимо
видимое
видимости
видимыи
видите
видно
видны
видов
виду
виды
вижар
вижу
византии
визза
визуального
визуальными
вии
викал
викалаш
вики
викиверситет
викивиды
викигид
викигида
викиданные
викиданными
викиданных
викидараш
викидаты
викидошлорга
викикод
викикоде
викиларма
викимедиа
викингаш
википе
википеде
википеден
википедех
википеди
википедиеи
википедии
википедист
википедистов
википедисты
википедию
википедия
википеи
викисклад
викисклада
викискладе
викисловарь
викисо
викиссылки
викитека
викитеках
викитеке
викитеки
викитекст
викитекста
викитеку
викиучебник
викиучебника
викификатор
викификаци
викификации
викификация
викифицирован
викифицировать
викифицируется
викицитатник
викицитатника
виктор
виктора
виктория
вилегодскии
вильчур
винительныи
виноград
виноградное
виноградныи
виноградов
винсент
вирба
виргинские
вироидаш
вирт
виртуальни
вирус
вируса
вирусах
вирусаш
вирусаши
вирусашта
вирусии
вирусов
вирусы
вирхьазилга
виса
висав
висан
висангире
висаяна
високосни
витамин
витаминаш
вице
вич
вишера
вишну
вишня
виъ
виӏии
вка
вклад
вкладом
включает
включать
включают
включаются
включающую
включая
включен
включена
включение
включении
включения
включены
включив
включить
вкп
вкуса
владеете
владелец
владение
владении
владения
владивосток
владикавказ
владикавказа
владикавказе
владимир
владимира
владимировка
владимирская
владимирскои
владислав
власово
власти
влево
влияет
влияние
влияют
влияющие
влксм
вложение
вложения
влючая
вместе
вместо
вмру
вначале
вне
внес
внесе
внесения
внесено
внесены
внесистемная
внешнеи
внешние
внешнии
внешних
вни
вниз
внизу
внимание
внимания
внимательно
внутреннего
внутреннее
внутреннеи
внутренние
внутреннии
внутренним
внутренних
внутреннюю
внутренняя
внутри
внутрь
во
воаг
воагӏа
воагӏача
воагӏаш
воаккх
воал
воалаш
воалл
воалла
воаллаш
воаллаше
воаца
воацалга
воацар
воацача
воацаш
воацилга
вов
вовзаш
вовзии
вовсе
вод
вода
водар
водача
водаш
водного
водные
водныи
водных
водое
водород
водорода
водородаца
водородашца
водоросли
водосбора
водотоки
воды
воевал
военно
военного
военное
военнои
военные
военныи
военных
вож
вожаш
вожбальское
вожегодскии
вожегодское
воз
возврат
возвращаем
возвращаемого
возвращаемое
возвращает
возвращается
возвращая
возвращена
возвращение
возвращено
воздвиженское
воздвиженье
воздеи
воздержались
воздерживаться
возможен
возможна
возможно
возможное
возможностеи
возможности
возможность
возможностью
возможны
возможные
возможным
возможных
вознесенская
возникает
возникают
возникновения
возникнуть
возраст
возраста
возращает
возрождение
возрождения
вои
воинские
воинское
вокалист
вокзал
воккха
воккхаг
воккхагӏа
воккхагӏвола
вокруг
вокха
вокхар
вокхо
вола
волавенна
волавеннав
волалора
волалу
волалуча
волалуш
волапюк
волаш
волаши
волга
волгограда
волгоградская
волгоградскои
волдырь
воли
волково
вологодская
вологодскии
вологодскои
волоколамскии
волосово
волость
волот
волотовскии
волоф
волхов
волча
волчо
волчунна
волшебное
вольное
вольтер
вольфрам
вообще
вооруже
вопрос
вопроса
вопросам
вопросов
вопросу
вопросы
воробье
воровсколесская
воронеж
воронежа
воронежская
воронежского
воронино
ворониха
воронов
вороново
воронцово
вороны
ворота
воротишино
ворх
ворхӏ
ворхӏлагӏча
воскресенскии
воскресенское
воскресенье
воспитанников
воспользоваться
воспользуи
воспринимается
восстановить
восстановление
вост
восток
востока
востоке
восточная
восточно
восточного
восточнои
восточныи
востребован
восход
восхождение
восхождения
вот
воти
вотолино
вохии
вохтожское
воча
вош
воша
вошал
вошас
воше
воӏ
воӏа
воӏах
воӏи
вп
впадает
впервые
вписаннои
вписывать
вписывают
вплоть
впн
вполне
вправо
впрочем
впячивается
впячивание
врезка
врезки
време
времен
временем
времени
временник
временно
временные
временныи
время
вроде
вручную
вс
все
всегда
всего
всеи
вселеннои
всем
всеми
всемирная
всемирнои
всемирныи
всенародном
всеобщая
всеобщеи
всероссии
всесоюзная
всех
вскии
вское
всплывающеи
вспомогательная
вспомогательного
вспомогательные
вспомогательныи
вставить
вставка
вставке
вставки
вставлен
вставляемого
вставляет
вставляется
вставлять
вставьте
встраивание
встреча
встречается
встречающиеся
вступил
вступила
всю
вся
всякии
втор
вторая
вторичноротые
второго
второе
второи
втором
вторую
вторые
вторым
ву
вувц
вувцар
вувцаш
вугаш
вуза
вузашта
вузов
вурии
вус
вуташ
вход
входит
входить
входят
входящих
вхождение
вхождения
вцик
вцика
вы
выбирает
выбирать
выбираются
выбитское
выбор
выбора
выборы
выбран
выбрать
выведен
выведена
выведено
выведены
вывести
вывод
вывода
выводе
выводит
выводится
выводить
выводятся
выглядеть
выглядит
выдавать
выдае
выдаст
выдать
выдающиеся
выделен
выделение
выделением
выделения
выделенныи
выделены
выделяем
выделяется
выделялись
выделять
выделяют
вызван
вызванные
вызвать
вызов
вызова
вызове
вызовов
вызовом
вызываемого
вызываемые
вызывает
вызывается
вызывать
вызываются
вызывающего
выи
вымер
вымерших
вымирание
выносок
вып
выползово
выполнение
выполнения
выполняет
выполняется
выполнять
выпуск
выпуска
выпускник
выпускникаш
выпускники
выпущенныи
вырабатываемыи
выравнивает
выравнивается
выравнивание
выравнивания
выражаются
выражение
выражении
выражения
выселения
высказать
высокая
высокие
высокии
высоково
высоковское
высокое
высокои
высокуша
высота
высоте
высоту
высоты
высоцкии
высочаи
выставить
выставка
выступает
выступающии
высшая
высшего
высшеи
высших
вытегорскии
выхода
выходит
вычисление
вычислении
вычисления
вычислениях
вычислительная
вычисляет
выше
вышегуров
вышневолоцкии
вьетнаме
вэньянь
вятское
вӏагӏашагӏтохара
вӏалла
вӏашагӏ
вӏашагӏа
вӏашагӏбеллаб
вӏашагӏи
вӏашагӏкхетарца
вӏашагӏкхии
вӏашагӏкъасташ
вӏашагӏтеха
вӏашагӏъелла
вӏашагӏъеллаи
вӏашагӏъеллача
вӏашагӏъии
вӏаши
вӏашии
вӏашка
вӏашкаи
вӏаштӏардаь
вӏаштӏехьа
вӏаьхии
вӏов
вӏови
вӏовнаши
г
га
гаваи
гаврилово
гавриловскии
гаврино
гагарин
гагиев
гагиева
гад
гаданаькъан
гадари
гаджет
газ
газа
газаш
газет
газета
газеташ
газете
газето
газеты
гази
газии
газиканаькъан
газиков
газов
газы
гаи
гаке
гаки
гакко
галаи
галанино
галашино
галашка
галашкарча
галашке
галашки
гале
галерея
галеш
гали
галилеи
галисии
галица
галицкая
галичено
галичскии
галки
галкино
галкинское
галло
галлюцинации
гам
гамаж
гамажаш
гамалеевка
гамиях
гамово
гамы
ган
гана
ганаш
ганз
ганза
ганзах
ганзеи
ганино
ганновка
гань
ганькин
гаплогруппы
гапур
гапцах
гапшима
гар
гара
гарвожа
гарга
гаргагӏа
гаргало
гаргара
гаргарча
гаргга
гарданаькъан
гаревая
гаревка
гарех
гари
гарино
гармония
гарт
гартах
гарусово
гаршино
гарь
гастроцель
гастроэнтерит
гаструла
гаструлои
гаструлы
гаструляции
гаструляция
гаудеамус
гахьа
гацалух
гача
гачки
гаш
гашково
гашун
гаьгенаькъан
гаьгии
гаьзарии
гаьн
гаьна
гаьнагӏа
гаьнара
гаьнарча
гаьнаш
гаьнаши
гаьнеи
гаьнех
гаьнии
гвардеи
гвардии
гвардия
гватемала
гверстянка
гвинеи
гвинея
гвоздево
гвоздки
гг
гггг
где
гдовскии
гдым
гдыня
ге
геба
гебридское
геджух
геза
геи
гелатхои
гели
гелия
гельбах
гематокрит
гемоглобин
гемоглобина
генаргаш
генеалогия
генерал
генерала
генеральная
генеральни
генеральнои
генеральское
генерирует
генерируется
генетикаи
генетике
генетически
геном
генома
гента
гены
гео
географ
географе
географен
географи
географии
географические
географическии
географических
географического
географическое
география
геокара
геокодаш
геологе
геологи
геологии
геологическии
геолого
геометре
геометри
геометрии
геометрического
геопортал
георг
георгиевка
георгиево
георгиевск
георгиевская
георгиевскии
георгиевское
георгии
геоэкологии
гепатит
герасимовка
герасимово
герасимовское
герб
герба
гербе
гербы
герга
гергала
гергача
гергебиль
гергебильскии
гереи
герз
герза
герзель
герзи
германе
германеи
германен
германера
германи
германии
германия
германская
герменчик
гернси
герои
героя
герпесвирусаш
гертма
герхмахи
герцеговина
герценовского
гетероцикла
геттара
гехи
гечув
ги
гиалина
гибралтар
гигант
гидрография
гидрологи
гидрометеоиздат
гидротӏехкии
гидроузел
гидуарг
гизга
гизгаш
гизгии
гии
гиле
гилева
гилево
гильяр
гиляров
гилярова
гималаи
гималаяш
гимн
гимназе
гимнази
гимры
гинта
гиперонимом
гиперссылкои
гипертекстовую
гипертекстовых
гипертрофи
гипотетическая
гипотетическии
гире
гиреи
гиренаькъан
гири
гирино
гирихан
гистологи
гких
гкои
гл
глава
главная
главного
главное
главнои
главныи
главных
главы
глагольная
гладкии
гладково
гладкое
гладышево
глажево
глазатово
глазачево
глазков
глазково
глазовка
глазово
глазовскии
глазуновка
глазуново
глазуновскии
гласную
гласными
гласных
глебени
глебково
глебова
глебовка
глебово
глебовскии
глебовское
глебовщина
глездово
глинище
глинка
глинки
глинное
глиновка
глинское
глиньково
глобализация
глобальные
глобальныи
глоссареш
глоссарии
глотово
глубина
глубине
глубинныи
глубины
глубокая
глубокии
глубоково
глубоковская
глубоковскии
глубокое
глухарево
глухая
глуховка
глухово
глуховскии
глухое
глухои
глушиха
глушица
глушицы
глушково
глушковское
глыбочка
глюкоза
гляден
гляденово
глядень
глядки
глядково
гнездилово
гнилое
гнилуша
гнтрк
го
гоама
гоаража
гобаь
говза
говзал
говзала
говзалаш
говзаме
говзанча
говорили
говорово
говоря
говорят
говорящих
говр
говра
говрах
говраш
говрашта
говрбарг
говрии
говш
гогино
гоголевка
гоголево
гоголино
гоголь
гоготль
год
года
годам
годах
годобери
годов
годом
году
годы
гои
голенищево
голиково
голино
голицыно
голл
голландии
голова
головановка
голованово
головеньки
головинка
головино
головинская
головинское
головинщино
головище
головкино
головково
головная
головнои
головы
гололобовка
гололобово
голос
голоса
голосиловка
голосов
голосование
голосованием
голосовании
голосования
голосованиях
голотурия
голофеевка
голохвастово
голочелово
голубая
голубево
голубинка
голубино
голубинскии
голубиные
голубиха
голубки
голубково
голубовка
голубое
голубои
голубцово
голузино
голыгино
голышева
голышево
голышкино
гольцовка
гольцово
гольяново
голявино
гом
гома
гомах
гомаш
гомашта
гомеостаз
гоми
гомии
гон
гона
гонахьа
гонахьара
гонахьарча
гонахье
гонконг
гоннахьа
гонода
гоноховскии
гончарка
гончаровка
гончарово
гончаровскии
гончаровское
гончары
гоор
гор
гора
горбани
горбатка
горбатовка
горбаче
горбачево
горбачи
горбачиха
горбово
горбуновка
горбуново
горбуновское
горбуны
горбухино
гордали
гордон
горе
горепекин
горизонт
горизонтальную
гории
горицкое
горицы
горка
горки
горлово
гормонаш
горная
горное
горномарии
горные
горныи
горных
город
города
городах
городе
городецкии
городецкое
городище
городищенское
городно
городов
городок
городских
городского
городское
городскои
горское
горушка
горцев
горшково
горы
горьке
горькии
горьковскии
гос
госкомстат
госнаграды
господства
госпремии
гост
государств
государства
государствами
государствах
государственная
государственного
государственное
государственнои
государственные
государственныи
государственных
государство
государством
готово
готовую
готта
готфрид
гофман
гр
градус
градусаи
градусах
градусов
градусы
гражданская
гражданскии
гражданского
гражданскои
гражданство
грамм
грамма
грамматика
грамматически
грамматические
грамматическии
грамматического
грамота
грамоташ
грамотность
грани
границ
граница
границеи
границу
границы
граф
график
графика
графиквикипедия
графики
графику
граче
гребенево
греко
гренланди
гренландское
греч
греческая
греческии
грибов
грибцово
грибы
грива
гривы
григоре
григориански
григорианские
григорианского
григорианскому
григории
григорово
григорьевич
григорьево
григорьевское
гридино
гридинская
грипп
грифом
гришино
гришкино
грозненскии
грозныи
грудино
грузии
грузия
групп
группа
группам
группах
группе
группои
группу
группы
груши
грызуны
гряда
гряды
грязовецкии
гу
губ
губач
губачмедведь
губернатор
губерне
губерни
губернии
губерния
губернского
губино
гув
гувна
гувнаш
гувнашта
гудермесскии
гудзонов
гуи
гул
гулам
гулбеш
гулдара
гулдаь
гулдеча
гулдеш
гулду
гули
гулинское
гуллам
гуллама
гулламах
гулламаш
гулламашка
гулламе
гулламо
гуллу
гулъяь
гуманитарни
гумбетовскии
гуни
гунибскии
гур
гурахьа
гурж
гуржаша
гуржашкахьара
гуржегӏара
гуржехье
гуржехьен
гуржехьени
гуржехьецара
гуржии
гурскии
гусево
гусины
густав
густава
густерин
гутенберг
гуцериев
гуча
гучадаьннад
гучадоал
гучаи
гучара
гучахьа
гучча
гуш
гэс
гюго
гіалгіаи
гӏ
гӏа
гӏагӏ
гӏад
гӏадбаха
гӏадж
гӏажара
гӏазакхии
гӏазакхои
гӏазакхстана
гӏазакхстане
гӏазакхстанеи
гӏазакхстанехьа
гӏазакхстанехьен
гӏазд
гӏазданаькъан
гӏазкхии
гӏаи
гӏала
гӏалаи
гӏалат
гӏалаш
гӏалаши
гӏалг
гӏалгӏа
гӏалгӏаех
гӏалгӏаи
гӏалгӏачох
гӏалгӏачун
гӏалгӏаша
гӏалгӏашка
гӏалгӏашта
гӏалгӏаштеи
гӏалгӏашца
гӏалеи
гӏалии
гӏалме
гӏалмен
гӏалми
гӏалмистера
гӏамгӏа
гӏанда
гӏане
гӏанца
гӏап
гӏапков
гӏапур
гӏапура
гӏар
гӏара
гӏарагӏураш
гӏаран
гӏараш
гӏараши
гӏарол
гӏат
гӏата
гӏаттар
гӏаш
гӏаьбарте
гӏаьбартои
гӏаьзе
гӏаьнаш
гӏаьр
гӏерт
гӏертар
гӏерташ
гӏетта
гӏии
гӏинбухе
гӏинбухен
гӏинбухера
гӏинбухерча
гӏинбухехьа
гӏинбухехьара
гӏиргӏизои
гӏирс
гӏирса
гӏирсаш
гӏишло
гӏишлонаш
гӏишлонаши
гӏишлонхо
гӏишлонхои
гӏишлош
гӏо
гӏоазота
гӏоандалои
гӏовттам
гӏовттама
гӏоз
гӏоза
гӏозлои
гӏои
гӏолла
гӏоллара
гӏоллеи
гӏомара
гӏоне
гӏонца
гӏонча
гӏончалла
гӏорбаьнна
гӏорваьнна
гӏоргӏа
гӏулакх
гӏулакха
гӏулакхах
гӏулакхаца
гӏулакхаш
гӏулакхаши
гӏулакхашка
гӏулакхашта
гӏулакхех
гӏулакхии
гӏулакхо
гӏулакхче
гӏум
гӏумкии
гӏурии
гӏча
гӏчеи
д
да
даар
даара
дабе
даваи
давать
давыденко
давыдково
давыдово
давыдовская
давыдовское
дага
дагадеха
дагадехар
дагадоаллаш
дагадох
дагадохарца
дагадохии
дагаи
дагалаьттар
дагалаьца
дагалаьцар
дагалоацам
дагалоацама
дагар
дагара
дагарадар
дагарах
дагарг
дагаргах
дагаргашцара
дагардар
дагардара
дагахьа
дагестан
дагестана
дагӏ
дагӏа
дагӏац
дагӏаш
дада
дадача
дадаш
даде
дае
дажа
дажача
дажаш
даже
даздараш
даи
даим
даима
даканаькъан
дакка
даккха
даккхар
даккхара
даккхаргахьа
дакхадии
дакхача
дакъа
дакъилг
дал
дала
далар
далара
даларахи
даларца
далганаькъан
далгат
дале
далее
далеи
дали
далии
далла
даллалца
дальне
дальневосточныи
дальнего
дальнеи
дальнем
дальше
даля
дам
дама
дан
дане
дании
данилов
данилово
даниловская
данна
данная
данного
даннои
данном
данную
данные
данныи
данным
данными
данных
даны
дар
дара
дарах
дараш
дараша
дарашка
дарашта
дарба
дарбан
дарбане
дарбанче
дарвин
дарг
даргдац
дарех
дарж
даржа
даржар
дарже
даржии
дари
дарии
даровское
дарра
дарсиганаькъан
дарц
дарца
дас
даст
дат
дата
датам
датами
датах
дате
датои
датскии
даттых
дату
даты
дать
дауд
дауда
дах
даха
дахадаевскии
дахар
дахара
дахарах
дахача
дахаш
дахии
дахкии
дахкилг
дахкилганаькъан
дахкильгов
дахча
дахчаца
дахьаш
дац
дацар
дача
даш
даша
дашхар
дашхара
даь
даьг
даьга
даьгара
даьгӏад
даьгӏасте
даьгӏастен
даьд
даьда
даьдале
даьдац
даьи
даьккха
даьккхад
даьккхача
даьккхачул
даькъа
даькъала
даькъалдувцар
даькъасте
даькъастен
даькъастера
даькъах
даькъе
даькъера
даьла
даьлар
даьлах
даьлера
даьлланге
даьлле
даьлча
даьна
даьнна
даьннад
даьннача
даьнначул
даьр
даьра
даьржа
даьржад
даьржача
даьрже
даьсса
даьссача
даьтта
даьх
даьха
даьхад
даьхача
даьхе
даьхен
даьхенна
даьца
даьча
даьчох
даьчул
даьчунна
даьша
дают
даются
дающии
даӏват
два
дважды
две
двигатель
движение
движении
движения
движка
движке
движок
двиницкое
двои
двор
дворах
дворец
дворище
двукратныи
двумя
двух
двухбуквенныи
двухзначное
двухслои
дд
дда
де
дебадалар
дебаранаькъан
дебют
девиз
дег
дега
дегагара
дегаза
дегал
дегахи
дегаш
дего
дегтӏении
дегӏ
дегӏа
дегӏад
дегӏада
дегӏадар
дегӏадара
дегӏаи
дегӏамаш
дегӏамашка
дегӏамии
дегӏах
дед
дедово
деза
дезагӏа
дезаденна
дезал
дезала
дезалах
дезалаш
дезалга
дезале
дезали
дезало
дезалхо
дезар
дезац
дезача
дезачох
дезаш
дездеш
дезткъа
деи
дека
декабре
декабрь
декабря
декадеш
декларации
декларация
декоративни
декретаца
декхар
декхарах
декхараш
декхараши
декхарех
декхарии
декъа
декъадалар
декъалу
декъалуча
декъар
декъара
декъари
декъарца
декъаш
дел
дела
делаем
делает
делается
делаи
деламинации
деламинация
делать
делают
делая
деле
деление
делении
деления
делится
делкъе
дело
делхарах
делхаш
делча
делятся
дементьево
демидово
демино
демографи
демографическая
демографическии
демографических
демографического
демография
демократе
демократи
демократическая
демократически
демократия
демонстрации
демонстрирует
демянскии
ден
дена
денал
деналах
денали
денах
денга
денгара
дене
денз
денза
дензи
деникин
деникина
денисово
денисовская
денна
деннад
денналга
денное
дено
деноех
денорг
денош
деношка
денца
дены
день
деньги
департамент
департамента
депрессия
депутатов
дер
дера
дербентскии
дергда
дергдац
дергдолаш
дерева
деревенька
деревково
деревня
дерево
деревьев
деревягино
дерз
дерзадеш
деррига
дерригане
дерригача
дерригаш
дерягино
десса
десяти
десятилетии
десятилетия
десятичное
десятичнои
десятичном
десятичныи
десять
детали
деталь
детеи
дети
детскии
детт
детта
деттадала
детталуча
детталуш
деттача
детташ
дефис
дех
деха
дехар
дехаш
дехка
дехкача
дехкаш
дехьа
дехьабовла
дехьара
дехье
деце
деча
деш
деша
дешагара
дешаех
дешаи
дешар
дешара
дешарах
дешарахи
дешарашта
дешарг
дешарга
дешаргаш
дешаргех
дешаргии
дешареи
дешари
дешарле
дешархои
дешарца
дешарче
дешарченаш
дешарчении
дешарчех
дешах
дешаца
дешача
дешачарна
дешачо
дешачоа
дешачун
дешачунна
дешаш
дешашвар
дешаши
дешашца
дешии
дешхьалхе
деятелеи
деятель
деятельности
деятельность
деятелях
дж
джабагӏии
джабари
джабраила
джабраилович
джаз
джалга
джалган
джамалдин
джан
джана
джанскии
джанскои
джеи
дженгутаи
джерси
джефри
джеффри
джи
джимми
джованни
джомолунгма
джон
джона
джордж
джуз
джузеппе
джулианна
джӏаи
дзи
дзонг
дзюдо
дзюдоист
ди
диабет
диагностика
диаграмма
диаграмму
диакр
диалект
диалектах
диалекташи
диалекте
диалектов
диалекты
диаметр
диапазон
дивизии
дивизиона
диг
дигора
дигорское
дидат
диза
дизаи
дизамбиг
дизар
дизара
дизза
диззача
дии
дик
дика
дикаг
дикагӏа
дикагӏча
дикадар
дикал
дикача
дикка
дикои
диктатура
диктор
дила
дилача
дилг
дилижанс
дилла
диллад
диллара
диллараш
диллача
дин
дина
динамика
династии
династия
динах
динаш
динашка
динашта
динбехка
динга
дингахьа
динка
дино
динозавры
динош
диношка
динца
диплом
дипломатические
дипломатическии
дипломатических
дипломатия
дир
дира
дирах
директор
директора
директоралла
директоро
дирекция
дириже
диса
дисад
дисадац
диск
дискоидальным
диснеи
диссернет
диссертаци
диста
дистар
дистара
дистача
дисциплинаш
дисциплинашта
дисциплины
дита
дитад
дитар
дите
диткъа
дифференциальни
дифференцировки
диц
дича
диъ
диълаг
диълагӏа
дия
дка
длина
длинная
длинную
длинны
длинные
длинных
длину
длины
для
дмитриево
дмитриевскии
дмитриевское
дмитрии
дмитровскии
дне
днеи
дни
днк
дно
днр
днцӏ
днцӏа
дня
до
доа
доаг
доагам
доагамаш
доаггӏа
доагӏ
доагӏа
доагӏарии
доагӏача
доагӏачарех
доагӏаш
доажадеш
доазол
доазон
доазона
доазонаш
доазонгахьа
доазув
доаккх
доаккха
доаккхача
доаккхачох
доаккхаш
доакъашхо
доакъашхои
доакъашхолла
доакъашхочох
доакъашхочун
доакъашхочунга
доакъашхоша
доакъашхошта
доакъоех
доакъои
доакъош
доакъошка
доакъошта
доал
доала
доаладаьд
доалахьа
доалача
доалаче
доалаш
доалдаьд
доалдеш
доалии
доалл
доалла
доаллача
доаллачунгара
доаллаш
доалче
доалчен
доалчено
доаржадар
доаржаде
доахан
доахана
доахани
доахача
доахаш
доахк
доахка
доахкача
доахкаш
доаца
доацалга
доацандаь
доацар
доацача
доацаш
доацилга
доаццаш
доашх
добавив
добавит
добавить
добавлен
добавлена
добавление
добавлением
добавлении
добавления
добавлено
добавлю
добавляем
добавляет
добавляется
добавляи
добавлять
добавляются
добавляя
добавьте
добавят
добиться
доблестныи
доблесть
добраться
добро
добровольно
добровольное
добровольныи
доброи
добросовестное
добрые
добрыи
дов
довза
довзар
довзаш
довзии
довкъаех
довкъаш
довкъашта
довнаш
довоенного
довольно
доврбиканаькъан
дог
догараш
догдоахаш
договор
догтии
догӏа
догӏанха
дод
дода
додача
додаш
дожар
дозал
дозала
дои
док
доказать
доккха
доккхаг
доккхагӏа
доккхалага
доккхача
доккхеи
доккхии
доклада
докладов
доктор
доктора
доктораш
доктринаши
докузпаринскии
документ
документа
документальни
документах
документаци
документации
документацию
документация
документов
документы
докъадаь
дола
доладалар
доладаь
доладаьд
доладаьр
доладелар
доладенна
доладеннад
долаково
долакха
долалу
долалуш
доландаь
долаш
долаши
долга
долгано
долгие
долгиев
долгово
долговское
долгое
долгота
долготы
долда
должен
должна
должно
должности
должность
должны
долина
долла
доллар
доллаш
долматово
долх
долха
долча
долчахьа
долчо
долчох
долчун
долчунах
долчча
дом
дома
домам
домашняя
домен
домена
домозеровскии
домшинское
дон
дону
доп
дописать
дополнение
дополнительная
дополнительно
дополнительного
дополнительное
дополнительнои
дополнительную
дополнительные
дополнительныи
дополнительными
дополнительных
дополнить
дополнять
допускает
допускается
допускаются
допустимо
допустимые
дор
дора
дордагӏа
дорки
доровская
доровское
дорогая
досоветского
достае
достаточно
достигнув
достигнут
достижения
достоверности
достопримечательности
достояние
достоянии
доступа
доступен
доступны
доступные
доступных
дотияли
дото
дотон
дотони
дотох
дотохи
доттагӏа
доттагӏал
дотув
дотуви
доха
дохадаьд
дохадеш
дохаш
дохии
дохк
дохкача
дохкаш
доцент
дочерние
дочернии
дочерних
дош
дошалкъии
доше
доши
дошлакъа
дошлакъас
дошлакъии
дошло
дошлорг
дошлоргаши
дошо
дошон
дошони
дошох
дошохи
дошохьазалгаш
дошув
дошуви
др
драма
драмаи
драматург
драматурги
древе
древесина
древнего
древнеи
древнии
древних
дресвянка
дроби
дробится
дробление
дроблении
дробления
дробнои
дрогичинскии
дроздово
друг
друга
другая
другие
другим
другими
других
другого
другое
другои
другом
другую
дружба
дружбы
ду
дуа
дуар
дуарг
дуача
дуаш
дуба
дубаи
дубки
дубликатов
дублировать
дубовая
дубовицы
дуброва
дубровка
дуброво
дубровское
дув
дувзаденна
дувзаденнача
дувзаду
дувлаш
дувсадалар
дувтта
дувттача
дувхар
дувхаш
дувц
дувца
дувцар
дувцара
дувцараш
дувцараши
дувцарии
дувцача
дувцачох
дувцаш
дуга
дугои
дугурхан
дугурхана
дударанаькъан
дуз
дуккха
дуккхаг
дуккхаза
дуккханахьа
дуккхача
дукх
дукха
дукхаг
дукхагӏа
дукхагӏадараш
дукхагӏча
дукхал
дукхалага
дукхалах
дукхален
дукханахьа
дукхача
дукъ
дукъа
дукъаца
дукъи
дуллаш
дулово
дулх
дулха
дулхах
дулхи
думаем
дунаи
дуне
дунеи
дунен
дунена
дуненаш
дуненаши
дуненашта
дунении
дуненмаза
дуненна
дуненца
дур
дурасово
дургал
дуреи
дусаш
дусташ
дуташ
дух
духовныи
духт
духтохкархоша
духхьал
духхьала
духхьара
духхьашха
духьа
духьал
духьала
духьалбараш
духьалваха
духьале
духьаллаьттав
дынбарг
дынбаргии
дыхание
дыхательная
дьяково
дьяконово
дэвид
дюма
дюрвиля
дя
дягилево
дӏ
дӏа
дӏаала
дӏаалар
дӏабаха
дӏабаьккха
дӏабихьаб
дӏаболабаьб
дӏавахав
дӏавахар
дӏаваьккха
дӏаваьккхав
дӏаваьнначул
дӏавелла
дӏавеллав
дӏагои
дӏадаккхар
дӏадала
дӏадалар
дӏадалара
дӏадаларца
дӏадахад
дӏадахача
дӏадаьккхад
дӏадаьннад
дӏадии
дӏадихьа
дӏадихьад
дӏадоалаш
дӏадовзии
дӏадода
дӏадоладеннад
дӏадоладенначул
дӏадолалу
дӏадолалуш
дӏадувш
дӏаелла
дӏаеннаи
дӏаи
дӏаии
дӏакхаи
дӏакхачии
дӏакхаьчача
дӏакхета
дӏакхии
дӏакъаи
дӏалаьрхӏача
дӏалаьца
дӏалаьцаи
дӏалоац
дӏалоаца
дӏалоацача
дӏалу
дӏалургдолаш
дӏалучча
дӏалуш
дӏании
дӏаоттаде
дӏатела
дӏателалга
дӏателаро
дӏатиллаи
дӏатоха
дӏатӏа
дӏаухии
дӏахаи
дӏахо
дӏахоадае
дӏахувца
дӏахьежача
дӏахьош
дӏацаводаш
дӏачу
дӏачувеннав
дӏачуии
дӏачӏоагӏдаьд
дӏачӏоагӏъяь
дӏачӏоагӏъяьи
дӏаьха
дӏаьхача
дӏаэтта
дӏаэца
дӏаюкъе
дӏаязбара
дӏаязбарах
дӏаязбаьчох
дӏаяздаь
дӏаяздаьд
дӏаяздаьр
дӏаязде
дӏаяла
дӏаяха
дӏаяхаи
дӏаяхии
дӏаяьккхаи
е
ев
евгении
евкуранаькъан
евкуров
евлоев
евлоева
евлоевых
евразе
евразеи
евразен
евразера
еврази
евразии
евразия
евреи
евро
европа
европаи
европан
европани
европах
европе
европеи
европеоидни
европера
европерча
европы
египет
египетскии
его
егӏа
ед
едж
едиавики
единая
единиц
единица
единицах
единицаш
единицу
единицы
единичная
единои
единообразного
единственно
единственное
единственном
единственныи
единую
ее
ежегодник
еженедельное
ежи
еза
езаенна
езар
езача
езаш
еззига
езига
езигаг
езткъеи
еи
екатерина
екимово
екъ
екъа
екъалу
екъалуш
екъар
екъача
екъаш
екъаялар
ел
ела
елаенна
елар
елгаш
елена
елизавета
елла
ельков
ельник
ельно
ельцин
ем
ема
емало
емаш
емельяновская
ему
ен
ена
енангское
енна
еннаи
енналга
еннар
еннача
енначул
еннаяр
енош
ео
епдар
ер
ера
ераг
ерак
ерах
ерача
ераш
ерги
ергьи
ерда
ере
еремеево
ерии
ермаково
ермашеннаькъа
ермолино
ермолово
ерофеич
еррига
ерригача
ерригаш
ерригроссе
ерригсоюза
ерригсоюзни
ерташ
ерца
ершиха
ершово
ершовское
есаралла
есипово
ескино
если
ессентуки
естественно
естественное
естественные
естественныи
есть
еськино
етт
етта
еттача
етташ
ефимово
ефрона
ех
еха
ехалаш
ехар
ехдика
ехе
ехен
ехена
ехенца
ехкаш
еххьара
еххьарча
ехьа
ехьаг
ехьаоалар
ехьара
ехьарча
ехьашкарча
ехьеи
ец
еце
ецхам
ецхама
еча
еш
еша
ешаш
еще
ж
жа
жабагӏии
жабраила
жаворонки
жаворонково
жаи
жак
жакъоп
жалоба
жамалда
жамалдас
жамалдии
жамбулата
жан
жанна
жаннаи
жаннас
жанр
жанры
жанси
жар
жарки
жаррахь
жары
жача
же
желание
желании
желательно
железковское
железнодорожная
железнодорожное
железнодорожныи
железо
железы
желтка
желтке
желтком
желток
желудочно
жемаи
жен
жена
женскии
женского
женщин
женщины
жермен
жертвоприношения
живе
живои
животного
животные
животных
живых
жигули
жидкость
жизнедеятельности
жизни
жизнь
жилино
жилищ
жирковское
жирныи
жирным
жиромская
жителеи
жить
житье
жныи
жогӏаста
жожагӏате
жоп
жорж
жувр
жугтече
жугтечен
жугтии
жуккарг
жуково
жуковская
жуковскии
журнал
журнала
журнале
жӏаи
жӏаленускалаш
жӏалех
жӏалеш
жӏали
жӏалии
жӏарг
жӏаргахои
з
за
заб
забаи
забац
забгпу
заберезник
заблокировать
заболевания
заболотне
заболотье
заборовье
заборское
заборье
забудьте
забываи
забывать
заведомо
заведующе
заведующи
завершение
завершения
завести
завет
завета
зависеть
зависимости
зависит
завод
завода
заводе
заводить
завражское
завражье
завуч
завьяловскии
загат
загата
загатагахьа
загатии
заглавие
заглавия
заглавная
заглавнои
заглавных
заголовка
заголовкам
заголовками
заголовках
заголовке
заголовки
заголовков
заголовком
заголовок
загородище
загорье
заготовка
заготовки
заготовку
заготовок
загружать
загруженные
загрузка
загрузки
зад
задав
задавать
задае
задает
задан
задана
задание
заданию
задания
заданного
заданные
заданныи
заданным
заданных
задано
заданы
задаст
задать
задач
задачеи
задачу
задают
задающему
задающии
задеи
задержку
заднее
заднесельское
задняя
задорье
зазаки
заи
заимствование
заимствовании
заира
закан
заканчивается
заканчивая
закир
закира
закладка
заключается
заключать
заключающии
заключе
заключив
закон
закона
законаш
законодательни
закону
закрывающии
закрыт
закрытия
закрытое
закрытые
закята
зал
залесское
залесье
залив
заливка
залужье
залучское
зам
зама
замагара
замаи
замал
замалахь
замалахьа
заман
заманах
замах
замаш
замена
замене
заменена
заменит
замените
заменить
заменои
замену
замены
заменяет
заменяи
заменять
заменяются
заменяющии
заместитель
заметки
заметными
замечание
замечания
замок
заморские
заморских
замостье
замошское
замошье
зана
занимает
занино
занулятор
занятии
заоаг
заодно
заозерье
заочни
заочно
зап
западная
западного
западнои
западныи
запань
запасе
записана
записанного
записать
записеи
записи
записка
записывается
записывать
записываться
записываются
запись
заполек
заполнен
заполнение
заполнением
заполнению
заполнения
заполненном
заполнено
заполнены
заполните
заполнить
заполняется
заполнять
заполье
запрет
запретить
запрещает
запрещается
запрещено
запрос
запроса
запросить
запросы
запустить
запятая
запятои
запятую
запятыми
зар
заработало
зарба
зарбан
зарбанче
зарбанчен
зарбанченашка
зарегистрированные
зарегистрированныи
зарегистрироваться
зарема
заречная
заречное
заречье
зародыш
зародыша
зародышевые
зародышеи
заручевье
заря
заслуги
заслуженныи
заставка
затем
затеречныи
заурбек
захаров
захарово
захаровская
захаровское
захарьино
захит
заход
зача
зачастую
заш
защита
защитои
защиты
защищать
защище
заьзгакъонгии
заьзганаькъан
заьлмах
заьлмаха
заявка
заявки
заявку
заявлении
заявления
заӏапхо
званеш
звани
звание
звании
званию
звания
званскии
зве
звезда
звезды
звеньевои
зверь
звук
звука
звуковые
звучания
звягино
зд
здесь
здоровья
здочками
здочкои
здравому
здравоохранения
здравыи
зды
зе
зеи
зеландии
зеландия
зеле
зеленцовское
зем
зема
земле
земледельческии
земли
землю
земля
земноводные
земнои
земсеттолга
земского
зенштеи
зер
зерат
зза
зи
зигота
зиготы
зидьян
зиза
зизаи
зизаш
зии
зирак
зиракал
зирхата
зия
зка
злои
злоупотреблять
зм
змееносец
змеи
знаете
знак
знака
знаки
знаков
знаком
знаменитое
знаменитые
знаменское
знамя
знание
знании
знать
значение
значением
значении
значению
значения
значениями
значениях
значимое
значимости
значимость
значимые
значит
значительные
значка
значки
значком
значок
зная
зно
зовик
зовикское
зовр
зовраш
зоврбик
зоврбика
зовскии
зои
золотаре
золотая
золото
зона
зонаши
зонта
зоны
зоологи
зоологических
зори
зрения
зубаи
зубов
зубово
зубутли
зубцовскии
зувш
зуево
зулам
зулу
зумсои
зунгатии
зурабанаькъан
зухра
зы
зыково
зырянскии
зязиков
зять
зӏамагӏа
зӏамагӏча
зӏамача
зӏамига
зӏамигагӏа
зӏамигача
зӏамигеи
зӏамсаг
зӏанара
зӏанараш
зӏанарех
зӏанархецар
зӏилбухе
зӏилбухен
зӏилбухера
зӏилбухерча
зӏилбухехьа
зӏилбухехьара
зӏы
и
ибал
ибль
ибн
ибо
ибрагим
ибрагимович
ибрах
ибрахьим
ибрахӏим
ибрахӏима
ивакино
иван
ивана
иванково
иванов
иванова
иванович
иваново
ивановская
ивановскии
ивановское
иванцево
иваньково
ивашево
ивизда
ивонино
иг
ига
игаи
игача
игбо
иглокожие
игнатово
игнатовская
игнатьево
игнорирует
игнорируется
игнорируются
игорь
игр
игра
играет
играл
играх
игрок
игроков
игры
игумново
ида
идал
идала
идалбат
идалеи
идали
иде
идеал
идеальныи
идее
идеи
идентификатор
идентификатора
идентификаторами
идентификаторов
идентификатору
идентификаторы
идентичен
идеология
идея
иджмаӏ
иджмаӏа
идиш
идо
идрис
идриса
идриси
идрисович
идут
ие
иена
иерархе
иерархи
иерархии
иерархических
иерархию
ижарии
из
иза
изар
избегаи
избегать
избежание
избежать
избербаш
избранная
избранные
избранныи
избранных
избыточнои
известен
известия
известна
известное
известнои
известности
известны
известные
известныи
известных
изготовления
изд
издание
издании
издания
изданные
издатель
издательства
издательствас
издательстваш
издательстве
издательство
издательствос
издательству
издателя
изза
иззамо
изи
излишне
изложения
изложенными
изложить
излучение
измаи
измене
изменен
изменение
изменением
изменении
изменения
изменениями
изменили
изменить
измениться
изменять
изменяющеи
измерения
изначально
изображена
изображение
изображением
изображении
изображению
изображения
изолецитальные
изолецитальным
изолированные
израиль
израиля
изстане
изучение
изучения
ии
иисус
иисуса
иисусу
икарии
иконки
ил
ила
илбазговр
илбазмух
илбухе
илбухен
илбухера
илбухерча
илбухехьа
илдарха
илез
илеза
илезское
иленаькъан
или
илисха
илла
иллаи
иллар
илларах
иллача
илле
иллеш
иллешцара
илли
иллиалархо
иллюстрацеш
иллюстрации
иллюстрирование
иллюстрированная
илма
илмаи
илман
илманхо
илманхои
илманхочо
илманхоша
илманхошта
илмах
илмаш
илмо
ильина
ильиногорское
ильинская
ильинскии
ильинское
ильича
ильяс
ильяса
им
има
имаго
имам
имамага
имамалла
имарс
име
имеет
имеется
имели
имен
имена
именами
именем
имени
именительном
именно
именование
именования
именованные
именованных
именовать
именуется
именуются
иметь
имеют
имеются
имеющая
имеющие
имеющиеся
имеющии
имеющих
имитировать
иммиграция
иммунитет
иммунитета
иммунитето
иммунная
иммунни
император
императора
императорского
императорскои
импере
имперен
импереш
импери
империализм
империи
империя
импорт
импульсаш
имя
ин
иналук
инарал
инари
инарки
инаркъе
иначе
инбухе
инбухен
инбухера
инбухерча
инбухехьа
инвагинации
инвагинация
инвалидность
инвентарни
инг
ингал
ингалвики
ингалсии
ингушеи
ингушетии
ингушетия
ингуши
ингушская
ингушские
ингушскии
ингушских
ингушского
ингушское
ингушскои
ингушском
ингушскую
индеи
индекс
индекса
индексаш
индексов
индексы
индентификатор
индии
индоевропаи
индонези
индонезии
инженер
инженери
инжила
инза
инициалы
инициацен
инициаци
инициированного
инкал
инкалаш
инкалех
инкарло
инклюзионизм
инкубатор
инкубатора
иногда
иного
иное
инои
ином
иностранного
иностранное
иностранном
иностранные
иностранным
иностранных
иноязычного
иноязычнои
иноязычную
иноязычные
иноязычных
инспектор
инспектора
институт
института
институташ
институте
институто
инструктор
инструкци
инструкция
инструмент
инструмента
инструменты
инсульт
интеллект
интервал
интервалов
интервик
интервикеш
интервики
интересах
интересные
интересы
интерлингве
интернат
интернет
интернета
интернете
интерфеи
интуитивно
инуктитут
инфаркт
инфекце
инфекция
инфо
информатика
информациеи
информации
информационная
информационное
информационные
информационныи
информацию
информация
инфравидовои
инфракласс
инфраотряд
инфраструктура
инхело
инхо
иные
иных
иоанна
иоганн
ионическое
ионов
иосиф
ипатовскии
иппали
ир
ира
ираз
ирак
ирака
иран
ирана
ираш
ирг
ирзу
ирии
ирисханов
ириче
иркутская
ирландии
ирландия
ирландское
ирмингера
ироническое
ирс
ирсаш
ис
иса
исаак
исады
исаева
исаевич
исаевна
исаево
исаи
исаково
исача
исаяц
исбахьале
исбахьалеи
исбахьален
исбахьаленах
исбахьалении
исбахьлен
искажение
искажения
искать
исключение
исключением
исключения
исключениями
исключительно
искусств
искусства
искусственное
искусственныи
искусство
искусствоведения
ислам
ислама
исламага
исламе
ислами
исламская
исламскии
исланди
исма
исмаил
исмаӏал
исмаӏала
исмаӏалах
исмаӏалии
исмеи
исп
испании
испания
испанои
испанская
испанскии
испанское
исполкома
исполкоме
исполнении
исполнительнои
исполнительныи
использоваие
использовалось
использовался
использован
использована
использование
использованием
использовании
использованию
использования
использованных
использовано
использованы
использовать
использоваться
используемая
используемого
используемому
используемые
используемыи
используемым
используемых
использует
используете
используется
используи
используют
используются
использующего
использующие
использующих
используя
испр
исправить
исправление
исправления
исправлять
исраил
исраилов
исроапала
исроапаланаькъан
исса
исследование
исследовании
исследователеи
ист
иста
истар
истача
исте
истеи
истен
истера
истерча
истечении
истеяьккхаи
истеяьнна
исти
истии
истина
истины
истмале
исток
истока
исторе
истореца
истори
историеи
истории
историк
историки
историко
историческая
исторически
историческии
историческим
исторических
исторического
историческои
историю
история
источник
источника
источниками
источниках
источнике
источники
источников
источником
истринскии
исхак
исход
исходная
исходного
исходном
исходныи
исходным
исходя
исчезает
исчезновения
ита
итаи
италии
италия
италхои
итальянская
итальянскии
итар
итог
итогам
итоги
итогов
итогом
итт
итталагӏа
иттех
иттлаг
иттлагӏча
иттшерии
иттшу
итум
иудаизм
иудаизме
их
иха
ихад
ихе
ихеза
ихезача
ихноваьр
ихнокеп
ихьа
ихьаи
иц
ицар
ича
ичичали
ичкерии
иш
иша
ишас
ишии
ишк
ишкол
ишкола
ишколаш
ишколашта
ишколе
ишколера
ишло
ишта
иштта
ишхои
ищем
ищерская
иъ
иълаг
иълагӏа
иълагӏча
июле
июль
июля
июне
июнь
июня
июпак
иӏиг
иӏии
к
ка
кабардино
каббала
кабир
кабо
кабожа
кабожское
кабье
кавалер
кавалере
кавалерии
кавка
кавказ
кавказа
кавказаи
кавказах
кавказдехье
кавказдехьен
кавказе
кавказеи
кавказера
кавказерча
кавказовед
кавказская
кавказскии
кавказского
кавкамахи
кавкасиона
кавкасионии
кавминвод
кавычек
кавычках
кавычки
кагегӏча
кагии
кагирхои
када
кадаш
кадаь
кадаьд
кадетии
кадетских
кадеш
кадмии
кадников
кадровыи
кадуи
каждого
каждое
каждои
каждом
каждую
каждыи
каждым
кажется
казана
казанище
казань
казахии
казахстан
казахстана
казахстане
казахстанеи
казахстанская
казбековскии
казимир
казмаляр
казмалярскии
казначеи
казнь
каи
как
кака
какая
какие
каким
каких
какого
какое
какои
каком
какому
какую
кал
кала
калам
каламаш
каламаши
каледония
календарь
календарю
календаря
календула
кали
калии
каликино
калиматов
калининаул
калининградская
калинино
калининскии
калининское
калинкино
калинниково
калиновка
калиновскии
калинское
калитино
калифорнии
калмыкия
калмыцкии
калово
калужская
калып
кальскии
кальции
калья
калязинскии
кам
каме
камелияш
каменка
каменная
каменник
каменное
каменныи
каменскии
камень
ками
камотес
камчатская
камчатскии
канада
канадеи
канады
канал
канала
каналаш
каналаши
каналашка
канаькъан
кандидат
кандидата
кандидатага
кандидаташ
кани
каннада
кант
кантышево
канури
капилляраш
капиллярашта
капиллярии
капитал
капитализм
капитан
капитуляции
капкаи
капустино
кар
кара
карабаха
карабахе
карабудахкентскии
карабулак
караг
карагӏдаьнна
карагӏдаьннарех
карагӏдии
карагӏдоал
каракюре
карал
каранаи
карара
карарча
карасаев
карате
карачаево
карбона
карджин
кардиологи
карелия
карельскии
кари
карибера
карибское
каримов
карл
карлос
карпово
карповская
карповское
карское
карстенса
карт
карта
картами
картах
карташ
карте
картинка
картинки
картои
карточек
карточка
карточках
карточкаш
карточкашта
карточке
карточки
карточкои
карточку
карту
карты
картье
карца
карьер
карьеры
касается
касающеи
каст
каста
кастта
касттаг
кат
каталана
каталанская
каталог
каталогов
катанга
катар
катастрофаш
категори
категоризации
категоризацию
категоризация
категории
категорию
категория
категориями
категориях
категорија
катионаши
катрух
катэгорыя
кафанов
кафедра
кафедраи
кафедран
кафедре
кафриэлянц
ках
кача
качалово
качества
качестве
качественнои
качественную
качество
каш
каша
кашамаш
кашамашка
кашино
каь
каьзе
каьзера
каьзи
каьи
каьлаке
каьлла
каьхат
каьхата
каьхаташ
каякентскии
каяреи
каяьи
кбу
квадратика
квадратные
квадратных
квалификатор
квалификатора
квалификаторов
кваньяма
квартира
квартире
кг
ке
кеи
келматанаькъан
келои
кельтское
кем
кема
кемеровская
кемское
кен
кена
кеннеди
кеп
кепа
кепаеттача
кепаех
кепаи
кепал
кепатеха
кепатехаб
кепатехад
кепатехаи
кепатехар
кепатехача
кепатох
кепатоха
кепатохар
кепатохаш
кепатохии
кепах
кепаш
кепе
кепии
кептар
кера
кераста
керасти
керда
кердаг
кердача
кердаяраш
кересть
керта
кертагара
керте
кертеи
кертера
кертерча
кертте
керттера
керттердар
керттерча
кетонаш
кечал
кечалаш
кечам
кечуа
ки
киберпространство
киев
кизга
кизилюрт
кизляр
кизлярскии
кии
кикбоксингу
кикуи
киликии
килиманджаро
километр
километра
километрах
ким
кимрскии
кина
киназ
киназа
кинг
кинематограф
кинешемскии
кинижка
кинижкаш
кинижкии
кино
кинон
кинорежиссе
кинофильм
кинош
кинское
кипр
кипра
кипрское
кир
кираца
киргизе
кирилица
кирилла
кириллица
кириллицаи
кириллицан
кириллицы
кириллически
кириллические
кириллическои
кириллов
кирилловскии
киров
кирова
кировская
кировскии
кировское
кировскои
киселев
киселево
кисловодск
кислород
кислорода
кислородаца
кислота
кислоташ
кистии
кит
китае
китаи
китая
китообразные
кица
кицаш
кичменгско
кичменгское
кичуга
кишечник
кишечнополостных
кишечныи
кишии
кишка
кишки
кишкино
ккха
ккхаи
ккхар
кл
клавдии
класс
класса
классам
классашка
классашта
классе
классика
классики
классикии
классификатор
классификацен
классификацеш
классификаци
классификации
классификация
классификациям
классическая
классически
классических
классическои
классных
классов
классы
клаус
клеи
клеопатра
клепиково
клерк
клетка
клетки
клеток
клеточных
климат
климата
климишин
климково
климово
климовская
климовское
климовщина
климушино
клин
клиника
клинически
клинково
клинскии
клуб
клуба
клуни
ключ
ключа
ключевое
ключи
ключом
км
кмк
кн
кндр
книг
книга
книгах
книге
книги
книгу
книжка
книжканна
книжкаш
книжни
книжное
кнопка
кнопки
кнопку
княгинино
княжая
княже
княжево
княжество
князево
князь
ко
коа
коазои
коалиция
коанаӏараш
коара
коартол
коарча
коаст
коача
коачал
коачала
коачалаш
коачача
кобальт
кобана
кобелево
кобылкино
ков
коварзинское
ковна
ковнаш
ково
ковскии
ког
кога
когаметт
когаметта
когаца
когаш
когда
коги
когии
когилгии
кого
код
кода
кодам
кодах
кодаш
кодашца
коде
кодекс
кодекса
кодзоев
кодзоева
кодии
кодификация
кодов
кодом
коды
коже
кожевников
кожевниково
кожино
кожухово
козино
козицыно
козлов
козловка
козлово
козлои
кои
кока
кокурхои
колбино
колесо
колин
количества
количестве
количественное
количество
количеством
колкач
коллагена
коллеги
коллектива
коллективни
коллективы
коллекцех
коллизии
коллоидии
колоб
кологривскии
колони
колониализм
колонка
колонками
колонки
колонкои
колонок
колотилово
колумб
коля
ком
кома
команда
командаи
командир
командира
командного
командовал
команды
комараш
комарово
комбинат
комбинации
комбинацию
комбинация
комеди
коми
комик
комиссар
комиссарии
комиссаро
комиссе
комиссенна
комиссес
комисси
комитет
комитета
комитетии
комитето
комментареш
комментариев
комментарии
комментария
коммерце
коммерцен
коммерчески
коммерческии
коммуна
коммунизм
коммуникации
коммунисташ
коммунистии
комп
компактно
компане
компанеш
компани
компании
комплекс
комплекса
композитор
композиция
компонент
компоненты
компьютер
компьютерная
компьютернои
компьютерныи
компьютерных
компьютерцара
компьютеры
комсомольская
комсомольскии
комсомольское
кому
комьянское
конаново
конвенции
конвенция
конверт
конвертирование
конго
кондар
кондратово
конец
конечная
конечно
конечном
коническои
конищево
конкани
конкретная
конкретно
конкретного
конкретное
конкретнои
конкретном
конкретным
конкретных
конкурс
конкурса
конкурсе
кононово
консенсус
консенсуса
консервативни
консерватизм
констант
константа
константинов
константинова
константинополь
константы
конституце
конституцен
конституцех
конституци
конституцию
конституция
конструкции
конструкцию
конструкция
конт
контекст
контекста
контексте
контент
континент
континентальни
континентов
контроль
конур
конуса
конференце
конференци
конференция
конфессиональныи
конфигурацию
конфликт
конфликта
конфликтов
конца
конце
концепция
концу
конюхово
кооператива
координат
координатам
координатами
координатах
координаташ
координаташца
координаты
координации
коп
копа
копани
копеи
копи
копии
копирование
копирования
копировать
копию
копия
копылово
кор
кора
корадаь
корадаьд
корадаьча
корадича
коралловое
коран
корана
коране
корану
корах
кораяь
кораяьи
кораяьча
кораяьяле
кореи
коренные
коренных
корея
корнеи
коро
коробицынское
коробка
корова
коровино
коровинская
коровка
коровки
короле
королевская
королевства
королевство
короля
короткая
короткие
короткии
короткое
короткои
коротовское
корпово
корпус
корпуса
корпусаш
корпусов
корректнее
корректно
корректного
корректнои
корректор
корреспондент
корсаковскии
корсам
корт
корта
кортамукъа
кортамукъале
кортамукъален
кортеи
кортмукъале
корякино
корякскии
коса
косвенно
косвенное
косиба
косиково
косино
косково
космических
космонавтов
космос
космоса
косово
косои
коста
костек
костино
костоев
костромская
костыль
костюнинская
косцюшко
кот
котаганаькъан
котало
котам
котама
котельная
котельниково
котиев
котово
которая
которого
которое
которои
котором
которому
которую
которые
которыи
которым
которыми
которых
коциташ
коциташи
коцитии
кочубеевскии
кочубеи
кошка
кощеево
коэффициент
кпсс
кр
крае
краеведене
краеведени
краеведческии
краевои
краеи
краи
крапивино
красавино
красково
красная
красноборское
красново
красногвардеи
красного
краснодар
краснодара
краснодарскии
красное
краснои
краснополянское
красноярска
красноярскии
красную
красные
красныи
красным
красных
красочныи
кратенько
краткая
краткии
кратким
кратко
краткое
кратком
кратныи
краю
края
краям
краях
кремле
креольскии
крепости
крепость
крест
креста
крестецкии
крестовая
крестовые
крестцы
кривец
кривцово
кризис
крио
кристаллаш
кристиан
критериев
критерии
критерию
критерия
критериям
критериях
критик
критические
критское
крови
кровообращение
кровь
кроме
кроне
кронпринца
кроуфорд
круг
круглица
круглыи
круглых
кругосвет
кругу
крупнее
крупнеи
крупнов
крупновские
крупные
крупных
крутец
крылова
крылово
крым
крымскии
крымстат
крюково
кс
кстати
кстечки
кт
кто
ку
куба
кубенское
кубинскии
кубка
кубок
кувеи
кугульта
куда
кудрино
кудрявцево
кудряшов
кузино
кузнецовка
кузнецово
кузнецовская
кузнечиха
кузьминка
кузьминская
кузьминское
кузямбры
куи
кук
кука
кукал
кукловодство
кукуруза
кукурузнои
кулаково
кулг
кулга
кулгаи
кулгал
кулгалдар
кулгалдара
кулгалдари
кулгалде
кулгалдеча
кулгалдеш
кулгалду
кулгалхо
кулгалхоех
кулгалхои
кулгалхочун
кулгалхоша
кулгаца
кулгаш
кулгашца
кулгии
кули
куликово
кулотинское
культии
культур
культура
культураи
культуран
культурах
культурахи
культураш
культурашка
культурашкеи
культурашца
культуреи
культурная
культурни
культурного
культурное
культурнои
культуры
кум
кумена
кумзерское
кумух
кунгурскии
кундеи
кундуль
кунта
кунья
кур
кура
кураза
кураи
куракино
курахскии
курган
курганская
курденга
куреи
курилово
курино
куркимахи
курово
курорт
курорта
курорташ
курпе
курс
курсаш
курсе
курси
курсив
курсивное
курсивом
курская
курскенаькъан
курскии
курскои
курсора
куруш
курчали
курчалоевскии
курчалои
курша
курья
курьяково
кусово
кустяздар
кутикула
кухня
куц
куцага
куцах
куцаш
куцаши
куце
кх
кха
кхаба
кхаж
кхаи
кхал
кхала
кхалнах
кхалнаха
кхалнаьх
кхалнаьха
кхалсаг
кхалсага
кхалсагах
кхалсаго
кхарг
кхаргаш
кхахьа
кхахьар
кхача
кхачалца
кхачан
кхачарца
кхачарцеи
кхачии
кхаччал
кхаччалца
кхаччалцеи
кхаь
кхаьла
кхаьлл
кхаьра
кхаьта
кхаьча
кхаьчав
кхаьчад
кхаьчадац
кхаьчаи
кхаьчача
кхе
кхеваьв
кхеве
кхедар
кхедара
кхедаьд
кхел
кхела
кхелахо
кхелаш
кхеле
кхелла
кхеллаи
кхеллача
кхело
кхелха
кхелхаб
кхелхав
кхелхаи
кхелхар
кхелхача
кхелхачул
кхер
кхера
кхерам
кхераме
кхерамзлен
кхерар
кхерах
кхераш
кхерии
кхерча
кхестара
кхестача
кхесташ
кхет
кхета
кхетаде
кхетадеш
кхетадир
кхетадича
кхетадои
кхетадора
кхетаду
кхетаеш
кхетам
кхетамаш
кхетамца
кхетарца
кхетача
кхетаче
кхеташ
кхетаю
кхетталца
кхии
кхо
кхоабаш
кхоаву
кхоази
кхоалаг
кхоалагӏа
кхоалагӏча
кхоана
кхоартои
кхоач
кхоача
кхоачалуча
кхоачам
кхоачамаш
кхоачамбоацар
кхоачамбоацараш
кхоачамбоацарии
кхоачамбоацаш
кхоачара
кхоачарагӏа
кхоачаш
кхоачашдара
кхоачашдарца
кхоачашде
кхоачашдергдолаш
кхоачашдеш
кхоачашдича
кхоачашду
кхоачашъеш
кхоачашъяра
кхоаче
кхоачии
кхоачча
кхоаччаш
кхоаччашшехьа
кховар
кховзткъа
кховзткъеи
кхозза
кхои
кхоккха
кхолл
кхолла
кхоллаг
кхоллам
кхоллама
кхолламах
кхолламаш
кхолламе
кхолламех
кхолламии
кхоллар
кхоллара
кхолларал
кхолларах
кхоллача
кхоллаш
кхоп
кхор
кхории
кхоъ
кхувлаш
кхуврч
кхувш
кхухь
кхухьа
кхухьаргаш
кхухьаш
кхы
кхыбараш
кхыбарии
кхыбола
кхыболча
кхыдар
кхыдараш
кхыдоа
кхыдола
кхыдолча
кхыи
кхыметтал
кхыметтала
кхыметтел
кхыча
кхычара
кхычарел
кхычарна
кхычахьа
кхычахьара
кхычох
кхыяраш
къ
къа
къаб
къадарии
къаенна
къаи
къам
къама
къамаи
къаман
къаманна
къамарга
къамах
къамаца
къамаш
къамаша
къамашта
къамаьл
къамаьла
къамаьлах
къамаьлаш
къамбулата
къамии
къамо
къанз
къанза
къар
къаракъ
къарше
къаршии
къаршои
къаспии
къаста
къастта
къахетам
къахетаме
къахеташ
къахьа
къахьег
къахьега
къахьегам
къахьегама
къахьегамах
къахьегамхо
къахьегамхои
къахьегамца
къахьегар
къахьегарца
къахьегаш
къахьии
къачул
къаьга
къаьгга
къаьда
къаьзи
къаьна
къаьнаг
къаьнагӏа
къаьнара
къаьнареи
къаьнарча
къаьнача
къаьст
къаьста
къаьстта
къаьсттача
къе
къежаш
къемат
къемата
къесте
къиза
къилбаседа
къо
къоабал
къоабалъяь
къоал
къоано
къоанои
къоаночунга
къоастадаь
къоастаде
къоастадеш
къоасталуш
къоастам
къоастаяь
къоастои
къоастоша
къовлоргаш
къовсам
къовсама
къовсамаш
къовсаме
къодам
къои
къона
къонах
къонахии
къонахчал
къонача
къонгаш
къонгии
къор
къора
къорасарсал
къорӏа
къорӏан
къорӏана
кътрк
къуббаш
къулбаседа
къулбехьера
къумукъча
къураи
къуреи
къуркъа
къуркъанаькъан
кэ
кэш
кэша
кэширования
кӏа
кӏада
кӏадаех
кӏадаи
кӏадан
кӏадах
кӏадаш
кӏадаша
кӏадаши
кӏадашка
кӏадашкара
кӏадашкареи
кӏадашкеи
кӏадех
кӏадии
кӏаи
кӏал
кӏала
кӏалара
кӏаларча
кӏалваьр
кӏалдезала
кӏале
кӏалеи
кӏали
кӏалкеп
кӏалкласс
кӏалсекци
кӏалтаи
кӏалтоаба
кӏалтоабан
кӏалтохаргах
кӏалха
кӏалхара
кӏалхарча
кӏалхе
кӏалхенни
кӏалъоагӏаташ
кӏалъоагӏонаш
кӏант
кӏаьда
кӏаьдвенна
кӏаьнк
кӏаьнка
кӏаьнкаш
кӏеззига
кӏезиг
кӏезига
кӏезигагӏа
кӏезигдалар
кӏии
кӏира
кӏирагахьа
кӏирагахьара
кӏиран
кӏиранди
кӏо
кӏоанолгаш
кӏоарга
кӏоаргагӏа
кӏоаргал
кӏоаргача
кӏора
кӏоригаш
кӏормации
кӏотаргии
кӏужбагӏа
кӏурии
л
ла
лаб
лаборатория
лабороторен
лабрадор
лаврентии
лаврово
лаг
лага
лагере
лагерь
лагеря
лагос
лагпилг
лагӏа
лагӏаш
лад
ладии
ладувгӏ
ладувгӏа
ладувгӏаш
ладышкино
лаза
лазар
лазарах
лазараш
лазараши
лазарева
лазарии
лаи
лаккадивское
лакскии
лакха
лакхаг
лакхагӏа
лакхагӏеи
лакхал
лакхара
лакхарча
лакхахьа
лакхача
лакхе
лакхег
лакхеи
лакхера
лакхереи
лакхерча
лакхерчеи
лакхехьа
лакхехьара
лакхехьарча
лакхъе
лакхъеш
лакхъяра
лам
лама
ламаз
ламаза
ламара
ламӏилма
ламӏилман
лан
ланаькъан
ланге
ландшафт
ланна
ланцентник
лао
лапино
лаптево
лаптевых
лар
ларах
лараш
ларбо
лард
ларда
лардаш
ларде
лари
ларсена
ларх
лархӏа
лархӏар
лархӏари
лархӏац
ларца
лас
ластар
ластараш
лат
лата
латар
латаш
латвии
латвия
латераль
лати
латинии
латиница
латиницы
латинои
латинская
латинские
латинскии
латинским
латинских
латинского
латинское
латинскои
латинскую
латт
латта
латтар
латтара
латтача
латташ
латте
латтии
латыни
лауреат
лауреаташ
лаурет
лах
лаха
лахар
лахара
лахари
лахь
лахьа
лац
лаца
лацар
лацара
лача
лаш
лаша
лаши
лашка
лашта
лашца
лаьг
лаьжги
лаьзгии
лаьнанаькъан
лаьрх
лаьрхх
лаьрххӏа
лаьрхӏа
лаьрхӏад
лаьрхӏача
лаьт
лаьтта
лаьттаб
лаьттав
лаьттагӏара
лаьттаех
лаьттаи
лаьттан
лаьттани
лаьттанна
лаьттар
лаьттарех
лаьттах
лаьттахи
лаьттача
лаьттачарех
лаьтташ
лаьтташи
лаьтташка
лаьтташта
лаьтташцара
лаьттеи
лаьттии
лаьтто
лаьца
лаьцад
лаьцаи
лаьцар
лаьцача
лаьцачарии
лаьча
ле
лебеш
лев
левантинское
леваш
левашинскии
левино
левинская
левково
левого
левои
левокумскии
левом
левому
легадар
легар
легенда
легко
легкои
легче
ледовитыи
лежит
лезгинскии
леи
лекарств
лекарственное
лексика
лексике
лексику
лекхаш
лекцеш
лел
лела
лелабар
лелабаьб
лелабе
лелабеча
лелабеш
лелабу
леладар
леладара
леладаргахьа
леладари
леладарца
леладаьд
леладаьр
леладе
леладер
леладераш
леладергдолаш
леладеча
леладеш
леладира
леладу
лелае
лелаеча
лелаеш
лелам
леламаш
лелар
лелара
лелача
лелаш
лелаю
лелаяр
лелаяра
лелаяьи
лелеи
лелии
лелха
лелхалоам
лен
ленаш
ленин
ленина
ленинаул
ленинград
ленинграда
ленинграде
ленинградская
ленинградского
ленино
ленинскии
лента
лентьевское
лер
лера
лераш
лерашта
лерг
лерга
лергаш
лерии
лермонтова
леро
лерттӏа
лерттӏача
лерх
лерхӏам
леса
лесковское
лесная
лесташ
лет
лета
леташ
летия
леушкино
леха
лехаш
лечение
лечения
ли
либерализм
либо
ливи
лига
лигаи
лиги
лигурии
лида
лидер
лиза
лии
ликвидации
лили
лиман
лимфа
линг
лингала
лингаш
лингвистика
лингвистикаи
лингвистике
линеи
линии
линия
линк
линкольна
линнеи
липецка
липецкая
липецкое
липиды
липицы
липовское
лир
лисицыно
листа
листки
листьях
лит
литвиново
литератории
литература
литератураи
литературан
литературахи
литературе
литературеи
литературная
литературни
литературно
литературного
литературном
литературные
литературных
литературу
литературы
литии
литовская
лихтенштеи
лихьарч
лиц
лица
лицее
лицеи
лицензеш
лицензешца
лицензи
лицензиеи
лицензии
лицензировани
лицензию
личинка
лично
личное
личнои
личности
личность
личную
личныи
лишиться
лишнеи
лишние
лишь
лке
лково
лку
лл
лла
ллои
лнр
ло
лоа
лоадам
лоадаме
лоадамег
лоадамегӏа
лоал
лоалах
лоалахои
лоам
лоаман
лоаманхои
лоамара
лоамарои
лоамарча
лоамаш
лоамаши
лоамашка
лоамашта
лоаме
лоамен
лоамии
лоарх
лоархаш
лоархӏ
лоархӏа
лоархӏалга
лоархӏам
лоархӏаме
лоархӏамегӏа
лоархӏар
лоархӏаргдац
лоархӏача
лоархӏаш
лоархӏе
лоаттабеча
лоаттабеш
лоаттадаь
лоаттадаьд
лоаттаде
лоаттаду
лоаттае
лоаттам
лоаттама
лоаттамах
лоаттаме
лоаттами
лоаттаю
лоац
лоаца
лоацар
лоацача
лоацаш
лоацдаь
лоацдаьраш
лоацеи
лоацца
лоаццача
лобаниха
лобаново
лов
ловзадаьд
ловзадеш
ловзаеш
ловзар
ловзаш
ловзорг
лович
ловка
лово
ловская
ловскии
ловское
ловца
ловш
ловшдар
лог
логарифм
логика
логике
логиново
логическое
логическую
логотип
логотипа
лодеи
лои
лок
локализованного
локальная
локально
локального
локальные
локальныи
локальным
локальных
локомотив
локомоци
локтевскии
локхарг
лом
ломоносова
лон
лондон
лондоне
лопатино
лор
лора
лорадар
лорадара
лораде
лорадеш
лорае
лораеш
лорал
лорала
лоралах
лоралеи
лоралца
лораш
лораяр
лораяра
лордаш
лории
лорса
лоръю
лос
лостам
лостамах
лось
лоткъам
лоха
лохаг
лохагӏа
лохалу
лохарча
лохаш
лохе
лохера
лохереи
лохерча
лохерчеи
лохта
лоӏаме
лоӏамца
лр
лс
лсаг
лсаганаькъан
лтыи
лу
луба
лувцаш
лувча
луг
луганда
луговое
луговомарии
луи
луиза
луизаи
луизас
лука
луки
лукина
лукино
лукинская
лукинское
лукьяново
луна
луне
лунево
луны
лур
лургда
луч
луча
лучки
лучше
лучшего
лучшие
луш
лха
лхаг
лы
лые
лыи
лыткино
ль
льни
люба
любаи
любин
любовь
любого
любое
любои
любом
любомировское
любые
любым
любытинскии
любытинское
любых
людвиг
людеи
люди
людмила
людмилаи
людовик
людям
людях
люксембург
ля
лягушки
ляжги
м
ма
маг
мага
магадан
магаданская
магар
магарамкентскии
магарах
магас
магаса
магасах
магасе
магасера
магац
магнии
магнит
магомед
магомедович
магомет
магометович
магӏалбик
магӏалбика
магӏалбикера
мадагаскар
мадам
мадарра
мадданара
маддане
мадданерча
маджарои
мади
мадина
мадинаи
мадинат
мадинате
мадрид
мажита
мажор
маза
мазадакъа
мазадоакъош
мазаи
мазаоаг
мазаоагӏон
мазаоагӏув
мазаш
маздака
маздаке
мазхаб
маи
мак
мака
макао
макарово
макаровская
макарьино
македонскии
македонхои
макка
маккара
маккарча
маклаково
макс
максимальная
максимальное
максимальныи
максимово
максимовская
максимовское
максимум
макшарипа
макшарипович
мал
мала
малав
малаг
малагӏа
малагӏча
малаи
малар
малаш
малая
малаялам
малгобек
малгобекнефть
малгобекскии
маленьких
малер
малечкинское
малии
малиновка
малкхареи
малкхарои
мало
маловажные
маловишерскии
малого
малое
малои
малсаг
малсаганаькъан
малсагнаькъан
малх
малха
малхагахьара
малхах
малхбоале
малхбоален
малхбоалера
малхбоалерча
малхбоалехьа
малхбоалехьара
малхбоалехьарча
малхбоалехье
малхбоалехьеи
малхбузе
малхбузен
малхбузера
малхбузерча
малхбузерчеи
малхбузехьа
малхбузехьара
малхбузехьеи
малхо
малые
малыи
малыми
малых
малышево
мальгино
мальсагов
мальсагова
мальтии
мама
мамиланаькъан
мамилов
ман
мангал
мангала
мангалкомар
манге
манипури
манифест
манкиев
мансии
мансур
маньково
мао
маори
мар
мара
маратхи
марганец
марганцовка
маргулис
маре
марем
марет
марзабиканаькъан
мари
марии
марина
марино
мария
марк
марка
маркера
маркес
маркированныи
маркировки
марково
марковская
марковское
марксизм
маркушевское
маркхал
марокко
марс
марси
март
марта
мартан
мартен
мартин
мартыново
мартыновская
марфино
марха
мархаш
мархии
марш
марша
маршалла
маршалльскии
маршрут
марьино
марьинская
марьинское
марьям
масаи
масал
масала
масалаш
масджид
масехк
масжид
маска
масла
маслово
маср
масс
масса
массава
массадола
массадолча
массаза
массаи
массал
массала
массанахьа
массане
массанена
массахана
массе
массеи
массекх
массехк
массехкача
массив
массиву
массово
массового
массовое
массовои
массовых
массы
мастер
мастера
масштаб
масштабу
масӏуди
мат
мата
матвеево
матвеевская
матвеевское
мате
математик
математика
математикаи
математикан
математике
математики
математически
математические
математических
математическое
матенаькъан
матер
матери
материал
материала
материалам
материалах
материалаш
материалаша
материало
материалов
материалы
материальни
материка
материков
материя
матиев
матриксе
матрица
мать
матюрен
маурино
мах
махал
махала
махаон
махачкала
махьал
махьии
махьмад
махьмуд
маца
мациев
мачада
маш
машар
машара
машен
машена
машенаш
машении
машин
машина
маьждиг
маьждига
маьждигаш
маьждигашка
маьждиге
маьже
маьженаш
маьженаша
маьженаши
маьженашка
маьженашкареи
маьженашкеи
маьженех
маьжении
маькх
маьл
маьлха
маьлхара
маьр
маьре
маьрел
маьржа
маьрк
маьрша
маьтлоам
маьтлоама
маьтт
маьха
маьхаза
маьхал
маьхала
маьхалах
маьхалаш
маьхалии
маьхах
маьцхали
мая
маяк
маӏа
маӏан
маӏанаш
маӏане
маӏарлои
маӏача
мб
мби
мвд
мворк
мгу
ме
меандровое
мебели
мебель
мег
мегаргда
мегаргдола
мегаргдолаш
мегарги
мегаш
мегорское
медали
медаль
медведев
медведева
медведево
медведи
медведь
медиа
медиафаи
медик
мединские
медицина
медицине
медицинская
медицинские
медицинских
медуз
медь
между
международная
международного
международное
международнои
международном
международному
международные
международныи
международным
международных
междуреченскии
междуречье
межклеточных
межпредметныи
межъязыковых
мезенхимах
мезэнцефалон
меи
мекканские
мексика
мексиканскии
мектеб
мекъашк
мел
мела
мелаш
меленка
мелехово
мелитопольскии
мелкие
мелким
мелкими
мелких
мельница
мембранни
мемуарист
менделеев
менделеева
менее
менна
менструация
меньше
меньшеи
меньшие
меньшую
меню
меня
меняется
менялась
менять
меняются
мер
мера
мерами
мере
мерешканаькъан
мерж
мержои
мерза
меридиан
меридиана
меридианом
меркурии
мероприятеш
мероприятии
меру
меры
мест
места
местами
местах
месте
местного
место
местоположение
месту
месяц
месяца
месяцев
месяцеслов
месяцы
мет
мета
метаболизм
метаболизма
метаболиташ
металлов
металлы
метасимпатикан
метафизика
мете
метеорологи
метка
метки
меткои
метку
метод
методаш
методашца
методех
методист
методически
методы
меток
метр
метра
метрах
метро
метров
метрополитена
метта
меттагара
меттагахьа
меттаех
меттаи
меттал
меттала
меттаоттадар
меттаоттаде
меттаоттае
меттаоттаеш
меттаоттаяр
меттаоттаяра
меттаоттаярах
меттаоттаяьи
меттара
меттах
меттахи
меттаца
меттацара
метташ
метташи
метташка
метташта
метте
меттеи
меттел
меттера
меттига
меттигаш
меттигера
меттигерча
меттии
механизм
механизма
механизмаш
механизмов
механика
механически
мехка
мехкадаьтта
мехкадаьттан
мехкаех
мехкаи
мехкал
мехкара
мехкарашта
мехкарии
мехкарча
мехках
мехкахо
мехкахои
мехкаца
мехкацеи
мехкаш
мехкаши
мехкашка
мехкашта
мехкда
мехкдас
мехкдаь
мехкдаьи
мехкдаьтта
мехкеи
мехко
мецхал
мечами
мечети
мечниковым
ми
миа
миаех
миаи
миатли
миаш
миаши
миашка
миг
мигрируют
микаьил
микроскопа
милице
милиции
миллион
миллионов
мимар
мимивирус
мин
мингал
минданао
минералаш
минерале
минераловодскии
минералоге
мини
миниатюр
минимально
минимальные
минимальныи
минимальным
минимум
минино
министерства
министерстве
министерство
министерствос
министр
министра
министрии
мино
минстрои
минус
минусом
минут
минутах
минуты
минькино
миньковское
миокарда
мир
мира
мире
миркха
мирное
мирныи
мировая
мировои
миронушка
миртои
миру
мисаре
мисарен
миска
миссел
миссии
миста
мистача
мистификация
митаги
митал
митенское
митино
митинская
митотических
митральни
мифологе
мифологи
мифы
миха
михаи
михаил
михале
михалево
михалиха
михалково
михаш
михеево
михии
мича
мичад
мичахьа
мичахьара
мичча
миччахьа
мишино
мишта
миштад
мишутинское
мище
мкб
мкино
мкм
младшии
млекопитающие
млекопитающих
млн
млрд
мм
мммм
ммоль
мне
мнемоника
мнение
мнении
мнению
мник
многие
многими
многих
много
многоклеточных
многократно
многоликость
многострочные
многочисленным
множеств
множества
множественного
множественном
множество
множеством
мо
моажа
моажол
моаздака
моалои
моалоша
моалошта
моартал
моарталаш
моаршал
моаршали
моастаг
моастагӏии
моастагӏчоа
моастагӏчун
мобильнои
мобильные
мов
мовла
мовлас
мовсар
мовхьаш
мог
мога
могадар
могадаь
могадаьд
могадаьдац
могадеш
могаду
могаеш
могам
могар
могаш
могашал
могаяь
могга
могилу
могли
могло
моголии
могох
могут
могушков
моджахедаи
модз
модулаш
модуле
модулеи
модулем
модулеш
модули
модуль
модуля
модулях
мое
моего
можаи
можем
может
можете
можешь
можно
мозг
мозга
мозгӏар
моздок
моздокскии
мои
мок
мокшанскии
моладаьчунгахьа
молгми
молдавии
молдованка
молекула
молекулаи
молекулас
молекулярни
молибден
молла
моллаг
моллагӏа
моллагӏча
моллюскаш
молодая
молоде
молодежи
молока
молоково
молоковскии
молот
молуккское
молха
молхаш
мольер
момент
момента
монако
монархия
монархов
монастырская
монастырь
монголия
монгольская
монотеизм
монотипности
моноязычныи
монти
мора
моратории
морг
мордза
мордовия
море
мороженои
мороз
морозово
морозовское
морское
морфогенеза
морфогенетические
морфологе
морфологи
морфология
морхаш
морховское
моря
мос
мосеево
мосеевское
москва
москве
москвера
москверча
москвы
москоа
москоара
московская
московски
московскии
московское
мост
мостовича
мотострелкови
мотт
мотти
моттиг
моттига
моттигах
моттигаш
моттигаши
моттигашка
моттигашкара
моттигашца
моттиге
моттигеи
моттигера
моттигерча
моттигех
моттиги
моттигии
моту
моусона
мохк
мохки
мохктохкара
мохктохкархо
мохлои
мохтӏа
мохтӏе
моцаг
моцагӏа
моча
мочевина
мочкъа
мочкъеи
мочкъии
мочхала
мошенскои
моя
мраморное
мс
мт
мтднк
му
мувса
муг
мугӏ
мугӏам
мугӏамаш
мугӏами
мугӏара
мугӏараш
мугӏарашца
мугӏарера
мудрец
мудрость
муж
мужеча
мужече
мужичи
мужского
мужскои
мужчин
музее
музеи
музея
музыка
музыкальная
музыкальнои
музыкальные
музыкальныи
музыкальных
музыкант
музыканта
музыканте
музыке
музыки
муки
мукха
мукъ
мукъа
мукъаваьннав
мукъагӏа
мукъам
мукъама
мукъамхо
мукъамхои
мукъая
мулебки
мулла
мультимедиа
мультимедии
мумбаера
мумбаи
муми
мунда
муниципалитет
муниципальни
муниципального
муниципальное
муниципальные
муниципальныи
муниципальных
мур
мура
муравье
муравьево
мурад
мурада
мураделенна
мурадели
мурат
мурах
мураш
мургаш
мурзабеков
мурманская
муртаза
муртуза
муртузович
мурцаӏала
муса
мусаевич
мусаи
мусии
муссаи
мустафаи
мустье
мусульман
мусульмане
мусульманин
мусульманского
мут
мутаӏалимашта
мутт
муттхьал
муттхьов
мутӏахьа
мух
муха
мухаммад
мухаммада
мухаммаду
мухарбек
мухьаммад
мухьаммада
мухьаммадгире
мухьмад
мухьмада
муцолганаькъан
мушня
муӏаш
мфа
мценскии
мчс
мшага
мы
мыза
мыла
мырскии
мыс
мысли
мысль
мытищи
мыши
мышкино
мышцы
мэгги
мэи
мэн
мэр
мя
мягкое
мякишево
мяксинское
мяцхали
мӏа
мӏара
мӏаьда
мӏаьдгӏирга
н
на
наб
набавии
набахта
набережная
наблюдается
наблюдателя
наблюдении
наблюдения
набор
набора
набрать
нав
навахо
навац
наведении
наверно
наверное
навигации
навигационная
навигационни
навигационного
навигационнои
навигационном
навигационные
навигационныи
навигационным
навигационных
навигация
наволок
наг
нагахь
нагахьа
наггах
наггахьа
наговское
нагоном
нагорного
нагорное
нагорныи
наград
наградами
награду
награды
награжде
награждении
нагрузить
над
нада
надар
надежда
надежды
надзаголовка
надкатегории
надкласс
надо
надотдел
надотряд
надписи
надпись
надпорядок
надсекция
надсемеи
надтеречныи
надтип
надтриба
надцарство
нажать
нажгамсхои
нажмите
назад
назарово
назаровская
назвал
назван
название
названием
названии
названию
названия
названиям
названиями
названиях
названное
названные
назвать
назир
назначаемыи
назначает
назначен
назначение
назначения
назовите
назофарингит
назрани
назрановскии
назрань
называемого
называет
называется
называть
называться
называют
называются
наи
наиболее
наибольшее
наибольшие
наибства
наизусть
наименее
наименование
наименованием
наименования
наказуемо
накладывается
наклонная
наконец
накоплением
накостоев
накрутка
накха
накъа
накъшбандии
налга
налганаькъан
наличие
наличием
наличии
наличия
наличного
налог
нальгиев
нальчик
нам
наме
намерение
намерения
нана
нанаг
нанагӏала
нанагӏалаш
нанагӏалии
нанас
нанеи
нанна
наоборот
нап
напаг
напагӏа
написали
написан
написание
написании
написания
написанные
написанныи
написано
написаны
написать
напишите
наполеон
наполеона
напр
направление
направлении
направленнои
например
напрямую
нар
нарисовать
наркома
наркомпроса
наро
народа
народная
народного
народное
народность
народныи
народных
народов
народы
нарс
нарсии
нартскии
наружнои
наружную
наружныи
нарушение
нарушении
нарушения
наряду
нас
насекомые
насекомых
населе
население
населения
населенные
населенных
наси
насколько
наследие
наследия
насоново
насос
настолько
настольныи
настоящего
настоящее
настоящеи
настоящии
настроек
настрои
настроить
нат
ната
натах
наташ
наташа
наташи
наташка
наташта
натех
нати
натии
нато
натрии
натрия
натуральная
наук
наука
науках
науке
науки
наумовское
наурбиев
наурскии
науру
науч
научная
научно
научное
научнои
научном
научные
научныи
научных
нах
наха
нахага
нахала
нахах
нахаца
нахи
нахии
нахов
находится
находиться
находясь
находятся
находящиеся
находящихся
нахь
нахьа
нахьарча
нацара
нации
национализм
национальная
национальное
национальнои
национальности
национальность
национальные
национальныи
нача
начал
начала
начале
начало
началось
начался
началу
начальник
начальника
начального
начальныи
начать
начертания
начинает
начинается
начинать
начинаться
начинаются
начинающихся
начиная
начну
начнут
начул
начӏал
наш
наша
нашего
нашеи
нашем
наши
наших
наькха
наькъ
наькъа
наькъан
наькъанчун
наькъах
наькъахои
наькъахочунна
наькъаш
наькъаши
наькъашца
наьн
наьна
наьнага
наьнах
наьртии
наьсар
наьсаре
наьсареи
наьсарен
наьсаренна
наьсарера
наьсарерча
наьсархии
наьх
наьха
ная
наӏарах
наӏарга
наӏартӏеи
наӏартӏен
нба
нгӏасср
нд
ндебеле
нди
не
небесное
неболчское
небольшая
небольшим
небольших
неверныи
неверово
невидимои
невидимых
невозможно
невское
негативное
него
недели
неделю
неделя
недоедание
недопустимость
недопустимы
недостатки
недостаток
недостаточно
недостаточность
нее
нежелание
нежелательно
нежели
незаверше
независимо
независимости
независимость
независимыи
независимых
незаполненными
неи
неизвестен
неизвестно
неизвестныи
неименованные
неименованныи
неименованным
неименованных
неиспользуемые
некатегоризованные
некии
некитаи
неклюдиха
некои
некорректно
некорректного
некорректнои
некоторое
некоторои
некоторые
некоторыи
некоторым
некоторыми
некоторых
некрасово
некую
нел
нелазское
неложном
нельзя
нем
немало
немеции
немецкии
немецких
немецкого
немецком
немного
нему
немции
ненецкии
ненецкого
ненна
ненормативная
ненужные
ненумерованных
необоснованное
необходим
необходимо
необходимое
необходимости
необходимость
необходимостью
необходимую
необходимые
необходимыи
необходимых
необщеизвестно
необязателен
необязательно
необязательны
необязательные
необязательныи
необязательными
неограниченное
неоднозначностеи
неоднозначности
неоднозначность
неоднократныи
неоднородны
неоконченности
неолит
неопределе
неофициально
неплохим
неплохо
неполном
неполным
непонятно
непосредственно
непосредственного
неправильно
неправильное
непризнанные
непуста
непустое
непустои
непустом
нер
нерабочеи
неравномерно
неравномерного
неразрывного
неразрывные
неразрывным
нерв
нерва
нерваши
нервии
нервная
нервнои
несвои
несворачиваемого
нескольким
нескольких
несколько
несложным
несмотря
несомненно
нестандартная
нестериха
нестерово
нестеровская
нестеровское
несуществующее
несуществующие
несуществующии
нет
нетввикипедии
нефедово
нефедовская
нефедовскии
нефедьево
неформатированныи
нефти
нечаево
нече
нечетные
нечетных
ни
нибудь
нива
нигат
нигер
нигерен
нигерена
нидерландов
нидерландскии
нидерландского
ние
ниж
ниже
нижегородская
нижне
нижнего
нижнее
нижнеентальскии
нижнеи
нижнем
нижнеслободское
нижнешарденгское
нижние
нижнии
нижних
нижняя
низ
низа
низагӏа
низам
низамии
низкие
низкое
низовка
низъоамала
нии
ник
ника
никак
никаких
никакого
никакои
никарагуа
никель
никитин
никитино
никитинская
никифорово
никифоровское
никлаус
никогда
никола
николаевич
николаевская
николаевское
николаи
николая
николо
николоторжское
никольская
никольскии
никольское
никоновская
никулино
никулинское
никъ
никъи
нил
ним
ними
нимфалидаш
нина
нинскии
нисба
нитраташ
ниуэ
ниуэи
них
нихалои
нихь
ницкии
ницше
ничего
ният
нияташца
нка
нквд
нки
нково
нковское
нм
нна
ннаи
нная
нно
нновскии
нного
нное
ннои
нном
нному
нности
нность
нную
нные
нныи
нным
нными
нных
но
ноахал
ноахалашта
нобелевская
нобелевские
нобеля
нова
новая
новгород
новгородово
новгородская
новгородскии
новгородскои
новинка
новинки
нович
новишки
новка
новкъа
новкъар
новкъараш
новкъараши
новкъост
новкъостал
новкъостала
новкъосталла
новкъостии
новленское
ново
новоалександровскии
новогвинеи
нового
новое
новои
новокавказскии
новолакскии
новомихаи
новому
новорахинское
новосе
новоселицкое
новоселицы
новоселово
новоселье
новосельское
новосибирскаи
новосибирская
новости
новострои
новрбии
новская
новское
новую
новые
новыи
новыми
новых
ногаи
ногкау
ного
ногӏар
ногӏара
ногӏараш
ногӏараши
ногӏарии
нодышащие
ное
ножаи
нои
нок
нокхармоза
ноль
ном
номенклатура
номенклатуры
номер
номера
номерами
номераш
номере
номеров
номером
номеру
номинаци
номинации
норвегии
норвежская
норвежскии
норвежское
норга
норгиче
норма
норман
нормы
носил
носителеи
носитель
носково
нотр
ноты
нохч
нохчашкахьа
нохчи
нохчии
нохчиче
нохчичен
ночи
ночх
ночь
ноябре
ноябрь
ноября
нп
нпы
нс
нская
нскии
нта
нтз
ну
нувхаш
нужд
нужен
нужна
нужно
нужного
нужнои
нужном
нужную
нужны
нужные
нужныи
нужных
нуклеина
нуклеотид
нуклеотидии
нулевым
нулю
нуля
нумерацен
нумерациеи
нумерации
нумерацию
нумерованные
нумерованных
нумеровать
нур
нурдин
нурдина
нурыев
нух
ную
нштеи
ны
ные
ныи
ным
ныне
ных
нью
ньютона
ньянджа
нюксенскии
нюксенское
нӏа
нӏана
нӏании
нӏанкӏигафагаш
нӏанкӏигаш
нӏанкӏигии
о
оа
оаг
оагарбуц
оагаш
оагаяь
оагилг
оагилга
оагилгаи
оагилгах
оагилгаш
оагилгашка
оагилгашта
оагилгех
оагилгехи
оагилгии
оагӏ
оагӏа
оагӏат
оагӏата
оагӏатах
оагӏаташ
оагӏаташта
оагӏатии
оагӏача
оагӏаш
оагӏон
оагӏонаш
оагӏонгахьа
оагӏонии
оагӏоно
оагӏорахьа
оагӏорахьара
оагӏош
оагӏув
оаз
оазанхои
оазар
оазараш
оазарле
оазарлен
оазархо
оазархои
оазархочо
оазархочун
оазаш
оазаша
оазии
оазон
оазонаш
оазонашка
оазонех
оазонхо
оазонхоех
оазонхои
оазонхочо
оазонхочун
оазонхочунна
оазонца
оазош
оазув
оазуви
оакафорд
оакафорда
оакафордаи
оакафордах
оакафордаца
оакафордаш
оакафорди
оакафордии
оакафордо
оаккх
оаккха
оаккхаг
оаккхарги
оаккхача
оаккхаш
оакх
оакхар
оакхарии
оакхо
оал
оала
оалае
оалаеш
оалаи
оалам
оаламаш
оаламашка
оаламо
оалар
оалараш
оалача
оалачунга
оалаш
оалаю
оалаяр
оалаяра
оалаяри
оалаяь
оалаяьи
оалии
оалинг
оалкам
оалл
оалла
оаллача
оаллаш
оалмаза
оалои
оалхазар
оалхазараш
оалхазарашта
оалхазарии
оамал
оамаланче
оамалаш
оара
оарга
оаргаг
оаргал
оаржаеш
оарцха
оарш
оарштхои
оаса
оасаи
оасаш
оаттхалаш
оах
оаха
оахал
оахала
оахам
оахар
оахаранаькъан
оахараш
оахарганаькъан
оахача
оахаш
оахк
оахка
оахкалаша
оахкар
оахкача
оахол
оаца
оацалга
оацар
оацараш
оацарашка
оацаргии
оацача
оацаш
оацаши
оацилга
оаш
оаша
оаэ
об
оба
обвинение
обе
обеих
обеспечение
обеспечении
обеспечения
обеспечивает
обеспечит
обзор
обзоры
обкома
обл
обладает
областа
областах
областаш
областе
областеи
областех
областешкеи
области
областного
областнои
область
областям
областях
облегчает
облегчения
облегчить
облисполкома
облоно
обмена
обнаружении
обнаружения
обновить
обновления
обо
обобще
обода
обозначает
обозначается
обозначаются
обозначение
обозначении
обозначения
обозначены
обозрение
обоих
оболочек
оболочка
оборачивает
оборачивать
оборачиваться
оборону
обороны
оборот
обоснованных
обрабатывает
обрабатывается
обработки
обработчиков
образец
образование
образованием
образовании
образованию
образования
образовательныи
образовывать
образом
образует
образуется
образуют
образуются
образуя
образца
образцова
обрастают
обрати
обратите
обратного
обратное
обратном
обращаться
обращение
обращения
обрезки
обс
обструктивная
обсудить
обсуждение
обсуждением
обсуждении
обсуждения
обсуждениях
обтекание
обухово
обход
обша
общая
общевои
общего
общее
общеи
общем
общему
общения
общепризнанно
общероссии
общества
обществе
общественного
общественное
общественнои
общественном
общественныи
общественным
общество
общие
общии
общим
община
общины
общих
общности
общую
объе
объедине
объединение
объединения
объединяет
объединять
объект
объекта
объектами
объектах
объекташ
объекте
объектех
объективно
объектии
объектов
объекту
объекты
объемлющего
объявило
объявление
объявленныи
объяснить
обыкновенная
обыкновенныи
обычная
обычно
обычного
обычное
обычныи
обычным
обязан
обязаны
обязателен
обязательно
обязательного
обязательны
обязательные
обязательныи
обязательным
обязательными
обязательных
ов
оваьча
овз
овза
овзаш
овзии
ови
овинец
овкъаш
овла
овлан
овли
овлои
овлошта
овнаш
овощи
овраг
овсара
овсянниково
овттадаь
овц
овца
овциск
овцискаш
овшанаькъан
ог
ога
огарково
оглавление
оглавления
ого
огонь
ограничение
ограничении
ограничения
ограниченно
ограничиваться
од
ода
одае
одача
одаш
одаяь
один
одинаково
одинаковы
одинаковыми
одиночные
одинцове
одна
однако
одни
одним
одних
одно
одновременно
одного
однои
одноиме
одном
одному
однородны
однослои
одну
ое
ожа
ожидается
ожирение
озанаькъан
оздоев
оздои
озе
озера
озерецкии
озерки
озеро
озеф
озиг
озиев
озии
озлои
ознаменование
означает
озонаш
ои
ок
оказывается
оканчивающиеся
окаргалии
окармаьчи
окармаьчии
окато
океа
океан
океана
океанами
океане
океани
океании
океанологии
оккультизм
оккха
оккхаг
оккхагӏа
оккхагӏи
оккхал
оккхала
оккхалах
оккхача
оккхеи
оккхии
окн
окна
окне
окном
около
окончание
окончания
окончательных
окончивается
округ
округа
округаца
округаш
округе
округле
округление
округляет
округов
окружают
окружающеи
окруже
окружнои
оксид
окситанскии
октмо
октябрь
октябрьскии
октябрьское
октября
окуловка
окулово
окуловская
окуловскии
окунево
окъ
ола
олаелар
олаенна
олаеннаи
олаеннача
олаеча
олаи
олалу
олалуш
оландаь
олача
олаш
олаши
олаялии
олаяь
олаяьи
олаяьча
олга
олег
олехово
олеховская
олешково
олимпиадашка
олимпиады
олимпии
олинг
олингах
олл
олла
оллар
оллаш
олово
олх
олха
олхаш
олча
олчара
олчарех
олчахьа
ольга
ольгети
ольгинское
ольховка
олюшино
ом
омадара
омадаь
омадаьча
омаде
омаеш
омал
омала
омара
омонимах
омонимичном
омонимичных
оморг
омскаи
омская
омывается
он
она
онам
онах
онаш
онашта
онгушт
онгушта
ондарг
ондо
оне
они
онихофоры
онлаи
онна
оно
онов
онтогенез
онтогенеза
онтогенезагахьа
онтогенезе
ону
оны
оо
ооднофамильцы
оон
оп
опарино
опера
оператор
операторы
операцеш
операци
операции
операционная
операционнои
оперии
опеченское
опии
описан
описана
описание
описанием
описании
описания
описаниями
описанным
описываемого
описываемому
описывается
описываются
оплодотворе
оплодотворения
определе
определен
определение
определения
определеннои
определены
определитель
определить
определяет
определяется
определяющее
опросы
опубликовавшии
опубликован
опубликованиязаконы
опускает
опущен
опциеи
опции
опционально
опция
опять
ор
ора
орахои
орахьара
орг
орга
орган
органелла
органеллаш
организаце
организацен
организацени
организацес
организацеш
организацешка
организаци
организации
организация
организм
организма
организмаи
организмах
организмаш
организмашка
организмашта
организмаштеи
организмии
организмов
организму
организовать
органикаи
органически
органические
органических
органического
органов
органогенез
органы
оргкомитет
оргкомитета
ордаьнна
орден
ордена
ордени
орденом
орджоникидзе
орджоникидзевского
ордынскии
оре
оренбургская
орех
ореховно
орехово
ореховское
оригаш
оригинал
оригинала
оригиналдиакр
оригинальни
оригинального
оригинальное
оригинальных
ория
орк
орке
орловка
орлово
орловская
орловское
ормац
ормаца
ормацаш
ормации
оромо
орстхои
орт
орта
ортомиксовирусаш
оруба
оружие
оружия
орфографи
орфографии
орц
оршот
ос
освоение
осетии
осетино
осетинскии
осетинское
осетинскои
осетию
осетия
оси
осиновик
осиновка
осиново
осипово
осканаькъан
осканов
осканова
оскары
оскорблении
осман
османа
османская
осмиев
осмии
осминаькъан
осмоса
осн
основан
основана
основание
основанием
основании
основания
основано
основатель
основе
основная
основного
основное
основнои
основном
основному
основную
основные
основным
основных
основополагающих
основу
основы
основываться
основываясь
особенно
особенности
особенностями
особого
особое
особои
особые
особыи
особым
особых
оспа
ост
оставался
оставаться
оставить
оставляи
оставлять
оставьте
остае
осталось
остального
остальнои
остальные
остальных
останино
останинская
остановиться
останутся
остаются
осторожностью
острецово
остров
острова
островах
острове
островов
осуществляет
осуществляется
осуществляются
осыпь
ось
осями
от
отар
отараш
отбиты
отв
отверстие
ответвление
ответственности
ответственность
ответственные
ответственныи
отвечает
отвечают
отд
отдел
отдела
отделение
отделения
отделить
отделом
отдельно
отдельнои
отдельную
отдельные
отдельныи
отдельными
отдельных
отделяется
отделяются
отделяющеи
отец
отечественнои
отказ
отказа
отключает
отключается
отключение
отключения
отключить
откровение
откровения
открывающии
открыт
открытие
открытии
открытия
открытка
открытое
открытыи
откуда
откъам
отладочная
отличается
отличаться
отличаются
отличающуюся
отличие
отличия
отлично
отмена
отменить
отмены
отменяет
отметить
отмечать
отмеченные
отмеченных
отмечены
отнесена
относительная
относительно
относительнои
относительности
относительныи
относится
относить
относят
относятся
относящиеся
отношение
отношении
отношения
отображаемое
отображаемыи
отображает
отображается
отображать
отображаться
отображаются
отображе
отображена
отображение
отображения
отображено
отобразится
отобразить
отобразятся
отопление
отправить
отредактировать
отрока
отряд
отряда
отслеживаемые
отслеживания
отслеживающие
отставке
отступ
отступа
отступов
отступом
отступы
отсутвии
отсутствие
отсутствии
отсутствия
отсутствовала
отсутствует
отсутствуют
отсутствующего
отсутствующие
отсчитывая
отт
отта
оттабаь
оттаваь
оттаваьв
оттадар
оттадара
оттадарца
оттадаь
оттадаьд
оттадаьр
оттадаьча
оттадаьчох
оттаде
оттадер
оттадеча
оттадеш
оттаду
оттадьчох
оттае
оттаеш
оттаи
оттам
оттама
оттамаш
оттар
оттара
оттарах
оттарца
оттача
отташ
оттаю
оттаяр
оттаяь
оттаяьи
оттаяьраш
оттаяьча
отто
отцентрирован
отчество
отчет
офиц
офицер
официале
официальни
официально
официального
официальном
официальныи
официальных
оформив
оформить
оформление
оформлением
оформлению
оформления
оформленного
оформленныи
оформленных
оформленых
оформляет
оформляется
оформляи
оформлять
офтальмолог
оха
охаи
охаш
охаю
охаяр
охаяь
охаяьи
охаяьчул
охии
охкаш
охонское
охотское
охране
охраны
оценить
оценка
очевидно
очень
очередность
очередь
очерк
очеркаш
очерки
очистить
очистки
очуувттаду
очуязъе
ош
ошибка
ошибками
ошибках
ошибке
ошибки
ошибкои
ошибку
ошибок
ошибочно
ошски
оъа
оӏ
оӏа
оӏага
оӏах
оӏи
п
па
павел
павлово
павловская
павловское
павлодара
павшино
паг
пагубным
падеж
падежа
падеже
падежеи
падежу
паи
пакиста
пакистан
пакистана
пакистанах
пакистане
пакистаном
палате
палау
палеолит
палеолита
палеонтологи
палестина
пали
палкино
палладия
паломнику
пальцево
пам
пампа
памяти
памятная
памятник
памятника
памятники
памятников
память
пан
панасюк
пандар
пандемия
пандж
панджаби
панель
панинское
панкратово
панна
паново
панорама
пантелеево
панц
панцӏи
панькино
паньково
папино
паповирусаш
папуа
пар
пара
параж
параже
параз
паразиташ
параллели
параллель
параллельно
параметр
параметра
параметрам
параметрами
параметрах
параметраца
параметраш
параметре
параметров
параметром
параметру
параметры
парасимпатикан
паргӏата
паргӏато
пардаш
паре
пари
париж
париже
парламент
парламента
паровая
паровоз
пароль
парповирусаш
парсера
парсинг
парте
партена
партера
парти
партии
партия
парусникаш
парфе
парфино
парфинскии
парча
паршино
паспорт
пассивни
пасхан
патент
патологе
патологическое
патрулирование
патрулированная
пауль
паутина
пах
пахарь
пахомово
пахотино
паччахь
паччахьа
паччахьал
паччахьалк
паччахьалкхе
паччахьалкхеи
паччахьалкхен
паччахьалкхенах
паччахьалкхенаш
паччахьалкхенаша
паччахьалкхенаши
паччахьалкхенашка
паччахьалкхенашта
паччахьалкхенашца
паччахьалкхенашцара
паччахьалкхенех
паччахьалкхении
паччахьии
паш
пашка
паьхкашка
пво
пе
певица
певицы
певцов
певцы
певческии
педагогически
пединститут
пекин
пельшемское
пен
пена
пенаш
пенджаби
пензенская
пенсе
пенье
пеньково
пер
первая
первез
первенства
первичная
первичнои
первичныи
первичным
первобытная
первобытного
первого
первое
первои
первом
первомаи
первооткрывателя
первую
первые
первыи
первым
первыми
первых
пере
переведе
переведенные
переведено
переведены
перевести
перевод
перевода
переводами
переводе
переводили
переводится
переводить
переводных
переводов
переводом
переводчик
переводчиков
переводы
перевоз
перед
передаваемыи
передавать
передаваться
передавая
передае
передается
передан
переданных
переданы
передать
передача
передаче
передачи
передаются
передающиеся
передающии
передвижение
передние
передольское
переезд
переживала
переи
переименование
переименовании
переименования
переименовать
перекрывает
перемен
переменнои
переменные
переменных
перенаправление
перенаправлении
перенаправления
перенесена
перенесены
перенести
перенос
переноса
переносятся
переопределить
переписать
переписи
переписывает
перепись
перепончатокрылые
пересекает
пересечения
перестрои
переход
перехода
переходе
переходные
перечень
перечисленных
перечислены
перечислить
перечисляются
перикард
период
периода
периодизации
периодконец
периодначало
периоды
перихондри
пермская
пермскии
пермяцкии
перс
персаьнии
персидскии
персидского
персона
персонаж
персонажеи
персонажи
персоналеш
персоналии
персоналиях
персонального
персонах
персоне
персоны
перхино
перхурьево
перцевскии
перцевское
першинская
перье
песен
пески
песни
песня
песоцкое
песочница
песочницу
пестово
пестовскии
пестовское
петербург
петербурга
петербурге
петра
петраково
петров
петровке
петрово
петровск
петровская
петровскии
петровское
петропавловск
петропавловское
петряево
петух
петухово
пехкаш
пехкашка
пехкии
пехово
печень
печорскии
печорское
пешково
пещеры
пи
пии
пикорнавирусаш
пикселях
пинг
пирамида
пирогов
пирогова
пирогово
пирстопа
писали
писание
писателеи
писатели
писатель
писателя
писать
писаться
писин
письма
письменностеи
письменности
письменность
письменным
письмо
питается
питания
питательные
питер
питкэрн
питье
пишете
пишется
пишите
пишутся
пищеварительная
пищеварительныи
пищи
пк
пкс
плазма
плазман
плазмас
плазме
плазменные
план
плана
планашка
планета
планеты
планирования
планируется
планки
плановои
планшеты
пласты
плата
платина
плацентарни
пле
плеи
племена
плесо
плиев
плиево
плоские
плосково
плоское
плоти
плотности
плотность
плохо
площади
площадь
площадьрегионы
плыи
плюс
плющево
пневмония
по
поаланкои
поалхам
поацолг
победитель
победы
побережье
поблагодарить
поведение
поведения
поверхности
поверхностном
повесташ
повесташи
повествования
повествовать
повести
повесть
повлиявшие
поводом
поводу
поводье
повторять
повторяющемся
погиб
погибло
погорелка
погорелово
погореловское
погост
пограничных
погребения
под
подавление
подавления
подачи
подберезье
подборка
подборовье
подборье
подвиг
подвид
подводить
подволочье
подгорная
подгорное
подгорье
подготовки
подданство
поддерживаемые
поддерживаемых
поддерживает
поддерживается
поддерживаю
поддерживают
поддерживаются
поддержка
поддержки
поддорскии
поддорское
поддубье
подзаголовка
подзаголовок
подкатегориеи
подкатегории
подкатегорию
подкласс
подключичную
подкумок
подлежат
подлежит
подлесное
подножия
подобен
подобная
подобного
подобное
подобную
подобные
подобныи
подобных
подобрать
подои
подол
подольное
подотдел
подотряд
подписи
подписываться
подпись
подполковник
подпорядок
подраздел
подразделы
подразновидность
подразумевается
подробная
подробнее
подробно
подробнои
подробные
подробныи
подробным
подрод
подряд
подсветка
подсветки
подсветку
подсвечивать
подсекция
подсемеи
подсказки
подсосенье
подсосонье
подст
подставит
подставится
подставить
подставляться
подстановка
подстановке
подстановки
подстановкои
подстановку
подстраниц
подстраница
подстраницах
подстраницеи
подстраницу
подстраницы
подстроку
подсче
подтвердила
подтвердить
подтвержде
подтверждение
подтверждены
подтип
подтриба
подумать
подформа
подходит
подходят
подходящии
подцарство
подче
подчине
подчинение
подчинения
подъе
подъязычнои
поезд
пожалуи
пожарище
пожарнои
пожарово
позволит
позволяет
позволяют
позволяющая
позволяющего
позволяющии
позвоночные
позвоночных
позднее
поздравление
поздравляю
позже
позицешка
позиции
позиционная
позиционнои
позиционные
позиционных
позиция
позкарта
позкарты
пои
поиск
поиска
поиском
пока
показа
показан
показана
показано
показателеи
показатели
показатель
показать
показывает
показывается
показывалось
показывать
показываться
показываются
покороче
покровская
покровскии
покровское
покрывают
поксвирусаш
пол
пола
полавское
полагает
полвека
поле
полежаево
полезно
полезнои
полезную
полезные
полеи
полем
полимераза
полимераш
полимино
полинезия
полиомиелит
полисеми
политехнически
политик
политика
политикаи
политикан
политикахои
политикаш
политики
политическая
политически
политическии
политических
политологи
полице
полицеи
полиции
полка
полковник
полная
полно
полновское
полного
полное
полнои
полном
полномочии
полностью
полную
полныи
полных
поло
половине
половины
половое
половои
половым
положение
положении
положения
положительни
положительное
полонии
полость
полосы
полужирным
полумесяца
получаем
получается
получение
получения
получившиеся
получившии
получил
получили
получить
полушарии
полушария
полхои
поль
польза
пользователеи
пользователи
пользователь
пользователя
пользоваться
пользуи
польск
польская
польскии
польша
польши
полю
полюс
полюса
полюсе
поля
поляков
поляна
поляны
полярная
полярни
полярноста
полях
поменял
поменять
поместив
поместите
поместить
пометка
пометки
пометку
пометок
помечается
помечать
помещает
помещается
помещать
помещаются
помеще
помещения
помещены
помимо
помните
помнить
помогает
помогала
помогать
поможет
помочь
помощи
помощь
помощью
понадобиться
понадобятся
понемногу
понизовье
понимаете
понимается
понимание
понимаю
понимают
пономаре
понтии
понял
понятеш
поняти
понятии
понятия
понятно
понять
поп
попа
попадает
попадания
попадают
попаде
попасть
попеременно
поповка
попово
поповская
поповское
поправки
поправку
попробовать
попробуи
популярныи
популяционнои
попытка
попытки
пор
пордув
поречье
порог
порода
породы
порожки
порт
портал
портала
порталов
порталы
порташ
портов
портрет
порту
португальскии
порядка
порядке
порядковыи
порядком
порядок
посадов
посадскии
посвяще
посвящена
посе
поселение
поселении
поселения
посетители
посещаемость
поскольку
послал
после
послевоенного
последнего
последнее
последнеи
последние
последнии
последним
последних
последняя
последовательного
последовательностеи
последовательности
последовательность
последовательных
последствии
последующего
последующее
последующих
посложнее
посмертно
посмотреть
посмотрите
пособие
посредничество
посредство
посредством
пост
поста
поставить
поставлен
поставьте
постановлени
постановление
постановлением
поститься
постоянно
постоянного
постоянныи
построения
построенныи
построены
постсоветских
поступать
постэмбриональное
потенциально
потерь
потеряево
потом
потому
потребностеи
потребуется
походы
похоже
похожего
похожеи
похожие
похожии
похожими
похоронен
почва
поче
почему
починок
почта
почти
почтовые
почтовыи
почтовых
почту
поше
пошт
пошта
поэзен
поэзии
поэма
поэмаш
поэт
поэта
поэтах
поэташ
поэтически
поэтому
поэты
появившиеся
появившии
появилось
появится
появлению
появления
появляется
появлялось
появляться
появятся
пояс
поясе
пояснение
пп
ппет
ппс
пр
прав
права
правами
правда
правдина
праве
правее
правил
правила
правилам
правилами
правилах
правилаш
правиле
правило
правилом
правилу
правильно
правильного
правильном
правительства
правительство
правительствон
правительствос
править
правка
правке
правки
правкои
правку
правлене
правлени
правления
право
правобережныи
правого
правои
правок
правокумское
правом
правому
православная
православни
православхои
праву
правые
правьте
праздник
праздника
праздников
праздником
празднование
празднуется
праи
практика
практике
практически
превышает
пред
предварительно
предварительныи
предгорныи
предельни
предлагаемые
предлагаю
предлинная
предлог
предлога
предлогом
предложение
предложении
предложения
предложенные
предложить
предложном
предмет
предмета
предметах
предметом
предмету
предназначен
предназначена
предназначение
предназначенная
предназначенныи
предназначено
предназначены
предоставляет
предотвращает
предотвращения
предполагает
предполагается
предполагаи
предпочесть
предпочтительно
предпочтительных
предпринимательства
предприяти
предпросмотра
предпросмотре
председатель
представителеи
представители
представитель
представительни
представлен
представление
представляет
представляют
представляющие
представляющих
предупредить
предупреждать
предупреждение
предупреждении
предупреждения
предусматривают
предусмотрен
предусмотрено
предусмотрены
предшественник
предшествующего
предшествующии
предыдущего
предыдущеи
предыстория
преемник
прежде
прежнее
прежнему
прежние
прежних
президент
президента
президенталах
президентом
президиемаша
президиума
президиумо
преимущественно
преимущество
прекращением
преме
премен
премеш
преми
премии
премия
премьер
премьера
премьеры
пренебрежительное
преобладающих
преобразование
преобразования
преобразованы
преобразовать
преобразует
преобразуется
преобразуются
препинания
прери
прерии
пресмыкающиеся
пресмыкающихся
пресс
претензии
префикс
префикса
префиксом
при
приближе
приближение
прибыль
приведе
приведение
приведены
приведите
привело
привести
приветствия
приводит
приводится
приводящее
приволжскии
привольное
привольныи
пригодится
пригородное
пригородныи
придавать
приде
придерживаться
придорожная
придумаи
прижатие
призе
призер
признавать
признае
признак
признали
признана
признанные
признанным
признанными
признанных
признано
признать
признают
приказ
прилагательного
прилагательных
прилук
прилуки
прилукское
приматии
приматы
применена
применение
применением
применения
применены
применить
применяется
применяи
применять
применяться
пример
примера
примере
примерно
примерныи
примеров
примером
примеру
примеры
примечание
примечании
примечания
приморская
приморскии
примстат
принадлежало
принадлежности
принадлежность
принесли
принимаемая
принимает
принимать
принимают
принимающии
принудительном
принца
принцип
принципа
принципами
принципаш
принципе
принциповвикипедия
принципы
принял
принят
принятая
принятие
принятия
принято
принятои
принятым
принять
приозе
приоритет
припадки
природе
природные
природы
присваивается
присвоен
присвоение
присвоении
присвоить
прислон
присоединять
приставки
пристань
пристрастности
присутствие
присутствовать
присутствует
приток
притыкино
приче
причем
причинам
причинами
причине
причины
пришла
пришлось
про
пробел
пробела
пробелами
пробелов
пробелом
пробелы
проблем
проблема
проблемаш
проблему
проблемы
проведении
проведения
проверено
проверить
проверка
проверки
проверку
проверьте
проверяемость
проверяет
проверяется
проверяи
проверять
проверяющии
провести
провинцеш
провинция
проводится
проводить
провозглашение
проголосовать
проголосуи
программа
программах
программе
программирования
программного
программное
программои
программу
программы
програнулоцит
прогресс
прогресское
продолжается
продукт
продукташ
продукци
продюсер
проект
проекта
проектам
проектах
проекташ
проекташта
проектг
проекте
проектов
проекту
проекты
проекции
проекция
проживают
прожито
проза
прозаи
прозаики
прозвища
прозвище
прозы
прои
проигнорировано
произведене
произведенеш
произведенеша
произведенешта
произведени
произведение
произведении
произведения
произведениях
производит
производится
производить
производства
производство
производствон
произвольного
произвольнои
произвольном
произвольные
произвольныи
произносится
произношение
произношения
произошло
происходили
происходит
происходят
происхождение
происхождении
происхождения
прокариоташ
прокариотии
прокино
прокопа
прокунино
прокшино
пролетарски
пролетарскии
пролетарское
проливу
промежутке
промежуток
промежуточные
промышленная
промышленни
промышленное
промышленноста
промышленность
промышленныи
пронино
пропаганда
прописать
прописнои
прописную
прописные
прописных
прописью
проповедеи
проректор
прорисована
пророк
пророка
пророком
пророку
прорыву
просвещение
просвещения
просил
просили
просмотр
просмотра
просмотре
проспект
проставить
проставлены
простановки
простеи
просто
простого
простое
простои
простота
простоты
пространств
пространства
пространствах
пространстве
пространство
простые
простым
протекает
протест
против
противном
противоположностью
противоположные
противоречит
протисты
проф
профессии
профессионал
профессиональнои
профессия
профессор
профессора
профилактика
прохладныи
проходит
прохоров
процент
процента
процентах
процентов
процесс
процесса
процессах
процессаш
процессашка
процессе
процессор
процессы
прочего
прочее
прочие
прочих
прошла
прошло
прошлого
прошлом
прошу
проще
прощения
проявленные
прямая
прямо
прямого
прямое
прямои
прямоугольник
прямым
пряник
псевдовиртуал
псевдоним
псевдонимом
псевдонимы
пседах
психикаи
психическое
психологе
психологи
психологии
психологически
психология
псковская
птиц
птицы
птолемеи
птрк
публикацеш
публикации
публицист
публични
пудегскии
пузырь
пульпа
пункт
пункта
пунктам
пунктах
пункте
пунктов
пунктом
пункту
пункты
пурам
пуссена
пуст
пуста
пустая
пусто
пустое
пустои
пустом
пустошка
пустошь
пустую
пусты
пустые
пустым
пустыми
пустынь
пусть
путать
путе
путеводитель
путешествие
пути
путнику
путь
пучежскии
пушкин
пушкина
пушкино
пушту
пуэрто
пха
пхалгаш
пхалгаши
пхалгии
пхаьн
пхаьнах
пхаьнаш
пхаьнаша
пхаьнаши
пхаьнашка
пхаьнашкара
пхаьнашта
пхаьнии
пхаьра
пхе
пхелаг
пхелагӏа
пхелагӏча
пхера
пхи
пхии
пхин
пхиъ
пхо
пхорагӏа
пхорч
пхьа
пхьагал
пхьаи
пхьан
пхьанаш
пхьанашка
пхьанех
пхьар
пхье
пхьег
пхьегӏаш
пхьеи
пхьен
пхьенна
пхьех
пхьеш
пхьешка
пхьид
пхьида
пхьидарч
пхьидаш
пхьидии
пхьидо
пхьилекъонгии
пхьиленаькъан
пхьоале
пхьу
пытается
пыщугскии
пьеса
пьесан
пьесаш
пьесе
пьесы
пялинг
пяти
пятигорск
пятигорскии
пятиязычныи
пятовское
пятыи
пять
після
пӏаьраска
р
ра
работа
работает
работать
работают
работе
работники
работодатель
работои
работу
работы
рабочеи
рабочии
рабселькории
равен
равенства
равна
равно
равномерно
равномерного
равнопромежуточная
равнопромежуточнои
равны
равным
рагозино
рагули
ради
радианах
радианы
радио
радиокхаи
радиолярии
радиостанце
радиостанци
радиус
радуга
раж
ража
ражах
ражача
ражаш
ражии
раз
раза
разблокировка
разве
разведроты
развернут
развивается
развитие
развитии
развитию
развития
раздел
раздела
разделами
разделах
разделаш
разделе
разделена
разделения
разделены
разделителем
разделитель
разделителя
разделить
разделов
разделом
разделы
раздельно
разделяется
разделять
разделяются
раздолье
раздольное
разинское
различаются
различие
различнои
различные
различными
различных
размер
размера
размерам
размере
размеру
размеры
разместить
разметка
разметки
разметку
размещает
размещается
размещаться
размещают
размещаются
размеще
размещение
размещении
размещения
размножаясь
разница
разновидность
разногласия
разного
разное
разнои
разному
разные
разным
разных
разобрать
разобраться
разработка
разрезе
разрешение
разрешения
разрешено
разрешится
разряд
разумеется
разъезд
раи
ракет
ракетных
ракх
ракха
ракхаш
ралс
ралса
ралсах
ралсаш
ралсе
рамадан
рамадана
раменскии
раменское
раменье
рамешки
рамзан
рамка
рамках
рамки
рамку
раму
рамушево
ран
рана
ранг
ранга
рангаш
ранге
рангех
ранги
рангов
рангу
ранее
раннеи
раньше
раса
расаи
расизм
расизмаи
расин
раскрывается
раскрывающеи
раскрытию
раскрытом
распад
распарсить
располагается
располагающаяся
расположен
расположение
расположения
распоряжению
распределе
распределяются
распростране
распространение
распространения
распространяется
рассвет
рассказчик
рассказывать
рассматривать
расставляют
расстояние
расстрои
рассылки
расте
растении
растения
растут
растущих
растягивается
растяжение
растянутом
расход
расче
расширение
расширения
расширяться
рат
ратицкое
ратмир
рафал
рах
раха
рахмат
рахои
рахскии
рахь
рахьим
рахьима
рахьма
рача
раш
раша
раши
рашид
рашида
рашидага
рашидаи
рашидаца
рашидеи
рашиди
рашин
раъсул
раьгӏе
раьза
раьзабараш
рая
рбек
рбика
ргаэ
ргму
рд
рда
ре
реабелитацех
реабилитации
реакцеш
реакцешка
реакци
реализации
реализация
реальнои
реальном
ребе
революци
революции
революционни
революция
рег
регион
региона
региональная
регионах
регионаш
регионаши
регионашка
регионашкара
регионех
регионии
регионов
регионы
регистр
регистра
регистраци
регистрации
регистрационныи
регистрация
регистре
регистру
ред
редактирование
редактированием
редактировании
редактированию
редактирования
редактировать
редактор
редактора
редакторам
редакторами
редактораш
редакторе
редакторов
редакце
редакцен
редакци
редакциеи
редакция
редант
реданта
редире
редкие
редких
редко
редкол
реестр
реестра
режим
режиме
режиссе
режиссер
режское
резолюци
резолюция
результат
результата
результате
результатов
результатом
результаты
реи
рек
река
реке
реки
рекомендации
рекомендован
рекомендуемыи
рекомендуется
ректор
религии
религиозные
религиозныи
религиозных
религия
рельеф
рельефа
рен
ренаш
ренаши
ренашца
рене
рении
ренца
репликаце
репликацен
репликаци
реплики
репликон
репрессированных
репродуктивная
рес
респу
республик
республика
республикаи
республикаконституция
республикам
республикан
республиканна
республикански
республикаси
республиках
республикаца
республикацеи
республикаш
республике
республикерча
республики
республикои
республику
республикузакон
реставрация
ресурс
ресурсам
ресурсаш
ресурсы
ретровирусаш
ретроидни
рефендума
рефендуме
референдум
референдума
референс
реформ
реформация
рец
речи
речка
речь
решаться
реше
решение
решением
решении
решению
решения
решетниково
решить
рза
рзача
ри
риа
рибхь
риге
рии
рико
римская
римские
римскими
римского
римскои
рио
рис
рисер
риспроекта
рисунки
рк
рка
рках
ркеи
рки
ркивания
ркивать
ркп
рная
рни
рниму
рнк
рное
рнут
рнуто
рнутое
рнутом
рнутость
рнутым
рные
рныи
ро
робиологи
робот
ров
ровно
роги
род
рода
родился
родине
родионово
родительном
родительныи
родительскии
родительского
родичев
родники
родниковскии
роднои
родном
родов
родовым
родственные
рождением
рождении
рождения
рождества
рождество
роза
рок
роксомское
роли
роль
ролях
роман
романа
романах
романаш
романии
романо
романово
романои
романс
рон
росписи
роспись
росреестра
росса
россе
россера
росси
россии
россия
росспэн
рост
роста
ростани
ростиловское
ростов
ростова
ростове
ростовская
ротавирусаш
ротмистр
роща
рощино
рп
рпл
рр
рс
рское
рсфср
рсфсра
рт
рта
ртвых
ртка
ртом
ртуть
ртыи
ру
руанда
рубеж
рубль
рубля
рубцово
рувики
рудбек
рудино
рузба
рузбан
рузвельт
рузкъа
рузкъаех
рузкъан
рузкъас
рузкъах
рузкъаш
рузкъашта
рузкъии
рузскии
рукавицкое
руководитель
руководств
руководства
руководство
руководствоваться
руководством
рукописеи
рукописи
рукопись
рум
рума
румии
румынии
рунди
рус
руслан
руслана
русса
русская
русски
русские
русскии
русским
русских
русско
русского
русское
русскои
русском
русскоязычного
русскоязычнои
русскоязычных
русскую
руссо
рутульскии
ручеи
ручного
ручнои
ручье
ручьи
рф
рча
ры
рылово
рыночная
рэи
рю
рябиновка
рябково
рябово
ряд
ряда
рядом
ряду
рязанская
рөстәм
с
са
саамск
саамскии
саба
сабар
сабаре
сабит
саванна
савино
савинская
савинское
савкино
саву
саг
сага
сагага
сагагара
сагаи
сагал
сагалматаш
сагалматии
саганаькъан
сагах
сагахи
сагаца
саги
саго
сагов
сагопши
сагот
сагота
сагото
сагӏа
садар
садахар
садахара
садоалла
садоаллача
садовая
садовое
садовыи
сазоново
саи
саид
сакхетам
сакъердама
сакъердаме
сала
салам
саламхана
салге
сале
сали
салии
саллаллах
саллам
салли
салман
салмана
салот
салоти
салташа
салтеи
салтии
салу
сальвадор
сам
сама
самар
самара
самаритаьне
самарская
самая
самбо
сами
самим
само
самоа
самого
самодеятельни
самое
самои
самоле
самом
самоназвание
самостоятельно
самостоятельныи
самотовинское
самоцель
самур
самурского
самые
самыи
самым
самых
сан
сана
санатории
санго
санд
саниба
санинское
санкт
санна
саннна
санскрит
санта
санти
сар
сара
сараево
сараи
саранаькъан
саратов
саратовская
сарахьа
саргассово
сардам
сарду
сармак
сары
сарӏал
сарӏала
сас
саси
сат
сателлиташ
сатем
сатии
сатувсаш
саудовская
сафарбек
сах
саха
сахалинская
сахалинские
сахалинстат
сахар
сахара
сахарныи
сахула
сахьабаш
сахьаре
сахьарен
сахьат
сахьата
сахьатах
сахьате
сача
саш
саши
саь
саькур
саькура
саьлгахои
саьлгхои
саьрч
саӏид
саӏида
саӏуди
саӏудии
сб
сбол
сбор
сбора
сборник
сборника
сборниках
сборнои
сборных
сбрасываем
све
сведении
сведения
сведениям
свежие
свежих
свении
свердловская
свердловскои
сверка
сверху
сверчково
свет
света
светло
светлое
светлыи
светски
свинец
свинья
свобода
свободно
свободного
свободное
свободнои
свободы
свое
своего
своеи
своему
свои
своим
своими
своих
сворачиваемых
сворачивающиеся
свою
связан
связанная
связанные
связанными
связанных
связано
связаны
связать
связеи
связи
связка
связь
святого
святои
святые
священная
священник
священное
священному
священныи
сгенерирована
сгс
сдар
сдвигом
сде
сделает
сделал
сделано
сделаны
сделать
сделча
сденна
сденнад
сденнар
се
себе
себя
сев
севастополь
север
северная
северного
северное
севернои
северном
северносаамскии
северныи
северо
сегмент
сегмента
сегментов
сегодня
седкъа
седкъадуне
седкъарче
седкъарчии
седкъашта
седкъии
сезона
сезоне
сезонов
сеи
секрет
секретара
секретараш
секретарь
секретно
сектора
секунд
секунда
секундах
секунды
секцеш
секци
секции
секцию
секция
сел
села
селаӏад
селе
селеевское
селении
селиваново
селижаровскии
селии
селинг
селино
селище
селищи
селлар
селлара
село
сельские
сельскии
сельских
сельского
сельское
сельскохозяи
сельсовет
сельсовета
сельцо
семантика
семе
семеи
семенково
семенов
семеновская
семеновское
семи
семизерье
семинари
семь
семьи
семья
сен
сенино
сенсорная
сент
сентябре
сентябрь
сентября
серам
серафимович
серафимовское
сербии
сервера
сервис
сервиса
сергеевич
сергеево
сергеи
серго
сергокалинскии
сердал
сердало
сердалон
сердалъялара
сердечная
сердца
сердце
сердцевина
сере
серебро
серебряныи
середине
середнее
середняя
сери
сериал
сериала
сериалов
серии
серия
серноводское
серп
серую
серыи
серым
серье
сесаг
сесага
сесагаца
сесаги
сесаго
сесарии
сесото
сестры
сети
сеул
сехьа
сецар
си
сибаз
сибарег
сибарегӏа
сибарегӏара
сибарера
сибат
сибатага
сибирскии
сибирское
сибре
сибрера
сибуян
сивцева
сивцево
сигала
сигалахии
сигале
сигален
сигаленаша
сигаленашка
сиднеи
сидорково
сидорово
сидоровская
сидоровское
сиземское
сии
сил
сила
силлои
силу
силы
сильвия
сильно
симаниха
символ
символа
символами
символах
символов
символом
символы
симон
симпатикан
симфония
сина
сингапур
сингапуре
синдхи
синим
синицыно
сино
синоним
синонима
синонимами
синонимаш
синт
синтаксис
синтаксиса
синтез
синтеза
синхронные
сипсои
сир
сира
сираи
сирача
сиргӏа
сирино
сирота
сис
систем
система
системаи
системами
системан
систематика
систематикаи
систематике
систематики
систематически
систематического
систематическое
системах
системацара
системаш
системе
системии
систему
системы
ситуации
ситуация
ситуациях
сиух
сих
сиха
сихагӏа
сихача
сихонца
сихха
сихъю
ск
ска
сказания
сказать
сказка
сказки
скалистые
ская
ски
ские
скии
ским
ских
склад
склон
склонение
склонении
склоняется
склоняющееся
ско
скобка
скобками
скобках
скобки
скобок
скового
ского
ское
скоеимя
скои
скоково
сколько
ском
скоморохово
сконцентрированная
скопирован
скопировано
скопировать
скопируи
скорее
скородумка
скорость
скоша
скриншот
скриптии
скрывается
скрывать
скрыт
скрытия
скрыто
скрытом
скрытые
скрытыи
скрыть
скульптор
скульптура
слабо
слабое
славаьнии
славитинское
славы
славянии
славянка
славянские
слаг
сладкии
слаи
слева
след
следования
следователа
следователь
следовать
следствие
следует
следуи
следующего
следующее
следующем
следующие
следующии
следующим
следующими
следующих
следующую
сленг
сленга
слепота
слива
сливаются
слишком
слобода
слободка
слободское
слов
слова
словами
словаре
словареи
словарь
словаря
словаьнии
слове
словио
слово
словом
словосочетании
словосочетания
слоган
слоем
сложно
сложному
сложные
сложныи
слои
слоновые
слора
слу
слуда
служат
служащии
служб
служба
службу
службы
служебная
служебнои
служебную
служебные
служебныи
служебных
служил
служит
слуха
случае
случаев
случаи
случая
случаях
слуш
слэшем
см
смело
смена
сменить
смену
смерти
смертная
смертью
смещение
сми
смирновка
смит
смогли
сможем
сможет
смоленская
смотреть
смотрите
смыкаются
смысл
смысла
смысле
смыслу
снаружи
сначала
снг
снизу
снова
сноски
сноску
сносок
сныи
сняли
снятие
со
соа
соавтор
соавторов
соавторы
соаг
соагӏапча
соагӏапче
соагӏапчен
соалора
соалораш
соан
собака
собираешься
собирать
собираются
соблюдаи
соблюдать
собои
соболево
собор
собрание
собраны
собрать
собственно
собственное
собственные
собственных
событие
событии
события
сов
совбоаккх
совбоале
совг
совгӏа
совгӏат
совгӏата
совгӏаташ
совдувларга
сове
совершения
совершенство
совершившая
совет
совета
совете
советии
советник
совето
советская
советски
советскии
советского
советское
советскои
совлен
совместимости
совместно
совместнои
совнагӏа
сово
совокупность
совпадает
совпадать
совпадают
совпадение
совпадения
современная
современник
современному
современные
современныи
современным
современных
совсем
совт
совта
совхоза
совы
сога
согласен
согласия
согласно
согласную
согласны
согласные
согласование
согласовывать
согласуются
соглашение
соглашении
содеи
содержание
содержанием
содержании
содержанию
содержания
содержат
содержатся
содержать
содержащая
содержащие
содержащии
содержащим
содержащих
содержимого
содержимое
содержит
содержится
содружества
содружество
соедине
соединении
соединения
соединяются
создаваемую
создаваи
создавать
создае
создает
создаи
создал
создан
создана
создание
созданием
создании
создания
созданная
созданные
созданныи
созданных
создатель
создать
сознания
сок
сокол
соколов
соколова
соколово
соколье
сокольниково
сокольскии
сокпаппетов
сокр
сокраще
сокращение
сокращения
солецкии
солист
солнечногорскии
солнечное
солнечныи
солнца
солнце
соловье
соломона
солсбик
солсбика
солсеи
солта
сом
сома
сомабаьккхар
сомали
соматически
соматических
сомах
сомаш
сомаши
сомех
сомехи
сомии
сомнении
сомова
сон
сона
сообщается
сообщаи
сообщение
сообщением
сообщении
сообщения
сообщениях
сообщества
сообществе
сообщество
сообществом
сооружения
соответственно
соответствие
соответствии
соответствия
соответствовать
соответствует
соответствующего
соответствующее
соответствующеи
соответствующем
соответствующие
соответствующии
соответствующим
соответствующих
соответствующую
соотношение
соотношении
соотношения
сопки
сопоставимая
сопредельных
сопровождается
сопровождаться
сопровождающие
сопровождающиеся
сопровожде
сорани
соревновании
сорокино
сортировать
сортировка
сортировки
сортируются
сортов
сосаркъа
сосаркъии
сосе
соседние
сосланбека
сослаться
сосницы
сосновка
сосновское
сосновыи
сост
состав
состава
составе
составитель
составления
составленные
составленныи
составляет
составляют
составляющие
составные
составным
состоит
состояние
состоянием
состоянии
состоянию
состояния
состоящая
сото
сотрудничество
соу
соус
софи
софиевка
сохране
сохранение
сохранением
сохранении
сохранения
сохранено
сохраните
сохраняется
соца
соцабаьб
соцам
соцамах
соцамца
социале
социализм
социализма
социалисти
социалистии
социалистическая
социалистически
социальни
социально
социальнои
социальные
социолингвистика
социологи
социологических
сочиненеш
сошневское
сою
союз
союза
союзе
спам
спаржа
спас
спасибо
спасская
спасскии
спасское
спб
спбгу
спектакли
спектакля
спектра
спектроскопи
специализация
специализированные
специализированных
специалист
специальная
специальни
специально
специального
специальное
специальнои
специальную
специальные
специальныи
специальным
специальных
специфика
спецификация
спецстраницы
спираль
спирово
спирташ
списка
спискам
списками
списках
списке
списки
списков
списком
списку
список
спицыно
спорныи
спорных
спорт
спорта
спортивная
спортивные
спортивных
спортсмен
спортсмена
спортсменаш
способ
способе
способен
способствует
справа
справка
справки
справочная
справочник
справочника
справочникаши
справочники
справочно
справочные
справочными
спрашиваи
спросить
спрошу
спутать
ср
сравнение
сравнения
сравнивает
сравнить
сражения
сразу
среди
средиземное
средневековои
среднего
среднее
среднеи
среднем
средние
среднии
средних
средняя
средои
средств
средства
средствами
средство
среды
срок
срока
срс
сс
сса
ссписок
сср
ссрс
ссср
сссра
сссре
ссылается
ссылаи
ссылаться
ссылка
ссылкам
ссылками
ссылках
ссылке
ссылки
ссылкои
ссылку
ссылок
ст
ста
стаб
ставится
ставить
ставишь
ставка
ставропола
ставрополь
ставропольская
ставропольскии
ставропольского
ставропольскои
ставьте
ставятся
стади
стадии
стадия
стал
стали
сталин
сталина
сталинград
стальскии
стан
стандарт
стандарта
стандартного
стандартное
стандартнои
стандартные
стандартныи
стандартных
стандарту
станислава
станица
станице
становится
становление
становое
становятся
станце
станци
станции
станция
старая
старина
старицкии
старково
старо
старово
старого
старое
старому
старорусскии
старосельскии
старосельское
стартовая
старшего
старшии
старыгино
старые
старыи
стат
статеи
статистика
статистикаи
статистики
статистические
статистическии
статистических
статистического
статистическое
статус
статуса
статусе
статусом
стать
статье
статьи
статью
статья
статьяи
статьям
статьями
статьяна
статьяс
статьях
статьяш
статьяшка
статьяшта
стационарные
стб
ств
ства
ствам
ствами
ствах
стве
ственныи
ственных
ствие
ствии
ствию
ствия
ство
ствовал
ствовать
ствол
ствола
стволов
ством
ству
ствует
ствуют
ствующие
ствующии
ствующих
сте
стекло
стенки
стенкои
стеноз
степаново
степановская
степенеи
степени
степениза
степень
степновскии
степнои
стиле
стилеи
стили
стиль
стилю
стиля
стилями
стихаи
стихаш
стихи
стихии
стихов
стихотворене
стихотворенеш
стихотворени
сткии
сто
стоит
столбце
столбцов
столетия
столетняя
столица
столицы
столько
стоматология
сторон
сторона
сторонних
сторону
стороны
стоять
стоящего
стр
стран
страна
странам
странах
стране
страниц
страница
страницах
странице
страницеи
страницу
страницы
страну
страны
стратегического
стратегия
страшныи
стрелица
стрелка
стрелки
стремиться
строгое
строение
строению
строения
строк
строка
строкам
строках
строке
строки
строковыи
строкои
строку
стронции
строчекэта
строчка
строчке
строчки
строчку
строчная
строчнои
строчные
структура
структурная
структуру
структуры
студе
студент
студенташта
студентии
студентов
студия
ступени
ступолохта
су
суахили
субъект
субъекта
субъекташ
субъекташка
субъектии
субъектов
сув
суворово
суворовскии
сувра
суд
суда
судан
судебнои
судиславскии
судить
судно
судного
судныи
судогодскии
судьба
судья
суи
сулавеси
сулак
суламбек
суламбека
суламбекович
суламбик
суламбика
сулеи
султа
султан
султана
султанович
султыганаькъан
султыгов
сулу
сулумбек
сулумбик
сулумбика
сумино
сун
сунжа
сунженскии
сунженского
суннат
суннии
сунт
суомии
супа
супача
супруг
супруга
сур
сура
сурат
сурата
сураташ
сурмагур
сурсат
сурт
сурта
суртага
суртанча
суртанчаш
суртанчии
суртах
суртаца
сурташ
сурташи
суртдар
суртии
сурхатӏе
сурхатӏера
сурхахи
сурхо
сурхот
сурхотӏа
сурхотӏара
сурхотӏарча
сурхотӏе
сурхохии
сурхохин
суры
сути
сутки
сутоки
суть
суфии
суффикс
суффикса
сухал
сухарево
сухая
сухих
сухои
сухокумск
сухонскии
сушиловское
существенно
существенными
существетильного
существование
существовании
существования
существовать
существует
существуют
существующие
существующими
существующих
существующую
сущностеи
сущности
сущность
сущностях
суэца
сфера
сферах
сфере
сферы
схема
схо
сцена
сценарии
сценарист
сцифомедузы
счастье
сче
счисления
считает
считается
считаешь
считать
считаться
считаются
сша
съе
съезд
съезда
съезде
съездо
съенна
съеннаи
съяь
сы
сывороточни
сын
сыновья
сыну
сыром
сысоево
сыче
сычево
сэр
сюда
сюжет
сюжетно
ся
сямженскии
т
та
таб
табак
табаков
табасаранскии
табл
таблиц
таблица
таблицах
таблицаш
таблице
таблицеи
таблицу
таблицы
табличка
таблички
табличныи
тав
таврическая
тавхьид
тагиркент
тад
тадеуша
тадж
таджикистан
таджикистана
тазза
таи
таиланд
таиланде
таитянскии
так
така
такаи
такая
также
таки
такие
такилга
таким
такими
таких
таков
таково
таковые
таковым
такого
такое
такои
таком
таксо
таксобокс
таксобоксе
таксон
таксона
таксонах
таксонаш
таксонии
таксонов
таксономе
таксономи
таксономии
таксономические
таксономических
таксономического
таксономическои
таксономическому
таксономия
таксоны
такую
талант
талг
талгӏеш
талисман
талица
талицкое
талицы
таллин
талхаш
талца
тальцы
там
тамара
тамаре
тамареи
тамари
тамарии
тамаш
тамашии
тамбовская
тамерлан
тамерлана
тан
тана
танаькъан
танганьика
тангиева
тании
танкиев
танков
тар
тара
тараи
таралеста
тарасово
тарасовская
тарашкевица
таргим
таргимов
таржам
таржамаш
таржамхо
тари
тариева
тарлу
тарлуш
тарматал
тарматхои
тарногскии
тарногское
таро
тарра
тарское
тархии
тархьар
тархьара
тархьарал
тархьаран
тархьарах
тархьараш
тархьаре
тархьареи
тархьари
тархьархо
тархьархои
тархьарца
тарца
тасмана
тасс
тасса
тассар
тассарца
тат
тата
татарович
татарскии
татарстан
татархана
татарханович
татах
татре
татрии
татьи
тах
тахан
таханара
таханарча
тахка
тахкар
тахкара
тахтаджяния
тац
таца
тача
тачох
тачул
таш
таши
ташта
таь
таьво
таьзет
таьзета
таьлме
таьрахь
таьрахьа
таьрахьах
таьрахьаш
таьрахьашта
таьрахье
таьрахьи
таьрахьии
таьрга
таьх
таӏазар
тбилиси
тв
тве
тверская
твоего
творога
творчество
те
театр
театра
театрашка
театре
театром
тебя
тег
тега
тегах
теги
тегом
тедаш
теза
тезача
тезисы
теи
текст
текста
текстах
тексте
текстов
текстовая
текстовои
текстовую
текстовые
текстовыи
текстовым
текстом
тексту
тексты
текущ
текущая
текущего
текущеи
текущему
текущие
текущии
текущую
текхадии
текъам
тел
тела
телар
телачох
телаш
телевидене
телевиденеи
телевидение
телевидении
телевизионни
телеканал
телеканалаш
телекоммуникацеш
телекомпанеш
телерадиокомпане
телесериал
телесериала
телесериалаш
телесериалы
телефон
телефона
телефонии
телефонныи
телехьежареи
тело
телолецитальные
телу
телугу
тем
тема
темаех
темаи
темам
темарзанаькъан
темаркъии
тематика
тематиках
тематике
тематики
тематику
тематические
тематических
тематическом
темах
темаш
тембот
теме
теми
темои
темп
температур
температура
тему
темы
тенант
теннис
тень
теореш
теори
теории
теория
теперь
теплогорское
теплое
тептар
тептара
тептараш
тептарче
тер
терапи
терапии
терапия
терентьевская
терехово
теречное
теркал
теркалде
теркам
терко
термин
термина
терминатор
терминах
терминаш
терминии
терминов
терминологи
терминологии
терминология
термину
термины
территорен
территориальная
территориального
территориальное
территориальных
территориеи
территории
территория
терроризм
терская
терскии
терское
терскои
терсмаи
терсмеи
тесла
тесса
тест
теста
тестировани
тестирование
тестирования
тестов
тесты
тесь
тетрадь
тетум
тех
теха
техад
техаи
техача
техе
техка
техкад
техкаи
техника
техникум
техникума
техникуме
техническая
технически
технические
техническии
техническими
технических
техническои
техническую
технологе
технологеш
технологи
технологии
технология
течение
течением
теш
тешал
тешалаш
тешалду
тешаме
тешар
тешаш
тешшаме
теӏаду
ти
тигинское
тигринья
тии
тика
тил
тилла
тиллаи
тиллар
тильды
тимонино
тимонинская
тиморское
тимофеево
тимошино
тимошинская
тимошкино
тимур
тимура
тимурзиев
тимуридии
тинг
тинское
тип
типа
типах
типичного
типов
типовои
типографии
типографика
типографически
типом
типу
типы
тираж
тире
тирмизи
тирренское
тисси
титан
титаник
титово
титул
тифлис
тиша
ткани
ткань
тки
ткъам
ткъама
ткъамаш
ткъамии
ткъаь
ткъаьннена
ткъеста
ткъо
ткъоалагӏа
ткъоалагӏча
ткъоаллаг
ткъовро
ткъоврон
ткъовронаш
ткъои
тлярата
тляратинскии
тмал
тная
тнои
тные
тныи
тным
тными
тных
то
тоа
тоаба
тоабаи
тоабан
тоабар
тоабара
тоабас
тоабах
тоабаш
тоабашка
тоабе
тоабеш
тоабу
тоадар
тоадара
тоадархо
тоадархочо
тоадаьд
тоаде
тоадеш
тоае
тоаеш
тоам
тоаркхо
тоатал
тоатола
тоаяр
тоаяь
тобои
тобольскои
тов
товар
товара
товарах
товараш
товарашта
товарех
товарищество
товш
тогда
того
тогодское
тоже
тои
ток
токаев
токаре
токарево
тол
толам
толамаш
толамца
толашагӏа
толковыи
толку
толстая
толстиково
толстово
толстои
толшменское
только
том
тома
томас
томах
томе
томов
томская
томского
тому
тон
тони
тонкая
тоншаловское
топ
топаш
топик
топлива
топливо
тополе
тополь
торбино
торговая
торжокскии
торо
торопово
тороповское
тот
тотемскии
тох
тоха
тохар
тохарца
тохача
[...]
