!
"
#
##0
##1
##10
##11
##12
##13
##14
##15
##16
##17
##18
##19
##2
##20
##21
##22
##23
##24
##25
##26
##27
##28
##29
##3
##30
##31
##32
##33
##34
##35
##36
##37
##38
##39
##4
##40
##41
##42
##43
##44
##45
##46
##47
##48
##49
##5
##50
##51
##52
##53
##54
##55
##56
##57
##58
##59
##6
##60
##61
##62
##63
##64
##65
##66
##67
##68
##69
##7
##70
##71
##72
##73
##74
##75
##76
##77
##78
##79
##8
##80
##81
##82
##83
##84
##85
##86
##87
##88
##89
##9
##90
##91
##92
##93
##94
##95
##96
##97
##98
##99
$
%
&
'
(
)
*
+
,
-
.
/
0
00
000
0008
001
004
0073
01
012
02
03
0309210085
034
04
05
051
055
06
060
062
064
07
070902
075
076
08
081
082
09
090
1
10
100
1000
1001
1002
1003
1004
1005
100504
1006
1007
1008
1009
101
1010
1011
1012
1013
1014
1015
1016
1017
1018
1019
102
1020
1021
1022
1023
1024
1025
1026
1027
1028
1029
103
1030
104
1040
105
1050
106
1060
1065
107
1070
108
1080
108109
109
1090
11
110
1100
1101
1102
1103
1104
1105
1106
1107
1108
1109
111
1110
1111
1112
1113
1114
1115
1116
1117
1118
1119
112
1120
113
1130
114
1140
1141
1142
1143
1144
1145
1146
1147
1148
1149
115
1150
116
1160
117
1170
1171
1172
1173
1174
1175
1176
1177
1178
1179
118
1180
1181
1182
1183
1184
1185
1186
1187
1188
1189
119
1190
1191
1192
1193
1194
1195
1196
1197
1198
1199
12
120
1200
1201
121
1210
1211
122
1220
1226
123
1230
1232
1236
124
1240
125
1250
1253
126
1260
1263
1265
127
1270
1274
128
1280
1284
1289
129
1290
1299
13
130
1300
13000
1301
131
1310
132
1320
1321
1323
1324
1325
133
1330
1331
1336
134
1340
1347
1348
135
1350
136
1360
1366
1367
137
1370
1376
1379
138
1380
1383
1388
139
1390
1391
1392
1393
1395
1397
1398
14
140
1400
1401
1402
1403
1407
1409
141
1410
1414
1415
1418
142
1420
1424
1426
1427
1428
1429
143
1430
1431
144
1440
145
1450
1452
1453
1454
1458
1459
146
1460
1466
1468
147
1470
1472
1474
1476
14761110706
14773151481
1478
1479
148
1480
1481
1485
1486
1487
149
1490
1491
1492
1494
1496
1499
15
150
1500
1501
1502
1503
1506
1507
1508
1509
151
1510
1511
1512
1514
1515
1516
1517
1518
1519
152
1520
1521
1522
1523
1524
1525
1526
1527
1528
1529
153
1530
1531
1532
1533
1534
1535
1536
1538
1539
154
1540
1541
1542
1543
1544
1545
1546
1547
1548
1549
155
1550
1551
1552
1554
1555
1556
1557
1558
156
1560
1562
1563
1564
1565
1566
1567
1568
1569
157
1570
1571
1572
1574
1575
1577
1579
158
1580
1581
1582
1583
1584
1585
1586
159
1590
1591
1595
1596
1597
1598
1599
16
160
1600
1601
1603
1604
1605
1609
161
1610
1611
1612
1613
1614
1615
1616
1617
1618
1619
162
1620
1624
1626
1627
163
1630
1635
163756
1639
164
1640
1642
1643
1645
1648
165
1650
1651
1653
1659
166
1660
1666
1667
1668
167
1670
1673
1678
168
1680
1683
1685
1686
169
1690
1691
1694
1695
17
170
1700
1701
1706
1707
171
1710
1715
172
1720
1724
1727
173
1730
1731
1732
1738
174
1740
1741
1746
1748
175
1750
1753
1756
1757
176
1760
1765
177
1770
1775
1776
1778
178
1780
1781
1783
1784
1785
1788
1789
179
1790
1791
1795
1797
1799
18
180
1800
1801
1802
1803
1804
1805
1806
1807
1808
1809
181
1810
1811
1812
1813
1814
1815
1816
1817
1818
1819
182
1820
1821
1822
1823
1824
1825
1826
1827
1828
1829
183
1830
1831
1832
1833
1835
1836
1837
1838
1839
184
1840
1841
1842
1844
1845
1846
1847
1848
1849
185
1850
1851
1852
1853
1854
1856
1857
1858
1859
186
1860
1861
1862
1863
1864
1865
1866
1867
1868
1869
187
1870
1871
1872
1873
1874
1875
1876
1877
1878
1879
188
1880
1881
1882
1883
1884
1885
1886
1887
1888
1889
189
1890
1891
1892
1893
1894
1895
1896
1897
1898
1899
19
190
1900
1901
1902
1903
1904
1905
1906
1907
1908
1909
191
1910
1911
1912
1913
1914
1915
1916
1917
1918
1919
192
1920
1921
1922
1923
1924
1925
1926
1927
1928
1929
193
1930
1931
1932
1933
1934
1935
1936
1937
1938
1939
194
1940
1941
1942
1943
1944
1945
1946
1947
1948
1949
195
1950
1951
1952
1953
1954
1955
1956
1957
1958
1959
196
1960
1961
1962
1963
1964
1965
1966
1967
1968
1969
197
1970
1971
1972
1973
1974
1975
1976
1977
1978
1979
198
1980
1981
1982
1983
1984
1985
1986
1987
1988
1989
199
1990
1991
1992
1993
1994
1995
1996
1997
1998
1999
2
20
200
2000
2001
2002
2003
2004
20040504
2005
2006
2007
2008
2009
201
2010
2011
2012
2013
2014
2015
2016
2017
2018
2019
202
2020
2021
2022
2023
2024
203
204
205
206
207
208
209
21
210
211
212
213
214
215
216
217
218
219
22
220
221
222
223
224
225
226
227
228
229
23
230
231
232
233
234
235
236
237
238
239
24
240
241
242
243
244
245
246
247
24741951870
248
249
25
250
2500
251
252
253
254
255
256
257
258
259
26
260
2600
261
262
263
264
265
266
267
268
269
27
270
271
272
273
274
275
276
277
278
279
28
280
281
282
283
284
285
286
287
288
289
29
290
291
292
293
294
295
296
297
298
299
3
30
300
3000
3005
301
302
303
304
305
306
307
308
309
31
310
311
312
313
314
315
316
317
318
319
32
320
321
322
323
324
325
326
327
328
329
33
330
3300
331
332
333
334
335
336
337
338
339
3395
34
340
3405
341
342
343
344
345
346
347
3478
348
349
3499
35
350
351
352
353
354
355
356
357
358
359
36
360
3600
361
362
363
364
365
366
367
368
369
37
370
371
3713
372
373
374
375
376
377
3776
378
379
38
380
381
382
383
384
385
386
387
388
389
39
390
391
392
393
394
394395
395
396
397
398
399
4
40
400
401
402
403
404
405
406
407
408
409
4092
41
410
410411
411
412
413
414
415
416
417
418
419
42
420
421
422
423
4235
424
425
426
4260
427
428
4282
429
43
430
431
432
432433
4327
433
434
435
436
436437
437
438
439
44
440
441
442
4420
443
444
445
446
447
448
449
45
450
451
451452
452
453
454
455
456
457
458
459
46
460
461
462
463
464
4645
465
466
467
4670
468
469
4690
47
470
471
472
473
474
475
476
477
478
479
48
480
481
482
483
484
485
486
487
488
489
49
490
491
492
493
494
495
496
497
498
499
5
50
500
5000
501
502
503
504
505
506
507
508
509
51
510
511
512
513
514
515
516
517
518
519
52
520
521
5215
522
523
524
525
526
527
528
529
5290
53
530
531
532
533
534
535
536
537
538
539
54
540
541
542
543
544
545
546
547
548
549
55
550
5500
551
552
553
554
555
556
557
558
559
56
560
561
562
563
564
565
566
567
568
5680
569
57
570
571
572
573
574
575
576
577
578
579
58
580
581
582
583
584
585
586
587
588
589
59
590
591
5914
592
593
594
595
596
597
598
599
6
60
600
601
602
603
604
605
606
607
608
609
609733
61
610
611
612
613
614
615
616
617
618
619
62
620
621
622
623
624
625
626
627
628
629
63
630
631
632
633
634
635
636
637
638
639
64
640
641
642
643
644
645
646
647
648
649
65
650
651
652
653
654
655
656
657
658
659
66
660
661
662
663
664
665
666
667
668
669
67
670
671
672
673
674
675
676
677
6770
678
679
68
680
6800
681
682
683
684
685
6850
686
6864
687
688
6882
689
69
690
691
692
693
694
695
696
6960
697
698
699
7
70
700
701
702
703
704
705
706
707
708
709
71
710
711
712
713
714
715
716
717
718
719
72
720
721
722
723
724
725
726
727
7271
728
729
73
730
731
732
733
734
735
736
737
738
739
74
740
741
742
743
744
745
746
747
748
749
75
750
751
752
753
754
755
756
757
758
759
76
760
761
762
763
764
765
766
767
768
769
77
770
771
772
773
774
775
776
777
778
779
78
780
781
782
783
784
785
786
787
788
789
79
790
791
792
793
794
795
796
797
798
799
8
80
800
8000
801
802
803
804
805
806
807
808
809
81
810
811
812
813
814
815
816
817
818
819
82
820
821
822
823
824
825
826
827
828
829
83
830
831
832
833
834
835
836
837
838
839
84
840
841
842
843
844
845
846
847
848
849
85
850
851
852
853
854
855
856
857
858
859
86
860
8601
861
862
863
864
865
866
867
868
869
87
870
871
872
873
874
875
876
877
878
879
88
880
881
882
883
884
885
886
887
888
889
89
890
891
892
893
894
895
896
897
898
899
9
90
900
9000
901
902
903
903906
904
905
906
907
908
909
91
910
911
912
913
914
915
916
917
918
919
92
920
921
922
923
924
925
926
927
928
929
93
930
931
932
933
934
935
936
937
938
939
94
940
941
942
943
944
945
946
947
948
949
95
950
951
952
953
954
9540246249
955
956
957
958
959
96
960
961
962
963
964
965
966
967
968
969
97
970
971
972
973
974
975
976
977
978
979
98
980
981
982
983
984
985
986
987
988
989
99
990
991
992
993
994
995
996
997
998
999
:
;
<
=
>
?
@
\
^
_
`
a
aa
aaa
aaba
aan
aardbei
aaron
ab
abacus
abad
abajo
abarco
abasolo
abba
abc
abd
abderrama
abdoaurantiaca
abdofuscata
abdolonginqua
abdomininigra
abdonigella
abdopallescens
abe
aberrans
aberti
abi
abierto
abigai
ability
able
ablepharus
ablono
abolengo
about
above
aboveclass
abovestyle
abraham
abril
abs
abscondita
absolute
absolution
abu
ac
aca
acachto
acacias
acade
academia
academy
acah
acalcentlamantli
acalco
acalli
acallotl
acalmocuitlahuiani
acalpainaliztli
acalpamitl
acalpan
acalquixohuahyan
acalquixohuayan
acaltecoyan
acaltepozcaxitl
acaltzomitl
acameh
acapolco
acapulco
acatitlan
acatl
acatlan
acaxitl
acaxotl
acayotl
acceso
access
accessdate
accessed
accesskey
accessmonthday
accessyear
accio
accord
accordance
according
account
accueil
acecec
acecexocotl
aceraglans
acerca
aceroglans
aceromata
achauhtlahto
achca
achcauh
achcauheuropantlacah
achcauhtica
achcauhtlacah
achcauhtlahcuilolli
achcauhtlahtolli
achcauhtoca
achcauhza
achelli
achi
achic
achica
achichiltik
achicualli
achijtsin
achilcoztic
achitequitl
achiuh
achiyok
achopan
achpalnahuiltia
achpan
achpocan
achtapayo
achtli
achto
achtocaxtiltoc
achtopa
achtopaihtoa
achtopaj
achtopan
achtotipan
achtotlacah
achtotlacatl
aci
acicamatiayah
acicoh
acintli
acito
aclaran
acme
aco
acocilin
acocohtli
acolhuah
acolman
acomitl
aconcagua
acontli
acopilco
acoquitzaliztli
acordeo
acosta
acoustic
acoustics
across
acta
action
activo
actor
actual
actualidad
actualizacio
actually
actualmente
acualli
acueducto
acuerdo
acura
acxoyatl
ad
ada
adam
adams
add
addcat
addclass
added
adding
additional
addkey
address
addresses
addrow
adds
ade
adio
adir
adirse
administrador
administrator
administrators
adobe
adolescent
adolf
adolfo
advance
adventures
adverbios
ae
aenigmatica
aerial
aeroginosa
aerome
aeropuerto
aethriobasis
af
afectado
affinidorsalis
affinis
affirm
afganistan
afgantla
afghanistan
afi
africa
african
afrika
after
afuera
ag
again
agatha
agave
age
agency
agente
agitated
agosto
agradaria
agrees
agu
agua
aguacate
aguas
aguascalientes
aguila
aguilar
agusti
agustin
agustinos
ah
aha
ahahuilli
ahaltepetl
ahca
ahcan
ahcauhtlahto
ahcauhtlahtolli
ahchihualoni
ahchtopan
ahci
ahcic
ahcica
ahcico
ahcicoh
ahciqui
ahcito
ahcitoh
ahciz
ahco
ahcocaliztli
ahcolcilin
ahcolco
ahcolli
ahcolman
ahcomanaliztli
ahcopa
ahcoqui
ahcoquiz
ahcualcochiztli
ahcualli
ahhuayoh
ahhue
ahhuic
ahhuichuetzini
ahhuiya
ahi
ahmacehualtin
ahmamaltzintetl
ahmela
ahmo
ahmoneuhqui
ahmono
ahmotlazoyotl
ahmozoc
ahne
ahneneuhcayotl
ahneneuhqui
ahneuhqui
ahnno
ahno
ahnochipa
ahnozo
aho
ahocmo
ahora
ahpehualoni
ahquincantin
ahsikoh
ahte
ahteo
ahtictoh
ahtla
ahtlacayotl
ahtlatl
ahtle
ahtleh
ahtlein
ahto
ahuacacuahuitl
ahuacapixcayotl
ahuacatl
ahuacatla
ahuacatli
ahuachuaztli
ahuacuahuitl
ahuan
ahuateno
ahuatenoh
ahuatl
ahuatomatl
ahuehcatlan
ahuehuetl
ahuel
ahuiayaliztli
ahuicyaniliztli
ahuilizapan
ahuitzotl
ahumada
ahxihuaya
ahyehyecauhqui
ahyo
ahzo
ahzomalli
ahzoquen
ai
aic
aid
aider
aijtik
ailhuicatl
aimaratlahto
aimaratlahtolli
aimeriez
ain
air
airdate
aire
aires
ais
aithogaster
aitualli
aitzcuintli
aj
ajakajika
ajakatl
aji
ajkopa
ajkopak
ajkopechtli
ajmo
ajolmilij
ajsi
ajtal
ajuda
ajudar
ajuiyak
ak
aka
akahya
akal
akapolko
akasamalotl
akhara
aki
akin
akira
akojpak
al
alabama
alacant
alam
alamogordo
alan
alante
alarco
alas
alaska
alatriste
alaxox
alaxtitlan
alba
albania
albaniatlahto
albert
alberto
albifrons
albin
albino
albistrigata
albrechtsburg
album
albumler
albums
albuquerque
alcala
alcalde
alcaldeyotl
alcatraz
alce
alces
alconedo
alcoriza
alcuni
aldama
ale
alebrijes
alegre
alejandra
alejandro
alema
aleman
alemania
alemaniatla
alemaniatlahto
alemante
alemantecah
alemantecatl
alemantla
alemantlahto
alemantlahtolli
alex
alexander
alexandria
alexis
alfa
alfabeto
alfalfa
alfalfapixcayotl
alfaro
alfonso
alfred
alfredo
algo
alguien
algunas
algunos
alguns
alhambra
alhucemas
ali
aliados
alianza
alias
aliases
aliaseslist
aliasesp
aliasesq
alicante
alici
alighieri
align
alinda
alinea
alinear
alive
alize
all
alla
allah
allcat
allemande
allen
allende
alli
alliaceae
allios
allnames
allosaurus
allow
allowblankparams
allowed
allows
allowsmall
alma
almada
almagro
alnus
alone
along
alonso
alors
alotl
alpaca
alpes
alpha
alphabet
alpine
alpino
already
alrededor
als
also
alt
alta
altamira
altamirano
altar
altas
altemaitl
altepec
altepecalpolco
altepecalpolli
altepeconetl
altepecuauhtlah
altepehuahcan
altepehuahqueh
altepeicniuhcayotl
altepeko
altepemaitl
altepematiliztli
altepemeh
altepemej
altepemexicah
altepemexihcah
altepenanyotl
altepenayotl
altepepan
altepet
altepetecpan
altepetepozcoac
altepetequihuah
altepeticpac
altepetikpak
altepetiliztli
altepetinih
altepetl
altepetlacameh
altepetlacayotl
altepetlahtocan
altepetlahtohcan
altepetlali
altepetlalia
altepetlalimej
altepetlalli
altepetlianca
altepetzin
altepetzintiliztli
altepeyotl
altiplanicie
altiplano
altitud
alto
altos
altura
alva
alvarado
always
am
ama
amadeus
amado
amahmaniliztli
amaitl
amalia
amamatlatsalan
amanalli
amanamacoyan
amantea
amantecayotl
amapatoltiliztli
amapechtli
amapolxochitl
amaquemecan
amar
amarambalensis
amarillo
amaro
amarte
amaru
amat
amatajkuilol
amate
amatenanco
amateur
amatl
amatlacuilonih
amatlahcuilo
amatlahcuilolli
amatlahcuilolotl
amatlamoyawalli
amauta
amaxtli
amazon
amazona
amazonas
amazonia
ambato
amberbaum
ambersweet
amberton
ambique
ambos
ambox
ambrosioides
ame
amehhua
amelia
amelika
amelli
america
american
americana
americano
americanus
americatlacameh
americayotl
americo
amerika
amerikah
amerindian
ameyalco
ameyalli
amg
ami
amigos
amihqueh
amiliztli
amilpas
amini
amistad
amiztli
ammochintin
amo
amochitl
amochtemolistli
amochtli
amoj
amolli
amolpechtli
amopal
amor
amore
amores
amotlacahuan
amount
amox
amoxchihualiztli
amoxchihualoyan
amoxchihuani
amoxchiuhtli
amoxcuilolizotl
amoxcuiloliztli
amoxcuilotl
amoxhuan
amoxi
amoxixmatqui
amoxmeh
amoxpialoyan
amoxtemolistli
amoxtiliztli
amoxtlahcuiloh
amoxtlahcuilohqueh
amoxtlahcuiloliztli
amoxtli
amoxxehxeloliztli
amp
amsterdam
amui
amuleto
amundsen
amy
an
ana
anacardiaceae
anadirfila
anahuac
anahuactlalli
analco
anales
ananas
anas
anawak
anaya
anca
ancayotl
anchitrichota
ancho
anchoimagen
anchor
ancient
anco
and
anda
andalie
andalou
andaluci
andalus
andamanensis
andere
anderson
andes
andina
andino
andorra
andre
andrea
andreas
andres
andrew
andromeda
andy
aneiro
anepalko
aneuvittata
anfo
ang
ange
angel
angeles
angelina
angelo
angelomeh
angels
angliatl
anglicano
anglitlahtolli
anglorum
anglos
anglosajones
anglotlahtolli
angola
angusticostata
angustifasciata
angustifinis
anhinga
ani
animal
animales
animalia
animated
animaxe
anime
animetlan
anita
aniversario
anmo
ann
anna
annals
anne
anniversary
annona
annonaceae
annotation
ano
anonymous
another
anperiodo
anqui
anquichichi
ans
anser
anta
antarctica
antartida
ante
antequera
anterior
antes
anthology
anthony
anthopleura
anthropology
antigua
antiguo
antillas
antilocapra
antioquia
antithesis
anto
antologi
antologia
anton
antonio
antropologi
antwerpen
antworten
anuschka
any
anylang
anylanguage
anyofin
anyoinicio
anything
anywhere
anza
aoc
aoccan
aocmo
aol
aosta
apa
apacheh
apachtli
apalaches
apan
apantlallacah
apantlalli
apantli
aparecera
aparicio
apariencia
apatosaurus
apicofuscans
apiconigroscutella
apipiyalotl
aplicable
apo
apocalypse
apodaca
apoktli
apollo
apostol
apostrophe
apoxtolli
app
appear
append
appert
apple
applies
apprendre
appropriate
aprende
aprender
april
aqui
aquihqueh
aquila
aquiles
aquin
aquizaliztli
ar
ara
arabia
arabiaemiryo
arabiate
arabiatlacah
arabiatlahto
arabiato
arabitla
arabitlahto
arago
arahuacah
arahuahqueh
araniella
aranjuez
arantlahtolli
araucania
araucaria
aravaca
arbol
arc
arca
arcady
arch
archaeopteryx
archipie
architecture
archive
archived
archivedate
archiveformat
archives
archiveurl
archivo
archivos
archivoseditables
archivoslegibles
archosaur
archosauriform
archosauromorph
arco
arcos
arctic
ardilla
are
area
arecaceae
arellano
aren
arena
areolata
arequipa
aretche
arg
argel
argelia
argemone
argentina
argentinatlacah
argentino
argentintecah
argentintecatl
argentum
argkeys
argo
args
argsi
argsk
argslist
argsp
argsparam
argsv
argtables
argtableval
argu
arguedas
argument
argumento
argumentos
argumentosduplicados
argumentosnormalizados
argumentossucesion
arguments
aria
ariel
arimatea
ariosto
arisanica
aristoteles
arizona
arizonensis
arkansas
arlington
armando
armenia
armeniatlahto
armillata
armoni
arms
arosa
arouet
around
arphia
arquelogi
arqueolo
arquitecto
arquitectura
arquitos
arr
array
arrays
arreola
arriba
arrieros
ars
art
arte
arteaga
artes
artesian
arthur
arti
article
articles
artico
articulo
artist
artista
artnik
arts
arturo
artwork
arxiv
arz
arzobispo
as
asbaje
ascension
ascii
asco
ase
asegurar
ash
asi
asia
asiaco
asiah
asiatecah
asimov
asin
asintld
asinus
asistenciatecnica
asitoj
ask
askøy
asno
asociacio
asove
asparagales
assaigs
assam
assamensis
assassin
assemble
assert
assign
assigned
assisi
associated
association
assume
ast
asta
astaj
astegotherium
asteraceae
aston
astra
astrologi
asturia
asturias
asulejo
asultik
asuncio
at
atdate
ate
atecaxmatemaloyan
atemaxac
atemaxacah
atemoctli
atemoztli
atenas
atenco
ateneo
atentli
atenza
ateos
atepantli
atepipitztli
aterrima
atetepitztli
atetl
atezcatl
atiliztli
atitlan
atkinson
atl
atla
atlacah
atlacamayeh
atlacatl
atlacayotl
atlacomolco
atlacomolli
atlahtenpa
atlahtolli
atlajtempa
atlali
atlamantli
atlanta
atlantic
atlantico
atlapechco
atlapechko
atlapexco
atlapexko
atlaquemitl
atlas
atlatl
atlatolli
atlauhtli
atlawtenpa
atle
atleh
atleinemic
atletismo
atlic
atlixco
atm
atmosphere
ato
atocha
atocpan
atojli
atoktli
atoli
atolli
atomih
atomnaguetlahtolmeh
atotonilco
atotonilli
atoya
atoyac
atoyacopa
atoyatl
atrabifasciata
atrichus
atrifacies
atrifemur
atriliniellata
atrisetosa
atrox
atsitsin
att
attack
attempted
attention
attr
attribute
attributes
attrs
atypica
atzalan
atzan
atzcalli
atzintetl
atzintli
atzompan
au
audi
audio
auditorio
audrey
auf
aufzeichnungen
august
auguste
augusto
augustus
auh
aulacorhynchus
aulex
aunto
aurantiaca
aurantiventer
aureogaster
aurifer
aurora
aus
ausente
austin
australe
australia
australianraven
australis
austria
austrinus
author
authorformat
authorlink
authorlist
authormask
authors
auto
autobuses
automa
automatic
automatically
automation
automo
autor
autoref
autorenportal
autumn
autumnalis
aux
auðr
av
available
avan
avantime
ave
avec
aveleyra
avenida
avez
avoid
avventure
award
awards
awatenno
awatl
away
awilisapan
ax
axajuiyak
axan
axanthinus
axaxayacatl
axca
axcamilhuitl
axcan
axcanah
axcaniztica
axcayotl
axiliztli
axis
axixtli
axkan
axkanah
axkanaj
axkantika
axkayotilli
axkayotl
axmaluilij
axno
axnoconetl
axnoh
axochco
axochiapan
axolotl
axpoliuis
axsanse
axteno
axtlopotlah
axtoui
ay
aya
ayac
ayacucho
ayamictla
ayamictlampa
ayamictlan
ayamictlani
ayamo
ayapepechtli
ayauhcalcan
ayecohtli
ayecotli
ayic
ayitochij
ayixpololoni
ayixpololoniin
ayma
aymar
aymara
ayo
ayohcanah
ayohkanah
ayohpaltic
ayohtli
ayohui
ayojkana
ayojtli
ayokeliyaya
ayokkanah
ayolcameh
ayolcatl
ayollohco
ayollohko
ayotatlan
ayotl
ayotochtli
ayouatl
ayoyotik
ayoyoytik
ayuda
ayuntamiento
az
aza
azcacoyotl
azcameh
azcapotzalco
azcatl
azerbaiyan
azkaban
aznar
azo
azozan
azquenzitlacameh
azqui
aztatl
azte
aztec
azteca
aztecah
aztecas
aztecatl
aztli
azuela
azul
azula
azurita
azz
b
ba
babel
baby
baccala
bach
bachillerato
back
background
backtranslate
bactrocera
bad
badajoz
baden
badge
badgeid
badges
badgescategory
bado
baez
bahag
bahamas
bahasa
bahrein
baile
bailey
bairdii
baja
baji
bajo
bal
balada
balam
balbuena
balderas
baleares
baledo
ball
ballad
balloons
baloncesto
balsas
baltazar
baltico
bamako
bamberg
ban
banana
bancroftii
band
banda
bandar
bandeau
bandera
banderas
banderilla
bangkok
bangladesh
bangladex
bano
bantuan
bantutlahto
baptist
bar
barajas
barbados
barbara
barbuda
barcelona
barcino
barco
bare
barilla
baroja
barra
barrabas
barraga
barranca
barranquilla
barrientos
barringtoniae
barrio
barroco
barry
barto
bartolo
bartolome
basa
basadre
base
baseball
baseballini
based
basestyle
basi
basic
basilio
basin
baskerville
basketball
basquetbol
bass
bassariscus
basshunter
basso
bastida
bastien
bat
batab
batalla
batazuna
batemani
battle
baudot
bautista
bavaria
bayerischer
bayern
baylor
bayt
bayuda
baz
bb
bbc
bc
bce
bd
be
beach
bean
beans
bear
beast
beat
beatles
beatriz
beautiful
beaux
becas
because
beckerae
become
becquer
beda
bedroom
bedshaped
bee
beeckerco
been
beeta
beethoven
beetle
before
began
begawan
begin
beginning
begins
behaviour
behind
bei
being
beirut
beitragen
beker
belanova
belarus
belau
bele
belen
belgica
belgicatla
belgique
belgrano
belice
believe
belis
belize
bell
bella
bellamy
bellas
belle
belleza
bellotas
bells
belmopan
below
belowclass
belowstyle
beltra
ben
benavente
benavides
bend
bending
benedetti
benedicto
benedictus
beneme
bengala
bengtzing
benin
benito
bentley
bento
benutzer
benutzerdiskussionsseite
benutzerkonto
benvenite
benvinguts
benz
beograd
ber
bereits
bergman
bergoglio
berli
berlin
bermudas
bernal
bernardino
berrioza
berryman
best
bestrank
besuche
bet
beta
betancur
betania
bethleem
betsaida
better
between
bey
beyond
bezzi
bg
bh
bha
bi
biarcuata
bibcode
biblia
biblio
biblioteca
bica
bice
bichir
biden
bidentata
bielorrusia
bielorruso
bien
bienvenido
bienvenue
bifasciata
big
bigtoothmaple
biguttata
biguttula
bike
bikini
bilbao
bilingu
bill
billion
billones
billy
bimaculata
bin
binary
bingen
binomio
binoyi
bio
biobi
biodiversidad
biografi
biografia
biografiasyvidas
biolib
bipustulata
bird
birds
birgisson
birmingham
birria
birth
bisiestos
biskaya
bisogno
bison
bissau
bist
bito
bitter
bivittata
bizaad
black
blacklist
blanc
blanca
blanco
blank
blas
blastocerus
blava
bleed
bleedingheartcloseup
blica
blink
bliss
block
blocked
blocks
blog
blood
bloody
bloque
blossoms
blue
blues
bmw
bn
bo
bob
boca
boccaccio
bocelli
body
bodyclass
bodystyle
bogorensis
bogota
bohemian
bol
bola
bolax
bold
boli
bolivar
bolivia
boliviatecah
bombilla
bon
bonampak
bonaparte
bondojito
bones
bonet
bonete
bonfil
bonita
bonus
bonvenon
book
books
booksources
booktitle
boolean
boopedon
boots
bora
borassus
borbo
borbon
bordado
bordados
border
borealis
borgia
borja
born
borneo
borrada
borrado
bosa
bose
bosna
bosnia
bosque
bot
bota
both
bothriechis
bottom
bougainvillea
boulevard
boullosa
bourg
bourgeoisie
boveda
bowie
box
boxeo
boxes
boxster
boxtable
boxtype
boy
boyaca
boys
boytler
br
bra
bracho
brachycera
brachylagus
brackets
brad
bradbury
bradley
brando
brandon
branquias
brasil
brasilia
brasilright
brasiltecah
brassicaceae
brave
bravo
brazzaville
break
breakfast
bremen
bresson
bretagne
bretan
breto
breton
breve
breviaculeus
brevistriata
brica
brico
bridge
bridges
briefs
bright
brightside
brillar
brilliant
brinco
britania
britanite
british
broccoli
broken
brokendate
bros
brother
brothers
brought
brown
browser
browsers
bru
brunei
brunnea
brunneola
bruno
bruselas
bruto
bruxelles
bryoniae
bs
bu
bubble
bucchinotti
buccunotti
bucket
buckland
budahcayotl
budapest
budim
buen
buena
buenaventura
buenavista
bueno
buenos
bug
bugatti
build
builder
buildwikilink
buinensis
bulgaria
bulgariatlahto
bull
bullifera
buloloensis
bun
bunny
bunolagus
bunting
bura
bureaucrat
burgos
burquina
buruensis
burundi
bury
buscar
buscas
bush
business
bustillo
but
butan
buteo
butterfish
butterflies
button
buvittata
by
byte
bytes
c
ca
caa
cab
caballero
caballeros
caballo
caballos
caban
cabecera
cabernet
cabeza
cabiria
cabo
caborca
cabos
cabrera
cabrio
cac
caca
cacactli
cacahuacuahuitl
cacahuatepe
cacahuatetl
cacahuatl
cacalo
cacan
cacanahuac
cacao
cacaxitl
cacaxtla
cache
cached
cachi
caci
cacique
cacnamacoyan
caco
cacoc
cacomiztli
cacta
cactaceae
cactihcac
cactli
cactus
cacuetla
cacuminata
cada
cadena
cadenas
cadereyta
cadillac
cadiz
cadre
caduta
cae
caesar
cafarnaum
cafe
cafecacahuatl
cafecalli
cah
cahnapa
cahteh
cahua
cahualo
cahuan
cahuayo
cahuayoh
cahuayohpixcayotl
cahui
cahuililotani
cahuipan
cahuitl
cahxiltia
cai
caifanes
caifas
caimito
caitl
caixa
caiximachoca
caja
cajeme
cal
cala
calabacitas
calabria
calac
calacoayan
calacohuahyan
calacohuaya
calacqueh
calafia
calahqueh
calakmul
calaqui
calaquia
calaquihtyahya
calaquiliztli
calaquilo
calaquiloc
calaquiloya
calaquitla
calaquiya
calaquiz
calatl
calatrava
calavera
calchi
calchihualiztli
calcite
calco
calculado
calde
calden
caldero
cale
caledonia
caledoniensis
calendar
calendarid
calendario
calendarmodel
calendars
calexico
calf
cali
calibrachoanoamagenta
calidad
caliente
calientes
califato
calificacio
calificador
calificativos
california
caliginosa
calimaya
calimayan
calixtla
caliz
calizpan
caliztli
call
callah
callahtelli
callao
called
calleh
calleja
callejo
calles
callhook
calli
calling
calls
callsign
calmanaliztli
calmanani
calmananimeh
calmanayo
calmanayotl
calmecac
calmimilolli
calnali
calnechicoltlamachtiltequitl
calo
calophylli
calor
calpampilotl
calpan
calpo
calpolalpan
calpolli
calpollotl
calpoltin
calqui
caltentli
caltequitl
caltetlahtlaniliztli
caltia
caltin
caltlamachtilnechicoltequitl
caltlamachtiloyan
caltlamactiloyan
caltlapahtiquetl
caltzacualli
caltzalantli
caltzomitl
caltzontli
caltzontzin
calumniata
calvillo
calzada
cama
camacho
camacti
camactlahto
camactli
camada
camalacotl
camanalli
camarasaurus
camaro
camatetl
camatini
camatl
camaxtli
cambiar
cambio
camboya
came
camecayo
cameh
camerun
cameyoh
camichin
camilo
camiltic
camino
caminos
camisa
camo
camohpaltic
camohtli
camote
camp
campa
campbell
campeche
campechiana
campeo
campo
campora
camptosaurus
campura
campus
can
cana
canabal
canada
canadatecah
canadensis
canah
canahpa
canahya
canal
canapa
canaria
canarias
canauhnacatl
canauhtetl
canauhtli
canc
cancan
cancel
cancer
canciones
cancrivorus
cancu
candelaria
canek
canemitiliztli
cani
canica
canillejas
canimeh
canin
canis
canitl
cannot
canoa
canon
canonicalname
canta
cantabria
cantabrico
cantares
cantepe
cantidad
cantina
cantinflas
cantli
cantu
canyon
caolo
caololo
cap
capa
capacidad
capadocia
capan
capi
capilla
capital
capitalization
capitol
capixqueh
capixqui
capo
capolcuahuitl
capolin
capotztic
capreolus
capricornio
caprolagus
capsicum
caption
captionstyle
captura
capuli
caquia
caquilliztli
caquizchiotl
caquizcopi
caquizcopinaloni
caquiztilizmatiliztli
caquiztiliztli
car
cara
caracal
caracalmiztli
caracas
caracol
caracteri
carambolae
caramin
caras
carbo
carbonaria
cardinale
cardonal
carga
cargo
cargoenlazado
cargraphics
caribe
caribetecah
caricatura
carl
carlo
carlomagno
carlos
carlota
carmen
carnaval
carnivora
carochi
carolina
carpenter
carpenters
carpet
carr
carranza
carrasco
carrera
carrey
carrillo
carrizo
cars
carso
carta
cartagena
cartago
cartas
cartier
cartography
carvajal
caryeae
caryophyllales
cas
casa
casablanca
casaidigh
casas
cascabel
cascadia
casco
case
cases
cash
casimiroa
casino
caso
casos
caspio
cassez
castagna
castela
castellana
castellano
castellanos
castile
castilla
castillo
castle
castor
castro
cat
catala
catalana
catalania
catalans
catalantlahto
catalantlahtolli
catalina
catalonia
catalun
catalunya
catamarca
catar
catarina
catay
catca
catcah
catcahuan
cate
catechcopa
catechopa
catecolo
catedral
categori
categoria
categories
categoriesns
categorisation
categorise
categorizacionabyad
categorizan
categorize
categorizing
category
categoryhandler
cateh
cateo
catepe
catepozto
cathartidae
cathedral
cati
catia
catiani
catilizilhuitl
catiliztli
catiloqueh
catin
catiya
catiyah
catiz
catl
catla
catlahcuilo
catlahto
catlahtoca
catlahtohca
catlahtollo
catle
catleh
catlein
catlini
catlitahcizquia
catliz
cato
catolicismo
catolico
catolicoqui
catolicotlacameh
catoqueh
catqueh
catqui
catrame
cats
cattitle
catya
catyan
catzin
catzina
catzomitl
cauca
caudata
cauh
cauhcaxitl
cauhtli
cauhtzin
causa
cause
caused
cave
caxahuac
caxamarca
caxcameh
caxcatlahtoloyan
caxitl
caxo
caxoxouhca
caxoxouhqui
caxtil
caxtilah
caxtilahtlahtolcopa
caxtilahtlahtolli
caxtilahtlahtoltica
caxtilahtlahtoqueh
caxtilahtlaltocayotl
caxtilahtocayotl
caxtilantlahtolcopa
caxtilantlahtolcuepa
caxtilcameh
caxtilcatecameh
caxtilla
caxtillah
caxtillahto
caxtillahtolcopa
caxtillahtolli
caxtillahtoltica
caxtillahtoltlanelhuatl
caxtillan
caxtillantepacholiztli
caxtillantlacameh
caxtillantlahto
caxtillantlahtohqueh
caxtillantlahtolcopa
caxtillantlahtolli
caxtillantlahtolmachiyotl
caxtillantlahtoltica
caxtillantlahtoqueh
caxtillantlatolli
caxtillantocaitl
caxtillatlahtolli
caxtilte
caxtiltecah
caxtiltecameh
caxtiltecatl
caxtiltencalixcuatl
caxtilteopixqueh
caxtiltepe
caxtiltepehuani
caxtiltlahtolcopa
caxtiltlahtolli
caxtitlantlahtoah
caxto
caxtol
caxtolcauhpol
caxtolli
caya
cayenne
cayman
cayo
cayoh
cayotl
cazador
cazaquistan
caſtellana
caſtilla
cb
cbe
cc
cca
ccaxtilte
ccd
cce
ccequintin
ccopa
ccu
cd
cdi
cds
ce
cealiztli
ceb
cebuano
cecancahuitl
cece
cecec
cececauhtica
cececpan
cecectlalpan
cecen
cecni
cecniqui
cecniquizqui
cectlapal
ceh
cehcanoc
cehce
cehceccan
cehcemilhuitl
cehualoya
cehuetzilizpan
ceiba
cel
celcatic
celda
celebration
celeste
celestes
celia
cell
cells
cellspacing
celso
celtah
celtic
cem
cema
cemahcic
cemana
cemanahuac
cemanahuacayotl
cemanahuatl
cemani
cemanqui
cemantoc
cematic
cemaxcayotl
ceme
cemeh
cemento
cemicac
cemihcac
cemilhuicayo
cemilhuitl
cemilhuito
cemilhuitonalli
cemita
cemitqueh
cemitqui
cemitquimatiliztli
cemonoca
cempo
cempoalton
cempohuallan
cempohualli
cempohualmahtlactli
cempohualtepetl
cemtla
cen
cena
cenca
cencah
cencalli
cencallotl
cenentlamantli
cenhuel
cennemi
cenqui
cenquizalizti
cenquizca
censo
centamachi
cente
centecamactli
centenas
centepixqui
center
centetl
centetticah
centi
centia
centiliztli
centla
centlacol
centlacticpac
centlahcol
centlaixtli
centlalticpac
centlamanquizqui
centlamantli
centlamatilizamoxtli
centlani
centlapal
centli
cento
centrada
central
centrales
centralis
centro
centroame
centros
centuries
centurion
century
centzi
centzon
centzontlahto
centzontlahtoleh
centzontli
centzonto
centzot
centzotl
cenxiuhtica
cenyani
cenyelizotl
cenyeliztli
cenyiliztli
cepan
cepanca
cepayahuitl
cepayauhtepetlan
cepayauhtic
ceppa
ceppan
cequi
cequih
cequin
cequinoc
cequinoqueh
cequintin
cerbera
cercanos
cercar
cerdenia
cereal
ceres
cernuda
cerrado
cerro
cerros
certain
cervantes
cerveza
cervus
ces
cesar
cet
cetiliztli
cetiya
cetl
cetlan
ceuta
cexiuitl
ceylanica
cfg
cfgvalue
cfgvaluetype
cgi
ch
cha
chabacano
chacha
chachapali
chachaxochitl
chad
chafarinas
chagall
chagas
chahuiztli
chajchokokoauitl
chajchokotl
chajma
chalcatl
chalcatzingo
chalchihuitl
chalchiuhcuecan
chalchiwehkan
chalchokotl
chalco
chalma
chalman
chalte
chalupa
chamanca
chambre
champagne
champion
champoto
chan
chane
chaneh
chanehkeh
chanehmatilistli
chanehmatiliztli
chanehmeh
chanehqueh
chanehtlahtolcopa
chanejkej
chanejmej
chanejpoualistli
chanequeh
change
changed
changes
changing
chano
chanpatlani
chansons
chant
chante
chanti
chantia
chantiah
chantiaya
chantih
chantij
chantiko
chantiloc
chantli
chapelle
chapictla
chapictlah
chapictlan
chapixtla
chapixtlan
chaplin
chapo
chapojpotlij
chapolij
chapolimej
chapolin
chapoltepec
chapopohtli
chapopote
chapter
chapterformat
chapterlink
chapterurl
chapterurlorigin
chapuli
chapultepec
char
character
characters
charle
charles
charlie
charme
charreri
charro
chart
chasmosaurus
chatinotlahto
chayohtli
chayotli
chca
chcauh
chchica
chco
che
checatl
checatla
chechelot
check
checkdigit
checked
checking
checklist
checksum
checktype
chedraui
cheesmanae
chemehuevi
chemical
chemicals
chenehqueh
chequia
cherry
chetumal
chevrolet
chevy
cheznohpalli
chhui
chi
chia
chiahuitztli
chiancaca
chiancacatl
chiancali
chiankali
chiapa
chiapah
chiapan
chiapas
chiara
chibchacah
chic
chica
chicago
chicahuac
chicahuacayotl
chicahualiztli
chicamohtli
chicas
chiche
chichen
chichi
chichihuala
chichihualalchiyatl
chichihualatl
chichihualayotl
chichihualli
chichihualoyan
chichihualtzapotl
chichika
chichiltechalotl
chichiltic
chichiltik
chichimeca
chichimecah
chichimeh
chichimej
chichimekah
chichini
chichinimeh
chichinoliztli
chichiquilzo
chichitl
chichiualatl
chicle
chicna
chicnahui
chico
chicoace
chicomatl
chicome
chicomexochitl
chicomilhuitl
chicomoztoc
chicontepec
chicontetl
chicontlacoto
chicopilli
chicoquizaliztli
chictlapa
chictlapanqui
chictzapocuahuitl
chictzapotl
chicuace
chicuacen
chicuacentetl
chicual
chicue
chicuei
chicuepo
chicuetetl
chicueyi
chicui
chieftains
chien
chihchi
chihchiltic
chihchipictli
chihcua
chihcual
chihcualli
chihtli
chihua
chihuahhua
chihuahua
chihuahuac
chihuahuah
chihualcalli
chihualiztli
chihualo
chihualoni
chihualtiloc
chihualtlacayotl
chijchiua
chijli
chikaua
chikauak
chikaualistli
chikawak
chikawalistli
chiknaui
chikome
chikomexochitl
chikontepek
chikueyi
chikwase
chikweyi
chilacayohtli
chilapan
chilcoztic
child
children
chile
chilena
chiles
chiletecah
chili
chililico
chililiko
chilkostik
chilli
chilmilij
chilpancingo
chilpantzinco
chilpayat
chilquilitl
chiltic
chiltlaxkali
chimalapas
chimalli
chimalpahin
chimalpain
chimalpohpoca
chimaltenanco
chimborazo
chime
chimeh
chimera
chimiztli
chin
china
chinahmeh
chinako
chinanko
chinankolo
chinankomej
chinankotinij
chinatlahto
chinatlahtolli
chincha
chincua
chinelo
chinese
chino
chipa
chipahuac
chipahuachanehqueh
chipauak
chipawak
chipilli
chipre
chiquetzal
chiquihuitl
chiquilichtli
chiquita
chiquito
chiquiuhpatoliztli
chiquiuhtapayolhuiliztli
chirostenotes
chitepe
chitepi
chitepo
chitl
chitla
chitontiquizaz
chiua
chiucna
chiucnahui
chiucnauhtecatl
chiucnauhtetl
chiuh
chiwalok
chiwaltlakayotl
chiya
chiyacuilotl
chiyalo
chiyancaca
chiyapah
chiyapan
chiyapantonco
chiyayotl
chiyo
chizhuatl
chlorotica
chmachtia
chna
cho
chocani
chocolate
chokoxtik
chol
chollahtolli
chololah
cholollan
cholula
chonglui
chontalchanehqueh
chontallacatiyan
chontalmeh
chontalneminih
chontalpan
choose
chopin
chorista
chosen
chosica
choso
chowk
chpa
chpopopojtli
chquetza
chr
chris
christian
christiana
christie
christmas
christopher
christus
chrysaetos
chrysler
chte
chtest
chtia
chtin
chtitla
chtitlan
chtla
chtli
chto
chtopaihtoa
chtzin
chtzintli
church
churubusco
chuy
chy
chyo
ci
cia
cibacopa
cibodasae
ciccone
ciceron
ciclismo
cicuacemeh
cidics
cido
cielo
cielos
cien
ciencia
ciencias
cienfuegos
cienti
cierre
ciervo
cifras
cigarra
cihtli
cihua
cihuacactli
cihuaconetl
cihuah
cihuameh
cihuapilli
cihuapilmeh
cihuapiltin
cihuaquemitl
cihuateopixqueh
cihuateotl
cihuatl
cihuatla
cihuatlacameh
cihuatlacatzin
cihuatlacatzintli
cihuatlahtoani
cihuatlampa
cihuatlampan
cihuatlaquemitl
cihuatocaitl
cihuatotolin
cihuazacapilli
cil
cilifera
cilitlan
cimapan
cimo
cinco
cincoatl
cine
cinnamea
cinnamomum
cinteo
cintli
cintura
cipaacalli
cipacacalli
cipactli
circa
circamusae
circle
circuito
circus
cirene
cirilo
ciruela
ciruelacuahuitl
ciruelaxocotl
ciruelo
cisne
cita
citas
citat
citation
citationclass
citations
cite
citemismatch
citeparams
citeq
citeref
citeweb
citing
citla
citlalin
citlalli
citlaltepec
citlaltepetl
citlaltlalli
citroe
citroides
citrullus
citrus
citta
city
ciucciu
ciudad
ciudades
ciutat
civic
ciyo
ckin
cl
cla
clacijero
claim
claimcommands
claims
claimspropertyid
clannad
clarity
clase
clasedatosup
clasefila
clasesubtitulo
clasetitulo
clasificacio
clasificacion
class
classes
classic
classical
claude
claudio
clav
clave
clavijero
clear
clemente
clements
cleo
cleofas
cli
click
clicking
clima
climas
climate
clinton
clio
clk
clocks
clorofila
close
closer
closeup
clouet
club
clyde
cm
cmbox
cnca
cni
cnica
cnico
cniuh
co
coa
coaapan
coacalco
coacuilco
coahtli
coahuila
coahuillan
coameh
coaocuilco
coast
coat
coatepec
coatl
coatzacoalcos
coauhtli
coauthor
coauthors
coba
cobalt
cobalto
cobre
coca
coccinelle
cochcayotl
cochenillifera
cochi
cochih
cochitzapocuahuitl
cochitzapotl
cochotl
cochotlah
cochpantic
cochqui
cochtimocauhqueh
cockroach
cocktail
cocoa
cococ
cocoliztli
cocone
coconeh
cocotl
cocoxcalli
cocoxqueh
cocozqui
code
codes
codex
coelophysis
coffee
cofre
cognata
cohca
cohcoliztli
cohconeh
cohcoxqui
cohen
cohte
cohtin
cohtli
coi
coins
col
cola
colaborar
coldplay
coleccio
colegio
colhuacan
colhuahcan
colibri
colima
coliman
colin
collapsible
collar
collect
collection
college
collita
colme
colo
cololohqueh
colombia
colombiana
colombiatecah
colombo
colonia
colonial
color
colorada
colorado
colors
colortitulo
colosio
colotl
colpos
colspan
columbia
column
columnas
columns
colunga
com
coma
comala
comalcalco
comalito
comalli
combine
come
comedia
comentario
comenzo
comercio
comes
comillas
comisio
comite
comitl
comma
command
commandfunc
commandname
comme
comment
commentary
comments
common
commons
commonwealth
communaute
community
como
comolli
comoras
comosus
comp
compact
compadre
compan
company
compare
compares
compendio
completa
completas
complete
completes
complicata
complutense
componente
componenteos
compostela
compostelayotl
compresssparsearray
compte
computer
comte
comu
comunidad
comunidade
comunita
con
cona
conabio
conacri
conaculta
conaliteg
conalli
conan
concat
concatenate
concatenated
concatenates
concatenation
concatvalues
concepcio
concept
concernant
concerns
concert
conchera
concheros
conciertos
concolor
concordance
concordia
condado
conde
condesa
condiciones
condition
conditions
conducta
conductividad
cone
coneh
conejo
conemeh
conepatus
conepiyah
conetl
conetzintli
conf
conference
conferenceformat
conferenceurl
config
configuracio
configuration
confirm
confirmed
conflict
conflictos
confluens
confundir
confused
confusion
congener
congo
congreso
coni
conjunction
conjunto
connecticut
conoce
conocer
conocida
conocido
conocimiento
conosco
conquest
conquista
conquistador
conrad
consectorata
consejo
consequences
consider
considera
considered
consonantes
constantinopla
constitucio
construccio
construction
consulado
consultada
consultado
consultez
conta
contact
contacto
contain
containing
contains
contempora
contenido
contenidos
content
contentargs
contents
contenu
contermina
contetocayotiayah
context
contiene
contigua
continental
continente
contingut
contingutimatge
continua
continue
continuo
contra
contradanza
contrario
contreras
contribution
contributions
control
convenciones
convento
convert
cook
cookies
cool
cooper
coor
coord
copa
copacabana
copal
copalcuahuitl
copalli
copaltitlah
copas
copia
copied
copilco
copilli
copina
coppel
copper
copy
copyright
copyrighted
copyrights
copytable
coquelicots
coquillett
cora
coracina
corazo
corbusier
cordillera
cordoba
cordobatlacatl
corea
coreatlahto
coria
corkidi
cornell
corolla
coromoto
corona
coronado
corporate
corpus
correct
correcta
correctly
correo
correspondecia
correspondencia
correspondiente
corresponding
corriendo
corriente
corsa
corsaro
corta
cortas
corte
cortes
cortez
cortines
corzo
corzuela
cosa
cosas
cosme
cosmos
cosovo
costa
costalis
costera
costilla
cotla
coto
cotomitl
cotoncayotl
cotopaxi
coturnix
cougar
could
count
counter
counting
country
county
coupe
courbet
courtney
covalente
cover
cowboy
cox
coxca
coxolihtli
coxqui
coya
coyahuac
coyaliztli
coyalli
coyamenacatl
coyametl
coyani
coyatoc
coyo
coyoaca
coyochichi
coyoctli
coyohuacan
coyohuahcan
coyolli
coyomeh
coyonimatiliztli
coyote
coyotl
cozamatl
cozcacuauhtli
cozcatl
cozcatlan
cozehuatl
cozolin
coztic
cozumel
cp
cpa
cpac
cpan
cpilli
cpo
cr
cracovia
craic
cranach
cranberries
crataegus
crazy
cre
crea
creacio
crear
create
created
creep
creta
cretacic
crevenna
cri
crime
crimea
crimen
criso
crista
cristal
cristalina
cristata
cristatus
cristiana
cristiania
cristianismo
cristiano
cristianomeh
cristianotla
cristianoyo
cristianoyotl
cristina
cristo
cristobal
cristoforo
cristotlacah
cristotocalizotl
cristotocaliztli
cristotzin
critianohyotl
criture
cro
croacia
croaciatlahto
croaciatlahtolcopa
croata
crocodilian
crocus
cronologi
cronologia
cronologiatitulo
crop
cropped
crotalus
cruces
crucificado
cruise
crusoe
crux
cruz
cruzi
crveno
crying
cryptosaurus
crystal
cs
css
csstext
cte
ctenehualo
ctepe
ctepoztli
cter
ctetl
cti
ctica
ctico
ctil
ctilo
ctimatiliztli
ctla
ctlahto
ctli
ctliome
ctliomo
ctor
ctrica
cts
ctx
ctzapotl
cu
cua
cuaatequiloc
cuaca
cuacacalaccantli
cuachi
cuacuahueh
cuacuahuehpixcayo
cuacuahuehpixcayotl
cuacuahuitl
cuacualtzin
cuacuauhnacatl
cuacuauhpan
cuacuauhxolotl
cuacueloloc
cuadro
cuahpanco
cuahtli
cuahuacazhuatl
cuahueh
cuahuilah
cuahuillan
cuahuilli
cuahuiloc
cuahuitl
cuaitl
cual
cualca
cualcan
cuali
cualidades
cualli
cualne
cualnezcaltepec
cualo
cualoni
cualquier
cualquiera
cualtzin
cuamareh
cuanacacozcacuauhtli
cuanacaxochitl
cuando
cuantoma
cuapantocaitl
cuaro
cuarto
cuatequiloc
cuatlazehcahuiloni
cuatochtli
cuatro
cuatrocie
cuauahnahuac
cuauahtemallan
cuauh
cuauha
cuauhcalti
cuauhchicahuac
cuauhchinanco
cuauhchochopitli
cuauhcopa
cuauhcuetzpalin
cuauhmalacatl
cuauhna
cuauhnacatl
cuauhnahuac
cuauhnelhuatl
cuauhpanco
cuauhpilli
cuauhte
cuauhtemalah
cuauhtemallan
cuauhtemalli
cuauhtemaltecah
cuauhtemoc
cuauhtepec
cuauhtepitztli
cuauhtextli
cuauhtic
cuauhticnahuatlahtolli
cuauhtitla
cuauhtitlan
cuauhtla
cuauhtlacamac
cuauhtlah
cuauhtlahcamac
cuauhtlahtli
cuauhtlehuanintzin
cuauhtlehuanitzin
cuauhtli
cuauhto
cuauhtochin
cuauhtolco
cuauhtolli
cuauhtontli
cuauhtonton
cuauhtzapocuahuitl
cuauhtzapotitlan
cuauhtzapotl
cuauhtzonte
cuauhua
cuauhuitl
cuauhxilotl
cuauhximalpan
cuauhxinqui
cuautontli
cuaxo
cuaxochtia
cuaxochtli
cuaxoxtia
cuayolotl
cuba
cubatecah
cubierta
cubrir
cuckoo
cucumis
cucurbita
cucurbitaceae
cucurbitae
cucurbitina
cue
cuechcoatl
cuecuenotzin
cuecuetzpaltin
cueitl
cuenca
cuenta
cuento
cuentos
cuepa
cuepo
cueponi
cueponiz
cuepotli
cuerda
cuerdas
cuernavaca
cuerpo
cuerpos
cuesta
cuetla
cuetlachtlacamayeh
cuetlachtli
cuetlaxco
cuetlaxcoapan
cuetlaxo
cuetlaxochitl
cuetlaxtli
cuetzpalin
cuetzpalli
cuetzpaltin
cueva
cuexte
cuextecah
cuextecapan
cuextecatlahtolli
cuextecatlaltocayotl
cueyatl
cueyatlalco
cuhtli
cuhuait
cui
cuica
cuicacan
cuicameh
cuicani
cuicanih
cuicanimeh
cuicapixqueh
cuicapixqui
cuicatianih
cuicatianimeh
cuicatl
cuicatlamatiliztli
cuicatli
cuicayotl
cuidado
cuilia
cuilli
cuilo
cuiloa
cuilonyo
cuilotl
cuiloz
cuilpo
cuitla
cuitlacochi
cuitlacochin
cuitlahuac
cuitlapilli
cuitlatemoli
cuitlatetepontli
cuitlatl
cuitlaxcolli
cuitzeo
cuix
cuixin
cula
culas
culebra
culiaca
culo
culos
cultura
cultural
culturas
culture
cumbia
cumiaitlahtocopa
cumiaitlahtolli
cumplean
cundinamarca
cuniculus
cup
cur
curanderos
cure
curial
curie
curiosidad
current
currentevents
currently
curso
curstate
curtis
curvifera
curvipennis
cusano
cusco
custom
cut
cutie
cuts
cuya
cuzco
cuzzupa
cv
cvc
cve
cvetitulo
cxihuitl
cy
cydonia
cyndi
cyrillahto
cœur
d
da
dacingers
dactylifera
dado
daily
dali
dall
dallas
dama
damasco
dame
dan
dance
dancefloor
dancing
danestlahtolli
dani
daniel
dann
danny
dans
dante
dantlahto
danubio
danza
dapsiles
dario
dark
darkness
darmstadt
darts
daruensis
das
dash
dashes
dastin
dasypodinae
dasypodon
dasypus
data
database
datacell
dataid
datapage
dataparameter
dataset
datastyle
datatype
datavalue
date
dateprecedesdate
dates
datetime
datetimejulian
dato
datos
datoscelula
datosup
daumier
dave
david
davies
davis
day
days
dazzle
db
dc
dd
de
dead
deadurl
dean
death
debajo
debe
deben
debug
decade
decat
december
decenas
decimal
decipiens
decir
declaracio
decode
decreto
decumana
decurtans
deenlazado
deep
deepcopy
deer
default
defaultkey
defaults
defaultseparators
defecto
define
defined
degas
degollado
degree
degsymbol
dei
deiner
deixar
dejar
del
delante
delegacio
delete
deleted
deletion
deletions
delfi
delgado
delhi
delicias
dell
della
delle
delorean
delta
deluxe
dem
dema
demetrio
demian
demo
democra
demopage
demospace
den
denis
denisse
densidad
dentro
deo
deocaquizcopi
deocui
deodorant
departamento
departamentos
departed
depeche
depend
dependencias
dependiendo
dependvalue
deportes
deportiva
deportivo
deppei
deprecated
depressa
depurarvacias
der
derby
derecha
derecho
derechos
des
desarrollador
desarrollo
desc
descartes
desconocido
described
descripcio
description
descubre
descubridor
descubrimiento
desde
deseas
deseja
deseo
desert
desgracia
desideri
desierto
desire
desired
despue
dessau
destacado
destacados
destacan
destino
destroy
det
details
detalle
detect
detected
determines
detroit
deutsch
deutschland
developer
devolver
devon
devry
devuelve
deſte
df
dhoka
dhoti
di
dia
diablo
diablos
dialecto
dialectos
diallagma
diamante
diamantes
diamond
diamonds
diana
diaphana
diaphora
diaphoropsis
diario
diaz
diccionari
diccionario
dice
dices
diciembre
dicionario
dickens
dico
dicos
dicraeosaurus
dictionaries
dictionary
dictionnaire
did
didelphis
diderot
die
diego
dies
diez
diferente
diferentes
diff
difference
different
digit
digital
digits
digo
digoabierto
digressa
digyna
dili
dinamarca
dinasti
dindisc
dine
dino
dinosaur
dinosaurian
dinosaurioh
dinosauromorph
dios
diospyri
diospyros
diploid
diptera
dipterorum
dir
direccio
direct
direction
directly
director
diri
dirige
dirigible
dirigirte
dirkvdm
dirt
disabled
disambiguation
disambiguator
disc
discipennis
disclaimers
disco
discografi
discos
discret
discusio
discuss
discussa
discussion
disney
display
displayauthors
displayed
displayeditors
displays
disponible
dissidens
distincta
distintas
distribuidor
distrito
distritoelectoralenlazado
div
diversa
divisio
diz
dizionario
dj
djumna
dl
dm
dmc
dmitri
dn
do
doblado
dobrodos
doc
docket
doctor
doctores
documentacio
documentation
documents
dodge
dodoma
does
doesn
dog
doi
doibroken
doing
dolce
dolores
domain
domande
dome
domesticus
domi
dominar
domingo
domingos
dominguez
dominic
dominica
don
donaldo
donau
donchak
donde
done
donepairs
donetsk
dong
dons
door
doors
dora
dorado
doris
dorsalis
dorsaloides
dos
dot
double
doubts
douglas
down
downloadable
downs
downstzin
doyle
dr
draft
dream
dreams
drei
dreier
drew
driver
droite
dromo
dsb
dsc
du
duarte
dublin
dubliners
dubtes
ducado
duck
dudas
due
duemila
dulce
dulcis
dulo
dunlop
dup
duplicacio
duplicata
duplicate
dur
dura
duran
durango
durangotecah
durazno
durcal
dureza
duverger
dv
dvd
dying
dylan
dyscrita
dz
e
each
earhart
earlier
earliest
early
earth
earvin
east
easter
eastern
easy
eat
eaters
eb
ebd
ebenaceae
ebro
ebullicio
ec
ecab
ecahui
ecatepec
ecatl
ech
echeverri
echinocarpa
echinodon
echolink
eclesia
eclipse
ecologi
econo
economi
ecosistemas
ecuador
ecuadortecah
ed
edad
eddie
edgar
edge
edicio
ediciones
edicions
edificio
edinburgh
edison
edit
editable
editar
editatend
edited
edith
editing
edition
editor
editorcount
editores
editorformat
editorgiven
editorial
editorlink
editorlist
editormask
editors
editorsurname
edits
edmontonia
eds
edu
eduardo
educacio
education
edulis
edusat
edward
edzna
edłoha
ee
eex
efeso
effect
efrai
eggs
egipto
egiptotla
ego
ehcahuaznenqui
ehcatepec
ehcatl
ehe
ehecacehuazcuitlapilli
ehecahuacqui
ehecalquixohuahyan
ehecatepec
ehecatl
ehecatotolin
ehekatepek
ehekatepetl
ehekatl
ehuac
ehuanelpilolli
ehuanih
ehuatl
ehuatlapitzalli
ei
eid
eiffel
eighteenth
ein
eine
einer
einige
einstein
eireatl
eisenberg
either
ej
eje
ejecutivo
ejemplo
ejidal
ejido
ejkok
ek
eka
ektoalangiae
el
ela
elaphodus
elaphurus
elba
elche
ele
eleanor
elecciones
electro
electronegatividad
electronica
electropop
electrosinfo
elefante
elegantis
elegantula
elektra
element
elemental
elemento
elementos
elementotabla
elena
elgar
eli
elias
eliminar
elitia
eliyaya
eliyayah
elizabeth
elkeh
elki
ell
ella
elle
elli
ellos
elmar
elotl
elotlamanaliztli
elpantli
els
else
elseif
eltlapali
eltoc
eltok
eltokeh
elton
eltoya
eltzacuilhuaztli
elvira
elvis
em
email
emailuser
emarginata
embargo
embargoed
embedded
emiliano
emilij
emilio
emily
emina
emit
emma
emmanuel
emo
emperador
emperadoryo
emperadoryotl
empire
empleadorenlazado
emplumada
empty
emu
en
ena
enciclope
enciclopedia
encode
encontrado
encontrar
encuentra
encyclopaedia
encyclopedia
end
endash
endashes
ended
endiandrae
endo
endparam
endtime
endtimed
endtimem
endtimey
enduro
enero
enfermeri
enfin
enfoque
england
english
englobar
engoitia
enigmatica
enlace
enlaceobrapremiada
enlacepagina
enlaces
enlazar
enrique
ensayos
ensen
ensenada
entabla
entalpi
enter
entered
entidad
entidades
entierran
entity
entityid
entonces
entrada
entre
enviar
envo
enya
enzian
enzo
eo
eoropah
eotyrannus
ep
epameh
epamej
epatl
epazo
epazote
epicharis
episcopal
episode
episodelink
epoalnan
epoch
epohualtetl
eppa
eprint
epstein
epyollohtli
equal
equilibrio
equipo
equivalent
equus
er
era
erasure
ere
erecta
erectus
eres
erga
ericsson
eridanus
erie
erik
eritrea
ermitan
ernest
ernesto
ernst
ero
err
error
errores
errors
errortext
errs
erubescentis
erythrina
erza
erzeugt
es
esa
esc
escamilla
escandinavia
escape
escapepattern
escarabajo
escobedo
escoce
escocia
escociatla
escogera
escolar
escondido
escote
escotla
escribe
escriptura
escrito
escritoras
escritura
escuadro
escudo
escuela
esculenta
esencial
esio
eskosia
eslavotlahtolli
eslovaquia
eslovaquiatlahto
eslovenia
esmirna
eso
espace
espacio
espacios
espadan
espan
espanol
espayol
especi
especial
espectadores
espejo
espeka
espera
esperanto
esperanza
espero
espi
espinoza
espiral
espolo
esquivel
essential
est
esta
estable
establecimientos
estables
establishcommands
establos
estacio
estaciones
estadi
estadio
estado
estados
estadosonidos
estas
este
esteban
estelada
estero
estilo
estilodatos
estilodatosup
estiloetiqueta
estiloseccion
estilosubtitulo
estilotitulo
esto
estonia
estrella
estructura
estudiante
estudio
estudios
esunvalor
et
eta
etal
etamalli
etas
etc
etetl
ethiopia
ethnologue
etic
etimologi
etiopia
etiqueta
etiquetaobrapremiada
etiquetapais
etiquetas
etixnepaj
etl
etlah
etnia
etnobota
ets
etzapocuahuitl
etzapotl
eu
eua
euanij
eugenia
euh
euphorbia
euphorbiaceae
eur
euro
europa
europacopa
europan
europanco
europancopa
europane
europanecah
europatlacameh
europayotl
europe
europea
europeo
europeos
euros
eurylomata
euskelosaurus
eva
evanescence
evange
evangelios
evelyn
even
evenhuis
evening
event
events
everest
every
everybody
everything
everywhere
evic
evitar
evo
evolution
evolutionary
ew
ewanih
ex
example
examples
excan
except
execution
exhale
exist
existe
existen
existencia
existing
exists
exkan
exo
exornata
exotic
exotl
expand
expanded
expandens
expands
expandtemplate
expected
expedicio
expired
expiry
explained
explicitly
explorer
export
expresio
express
exspoliata
ext
extendido
extension
extensiontag
exterminador
external
externos
extintos
extlink
extra
extract
extremadura
ey
eye
eyed
eyes
eyi
eyin
eyjafjallajo
ez
eztenqui
eztli
ezxococuahuitl
ezxocotl
f
fa
fabaceae
fabrizio
face
facebook
fachada
facialis
facilitar
factbook
facto
facts
failed
fair
fairlady
fait
faith
fala
fall
fallback
fallen
falling
falls
falsa
false
falso
falta
fame
familia
familiaris
family
fan
fansite
fantasma
fantasy
fao
faq
far
fargs
fari
farther
faso
fasuli
fat
fatal
favor
favorite
fayad
fazer
fc
fce
fe
fea
fears
feat
feature
featured
febrero
february
fecha
fechafin
fechainicio
fechas
fechasfin
fechasinicio
federacio
federal
federalismo
federico
feed
feel
feeling
felidae
felipe
felis
fellini
female
femme
fender
feniciatlacah
fer
ferdinand
feria
ferkeln
ferna
fernald
fernandez
fernando
fero
ferrari
ferreira
ferreri
festival
fetch
fetching
fetchlanguagename
ff
ffnen
fi
fibras
fica
ficas
ficcio
ficha
fichas
ficifolia
fico
ficos
ficus
field
fields
fierce
fiesta
fifa
figaro
figeroa
figlio
figueroa
figures
fila
filanum
filas
file
filename
files
filipinas
fill
film
filmado
filosofi
fin
final
finales
finally
financiero
find
finden
fine
finlandia
fintla
fintlahto
fiorano
fiordos
fip
fire
firenze
firma
firmamento
first
firstn
fischer
fit
fitz
five
fix
fixation
fixed
fiyi
fjordane
flabellifer
flag
flagbest
flagperiod
flagrank
flags
flamant
flandes
flash
flex
flexquote
flickor
flickr
fliegenpilz
flight
float
floor
flor
flora
floral
florence
florencia
florentino
flores
florida
floridanus
flota
flower
flowering
flowers
floyd
fluorescent
flush
fly
fm
fmbox
fmt
fo
focus
folk
follow
following
fonarte
fondo
font
fontana
fontstyle
foo
football
for
force
ford
foreign
forest
forget
form
forma
format
formatdate
formatinlanguage
formatmessage
formato
formatodatowikidata
formatonumero
formatos
formatounidad
formatparams
formatparamsparameters
formatpropertyvalues
formats
formatstr
formattable
formatted
formatting
forme
formed
former
formula
foro
fort
forti
fos
foto
found
foundrank
four
fox
fr
fra
fragen
fragenseite
frame
frameless
franc
franca
france
frances
francesca
francesco
franceses
francestlahtolli
francia
franciaco
franciatecah
franciatla
franciatlacah
franciatlahto
franciatlahtolli
franciayaomeh
franciayotl
francis
franciscanos
francisco
franciscoteotlacatl
francite
franco
frank
frankfurt
franklin
frans
franz
fray
fre
frecuentes
free
french
fretz
freud
fri
frica
frida
friedrich
friends
friso
fritte
frog
frogfish
from
front
frontera
frs
fruit
fruta
fruto
fry
ft
fu
fuck
fue
fuente
fuentes
fuera
fueron
fuerte
fuerza
full
fulltext
funcio
funcionamiento
funciones
funcname
function
functionality
functions
fundacio
fundidora
fundoshi
fungus
fuoco
further
fury
fusca
fusio
fusion
fuss
fussenegger
futbol
futbolista
futura
futurama
futurame
future
g
ga
gabilondo
gabon
gabriel
gae
gaeilge
gafotas
gahe
gaillac
gaines
gaisha
gal
gala
gale
galego
galera
gales
galgo
galia
galicia
galiciatlahto
galiciatlahtolli
galiciayotl
galilea
galileayotl
galindo
galixia
gallegos
gallegotlahtolli
gallery
galli
gallia
gallica
gallo
gallopavo
gallus
galotla
galveston
gama
gambia
game
gamma
gamo
gamuza
gane
gapeth
garce
garci
garcia
garcilaso
garden
garibaldi
garibay
garrido
garza
gas
gaspar
gate
gates
gateway
gauche
gaucho
gavaldo
gavras
gay
gdn
gdzie
ge
gedichte
gees
gelatao
gena
genas
gene
general
generalcommands
generali
generalitat
generarenlace
generate
generation
genero
generotitulo
genes
geno
genova
genre
gentilicio
gentis
geo
geocaches
geocaching
geogra
geografi
geography
geohack
geologi
georg
george
georges
georgia
georgina
geral
gerardo
germa
germania
gero
geronimo
gertrud
get
getalias
getargnums
getargs
getattr
getbadge
getboolean
getcontentlanguage
getcurrentframe
getcurrenttitle
gete
getediticon
getentity
getentityid
getentityobject
gethookname
getlabel
getmetatable
getnamespaceparameters
getparameters
getparammappings
getparent
getproperty
getqualifiers
getreferencedetail
getreferences
gets
getsemani
getsinglerawqualifier
getsitelink
getsnakvalue
gettitle
gettitleobject
getvalue
getvalueofclaim
gevorg
ghana
gia
giacomo
giang
gibraltar
gica
gico
gicos
gif
gigante
gigolo
gigue
gil
gilberto
gillespie
gimnasia
gina
ginas
gioachino
giovanni
gir
giraffa
giraffatitan
girl
girls
git
gitana
giulio
giuseppe
giuvanni
given
gives
giving
gje
gl
glasgow
glbt
glen
gli
global
globals
globe
globo
glorious
glosario
glotal
gmt
gn
gnu
go
gob
gobernador
gobierno
gobiernoh
god
godfather
gods
godwinson
godzilla
goes
gogh
gojirasaurus
gold
golden
goldkatze
goldman
goldmani
golf
golfo
golgota
gomera
gomez
gone
gonza
gonzalez
gonzalo
good
google
gorda
gordiflo
gordon
gorieo
gortari
gosseliniana
gostaria
got
gotrequired
gould
gourmandises
gov
goya
goyo
gra
grabacio
grace
gracia
graciano
gracias
grada
gradient
grados
grafito
grafo
grama
grammar
grammy
gran
granada
granadacuahuitl
granadaxocotl
granados
grand
grande
grandes
grant
grass
gratitude
gratuitos
grava
gray
graz
gre
great
greater
greatest
grecia
greciamachiyo
greciamachiyotl
greciatecah
greciatla
greciatlahto
greciatlahtolli
greciayotl
greco
greece
greek
green
greenwich
gregoriah
gregorian
gregoriano
gregorio
gregorius
grenade
gres
griego
griegos
griffith
grijalva
grimas
grin
gringo
gris
groening
groenlandia
groentla
groentlalpan
groove
grote
ground
group
grupo
grupos
gsub
gt
gtb
gti
gto
gu
guachimontones
guadalajara
guadalupe
guadarrama
guadiana
guahanani
guajira
guambitecah
guanaco
guanajuatecah
guanajuato
guangdong
guarani
guaranitlacameh
guaranitlahtolli
guatemala
guayaba
guayaquil
guaymas
guazu
guelaguetza
guelatao
guerra
guerrero
guerreros
guevara
guez
guggenheim
gui
guila
guilas
guillermo
guine
guinea
guld
gummifera
gun
guns
gusset
gustari
gustav
gustavo
gutie
guy
guyana
guzma
gyo
h
ha
haab
hab
haba
habanero
habi
habla
hablante
hablantes
hablar
hablas
habsburgo
hace
hacer
hacerfilastabla
hacia
had
hadaka
hadas
hadrien
haedo
haf
hai
haiti
halach
half
hall
halloween
hals
hamburg
han
hancock
hand
handle
handler
handlers
hannoki
hansea
hanuman
harare
hard
hardest
hardin
hardy
harp
harris
harrison
harry
harum
harvestfish
has
hascategories
hash
hast
hasta
hatch
hatchback
have
haven
having
hawaii
hawaitlahto
hawking
hay
haya
hayao
haystack
hca
hcatiliztli
hco
hcoto
he
head
header
headerid
heading
headline
health
healy
heart
hearts
heavy
hebreo
hebreotlahto
hebreotlahtolli
hebreoto
hebrew
hecho
hechos
heesters
height
heijnen
heinrich
hel
helarctos
helena
helenote
hell
helmand
help
helping
helpo
helsinki
hemi
hemingway
henares
hendel
henestrosa
henri
henriette
henry
hepatus
hepburn
her
herat
hercules
here
herencia
hererotlahto
hering
hermann
hermanos
hermes
hermosa
hermosillo
herna
hernan
hernandesii
hernandez
hernando
herodes
heroes
heroica
herra
herrera
herrerasaurus
hertzegovina
herzegovina
hesse
hewson
hexadecimal
hexadezimal
hexagonal
hexaploid
hezitmi
hf
hg
hhue
hi
hibueras
hicox
hicoxcuahuitl
hidalgo
hidalguense
hidden
hide
hidra
hidro
hier
hierba
hierro
hierusalem
higareda
high
higo
higuera
hijos
hilfe
hill
him
himalaya
himno
hina
hindi
hindu
hinterlassen
hipil
hipo
hipona
hippocamelus
hiragana
hiroshima
his
hispania
hispaniae
hispanohablante
hist
histo
historia
historiador
historial
historical
history
hit
hita
hitchcock
hitler
hitovi
hits
hja
hjerusalem
hlavni
hlung
hlungen
hmo
hn
ho
hochob
hockey
hold
holder
holding
holds
hole
holes
holiday
hollywood
holmes
holy
hombre
hombres
home
homenaje
homme
homo
honda
honduras
honeycombs
hong
honore
honshu
hoobastank
hood
hooft
hook
hooks
hooksparameters
hope
hopes
hora
horacio
horaria
horas
horatius
hordaland
horizon
horizontal
horno
horse
hos
hospicio
hospital
host
hot
hotel
hour
hours
house
houston
hover
how
howard
hoy
hoyos
hp
hpixcayo
hpol
hqueh
hr
hrs
hrv
hrvatska
hrvatski
hsb
ht
hteo
htlacxihuitl
htli
htm
html
htmlbuilder
hto
http
https
hu
hua
huac
huaca
huacah
huacalli
huacapayotl
huacate
huacatl
huacaxmeh
huaccaixtlahuatl
huaccatro
huacixtlahuatl
huacopa
huacqui
huactlaneh
huacui
huah
huahca
huahcapameh
huahcapayotl
huahcauhquiya
huahpacayotl
huahqueh
huahquez
huahtlahto
huaicpac
hual
huala
hualahci
hualauh
hualcaxto
hualcha
hualchico
hualchicuace
hualchicue
hualchiucna
hualcopa
hualcoyo
hualhuaztiliztli
hualhuaztli
hualhuih
hualiz
hualizteo
hualiztli
hualla
huallacualli
huallah
huallahto
huallahtolloliztli
huallamelauh
huallauh
huallaztia
hualli
huallo
hualloh
hualma
hualmahtla
hualmatiliztli
hualmatini
hualmihtotiztli
hualminutl
hualo
hualome
hualomo
hualomochihualiztli
hualonce
hualone
hualonna
hualoya
hualquiz
hualtica
hualtilia
hualtilli
hualtin
hualtla
hualtzintin
hualtzintzin
hualxihuitl
hualxiquipilli
hualxiuhpan
hualxo
huamachiyo
huan
huanaco
huang
huani
huanimeh
huanitlahto
huanquinon
huapalcalco
huapalcayotl
huapango
huaqueh
huariji
huascara
huasteca
huastecos
huatechcopa
huati
huatl
huatla
huatlahcuilo
huatlahto
huatlapi
huatlapo
huato
huatomatl
huatztic
huauchinango
huauhtli
huaxin
huaxtlan
huaxyacac
huaxyacah
huaxyacatepec
huaxyacatl
huaya
huayi
huayin
huayo
huaz
huaznenqui
huaztli
hudson
hue
huecauh
huecauhtica
huecauhtlamantli
hueh
huehca
huehcahuitiani
huehcai
huehcan
huehcapa
huehcapan
huehcapanca
huehcapancayo
huehcapancayotl
huehcapantlahtoliztli
huehcapatlahtoliztli
huehcatla
huehcauh
huehcaxtilte
huehegiptoyo
huehhuetiliztli
huehhueyintin
huehoce
huehtla
huehtlahto
huehtlatquicayo
huehue
huehuealtepepan
huehuecauh
huehuecauhtica
huehueh
huehuehaltepetl
huehuehcauh
huehuehcauhtica
huehuehmexicayotl
huehuehocelomeh
huehuehocelotl
huehuehoocelomeh
huehuehtequiyotl
huehueintin
huehueteotl
huehuetkej
huehuetl
huehuetlacah
huehuetlacameh
huehuetlahtolli
huehuetqueh
huehuetzin
huehueyi
huehuic
huehxo
huehxolomeh
huehxolotl
hueialtepetl
huejutla
huel
hueli
huelic
huelihqui
hueliti
huelitia
huelitic
huelitica
huelitih
huelitiliztli
huelitini
huelitinimeh
hueliyo
hueliz
huellalpac
huelnezcayotl
hueltah
huelva
huemmanaliztli
huemul
huerta
huetiz
huetl
huetla
huetlahto
huetlahtohca
huetqueh
huetz
huetzi
huetziliz
huetziliztli
huetziz
huetzqui
huetztinemi
huetztinemiliztli
huetztli
huevo
huevos
huexo
huexolotl
huexotl
huexotlah
huexotlan
huexotzincah
huexyacac
huey
hueya
hueyac
hueyaithualli
hueyaltepenanyotl
hueyaltepetl
hueyatenco
hueyatenixtlahuatl
hueyatentli
hueyatl
hueycocoliztli
hueyi
hueyialtepetl
hueyic
hueyicaquizcopinaloni
hueyicauh
hueyichiyapan
hueyimazatl
hueyimichin
hueyinepapan
hueyiohtli
hueyipochtlah
hueyiteocalco
hueyiteocalli
hueyiteopixcatlahtoanimeh
hueyiteopixcayotl
hueyitepixcalli
hueyitlahtoani
hueyitlahtoanimeh
hueyitlahtocayotl
hueyitlahtohcayotl
hueyitlahtolamoxtli
hueyitlamachtilcalli
hueyitlamachtilcalotl
hueyixtlahuac
hueynahuatilli
hueytlahtoani
huezacotl
hueznenqui
hugh
hughes
hugo
hui
huia
huianih
huic
huica
huicalo
huicaloc
huichi
huichol
huicpa
huicuna
huietztlampa
huih
huihhuilaxtic
huila
huili
huiliz
huiliztli
huilli
huilo
huiloco
huilotl
huiltiliztli
huino
huipa
huipil
huipilli
huipiltontli
huiquipedia
huitl
huitla
huitlacoche
huitz
huitzilin
huitzilopochtli
huitzitzilin
huitzla
huitzollahto
huitzollahtolli
huitzolmeh
huitzotl
huitzquillohcan
huitztla
huitztlampa
huitztlampan
huitztlan
huitztli
huitzyoh
huix
huixachin
huiya
huiyo
huizo
huiztla
huiztlampa
huizzoya
hule
humahuaquen
human
humanidad
humanista
humano
humaya
humberto
humboldt
hun
hunahpu
hundred
hungria
hungriatlahto
hunter
huo
hur
hurdes
huron
hurricane
hurricanes
hush
hy
hybrid
hybridus
hydra
hydropotes
hylaeosaurus
hyper
hyphen
hyphens
hypsibema
hysteria
i
ia
iacalhuan
iachcauhtoca
iachtoteotlahtol
iahtlahtlacoliz
iahxihualiz
ialtepecalpolhuan
ialtepenanyo
ialtepetikpak
ialtepetlahtohcahuan
ialtepetlahtohcan
ialtepetlahtohcanhuan
ialtepeuh
iamatlahcuilol
iamatlatqui
iamox
iamoxchihualiz
iamoxchihualoyan
ian
ianahua
iaten
iatenkopa
iaxca
iba
ibanez
ibargu
ibe
iberia
iberiate
iberiayotl
iberoamericana
ibiza
ibn
ibonro
ibrittlahto
ic
ica
icafecal
icahuiuh
icalacoayan
icalaquian
icalaquiliz
icalaquitlamapa
icalaquitlampa
icalaquiyampa
icalaquiyan
icalmanaliz
icalpol
icaltica
icaltzalan
icamapan
icampa
ican
icauhtica
icaxtillantlahtol
icca
iccen
iccitoc
ice
icealiz
icecniquizaliz
icel
icelti
icemanahuauh
icencal
icenquizaliz
icenten
icentlamanyo
icenyeliz
icenyiliz
ich
icha
ichan
ichanehhuan
ichca
ichcacuatitlan
ichcamaxtli
ichcanacatl
ichcapixcayotl
ichcapixqueh
ichcatepec
ichcatl
ichikueyitiaj
ichimal
ichin
ichkapixkayotl
ichkatl
ichkatlapiyalmej
ichmorral
ichpo
ichpocameh
ichpochtli
ichpochtzintli
ichpokamej
ichtaca
ichtacayo
ichtacayoh
ichtacayotl
ichtecqueh
ichtli
ici
icihua
icihuaconeuh
icihuaconeuhtzin
icihuahuan
icihuapiltzin
icihuatlampa
icihuauh
icitlal
iciuhca
iciuhcac
icni
icniuhcayotl
icniuhtin
icniuhtli
icniuhua
icniuhyaoyotl
icno
icnotl
icnoyotl
icochiz
icoltzin
icon
iconehuantzin
iconeuh
iconeuhtzin
iconeyo
icono
icopa
icotonca
icpac
icpal
icpalli
icpatl
icpazazanilli
icpitl
icpiya
icua
icuac
icuapantoca
icuauh
icuauhtlah
icuayollo
icui
icuic
icuicahuan
icuitlapan
icuitlapil
icumiaitlahtol
icxi
icxihuah
id
ida
idaho
identacion
identical
identidadobrapremiada
identifier
identifiers
idh
idiez
idioma
idiomas
idpropiedad
ids
idx
ie
iehuayo
ieltlapal
iepyolloh
ierusalem
ies
iesus
ieua
iez
if
iga
iglesia
iglesias
ignacio
ignatius
ignore
ignored
ignoreisbn
igual
iguana
iguanodon
iguazu
ih
ihcac
ihcaca
ihcaliz
ihcaliztli
ihciuhca
ihciuhqui
ihcoac
ihcon
ihcopa
ihcua
ihcuac
ihcuilo
ihcuiloa
ihcuiloh
ihcuiloloc
ihcuiloqueh
ihcuilotic
ihqui
ihquin
ihquino
ihquinoh
ihren
ihtec
ihtectli
ihtek
ihtetl
ihtic
ihtlacuilo
ihtlah
ihtlanilia
ihto
ihtoa
ihtoca
ihtoloni
ihtonki
ihtoquiztia
ihua
ihuan
ihuani
ihuatl
ihuaz
ihue
ihuehcapa
ihuehcapan
ihuehcapatlahtolyo
ihuehhuetiliz
ihuehuehocelohuan
ihuelitiliz
ihueltiuh
ihuetzian
ihueyauh
ihueyiacalquixohuayan
ihueyic
ihueyiteocal
ihui
ihuic
ihuicpa
ihuicpan
ihuih
ihuipa
ii
iichpocho
iichtacayo
iicneuh
iicniuh
iicnopil
iicpac
iihiyo
iihni
iihtec
iii
iikxi
iilhuiuh
iimmanyo
iitech
iiuhcayo
iixco
iixiptla
iixiptlahuan
iixneciliz
iixneska
iixnexiliz
iixpan
iixtelolo
iixten
iixteocal
iixteyol
iixtzon
iiyotzin
iizcaliloca
iizcaltiloca
ijkino
ijkinoj
ijkuak
ijkuilouistli
ijpatl
ijti
ijtik
ijtolistli
ik
ika
ikaj
ikajtlakuatosej
ikalpoltlahtol
ikamanalis
ikane
ikaneh
ikaya
ikijnokonetsi
ikino
ikisayanpa
iknialtepetl
ikniwkayotl
iknoyotl
ikpalli
ikpalmeh
iksitok
ikua
ikuatlaj
ikuitlapil
ikwa
il
ilama
ilamatiz
ilhuicaa
ilhuicaatl
ilhuicac
ilhuicacayotl
ilhuicahuehcatlan
ilhuicamachiyotilli
ilhuicamatiliztli
ilhuicamatini
ilhuicamina
ilhuicateo
ilhuicatl
ilhuicatlaihualli
ilhuiceh
ilhuichiihualiztli
ilhuiliztli
ilhuitl
ilitl
illinois
ilna
iloh
ilona
iluikatl
iluilistli
iluimej
iluitl
iluitonal
ilustrado
ilv
ilwitl
ilwitonalli
im
ima
imac
imach
imachiliz
imachito
imachiyo
imachiz
image
imagecell
imagecelldiv
imagecheckblank
imageclass
imageemptycell
imageemptycellstyle
imageleft
imageleftcell
imagen
imagenderecha
imagenes
imageninferior
imagenizquierda
imagenl
imagensuperior
imagenums
imageright
imagerightcell
imagerightnone
images
imagestyle
imagine
imah
imahcehual
imahcehualtiliz
imahtzin
imahuan
imahuizo
imaj
imatge
imatlequiquiz
imayatlahtol
imayec
imbe
imbox
imdb
imecayo
imetsnakayo
imetz
imetzhuan
imetznacayo
img
imictlampa
imiquiliz
imiquiz
imixayo
imixpan
imixyohyomoctiliz
imiyaca
imma
imman
immanuel
immanyo
immanyotl
immayotl
immil
imochiuhyan
imolcac
imontah
imotlacua
imotzololoca
imoztlayoc
impal
impampa
impan
imperial
imperio
impero
implements
implicit
import
important
imported
importedfrom
impossible
improper
in
ina
inaca
inacayo
inacayoyo
inactive
inafed
inah
inahuac
inahuatil
inahuatlahtol
inaka
inakayo
inamic
inantzin
inauatlahtol
inauatlajtol
inauguracion
inc
inca
incah
incal
incapayohuan
incatlacameh
incayotl
inchan
incidente
incl
incla
inclan
include
included
includemetatable
includes
including
incluir
incluye
incluyendo
inconfundible
incorrect
incorrectly
incumbent
indagacions
independencia
independent
independiente
index
indexed
indi
india
indian
indiana
indias
indiatecah
indiatla
indica
indicate
indice
indigo
indio
indios
indique
inditlahto
individual
indoeuropatlahtolli
indoirantlahto
indonesia
indonesiatlahto
industria
industrial
ine
inecahcahualoyan
inecaliliz
inecha
inechantiliz
inegi
ineh
inehuan
ineihzahuiliz
ineixcuiltil
inelhuayo
ineltica
inemachtiliz
inemanamictiliz
inemanepanoliz
inemazoaltiloliz
inemiliskayo
inemiliz
inemiltia
inemoaliz
inenahuatiliz
inenohmahyolitiliz
inepa
inepan
inepaniuhca
inepilhuahtiliz
ineska
inetecuitlapiltiliz
inetitlaniz
inetlacuitlahuiliz
inetlahtolpepechtiliz
inetlamachtil
inetlanohmahhuililiz
ineyehyecoliz
ineyolixihmachiliz
inezca
infante
infantil
inferior
inferredfrom
infierno
influenza
info
infobox
informacio
information
infraorden
ingenieri
ingenioso
inglate
inglatecah
inglatecatl
inglaterra
inglaterratlahtolli
inglaterrayotl
inglatla
inglatlahto
inglatlahtolcopa
inglatlahtolli
inglatlalpan
ingle
ingles
ingleses
inglestlahto
inglestlahtolli
ingmar
ingres
inherit
inhuan
inhuic
ini
inic
inichkayo
inicial
inicio
iniciosoporte
iniciosoporteext
inih
inihhuantin
inihqueh
inihwantin
inik
inikej
inin
ininaxca
ininchaj
ininchan
ininchinanko
ininqueh
inintatauaj
inintequiuh
inintlajtol
inintlalhui
inintlanempan
inintocah
inintokah
inintokaj
inintsalan
inintsintlan
initial
initials
iniuhquin
inizanil
inka
inline
inmaco
inn
inna
innatzin
innehuan
innemilis
inneyehyecoliz
ino
inoc
inohkeh
inohma
inohmah
inok
inompa
inompan
inon
inonkeh
inonkej
inonque
inonqueh
inoqui
inpal
inpan
inpolihuiliz
input
inri
insecta
insecto
insee
insert
insertar
inset
inside
insitelinks
inspector
instanciade
instead
institucio
institucional
institut
institute
instituto
instrumento
instrumentos
insular
insularis
insurgentes
int
inte
intech
intechpa
intecuacan
integer
intend
intended
inteocal
inteotlahcuilol
inter
interamericana
interfaz
interior
internacional
internal
international
internet
interpretacio
interview
interwiki
intla
intlah
intlahtocatcahuan
intlahtocaticahuan
intlahtocatinime
intlahtocauh
intlahtohcatcahuan
intlahtohcauh
intlahtolcopa
intlaj
intlal
intlaltzin
intloc
into
intoca
intokaj
intonacayouh
intro
introduccio
introducir
introduction
intsalan
intzalan
invalid
invalidtypeerror
invariant
inventor
investigacio
invicta
invierno
invincible
invisible
invocacio
invoke
inxiuh
inyolpachihuitiz
io
ioannes
iohcalhuan
iohtiliz
iohtlatocaliz
iohtocaliz
iohtoquiliz
iomiyo
ionizacio
ionohuayan
iontetoca
iontlaehualiz
ionyeliz
ioquich
ioquichhuan
ios
ioztouh
ip
ipa
ipairs
ipal
ipama
ipamapa
ipampa
ipampahuic
ipampaj
ipan
ipance
ipani
ipanocayo
ipanocayoh
ipanpetlayo
ipantis
ipe
ipehualiz
ipehuaya
ipeucayo
ipeuhca
ipewaya
iphone
ipia
ipil
ipilcatihcahuan
ipilhuahcahuan
ipilhuan
ipiltian
ipiltiliz
ipiltzihtzinhuan
ipiltzin
ipochcayaotl
ipod
ipololoca
iprage
ique
iquetzaltlalhuan
iqui
iquin
iquiqueh
iquiyauhtlal
iquiza
iquizatlampa
iquizayampa
iquizayan
iquiziyampa
ir
ira
irac
iran
irapuato
ireland
ireneo
irish
irlanda
irlande
iron
irrelevant
irtla
is
isaac
isabel
isabeltzin
isaias
isbn
isbol
iscariote
isenyelis
ishiro
isidro
isla
islam
island
islantla
islas
ismael
ismn
isn
iso
isotl
ispantlajtoli
israel
israelitas
israella
israellaca
issmall
issn
issourced
issubpage
issubstituted
issue
issues
ist
istak
istatl
istemplatepage
istmo
istoke
istokej
isuatl
isxn
it
ita
itahtzihtzinhuan
itahtzin
italia
italian
italiana
italiani
italiano
italiaright
italiatecah
italiatla
italiatlacah
italiatlacatl
italiatlahto
italiatlahtolli
italiayotl
italic
italics
italictitle
itallahto
italotla
italte
itatahuan
itauhcayo
itconi
ite
iteachcauh
itech
itechcopa
itechcopahuicpa
itechiuhcahuan
itechpa
itechpahuic
itechpahuicpa
itecihuaconeuh
iteco
itecpanchan
itecuacan
iteiccahuan
iteiccauh
iteicneliliz
iteihcaliliz
iteihtoliz
iteixehualiz
iteixeuhcauh
iteixihmachtililiz
iteixmatilis
iteki
itekitlanawatil
itekpantokah
itelpochtian
item
itemachtiliz
itemaquixtiliz
itemid
items
itenahuac
itencopa
itenematilizcuicahuan
itenematilizcuinime
itenemilizpoal
itentli
iteo
iteocal
iteocaltzin
iteohuan
iteopan
iteopanhuan
iteopixcahua
iteopixcanahuatil
iteopixcatzin
iteotlahcuilol
iteotlahcuiloll
iteotlahcuilolli
iteotlahtol
iteouh
itepacholiz
itepalehuiliz
itepan
itepanhuan
itepe
itepeuh
itepol
itepolnacayo
itepoztlatopo
itequichihualiz
itequiliz
itequipanoliz
itequitiliz
itequiuh
itequiyo
iterate
iterator
itesm
itetl
itetlacencuiliz
itetlanahuatiani
itetlatlahtlauhtiliz
itetlazohcahuan
itetlazohtlacahuan
itetlazohtlacauh
itetlazohtlauh
itetonal
iteucyo
iteuh
iteuhcayo
iteyacanaliz
iteyacancauh
iteyaochiuhcayo
iteyollapancauh
iteyolmahxiltiliz
ithech
ithualli
iti
itia
itiah
itic
itih
itl
itla
itlaaxcatil
itlacachihualiz
itlacahuan
itlacatiliz
itlacaxoxouhcayo
itlacehcentlaliliz
itlacehcentlaliliztli
itlacempoaliz
itlachihchihualiz
itlachihualiz
itlachipahualiz
itlachiualis
itlachiuh
itlachuhual
itlaciuhcayo
itlacohcolhuan
itlacopinaliz
itlacotonyo
itlacua
itlacual
itlacualiz
itlah
itlahcuilol
itlahtlacahualoyan
itlahtlacol
itlahtocapil
itlahtocateixiptla
itlahtocauh
itlahtocayo
itlahtohcauh
itlahtohcayo
itlahtol
itlahtolhuan
itlahtolihcuiloliz
itlahtollaliz
itlahtollo
itlahtolmachio
itlahtolpoaliz
itlahtolpohualiz
itlahtoltecpantiliz
itlahtotiyan
itlahtzin
itlaixmatiliz
itlaixpayo
itlajkuilolis
itlajtoltemakauaj
itlakaxoxowkayo
itlakayo
itlakilyomej
itlakualis
itlal
itlalajmikilis
itlalhuan
itlallamikilis
itlalmachiyo
itlalmaitl
itlalo
itlalpan
itlalpixcayo
itlaltoca
itlaltocatzin
itlaltocayo
itlaltokax
itlalwi
itlamachtil
itlamachtiloyan
itlamahuizol
itlaman
itlamaniliz
itlamatiliz
itlamiyan
itlan
itlanamacacahuan
itlanauatilis
itlanauatilistli
itlaneltililiz
itlaneltocaliz
itlanequiliztzin
itlanextiliz
itlanezcayotiliz
itlanohnotzaliz
itlapacholiz
itlapajli
itlapal
itlapantlazaliz
itlapixcayo
itlapohual
itlaquen
itlaquetzal
itlatecpanaliz
itlatenhuimololiz
itlatlaliliz
itlatlapalhuiliz
itlatoltzin
itlatoquililiz
itlatoquiliz
itlatqui
itlatzin
itlatzohtzonaliz
itlaxitiniliz
itlayecoltiloca
itlayekanalis
itlazoh
itlazohhuan
itlazoixiptlatzin
itlehcoliz
itlequiquiz
itloc
itlocpa
ito
itoca
itocah
itocahuan
itocatzin
itocayo
itocayocan
itoka
itokah
itokaj
itomin
itonal
itonalmachiyo
itonalquiz
its
itsatlan
itsintli
itsontli
itstok
itstokaj
itstokeh
itstokej
itstosej
itstoya
itta
ittaliztli
ittalo
ittaloni
ittitiloni
itto
ittoqueh
itunes
iturbide
itza
itzalan
itzallan
itzatlan
itzco
itzcuauhtli
itzcuintlan
itzcuintli
itzin
itzintiliz
itzintlan
itzocal
itzonquizaliz
itzonquizca
itzonteco
itzontecoma
itzpa
itztli
itztoqueh
itztoyah
itztoyan
iu
iuan
iuaya
iuccic
iudaeorum
iuekakaj
iuetiska
iuh
iuhca
iuhcateyolic
iuhcayo
iuhcayotl
iuhqui
iuhquin
iuhquiyo
iuhquiyotl
iuhtoc
iuikal
iv
iwan
iwexkayo
iwikal
iwkatsan
ix
ixachi
ixachicuauhtlan
ixachintin
ixachitecah
ixachitla
ixachitlacah
ixachitlan
ixachitlanco
ixachitlancopa
ixba
ixbahlanque
ixcahuilli
ixchel
ixcoyametl
ixcoyan
ixcuamolli
ixehxelohtok
ixeliuhca
ixeliuhcayo
ixeliuhcayoh
ixexeliuh
ixexeloj
ixhua
ixhuatl
ixic
ixihmachoni
ixihmachtililoni
ixihmachtiloc
ixihuiuh
ixihuiyo
ixik
iximacho
iximachoh
iximachoni
iximah
ixiptla
ixiptlayotiani
ixiptli
ixittani
ixizhuatl
ixkopinali
ixkopinalli
ixkopinkayotl
ixmachtilo
ixmaniliztli
ixmaqui
ixmati
ixmiquilpan
ixnamiquiliztli
ixneci
ixneciliztli
ixnesis
ixneska
ixnextia
ixnez
ixocarpa
ixochicual
ixochihcual
ixochiuaj
ixochiuh
ixochiyo
ixochiyoj
ixolal
ixpahpalcoconeh
ixpan
ixpantlalli
ixpantzinco
ixpayol
ixpayolmeh
ixpoloa
ixpololoni
ixqui
ixquich
ixquichca
ixquichcauh
ixquichi
ixquichtin
ixquihquizani
ixtehuilotl
ixtelolohtli
ixtelolotl
ixtenco
ixteocalco
ixteocalcotlahtolli
ixtepetla
ixtetl
ixtezcatl
ixtililonimeh
ixtla
ixtlahuac
ixtlahuacan
ixtlahuahcan
ixtlahuatl
ixtlamatiloni
ixtli
ixtlilxo
ixtlilxochitl
ixtzontli
iyac
iyahualoloyan
iyakatsol
iyan
iyanemian
iyaohuan
iyaoquizcahuan
iyaouh
iyaoyo
iyejle
iyeyan
iyo
iyoh
iyoka
iyolcahuan
iyoliliz
iyolis
iyoliz
iyollo
iyolloh
iyollohtzin
iyolo
iyoltik
iyolxic
iyomoyan
iyuhqui
iyuhquin
iz
izan
izca
izcalli
izcaltiliztli
izcayaliztli
izhua
izhuatl
izhuatla
izhuatlacotl
izhuayo
izqui
izquierda
izquierdo
izquin
izquitohton
izquiton
izta
iztac
iztacalco
iztaccihuatl
iztaccomolli
iztacocelotl
iztacteocuitlateyoh
iztactepoztli
iztactla
iztacua
iztacuauhtli
iztapalapan
iztapan
iztapopelina
iztatl
iztla
iztlacatqueh
iztlacatqui
iztoque
iztoqueh
j
ja
jabali
jacaranda
jacinto
jack
jacks
jackson
jacobo
jacqueline
jacques
jag
jaguar
jahovic
jaime
jakecaptive
jalil
jalisco
jamaica
jamaicensis
james
jamie
jamo
jan
janeiro
janenschia
january
japan
japanese
japo
japon
japone
japonesa
japontla
japontlahtolli
jar
jaramar
jaramillo
jarana
jardi
jardin
jardines
jared
jarocho
jarra
javamoos
javier
jay
jazmi
jazz
je
jean
jedward
jefe
jeffrey
jehova
jena
jenny
jerico
jero
jeronimo
jerusalem
jerusalen
jest
jestem
jesu
jesucristo
jesui
jesuita
jesus
jesutzin
jetta
jfm
ji
jico
jih
jiko
jim
jime
jimenez
jimmy
jin
jir
jitomate
jkey
jn
jo
joan
joaqui
joaquin
joe
johann
johannes
john
johnny
join
jolie
jonathan
jones
jonny
jordan
jordania
jorge
jos
jose
josef
josefa
josefina
joselito
joseph
josetzin
jour
journal
journey
jov
joyful
jp
jpeg
jpg
jr
json
jstor
ju
jua
juan
juana
juanacatla
juanes
juantzin
juarez
jubra
judai
judas
judea
judeanemachtilli
judeateocalli
judeatlacah
judeatlacatl
judeayotl
judio
judiocayotl
judiotla
judiotlacameh
judioyotl
judo
juegan
juego
juegos
jueves
jujuy
jul
juli
julia
julian
julio
jump
jun
june
juni
junio
junior
junta
juntas
junto
jurado
juri
just
justicia
justin
justo
jutos
juventino
jw
k
ka
kaan
kaanpe
kabul
kabushiki
kachi
kafentik
kafenyoli
kah
kahlo
kaiser
kaj
kajel
kajelkojtli
kakatsouaj
kakawatl
kal
kala
kalahki
kali
kalli
kalmanalistli
kalmelaktime
kalnali
kalpan
kalpoltlahtolli
kalpoltlahtolmeh
kaltinih
kaltlamachtiloyan
kaltlamactiloyan
kaltlapajtiketl
kaltsomitl
kaltson
kamati
kami
kammamuri
kamojtik
kampa
kampaj
kampeka
kan
kana
kanahya
kanaj
kanajya
kanata
kane
kanin
kanji
kannst
kanon
kansas
kant
kapital
kapitanyotl
kapostik
kappleri
kapranos
karate
kardia
karibe
karina
karizma
karl
karla
karttunen
kastiah
kastiahtlahtolli
kastiahtlakameh
katakana
katana
kategori
kategorie
kateh
kathmandu
katka
katkaj
katla
katli
katlihki
katliueli
katmandu
katse
katy
kauayo
kauitl
kawitl
kaxtilantlajtol
kaxtilantlajtoli
kaxtilantlajtolkopa
kaxtilantlajtolkuepa
kaxtilantlajtoltika
kaxtillan
kaxtiltekahmeh
kaxtiltlahtohkayotl
kaxtiyatlajtoli
kaxtolli
kayuko
kb
ke
keane
keaneshaped
kebab
keep
keha
kein
keira
keith
kej
keja
kejman
kejme
kellog
kema
kemaj
kemak
keman
kemantikaj
kemantsin
keme
kemej
kemman
ken
kena
kenaj
kenaya
kenika
kenime
kense
kentla
kentrosaurus
kentsin
kenwak
kepak
kern
keuning
kev
kevin
key
keyboard
keyhole
keys
kezmer
kg
kh
khali
ki
kiahxilihki
kiajnopa
kiak
kiayauitlali
kichihchiwah
kichijchiki
kichijchiua
kichijki
kichiua
kichiuaj
kichiuas
kichiuayaya
kichiwa
kichiwah
kichiwaskeh
kichiwkeh
kiejelisuikaj
kiel
kielstrup
kiev
kihtosneki
kiihkwilohki
kiihtoa
kiijkuiloua
kiijto
kiijtouaj
kiimatikay
kiisiltiaj
kiistok
kiitseluiliya
kiixmatij
kiixmatise
kiixmatisej
kiji
kijij
kijtoa
kijtohua
kijtosneki
kikakatsouaj
kikua
kikuaj
kikualchichiuaseyaj
kikuaske
kikuitiah
kikwa
kil
kilia
kiliaj
kill
killers
kilo
kimachilia
kimachiyotihki
kimanelouaj
kimati
kimoloniaj
kin
kinamakah
kind
kinehkeh
kineki
kinekkeh
kineltokah
kineltokaj
kineltokan
kinemakaj
kinepa
king
kingdom
kinin
kinixpoloseh
kinks
kinkuitiah
kinnauatia
kinsajsekotilisej
kintekiuisej
kintokayotiaj
kinuika
kiowa
kipia
kipiah
kipiaj
kipixka
kipixtok
kipiya
kipiyah
kipiyaj
kipiyayaya
kirchner
kisa
kisak
kisas
kiseliaj
kisenkaua
kisenkauaj
kisenkauasej
kisenkuaj
kitano
kitas
kitekitiltiaj
kitekiuiaj
kitekiuiya
kitekiuiyaya
kitekiwiah
kitekiwihkeh
kiteua
kitlachilia
kitlalia
kitlalisej
kitlalkwihkwikeh
kitlamachiuayaya
kitlapeua
kitlaxkalia
kitokah
kitokaxtiah
kitokayotiah
kitokayotiaj
kitosneki
kittepanitan
kiui
kiuika
kixtianotlajtoli
kj
kk
klasiko
klass
kleenex
klein
km
kms
kn
knightley
knights
know
known
ko
koajmej
koajtitlan
koajtitlantlapiyalmej
koajtlaj
koajtli
koajuitl
koala
koamej
koamistli
koamojmojtli
koaokuilko
koatl
koatochij
koatsakwalko
koauitl
koba
kobe
kochi
kodama
koenigsegg
kohunlich
kokochij
kokolis
kokolli
kokolmeh
kokoyak
koku
komali
kommuner
konej
konemej
kong
koni
konstanz
korea
koreanosaurus
koreatimes
koskatlan
kostik
kotomitl
kouamej
koujtia
koyochichi
koyomeh
koyotajtol
koyotlajtol
koyotlakamej
kpa
kr
kraft
ksh
ku
kuaamatl
kuaitl
kuajkualoli
kuajli
kuak
kuali
kualia
kualli
kuanasi
kuapelech
kuapelechxochitl
kuartiyo
kuatitlaj
kuatitlantlapiyali
kuatlajketl
kuatlajtli
kuatochi
kuatochijmej
kuatrapich
kuaueyojtli
kuauitl
kuaxilokoauitl
kuaxilotl
kuechkoatl
kueitl
kuetlaxtli
kuextekapan
kuik
kuikatl
kuikuiltik
kuilo
kukulka
kula
kull
kurosawa
kurt
kuum
kva
kw
kwahtemallan
kwalantli
kwalli
kwapelechxochitl
kwatlakketl
kwawillan
kwawitl
kwawtemallan
kwetlaxkoapan
kwetlaxkowapan
kwietnik
kwikwilko
kyiv
l
la
lab
label
labelid
laberinto
laboratory
labrador
labtom
lacandona
lad
laden
lado
ladonna
lady
laga
lago
lagos
laguna
lah
lahaŋska
laica
laissez
lake
lakhal
lal
lalax
lalaxatl
lalaxcuahuitl
lalaxkoajuitl
lalaxmej
lalaxmilij
lalaxtli
lama
lambeosaurus
lamborghini
lamo
lan
lanatus
lanca
lancanjiangosaurus
lancer
land
landi
landna
lang
langcode
language
languages
langue
lani
lanka
lanque
lanzamiento
lanzamientoinicial
lanzamientoinicialacceso
lanzamientoinicialdominio
lanzamientoinicialfecha
lanzamientoinicialref
lanzamientoinicialweb
lao
lapislazuli
lara
laredo
larga
large
larry
las
lasca
lascura
last
lastarg
lastauthoramp
lastfirst
lastfirsttable
lastn
latconv
latdegrees
latdegsym
later
lati
latin
latina
latinkamanali
latinmachiyo
latino
latinoamerica
latintlahto
latintlahtolcopa
latintlahtolcuepa
latintlahtolli
latintlahtoltica
latintlajtoli
latintlajtoltika
latinto
latitude
latminsym
latminutes
latrans
latseconds
latsecsym
lauper
laura
law
lay
laydate
layformat
laysource
layurl
lazaro
lazarote
lazio
lazo
lb
lbe
lbum
lbumes
lc
lca
lcacahuatl
lcah
lcahua
lcahuiqueh
lcal
lcalli
lcameh
lcamohtli
lcaquiliztilo
lcaquizcopi
lcaquiztilo
lcatiliztli
lcatl
lcaxitl
lccn
lce
lcenyeliztli
lchi
lchica
lchihuitl
lchihuitli
lci
lco
lcopa
lcuahuitl
lcualtia
lcuepa
lcuepaliztli
lcui
le
leading
league
leap
learn
least
leave
leaves
leaving
lechuga
lee
leela
leer
left
legacy
legazpi
legend
legisladores
legua
legumbre
leguminosas
leh
lehnga
lehuatl
leibowich
leiden
leidsegracht
leipzig
lema
lemon
len
length
lengu
lengua
lenguas
lennon
leo
leobardo
leon
leona
leonardo
leone
leones
leonor
leontiev
leopardo
leopardus
leopoldo
lepanto
lepidium
leporidae
lepus
lerdo
lerma
lernen
les
lesotho
lesoto
less
let
leta
letl
leto
letonia
letoniatlahto
letra
letras
letter
letters
leucaena
leucocephala
level
levemente
levi
ley
lez
lhua
lhuactli
lhuahca
lhue
lhuiliztli
li
lia
liah
liani
libano
libera
liberales
liberia
libertad
liberty
libia
library
libraryutil
libre
libres
libreville
libro
libros
lic
lica
licaonia
licencia
license
liceo
lico
licoqui
licos
lido
lie
liebe
liechtenstein
lieder
liens
lienzo
life
liftback
liga
light
lightningvolt
lih
lihqueh
like
lila
liladowns
liliana
liliz
lilizololo
liliztli
lilli
lilonhue
lima
limacuahuitl
limaxocotl
limba
limit
limited
limo
limoj
limon
limontitlan
limonxocotl
limotl
lin
linares
linaria
linda
lindavista
lindero
lindo
line
linear
lines
lingu
lingua
linguistics
lingvo
link
linkback
linkcategoryprefix
linkcategorysuffix
linked
linkn
linkname
links
linktarget
linnaeus
lino
linux
liquidambar
lira
lis
lisboa
lisez
lisis
list
lista
listed
listening
listing
listli
lists
liszt
literal
literally
literatura
lito
litro
little
lituania
live
liverpool
living
livres
liwe
lix
liz
liza
lizard
lizmatiliztli
lizta
liztica
liztla
liztlahtohca
liztli
lizyaca
lizzo
ljuger
ljustero
lki
ll
lla
llacuilo
llah
llahcayo
llahqueh
llahto
llahtohca
llama
llamada
llamadas
llamados
llamaliz
llamaliztli
llamantli
llano
llanos
llave
llega
llegenda
llengua
ller
llevar
lli
llibres
llineneuhca
lliquihto
llo
lloh
llohca
llohco
lloran
llorona
llosa
llotl
llotzintli
lloyd
lluvia
lma
lmachiyo
lmatiliztli
lme
lmeh
lmelauhcan
lmichin
lmitohtli
lmo
ln
lna
lnacatl
lnepantlah
lnetoquixtianayo
lo
loa
load
loaddata
loaded
loadi
loading
lobo
lobos
loc
locacio
local
localiza
location
locci
loce
lock
locked
lockhart
loctepoztli
loctli
locuilin
lodi
log
logan
logged
login
logo
logos
logout
lohqueh
lohtli
loincloth
loire
lola
loli
lolli
lolo
loma
lomas
lombardia
lome
lomo
lonce
lonconv
londegrees
londegsym
londin
london
londres
lone
long
longer
longitud
longitude
longitudesde
lonminsym
lonminutes
lonna
lonseconds
lonsecsym
lontiliztli
look
looking
looks
loop
lope
lora
lorca
lord
lordi
lorena
lorenzo
loreto
los
losing
lost
lotl
lotor
lotus
louis
louise
louvre
love
lovely
lovers
low
lower
lowercase
lozada
lozitlahto
lp
lpa
lpachihuiliztli
lpan
lpane
lpantlahto
lpantli
lpe
lpo
lpohualxihuitl
lpohualxihutin
lpohualxiuhtin
lpolo
lpoloa
lpoloh
lpolohqueh
lpopocac
lpoyactic
lqueh
lqui
lt
ltapachtli
lte
ltechcopa
ltecpantiliz
ltecpantiliztli
ltemo
lteo
ltepe
ltepoztli
ltetl
ltextli
lti
ltia
ltic
ltica
lticpac
lticpaca
lticpacpan
lticpactli
lticpama
ltih
ltiliztli
ltima
ltimo
ltin
ltlah
lto
ltoca
ltomatl
ltzapocuahuitl
ltzapotl
ltzin
ltzintli
ltzontli
ltzontzin
lu
lua
luaargs
luc
lucas
lucero
lucha
luchterhand
luci
luciano
lucida
ludovico
ludwig
luego
lufengosaurus
lugar
lugo
lui
luigi
luis
luisiana
luja
lumie
luna
lunar
lunes
lupita
lupus
luri
lurigancho
lusitania
lust
lutero
luther
luxemburgo
luz
lv
lvarez
lvaro
lxeliuhca
lxo
lya
lyacatl
lynx
lyo
lyon
m
ma
maat
maaya
mac
maca
macahualtzin
macaliztli
macamo
macani
macao
macario
macdonald
macedonia
macedonio
macehualcalpolli
macehualchaneh
macehualiztli
macehuallahto
macehuallahtolcopa
macehuallahtoliztli
macehuallahtolli
macehuallahtolloliztli
macehuallahtoltin
macehualli
macehuallotl
macehualmeh
macehualmihtotiztli
macehualneltococayotl
macehualolocholiztli
macehualtecatl
macehualteizcaltiliztli
macehualtepahtiquetl
macehualtin
macehualtlacah
macehualtlacameh
macehualtlacatl
macehualtlahtolli
macehualtlaquemitl
macehualtzintin
macehualtzintli
macehuameh
macel
mach
machacado
macheh
machi
machiliz
machiliztli
machine
machiotica
machiotl
machiyo
machiyomaca
machiyotequitl
machiyotl
machiztli
macho
machti
machtia
machtiliztli
machtopatlaliani
macihui
maco
macoc
macoz
macroplaza
mactlactetl
macuahuitl
macui
macuilcempoalpa
macuilli
macuilpoalxihuitl
macuilpohualxihuitl
macuilpohualxiuhpan
macuiltetl
madagascar
madame
madaura
made
madera
madero
madhi
madonna
madre
madrid
madridyotl
madura
maestro
magazine
magdalena
magenta
magic
magical
magliabechiano
magna
magne
magnificat
magnitude
magno
magnolia
magnon
mago
magos
magrana
magritte
maguey
mah
mahal
mahce
mahcehualli
mahcehualtic
mahcehualtiliztli
mahcehualtin
mahcihui
mahctlactetl
mahcuilpohualxihuitl
mahoma
mahomaquipololo
mahomatla
mahomatlacah
mahomatlacatl
mahomayotl
mahpilli
mahtel
mahtla
mahtlac
mahtlactetl
mahtlactli
mahtlactzontli
mahtlaktli
mahtli
mahui
mahuiltiah
mahuiltiliztli
mahuizohqueh
mahuizotl
mahuiztic
mahuiztililo
mahuiztililoni
mai
mail
mailing
mailinglist
main
maincat
mainline
mainnsname
mainsnak
maint
maintenance
maitl
maj
major
majtakti
majtlakti
majtlaktli
majtli
majus
maka
make
makeinvokefunction
makes
making
makisenkauakaj
makuili
makuilisuatl
makuilpoualxiuitl
mal
malacactli
malacatl
malaguen
malahui
malasia
malayanus
malayotla
malayotlahto
malcalli
malcochehcan
maldicio
maldivas
maldonado
male
malesia
malezas
malezasdemexico
mali
malinalco
malinalli
malinalxochitl
malintzin
malla
malley
malli
mallorca
mallotl
malpahin
malpan
malpaso
malpighiales
malpopo
malta
malte
maltin
malvaceae
malvales
malware
malwilli
mam
mama
mamali
mamalli
mamaltica
mamaltzintetl
maman
mamaxton
mambo
mameh
mami
mamifero
man
mana
manacocheh
manahuac
manaloqueh
manamikme
manatee
manc
mancaxcoton
mancha
mandenxhi
mandril
mane
manel
manera
manga
mangas
mango
mani
manian
manih
manila
manilah
maniliztli
manilkara
manilla
manillah
manilow
mann
mano
manoce
manoeuvres
manolito
manolo
manomomaxtikaj
manos
mans
manso
manta
mantayoyomitl
mante
mantener
mantic
mantla
mantli
manto
mantoc
manual
manuel
manuela
manuscrito
many
manzana
manzanaoctli
manzanero
map
mapa
mapache
mapachi
mapachihtli
mapachin
mapachtli
mapantepoztli
mapas
mapato
mapatoltiliztli
mapilli
mapitstli
maplandia
mapo
mappings
mappingskey
mappingsnsname
maps
mapuchetlahto
mapuchetlahtolli
mapurl
maquixtilo
maquixtiloni
mar
mara
maratitlahto
maravati
marc
marcel
marcelino
march
marco
marcos
mare
margarita
margaritas
margin
mari
maria
mariachi
mariae
mariana
mariano
mariatzin
marichuy
marie
marimba
marina
marinera
marino
mario
maritimus
marja
mark
market
marks
markup
marlon
maroccana
marque
marquesa
marranos
marruecos
mars
marseille
marshall
marta
marte
martes
martha
marti
martin
marx
mary
marzo
mas
masa
masaka
masameh
masatl
masehual
masehualtatolmej
maserati
maseuali
maseualmeh
maseualmej
maseualtepajtiketl
masewalli
masewalmeh
masewaltajtol
masewaltih
masewaltlahtolli
masewaltlakameh
mask
maske
maski
maskn
massachusetts
massospondylus
master
masters
mastretta
mastro
matamoros
matar
match
matcha
matches
matchesblacklist
matchestitle
matchhook
matching
matel
matema
mateo
mateos
materia
material
math
mathematical
mati
matiliztica
matiliztli
matine
matini
matl
matlacoto
matlactetl
matlactli
matlacueyeh
matlacuiloh
matlahcuilo
matlahcuiloqueh
matlalca
matlalcueyeh
matlaltic
matlapaleh
matlapan
matlasiwkeh
matlatl
matlatlan
matlatzalan
matlatzinco
matsajtlaj
matsajtli
matsuri
matt
matthew
matthias
matutino
matzahtlah
matzahtli
maui
mauiltiaj
mauiltilistlij
maurice
mauricio
mauritania
mawiltiah
max
maxalihuiliztli
maxima
maximilian
maximum
maxtla
maxtlah
maxtlatl
maxtli
maxton
maxtontli
may
maya
mayaa
mayaaltepetl
mayab
mayacamanalyotl
mayacayotl
mayaddcalendar
mayah
mayahtlakameh
mayapan
mayapanekah
mayatla
mayatlacah
mayatlacameh
mayatlacatl
mayatlacayotl
mayatlahto
mayatlahtolcopa
mayatlahtolli
mayayomeh
mayayotl
maybe
maynila
mayo
mayor
mayori
mayotlahtolli
mayotte
mayra
mays
mayu
maz
maza
mazahua
mazahuahtlahtolli
mazahuatlahtolli
mazama
mazameh
mazatecatlahtolli
mazatexocotl
mazatl
mazatlan
mazaxocotl
mazda
mazi
mazque
mazqui
mb
mbiancu
mbito
mbolo
mbox
mc
mccarthy
mccartney
mded
mdy
me
mean
meaning
meanings
means
meca
mecahue
mecahuehuetl
mecameh
mecano
mecatl
mecatlachihualtlacayomeh
mecayapan
mecayo
mecayotl
meco
med
medalla
medelli
medellin
media
mediawiki
medicarum
medicine
medina
medio
meditarra
meditations
mediterra
mediterraneo
meetstli
megaloceros
meh
mehcanohtlahtol
mehigo
mehiko
mehrsprachige
mejikano
mejiko
mejikoo
mejiku
mejor
mejores
mela
melahua
melahuac
melahuacayotl
melahualiztica
melahualiztli
melak
melanoplus
melauak
melauhyo
melawa
melbourne
melchor
melchorejo
mele
meleagris
melilla
melo
melocoto
meloria
membrillo
membrillocuahuitl
memeh
memoized
memorial
memorias
memory
men
mena
mendieta
mendigar
mendigo
mendoza
mene
menes
meneses
menos
mensagem
mensaje
mentira
meoctli
meocuilin
mephitis
mercado
merced
mercedario
mercedes
mercia
mercosur
merge
mergeargs
mergearrays
merida
meridionalis
mero
merriam
mes
mesa
meseualmej
meshihku
meso
mesoame
mesoamerica
mesoamerican
mesoamericana
mesoamericayotl
mesoamerika
mesoamerikah
mesomerica
message
messagebox
messages
messaggio
mesti
mestli
mestloi
met
meta
metaargs
metaargskey
metadata
metal
metallica
metatable
meteo
metepec
meter
metl
metla
metlatl
metli
metro
metroh
metropolitana
metropolitano
metros
metstli
metz
metzcalli
metzpohualli
metzquentli
metztitlan
metztli
metztochtli
mevpd
mewkatsan
mex
mexcalli
mexcatla
mexica
mexicah
mexicali
mexicamachiyotonalcopa
mexican
mexicana
mexicano
mexicanos
mexicanus
mexicas
mexicatl
mexicatlachihualiz
mexicatlahtolli
mexicatlalpan
mexicayotl
mexico
mexihcah
mexihcanecah
mexihcatl
mexihcayotl
mexihco
mexihcotlalli
mexihkatlakameh
mexihko
mexihtin
mexihtli
mexika
mexikaj
mexikamaseualmej
mexikameh
mexikanoh
mexikanojtlajtojli
mexikanotajtol
mexikatlahtolli
mexikatlajtoli
mexikatlajtolli
mexiko
mexiotl
mexique
mexitl
mexixquilitl
mexkali
mexkatl
mexko
mexkoaltepetl
mexkoaxkayotl
mexkoewanih
mexkotlajtokayotl
mexkotlali
mextin
meya
meyo
mez
mezcal
mezcalito
mezquentli
mezquital
meztli
meſmo
mg
mhnt
mi
mia
miac
miacca
miacci
miacpan
miacquin
miacquintin
miactin
miactla
miajke
miak
miake
miakeh
miaktin
miami
mianma
miaqui
miaquin
miaquintin
mic
mica
micaela
micas
micca
miccailhuitl
miccaohtli
miccaquimiloliztli
miccatlalli
miccatlatatactli
miccatzintin
michael
michel
michelle
michhuacan
michhuah
michhuahca
michhuahcah
michhuahcan
michhuahcatlahto
michhuahcatlahtolli
michhuahqueh
michimeh
michimej
michin
michoaca
michoacan
michoacana
michoaka
michoakani
michtin
michuakan
michwahkan
michwahkemeh
michwahmeh
mick
mico
micohuani
micqueh
micqui
micquitlahto
microdasys
mictampa
micti
mictih
mictiliztli
mictilo
mictiloc
mictla
mictlampa
mictlampan
mictlan
micya
middle
mide
mie
miec
mieccan
miecpa
miecquintin
miectic
miectin
miedo
miekin
miel
miequin
miequintin
mier
mifune
might
miguel
migueltzin
mihcuanih
mihcuiloa
mihcuiloaya
mihcuiloh
mihto
mihtoa
mihtoaya
mihtohtli
mihtotia
mihtotiah
mihtotiliztli
mihtotiztli
mihtotli
miiyotzin
mijkailuitl
mijkaxochitl
mijtotiaj
mikael
mike
mikik
mikistli
mikkailwitl
mikti
miktlampa
miktlanpa
mil
mila
milacatzotinemi
milagro
milagros
milaj
milan
milano
milenio
mili
milic
miligram
militar
military
milla
millacameh
millah
millares
millennium
miller
milli
million
millo
millones
millor
millotl
milo
milpa
milpan
miltepeuajkan
miltomatl
mimalacatl
mimichtin
mimiztin
mimosifolia
min
mina
minas
minatitlan
mind
mineral
minerva
mini
miniatura
miniaturadeimagen
ministerio
minivan
minneapolis
minor
minorities
minsk
minsymbol
minute
minutes
minutos
miqui
miquia
miquih
miquiliztli
miquini
miquiya
miquiz
miquizilhuitl
miquiztetl
miquiztlaxcalli
miquiztli
miquiztlin
mirada
miraflores
miramo
miro
mirta
mis
misa
misio
misionera
misionero
misiones
misma
mismatch
mismo
miss
missing
mission
mississipi
mississippi
misspelled
misspelling
misterios
misteriosa
mistli
misumena
misyoltilanas
mit
mitl
mitla
mitlampahuic
mitoa
mitohtiztli
mitohtli
mitote
mitotiani
mitotiztli
mitras
mitschajkos
mitstlapololtis
mitsubishi
mitsyoltilanas
mitz
mitznequitlahtoa
mitztequipacho
miuxcah
mix
mixcahuih
mixco
mixcoac
mixed
mixetlahtolli
mixmati
mixnahuatiani
mixnamiqui
mixte
mixteca
mixtecah
mixtecapan
mixtecatlahtolli
mixteco
mixtekah
mixtekatl
mixtekatlajtoli
mixtepe
mixtli
mixtzin
miya
miyac
miyacpa
miyaj
miyak
miyaquin
miyaquintin
miyazaki
miyec
miyek
miyones
mizcaliani
mizquitic
mizquitl
mizquiyohualah
mizrahitlacameh
miztin
miztli
mizto
mizton
mizyotl
miſmo
mk
ml
mm
mmachi
mmmm
mo
moa
moaci
moahsik
moahsikeh
moaltia
mobile
moc
moca
mocac
mocahua
mocahuah
mocallotia
mocallotih
mocatolicachiuhqueh
mocauhqueh
moce
mocentlalih
mocepanicnelia
mocepanicnelih
moch
mochantiah
mochantlaltoyah
mochi
mochihua
mochihuaya
mochihuaz
mochin
mochintin
mochipa
mochis
mochitin
mochitl
mochiua
mochiuaj
mochiuh
mochiuhqui
mochiwa
mochiwkeh
mochiwki
mochohuacan
mochololih
mocnotecani
mocochcayotih
mocototzoa
mocoyoni
moctezuma
mocua
mocue
mocuep
mocuepa
mocuepaz
mocuepqueh
mocuiltono
moda
mode
model
modelo
modena
modern
moderno
modesty
modified
modify
modigliani
modo
module
modules
moduloargumentos
modulotablas
modulowikidata
mofeta
moguer
mohcuiloa
mohinora
mohnwiese
mohs
mohtoa
mohualcuep
mohualcuepa
mohualcuepaz
mohuehcauh
mohueli
mohui
mohuica
moi
moihcuiloa
moihitztoc
moihkwiloa
moihtoa
moihtoah
moihtoh
moihtowa
moijtoa
moiljuia
moiluitiliaj
moise
moises
moitta
moixmati
moixpantiaj
moixpantiyayaj
moj
mojave
moje
mokamanaluiyaj
mokamauiyaj
mokaua
mokauaj
mokauas
mokawa
mokui
mokwa
mol
molanco
molango
molanko
molcaxitl
mole
molehuiya
moleuiya
molienda
molim
molina
moll
molli
molo
molotl
moma
momachilia
momachtia
momachtiah
momachtiani
momachtih
momachtikaj
momahuizzo
momanepanoh
momati
momatia
momatiz
momatqui
momattok
momauhtihqueh
momazoaltiloni
moment
momento
momiquilih
momochitl
momoloca
momomalacapi
momomalacapo
momomalacatl
momomalacato
momomalacatzin
momotla
momotlacalpolli
momotlacayotl
momotlaiztli
momotlalca
momotlalcayotl
momotlalcopa
momotlalistli
momotlaliztli
momotlaloyan
momotlaltic
momotlani
momotlanimeh
momotlatic
momoxtli
momoztli
mompracem
mon
mona
monaco
monactia
monactih
monahua
monamaca
monamacac
monamacape
monarqui
monasterio
monasterios
moncayo
monda
mondadori
monde
mondeo
mondrago
mone
monec
monechicoah
monechicohqueh
monechoyoyayah
moneda
monejki
moneki
monekij
monelhuayotia
monelhuayotiaya
monemajkiya
monematcaihtoa
monematcaitta
monemi
monemitih
monenikij
monepatiaj
monequi
monequini
monetario
monexiti
monextia
mongol
mongolia
mongollahto
monica
monkeys
mono
monografi
monohnoncuacatlalia
monolingualtext
monos
monster
monsters
mont
montagna
montan
montana
monte
montecristo
montejo
montemorelos
montenegro
monterrey
montes
montevideo
month
months
montsoreau
monumental
monumentos
moon
mopahtiah
mopajtiaj
mopanoltisej
mopantia
mopasolkeh
mopatla
mopatlatoc
mopatlatok
mope
mopechtecac
mopihpiloh
mopiloh
mopiya
mopiyah
mopo
mopohua
mopohuah
mopolihuioh
moquetza
moquetzani
moquetzanimeh
moquetzaz
moquihcuilo
moquimati
mora
moraceae
morales
morality
more
moreargumentsexist
morelia
morelos
morena
moreno
morfi
morgen
mori
morir
morning
moro
moroni
morpho
morral
morrison
mort
mortales
mos
mosaniloa
mosca
moscohuia
moscu
mosenkauaj
mosetilihtokeh
most
mote
moteada
moteca
motech
motecpa
motecpichoani
moteixihmachtia
moteixnamictiani
motekiuia
motekiuiya
motekiwia
motekiwihki
moteksomah
motel
motemohki
motenehua
motenehuah
motenehuaya
moteneloah
moteneua
moteo
moteochihuaz
moteochiuhtoh
motepantilok
motequihuia
motequitiltia
motequitiltilia
motequitiltililia
moteuczoma
motivo
motla
motlachihua
motlacohua
motlacuilia
motlahcohuia
motlahkwilohtikah
motlahtla
motlahto
motlahtoa
motlahtoah
motlahtohca
motlahtohcauh
motlajtlaniaj
motlakouiteuaj
motlalia
motlalilis
motlalxelohqueh
motlamati
motlamia
motlamih
motlapoa
motlaquehtiah
motlatiaj
motlatoltzin
motlayecoltia
motloc
motlocpa
moto
motoca
motocaxtia
motocayotia
motocayotiaya
motociclismo
motohtli
motoka
motokaxtia
motokayotia
motoli
motolinia
motor
motores
motors
motta
motzacua
motzintia
motzololoc
mou
mount
mountains
mourin
mouskouri
move
moved
movedto
movie
movimiento
movseparator
mowikakeh
mox
moxehxelohqueh
moxelhuia
moxeloah
moxelohtok
moxexeloa
moxexelohkeh
moxexeloj
moxi
moxo
moxtiliztli
moxtin
moxtlahcuilo
moxtli
moyectlalia
moyehyecoa
moyehyecoh
moyeltihqueh
moyetzticah
moyo
moyocoyani
moyolicatzin
moyoliluiya
moyollo
moyollotzin
moyolnojntsaj
moyolo
moyotl
moyoyonquentiah
moz
mozambique
mozart
mozcaltia
moztla
mp
mpa
mpan
mpe
mpico
mpipate
mpo
mpoh
mpv
mr
ms
msg
msgkey
mshared
msn
msnm
mt
mtv
mtx
mu
much
mude
muero
muerte
muerto
muertos
muestra
mujer
mujeres
mul
mulinciane
mulo
multilanguage
multilingu
multilingual
multilingue
multiple
mumbai
mun
munal
mundial
mundo
mundos
munich
municipal
municipio
municipios
munti
muntiacus
murcia
murcie
murguia
muri
murillo
muritlahto
muro
murphy
murrieta
muruais
muscle
muse
musee
museo
museum
musewiki
mush
mushroom
music
musica
musical
musician
muslim
must
mustafa
mustang
mustelidae
musulmantla
muy
muybridge
muyil
muzik
mw
mx
mxt
my
myakka
mydaus
myrtaceae
myspace
mysql
myste
mœnia
n
na
naa
naca
nacacuitlaxcotli
nacamacoyan
nacamatl
nacanamacoyan
nacatl
nacayo
nacayotl
nacayoyotl
nacaztli
nach
nachricht
nacido
nacio
nacional
naciones
nada
nadam
nadie
nagasaki
nagisa
nah
nahua
nahuac
nahuah
nahualatol
nahualli
nahualtin
nahualtlahtoliztli
nahuameh
nahuas
nahuati
nahuatili
nahuatililli
nahuatillahtolli
nahuatillaliliztli
nahuatilli
nahuatillotl
nahuatilo
nahuatiltlahtolli
nahuatl
nahuatlacah
nahuatlacameh
nahuatlahto
nahuatlahtoanih
nahuatlahtocopa
nahuatlahtohqueh
nahuatlahtolcopa
nahuatlahtolcuepa
nahuatlahtolli
nahuatlahtoltica
nahuatlaltocayotl
nahuatlatolli
nahuatocaitl
nahui
nahuiztli
naik
nain
nakatl
naked
nal
nalci
nalco
naliztli
nalla
nalli
nalloh
nalmachiyo
nalo
nalpan
nalpo
nalquizani
naltiliztli
nam
nama
namaca
namacac
namacaliztli
namacape
namaj
namala
naman
namaquilizhuayan
name
named
namelistformat
names
namesep
namesi
namespace
namespaces
nameyocaquizcopi
namibia
namiquilli
nan
nana
nanacatl
nanakat
nani
nanotyrannus
nantepehuahcan
nantepetlah
nantes
nantlahtolli
nantlahtolomomangue
nantli
nantzin
nantzintetl
nantzintli
nanyo
nanyotl
napixqui
napiyaliztli
napole
napoleo
napoles
napoli
nappa
naqueh
nara
narang
naranj
naranja
naranjacuahuitl
naranjaxocotl
naranjo
nariz
nasa
natalia
nation
national
natiuh
natiuhyoh
native
nativitas
natural
naturales
naturaleza
nature
natures
nau
nauas
nauatl
nauatlahtoanij
nauatlajtojli
nauatlajtokopa
nauatlajtol
nauatlajtoli
nauatlakamej
nauatle
naucalpan
nauhcalpan
nauhpohualli
nauhtetl
naui
navajo
navajotlahtolli
navarra
navarrete
navarro
navbar
navbararg
navbarstyle
navbox
nave
navidad
navojoa
nawa
nawakamanali
nawat
nawatl
nawatlahtoanih
nawatlahtolli
nawatlatole
nawi
nayarit
naz
nazarenus
nazaret
nazareth
nazari
nazi
nb
nbk
nbsinte
nca
ncalco
ncalli
ncatl
ncayo
ncbi
nce
ncer
nch
nchen
nchez
nci
ncia
ncihua
ncipe
ncj
ncl
nco
ncopa
ncua
ncuahqui
ncuauhyo
ncui
ncx
nd
ndataset
nde
ndebeletlahto
nder
ndeu
ndez
ndice
ndico
ndira
ndores
nds
ndula
ne
nea
neahuiltiliztli
neahuiltiloliztli
neahuiltiloni
nealtoa
neandertal
near
nearest
neas
nec
nece
necentla
necessary
necha
nechi
nechicoliztli
nechicolli
nechihualiztli
nechikol
nechikolistli
nechikolkej
nechiuhtli
nechka
nechkayotl
neci
necniuhtiliztli
neco
necoctetencatl
necuazaloliztli
necuazcatl
necuepaliztli
necuilto
necuiltonolli
nedoceratops
need
needed
needle
needs
neehe
negas
negative
negra
negras
negrete
negro
neh
nehcaliliztli
nehhua
nehhuatl
nehmatiliztli
nehmatli
nehnemi
nehnemiliztli
nehnen
nehnenca
nehnenqui
nehnewkayotl
nehpalli
nehqueh
nehto
nehua
nehuah
nehualcuepaliztli
nehuatia
nehuatl
nehuehhuelililiztli
nehuelmacho
nei
neicxitapayo
neicxitapayolhuiliztli
neijtotialis
neil
nein
neixcahuiliztli
neixcuiltilli
neixcuitilli
neixpetzoliztli
neixquetzaloyan
nej
neja
nejin
nejnemi
nejpali
neka
nekate
nekia
neksayoli
nektli
nel
nelcoztic
nelcueitl
nelhuatl
nelhuayo
nelhuayotl
nelhuehueyac
neli
nelia
nelihuehcapanca
nelitokaj
neliya
nelkamanali
nelli
nelmiak
nelmiyac
neloa
nelpilolli
neltia
neltiliztenohnotzanimeh
neltiliztica
neltiliztli
neltiz
neltlahtoliztli
neltlatoliztli
neltocah
neltococa
neltococayo
neltococayotl
neltocoz
neltokilistli
neltolkilistli
neltoquiztia
nemachiyo
nemachiyotilli
nemachtianimeh
nemachtilcalco
nemachtilcalli
nemachtilis
nemachtiliztli
nemachtilli
nemachtiloyan
nemactli
nemanamictiliztli
nemanepanoliztli
nemapatlaliztli
nematiliztli
nematodos
nemazoaltiloc
nemi
nemia
nemih
nemij
nemiliskayotl
nemilistli
nemiliz
nemilizopoani
nemilizotl
nemiliztlahcuilo
nemiliztli
nemilo
nemiltiliaya
nemini
nemiquiznahuatiliztli
nemiya
nemiz
nemo
nemontemi
nen
nena
nenahuatiani
nenahuatiliztli
nenayo
nenayotl
nenca
nencah
nene
nenehuianhuiliztli
nenehuiliztica
neneloaliztli
nenemi
nenemiliztli
nenemitiliztli
nenenqui
nenepanoliztli
nenepilli
neneuhca
neneuhcatiliztli
neneuhcayotl
neneuhqui
neneujka
nenhuaztli
nenohmahyolitiliztli
nenohno
nenohnotzaliztli
nenqueh
neo
neocatecumenal
neocla
neon
neovolca
nepa
nepal
nepanihui
nepanihuia
nepantla
nepantlah
nepantlahololo
nepapan
nepapanyolilizzotl
nepatlachhuiliztli
nepilhuahtilizotl
nepiquiliztli
nepo
nepohualtzintzin
nepomuceno
nequexquitzahuiliztli
nequi
nequiliztli
nequittac
nequiztic
nero
nervo
nes
nese
nesi
neski
nesolagus
net
nete
netech
netecpa
netecpicholizotl
netecpicholiztli
neteicniuhtiliztli
neteochihualoyan
neteotiliztli
netequipacholiztli
netewilli
neteyaotiliztli
netlacaneconi
netlacaneconimeh
netlacentequililiztli
netlacuilli
netlahtoa
netlahtolmachtiliztli
netlahtolmachtiloni
netlahtolpepechtiliztli
netlalhuiliztli
netlamachtilli
netlanalhuiliztica
netlaquamilo
neto
netoliniliztli
network
netzahualcoyotl
neuausgabe
neuctlaxcalli
neuctli
neue
neues
neuhqui
neuque
neuquensaurus
neutrones
neuwied
nevada
nevado
neve
never
nevermind
nevis
new
newindex
newline
newobject
news
newsgroup
newspaper
nexcoyo
nexcoyotl
next
nextamaliztli
nextarg
nextia
nextiac
nextic
neya
neyaochihualiztli
neyaotiloyan
neyehyecoliztli
neyeltiliztli
neyo
neyolcuitiliztli
neyoltzotzonaliztli
nez
neza
nezahualco
nezahualcoyo
nezahualcoyotl
nezahualcoyotzin
nezahualiztli
nezahualpilli
nezcayo
nezcayotia
nezcayotl
ng
ngel
ngela
ngeles
ngla
ngu
ngua
nguez
nhc
nhe
nhg
nhi
nhk
nhm
nhn
nhp
nhq
nht
nhui
nhv
nhw
nhx
nhy
nhz
ni
nia
nic
nica
nicaltlaquetzah
nican
nicanahuac
nicaragua
nicas
niccolo
nichanticoh
nicholas
nicholson
nick
nickelodeon
nicneltoca
nicnoneltoqui
nico
nicola
nicolai
nicolas
nicpampa
nicpia
nictlazohtla
nido
nidos
nie
niebo
nieto
nieves
niger
nigeria
night
nightmare
nigricollis
nigrum
nih
nihon
nij
nije
nika
nikan
nikanih
nikanin
nil
nilad
nilargs
nilargskey
nilia
niliz
niliztli
niliztliservicio
nilizzo
nilli
nilo
nima
niman
nimas
nimechnextilis
nimeh
nimitztitlani
nimitztlatlauhtia
nimo
nin
nine
ninja
ninotla
nippon
niquelehuia
niquihto
niquihtoa
niquitoa
niquitoan
niro
nirvana
nisinte
nissan
nite
nitla
nivel
niya
niz
nizticaquihtoznequi
niztli
nl
nlm
nln
nlv
nm
nme
nn
nna
no
noah
nobullet
nocal
nocat
nocca
noce
noceh
noche
nochi
nochimeh
nochimej
nochin
nochintin
nochipa
nochitlacah
nochpochtzine
nochtin
nochtli
nocializ
node
nodes
noe
noeditsection
noesis
nogada
noh
nohhuiyan
nohka
nohkiya
nohpalli
nohpalmitl
nohpalpixcayotl
nohpaltepec
nohpaltzin
nohpan
nohquiah
nohuan
nohuiampa
nohuian
nohuianyoh
nohuiya
noihke
noihqui
noihuan
noijke
noijki
noir
noiuhqui
noiyuhqui
noja
nojja
nojkia
nojkiya
nokia
nokiaj
nokisenkauaj
nokka
nola
nom
noma
nombre
nombrenormalizado
nombrepagina
nombres
nombretecnico
nomen
nomenclatura
noms
non
nonacayo
none
noneki
nonotza
nonyaz
nopa
nopal
nopampa
nopan
nopayoh
noponah
noponaj
nopp
noqui
noquia
noquiloz
norberto
nord
noreste
norge
normal
normales
normalizedate
noroeste
norte
norten
north
northern
northumbria
noruega
noruegia
noruego
norwegian
nos
noso
nosotros
nospecial
nossa
nostra
not
nota
notas
notchback
note
notecuiyoe
noteocal
notes
noteuctzin
noteucyoe
nothing
nothomb
notice
noticia
noticias
notlalouaj
notlanequiliz
notlatol
notoc
notoca
notoka
notracking
notre
notsa
notsaya
notzalo
nouhkiya
nouhqui
nouhquiya
nouiembre
nous
nouvelles
nov
nova
novae
novalue
novela
novelas
novelle
november
novemcinctus
novia
noviembre
noviempreh
novo
now
nowiki
nowkiya
nowrap
noxelojtok
noxo
noxocoyouh
noyuhqui
noyuhquin
noz
noza
nozan
nozo
npl
npsinte
nqueh
nqui
nquihto
nquiztli
ns
nscategory
nscrito
nsname
nstable
nstext
nsu
nsula
nt
nta
nte
ntecah
ntechpa
nteo
ntepe
ntesis
ntetl
nti
ntic
ntico
ntih
ntilia
ntiliz
ntiliztica
ntiliztli
ntin
ntla
ntlahcuilo
ntlahto
ntlahtolli
ntlamatiliza
ntlamatiya
ntlato
ntli
nto
ntoltocopa
ntzalan
ntzi
ntzicha
ntzin
ntzinco
ntzonma
ntzontli
nu
nubes
nucleos
nudum
nuestra
nuestro
nueva
nuevo
nuez
num
number
numbered
numbers
numdigits
nume
numeric
numerical
numerounidad
numi
numidia
numparam
nums
nun
nunca
nunduva
nupedia
nuristan
nurosaurus
nutt
nuttall
nuuyoo
nuz
nv
nwris
nxihuitl
nxocotl
nyah
nylon
nyo
nyoh
nyotl
nzo
nzte
nøtterøy
o
oacico
oacicoh
oacih
oaciloc
oacito
oaciuh
oahci
oahcic
oahcico
oahcicoh
oahciqueh
oahsic
oaltepetic
oaltepetlali
oaltepetlati
oaltepetzintih
oaltepetzintihqueh
oaltepetzintli
oamatlacuiloh
oasisame
oasisamerica
oasisamerika
oaxaca
oaxaka
oaxaquen
obispo
obj
object
objects
objet
objeto
oblongas
obo
obra
obrador
obrapremiadaenlazada
obras
obrego
obres
obscur
observatorio
obsidiana
obtenerargumentos
obtenerdatos
obtenertabladeargumentos
obtenervalordeargumentos
obtiene
oc
ocachi
ocahxiltiaya
ocalac
ocampo
ocan
ocatca
ocatcah
occe
occemeh
occencah
occepa
occeppa
occequi
occequin
occequintin
occidental
occidentalis
occidente
occurred
oce
oceani
oceania
oceano
ocellata
ocellated
ocelomeh
ocelote
ocelotepec
ocelotl
ocequi
ocequintin
och
ochachi
ochanti
ochantiaya
ochantih
ochihualoc
ocho
ocholoc
ochonetli
ochonijtli
ocicoh
ocinsoutput
oclc
ocna
ocnamacoyan
ocomiztli
ocompatlac
ocotelo
ocotepe
ocotl
ocoyacac
octacatia
octacayo
octavio
octli
october
octubre
ocuep
ocueponi
ocuicahuac
ocuilin
ocuiltin
ocuiltonoa
ocultecatlahtolli
od
oddities
oddity
ode
odham
odhantlahto
odocoileus
oeste
of
off
offa
official
ofi
oficial
oficio
ofrenda
often
og
ogg
oh
ohcalli
ohce
ohcequin
ohcequintin
ohhui
ohio
ohne
ohquicuilo
ohtiliztli
ohtlatocaliztli
ohtli
ohto
ohtoca
ohtocaliztli
ohtocaz
ohtoquiliztli
ohtzin
ohua
ohualah
ohualahqueh
ohualaqueh
ohualauh
ohuallah
ohuihca
ohuitepetitlan
ohuitica
ohuitiliztli
oimagen
oimagenderecha
oimageninferior
oimagenizquierda
oimagensuperior
ois
ojkalpan
ojo
ojos
ojpajtli
ojtilistli
ojtli
ojtlijtetlajnemilistli
ojtlitetitlaj
ok
okachi
okatka
okichpilmej
okichtli
okichtototl
okijkuilo
okixpil
okixtli
oklahoma
okse
okseki
oksekij
oksekimej
oksekin
oktopreh
okuili
okuilimej
okuilme
okuilmej
ol
ola
olaf
olague
olas
old
oles
oli
olid
olimpiada
olimpiayo
olimpicayoh
olin
olinala
olinaltsin
olinili
olivia
olivo
olla
olli
olme
olmeca
olmecah
olmeda
olmekachinanko
olmekah
olmekatlahtohkayotl
olmekatlakameh
olmekatlallamikilis
olmekatlallamikilistli
olmekatoltekayotl
olmekatsontekon
olmos
olo
olochtin
ololiuhqui
ololo
oltecah
oltlajtol
olvera
olvidados
olymicayoh
om
oma
omaceuh
omachiyotilo
omalacapainaliztli
omalacatl
oman
omar
ombox
omcauh
omd
ome
omei
omej
omemalacatl
omemalacaztli
omen
omentin
omepwal
ometeotl
ometepec
omextin
omic
omicque
omicqueh
omictiloh
omitl
omixo
omixochitl
ommacuiltetl
ommahtlactli
ommatlactetl
omo
omocalaquih
omochiuh
omocuep
omocuepa
omomana
omomazoaltilozquia
omome
omonohmayolitiaya
omontetl
omopehuilti
omopeuh
omopohuac
omoquihcuilo
omoteneuh
omotokah
ompa
ompah
ompaj
ompatlac
ompe
ompehua
ompoalnan
ompohualli
ompohualtetl
ompoliui
ompouali
on
ona
onahcic
onca
oncah
oncalaqui
oncan
oncatca
oncatcah
oncateh
oncayaya
once
oncentetl
onda
one
oneltoqui
onemachti
onemi
onemic
oneminih
onenemi
onenemic
onenqueh
ones
onichanti
onili
onilli
onka
onkah
onkaj
onkak
onkake
onkatej
onkatka
online
only
onmiquiya
onna
onnahui
onnauhtetl
ono
onoc
onoccah
onohualco
onohuaya
onohuayan
onro
onrro
ons
ontario
onteittac
onteittanimeh
ontemeh
ontetl
ontetocaitl
ontlaehualiztli
onto
onu
onyahkeh
onyez
oo
oocequin
opacity
opan
opanhuetzqueh
opano
opcional
opciones
opcionesfecha
opel
open
opens
opera
operacio
operativo
opeuh
opochtli
oppa
option
optional
options
opuntia
oqui
oquic
oquicah
oquicaquiltiaya
oquichcua
oquichihuilique
oquichiuh
oquichiuhqueh
oquichpilli
oquichpilmeh
oquichtic
oquichtin
oquichtiz
oquichtlaquemitl
oquichtli
oquichto
oquicuic
oquihcuilo
oquihcuiloh
oquihtoh
oquihtohqueh
oquimahuizo
oquimpeuh
oquimpix
oquimpopolo
oquineltocaz
oquinezcayo
oquinpeuh
oquipalehuih
oquipeuh
oquipia
oquipiac
oquipiaya
oquipix
oquipiya
oquipololo
oquipopolo
oquipopoloh
oquitenematiliztoca
oquiteneuh
oquitlachiuh
oquitlehcoaquiaya
oquitocaitihqueh
oquittac
oquiz
oquizcaltiz
or
ora
oral
oran
orange
oranges
orbis
orchestral
orchidaceae
ordaz
orden
order
orderedindex
orderednext
orderedpairs
ordinalinic
ordinary
orego
oregon
org
organik
organisation
organizacio
organization
ori
oriental
orientales
oriente
orig
origargs
origargsargname
origen
origin
original
originally
originalurl
origink
origyear
orilla
orion
orizaba
orizatlan
orlando
ornatus
ornithology
oro
orozco
orphaned
orti
ortiz
orto
ortodoxa
ortodoxo
oruga
orwell
oryctolagus
os
oscar
osceola
oseaniah
oselotl
oslo
osmi
oso
osorio
osti
ostotsitsintin
osuna
ot
ote
otechihuilique
otecuatequiqueh
otekoch
otemo
otepoztlahcuiloc
otequiti
other
others
otherwise
otho
otilpan
otinechicnocauh
otiquihtoh
otl
otla
otlacat
otlacati
otlacatque
otlacatqueh
otlacauh
otlachihua
otlachihualo
otlachihualoc
otlachihualoh
otlachiua
otlachiuh
otlachiuhqueh
otlacuac
otlahcuilo
otlahtlamac
otlahto
otlakat
otlalpolohqueh
otlamatocac
otlami
otlamic
otlan
otlaniuh
otlapaloaj
otlapeuh
otlaquemilo
otlaquenti
otlaquentia
otlaquentiayah
otlaquentih
otlaquetz
otlaquetza
otlaquetzqueh
otlaquiti
otlatla
otlatlani
oto
otomangue
otomangueana
otomanguetlahtolli
otomi
otomih
otomitl
otomitlacameh
otommanguetlahto
otompan
oton
otonlalaxtli
otontlahto
otontlahtolcopa
otontlahtolli
otra
otras
otro
otros
ottawa
otubre
otzi
otztli
ou
ouaatl
ouamilaj
ouatekitl
ouatl
oudezijds
our
ourano
ousmane
out
output
outstring
ouvert
ovata
over
overdue
overflow
overridden
override
overwritten
oviedo
oxford
oxfordshire
oxi
oxidacio
oxittontla
oxittontlayonqui
oxley
oxochihti
oxxo
oya
oyeya
oyeyah
oyuhpanoc
oyuhquimottili
oz
ozaloc
ozomahtli
ozomahtzintlan
ozotoceros
ozto
oztoatl
oztomeh
oztotl
oztoyotl
p
pa
pablo
pac
paccayeliztli
pach
pachapan
pacheco
pachelbel
pachihuiaya
pachihuiliz
pachihuiliztli
pachihuini
pachiuh
pacho
pachoa
pachoh
pacholiz
pacholiztli
pachontik
pachopi
pachoteo
pachtitlan
pachtli
pachuca
pachuka
pachycephalosaurus
pachyocan
pachyohcan
pachyohkan
paci
pacific
pacifico
padding
padel
padre
page
pagename
pages
pagina
paginas
pagos
pahcalli
pahnamacac
pahpa
pahpaquinimeh
pahpatla
pahpatlani
pahtia
pahtiyoh
pahtli
pahua
pahuatl
pai
paipaitlahtolli
pair
pairs
paisaje
paiutetlahto
pajtli
pakilispa
pal
palabra
palabras
palace
palach
palachmej
palachnakatl
palacio
palacios
palaeocursornis
palaeosaurus
palaos
palats
palau
pale
palenque
paleosaurus
palermo
palestina
palestine
pali
palizcayotic
palli
palm
palma
palmera
palms
palo
palomas
palomeras
palometa
palomo
palos
palta
palustris
pame
pames
pamitl
pampa
pampaj
pampas
pampeana
pamplona
pan
panahuiloni
panama
pancalli
pancho
panda
pandatla
pandora
panhuahuetl
panhuetziliztli
pani
panic
panixeliuhca
paniztli
pano
panoc
panoco
panoh
panok
panoni
panoramio
panoz
panquetzaliztli
panqui
pantalo
pantanos
panteones
panther
panthera
pantia
pantitla
pantitlan
pantlah
pantlazaloc
pantli
pantyhose
pantzin
panyabitlahto
paola
paolo
papa
papachicos
papagotlahtolli
papaloapan
papalomeh
papalote
papalotl
papasquiaro
papaya
pape
papel
papmpa
paquiliztli
paquime
paquimeh
paquistan
par
para
paracanthurus
parachutes
parade
paraguay
paraguensis
parai
param
parameter
parameternames
parameters
parametros
parammerge
paramorder
paramore
params
paramsaliasesp
paramsi
parasol
parastegosimpsonia
parc
parchado
pardalis
pardave
pardo
pardofelis
pardus
parecido
paredes
parent
pargs
pari
paricuti
paris
pariz
park
parlez
parlophone
parm
parque
parquegassetciudadreal
parques
parral
parrot
parse
parsed
parsedate
parsedformat
parseformat
parses
parsewikidataurl
parsley
parsons
part
parte
partede
partera
parteras
parti
particular
particulie
partido
partir
parts
pas
pasa
pasar
pasatono
pascua
pascual
pascuayotl
paseo
pashupatinath
pasifiko
pasio
paso
pass
passage
passat
passau
passed
passifloraceae
password
past
pasta
paste
pastoria
pastrone
patagonia
patagonico
patate
patatlahto
pathways
patines
patla
patlac
patlaliztli
patlani
patlanic
pato
patoa
patolli
patox
patricio
patrick
patrimonio
patro
patrol
pattern
patterns
patula
patzcuaro
pau
paul
paula
pauling
paulo
paulus
pavia
pavo
paxcua
paxcuatlateoilhuitl
paxcuato
payelizyo
payi
payne
payotl
paz
pb
pc
pcall
pcaxitl
pcopa
pcopatlahtohca
pd
pdc
pdf
pe
peace
pear
pec
pecados
pecha
peculiar
pedago
pedro
peech
pegg
pehua
pehualiztli
pehualli
pejmoch
pelayo
pele
peli
pelicula
peliculas
pellicer
pelo
pelon
pelonchili
pelota
pemex
pen
pena
pene
penh
peni
penn
pennsylvania
pentalagus
pentandra
pentecostales
pentecoste
peo
people
pepe
pepeno
pepper
peprilus
pequen
pequin
per
pera
peracuahuitl
peral
peralta
perder
perdido
perdo
peregrinacio
peregrinos
perejil
perexil
perez
perfect
perfecto
perform
performance
performed
perguntas
period
periodical
periodo
periodpos
periods
perkins
perla
perle
permite
pero
perote
perro
perros
persa
persea
persia
persiatlahto
person
persona
personaenlazada
personaje
personas
personnelle
perto
peru
peruana
peruano
peruichcatl
perutecah
perutla
peruviana
pescatori
peso
pesojtli
pesqueira
pestan
pete
peten
peter
petl
petlacalli
petlatl
petlayotl
petlazolcoatl
petra
petro
peua
peuaj
peuak
peualistli
peuayaya
peugeot
peuh
peuhqueh
peuhqui
pewkeh
pewki
pez
pezohtli
pg
pgp
phaeacantha
phaeton
phaseolus
philip
philippines
phillips
phoenix
photo
php
phthalocyanine
physalis
phytosaur
pi
pia
piano
pianoa
pianotini
pianotli
pias
piaya
pib
pic
picasso
pichardo
pichtli
piciciha
picicihapan
picicihtli
pick
pickup
pico
picos
pics
picture
pictures
pido
pie
pied
piederecho
piedetabla
piedra
piedras
pieizquierdo
piel
piero
pierre
pies
pigmea
pih
pihuia
pil
pila
pilaltepetsi
pilaltepetsisij
pilar
pilato
pilcayotl
pilconetl
pilcuatzin
pile
pilhua
pilipinas
pilkentsi
pillahto
pille
pilli
pilo
pilosus
piltiliztli
piltin
piltontli
piltzin
pimah
pimatlahtolli
pin
pina
pinaceae
pinacosaurus
pinaltin
pinar
pineda
pinglo
pinguin
pink
pinnacles
pino
pinolli
pinta
pinus
pinyin
pio
piolin
piomeh
piongyang
pipe
pipillahto
pipillahtolli
pipiltin
pipilton
pipiltzitzintin
pipinca
pipintik
pipiyolin
pipiyolli
pipiyolpixcayo
pipiyolpixcayotl
pira
piratas
pirineo
pirotehnimata
piruw
piscis
pisco
pissis
pit
pita
pitaya
pitayas
pitic
pitikin
pitt
pitza
pitzahuac
pitzocuitlaxcotli
pitzohua
pitzonacatl
pitzopixcayo
pitzopixcayotl
pitzotl
pius
pix
pixca
pixcahua
pixcalli
pixcaloac
pixcayo
pixcayotl
pixies
pixixi
pixkalistli
pixkayotl
pixque
pixqueh
pixqui
piya
piyonakatl
pizarnik
pizarro
pizza
pl
pla
place
placeholder
placer
plain
plainlinks
plains
plan
planck
planeta
planicie
planta
plantar
planti
plantilla
plantillas
plata
plataforma
plataformatitulo
plateado
plateau
plateosaurus
platino
platinum
plato
platyrhynchos
play
playa
playas
player
playing
plaza
please
pleasure
plenilunio
plug
plumeria
plural
plurie
plus
plutarco
pm
pmc
pmcs
pmid
pn
png
pntype
po
poaceae
poalcauhtzin
poales
poaliztli
poalli
poblacio
pobre
pobres
poca
pochote
pochotl
pochtecah
pochtecayotl
pochtetecayo
poctli
podcast
pode
poder
poe
poelagus
poemas
poertorriko
poesi
poesia
poh
pohtlah
pohualli
pohualxihuitl
pohualxiuhpan
pohualxiuhtiliztli
pohui
pohuiah
pohuini
poinsettia
point
pointer
pol
pola
polan
polanco
polar
polare
poli
policarpo
police
policy
polihuic
polihuilli
polis
polite
politics
poliuhqueh
poliuhqui
poliwki
polo
poloko
polonia
poloniatla
poloniatlahto
polontecah
polyacantha
polyglotte
pomegranatetree
pomoc
pomona
pompoj
ponah
ponaj
poncho
poncio
pondrons
poniatowska
pontevedra
pontevedrayotl
pontiac
pontificia
pool
pop
poplador
popo
popoaltzin
popocatepetl
popojkayotl
popol
popoliuhqueh
popololiztli
popotla
popular
por
porfiriatoh
porfirio
pornichet
porque
porru
porsche
port
porta
portada
portail
portal
portale
portales
porter
portilla
portillo
portion
porto
portole
portrait
portugal
portugalla
portugallahto
portugalma
portugalright
portugaltecah
portuglatecah
portugue
portugues
portuguestin
pos
posada
poscla
posesivo
posible
posicio
posicional
position
positional
positive
possibile
possible
possibly
post
postav
postcla
postscript
potencial
potosi
potosina
potrero
pots
potsdam
potter
pour
pouteria
poverty
powell
power
poyec
poyouaj
poza
pozo
pozolli
poztequi
pp
ppa
ppages
ppane
ppe
ppl
ppprefix
pprefix
pr
pra
praha
praia
prasinus
prd
pre
prebiterianos
precedidopor
preceding
precio
preciotitulo
precision
precla
predecesor
predefinic
predloga
predoni
preescolar
preferences
preferred
prefetchedrefs
prefijo
prefix
prefixedtext
prefixtable
preguic
preguntas
premi
premio
premios
prenda
preoccupied
preposiciones
preprocess
preprocessargs
preprocesssinglearg
presencia
present
presentation
preservation
presio
presley
press
pressrelease
pressure
presume
pretitle
prev
prevent
preview
previous
previously
pri
prickly
prieto
primaria
primarily
primavera
primer
primera
primero
primeros
primrose
prince
principal
principale
principales
principio
principios
print
printerror
prionailurus
pris
prisoner
prix
pro
probable
probably
problem
problema
problematique
problems
process
processed
processflag
processflagorcommand
processing
processseparators
procol
procura
procyon
prodigy
produce
produces
producido
producing
production
productor
profesional
prog
program
programa
programas
progreso
project
prolacertiform
promo
promote
pronolagus
pronounced
prop
proper
properly
propert
properties
property
propertyid
propertyvalue
propia
propiedad
propiedades
propio
propos
propraopus
prosa
prostegotherium
protect
protected
protecting
protection
protegidas
protereotita
protestante
protestantismo
proto
protocol
protolengua
provided
provides
provincia
provincias
proyectos
prozac
prudencio
pruebas
prunus
prusia
przewalskium
ps
psalmodia
pseudostegotherium
pseudosuchian
psicologi
psidium
psittacosaurus
psoe
psyhi
pt
pticas
ptlayo
ptli
ptolomeo
pu
pual
pub
pubescens
public
publicacio
publication
publicationdate
publicationplace
publique
published
publisher
publishername
pubmed
pucara
pucusana
pudu
pue
puebla
pueblo
pueblos
puede
pueden
puedes
puente
puerta
puerto
pues
puesta
pula
pulcherrima
pulque
puma
pun
punc
puncmark
punctuation
punite
punk
punta
punto
puo
pure
purge
puritan
purple
purplepetals
push
put
putin
px
pxlink
pygmaeus
pyramid
q
qa
qhichwa
qu
qualifier
qualifierid
qualifiers
qualifierscount
qualifiersqualifierid
quand
quantity
quatre
quauhtemallan
quauitl
quds
que
quebec
quebrada
quechhuatlahto
quechhuatlahtolli
quechhuatlahtoqueh
quechhuatlaltocayotl
quechintli
quecholtotol
quecholtototl
quechque
quechquemitl
quechtli
quechua
quechuatlahtolcopa
quechuatlahtolli
queda
quedan
queen
queh
quekchitla
quelehuih
quelques
quemada
quemah
quemahniman
queman
quemanticah
quemantzin
quemeh
quemen
quemitl
quemmach
quemman
quen
quena
quenamo
quenia
quenin
quentzin
quercus
quere
queretaro
queries
query
quesada
questions
quetzal
quetzalcanauhtli
quetzalco
quetzalcoatl
quetzalhuehxolotl
quetzalitztli
quetzallan
quetzalli
quetzaltenanco
quetzaltic
quetzalto
quetzaltototl
quetzalxoch
quetzcuitlaomitl
quevedo
quexquich
quez
quezmictiz
quezqui
qui
quia
quiahuitl
quica
quicac
quicahua
quicahuanih
quicahuaz
quicalac
quicalaquiz
quicapotlahtolli
quicatqueh
quicauh
quicelihquen
quicelihqui
quiceliz
quicempanahuia
quicempanhuia
quicencahua
quicenteca
quicentlalih
quicha
quichamanaltih
quiche
quichetla
quichi
quichihchiuh
quichihua
quichihuah
quichihuani
quichihuaya
quichihuayah
quichihuaz
quichiuh
quichiuhqueh
quicnopilhuih
quicua
quicuah
quicuaz
quicuepa
quicui
quicuic
quicuih
quicuinih
quie
quien
quiere
quiero
quiet
quih
quihcuilo
quihcuiloa
quihcuiloah
quihcuiloh
quihcuilohqueh
quihcuiloqueh
quihcuiloz
quihqueh
quihtlanilih
quihto
quihtoa
quihtoah
quihtoaya
quihtoh
quihtohqueh
quihtonequi
quihtoz
quihtoznequi
quihtoznequih
quihua
quihualhuicayah
quihualia
quihualih
quihuallauhtih
quihualquixtih
quihuapahuaz
quihuelittac
quihuelquetz
quihui
quihuica
quihuicac
quihuicaya
quihuicaz
quiihtoa
quiihtoah
quiihtohtoc
quiittatoh
quijote
quil
quilhui
quilhuia
quilhuih
quilia
quilihuatlahtolli
quilitl
quiliztli
quilmach
quilnamacoyan
quiltequi
quiltic
quiltiliztli
quilyolohtli
quim
quima
quimaca
quimacac
quimacahciz
quimacahuilih
quimacaqueh
quimacaz
quimachiyotia
quimachtia
quimacui
quimacuic
quimah
quimamaz
quimanilih
quimaquixtiz
quimati
quimatih
quimatiz
quimauhtili
quimaxiltiah
quimbayah
quimi
quimichin
quimicti
quimictiz
quimilhuiani
quimitquiqueh
quimixpantilia
quimmacaz
quimmat
quimochihuili
quimocuilia
quimocuiliah
quimocuiliaya
quimocuilih
quimocuitlahuiz
quimolhuili
quimolhuilia
quimomachitoca
quimomachtih
quimomachtiz
quimomahce
quimomazoaltiz
quimona
quimonanquilili
quimoncahuaya
quimonemactih
quimonemiliztiayah
quimopaquilih
quimopiya
quimoteotiani
quimotlahtoa
quimottili
quimottiliz
quimottiliznequi
quimoxehxelhuihqueh
quimoyecoltiaya
quimpalehuiqueh
quimpe
quimpiah
quimpiloah
quimpix
quimpiya
quimpiyah
quimpoztequilih
quin
quina
quinahnamiqui
quinahuatia
quinahuatih
quinamaquiltia
quinamoyani
quinanquilia
quinanquilih
quinca
quincalito
quinceliah
quincelito
quinchi
quinchiuh
quincui
quine
quinec
quineltilih
quineltiliz
quineltocah
quineltocan
quineltoquitiz
quinematcaihtoa
quinemilia
quinemiliaya
quinequi
quinequia
quinextia
quinextih
quinextilih
quinezcayotia
quinhualquixtih
quinhualtiliniz
quinhuicac
quinihcuac
quinmacaqueh
quinn
quinnemactiz
quinohnochilih
quinpactiaya
quintana
quinte
quintepan
quintequiuhtih
quinti
quintin
quintitlan
quintla
quintlahtlauhtilih
quintlaliah
quintlamacah
quintlanqueh
quintlatlalochtia
quinto
quintocayotiah
quinyaochihua
quio
quipaccaihiohuiz
quipachoh
quipactecaqueh
quipahtilih
quipale
quipalehuih
quipalehuique
quipaloh
quipanahuia
quipanitlaza
quipannextiah
quipanotlac
quipantlaz
quipantlaza
quipantlazani
quipatla
quipatlac
quipatlah
quipaxolotoh
quipe
quipehua
quipehualtiz
quipepen
quipi
quipia
quipiah
quipiaya
quipiayah
quipiaz
quipihpitza
quipix
quipixqueh
quipixtoc
quipiya
quipiyah
quipiyaya
quipiyayah
quipo
quipohua
quipohuaz
quipolo
quipoloa
quipopoloh
quiquequeloayah
quiquiuhpatoltiliztli
quiser
quite
quitechihualtiani
quitechihualtianimeh
quitehtenehua
quiteilhuih
quiteittitia
quitelchiuh
quitelhuihqueh
quitemaca
quitemacaz
quitemanilih
quitemoz
quitenahuatia
quitenahuatih
quitenehua
quitenehuah
quiteneuh
quitenextilih
quitenextiliz
quitennamiqui
quitenquixtia
quitenquixtiz
quitensis
quiteocihuih
quitequihuiah
quitequitiltia
quitilti
quitiltilia
quitiltiliya
quitimaloh
quititlan
quitla
quitlacatiliz
quitlahcuilo
quitlahtlauhtia
quitlahtlauhtih
quitlahto
quitlahtoa
quitlahtoah
quitlahtoltiz
quitlalcahuiz
quitlali
quitlalia
quitlaliah
quitlaliani
quitlalih
quitlalihqueh
quitlalilih
quitlaliz
quitlamatiz
quitlami
quitlamih
quitlamite
quitlani
quitlatla
quitlatzotzonaz
quitlemah
quito
quitoa
quitoca
quitocah
quitocayotia
quitocayotiaya
quitocayotih
quitoznehqui
quitoznequi
quitqui
quitquia
quitquiz
quitta
quittac
quittaqueh
quittatiuh
quittaya
quittaz
quittepanitan
quitzacuah
quitzahtzayan
quitzahtzilih
quitzintia
quitzintih
quitzomocyehyecoa
quitzonana
quitzonhuiliah
quitzontequia
quitzopa
quixahcicaittac
quixeloa
quixitiniz
quixmah
quixmalhuiaya
quixmati
quixmatih
quixmatqueh
quixote
quixtianayo
quixtianayotl
quixtiani
quixtlamatilih
quiya
quiyaca
quiyahua
quiyahuac
quiyahualoa
quiyahui
quiyahuitl
quiyahuiztla
quiyauhcuauhtlahtli
quiyauhcuauhtlatli
quiyauhtlah
quiyehyecoa
quiyehyecoh
quiyo
quiyocoya
quiyolitih
quiyolitizqueh
quiyollapan
quiyolteohuih
quiyotl
quiyotqui
quiz
quiza
quizaliz
quizaliztli
quizaya
quizca
quizcahuan
quizcani
quizqueh
quizqui
quiztahcic
quote
quoted
quotes
qusqu
r
ra
raba
rabe
race
radcliffe
radiacio
radije
radio
radiohead
radius
rafael
raghu
ragnar
rai
rain
raixa
rajes
rajoi
ralement
rally
rame
rami
ramirez
rammstein
ramo
ramon
ramos
rancho
random
range
ranges
rangifer
rango
ranije
rank
ranking
rankpos
ranks
ranksrankpos
raphael
rapide
rara
raramuritlahto
raramuritlahtolli
raramuritlaltocayotl
rareza
rasgado
rat
rata
rather
ratisbona
rato
ratzinger
rau
rauisuchian
raw
rawset
rawvalue
ray
rayados
rayo
rayons
razorlight
rbita
rbol
rboles
rbulo
rcito
rcoles
rdenas
rdoba
re
rea
read
real
reales
realidad
realizar
really
reas
reason
reasons
reassembling
rebelde
recent
recherchez
reciente
recientes
recognized
recommended
record
records
recuerdos
recuperado
recursos
red
redireccio
redirecciones
redirect
redirects
redondo
redundant
reel
ref
reference
references
referenceurl
referencias
refhash
reflections
reforma
reformah
refparts
regardless
regeneracio
reggae
regia
regimiento
regina
regio
region
regional
regiones
registered
registration
registrationrequired
registro
regreso
reikiavik
reine
reino
reinosa
reise
reissue
rejo
relacionadas
relaciones
related
relative
release
released
relevant
religion
rem
remains
remap
remedios
remember
remi
remix
remixes
removalnotice
remove
removeblanks
removed
removes
renacimiento
rename
renault
rendered
rendering
rendez
rene
reno
renoir
renualt
reo
repeat
replace
replacealias
replaced
replacedecimalmark
replacement
replaces
replacespecialchars
repo
report
reporte
reports
representativa
represents
reptile
repu
republic
republica
republika
req
request
requested
requiere
require
required
requires
requiring
rerum
res
reserva
reservoir
reset
residencia
resolucio
resorte
resource
resources
respond
responder
responderemos
respondrem
respuestas
restore
restored
result
resultado
resultadoindice
resultparam
resultparameters
results
ret
retiro
retrieval
retrieved
retrv
return
returned
returning
returns
reunio
reunion
reuse
rev
reveal
revelacio
revelations
revenge
revert
reverte
reverted
review
revision
revisions
revista
revival
revolucio
revolucionario
revolution
revolver
revueltas
revueltosaurus
rex
rey
reyes
reynosa
rez
rfc
rft
rgano
rgba
rgenes
rhabdodon
rhea
rhead
rhin
ri
ria
ribera
ric
rica
ricardo
ricas
rice
rich
richard
richter
rickman
rico
ricos
rida
ride
rie
ries
riga
right
rights
rika
rimaq
rin
rinco
ring
ringo
rio
rioja
riordan
riostegotherium
risponderemo
rita
rito
ritu
river
rivera
riya
riyya
rm
rmica
rmula
rn
ro
road
roadster
roald
roasted
robert
roberto
roberts
robin
robinson
robles
robot
roci
rock
rocks
rocky
rocosas
rocq
rod
rodin
rodolfo
rodri
rodrigo
rodriguez
rogelio
roja
rojas
rojo
roll
rollback
rolling
roma
roman
romana
romance
romanesco
romanitlahto
romano
romanos
romate
romatla
romatlacah
romatlahto
romatlahtolli
romayotl
romeo
romero
romerolagus
romo
roo
room
root
ropa
rosa
rosaceae
rosada
rosales
rosalia
rosario
rosarito
rosas
rosaura
rose
roseate
roses
ross
rossini
rosso
round
roundstone
row
rowan
rowargs
rowclass
rowid
rowling
rownums
rows
rowspan
rowstyle
roy
royal
royaux
rpa
rquez
rraga
rrez
rs
rt
rterbuch
rth
rtico
rts
ru
ruanda
rubbernecking
rube
ruben
rubens
rubi
rubra
rucervus
rueda
rug
rui
ruiz
ruled
rulfo
rumania
rumaniatlahto
run
runa
running
rusa
rush
rusia
rusiah
rusiatecatl
rusiatla
rusiatlahto
rust
rutaceae
rwanda
s
sa
saavedra
sabactani
sabanicola
sabe
sabor
sacra
sacramento
sacrificio
sacro
sad
safe
safiro
saga
sagan
sagittarius
sagrada
sahagu
sahara
saiga
saint
saj
sajo
sajones
sakatekah
sakatl
sakatlan
sakauili
saki
salado
salamanca
salazar
sale
salem
sales
salgado
salgari
salicaceae
salida
salina
salinas
salix
salle
salo
salomon
saloon
saltillo
salto
salud
salvador
salvaje
salvatore
salvia
salvo
salzburg
sam
samalayuca
sambar
same
sampa
sampayano
sample
samsung
samuel
samurai
san
sanborn
sanchez
sanctorum
sanctuary
sandal
sandbox
sandokan
sandoval
sandovalin
sandunga
sanedrin
sangre
sanihki
sanitizedataset
saniwki
sankeh
sankemman
sanmohtoa
sano
sanoyej
sanpampa
sans
sanscritotlahto
sanse
sansejko
sant
santa
santander
santi
santiago
santiagueros
santitos
santo
santomeh
santorini
santos
sao
sapindales
sapota
sapotaceae
sar
sara
sarah
sarcoramphus
sardegna
sasanilmeh
sat
sate
satelital
satelitales
satepan
satis
saturnino
satyajit
sau
saudarabia
sauvignon
save
saved
saxofo
say
sayo
scale
scar
scara
sce
scenes
scheme
schließlich
schnee
schneeleopard
scho
school
schoolshorts
schrift
schumacher
schwimmender
science
sciences
scientist
sciurus
sco
scope
scotland
scott
screen
script
scripts
scripttitle
scrittura
scutenaire
sd
se
sea
seagal
seamus
search
searchbuttonlabel
searching
sears
season
seasons
seat
seattle
sebastia
sebastian
sebastopol
sec
seccio
seccion
secciondesplegable
secciones
second
secondary
seconds
secrecy
secret
secretari
secreto
secrets
secsymbol
sect
section
sections
secuencia
secunda
secundaria
sed
seda
sede
see
seed
seeds
seen
sefarditlacameh
segerrores
segob
segovia
segu
seguimiento
seguir
segunda
segundo
segundos
seguro
sehse
sei
sej
seki
sekij
sekimej
sekin
sekinoj
sekinok
sekinokeh
sekitok
sekkoyok
seleccio
select
selecta
selected
selena
self
selfclosing
sell
semana
semanaj
semanalistli
semanauak
semanauamatilistli
semantok
semarnat
sembe
semi
semidesintegracio
semilla
seminary
sempa
sempouali
sempoualxochitl
sempowalli
sen
send
senegal
senka
senkah
senpouali
sense
sent
sentadas
sente
sentido
sentik
sentikmasewalmeh
sentiktlapehpenolpa
sentipah
sentipan
sentlamatilisamoxtli
senyelistli
senyilistli
seok
sep
sepa
sepan
separador
separate
separated
separator
separators
sepc
septemcinctus
septentrional
septiembre
sequence
sequin
ser
sera
serbia
serbiatlahto
serda
sergej
sergio
seri
serial
serie
series
serieslink
seriesno
seriesnumber
seritlahtolli
serna
serpens
serpiente
serra
serrano
serrat
servando
server
service
servicio
ses
sessions
set
setformatandseparators
setmetatable
sets
setsi
setting
settings
seua
seul
seven
several
sevilla
sexo
sexto
sexual
seyhan
seyok
seznam
sfera
sh
shackle
shade
shadow
shadows
shake
shakespeare
shakira
shame
shampoo
shanghai
shannon
sharan
share
shared
shawn
she
sheet
sheets
shenzhen
shepherd
sherlock
shibakouen
shima
shindoon
shine
shinto
ships
shiraki
shiver
shop
shore
short
shortname
shorts
should
show
showbiz
showerrors
showing
showinvalidtypeerror
shown
shroeder
si
sian
siberia
sic
sica
sicas
sicilia
sicilianu
sico
sicos
side
sidebar
sides
sido
sidra
sie
siecle
siehuali
siempre
sierra
sierre
siete
sig
siglo
siglos
sign
signatures
significados
signo
siguiente
siguientes
sigur
sil
silencio
silesaurid
silla
siluriformes
silva
silver
silvestre
silvestris
sim
sima
sime
simeo
simeon
simi
similar
simo
simon
simone
simple
simpson
simpsons
sims
sin
sinaloa
sinatra
since
sinensis
sing
singapur
single
singleclaim
singles
singlevalue
sings
singuilucan
singular
sinmarco
sinmilij
sino
sinonimos
sintli
siprage
siqueiros
sir
siria
sismolo
sistema
sistemaoperativo
sister
sisters
site
siteid
sitelink
sitelinks
sitelinkscfg
sites
sitio
sitioweb
sitiowebarchivo
sitlalmichij
sitlaltlali
sitos
situacio
siuamej
siuapil
siuatl
siwameh
siwatlampa
siwatlanpa
sixteenth
size
sizing
sjabloon
sk
skin
skip
sky
skyline
skłodowska
sl
slide
slider
slim
slip
small
smallparam
smalltext
smells
smile
smith
smo
smoke
snak
snakequalsvalue
snaks
snaksaliasesp
snaksdtype
snaktype
snakvalue
snow
snowed
so
soba
sober
soberano
soberanos
sobre
soccer
social
socialista
socie
sociedad
society
socorro
soda
sodi
sodio
sofa
soft
software
sogn
soj
sokichiujkej
sokichiwkeh
sokitl
sol
sola
solamente
solanaceae
solanum
solar
solares
sold
soldier
soledad
soleil
soler
soles
solicitar
solid
solidaridad
solis
solitude
solo
solola
somalia
sombras
sombrero
some
somebody
someone
something
sometimes
somevalue
somewhere
somos
son
song
songes
songs
sonido
sonika
sonora
sonoraxeliuhca
sons
sony
sophia
soporte
sor
soriana
sorpresa
sorry
sort
sorted
sortindices
sosa
sosoltik
sostenes
soto
sototlahto
sots
sou
souhaitez
soul
soumaya
sound
sounds
soundtrack
source
sourced
sourcedonly
sources
south
southern
southwest
southwestern
souvenir
souvenirs
sovie
soviet
soyotik
sp
spa
space
spaced
spaces
spacey
spacing
spain
span
spanish
sparingly
sparseconcat
speak
special
species
specific
specified
specify
speech
speed
speedy
spelled
spelling
spermatophyta
spessart
sphenarium
spiazza
spilogale
spindle
spiral
spiralling
spirit
spizaetus
split
spoonbill
sport
spp
sprichst
spring
sq
square
squeda
squetbol
squez
sr
sri
srt
ss
ssarviken
ssica
ssp
ssrn
st
sta
stable
stage
stairs
stanca
standard
standing
stanford
star
starlight
starr
stars
start
starting
starttime
starttimed
starttimem
starttimey
state
stated
statedin
statement
statements
states
statesparam
statesparameters
static
station
statistics
status
steele
stegosaurus
stegosimpsonia
stegotherium
steidl
stella
step
stephen
stepnoi
stereo
sterreich
steve
steven
stewart
stica
sticas
stick
stico
still
stin
stlajtol
stlajtoli
stlajtoltika
stockholm
stol
stoles
stomo
stone
stones
stop
stored
stores
storm
storni
story
stq
str
stragi
strains
strand
strange
strangers
strasbourg
straw
street
streets
strformat
string
strings
strip
stripped
strix
strogoff
structure
struthiosaurus
stryear
stt
studies
study
stuff
stuttgart
stvar
style
styles
styling
styraciflua
su
sua
suahilitlahto
suatitlahto
suave
suazitla
sub
subcadena
subfamilia
subge
subheader
subheaderrowclass
subheaderstyle
subject
subjectlink
subjectns
submarine
submit
subpage
subpageno
subpageonly
subpages
subscription
subscriptionrequired
subst
substitute
substituted
subtitulo
subtype
succeeded
success
successful
successfully
succession
sucedidopor
sucesio
such
suchst
sucios
sudan
suecia
suen
suerte
suffix
sugar
suggest
suggestions
suhrkamp
suiza
sul
sulfate
sullivan
sum
sumaya
summary
summer
sun
sunburn
sunos
sunrise
sunset
sunshine
suomi
super
superficie
superior
superiores
supermassive
supersaurus
superstar
superstition
supply
support
supported
supposed
suppress
suppressed
suppression
sur
sure
sureste
surfer
surinam
surname
surrealismo
survey
sus
susan
susana
sussex
sutt
suva
suyodhana
sv
sva
svg
sw
swayambhunath
sweet
swift
swim
switchlang
sydney
sylvilagus
symbol
symmetry
symphony
syn
syndrome
syndromme
synonym
syntax
sysop
system
systema
søren
t
ta
tab
tabasco
tabla
tablas
table
tables
taboada
tabs
tac
tacana
tacaxtli
tachauhca
tachcauh
tachichiu
tacna
tacon
tacubaya
tadeo
taekwondo
tag
tagalotlahto
tagaste
tagetes
tagname
tags
tah
tahtli
tahuizan
tahyotl
taifas
tail
tailandia
tailed
tainotlacameh
taironah
taisyekana
tait
taitlahto
taiwan
taji
tajkuilol
tajo
tajtoua
tajtouaya
takaloh
takat
take
taken
takes
takeshi
taketzalis
taktso
tal
talbot
talento
talk
talkargistalkpage
talktext
talktitle
talli
talpachojke
tam
tamachi
tamaj
tamal
tamales
tamali
tamalli
tamalmej
tamame
taman
tamaulipas
tamazolin
tamazunchale
tambie
tamillahto
tamp
tampico
tan
tanemilil
tang
tanga
tango
tangola
tano
tantoyuca
tanystropheus
tanzania
taos
tapa
tapachula
tapajtijke
tapar
tapayaxin
tapia
tapirus
tarandus
tarantella
tarbosaurus
tarde
targa
target
tarkan
tarnovo
taro
tarragona
tasquen
tat
tata
tatajkonemilis
tatani
tateuilis
tatsosonani
tatzin
taurus
taxdho
taxi
taxodium
tay
tayiquistan
taza
tbilisi
tbl
tbol
tc
tca
tci
tcommon
td
te
teachcauh
teachcauhtin
teahuayoh
teatro
teau
teca
tecactli
tecah
tecalli
tecamac
tecate
tecciztli
teceliloyan
tecentlaliliztli
tech
techachaj
techalaniani
techalo
techalomeh
techalotl
techcopa
techichi
techicoihtoliztli
techiuhcayotl
technical
techpa
techpahui
techpocah
techpocamej
techpocatl
techreport
teci
tecihuaconeuh
tecnolo
tecnologi
tecochtli
tecolli
tecolotl
tecomate
teconalli
teconeuh
teconxinachtli
tecpa
tecpan
tecpancal
tecpanchantli
tecpantlahtolli
tecpatl
tecpilli
tecpiltihcayotl
tecpin
tectli
tecua
tecuaatequiliztli
tecuacan
tecuacanayotic
tecualancanamiquiliztli
tecuanes
tecuani
tecuanimeh
tecuano
tecuantepec
tecuatequilizotl
tecuexanoani
tecuexanoloyan
tecuhtin
tecuhtli
tecuhyotl
tecui
tecuicihtli
teeahkomanalistli
teeche
teen
teetlalkwihkwilistli
teeyolewalistli
tegui
teh
tehcampa
tehhua
tehhuatl
tehtlahtol
tehua
tehuaca
tehuahcan
tehuantin
tehuatl
tehuelquetzaliztli
tehuemman
tehuilacachtli
tehuilananimeh
tehuilotl
tehuitztli
teiccahuan
teicniuhtzin
teicnomatini
teide
teignmouth
teihcaliliztli
tein
teipa
teipaj
teipan
teixcuitiani
teixehualiztli
teixehuani
teixehuanimeh
teixelehuiani
teixhuinopan
teixhuinotl
teixiptlatiliztli
teixmauhtiliztli
teixnamiquiliztli
teizcaltiliztli
tejkistli
tejn
tejte
tekax
tekichiualistli
tekiti
tekitih
tekitij
tekitilistli
tekitinih
tekitl
tekiuajyotl
tekiyakantli
tekoko
tekpiltlajtokan
teksistepek
tekuajketl
tekuaketl
tekuani
tekuanimej
tekwakwilmeh
tekwani
tekwanimeh
tel
telchi
telchpocah
telconalli
telebachillerato
teleconferencias
telefunka
telegram
telesecundaria
telesucundaria
televisa
televisio
tell
telmatosaurus
telmo
telolohtlah
telpocameh
telpochcalli
telpochtli
telpochyotl
telpokameh
telpokamej
teltlahtoani
telugutlahto
tem
tema
temaca
temachitiani
temachtia
temachtiah
temachtiani
temachtianih
temachtianimeh
temachtilistli
temachtiliztli
temachtilli
temachtiloyan
temahmauhtiliztli
temamatlatl
temamauhtic
temamauhtini
temamauntinimeh
temapachic
temapachin
temaquixtilani
temas
temasatl
temascaltepec
tematiantic
temaxac
temazate
temazatl
temazcalapan
temazcaltepec
temazcaltzinco
temazoa
temazoaya
temazoliztli
teme
temetztli
temictiliztli
temiquiliztli
temixihuitiliztli
temixihuitiz
temizco
temo
temoa
temoachan
temoc
temocpan
temoctica
temotzololiztli
temp
temperatura
templat
template
templatecat
templatecategory
templatecategoryrequirename
templatedata
templateerrorcategory
templatename
templates
templatesort
templatetitle
temple
templo
temprano
temps
ten
tena
tenacatl
tenahuatilli
tenam
tenamic
tenamiki
tenamitl
tenan
tenancan
tenapaloani
tenapalohcayotl
tenapalolizotl
tenapaloliztlanepanolizotl
tenapaloliztli
tenayohcan
tendencias
tenehualiztli
tenehualo
tenemachitiliztli
tenemilizhuipanalizotl
tenemilizpoalli
tenemilizpoanimeh
tener
tenerife
tenextik
tenextlapali
teni
tenihzaloni
tenis
tenkokokej
tennessee
teno
tenochkah
tenochtita
tenochtitla
tenochtitlan
tenontosaurus
tenorio
tentimani
tentli
tentzonehqueh
tenya
tenyo
tenyoh
tenyohtica
tenyoj
tenyotica
tenyotl
teo
teocalco
teocalhueyacan
teocalli
teocalmecac
teocaltlatlalizotl
teocaltzacualli
teocotl
teocuahuitl
teocuicatl
teocuitlatetl
teocuitlatl
teogoni
teoh
teohuah
teohuahcan
teoicniuhtli
teoilhuitl
teolo
teomatiliztli
teomeh
teomicqui
teoneltococayotl
teonochtli
teopan
teopantli
teopatiliztli
teopixcacan
teopixcatlatoani
teopixcayotl
teopixqueh
teopixquex
teopixqui
teori
teotetl
teotihuacan
teotihuahcan
teotitlan
teotiuajkan
teotiuajnij
teotiwahmeh
teotiwakeh
teotl
teotlac
teotlacatl
teotlahcuilolli
teotlahcuilotl
teotlahtolihtlacoliztli
teotlahtolli
teotlahtollotl
teotlalco
teotlalli
teotlalnetoqueh
teotlamatiliztli
teotzin
teoxihuitl
teoyaohuan
teoyaotl
teoyoh
teoyohqueh
teoyolcatl
teoyolcatzin
teoyoliatl
teoyotica
teoyotl
teozaliztli
tepa
tepachianih
tepachoa
tepachoani
tepachohcan
tepacholiz
tepacholiztli
tepahtiah
tepahtiani
tepahtianih
tepahtiloyan
tepajtiket
tepajtiketl
tepal
tepaltzinco
tepan
tepanahuiliztli
tepane
tepanecah
tepanecatl
tepantilo
tepantlahtoani
tepantli
tepapaquiltiliztli
tepe
tepeapolco
tepehuahcan
tepehualiztli
tepehuani
tepehuanimeh
tepehuantlahtolli
tepeliztli
tepemeh
tepemej
tepenahuac
tepeoztoyotl
tepeticpac
tepetl
tepetla
tepetlah
tepetlahco
tepetlampa
tepetlan
tepetzalan
tepetzinco
tepetzintla
tepetzintli
tepeuajkan
tepeyacac
tepeyahualolli
tepeyoh
tepeyohcan
tepeyohtic
tepeyoj
tepeyolkej
tepeyolotl
tepic
tepiltzin
tepito
tepiton
tepitoton
tepitzin
tepitztic
teplantlahtoh
tepo
tepochcalli
tepochcaltlamachtiloyan
tepocolcoatl
tepoli
tepolli
tepoltlanexilotl
tepoltzontli
teponaztli
tepostekko
tepostsakuali
tepotzcuacuahueh
tepotzohtla
tepotzohtlan
tepoxteco
tepozamoxiuhcuiloloni
tepozcalli
tepozcaxitl
tepozco
tepozcoaohtli
tepozcoatilohuayan
tepozcoatl
tepozcuaitl
tepozma
tepozmaccuahuitl
tepozmacuahuitl
tepozmalacatic
tepozmalacatl
tepozmalacatzin
tepozmalacayo
tepozme
tepozmecatl
tepozmetztli
tepozmo
tepozocuilin
tepozohtli
tepozquiquiztli
tepozteco
tepoztequitiyotl
tepoztlachihualtic
tepoztlacopinalli
tepoztlahcuilo
tepoztlahcuilolli
tepoztlamantli
tepoztlatopo
tepoztlatquitl
tepoztli
tepozto
tepoztotoquixohuayan
tepoztototl
tepoztototlatiloyan
tepozyo
tepozyolotl
tequechmateloanimeh
tequi
tequicalli
tequichihualizcopa
tequichihualiztli
tequihuah
tequihuahmeh
tequihuiliztli
tequila
tequiliztli
tequilla
tequinemiliztli
tequipano
tequipanoa
tequipanoh
tequipanoliz
tequipanolli
tequipanolti
tequipanoltih
tequit
tequitih
tequitilia
tequitiliz
tequitiliztli
tequitilizyolqui
tequitini
tequitinih
tequitiuhqueh
tequitiyayah
tequitl
tequitzacuiliahzqueh
tequiuh
tequixquiac
tequixquitl
tequixtiliztli
tequiyo
tequiyotica
tequiyotl
tercera
teresa
terminacio
terminal
terms
tero
terra
terranova
terraza
territorio
territorios
terry
tesis
tesoro
test
tested
testigos
testing
tests
tetahtzin
tete
tetech
tetehteoh
tetehuitl
tetelli
tetenehuatlapohualli
teteo
teteoh
tetitlaniliztli
tetitlaniztli
tetl
tetlacaquiltiliztli
tetlahcuilo
tetlahtlacolnextiliztli
tetlahtlahuiliztli
tetlahtolmachtiani
tetlahtoltiliztli
tetlaixpantiliztli
tetlalananih
tetlalanquetl
tetlamacaliztli
tetlamahmaquiliztli
tetlamatilizmachtiani
tetlanahuatiani
tetlaneltoquitiani
tetlaneltoquitiliztli
tetlanohnochililiztli
tetlapiquiliztli
tetlapohuililiztli
tetlatzacuiltiliztli
tetlatzontequililiztli
tetlauhtilli
tetlaxtlahuiliztli
tetlazohhuan
tetlazohtlaliztli
tetloc
teto
tetohtoquiliztli
tetohtotzani
tetoquilih
tetrao
tetraploid
tetzactic
tetzacuticatetzacutica
tetzcoco
tetzcohco
tetzicatl
tetzmollohcan
tetzontepec
tetzontli
tetzontzapocuahuitl
teuctli
teuctocaitl
teuctzin
teuctzincalpan
teuctzintli
teucyoh
teucyotl
teuh
teuhtli
teuto
teutonte
teutontla
teutontlahto
teutontlahtolli
teutontlalpan
tevetog
tex
texachtli
texas
texcalco
texcalli
texcoco
texcohcah
texcohco
texhuino
texistepec
texistepek
texnamacoyan
texococuahuitl
texocotl
texohtic
texohtli
text
textcell
textcelldiv
texte
textli
texto
textocorregido
textopie
textounidad
textstyle
teyaca
teyacanaliztli
teyacanaquiuh
teyacanqui
teyacatih
teyacatihqueh
teyaochihuani
teyaochiuhcayotl
teyaochiuhqui
teyaotlacah
teyoh
teyolahcocui
teyolitiliztli
teyollohtiliztli
teyolmahxiltiliztli
teyotl
tezcatl
tezcatlipo
tezcatlipoca
tezohzomoc
tezol
tezontzapotl
tezozo
tezozomoc
th
tha
than
thank
thanksgiving
that
thatolli
the
their
thelma
them
theme
then
theological
theory
therapsid
there
therefore
theropod
thesaurus
these
thesis
they
thin
things
third
this
thlispi
thomas
thompson
thomson
thong
thorstein
those
thoughts
thousand
three
through
throwerror
thumb
thumbnail
thumbtime
thunder
thz
ti
tia
tiachcauhtli
tiah
tiamicacalli
tianchisaurus
tianguis
tiani
tiankisko
tianquizco
tianquiztli
tiayankistli
tibet
tiburcio
tiburo
tic
tica
ticah
ticamente
ticas
ticcencuiliah
ticchi
ticchihuaz
tichanti
ticket
ticmopancholhuiz
ticnequi
tico
ticos
ticpac
ticpatlaz
ticpiya
ticpiyah
ticte
tictocayotia
ticul
tideriatl
tidiedval
tidyval
tie
tied
tiempo
tiempos
tiene
tienedatosfila
tienen
tienes
tiernas
tierra
tiger
tigo
tigre
tigri
tigris
tih
tihnequi
tihualah
tihuan
tihueli
tihueliti
tihuelitiah
tiikwan
tijiana
tijkuas
tijuana
tik
tikal
tikat
tikchi
tikiniluiya
tikitakaj
tikiyaya
tikmatis
tikneki
tiktokas
tikwa
til
tila
tilcara
tiles
tili
tilictic
tiliz
tiliztli
tiliztliquihto
till
tilma
tilmahnamacoyan
tilmahtli
tilmahuitl
tiltik
tim
tima
timalolo
timaloloc
timaseuasej
timbre
timbu
time
timecaption
times
timestamp
timezone
timo
timor
tin
tina
tine
tinejnemis
tinemizqueh
tini
tinimeh
tintoretto
tiopan
tip
tipiyah
tipo
tipos
tiposoftware
tiquihcuiloz
tiquilhuiz
tiquitta
tiquittaz
tiquittaznequi
tiquixmauhtih
tirana
tis
tita
titanic
tite
titekuiya
titl
titla
titlachiya
titlahcuilo
titlahtoa
titlamactianij
titlan
titlanco
titlano
titlantin
titlapale
title
titleclass
titlelink
titlenote
titleobj
titles
titlestyle
titletext
titletype
titlt
titokajmatij
titre
titulo
tituloseccion
tiualajkej
tiuh
tiweli
tixiyotis
tiya
tiyanquiztenco
tiyanquiztiloyan
tiyanquiztli
tiyaquiztli
tiz
tizatla
tizayohcan
tizian
tiziano
tiznada
tizoc
tl
tla
tlaa
tlaachcauhtilli
tlaahxiltilli
tlaahximeh
tlaahxitl
tlac
tlaca
tlacachantli
tlacacoyeliztli
tlacah
tlacaliztli
tlacallotilli
tlacallotl
tlacamayeh
tlacameh
tlacametl
tlacamichin
tlacamilqueh
tlacaneciliztli
tlacanemitiliztli
tlacanexqueh
tlacaqui
tlacat
tlacatecolotl
tlacatehtemoanih
tlacatepacholiztli
tlacatetehuitl
tlacateteuhtin
tlacateuccan
tlacateuctli
tlacati
tlacatia
tlacatian
tlacatilitzin
tlacatilizilhuitl
tlacatiliztli
tlacatiya
tlacatiyampa
tlacatiyan
tlacatiyanco
tlacatiyanilhuitl
tlacatiz
tlacatl
tlacatlahtocayotl
tlacatlahtohcayotl
tlacatlalticpac
tlacatlalticpactli
tlacatocaitl
tlacatototl
tlacatqui
tlacatzin
tlacatzintli
tlacaxohxouhcatiliztli
tlacaxolomazatl
tlacaxolotl
tlacaxoxouhcayotl
tlacayaoyotl
tlacayomeh
tlacayotl
tlacazcac
tlace
tlaceceya
tlaceceyan
tlacehcentlaliliztli
tlacehcentlaliztli
tlacemmatilizotl
tlacempanahuia
tlacempanahuiani
tlacempoaliztli
tlacempohualiztli
tlacentla
tlacentlamianiliztli
tlacepanyecoltiani
tlacetili
tlacetilia
tlacetilillahtohcayotecatl
tlacetililli
tlacetilli
tlachco
tlachi
tlachicna
tlachico
tlachiconti
tlachicuazti
tlachicue
tlachihchiuhcayotl
tlachihua
tlachihuah
tlachihualcalli
tlachihualcaltin
tlachihualiztic
tlachihualiztli
tlachihualli
tlachihualo
tlachihualoh
tlachihualotiliztli
tlachihualtin
tlachihualtlacayotl
tlachihuani
tlachihuanimeh
tlachihuatlacayatl
tlachihuatlacayotl
tlachijchikej
tlachijchiuaj
tlachipinia
tlachiua
tlachiualistli
tlachiualok
tlachiucna
tlachiucnauhti
tlachiuh
tlachiuhcan
tlachiuhcayotl
tlachiuhqui
tlachiuhtlacayotl
tlachiuhtli
tlachixtocqueh
tlachiya
tlachiyaliztli
tlachiyaloyan
tlachpatoliztli
tlachquiyauhco
tlachtli
tlachyacac
tlacintli
tlaciuhcayotl
tlacneliani
tlacneliliztli
tlacneliltin
tlaco
tlacochcalcatl
tlacocuauhtli
tlacohcomoni
tlacohcoxonilli
tlacohualoni
tlacolula
tlacomolli
tlacoocelotl
tlacopa
tlacopan
tlacoto
tlacoyahuah
tlacoyahualiztli
tlacpac
tlacticpactli
tlactli
tlacua
tlacuache
tlacuachin
tlacuah
tlacualca
tlacualcalli
tlacualcaxitl
tlacualcayo
tlacualcayotl
tlacualchihualoyan
tlacualcoya
tlacualhuetzililli
tlacualiztli
tlacualli
tlacualo
tlacualoya
tlacuepaliztli
tlacuepalli
tlacuepcayotiliztli
tlacueptli
tlacuetlayan
tlacueyo
tlacui
tlacuicaliztli
tlacuicuiliztli
tlacuihcuilli
tlacuiloliztli
tlacuilolli
tlacuitlapanca
tlacxitoquililoni
tlae
tlaelpantlan
tlah
tlahcahtli
tlahchilohuaya
tlahcica
tlahco
tlahcohuaccaixtlahuatl
tlahcoixachitla
tlahcomiztli
tlahcopampa
tlahcopan
tlahcotlalticpac
tlahcuillo
tlahcuilo
tlahcuiloa
tlahcuiloani
tlahcuiloh
tlahcuilohqueh
tlahcuilohua
tlahcuilolamatl
tlahcuiloliztli
tlahcuilolli
tlahcuilolotica
tlahcuilomeh
tlahcuiloni
tlahcuiloyotl
tlahko
tlahkwilohkayotl
tlahkwilolamatl
tlahkwilolli
tlahmachtli
tlahnamiquiliztli
tlahpalo
tlahtec
tlahtic
tlahtlachiuhtli
tlahtlaco
tlahtlacolli
tlahtlaniliztli
tlahtlao
tlahto
tlahtoa
tlahtoah
tlahtoani
tlahtoanicpalli
tlahtoanih
tlahtoanimeh
tlahtoayah
tlahtoca
tlahtocac
tlahtocapilli
tlahtocateixiptla
tlahtocatlahtoani
tlahtocauh
tlahtocayoh
tlahtocayotl
tlahtocayouhtic
tlahtohca
tlahtohcapilli
tlahtohcate
tlahtohcatlahtoani
tlahtohcatlahtoanimeh
tlahtohcauh
tlahtohcayocepancah
tlahtohcayoh
tlahtohcayotecah
tlahtohcayotl
tlahtohkayotl
tlahtohqueh
tlahtohqui
tlahtohquih
tlahtokayotl
tlahtol
tlahtolamoxtli
tlahtolcaquiliztiloni
tlahtolcencahualli
tlahtolcenyeliztli
tlahtolcopa
tlahtolcuepaliztli
tlahtolcueptli
tlahtolihcuiloani
tlahtolihcuiloliztli
tlahtoliz
tlahtoliztli
tlahtolkakilistiloni
tlahtollaliani
tlahtollalizotl
tlahtollaliztli
tlahtolli
tlahtollotl
tlahtolmatiliztli
tlahtolmatinimeh
tlahtolmeh
tlahtolmelahualiztli
tlahtolmelahuiliztli
tlahtolmoyahualiztli
tlahtolnextiani
tlahtolnextihcayotl
tlahtolnextiliztli
tlahtoloyan
tlahtolpoaliztli
tlahtolpohualiztli
tlahtolqueh
tlahtoltecpanaliztli
tlahtoltica
tlahtoltin
tlahtoltlahkwilolli
tlahtolxitlauhcayotl
tlahtoqueh
tlahtotlaltequilizcayotl
tlahtoyayah
tlahua
tlahuac
tlahuactli
tlahuantli
tlahuehcatenehualiztli
tlahuel
tlahuelcaqui
tlahuelmaya
tlahuelmayan
tlahui
tlahuicaltin
tlahuicapan
tlahuilanoni
tlahuilcaltin
tlahuilli
tlahuiltic
tlahuiztli
tlahzo
tlahzolli
tlai
tlaicxitocacayotl
tlaihiyohuatilocqueh
tlaihmatiliztli
tlaihtic
tlaihualli
tlaijtik
tlailli
tlainayalli
tlaixco
tlaixcopinaliztli
tlaixcopinalli
tlaixcopinalmatiliztli
tlaixehualli
tlaixihmachtilli
tlaixihmachtli
tlaixiptlayotl
tlaixmatiliztli
tlaixnextiani
tlaixpanilli
tlaixpanyotl
tlaixpayotl
tlaixpializotl
tlaixpohualiztli
tlaixpololiztli
tlaixquetzalli
tlaizpopoliz
tlaj
tlajko
tlajkuiloli
tlajli
tlajtojli
tlajtokajyotl
tlajtokayomej
tlajtokayotl
tlajtol
tlajtoli
tlajtolij
tlajtolkakilistilonij
tlajtolmej
tlajtoua
tlajtsoma
tlakaj
tlakameh
tlakamej
tlakamichij
tlakatik
tlakatki
tlakatl
tlakatsi
tlakaxoxowkayotl
tlakayotl
tlakilyotl
tlakitkali
tlakopinkayotl
tlakuachimej
tlakuaj
tlakuali
tlakualistli
tlakwalistli
tlal
tlalajmikilistli
tlalayawalko
tlalcacahuatl
tlalcamohtli
tlalcemanahuayotl
tlalco
tlalcolo
tlalcoyotl
tlalcuetzpalli
tlalhua
tlalhuac
tlalhuacpan
tlalhuactli
tlalhuitzitzilin
tlali
tlalia
tlalichticco
tlalilanketl
tlalili
tlalimej
tlalin
tlalixnepantilistli
tlalkamaktli
tlalkoajtitlan
tlalkualistli
tlalkuanextli
tlallachtli
tlallahtocayotl
tlallamikilismeh
tlallamikilistli
tlalli
tlalliipitzahuayan
tlallotl
tlalmachiyotl
tlalmamalhua
tlalmaza
tlalmej
tlalmi
tlalmiquiztli
tlalnahuac
tlalnamikilistli
tlalnantli
tlalneltoca
tlalnepantla
tlalnepantlah
tlalnetoqui
tlalo
tlaloc
tlaloce
tlalocpan
tlalokan
tlalolin
tlalozomahtli
tlalpacholokeh
tlalpan
tlalpilli
tlalpixcayo
tlalpixcayotl
tlalpixqueh
tlalpiyalmej
tlalpiyamej
tlalpizqueh
tlalpo
tlalpoloani
tlalpololiztli
tlalquipac
tlalquixtiani
tlalquixtianimeh
tlalquixtihcayotl
tlaltecoyan
tlaltecpatl
tlaltekpaktli
tlaltentli
tlaltepaktli
tlaltepetlalpan
tlalticpac
tlalticpaccayotl
tlalticpacmatiliztli
tlalticpactli
tlaltihpahtle
tlaltikpak
tlaltikpaktli
tlaltikpakyohkayotl
tlaltin
tlaltipac
tlaltipactli
tlaltipajtli
tlaltipaktli
tlaltocaitl
tlaltocayotl
tlaltojkayotl
tlaltokajyotl
tlaltokayotl
tlalxeliuhcayotl
tlalxelolli
tlalxihtli
tlalxonecuilli
tlalyacatl
tlalyo
tlama
tlamacazqueh
tlamaceuhcayotl
tlamaceuhqueh
tlamachihchiwalistli
tlamachiyo
tlamachiyotiliztli
tlamachti
tlamachtiani
tlamachtianih
tlamachtianij
tlamachtijni
tlamachtilcalco
tlamachtilcalli
tlamachtilistli
tlamachtiliyan
tlamachtiliztli
tlamachtilli
tlamachtiloyan
tlamachtiltekitl
tlamachtiltequitl
tlamachtiltlayacanquetl
tlamachtiltlayakanketl
tlamachtiyan
tlamachtiyanih
tlamachtiyanij
tlamactli
tlamacuilti
tlamahmaquiliztli
tlamahtla
tlamahuichihuani
tlamahuichihuanih
tlamahuizo
tlamahuizollacatl
tlamahuizolli
tlamahuizoltequitiliztli
tlamahuizoltequitini
tlamahuizotilli
tlamamtli
tlamanalhuiani
tlamanalhuiliztica
tlamanalli
tlamaneloa
tlamaneloliztli
tlamaniliztli
tlamanitiliztli
tlamaniztli
tlamanti
tlamantic
tlamantiliztli
tlamantin
tlamantli
tlamatcayeliztli
tlamati
tlamatilistli
tlamatiliz
tlamatilizcopa
tlamatilizneneuhcayotl
tlamatiliztli
tlamatini
tlamatinimeh
tlamatizqiazqueh
tlamatizquiazqueh
tlamatocac
tlamentli
tlami
tlamiliz
tlamiliztli
tlamini
tlamiz
tlampa
tlan
tlana
tlanacazantli
tlanahnamictilizotl
tlanahuahquez
tlanahuatiliztli
tlanahuatiltiani
tlanahuatini
tlanaliuhtoc
tlanaliuhtoctlalli
tlanamaca
tlanamacac
tlanamacaliz
tlanamacaliztli
tlanamacatiliztli
tlanamacoyan
tlanamoyacayotl
tlanamoyani
tlanamoyanimeh
tlananquililiztli
tlanauatianij
tlanauatijkayotl
tlanauatijketl
tlanauatiketl
tlanawatihkayotl
tlanawatiketl
tlanchinol
tlancuaitl
tlane
tlanechicoliztli
tlanechikolistli
tlanehnelo
tlanehneloliztli
tlanehnewillotl
tlanelhuatl
tlanelhuatlamantli
tlanelhuayo
tlanelhuayomatiliztli
tlanelhuayotl
tlanelihtoani
tlaneltiliani
tlaneltilianimeh
tlaneltililiztli
tlaneltililli
tlaneltocani
tlaneltokilistli
tlaneltoqueh
tlaneltoqui
tlaneltoquiliztli
tlanematca
tlanemi
tlanemiliztli
tlanemiltiaj
tlaneminimeh
tlanemitiliztli
tlanepanoa
tlanequi
tlanequiliztli
tlanextiliztli
tlanextli
tlanezcayotiliztli
tlani
tlanihuic
tlanipa
tlanipahui
tlanitla
tlanitlalpan
tlano
tlanohnotzaliztli
tlanohnotzalli
tlanohnotztli
tlanonotzaliztli
tlansmisio
tlantli
tlanxinol
tlao
tlaoctaa
tlaoli
tlaolo
tlaololo
tlaolololli
tlaoncayotia
tlaooltetzetzeliuhcaayootl
tlapa
tlapachco
tlapachihuitilo
tlapachiuhca
tlapachko
tlapachoac
tlapacoyan
tlapal
tlapale
tlapalehuia
tlapali
tlapalilok
tlapalli
tlapalmej
tlapalmitl
tlapalnamacoyan
tlapaloa
tlapaloctli
tlapalpopozo
tlapaltecacayahtli
tlapaltic
tlapalyo
tlapan
tlapanahuia
tlapanahuiah
tlapanahuih
tlapanahuiliztli
tlapanili
tlapanolitzin
tlapantlaxoni
tlapantlazaliztli
tlapantlazalli
tlapatlaliztli
tlapatlanimeh
tlapatskilistli
tlapatskistli
tlapcopa
tlape
tlapehualiztli
tlapehualtiloni
tlapialmej
tlapitzalli
tlapitzanih
tlapixcayotl
tlapixkakeh
tlapixkakej
tlapixkalistli
tlapixqui
tlapiyali
tlapiyalistli
tlapiyalli
tlapiyalmeh
tlapiyalmej
tlapo
tlapoalli
tlapoatl
tlapohpotiliztli
tlapohua
tlapohualiztli
tlapohualli
tlapohualoni
tlapolo
tlapoloa
tlapololiztli
tlapotonilli
tlapotoniltic
tlapoualistli
tlapowalistli
tlaque
tlaquemitl
tlaquentia
tlaquentiah
tlaquentilli
tlaquentli
tlaquepaque
tlaquetza
tlaquetzalizotl
tlaquetzaliztli
tlaquetzalli
tlaquitcalli
tlaquitcayotl
tlaquixtilizteoztoyotl
tlaquixtilli
tlaquixtiltin
tlaquizcayotl
tlasemoyawkeh
tlaseseya
tlastaloltik
tlate
tlatecpanaliztli
tlatectli
tlateilhuilli
tlatekitiltililmej
tlatekitiltililtin
tlatekiwilistli
tlatelo
tlatelolco
tlatelolli
tlatemoliztli
tlatempoualistli
tlatenehualiztli
tlatenehualli
tlatenehuani
tlatenquixtiliztli
tlateo
tlateochihualli
tlatequiliztli
tlatequipanoliztli
tlatequitiliztli
tlatequitiltili
tlatequitiltilia
tlatequitiltiliztli
tlatequiz
tlatetzauhtli
tlatetzoyo
tlatezauhtli
tlatilanani
tlatilanketl
tlatilantli
tlatilantoc
tlatilantok
tlatilatli
tlatilizmatiliztli
tlatl
tlatla
tlatlacacihuitiliztli
tlatlachihuilaltepetl
tlatlahcatilnacatl
tlatlahtlauhti
tlatlahtolcuepani
tlatlalcopintli
tlatlaliliztli
tlatlalilli
tlatlamachiyo
tlatlamantic
tlatlamantiliztli
tlatlapalhuiliztli
tlatlapo
tlatlatiliztli
tlatlayohuatoc
tlatlazohtlalli
tlato
tlatoa
tlatoani
tlatocayotilli
tlatocayotl
tlatojkayotl
tlatokajyomej
tlatokajyotl
tlatolcaquiliztiloni
tlatoliztli
tlatolli
tlatollotl
tlatoquilia
tlatoquilih
tlatoquiliztli
tlatotonia
tlatozcatl
tlatquicayo
tlatquicayotl
tlatquitl
tlatquiyo
tlatsintla
tlatsintlaj
tlatsohtsonalistli
tlatsoyontlij
tlatta
tlattalli
tlatza
tlatzaccan
tlatzacua
tlatzacuahuiani
tlatzacualoya
tlatzacui
tlatzacuia
tlatzacuihuianimen
tlatzcan
tlatzhuiliztica
tlatzi
tlatzinquixtilizotl
tlatzintiani
tlatzintiliztli
tlatzintlah
tlatzintlan
tlatzohtzonalcalpolli
tlatzohtzonaliztli
tlatzohtzonalli
tlatzohtzonanimeh
tlatzontequililoc
tlatzotzonaliz
tlatzotzonaliztli
tlatzotzonalli
tlatzotzonalo
tlatzotzonaltin
tlatzotzonanih
tlatzotzontli
tlatzqui
tlatzquitoqueh
tlauel
tlauhtli
tlauili
tlawel
tlawilli
tlawistlanpa
tlaxacaltecameh
tlaxcala
tlaxcalah
tlaxcalchilatl
tlaxcalla
tlaxcallan
tlaxcalli
tlaxcalnamacoyan
tlaxcalpacholli
tlaxcalpo
tlaxcalteca
tlaxcaltecah
tlaxcaltotopochtli
tlaxehxeloliztli
tlaxeliuhcayotl
tlaxiccahualli
tlaxinol
tlaxkala
tlaxkalan
tlaxkali
tlaxkallan
tlaxkalpochochoj
tlaxkaltekahmeh
tlaxkaltekaj
tlaxtlahuiloni
tlayaca
tlayacantihcac
tlayacatia
tlayacatih
tlayacatl
tlayancuililizotl
tlayaoantli
tlayaochihchiuhtli
tlaye
tlayectililiztli
tlayehyeco
tlayehyecoliztli
tlayehyecoltilli
tlayekananih
tlayi
tlayo
tlayococancopa
tlayocoyalizotl
tlayocoyaliztli
tlayohuillin
tlayolitilli
tlayollapantli
tlayolli
tlayollohtilli
tlayolotilli
tlayolteohuiliztli
tlazahcan
tlazalehualtic
tlazcaltilli
tlazo
tlazohcacea
tlazohmatiliztla
tlazohmatiliztli
tlazohmatini
tlazohtetl
tlazohtiliztli
tlazohtla
tlazohtlaliztli
tlazohtlamatiliztli
tlazohtli
tld
tle
tlecua
tlecuahutli
tlecuauhtli
tlecuitl
tleh
tlehco
tlehcoaquilozquia
tlehcoc
tlein
tleinzazo
tlemiahuatl
tlemolli
tlen
tlenon
tlenweli
tletepe
tletepetl
tletl
tli
tlictic
tlilazcatl
tlilcuauhtli
tliliuhqueh
tliltepetetl
tliltepetl
tliltepoztli
tliltetl
tliltic
tliltlacamayeh
tlin
tlitl
tlma
tlo
tloc
tlquihto
tmbox
tnica
tnicainin
tnico
tnt
to
tobago
toc
toca
tocaamatl
tocaitl
tocaliztli
tocatl
tocatzahualli
tocayotilo
tocayotl
tochehuatl
tochimeh
tochin
tochinanko
tochpan
tochtin
tochtlah
tochtlan
tochtli
tocihuapiltzin
toco
toda
todas
today
todays
todo
todos
together
togo
tohtli
toi
toichte
tojolaballahto
tojuantij
tokaitl
tokajyotl
tokalijtik
tokamej
tokayotl
tokilisamatekit
tokilistli
tokipona
tokniua
tokoliuaj
tokoneuaj
toktli
tokyo
tolan
tolantzinco
tolas
tolcalyohcan
told
toledo
tolentino
tolima
tolin
tolintik
tollan
tollantzinco
tollohcan
toloatzin
tolohcan
toltecah
toltecatl
toltecayot
toltecayotl
toltekatlakameh
toltekayotl
toltetl
toltitlan
toluca
tolyohualco
tom
toma
tomacehualpoyohuah
tomahuac
tomando
tomar
tomaseual
tomaseualpoyouaj
tomate
tomatepe
tomatl
tome
tomi
tomin
tomincayo
tomincayotl
tominkayotl
tominkoh
tomo
tomorrow
ton
tona
tonacayo
tonacayohuapahualiztli
tonal
tonalamatl
tonalcalaquitlampa
tonalcalaquiyampa
tonali
tonalilhuitl
tonalizcayotl
tonallan
tonalli
tonalmachiyotl
tonalme
tonalmej
tonalocelotl
tonalpohualamoxtli
tonalpohualli
tonalquiyahuitl
tonalquizayampa
tonaltlauili
tonaltsin
tonaltzin
tonameyocaquizcopinaloni
tonantsi
tonantzin
tonati
tonatih
tonatij
tonatiuh
tonatiuhco
tonatiuhpan
tonatiw
tonayoh
tonemilis
tonemilistli
tong
tonga
toni
tonight
tonina
tonumber
tony
too
tools
top
topan
topileh
topimage
topo
topochico
topos
toppdoma
toqui
toquiliztequitl
toquiliztli
toquio
tora
toraznoh
tornados
tornieria
toro
toros
torquemada
torre
torreblanca
torreo
torres
toscano
toshiro
tostring
totahtzin
totahtzineh
totahtzitzin
total
tote
totec
totech
toteko
toteo
totepuz
toteucyo
totimeh
totiotsin
totiotzin
totlahto
totlahtol
totlanacayotiayan
totlanamikilis
toto
totocalli
totochtin
totolapan
totolin
totolnacatl
totolpixcayotl
totoltetl
totoltin
totoltzin
totomeh
totomej
totomichin
totonacatlahtolli
totoncapan
totoncayotl
totonicayotl
totonilmachioyotlquihto
totonqui
totopochtli
totoquihuatzin
tototl
totsintsmal
totti
touch
touchparameters
toueyi
toulouse
tour
tout
tower
town
toxcatl
toy
toyota
tozan
tozanto
tozantochtli
tozcatl
tozqui
tozquinehnehuiliztli
tozquitl
tp
tr
tra
trabajo
track
tracking
tracks
tradicio
tradicional
traduccio
trai
trail
trailing
trajano
trans
transchapter
transcluded
transcript
transcriptformat
transcripturl
transicio
translate
translatenext
translation
translations
transmite
transparent
transporte
transtitle
transversal
transwiki
trapos
trata
tratado
tratados
trave
travis
trazos
tre
treat
treated
tree
treinta
treli
tremal
tremarctos
tremecen
trentino
trepang
tres
trial
triangulum
triatlo
tribute
triceratops
trichophora
trigarante
trigo
trim
trimandaddautomaticnewline
trimwhitespace
trinidad
trinity
trio
triple
triqui
triquitlahto
triste
triunfo
trnka
tro
trobar
tronador
tronille
troodon
tropaeolum
tropical
tropico
troubadour
trouble
trouverez
troya
true
trujano
trujillo
truncar
try
tryon
ts
tsakualko
tsakuijlotl
tsakwalmeh
tsapotekah
tsapotekatl
tsapotl
tsatsa
tse
tsikitsi
tsongatlahto
tsontlanketl
tsontlanki
tsontli
tsonyok
tsopelatl
tsopelik
tsopeltik
tsotso
tsu
tsuruta
tsutsujigaoka
tt
tti
ttingen
ttir
tto
ttp
tu
tua
tubartlahto
tuca
tucson
tucuma
tudhope
tula
tulancingo
tule
tulo
tulos
tulum
tuna
tunez
tuneztla
tuntorp
tupaq
tupungato
turanga
turbo
turdilli
turin
turismo
turkce
turkey
turmenistan
turn
turner
turquia
turquiatlacatl
turtle
tus
tutorial
tuvalu
tuxtla
tuya
tv
tve
tvoja
tvr
tw
tweaking
twelve
twice
twin
twingo
two
ty
tyderian
tying
tyler
tyne
type
typedata
typeofreference
types
typographical
tyrannosaurus
tz
tza
tzacua
tzacualco
tzacualtipan
tzalan
tzalco
tzalhue
tzaliz
tzaliztli
tzalla
tzalli
tzapalolli
tzapocuahuitl
tzaponochtli
tzapopan
tzapote
tzapotecah
tzapotecatl
tzapotecatlahtolli
tzapotecatlahtoltica
tzapotl
tzapotlan
tzauccaxitl
tzaucpantli
tzauctli
tzaucxo
tzcatl
tzcuaro
tzeltal
tzeltallahto
tzeltallahtolli
tzhuanatlahto
tzi
tzica
tzilihhuitl
tzilin
tzilo
tzin
tzina
tzinacantli
tzinco
tzinpeuhtlahtotlaltequilizcayotl
tzintamalli
tzintetl
tzinti
tzintih
tzintiliz
tzintiliztli
tzintla
tzintli
tzintzon
tzintzontzan
tzintzuntzan
tziquitzi
tziquitzin
tzitzilla
tzitzimi
tzitzimici
tzo
tzomoni
tzompan
tzompanco
tzona
tzoncotomeh
tzonhuiliztli
tzontecomaolmecatl
tzontecomatl
tzontli
tzonyo
tzonyoh
tzope
tzopelacatl
tzopelatl
tzopelic
tzopelli
tzopilo
tzopilocuauhtli
tzopilotl
tzopitl
tzotzil
tzotzillahto
tzotzillahtolli
tzotzocatl
tzotzomahtli
tzotzona
tzotzonalotl
tzpo
tztica
tztli
tztlialonso
tzutujilla
u
ua
uaglio
uajka
uajkapa
uajkapayotl
uakapatl
uakaxmej
uaktok
uala
ualaj
ualeua
ualeyaj
uam
uan
uanhangarhio
uanl
uanya
uatl
uaxtekapaj
uaxyakak
uc
ucci
ucrania
ucraniah
ucraniatlahto
uctepoztli
uctin
uctli
ucyo
uczo
uehca
uejkakiaj
uejkapa
uejueyi
uel
ueli
uelij
uelik
uetsi
ueuejtok
ueueyak
uexolotl
uexotaj
uexotl
uexotlaj
ueyak
ueyatl
ueyi
ueyialtepej
ueyialtepek
ueyichinanko
ueyik
ueyikaltemitl
ueyitlali
ueyitok
ueyixolal
ueyixolalpan
ug
uganda
uh
uha
uhca
uhcalli
uhcayo
uhmecatia
uhmecatini
uhmecatl
uhmeh
uhmixtitla
uhpan
uhpo
uhque
uhqueh
uhqui
uhquiquihto
uhte
uhtemo
uhtetl
uhti
uhtica
uhticah
uhtin
uhtl
uhtla
uhtlah
uhtlahto
uhtlahtoa
uhtlehuanintzin
uhtlehuanitzin
uhtli
uhto
uhtohtli
uhtzin
uhtzinco
uhya
uhyelizyo
uhyo
uhza
uikalistli
uikipedia
uinik
uistekoltik
uitsmalotl
uj
uk
ul
ulama
ulmaceae
uls
ultima
ultimate
ultra
ulum
um
uma
umarkaj
ume
umi
umzaa
un
una
unam
unblock
unblocked
uncategorized
uncia
unclosed
und
undefined
undelete
under
underground
underpant
underscores
understand
understands
une
unesco
unexpected
unha
unidad
unidades
unidas
unido
unidos
unintended
unio
union
unique
unit
unitec
united
unitonly
unitsperdegree
universal
universe
universidad
universitaria
universitario
universitarios
universitat
universite
university
universo
unknown
unless
unlock
unneeded
uno
unpack
unrecognized
uns
unsere
unset
unsupported
until
untitled
up
upaep
update
updated
upload
uploaded
uploading
uploads
upojenie
upon
upper
uppercase
upright
ur
urbina
urdutlahto
urheimat
uri
url
urlcorregida
urlorigin
urls
uro
urogallus
ursa
ursus
urueta
uruguay
uruguaytla
urundi
urunno
us
usa
usage
usando
usar
usb
use
usecite
usecollapsibletextfields
used
useful
usenet
usenetid
useparams
user
username
users
uses
usescurrenttitle
using
uso
ustring
usua
usually
usuaria
usuario
ut
utah
utahnahuatlahtolli
utc
ute
utis
uto
uturunqu
uu
uwa
uxmal
uyuni
uz
uzalud
uzbequistan
v
va
vaca
vaci
vagabundos
val
valde
vale
valencia
valenciana
valencians
valenti
valeriano
valery
valid
validate
validation
valign
valin
valladolid
vallarta
valle
vallecas
vallejo
vallenato
valles
valley
valor
valores
valorposicional
valpuesta
vals
valsequillo
valsv
value
valuefunc
values
valuesarray
valuesarrayi
valuesarrayj
valuetofind
valverde
vamos
vampiro
van
vanc
vancouver
vandalism
vanessa
vanguard
vanilla
vapor
vaporizacio
var
varas
vargas
variable
variables
variada
variant
variantes
varias
variations
varios
various
varo
varsovia
vas
vasco
vasconcelos
vascotlahto
vascotlahtolli
vasija
vatia
vaticano
vaticanoa
vauthors
vaxcate
vcampo
vday
ve
vec
veces
vectra
veditors
vega
vegas
veidne
veinte
veintiuno
vel
vela
velarde
velasco
velazquez
veliko
velo
velocidad
velociraptor
velvet
venado
venancio
vendatlahto
venecia
venegas
veneno
veneswela
venezia
venezuela
venit
venta
ventas
ventimiglia
venus
venustiano
vepric
ver
vera
veracruz
veracruzana
veracruzano
veraecrusis
veraguas
verakrus
verano
verbo
verda
verdad
verdadero
verde
verdes
verdi
versalles
verse
versio
version
versiones
versionesbeta
versionesestables
versionfecha
versionrefurl
versions
versiontipo
versiontitulo
versionvalor
vertical
verum
verve
very
vestir
veyron
vez
vhichen
vi
via
viaducto
viaje
vial
viangchan
viatge
vica
vicente
vicipe
victor
victoria
victoriano
victory
vida
vidas
vide
video
videocaquizcopi
videoconferencias
videopatolli
videos
vie
vieja
viejo
viejos
viena
viento
viernes
vietnam
vietnantlahto
view
viewed
views
vigo
vii
viii
vikipedio
vil
vila
villa
villahermosa
villanueva
villarreal
villaurrutia
villaverde
villegas
vincent
vinci
vines
vinillahualli
vino
violet
violin
violinen
violitini
viper
viquipe
virgen
virgin
virginia
virginiana
virginianus
virginicum
viridiana
viridis
virrei
virreinato
virreiyotl
virrey
virreyotl
virtual
virus
vise
visible
visigodotlacah
visigote
visit
visita
visite
visiting
viso
vista
visual
vitaminas
viva
vivaldi
viveros
vivienda
viviente
vivir
vivo
vizcai
vizcaya
vls
vn
vo
vocablo
vocabulario
vocal
vocales
voce
voces
vodka
voice
voices
voie
voiturette
voix
vol
volca
volga
voljela
volkswagen
vols
voltaire
volu
volume
volumen
von
vos
vostede
voting
votre
vous
voyage
voz
vparam
vrier
vs
vue
vuela
vuh
vulgaris
vullute
vulnerabilidades
vxxxxors
w
wa
waach
waals
wagner
wahkapatl
wahkapayotl
wahkauhkiya
wakaxmeh
wake
waksan
wakuataay
wales
walk
walker
wall
walla
wallauh
wallaw
walnut
walt
walter
wan
want
wanted
wanya
war
warndump
warner
warning
wars
was
washington
wasmuth
watch
watched
watching
watchlist
watchlists
water
waterpolo
watl
watla
watlasecawiloni
watson
wave
waxtekapan
waxtlan
waxyakak
way
wayne
we
wear
wearing
web
website
wedding
wehweyi
weight
weimar
wel
welcome
weli
welis
well
wells
welt
weltah
wena
wenn
werden
were
west
westlife
weweyak
wexotlah
wexteyowali
wexteyowalko
wexteyowalli
wextik
weyak
weyi
weyiamochtli
weyiatl
weyiaxoxowilli
weyikali
weyikalime
weyikawitl
weyitlahtoani
weyitlahtohkayotl
weyitlalli
weykali
what
whatever
when
where
whether
which
while
whistling
white
whitelist
whiter
who
whole
why
wi
wia
wichmann
wicipedia
wide
width
wie
wien
wigberto
wikalokeh
wikayotl
wiki
wikibase
wikidata
wikilink
wikilinked
wikimarkup
wikimedia
wikipe
wikipedia
wikipediah
wikipediao
wikipedias
wikipedie
wikipedii
wikipedija
wikipidiya
wikis
wikitext
wiktionary
wild
wilhelm
will
william
williams
willis
willkommen
wimmer
wind
windows
windsurf
wings
winnipeg
winter
wir
wisdom
wish
with
within
without
witsilopochtli
witstlampa
witstlanpa
wizzle
wo
wolf
wolfgang
wolstenholme
woman
women
won
wonder
wong
woodard
word
wordreference
work
works
world
worldcat
worldwide
worship
worst
worth
would
wow
wp
wrap
wrapped
wrapper
wrappers
wright
write
writing
written
wrong
wrote
wu
www
wyler
wyoming
x
xa
xacaloa
xacaloax
xacocelotl
xacoh
xacoiztatl
xajxokotl
xal
xalapa
xalapan
xalchocotl
xali
xalixcah
xalixco
xalixko
xallan
xallapan
xalli
xalom
xaltenco
xaltosan
xaltozan
xalxococuahuitl
xalxocotl
xaman
xamitl
xanthogrammica
xantolo
xantoloh
xantolon
xapo
xapon
xaponecah
xaponte
xapontla
xapontlahto
xatl
xavier
xaya
xayacatl
xca
xcalo
xcan
xcayo
xco
xcone
xcoya
xcua
xcui
xe
xelhuia
xelhuiah
xelihui
xeliuhca
xeliuhcayotl
xelotok
xexeliuhca
xexeloj
xexelok
xhosatlahto
xi
xiacalhuaya
xianfan
xibalba
xic
xicatlican
xicconecan
xiclica
xico
xicocotitlan
xicohcotitlan
xicohtencatl
xicohtli
xicristiania
xictli
xido
xihca
xihcah
xihcat
xihcatl
xihcatla
xihcatlahtohca
xihco
xihcoborder
xihcoma
xihcopa
xihcuiloa
xihmachiliztli
xihpan
xihtli
xihualtlacelican
xihuimeh
xihuipahtli
xihuitl
xihxicuinti
xihxihuitl
xii
xiico
xiii
xiki
xikita
xikitaki
xikitas
xikitati
xikitta
xikixpowa
xiko
xiktepetl
xiktlalli
xiktli
xiku
xikwawa
xilijtlaj
xilitla
xilitlah
xilitlan
xiliztli
xilotepec
xiltia
ximacho
ximo
ximopano
xin
xina
xinachtlanelhuayo
xinachtli
xinantecatl
xincoyo
xincoyotl
xini
xinxocotl
xipcaxitl
xipe
xipintli
xiptla
xiptlah
xiptlahtini
xiptlayo
xiptli
xiquipano
xiquipilli
xiquitta
xiquixpohua
xite
xiti
xitlacaqui
xitlacuacan
xitlapale
xitlapohua
xitomatl
xitos
xittontlalli
xiu
xiuh
xiuhcahuitl
xiuhco
xiuhcopa
xiuhhuitzolli
xiuhmolpi
xiuhmolpilli
xiuhnelhuatl
xiuhpalhuehxolotl
xiuhpan
xiuhpo
xiuhpohualli
xiuhte
xiuhtepec
xiuhtic
xiuhtin
xiuhtintitlan
xiuhtlacualli
xiuhto
xiuhuitl
xiuimej
xiuit
xiuitl
xiujmej
xiujpan
xiujtli
xiumej
xiv
xiwihtla
xiwimeh
xiwitl
xix
xiya
xiyauh
xkalo
xkuajli
xl
xmanaliztli
xmanquitla
xmati
xmauhtiliztli
xml
xna
xnu
xo
xoalapan
xoan
xochi
xochiatipan
xochicalco
xochicoatlan
xochicualayohpan
xochicualli
xochicuicani
xochicuicanimeh
xochicuicatl
xochicuicayotl
xochihcual
xochihcualli
xochikualotl
xochimeh
xochimej
xochimilco
xochinamacoyan
xochipaltic
xochipalxocotl
xochipiltzahuatl
xochitl
xochitlah
xochitlahtzomalli
xochiyohua
xococ
xococatl
xococuahuitl
xococuauhtlah
xocohuetzi
xocola
xocolatl
xocomecaayotl
xocomecacuahuitl
xocomecapixcayotl
xocomecatl
xoconeuctli
xoconochtli
xocoqui
xocotl
xocoyoc
xocoyotzin
xocoyoxiuhpan
xocoztli
xocpalquimiliuhqui
xoctli
xokok
xola
xolal
xolalpan
xolalpancopa
xolo
xoloitzcuintli
xolomazatl
xolopan
xolotl
xomahtli
xomilin
xomolli
xonacatl
xonatlahto
xonecuilli
xooko
xopalectic
xopaltic
xopan
xopanitztempan
xopantlah
xopantlan
xopatiliztli
xopatoltiliztli
xopilli
xopilmeh
xotl
xouhqui
xoxo
xoxochiliztli
xoxocotl
xoxocotlan
xoxocpaitl
xoxoctic
xoxohui
xoxohuic
xoxohuitlquihto
xoxouco
xoxouhqui
xoxouik
xoxowik
xpa
xpan
xpantih
xpayo
xpopoyo
xquenda
xqui
xquich
xquicha
xquichca
xquichi
xquichica
xquiya
xtac
xte
xti
xtia
xtiana
xtianayo
xtiani
xtih
xtilia
xtin
xtla
xtli
xto
xuchipillan
xv
xvi
xvii
xviii
xx
xxi
xxx
xxxxors
xyacac
xyacacah
y
ya
yaan
yac
yaca
yacac
yacan
yacate
yacaticac
yacatih
yacatl
yacatzin
yacatzolli
yacaxotl
yaconalli
yah
yahqueh
yahtlapa
yahtoqueh
yahual
yahualli
yahualohtli
yahualpo
yahualtic
yahualtiliztli
yahualto
yahualtzin
yahualtzintli
yahuantin
yahui
yahveh
yajuanti
yalitza
yalli
yama
yamaha
yamena
yampa
yampatsa
yan
yancui
yancuic
yancuican
yancuictlahtolli
yancuictletepeyollotl
yancuiltzin
yancuiquichetlahto
yane
yangel
yangon
yangzhou
yani
yanih
yankuik
yankwik
yao
yaocalli
yaochiuhqueh
yaochiuhqui
yaomamaltzintetl
yaomeh
yaomicqueh
yaoquizqueh
yaoquizqui
yaotilizca
yaotl
yaotlacaxoxouhcayotl
yaoyopan
yaoyotl
yappalli
yaqui
yaquitlahtolli
yaritetlahto
yatareni
yatl
yauh
yauhquemeh
yauhtepe
yauhtepec
yauhtic
yaui
yaya
yayah
yayajiluikatli
yayajuik
yayauik
yayawik
yaz
yaza
ybbs
yc
ycaquizcopi
ycui
ye
year
years
yearstr
yece
yeceh
yecmamaltzintetl
yecnemiliceh
yectel
yectli
yeh
yehhua
yehhuan
yehhuantin
yehhuatl
yehhuatli
yehhuatlin
yehhuatzin
yehi
yehica
yehua
yehuan
yehuantin
yehuatiliztica
yehuatini
yehuatl
yehuatzin
yehuda
yehuecauhceratops
yehye
yehyeco
yehyectzin
yei
yejuatl
yejuin
yeka
yeliz
yelizmatiliztli
yeliztic
yeliztli
yellow
yeloa
yeloacayotl
yelohua
yelohuaz
yemen
yeni
yepamej
yepatl
yepesi
yeppa
yeppan
yequeneh
yes
yesej
yesno
yesterday
yet
yetihuiya
yetiuh
yetoya
yeya
yeyah
yeyani
yeyantli
yeyanyotl
yeyecoliztli
yeyi
yez
yezqueh
yezquia
yfactor
yfull
yi
yibuti
yic
yicaquizcopi
yicni
yicocoliztli
yidishtlahtolli
yimichin
yin
yinmn
yipitzococoliztli
yiteo
yitla
yitlahto
yitlahtoa
yitlahtoca
yitlahtohca
yitzitzimici
yiya
ymd
yn
yo
yobai
yoh
yohentlahto
yohtli
yohua
yohuac
yohualla
yohualli
yohualmitohtli
yohualnepantlah
yohualpanoliztli
yohualpixqui
yohualtecatl
yohuatzinco
yohuih
yohuitiliztli
yokatan
yokatekatl
yoko
yol
yolanda
yolca
yolcah
yolcameh
yolcatiliztli
yolcatl
yolcatzin
yolcatzintle
yolcatzintzin
yolceuhqui
yoli
yolia
yolic
yoliliztiliztli
yoliliztli
yolismatilistli
yolistli
yolizmatiliztli
yoliztlalpan
yoliztlamantli
yoliztli
yolizyoliztli
yolkamej
yolkatl
yolkatsitsimej
yollamantli
yolli
yollo
yollohco
yollohcocolcuiliztica
yollohmaxaltic
yollohtli
yollotlahtolli
yolloxoxouhqui
yolo
yolomatinimeh
yolotl
yolotlahtolli
yoloxocotl
yoloxoxouhqui
yoloxoxouki
yolqueh
yolqui
yoltextli
yolxictli
yon
yorentlahto
york
yosoy
yotia
yotl
yotla
you
youal
youi
young
your
youssef
youth
youtube
yowih
yoyomitl
yoyontlailpilli
yoyoymitl
yrediv
yrefactor
yreround
yround
yteo
ytla
ytlahtoa
ytlamachticalco
yu
yua
yuca
yucata
yucatan
yucatanensis
yucate
yucateca
yucatecah
yucatecatlahtolli
yucatecatlaltocayotl
yudiotla
yudioyo
yugoslavia
yuh
yuhqui
yuhquin
yuhquiz
yuhquizani
yukon
yul
yumhu
yuri
yuso
yuta
yutana
yutanahuatlahtolli
yutanawatlahtolli
yutu
yy
yyo
yyy
yyyy
z
za
zaachila
zabludovsky
zaboravi
zacacintli
zacahuilli
zacamiztli
zacaoli
zacarias
zacate
zacatecah
zacatecapan
zacatecas
zacatepec
zacatl
zacatla
zacatlah
zacatlan
zacato
zacatochin
zacualli
zacualtzin
zafira
zahuatzontecomatl
zaliz
zaliztli
zamatl
zambia
zamora
zampampa
zan
zanachitonca
zanahoria
zancehco
zanilli
zaniltzin
zaniyo
zanno
zantepan
zanyeno
zanyeyo
zanyoh
zapalotl
zapata
zapatero
zapatos
zapopan
zapota
zapote
zapoteco
zapotes
zar
zaragoza
zaragu
zaro
zate
zatepan
zatepanhuehcauhqui
zatl
zatlatzonco
zauhqui
zaya
zayohqui
zayolin
zayollan
zazalli
zazaltitlan
zazanilli
zazatlahto
zb
zbl
zc
zca
zcacoyo
zcacua
zcamo
zcapo
zcatl
zcatla
zcatli
ze
zea
zebedeo
zedillo
zeit
zellengewo
zelote
zema
zenit
zero
zetla
zh
zi
zik
zimbabhue
zimbahue
zixiette
zna
znak
znehqui
znequi
zo
zodiaco
zoe
zoidberg
zois
zolin
zoltepec
zombie
zompist
zona
zoo
zoquitl
zorrillo
zorro
zotepozmalacatl
zotl
zotla
zotolin
zoyacapolin
zoyamazatl
zoyatl
zqueh
zquez
zqui
zte
ztic
ztica
ztla
ztli
zto
ztomatl
zu
zucchini
zulutlahto
zum
zuma
zun
zur
zurich
{
|
}
~
¡
£
¥
§
ª
«
¬
¯
°
²
³
´
µ
¶
·
¹
º
»
½
¿
×
ß
æ
ð
ø
þ
đ
ł
ŋ
œ
œuvre
ƅ
ƕ
ƛ
ƣ
ƨ
ƹ
ƻ
ƽ
ƿ
ǝ
ȝ
ȣ
ɏ
ɐ
ɑ
ɒ
ɔ
ə
ɛ
ɜ
ɞ
ɢ
ɣ
ɪ
ɬ
ɮ
ɯ
ɱ
ɺ
ʀ
ʁ
ʃ
ʅ
ʊ
ʎ
ʒ
ʔ
ʙ
ʚ
ʰ
ʻ
ʼ
ʿ
ˈ
ˉ
ˌ
ː
̀
́
̂
̃
̄
̆
̇
̈
̉
̊
̋
̌
̍
̓
̔
̛
̣
̦
̧
̨
̩
̪
̭
̯
̱
̷
͂
͡
ͳ
α
αι
β
γ
γλω
δ
δεια
ε
ζ
η
θ
ι
κ
λ
μ
ν
ξ
ο
π
πα
ρ
ς
σ
σσα
τ
υ
φ
χ
ψ
ω
ϙ
а
асте
астекские
б
беркут
в
википедии
вопросов
вы
вікіпедія
г
д
е
если
ж
желаете
з
и
к
категория
кском
л
ласкаво
м
михаи
можете
монгол
мы
н
на
наи
науатль
о
обсуждения
ответим
п
по
посетите
просимо
р
русскии
с
сообщества
страницу
т
ти
у
уатль
уикипедия
украі
ф
х
ц
ч
ш
шаблон
щ
ъ
ы
ь
э
ю
я
язык
языке
ђ
є
ѕ
і
ј
љ
њ
ћ
џ
ґ
ғ
ҕ
ҡ
ҧ
ҩ
ү
һ
ҽ
ӏ
ә
ӡ
ө
ְ
ֲ
ִ
ֵ
ַ
ָ
ֹ
ּ
ׁ
ׂ
א
אינטרנט
ב
המדינות
ט
טבלת
י
ל
ם
מ
מיכאל
ן
נ
סיומות
סיומת
ע
צ
ק
ר
רו
ש
ת
،
ا
الا
الجمهوري
الس
العربي
ة
ح
د
دلی
ر
قالب
م
نرنج
ني
و
وري
َ
ُ
ِ
ّ
ٓ
ٔ
ٕ
ی
ހ
ރ
އ
ވ
މ
ދ
ގ
ޔ
ޖ
ާ
ި
ު
ޫ
ެ
ޭ
ް
ं
ः
क
ग
घ
च
ज
ठ
ड
त
द
न
नई
प
भ
य
र
ल
व
ष
स
सह
ह
ा
ि
ी
ू
ृ
े
ो
ौ
्
ং
চ
ট
ত
দ
ব
য
র
ল
শ
স
হ
়
া
ি
ী
ূ
ে
্
ৎ
ਂ
ਦ
ਨਵ
ਲ
ਵ
ਸ
਼
ਾ
ਿ
ੀ
ੂ
ੱ
க
ச
ட
ப
ய
ர
ழ
வ
ா
ி
ீ
ு
ே
ை
்
ం
క
గ
చ
త
య
ల
స
ా
ి
ు
ూ
ె
ಡ
ಯ
ವ
ಾ
ಿ
ം
ക
ദ
ന
പ
യ
ല
ള
ാ
ി
ു
െ
്
ං
ක
ත
ද
න
ප
ර
ල
ශ
්
ා
ි
ී
ก
น
พ
ภ
ม
ย
ว
อ
ั
า
ิ
ี
ื
ุ
ู
฿
เด
่
้
์
ຊ
ນ
ອ
ັ
ື
ຼ
່
້
་
།
ག
ཐ
ཕ
མ
ཡ
ལ
ི
ུ
ྲ
ᏸ
ᏻ
ក
ជ
ញ
ត
ន
ព
ភ
ម
យ
ា
ិ
ួ
េ
ំ
្
​
‌
‍
‎
‏
–
—
―
‘
’
“
”
„
†
‡
•
…
′
″
⁠
⁻
₢
₩
€
₽
™
ⅎ
⅓
←
→
↔
↷
∞
③
④
⑦
►
◄
♀
♂
♇
✓
⯓
ⲁ
ⲉ
ⲕ
ⲟ
ⲣ
ⲧ
⺀
⺄
⺆
⺈
⺊
⺌
⺕
⺝
⺸
⺼
⿰
⿱
⿲
⿳
⿴
⿵
⿶
⿷
⿸
⿹
⿺
⿻
、
。
〢
あ
い
う
え
お
か
き
く
け
こ
さ
し
す
せ
そ
た
ち
っ
つ
て
と
な
に
ぬ
ね
の
は
ひ
ふ
へ
ほ
ま
み
む
め
も
ゃ
や
ゆ
よ
ら
り
る
れ
ろ
わ
ゐ
ゑ
を
ん
゙
゚
ァ
ア
ィ
イ
ウ
エ
オ
カ
キ
ク
ケ
コ
サ
シ
ス
セ
ソ
タ
チ
ッ
ツ
テ
ト
ナ
ニ
ヌ
ネ
ノ
ハ
ヒ
フ
ヘ
ホ
マ
ミ
ム
メ
モ
ヤ
ュ
ユ
ヨ
ラ
リ
ル
レ
ロ
ワ
ヰ
ヱ
ヲ
ン
・
ー
㇁
㇂
㇄
㇇
㇈
㇉
㇓
ㇰ
㐁
㐄
㐅
㐌
㐫
㐬
㐭
㐮
㐱
㑒
㒵
㒸
㒼
㓁
㓞
㔾
㕛
㕣
㖾
㘝
㚅
㚇
㚔
㚘
㝉
㝡
㝴
㝵
㞋
㞢
㞷
㠩
㠭
㠯
㡀
㡭
㡿
㢲
㢴
㣇
㣺
㥯
㪅
㫄
㫐
㫒
㫺
㬅
㬎
㬥
㬰
㲋
㳄
㷠
㸒
㸚
㸦
㼌
㼲
㽞
㿟
䀠
䂞
䍃
䏍
䒑
䖍
䖒
䖝
䖵
䙴
䚻
䜌
䝿
䡛
䧹
䪞
一
丁
丂
七
丄
丅
丆
万
丈
三
上
下
丌
不
与
丏
丐
丑
专
且
丕
世
丘
丙
业
东
丞
丢
丣
两
严
並
丨
丩
个
丫
丬
中
丮
丰
丱
串
丵
丶
丷
丸
丹
为
主
丽
丿
乀
乂
乃
久
乆
乇
么
义
之
乌
乍
乎
乏
乐
乑
乔
乖
乗
乘
乙
乚
乛
乜
九
乞
也
习
乡
乳
乾
亀
亅
了
亇
予
争
事
二
亍
于
亏
亐
云
互
亓
五
井
亘
亚
亜
亞
亟
亠
亡
亢
交
亥
亦
产
亨
亩
享
京
亭
亮
亯
亰
亲
亳
亶
亷
人
亻
亼
亾
仁
今
介
仌
从
仐
仑
仒
仓
仕
他
付
仝
代
令
以
仮
任
企
伊
伏
伐
休
会
伯
但
位
佐
何
佘
余
作
佥
使
來
侈
例
侌
侍
侖
侯
侵
便
促
保
俞
信
修
倉
倍
候
倠
備
僉
僕
儿
兀
允
兂
元
兄
充
兆
兇
先
光
兊
克
兌
免
兑
兒
兓
兔
党
兜
兟
入
全
兩
兪
八
公
六
兮
兰
共
关
兵
其
具
典
兹
兼
冀
冂
冃
冄
内
円
冈
冉
冊
冋
册
再
冎
冏
冐
冒
冓
冖
冗
冘
军
农
冝
冡
冥
冫
冬
冷
几
凡
凢
凵
凶
凷
凸
凹
出
函
凾
刀
刁
刂
刃
刄
刅
分
切
刍
刑
刕
刖
列
刘
则
初
別
利
别
到
制
刺
則
削
剌
前
剡
剽
劉
力
功
加
劦
助
劫
劳
劵
勃
勇
勉
勒
動
務
勞
勤
勹
勺
勻
勾
勿
匀
匂
包
匆
匈
匊
匋
匍
匕
化
北
匚
匝
匡
匪
匱
匸
匹
区
医
匽
匿
區
十
卂
千
卄
卅
卆
升
午
卉
半
卌
华
卑
卒
卓
单
卖
南
卜
卝
卞
占
卡
卢
卣
卤
卦
卩
卪
卬
卯
印
危
即
却
卵
卷
卸
卻
厂
厃
厄
历
厈
厉
厌
厓
厘
厚
原
厤
厥
厨
厭
厲
厶
厷
厸
去
厼
厽
叀
参
參
叅
又
叉
及
友
双
反
叐
发
叒
叔
叕
取
受
叚
叜
叟
口
古
句
另
叩
只
召
可
台
叱
史
右
叵
号
司
叹
吂
各
吅
合
吉
吊
吋
同
名
后
吏
向
吕
君
吝
吞
否
含
启
吳
吴
吹
吾
呂
呆
呈
告
员
呙
周
命
咅
和
咎
咠
咢
咨
咸
咼
哀
品
哉
員
哥
哲
唐
商
啇
問
啚
啬
啻
善
喜
喬
單
喿
嗇
噩
嚴
囊
囗
囘
囙
囚
四
回
囟
因
団
囧
囬
困
囱
囷
固
国
圂
圅
國
圍
圓
土
圡
圣
圥
在
圭
地
圳
圶
圼
坐
坒
坚
坴
垂
垔
垚
垣
埀
埋
埶
執
基
堂
堅
堆
堇
堯
報
塞
墨
壘
士
壬
壯
声
壳
壴
壹
壺
壽
夂
处
夅
夆
备
夊
夋
夌
复
夏
夒
夕
外
夗
夘
多
夜
夢
大
夨
天
太
夫
夬
夭
央
失
夲
头
夷
夸
夹
夻
夾
奂
奄
奇
奈
奉
奎
奏
奐
契
奓
奔
奚
奞
奠
奢
奥
奭
女
奴
奻
好
如
妄
妙
妟
妥
妻
妾
姑
委
姜
威
娄
娜
婁
婴
嬰
嬴
子
孑
孔
孕
孖
字
存
孚
孛
孝
孟
季
孤
学
孫
孱
學
宀
宁
宂
它
宅
宇
守
安
宋
完
宏
宓
宗
官
定
宛
宜
宝
客
宣
室
宮
宰
害
家
容
宾
宿
寄
寅
密
富
寒
察
寧
審
寫
寬
寮
寸
对
寺
寻
寽
対
寿
封
尃
射
将
將
專
尉
尊
尋
尌
對
小
少
尒
尓
尔
尖
尗
尚
尞
尢
尣
尤
尧
尨
尭
就
尸
尹
尺
尻
尼
尽
尾
尿
局
居
屈
屋
屎
屏
屑
展
屖
屚
属
屠
屡
屬
屮
屯
屰
山
屵
屾
岁
岂
岑
岡
岩
岳
岸
峯
島
崇
崎
崑
崔
崖
崙
崩
嵬
嶲
巂
巛
川
州
巟
巠
巢
巤
工
左
巧
巨
巩
巫
差
己
已
巳
巴
巷
巸
巽
巾
巿
帀
市
布
希
帚
帛
帝
带
師
席
帶
常
干
平
年
幵
并
幷
幸
幺
幻
幼
幽
幾
广
庁
広
庄
床
库
底
店
庚
府
度
座
庫
庭
庶
康
庸
廉
廌
廛
廣
廩
廴
延
廷
建
廾
廿
开
弁
弃
弄
弇
弋
式
弓
弔
引
弗
弘
弜
弟
弥
弦
弱
張
強
强
彊
彌
彎
彐
彑
当
彔
录
彖
彗
彡
形
彥
彦
彧
彭
彳
役
彼
往
待
律
徒
得
徙
從
復
微
徵
心
忄
必
忌
忍
志
忝
忠
忩
快
念
忽
忿
思
怠
急
怱
恆
恒
恩
恭
息
悉
患
悤
悲
悶
情
惠
惡
惢
愁
愈
意
愛
感
慈
慧
慮
憂
憲
應
戀
戈
戉
戊
戋
戌
戍
戎
成
我
戒
戔
或
戚
戠
戢
截
戲
戶
户
戹
戼
戾
房
所
扁
扇
手
扌
才
打
托
执
承
技
折
抱
拉
拜
拿
掌
推
提
摩
支
攴
攵
收
攸
改
放
政
敄
敏
敕
敖
敗
教
敝
敞
敢
散
敦
敫
敬
数
敷
數
斂
文
斉
斊
斗
料
斤
斥
斩
斬
斯
新
方
於
施
斿
旁
旋
族
无
旡
既
旣
日
旦
旧
旨
早
旬
旱
旲
时
旾
昆
昇
昌
昍
明
昏
易
昔
昗
昜
星
映
春
昬
是
昱
昴
昷
時
晃
晋
晏
普
景
晶
智
暑
暴
曇
曩
曰
曲
曳
更
曷
書
曹
曼
曾
替
最
朁
會
月
有
朋
服
朔
朕
朗
望
朝
木
朩
未
末
本
札
朮
术
朱
朵
朶
朿
杀
杏
杜
束
条
来
東
杲
杳
松
板
析
枕
林
枚
果
枝
枲
枼
某
柔
查
柬
柰
柴
栗
株
桀
桂
桑
桼
梁
條
梟
梨
棘
棠
棥
森
楚
業
楽
榮
樂
樊
標
模
欠
次
欣
欮
欲
欶
欽
款
歆
歇
歛
歡
止
正
此
步
武
歨
歪
歮
歯
歰
歲
歴
歷
歸
歹
歺
死
殳
段
殷
殸
殹
殺
殻
殿
毋
毌
母
每
毒
比
毕
毚
毛
毳
氏
氐
民
气
気
氣
水
氵
氶
氷
永
氺
氾
求
汝
汞
江
沃
沓
沖
沙
沝
沢
泉
法
波
泣
泥
泰
洋
洛
洪
活
派
流
浦
浪
浮
淡
淮
深
清
渚
渠
港
湯
滿
漢
漫
漸
澤
火
灬
灭
灰
灵
灷
炅
炎
炏
炗
炙
炭
為
烈
烏
烝
焉
無
焦
焱
然
煞
熊
熏
燕
營
燮
爪
爫
爭
爯
爰
爱
爲
爵
父
爻
爽
爾
爿
片
版
牙
牚
牛
牜
牟
牢
牧
牪
特
牽
犀
犬
犭
犮
狂
狄
狊
独
狺
猋
猒
猪
献
獻
玄
率
玉
王
玟
玨
现
珎
班
現
琴
瑟
瑩
璠
瓜
瓦
甘
甚
生
産
用
甫
甬
田
由
甲
申
电
甶
男
甸
甹
画
甾
畀
界
畏
畐
留
畜
畟
畢
畧
畨
番
畫
異
畱
當
畺
畾
疊
疋
疌
疑
疒
疾
癶
癸
癹
発
登
發
白
百
皀
皃
的
皆
皇
皋
皐
皕
皮
皷
皿
盃
盆
盇
盈
益
盍
盎
监
盒
盖
盛
盡
監
盤
盧
目
直
相
盾
省
眇
眉
看
眔
眞
真
眷
眼
眾
着
睘
睪
睿
瞏
瞢
瞿
矍
矛
矞
矢
矣
知
矦
短
石
研
破
碎
碩
磊
磨
示
礻
礼
社
神
祟
票
祭
禀
禁
禸
禹
禺
离
禽
禾
禿
秀
秃
秉
秋
科
秝
秦
移
稟
穀
穆
穌
穴
究
穹
空
穿
突
窄
窒
立
竒
竜
竝
竟
章
童
竹
笑
笠
第
筆
等
答
箕
算
箴
節
篤
篭
米
粉
粛
粟
粤
粦
粲
粵
精
糞
糸
糹
系
紀
約
納
素
索
紫
累
細
絜
絫
絲
維
綿
縣
繇
纍
纟
统
缶
网
罒
罔
罕
罗
罙
罡
罢
罪
署
罷
羅
羊
羌
羍
美
羔
羕
羗
羞
羡
羣
群
義
羲
羸
羽
翁
翏
習
翕
翟
翠
翼
老
耂
考
者
耆
而
耎
耑
耒
耳
耴
耶
耷
聂
聊
聖
聚
聶
聿
肀
肃
肅
肉
肖
肙
肥
肩
肯
育
肴
胃
背
胡
胥
能
脊
脩
膚
臣
臤
臧
自
臬
臭
臯
臱
至
致
臺
臼
臽
臾
臿
舀
舂
舄
與
興
舉
舊
舌
舍
舛
舜
舞
舟
般
船
艮
良
色
艸
艹
艾
芒
芔
芬
芮
花
芳
芺
芻
苔
苗
苟
若
苦
英
茶
茸
荅
草
荒
荣
荼
莆
莉
莧
莫
莽
菆
菊
菐
華
菱
萬
落
葉
著
葛
董
葵
蒙
蒦
蒼
蓋
蓬
蓺
蔑
蔡
蕉
蕭
薄
薛
薦
薰
藍
藏
藥
蘭
虍
虎
虐
虒
虔
處
虖
虗
虘
虚
虛
虜
虞
虫
虽
蚤
蚩
蜀
蜜
蟲
蠡
血
行
衍
衛
衣
衤
表
衮
衰
袁
袞
褭
褱
襄
襾
西
覀
要
覃
見
規
覓
覧
親
覽
见
角
解
言
訁
訇
計
詹
語
誩
諸
讠
谷
豆
豈
豊
豐
豕
豖
豙
象
豦
豩
豪
豸
貇
貝
貞
貟
負
貢
貧
貪
貫
責
貳
貴
買
費
賁
資
賈
賏
賓
賔
賛
賞
賢
賣
質
賴
贊
贝
贡
责
贯
贲
贵
赖
赞
赤
赦
走
越
足
路
蹇
身
躬
車
軍
軎
軟
輦
车
辛
辜
辟
辥
辰
辱
農
辵
辶
边
达
过
迎
近
连
迷
追
退
送
逆
选
逐
通
速
造
逢
連
逮
進
遀
遂
過
道
達
遣
適
遷
遺
邊
邑
邕
那
邦
邪
郎
郑
部
郭
都
鄉
酉
酋
配
酓
釆
采
里
重
野
量
金
釒
錄
錢
钅
長
镸
长
門
閃
閉
開
閏
閑
閒
間
閔
閵
閻
闌
门
间
闷
阑
阜
阝
阿
降
院
陳
陸
隆
隊
隋
隡
隨
隱
隶
隹
隺
隻
隼
隽
难
雀
雁
集
雈
雋
雍
雐
雔
雙
雚
雜
雝
離
難
雨
雩
雪
雲
零
雷
需
震
霍
霜
霝
霞
霸
靈
靑
青
非
靡
面
靣
革
韋
韓
韦
韭
韯
韱
音
頁
頃
項
須
頗
頡
頻
顛
页
風
颶
风
飛
飞
食
飠
養
饣
首
香
馬
馮
駦
駿
騎
马
骨
高
髟
鬥
鬯
鬲
鬼
魚
魯
鮮
鱼
鲁
鳥
鳳
鸟
鹵
鹿
麃
麗
麥
麦
麻
黃
黄
黍
黎
黑
黒
黨
黹
黽
黾
鼎
鼓
鼠
鼻
齊
齋
齐
齒
齿
龍
龙
龜
龟
龠
龰
龱
龴
龵
龶
龷
龸
龹
꞉
ꞌ
ꭰ
ꭲ
ꭶ
ꭹ
ꮃ
ꮅ
ꮊ
ꮎ
ꮏ
ꮒ
ꮕ
ꮖ
ꮚ
ꮜ
ꮝ
ꮤ
ꮪ
ꮯ
ꮳ
者
艹
（
）
，
２
３
：
？
𠀁
𠀃
𠀆
𠀉
𠀎
𠀐
𠁁
𠁣
𠂆
𠂇
𠂈
𠂉
𠂊
𠂋
𠂎
𠂒
𠂔
𠂛
𠂡
𠂢
𠂤
𠂬
𠂭
𠂹
𠃊
𠃋
𠃌
𠃍
𠃎
𠃑
𠃓
𠃔
𠃜
𠄌
𠄎
𠄠
𠄢
𠆢
𠆥
𠇍
𠈌
𠌵
𠓜
𠔉
𠔥
𠔼
𠔽
𠔿
𠕀
𠕁
𠕋
𠘧
𠘨
𠙻
𠙼
𠚏
𠚒
𠚤
𠚪
𠣏
𠤎
𠤕
𠥓
𠦄
𠦑
𠦝
𠧒
𠧗
𠧪
𠩺
𠪚
𠫓
𠫔
𠫤
𠬛
𠬝
𠬞
𠬢
𠬤
𠬶
𠮛
𠮦
𠮷
𠯑
𠱠
𠳮
𠷎
𡈼
𡉀
𡉵
𡌥
𡍮
𡏳
𡕒
𡕩
𡕰
𡖅
𡗗
𡗜
𡘆
𡘤
𡧱
𡨄
𡩧
𡬠
𡭽
𡰣
𡰥
𡰪
𡰯
𡰱
𡷈
𡸁
𡿨
𡿩
𡿪
𡿺
𢀖
𢀛
𢀩
𢁙
𢆉
𢆰
𢆶
𢇁
𢇇
𢉖
𢌬
𢌿
𢏚
𢑑
𢑚
𢖻
𢙣
𢛳
𢦏
𢦒
𢧵
𢼄
𢾕
𣁋
𣄼
𣅀
𣅽
𣍘
𣎳
𣎵
𣏋
𣏼
𣗥
𣥂
𣥖
𣦵
𣦼
𣧄
𣪊
𣪠
𣬉
𣳾
𣶒
𤇾
𤊽
𤐫
𤓰
𤔔
𤕨
𤣩
𤰇
𤰔
𤰞
𤴓
𤴔
𤽄
𥁑
𥁕
𥃦
𥃩
𥃭
𥇡
𥑟
𥘅
𥘈
𥝢
𥫗
𥱡
𦈢
𦉪
𦉬
𦉼
𦍌
𦍒
𦎧
𦐇
𦓔
𦔮
𦘒
𦙃
𦚏
𦣝
𦣞
𦣻
𦥑
𦥔
𦥯
𦨉
𦭝
𦰩
𧆞
𧈧
𧘇
𧰨
𧴪
𧴮
𧵩
𧾷
𨸏
𨾴
𩙿
𩠐
𩫏
𩵋
𪉷
𪜀
𪟽
𪠲
𪩲
𫇦
𫔭
𫜸
𫝀
𫠣
𫠩
𫢉
𫥞
𫩏
𫩠
𫪡
𫲽
𫶧
𬀷
𬐘
𬗌
𬙙
𬛸
𬜯
𬟩
𬯁
𬴘
𬺻
𬼉
𬼖
𭀰
𭁈
𭁨
𭅰
𭑈
𭕄
𭗼
𭤨
𭥫
𭻾
𮅕
𮊿
𮍌
𮍏
𮓗
𮥼
𮧮
廾
𰀁
𰀄
𰀈
𰀉
𰀕
𰀠
𰀡
𰀢
𰀪
𰁜
𰃮
𰆊
𰆘
𰋙
𰕎
𰢴
𰧭
𰯲
00--
000--
01--
02--
03--
04--
05--
07--
08--
09--
106--
115--
124--
128--
131--
174--
175--
209--
210--
238--
270--
308--
534--
667--
734--
a--
aa--
ab--
abbre--
abi--
abra--
abs--
ac--
aca--
acalcuachpa--
acce--
ace--
ach--
achcauh--
achi--
acht--
achto--
aci--
aco--
acri--
acro--
acti--
ad--
ada--
add--
added--
adici--
adve--
ae--
aero--
af--
ag--
agra--
agru--
agua--
ah--
aha--
ahci--
ahco--
ahcual--
ahmo--
aho--
ahtequi--
ahtla--
ahu--
ahua--
ahuic--
ahuil--
ahuiliz--
ai--
air--
aj--
ak--
aka--
akets--
al--
alax--
albi--
alcan--
alci--
ale--
algo--
ali--
all--
almendr--
als--
alt--
altepe--
am--
ama--
ame--
ami--
amo--
amox--
an--
ana--
analy--
ang--
angli--
ani--
ano--
anta--
ante--
any--
apa--
apache--
apan--
apl--
apo--
app--
aqui--
ar--
ara--
arabi--
arabia--
arago--
arbitra--
arc--
arg--
args--
arhe--
arido--
arist--
arte--
arti--
as--
ash--
asi--
ast--
astro--
at--
ata--
ate--
atla--
ato--
atri--
atza--
au--
auaka--
aus--
auto--
av--
ave--
ax--
axix--
axu--
ay--
aya--
ayo--
ayoyo--
az--
aza--
azo--
azuc--
b--
ba--
bad--
bag--
bailar--
baj--
bal--
ban--
bar--
barth--
bat--
bay--
bb--
bc--
be--
bel--
ben--
ber--
bet--
bi--
bil--
bio--
bla--
ble--
bli--
blo--
blockip--
bo--
bol--
bon--
bor--
boru--
bot--
br--
bra--
brachy--
bre--
brit--
bro--
broken--
bu--
bug--
bun--
bur--
bus--
by--
c--
ca--
cab--
cac--
caca--
caesalp--
cah--
cahxi--
cai--
cal--
cala--
calo--
cama--
camb--
can--
cana--
canada--
cap--
capi--
caquiz--
car--
cas--
cat--
cate--
catl--
catolico--
cau--
cauh--
caxca--
caxcan--
caxtil--
ce--
cece--
cel--
cem--
cema--
cempo--
cen--
centla--
centlaman--
centzon--
cepa--
cepayahui--
cer--
cet--
ceya--
cfg--
ch--
cha--
chalchi--
chan--
chaneh--
chapo--
che--
chero--
chi--
chia--
chibcha--
chic--
chica--
chichi--
chichihual--
chico--
chihua--
chiku--
chila--
chimal--
china--
chipilo--
chiya--
cho--
chocholol--
chol--
chonta--
chr--
chu--
chuij--
ci--
cia--
cidracua--
cihua--
cin--
cine--
cipac--
cir--
cis--
civi--
cl--
cla--
claim--
claims--
clase--
cle--
co--
coa--
cocho--
coco--
cocte--
coel--
coeluro--
coinci--
col--
cole--
colo--
color--
com--
comie--
comp--
comu--
con--
cone--
conme--
copal--
copy--
cor--
coro--
cou--
cour--
cox--
coyo--
cozca--
cpa--
cr--
cre--
create--
cri--
crist--
cro--
cruc--
cu--
cua--
cuacuauh--
cuacue--
cual--
cuauh--
cue--
cuehcue--
cuench--
cuepa--
cuexte--
cui--
cuitla--
cup--
cur--
cy--
cycl--
d--
da--
dan--
dar--
data--
date--
db--
de--
dedi--
defin--
dei--
dellog--
den--
des--
desam--
desc--
deter--
di--
dia--
dibu--
diferen--
dipl--
disam--
dista--
distri--
div--
dj--
do--
doc--
dokumen--
don--
double--
down--
dr--
du--
dup--
dur--
dyn--
dz--
e--
eb--
ec--
ecos--
ed--
edit--
ee--
efec--
eff--
ehca--
ehe--
ehuaz--
ei--
ein--
ej--
eje--
ek--
ekip--
el--
ele--
electr--
eli--
elo--
em--
email--
emer--
emir--
emo--
en--
ena--
enab--
enci--
ency--
end--
enfer--
eng--
enge--
enlace--
eo--
ep--
epo--
er--
era--
ere--
ero--
es--
esc--
est--
estilo--
estre--
et--
eu--
euro--
europa--
eusk--
ex--
experie--
expl--
ext--
ey--
ez--
f--
fa--
facil--
facu--
falken--
fan--
far--
fcom--
fe--
fecha--
femen--
fer--
fi--
file--
filipino--
fin--
fis--
fla--
flamm--
fle--
fo--
fol--
for--
formato--
fos--
fr--
fra--
franco--
fre--
fri--
fried--
friul--
fu--
fuku--
g--
ga--
gal--
gala--
galilea--
galo--
gar--
ge--
geo--
ger--
ges--
get--
ghi--
gi--
giga--
gil--
gimnos--
gio--
gl--
glaci--
gli--
gn--
go--
gob--
gong--
gor--
gra--
grammat--
gre--
gri--
griego--
gry--
gu--
guaca--
guada--
guaj--
guer--
gui--
gy--
h--
ha--
hacer--
had--
haj--
hamil--
hapl--
har--
haup--
he--
hel--
helen--
her--
hespero--
hi--
hic--
hil--
hiro--
his--
hispan--
hispano--
ho--
hono--
hooknames--
hor--
hort--
hr--
ht--
htla--
hu--
hua--
huac--
huaca--
huacua--
hual--
hualhuaz--
hualli--
huati--
huaxte--
huaz--
hue--
hueh--
huehca--
huehue--
huehueh--
huel--
hueli--
huexo--
huey--
hueya--
hueyi--
hui--
huili--
huitla--
huitz--
hur--
hy--
i--
ia--
iahtla--
ialtepe--
iamox--
ic--
ica--
icala--
ice--
icel--
icentla--
ich--
ichan--
ichca--
ichpo--
ici--
icihua--
icne--
icno--
icone--
icua--
icxi--
id--
identi--
identidad--
ideo--
ie--
if--
igu--
ih--
ihiyo--
ihue--
ii--
iix--
iixko--
ij--
ijto--
iju--
ik--
ika--
iku--
il--
ilama--
ilhui--
ilhuica--
ilna--
iluika--
ilus--
im--
ima--
image--
imazo--
img--
imi--
imix--
impl--
impo--
in--
ina--
inc--
inca--
incen--
ine--
ineh--
inehua--
ineix--
inesp--
inge--
ingles--
ini--
inih--
inin--
inn--
inna--
ino--
insta--
instr--
inte--
inter--
intla--
inva--
invo--
io--
ioh--
ip--
ipan--
ipil--
ipo--
ir--
is--
islam--
it--
ita--
ite--
itech--
iteic--
iteixe--
itekpa--
itelpo--
itenam--
iteo--
itequi--
itetlayecol--
iteyol--
iti--
itih--
itla--
itlah--
itlaix--
itlaj--
itlal--
itlan--
itlane--
ito--
its--
itz--
itzo--
iu--
iuh--
iuhca--
iv--
iwi--
ix--
ixcacua--
ixcua--
ixih--
ixiuh--
ixko--
ixte--
ixtel--
ixtla--
iye--
iyo--
iz--
izta--
iztac--
j--
ja--
je--
jeho--
ji--
jihua--
jo--
jorn--
json--
ju--
juve--
k--
ka--
kaj--
kak--
kal--
kamoj--
kana--
kanata--
kastiah--
kate--
kato--
kau--
kaxti--
kaxtilteka--
ke--
ken--
kets--
key--
kh--
ki--
kiih--
kiix--
kij--
kiku--
kil--
kilo--
kin--
kipa--
kipi--
kir--
kise--
kite--
kiteki--
kito--
kitoka--
kits--
kiyo--
kn--
ko--
koa--
koaj--
koj--
koko--
kol--
kopal--
koskate--
kr--
ku--
kuaj--
kualt--
kuan--
kuau--
kuauj--
kuext--
kuexteka--
kur--
kw--
kwaw--
l--
la--
lab--
lad--
lalax--
lan--
lao--
lar--
las--
last--
latin--
lay--
lc--
lca--
lchi--
lcua--
le--
lebb--
lectr--
leg--
legio--
leo--
let--
ley--
li--
lih--
liliz--
limoj--
lin--
link--
lino--
lis--
list--
lite--
liz--
lko--
ll--
lla--
llah--
lli--
llo--
lloh--
lma--
lme--
ln--
lo--
loa--
loc--
lockdb--
login--
long--
lop--
lore--
lpa--
lpan--
lpix--
lpo--
lt--
lte--
lti--
lu--
lua--
luc--
lv--
ly--
m--
ma--
mac--
maca--
mace--
macehual--
mach--
macro--
macuil--
macuilpo--
madr--
mag--
mah--
mahce--
mahcehual--
mahoma--
mahtlac--
mahui--
mahuiz--
mai--
mailno--
main--
maj--
mal--
malaca--
mam--
mama--
mamen--
man--
manzana--
map--
mapa--
mar--
mara--
mari--
maria--
mas--
masa--
masew--
mat--
matlak--
matlal--
matlatzi--
mats--
max--
maxali--
may--
maya--
maza--
mb--
mc--
me--
meca--
med--
mega--
megal--
mei--
meji--
mela--
men--
mephit--
mer--
meridi--
mes--
met--
metz--
mex--
mexcal--
mexica--
mexih--
mexihco--
mexika--
mexiko--
mexko--
mez--
mi--
mia--
mic--
mich--
micha--
michi--
micro--
microce--
mictlan--
mid--
midl--
mie--
mih--
mihcua--
mihka--
miho--
mij--
mil--
millah--
min--
miqui--
mir--
mira--
mis--
mispe--
missing--
miste--
mit--
mitz--
mix--
mixteca--
miya--
miz--
mizqui--
ml--
mm--
mo--
moa--
moc--
moce--
mocenca--
mochan--
mochi--
mocua--
modi--
modulo--
moha--
moi--
moih--
moj--
mol--
moma--
momotla--
mon--
mona--
mone--
monehne--
mono--
mont--
monte--
mopa--
mopal--
moque--
moqui--
mor--
morm--
mos--
mosen--
mote--
motenyoh--
motequi--
motla--
motlah--
moto--
motzo--
move--
mox--
moye--
moyetz--
moyo--
moz--
mpan--
mu--
mul--
multi--
mun--
mura--
mus--
muss--
musul--
my--
n--
na--
naca--
nah--
nahua--
naka--
nal--
nam--
nama--
name--
namic--
nan--
nana--
nar--
nau--
nav--
navahot--
nb--
nca--
ncua--
nd--
nde--
ne--
neahui--
nec--
nece--
nececel--
nechi--
neder--
neer--
neh--
nehne--
nehu--
nei--
nej--
nek--
nel--
nemane--
nemegto--
nen--
nene--
nenohmah--
neo--
nept--
net--
nete--
netla--
netlacuitla--
netlatene--
neuc--
new--
nex--
nexpan--
neza--
ng--
ni--
nic--
nicpa--
nictequi--
nig--
nih--
nil--
nimitz--
nin--
nitla--
niyuhcate--
niz--
nl--
nm--
nn--
no--
nocon--
noh--
non--
none--
nor--
norm--
normand--
nos--
not--
note--
notla--
nov--
nqui--
ns--
nscrito--
nt--
nta--
nte--
nti--
ntla--
ntli--
nu--
nuo--
nv--
nyoh--
o--
ob--
obs--
obtener--
oc--
ocah--
oce--
ocelo--
och--
ocu--
ocuil--
od--
of--
off--
oh--
ohu--
ohuih--
oix--
oj--
ok--
ol--
old--
oli--
olo--
oly--
om--
oma--
ome--
omo--
omonohmah--
ompo--
ompoaltzi--
on--
ona--
one--
onya--
oo--
opa--
opc--
ope--
opeh--
ophi--
opoch--
oqui--
oquichi--
oquinel--
oquintla--
or--
ori--
orni--
ornith--
oro--
os--
ot--
ote--
oteco--
otic--
otica--
otla--
otlaix--
oto--
otompa--
oton--
ou--
out--
outer--
ove--
over--
oya--
oz--
ozto--
p--
pa--
pac--
pach--
pag--
pah--
paht--
pai--
pak--
pal--
palae--
pale--
pame--
pan--
pani--
pano--
papa--
par--
para--
pas--
pata--
patr--
pe--
peder--
pehp--
pelo--
pelon--
pen--
pepe--
per--
persa--
peru--
pes--
pha--
pho--
phy--
pi--
pia--
pic--
pichi--
picto--
pie--
pig--
pih--
pil--
pimie--
pin--
pina--
pino--
pio--
pipil--
pit--
pitzo--
pixca--
pl--
pla--
po--
poal--
poaltzi--
poaltzin--
pob--
poch--
poe--
poh--
pohua--
pol--
poli--
polo--
pos--
poyauh--
pp--
pr--
pra--
pre--
prece--
pri--
print--
pro--
proce--
propu--
provi--
ps--
pseu--
pt--
pu--
pub--
pul--
pur--
px--
py--
q--
qa--
qha--
qu--
que--
quech--
quetzal--
qui--
quia--
quiahxi--
quic--
quicem--
quichih--
quicno--
quico--
quih--
quihuel--
quil--
quiliz--
quim--
quima--
quimez--
quimi--
quimixih--
quimocu--
quimoix--
quimoma--
quimot--
quimotla--
quin--
quinalquizca--
quine--
quipa--
quipo--
quiqui--
quir--
quite--
quiteona--
quitla--
quitle--
quitzi--
quitzitz--
quitzonte--
quix--
quixih--
quixo--
quiye--
quiyo--
quiyuh--
r--
ra--
rabe--
radi--
rag--
rai--
rank--
rat--
rau--
raw--
ray--
re--
read--
recent--
reci--
reco--
red--
ree--
reem--
ref--
reg--
rena--
render--
req--
res--
resuc--
ret--
rho--
rhy--
ri--
rie--
rm--
rn--
ro--
robu--
rose--
rou--
rs--
rt--
ru--
rusia--
ruso--
s--
sa--
sacer--
salv--
sam--
san--
sapp--
sar--
satur--
saxo--
sch--
schr--
sci--
sco--
scri--
se--
sea--
search--
seg--
semi--
sen--
ser--
ses--
set--
sh--
shu--
si--
sie--
sil--
sim--
sin--
sk--
skł--
sl--
sli--
slo--
small--
so--
sobre--
sol--
son--
sor--
sorab--
sov--
sp--
spa--
spec--
sphe--
spino--
sr--
ss--
st--
sta--
ste--
sten--
sti--
str--
stu--
su--
sub--
suecia--
sufi--
suiza--
sul--
sulai--
sulp--
sun--
sur--
sus--
sv--
sw--
sy--
syn--
sze--
t--
ta--
tab--
tabla--
table--
tah--
taino--
taj--
tal--
talk--
talkpage--
tam--
tamazight--
tamij--
tan--
tapa--
tar--
tarahumara--
tash--
tat--
tata--
tax--
taxo--
tay--
tayec--
tayic--
te--
tec--
teca--
tecciz--
tech--
teco--
tecpil--
tecua--
tecuacan--
tecuanixa--
teh--
tehu--
tehuel--
tehuil--
teicno--
teix--
tejo--
teki--
teko--
tekpa--
tekpil--
tekw--
tel--
tele--
tem--
tema--
temic--
temo--
temp--
ten--
tena--
tenam--
tenan--
teno--
tentzon--
tenyoh--
teo--
teoamox--
teocuitla--
teopan--
teopixca--
tepa--
tepacho--
tepan--
tepe--
tepo--
tepotz--
tepoz--
tepoza--
tepoztla--
tequi--
ter--
tera--
term--
termino--
tern--
terre--
tete--
tetl--
tetlacahcahui--
tetlal--
tetlama--
tetlanel--
tetlaocoli--
tetlapi--
tetlauh--
tetlehco--
tetlehcoaqui--
teto--
tetrago--
tetz--
tetza--
tetzo--
teuc--
tex--
texatle--
teyaotl--
teyo--
tezca--
tezo--
th--
the--
ti--
tia--
tiberia--
tic--
tica--
ticcual--
tidyval--
tih--
tihua--
tij--
tijn--
tik--
timitztlatla--
timo--
tin--
tio--
tip--
titla--
tiya--
tiz--
tl--
tla--
tlaa--
tlac--
tlaca--
tlacallo--
tlacane--
tlacenca--
tlachih--
tlaco--
tlacui--
tlah--
tlahco--
tlahto--
tlahtol--
tlahuehca--
tlahui--
tlai--
tlaic--
tlaixmati--
tlaj--
tlaka--
tlaku--
tlal--
tlali--
tlalnam--
tlama--
tlamace--
tlamah--
tlamahuiz--
tlan--
tlana--
tlane--
tlani--
tlao--
tlapa--
tlapal--
tlapapa--
tlape--
tlapi--
tlapil--
tlaqui--
tlat--
tlate--
tlatequi--
tlatla--
tlato--
tlatsohts--
tlatzi--
tlatzo--
tlatzoht--
tlatzonte--
tlax--
tlaxca--
tlaxe--
tlaxi--
tlaxkal--
tlayahual--
tlayo--
tlayolih--
tlaza--
tlazo--
tle--
tlen--
tli--
tlo--
to--
toc--
toca--
tochn--
tohto--
toj--
toka--
tokn--
tolte--
toma--
tome--
tomi--
tomin--
ton--
tona--
tonal--
top--
topil--
tor--
tort--
totla--
toto--
toza--
tr--
tra--
tradu--
trans--
tri--
tril--
trip--
tro--
tru--
ts--
tsaj--
tselt--
tt--
tu--
tur--
tw--
ty--
type--
tz--
tza--
tzahtzi--
tzatza--
tzi--
tzin--
tziqui--
tzo--
tzomocquiz--
tzon--
tzonte--
u--
ua--
uc--
uej--
ueu--
ueuej--
uey--
ueyi--
uh--
uhtla--
uits--
uitzi--
uk--
ul--
ultima--
um--
un--
unic--
unter--
up--
ur--
uro--
urua--
us--
use--
user--
ut--
ute--
util--
utiliz--
uz--
v--
va--
val--
van--
var--
vasco--
ve--
vec--
veget--
venez--
venezia--
ver--
verte--
vi--
via--
view--
viki--
vil--
vira--
vis--
vla--
vo--
vor--
vos--
vul--
w--
wa--
wahka--
wal--
wan--
war--
watchno--
waxte--
we--
web--
weh--
wehka--
weyi--
wi--
wiki--
wil--
wo--
wu--
x--
xa--
xahca--
xal--
xant--
xca--
xco--
xe--
xexe--
xexeli--
xi--
xic--
xicca--
xicmo--
xih--
xik--
ximo--
xin--
xina--
xitto--
xiuh--
xo--
xochi--
xochixa--
xoco--
xoko--
xoxo--
xoxoco--
xti--
xtla--
y--
ya--
yaca--
yagu--
yah--
yaj--
yancuic--
yao--
yaotl--
yaqui--
yax--
yc--
ye--
yec--
yeh--
yei--
yeru--
yet--
yi--
yic--
yn--
yo--
yoh--
yohua--
yok--
yol--
yolca--
yoliliz--
yolka--
yollo--
yolo--
your--
ytla--
yu--
yuh--
yukate--
z--
za--
zan--
zanil--
zapa--
zayol--
zb--
zca--
ze--
zh--
zi--
zo--
zolco--
zoo--
zoque--
zor--
zu--
þ--
đ--
ł--
γ--
δ--
ελ--
θε--
λ--
μ--
ν--
ο--
π--
ρ--
σ--
τ--
б--
в--
ва--
вики--
д--
дан--
ж--
к--
кири--
н--
ре--
рус--
с--
со--
стра--
т--
у--
ב--
ש--
الق--
د--
نا--
و--
न--
म--
ष--
--0
--00
--07
--1
--10
--13
--17
--18
--2
--22
--26
--29
--3
--36
--37
--38
--4
--41
--44
--45
--5
--50
--52
--56
--6
--62
--69
--7
--74
--77
--78
--79
--8
--81
--9
--92
--93
--95
--97
--98
--99
--a
--aa
--aat
--ab
--able
--ably
--ac
--aca
--acah
--acameh
--acatl
--ach
--ache
--acio
--ad
--ada
--ado
--ador
--ados
--ae
--ah
--ahcuilolli
--ahto
--ahtocayotl
--ahtol
--ahtolli
--ahua
--ahuiliz
--ai
--aixco
--aj
--ajtoanij
--ajtoli
--ajtolji
--ak
--aktli
--al
--ala
--alca
--ales
--ali
--aliz
--aliztli
--alli
--ally
--alo
--alpan
--alue
--am
--amantli
--ame
--amente
--ampa
--an
--ana
--ance
--and
--ani
--animeh
--anko
--ano
--ant
--antli
--ao
--aon
--ap
--apa
--apaloa
--apan
--apo
--apoalli
--ar
--arator
--ard
--arg
--argname
--ari
--arse
--article
--as
--asaura
--asaurus
--at
--ata
--ate
--atelli
--ath
--ati
--atia
--ating
--ation
--ations
--ativo
--atl
--ato
--ator
--atum
--atzin
--au
--aur
--aurus
--ava
--aw
--ax
--ay
--aya
--ayah
--ayoh
--ayotl
--az
--b
--ba
--bas
--be
--bel
--ber
--bi
--bis
--bite
--ble
--bo
--boat
--box
--bre
--btn
--burg
--bus
--by
--c
--ca
--cac
--cah
--cal
--calli
--camati
--camayeh
--cameh
--can
--cani
--caqui
--car
--cargo
--cas
--catl
--catzin
--cauh
--cayo
--cayotl
--caz
--ccan
--ccauh
--ccio
--cco
--ce
--cea
--ceae
--ceh
--celih
--cer
--cera
--ceratops
--cervulus
--cfg
--ch
--cha
--che
--check
--chi
--cho
--choh
--chouh
--cht
--chti
--chtic
--chtih
--chtli
--chu
--ci
--cia
--cic
--cihua
--cina
--cino
--cinus
--cio
--cion
--ciones
--cito
--ciz
--ck
--class
--co
--coatl
--coc
--coh
--col
--con
--convalor
--copa
--coz
--cpa
--cque
--cqueh
--cqui
--ct
--cta
--ctic
--ctli
--ctu
--cua
--cuah
--cuepaliz
--cui
--cuilo
--cuiloh
--cum
--cus
--cusio
--cut
--cy
--d
--da
--dad
--dae
--dar
--das
--dato
--day
--db
--de
--dea
--des
--di
--dia
--dichosos
--dio
--diya
--do
--don
--dor
--doro
--dos
--dra
--dro
--ds
--dt
--duccio
--dum
--dy
--e
--ea
--eae
--ear
--eca
--ecah
--ecan
--ecatl
--eco
--ection
--ed
--edia
--edit
--ee
--eer
--ef
--ega
--eh
--ehua
--ei
--ein
--ej
--ejo
--ejos
--ek
--eki
--el
--electoral
--em
--ema
--emi
--empleador
--en
--enc
--encia
--end
--enia
--eno
--ens
--ense
--ensis
--ent
--entar
--eo
--epe
--equi
--er
--era
--eratops
--erg
--eri
--ering
--ern
--ero
--eros
--error
--ers
--erse
--erungen
--erver
--eryx
--es
--et
--eta
--etes
--etl
--ets
--ette
--etus
--eus
--ewanih
--ex
--exa
--ey
--eyo
--ez
--f
--fa
--fe
--ff
--fi
--file
--flag
--fold
--fornia
--from
--ft
--ful
--g
--ga
--gacio
--gal
--gan
--gar
--gas
--ge
--ged
--gen
--ger
--ges
--gh
--gi
--gia
--gio
--gle
--gles
--gne
--go
--gosaurus
--gra
--grafi
--graphy
--gro
--gs
--gu
--gue
--gy
--h
--ha
--hca
--hcan
--hcatl
--hcauh
--hcayotl
--hci
--hcico
--hco
--hcoliz
--he
--head
--her
--here
--hi
--hico
--hij
--hkayomeh
--hkeh
--hki
--hl
--hma
--hnamictih
--ho
--hol
--hpa
--hque
--hqueh
--hs
--ht
--hten
--htetl
--htia
--htic
--htin
--htla
--htlahto
--htli
--hto
--htoa
--htoah
--htoca
--htohcayotl
--htohkayotl
--htol
--htolli
--htzin
--hua
--huac
--huacayotl
--huah
--hual
--hualeh
--huan
--huatl
--hue
--hueli
--hui
--huia
--huiah
--huic
--huih
--huili
--huini
--huitl
--huiz
--hus
--hya
--hyllum
--hyo
--hzo
--i
--ia
--iah
--iaj
--ian
--iana
--ianum
--ias
--ibi
--ic
--ica
--ical
--ico
--ics
--ict
--icti
--icue
--id
--ida
--idad
--idades
--idae
--ides
--ido
--idx
--ie
--ied
--iel
--ienda
--ier
--ieri
--ies
--ificacio
--ifolium
--ight
--ih
--ihki
--ii
--ij
--ija
--iji
--ijke
--ik
--ika
--iki
--iko
--il
--ili
--ilia
--ilih
--ililli
--ilio
--ilis
--iliz
--illa
--iller
--illi
--illo
--ilo
--iloc
--im
--image
--ime
--imeh
--imej
--img
--imus
--in
--ina
--inae
--ine
--ing
--ings
--ini
--inin
--io
--ion
--ios
--ip
--iptext
--ir
--ire
--is
--isaurus
--isch
--ise
--iskeh
--ism
--ismo
--ista
--istli
--it
--ita
--ite
--itih
--itl
--ito
--itud
--ity
--iu
--iuh
--iuj
--ium
--ius
--iva
--ive
--ix
--ixin
--ixiptla
--iz
--iza
--ize
--ized
--izotl
--iztli
--j
--ja
--je
--jes
--ji
--jka
--jke
--jkej
--jki
--jko
--jli
--jmej
--jo
--jto
--jtok
--jtol
--jtoli
--jtolji
--k
--ka
--kah
--kaj
--kak
--kaka
--kameh
--kamej
--kan
--kat
--katl
--katze
--kaua
--kayo
--ke
--keh
--kej
--ken
--ker
--ketl
--key
--ki
--kia
--kij
--ko
--kojtli
--kopa
--kos
--kpa
--ks
--ktik
--ku
--kua
--kuasej
--kwepa
--kwik
--ky
--l
--la
--lac
--lacatl
--lah
--lahto
--lajtolji
--lalpan
--lan
--land
--lape
--lardo
--laris
--las
--late
--layotl
--lcal
--lcan
--lco
--lcopa
--ld
--lda
--le
--leh
--lehuia
--lejo
--lela
--ler
--les
--lf
--lhuan
--lhui
--li
--lia
--liah
--liani
--lica
--lidae
--lih
--lihqui
--lij
--lili
--lilia
--liliz
--lilli
--liloc
--liloca
--lina
--line
--link
--lio
--lion
--lis
--list
--listli
--litih
--litl
--liuh
--liui
--liz
--lize
--lizotl
--lizpan
--lizque
--liztin
--liztli
--liztzin
--lizzo
--lk
--ll
--lla
--llan
--lle
--lli
--llia
--llin
--llli
--llo
--llotl
--lly
--lme
--lmej
--lo
--loa
--loani
--loc
--loca
--log
--logentry
--logi
--logpage
--logtext
--loh
--lok
--lon
--loni
--lophosaurus
--loqueh
--lor
--los
--losaurus
--lot
--lotl
--loyan
--loz
--lpan
--lpo
--ls
--lt
--lta
--lte
--lti
--ltia
--ltiah
--ltic
--ltica
--ltih
--ltihqueh
--ltij
--ltik
--ltil
--ltiliz
--ltilli
--ltin
--ltitlan
--ltiz
--lto
--lty
--lu
--luaj
--luan
--lus
--lvo
--ly
--lza
--m
--ma
--macac
--mah
--mal
--man
--manca
--map
--mas
--matiliz
--matl
--me
--meh
--mej
--ment
--mente
--mento
--mer
--method
--mi
--miento
--mih
--mili
--mimus
--mitl
--miyo
--miz
--mma
--mo
--moa
--moaya
--moli
--mor
--mos
--mosaurus
--mp
--mpa
--mpan
--mpo
--mum
--mus
--mx
--n
--na
--naca
--nae
--nah
--naka
--nal
--nalistli
--name
--namic
--namiquiliz
--nan
--nar
--nari
--naria
--nas
--nato
--nator
--naz
--nc
--nca
--nce
--ncho
--nco
--nd
--nda
--nde
--ndi
--ndo
--ne
--ned
--nense
--ner
--nes
--neuh
--ney
--nezqui
--ng
--ngen
--ngo
--ngosaurus
--ni
--nia
--niah
--nic
--nih
--nii
--nik
--nimeh
--nin
--nio
--nis
--nium
--nk
--nkistli
--nky
--nmeh
--nn
--nne
--nnia
--nnii
--no
--noa
--nohkiya
--nok
--nor
--nos
--nosaurus
--notlahtolli
--notlakamej
--nowkiya
--nozo
--nqui
--ns
--nsa
--nsaurus
--nse
--nsis
--nt
--nta
--ntal
--nte
--nti
--ntia
--ntik
--ntilli
--ntiltin
--ntin
--ntla
--ntli
--ntly
--nto
--ntro
--nts
--nu
--num
--numero
--nums
--nus
--ny
--nykus
--nyo
--nyx
--o
--oa
--oani
--oatl
--oaya
--oba
--oc
--oca
--ock
--oco
--ocol
--odon
--oe
--ografi
--oh
--ohnotz
--ohnotza
--oi
--oj
--oji
--ok
--oke
--ol
--oliztli
--olli
--olus
--om
--omeh
--omome
--on
--once
--one
--ong
--oni
--onia
--onimeh
--only
--onn
--oo
--op
--opa
--ops
--opus
--or
--ore
--origin
--ornis
--ort
--orum
--os
--osa
--osaurus
--osuchus
--osum
--ot
--ota
--otia
--otiah
--otih
--otl
--ou
--oua
--ource
--ous
--out
--ov
--ova
--ows
--ox
--oya
--oyo
--oyotl
--p
--pa
--pac
--page
--pages
--pagetext
--pais
--paj
--pal
--palli
--pan
--panahuih
--panolli
--patl
--pe
--pec
--pedia
--pek
--pelta
--ph
--phale
--phalus
--phus
--pi
--pia
--pidae
--pil
--pili
--pilli
--ping
--plosaurus
--po
--poal
--poaliz
--poani
--poda
--pol
--pouh
--poz
--prefs
--premiadapor
--ps
--pt
--ptor
--pu
--pus
--q
--qua
--que
--queh
--quemi
--quetz
--qui
--quia
--quih
--quihto
--quilih
--quiliz
--quilli
--quillo
--quiti
--quitl
--quiuh
--quixtia
--quixtiliz
--quiz
--r
--ra
--rada
--rado
--ral
--rama
--raptor
--rar
--ras
--ration
--rc
--rca
--rce
--rd
--rdi
--rdo
--re
--res
--reum
--rev
--rg
--ri
--ria
--rian
--rid
--right
--rio
--rios
--ris
--rit
--rium
--rix
--rk
--rlo
--rmatidae
--rme
--rn
--rne
--rnis
--ro
--roides
--ron
--ropus
--ros
--row
--rr
--rra
--rro
--rry
--rs
--rse
--rt
--rta
--rte
--rto
--ru
--rum
--rus
--ry
--s
--sa
--saurio
--saurus
--sc
--sca
--sche
--se
--seh
--sej
--sel
--self
--sent
--seo
--ses
--seya
--sh
--shi
--shire
--si
--sia
--sii
--sin
--sio
--sion
--sis
--sita
--sius
--siva
--sive
--sk
--ska
--ske
--skej
--ski
--smo
--so
--son
--sos
--sque
--ss
--sse
--sson
--st
--sta
--ste
--ster
--sti
--stli
--sto
--sts
--style
--su
--sub
--sum
--sus
--sville
--t
--ta
--tado
--tahcic
--tak
--tal
--tan
--tana
--tar
--tas
--tasi
--tatus
--tca
--tch
--te
--tecah
--tecameh
--tecatl
--teco
--ted
--teh
--tekatl
--ten
--teo
--tepec
--ter
--tes
--tetl
--teuh
--text
--texto
--th
--tha
--the
--thispage
--thosaurus
--thus
--ti
--tia
--tiah
--tiaj
--tiaya
--tic
--tica
--tih
--tij
--tijkauan
--tik
--tika
--tili
--tilia
--tiliz
--tiliztli
--tilli
--tilo
--time
--tin
--ting
--tini
--tion
--tions
--tipan
--tismo
--title
--tito
--tiuh
--tive
--tivos
--tiyo
--tiz
--tk
--tl
--tla
--tlacah
--tlacatl
--tlah
--tlahto
--tlahtolli
--tlali
--tlalih
--tlalli
--tlalpan
--tlampa
--tlan
--tle
--tli
--tly
--to
--toa
--toaj
--toc
--toca
--tocaitl
--tocani
--toh
--toimage
--tok
--tokajyomej
--tokayo
--tol
--toliz
--tolli
--tomars
--tomitl
--ton
--tops
--tor
--tori
--tos
--tosaurus
--totl
--town
--toya
--tqui
--tri
--tribs
--tris
--ts
--tsa
--tsaj
--tsch
--tsi
--tsij
--tsin
--tsinko
--tsk
--tta
--ttac
--ttah
--ttani
--ttaque
--tte
--tti
--tto
--tu
--tum
--tur
--tura
[...]
